{
  "id2token": {
    "0": "\n",
    "1": " ",
    "2": "!",
    "3": "#",
    "4": "$",
    "5": "%",
    "6": "'",
    "7": "(",
    "8": ")",
    "9": "*",
    "10": "+",
    "11": ",",
    "12": "-",
    "13": ".",
    "14": "/",
    "15": "0",
    "16": "1",
    "17": "2",
    "18": "3",
    "19": "4",
    "20": "5",
    "21": "6",
    "22": "7",
    "23": "8",
    "24": "9",
    "25": ":",
    "26": ";",
    "27": "=",
    "28": "?",
    "29": "@",
    "30": "A",
    "31": "B",
    "32": "C",
    "33": "D",
    "34": "E",
    "35": "F",
    "36": "G",
    "37": "H",
    "38": "I",
    "39": "J",
    "40": "K",
    "41": "L",
    "42": "M",
    "43": "N",
    "44": "O",
    "45": "P",
    "46": "Q",
    "47": "R",
    "48": "S",
    "49": "T",
    "50": "U",
    "51": "V",
    "52": "W",
    "53": "X",
    "54": "Y",
    "55": "Z",
    "56": "\\",
    "57": "^",
    "58": "_",
    "59": "`",
    "60": "a",
    "61": "b",
    "62": "c",
    "63": "d",
    "64": "e",
    "65": "f",
    "66": "g",
    "67": "h",
    "68": "i",
    "69": "j",
    "70": "k",
    "71": "l",
    "72": "m",
    "73": "n",
    "74": "o",
    "75": "p",
    "76": "q",
    "77": "r",
    "78": "s",
    "79": "t",
    "80": "u",
    "81": "v",
    "82": "w",
    "83": "x",
    "84": "y",
    "85": "z",
    "86": "{",
    "87": "|",
    "88": "}",
    "89": "~",
    "90": "<|endoftext|>",
    "91": "<pad>",
    "92": "K.",
    "93": "de",
    "94": "der",
    "95": "dern",
    "96": "ls",
    "97": "us",
    "98": "uss",
    "99": "ussi",
    "100": "ussia",
    "101": "um",
    "102": "ume",
    "103": "umed",
    "104": "umed ",
    "105": "ti",
    "106": "tit",
    "107": "oc",
    "108": "til",
    "109": "tili",
    "110": "ur",
    "111": "urt",
    "112": "urth",
    "113": " b",
    "114": " br",
    "115": "vi",
    "116": "vid",
    "117": "vide",
    "118": "viden",
    "119": "ze",
    "120": "zed",
    "121": "ak",
    "122": "ake",
    "123": "ra",
    "124": "rac",
    "125": "ract",
    "126": "racte",
    "127": "racter",
    "128": "vie",
    "129": "fi",
    "130": "fir",
    "131": "em",
    "132": "emb",
    "133": "st",
    "134": "sto",
    "135": "stot",
    "136": "ni",
    "137": "nis",
    "138": "3 ",
    "139": "3 -",
    "140": "3 - ",
    "141": "er",
    "142": "erg",
    "143": "da",
    "144": "dar",
    "145": "un",
    "146": "unc",
    "147": "ve",
    "148": "ved",
    "149": "ro",
    "150": "rou",
    "151": "roug",
    "152": "we",
    "153": "gh",
    "154": "gha",
    "155": "f.",
    "156": "ol",
    "157": "if",
    "158": "ifi",
    "159": "ifie",
    "160": "ified",
    "161": "Bo",
    "162": "po",
    "163": "pos",
    "164": "pose",
    "165": "poser",
    "166": "ar",
    "167": "ara",
    "168": "arac",
    "169": "aract",
    "170": "sc",
    "171": "sco",
    "172": "di",
    "173": "dic",
    "174": "lg",
    "175": "lga",
    "176": "lgar",
    "177": "au",
    "178": "aus",
    "179": "aust",
    "180": "ri",
    "181": "ril",
    "182": "od",
    "183": "odh",
    "184": "tr",
    "185": "oo",
    "186": "ook",
    "187": "ook ",
    "188": "U,",
    "189": "U, ",
    "190": "il",
    "191": "ill",
    "192": "ill ",
    "193": "no",
    "194": "nom",
    "195": "Pa",
    "196": "-1",
    "197": "-18",
    "198": "ne",
    "199": "nel",
    "200": "ump",
    "201": "el",
    "202": "elt",
    "203": "eltr",
    "204": "Af",
    "205": "Afg",
    "206": "Afgh",
    "207": "Afgha",
    "208": "mb",
    "209": "mbe",
    "210": "ea",
    "211": "eal",
    "212": "ela",
    "213": "8,",
    "214": "8, ",
    "215": "//",
    "216": "av",
    "217": "ave",
    "218": "aven",
    "219": "ems",
    "220": "ria",
    "221": "En",
    "222": "Eng",
    "223": "Engl",
    "224": "ns",
    "225": "ns ",
    "226": "-E",
    "227": "-En",
    "228": "-Eng",
    "229": "-Engl",
    "230": "al",
    "231": "alv",
    "232": "alva",
    "233": "alvad",
    "234": "alvado",
    "235": "le",
    "236": "leg",
    "237": "lege",
    "238": "lo",
    "239": "loy",
    "240": "y ",
    "241": "rf",
    "242": "rfo",
    "243": "rfor",
    "244": "as",
    "245": "ast",
    "246": "asta",
    "247": "8)",
    "248": "ma",
    "249": "mal",
    "250": "mall",
    "251": "tio",
    "252": "tion",
    "253": " (",
    "254": " (b",
    "255": " (b.",
    "256": "ct",
    "257": "ctu",
    "258": "os",
    "259": "osa",
    "260": "osau",
    "261": "osaur",
    "262": "rv",
    "263": "rvi",
    "264": "rvic",
    "265": "rvice",
    "266": "C,",
    "267": "C, ",
    "268": "roq",
    "269": "roqu",
    "270": "an",
    "271": "ang",
    "272": "ange",
    "273": "angel",
    "274": "to",
    "275": "tob",
    "276": "ir",
    "277": "irs",
    "278": "irst",
    "279": "ac",
    "280": "ace",
    "281": "mp",
    "282": "mpi",
    "283": "mpio",
    "284": "mpion",
    "285": "Be",
    "286": "Bea",
    "287": "WI",
    "288": "WII",
    "289": "za",
    "290": "zat",
    "291": "ll",
    "292": "lli",
    "293": "llin",
    "294": "lling",
    "295": "TR",
    "296": "TRT",
    "297": "uc",
    "298": "uct",
    "299": "rg",
    "300": "rge",
    "301": "g ",
    "302": "g K",
    "303": "g Ko",
    "304": "ic",
    "305": "icu",
    "306": "icul",
    "307": "icult",
    "308": "n-",
    "309": "roun",
    "310": "round",
    "311": "D.",
    "312": "in",
    "313": "ini",
    "314": "init",
    "315": "initi",
    "316": "initio",
    "317": "inition",
    "318": "na",
    "319": "nal",
    "320": "nall",
    "321": "nally",
    "322": "is",
    "323": "isc",
    "324": "iscu",
    "325": "iscus",
    "326": "el ",
    "327": "asi",
    "328": "asio",
    "329": "asion",
    "330": "ba",
    "331": "bab",
    "332": "ge",
    "333": "gen",
    "334": "genc",
    "335": "ki",
    "336": "kin",
    "337": "hu",
    "338": "hur",
    "339": "hurs",
    "340": "hursa",
    "341": "3 /",
    "342": "3 /s",
    "343": "/k",
    "344": "/kg",
    "345": "rot",
    "346": "roth",
    "347": "rothe",
    "348": "ot",
    "349": "oth",
    "350": "othe",
    "351": "eas",
    "352": "easu",
    "353": "easur",
    "354": "ose",
    "355": "ose ",
    "356": "sl",
    "357": "sla",
    "358": "gel",
    "359": "Cz",
    "360": "Cze",
    "361": "Czec",
    "362": "Czech",
    "363": "ov",
    "364": "ovi",
    "365": "ovie",
    "366": "oviet",
    "367": "sti",
    "368": "stic",
    "369": "tt",
    "370": "Da",
    "371": "Dan",
    "372": "Dani",
    "373": "Danie",
    "374": "Daniel",
    "375": "ct ",
    "376": "ng",
    "377": "ngu",
    "378": "(d",
    "379": "(d.",
    "380": "en",
    "381": "ent",
    "382": "ents",
    "383": "if ",
    "384": "yl",
    "385": "yle",
    "386": "my",
    "387": "my ",
    "388": "ngl",
    "389": "ngle",
    "390": "ap",
    "391": "apa",
    "392": "stit",
    "393": "ai",
    "394": "ais",
    "395": "Xo",
    "396": "Xoa",
    "397": "Xoan",
    "398": "ere",
    "399": "ere ",
    "400": "rae",
    "401": "dr",
    "402": "dre",
    "403": "Ha",
    "404": "Har",
    "405": "Harb",
    "406": "Harbo",
    "407": "4,",
    "408": "4, ",
    "409": "ch",
    "410": "cha",
    "411": "chan",
    "412": "chani",
    "413": "ant",
    "414": "^{",
    "415": "aii",
    "416": "pt",
    "417": "pti",
    "418": "ou",
    "419": "oug",
    "420": "kn",
    "421": "kno",
    "422": "know",
    "423": "known",
    "424": "2 ",
    "425": "2 /",
    "426": "2 /s",
    "427": "ke",
    "428": "ked",
    "429": "af",
    "430": "aft",
    "431": "afte",
    "432": "rab",
    "433": "alu",
    "434": "alue",
    "435": "e,",
    "436": "e, ",
    "437": "xt",
    "438": "llo",
    "439": "llow",
    "440": "cto",
    "441": "ctor",
    "442": "gr",
    "443": "gre",
    "444": "gree",
    "445": "TD",
    "446": "TD ",
    "447": "tto",
    "448": "im",
    "449": "imi",
    "450": "imin",
    "451": "ob",
    "452": "obi",
    "453": "obil",
    "454": "cti",
    "455": "ctio",
    "456": "ala",
    "457": "nr",
    "458": "ers",
    "459": "Ma",
    "460": "als",
    "461": "alse",
    "462": "6 ",
    "463": "6 -",
    "464": "bl",
    "465": "bli",
    "466": "Fi",
    "467": "Fin",
    "468": "wi",
    "469": "wic",
    "470": "wich",
    "471": "at",
    "472": "atu",
    "473": "atur",
    "474": "Hay",
    "475": "Hayn",
    "476": "Hayne",
    "477": "ire",
    "478": "irec",
    "479": "irect",
    "480": "pte",
    "481": "ptem",
    "482": "ptemb",
    "483": "-s",
    "484": "-sp",
    "485": "-spe",
    "486": ",:",
    "487": "li",
    "488": "lit",
    "489": "liti",
    "490": "zi",
    "491": "la",
    "492": "lah",
    "493": "laho",
    "494": "mo",
    "495": "moc",
    "496": "mocr",
    "497": "ale",
    "498": "ats",
    "499": "atso",
    "500": "atson",
    "501": "ild",
    "502": "eb",
    "503": "eba",
    "504": "Ve",
    "505": "Ved",
    "506": "Veda",
    "507": "So",
    "508": "Sou",
    "509": "Sout",
    "510": "South",
    "511": "co",
    "512": "co ",
    "513": "xe",
    "514": "nc",
    "515": "nch",
    "516": "wh",
    "517": "who",
    "518": "who ",
    "519": "ote",
    "520": "oter",
    "521": "si",
    "522": "sit",
    "523": "on",
    "524": "oni",
    "525": "onic",
    "526": "Go",
    "527": "Got",
    "528": "Goth",
    "529": "char",
    "530": "chara",
    "531": "charac",
    "532": "charact",
    "533": "fr",
    "534": "fri",
    "535": "fric",
    "536": "frica",
    "537": "Am",
    "538": "Ame",
    "539": "Amer",
    "540": "Ameri",
    "541": "ec",
    "542": "ech",
    "543": "/s",
    "544": "br",
    "545": "bre",
    "546": "brev",
    "547": "yc",
    "548": "ych",
    "549": "ul",
    "550": "nl",
    "551": "nly",
    "552": " w",
    "553": " wi",
    "554": " wit",
    "555": " with",
    "556": "eam",
    "557": "ati",
    "558": "atio",
    "559": "ation",
    "560": "ver",
    "561": "very",
    "562": "very ",
    "563": "cl",
    "564": "cli",
    "565": "clin",
    "566": "se",
    "567": "sel",
    "568": "self",
    "569": "me",
    "570": "mer",
    "571": "meri",
    "572": "it",
    "573": "ith",
    "574": "ithe",
    "575": "p ",
    "576": "p o",
    "577": "p of",
    "578": "p of ",
    "579": "col",
    "580": "coln",
    "581": "yn",
    "582": "it ",
    "583": "2 -",
    "584": "osl",
    "585": "ph",
    "586": "pho",
    "587": "ect",
    "588": "ric",
    "589": "rict",
    "590": "RG",
    "591": "RGB",
    "592": "ran",
    "593": "rs",
    "594": "rsi",
    "595": "rsio",
    "596": "rsion",
    "597": "fin",
    "598": "rod",
    "599": "rop",
    "600": "rope",
    "601": "rat",
    "602": "rate",
    "603": "imp",
    "604": "impo",
    "605": "impor",
    "606": "import",
    "607": "RO",
    "608": "ROM",
    "609": "du",
    "610": "duc",
    "611": "-b",
    "612": "-bo",
    "613": "E ",
    "614": "E b",
    "615": "E br",
    "616": "elp",
    "617": "elp ",
    "618": "lle",
    "619": "lled",
    "620": "og",
    "621": "ogi",
    "622": "ogic",
    "623": "Se",
    "624": "Sec",
    "625": "Seco",
    "626": "Secon",
    "627": "Second",
    "628": "tu",
    "629": "tua",
    "630": "tual",
    "631": "rov",
    "632": "rove",
    "633": "Ke",
    "634": "Ket",
    "635": "Keth",
    "636": "Kethu",
    "637": "ghb",
    "638": "gu",
    "639": "gue",
    "640": "erc",
    "641": "ptid",
    "642": "th",
    "643": "tho",
    "644": "thol",
    "645": "tholi",
    "646": "et",
    "647": "eth",
    "648": "or",
    "649": "orp",
    "650": "orpo",
    "651": "orpor",
    "652": "orpora",
    "653": "wid",
    "654": "widt",
    "655": "width",
    "656": "C)",
    "657": "und",
    "658": "mos",
    "659": "rom",
    "660": "rom ",
    "661": "pe",
    "662": "pee",
    "663": "peed",
    "664": "umen",
    "665": "umeni",
    "666": "umenic",
    "667": "8 ",
    "668": "8 -",
    "669": "litio",
    "670": "ia",
    "671": "ian",
    "672": "ise",
    "673": "isen",
    "674": "isenh",
    "675": "isenho",
    "676": "ad",
    "677": "ada",
    "678": "aday",
    "679": "r*",
    "680": "ld",
    "681": "ldr",
    "682": "ldre",
    "683": "up",
    "684": "ups",
    "685": "lov",
    "686": "al ",
    "687": "rd",
    "688": "rd ",
    "689": "ew",
    "690": "rr",
    "691": "rry",
    "692": "tiv",
    "693": "ear",
    "694": "earc",
    "695": "ab",
    "696": "abo",
    "697": "abor",
    "698": "gl",
    "699": "glo",
    "700": "glob",
    "701": "globa",
    "702": "global",
    "703": "as ",
    "704": "ui",
    "705": "ta",
    "706": "tai",
    "707": "tail",
    "708": "unt",
    "709": "untr",
    "710": "rdw",
    "711": "rdwa",
    "712": "rdwar",
    "713": "rdware",
    "714": "tiona",
    "715": "net",
    "716": "nete",
    "717": "netee",
    "718": "loc",
    "719": "lock",
    "720": "*E",
    "721": "lor",
    "722": "Ea",
    "723": "he",
    "724": "hec",
    "725": "hech",
    "726": "4)",
    "727": "4)*",
    "728": "bu",
    "729": "nt",
    "730": "nty",
    "731": "ste",
    "732": "ova",
    "733": "ci",
    "734": "cie",
    "735": "lu",
    "736": "lus",
    "737": "lusi",
    "738": "iti",
    "739": "itis",
    "740": "cr",
    "741": "cre",
    "742": "cree",
    "743": "creen",
    "744": "tive",
    "745": "nib",
    "746": "eo",
    "747": "eop",
    "748": "eopl",
    "749": "eople",
    "750": "go",
    "751": "gon",
    "752": "id",
    "753": "ide",
    "754": "rb",
    "755": "rbo",
    "756": "rbon",
    "757": "va",
    "758": "rri",
    "759": "rrie",
    "760": "rried",
    "761": ",0",
    "762": ",00",
    "763": "lin",
    "764": "lino",
    "765": "om",
    "766": "oma",
    "767": "omai",
    "768": "omain",
    "769": "Mi",
    "770": "Min",
    "771": "Mini",
    "772": "Minis",
    "773": "Minist",
    "774": "cou",
    "775": "es",
    "776": "esu",
    "777": "esus",
    "778": "io",
    "779": "ion",
    "780": "ie",
    "781": "iec",
    "782": "iece",
    "783": "after",
    "784": "sp",
    "785": "spe",
    "786": "spec",
    "787": "spect",
    "788": "ju",
    "789": "jur",
    "790": "den",
    "791": "dent",
    "792": "alec",
    "793": "alect",
    "794": "ye",
    "795": "yet",
    "796": "niv",
    "797": "ots",
    "798": "otsw",
    "799": "otswa",
    "800": "TV",
    "801": "TV ",
    "802": "nar",
    "803": "narc",
    "804": "ce",
    "805": "ces",
    "806": "cess",
    "807": "lai",
    "808": "laim",
    "809": "iane",
    "810": "ianet",
    "811": "ouv",
    "812": "ouve",
    "813": "ly",
    "814": "lyn",
    "815": "m*",
    "816": "do",
    "817": "dop",
    "818": "doph",
    "819": "4-",
    "820": "4-y",
    "821": "4-ye",
    "822": "4-yea",
    "823": "4-year",
    "824": "erm",
    "825": "erma",
    "826": "rt",
    "827": "rte",
    "828": "rted",
    "829": "i)",
    "830": "abl",
    "831": "able",
    "832": "Un",
    "833": "ut",
    "834": "utl",
    "835": "utle",
    "836": "Al",
    "837": "pi",
    "838": "pid",
    "839": ".)",
    "840": "U.",
    "841": "U.S",
    "842": "U.S.",
    "843": "post",
    "844": "ga",
    "845": "gai",
    "846": "gain",
    "847": "lley",
    "848": "bb",
    "849": "bbi",
    "850": "lig",
    "851": "lign",
    "852": "nin",
    "853": "ning",
    "854": "lled ",
    "855": "by",
    "856": "byt",
    "857": "rar",
    "858": "rre",
    "859": "rren",
    "860": "rga",
    "861": "rgan",
    "862": "the",
    "863": "ee",
    "864": "ee ",
    "865": "ja",
    "866": "jam",
    "867": "cc",
    "868": "ccu",
    "869": "orm",
    "870": "cep",
    "871": "cept",
    "872": "*T",
    "873": "pl",
    "874": " t",
    "875": " to",
    "876": "tz",
    "877": "He",
    "878": "ptu",
    "879": "ptur",
    "880": "pture",
    "881": "rl",
    "882": "lev",
    "883": "leve",
    "884": "level",
    "885": "t ",
    "886": "dam",
    "887": "dame",
    "888": "damen",
    "889": "nd",
    "890": "nda",
    "891": "ndar",
    "892": "ndard",
    "893": "ded",
    "894": "tat",
    "895": "tate",
    "896": "tates",
    "897": "div",
    "898": "divi",
    "899": "divid",
    "900": "dividu",
    "901": "Ju",
    "902": "eau",
    "903": "eaut",
    "904": "mm",
    "905": "mmo",
    "906": "mmon",
    "907": "3 n",
    "908": "3 nd",
    "909": "3 nda",
    "910": "3 ndas",
    "911": "lv",
    "912": "nan",
    "913": "till",
    "914": "ch ",
    "915": "h ",
    "916": "rit",
    "917": "-19",
    "918": " a",
    "919": " as",
    "920": "con",
    "921": "cond",
    "922": "arl",
    "923": "arli",
    "924": "arlia",
    "925": "arliam",
    "926": ") ",
    "927": ") /",
    "928": ") /t",
    "929": "mpl",
    "930": "rp",
    "931": "0 ",
    "932": "0 /",
    "933": "0 /t",
    "934": "ww",
    "935": "wer",
    "936": "were",
    "937": "ed",
    "938": "edo",
    "939": "edon",
    "940": "era",
    "941": "erag",
    "942": "B ",
    "943": "mma",
    "944": "mman",
    "945": "mmand",
    "946": "gar",
    "947": "gare",
    "948": "garet",
    "949": "so",
    "950": "soc",
    "951": "soci",
    "952": "socia",
    "953": "Co",
    "954": "ana",
    "955": "anad",
    "956": "thi",
    "957": "thin",
    "958": "thou",
    "959": "est",
    "960": "esti",
    "961": "estim",
    "962": "FG",
    "963": "FGC",
    "964": "ptis",
    "965": "0-",
    "966": "rito",
    "967": "a.",
    "968": "phe",
    "969": "phen",
    "970": ")*",
    "971": ")*1",
    "972": ")*19",
    "973": "alay",
    "974": "ort",
    "975": "dn",
    "976": "dne",
    "977": "dney",
    "978": "Wo",
    "979": "Wor",
    "980": "ien",
    "981": "iend",
    "982": " f",
    "983": " fi",
    "984": " fic",
    "985": " fict",
    "986": " ficti",
    "987": "yed",
    "988": "ling",
    "989": "Fr",
    "990": "Fra",
    "991": "Fran",
    "992": "plo",
    "993": "DN",
    "994": "DNA",
    "995": "ldi",
    "996": "ldie",
    "997": "ldier",
    "998": "dat",
    "999": "data",
    "1000": ".*",
    "1001": "ave ",
    "1002": "mon",
    "1003": "mong",
    "1004": "ile",
    "1005": "ile ",
    "1006": "are",
    "1007": "are ",
    "1008": "ei",
    "1009": "ein",
    "1010": "eing",
    "1011": "pla",
    "1012": "unci",
    "1013": "uncil",
    "1014": "wa",
    "1015": "war",
    "1016": "pm",
    "1017": "pme",
    "1018": "pmen",
    "1019": "now",
    "1020": "nown",
    "1021": "ray",
    "1022": "ley",
    "1023": "ir ",
    "1024": "mot",
    "1025": "adi",
    "1026": "adin",
    "1027": "(b",
    "1028": "(b.",
    "1029": "(b. ",
    "1030": "SV",
    "1031": "SVC",
    "1032": "bi",
    "1033": "bin",
    "1034": "nce",
    "1035": "nce ",
    "1036": "ish",
    "1037": "pha",
    "1038": "phan",
    "1039": "iz",
    "1040": "ize",
    "1041": "Yo",
    "1042": "You",
    "1043": "gg",
    "1044": "et ",
    "1045": "tim",
    "1046": "dy",
    "1047": "tha",
    "1048": "that",
    "1049": "sod",
    "1050": "ek",
    "1051": "ek ",
    "1052": "5 ",
    "1053": "5 n",
    "1054": "5 nd",
    "1055": "5 nda",
    "1056": "5 ndas",
    "1057": "ict",
    "1058": "le ",
    "1059": "inc",
    "1060": "incl",
    "1061": "inclu",
    "1062": "includ",
    "1063": "Wh",
    "1064": "uma",
    "1065": "uman",
    "1066": "erms",
    "1067": "gge",
    "1068": "gges",
    "1069": "ggest",
    "1070": "cif",
    "1071": "cifi",
    "1072": "tom",
    "1073": "IV",
    "1074": "rm",
    "1075": "rmi",
    "1076": "s ",
    "1077": "s o",
    "1078": "s of",
    "1079": "s of ",
    "1080": "cle",
    "1081": "bil",
    "1082": "bili",
    "1083": "dd",
    "1084": "dde",
    "1085": "dded",
    "1086": "th ",
    "1087": "re",
    "1088": "ren",
    "1089": "renc",
    "1090": "rench",
    "1091": "art",
    "1092": "arti",
    "1093": "vil",
    "1094": "vily",
    "1095": "am",
    "1096": "ame",
    "1097": "ames",
    "1098": "nen",
    "1099": "ow",
    "1100": "owe",
    "1101": "owed",
    "1102": "ic ",
    "1103": "Gr",
    "1104": "Gre",
    "1105": "of",
    "1106": "of-",
    "1107": "ru",
    "1108": "ngd",
    "1109": "ngdo",
    "1110": "mu",
    "1111": "mun",
    "1112": "muni",
    "1113": "ormo",
    "1114": "ormou",
    "1115": "ormous",
    "1116": "rin",
    "1117": "oh",
    "1118": "ohn",
    "1119": "bs",
    "1120": "bse",
    "1121": "bser",
    "1122": "bserv",
    "1123": "asp",
    "1124": "aspa",
    "1125": "aspar",
    "1126": "and",
    "1127": "ande",
    "1128": "ander",
    "1129": "oll",
    "1130": "ollo",
    "1131": "orth",
    "1132": "did",
    "1133": "com",
    "1134": "comp",
    "1135": "fo",
    "1136": "for",
    "1137": "ove",
    "1138": "ok",
    "1139": "oke",
    "1140": "ele",
    "1141": "/m",
    "1142": "/ma",
    "1143": "/mat",
    "1144": "ris",
    "1145": "izo",
    "1146": "izon",
    "1147": "BU",
    "1148": "ord",
    "1149": "orde",
    "1150": "order",
    "1151": "pr",
    "1152": "pre",
    "1153": "pres",
    "1154": "ik",
    "1155": "ike",
    "1156": "itc",
    "1157": "itch",
    "1158": "dit",
    "1159": "vio",
    "1160": "viol",
    "1161": "te",
    "1162": "ter",
    "1163": "tern",
    "1164": "us ",
    "1165": "Ye",
    "1166": "Yel",
    "1167": "Yelt",
    "1168": "cco",
    "1169": "ccor",
    "1170": "ccord",
    "1171": "sa",
    "1172": "sau",
    "1173": "saur",
    "1174": "ie ",
    "1175": "-ba",
    "1176": "tti",
    "1177": "ttin",
    "1178": "tting",
    "1179": "osi",
    "1180": "osit",
    "1181": "/r",
    "1182": "/re",
    "1183": "fu",
    "1184": "rde",
    "1185": "ero",
    "1186": "ett",
    "1187": "ette",
    "1188": "etter",
    "1189": "tro",
    "1190": "yo",
    "1191": "eg",
    "1192": "egi",
    "1193": "egin",
    "1194": "In",
    "1195": "Ind",
    "1196": "mag",
    "1197": "rrel",
    "1198": "tor",
    "1199": "nsi",
    "1200": "nsio",
    "1201": "nsion",
    "1202": "es,",
    "1203": "es, ",
    "1204": "ex",
    "1205": "ext",
    "1206": "ng ",
    "1207": "su",
    "1208": "sul",
    "1209": "sult",
    "1210": "uri",
    "1211": "urin",
    "1212": "uring",
    "1213": "vo",
    "1214": "von",
    "1215": "von ",
    "1216": "ua",
    "1217": "uar",
    "1218": "try",
    "1219": "pis",
    "1220": "piso",
    "1221": "pisod",
    "1222": "hl",
    "1223": "of ",
    "1224": "nge",
    "1225": "nger",
    "1226": "over",
    "1227": "overn",
    "1228": "rti",
    "1229": "rtil",
    "1230": "rtill",
    "1231": "bo",
    "1232": "bod",
    "1233": "uf",
    "1234": "uff",
    "1235": "uffm",
    "1236": "uffma",
    "1237": "exa",
    "1238": "exan",
    "1239": "exand",
    "1240": "bit",
    "1241": "way",
    "1242": "str",
    "1243": "stro",
    "1244": "DT",
    "1245": "DTD",
    "1246": "DTD ",
    "1247": "pa",
    "1248": "ss",
    "1249": "ssa",
    "1250": "ssay",
    "1251": "St",
    "1252": "Sta",
    "1253": "7)",
    "1254": "kr",
    "1255": "kra",
    "1256": "mi",
    "1257": "res",
    "1258": "log",
    "1259": "FS",
    "1260": "FSM",
    "1261": "umb",
    "1262": "sk",
    "1263": "ha",
    "1264": "has",
    "1265": "has ",
    "1266": "sid",
    "1267": "ib",
    "1268": "Fe",
    "1269": "Feb",
    "1270": "hm",
    "1271": "omm",
    "1272": "omma",
    "1273": "omman",
    "1274": "ommand",
    "1275": "les",
    "1276": "lest",
    "1277": "mac",
    "1278": "mach",
    "1279": "machi",
    "1280": "machin",
    "1281": "ag",
    "1282": "agb",
    "1283": "agba",
    "1284": "agbar",
    "1285": "rael",
    "1286": "be",
    "1287": "bel",
    "1288": "ore",
    "1289": "eog",
    "1290": "ome",
    "1291": "bal",
    "1292": "rie",
    "1293": "ries",
    "1294": "ub",
    "1295": "ubl",
    "1296": "uble",
    "1297": "ty",
    "1298": "ty ",
    "1299": "ah",
    "1300": "aha",
    "1301": "mou",
    "1302": "moun",
    "1303": "use",
    "1304": "uses",
    "1305": "uses ",
    "1306": "lis",
    "1307": "arc",
    "1308": "ca",
    "1309": "cag",
    "1310": "cago",
    "1311": "ger",
    "1312": "loo",
    "1313": "lood",
    "1314": "elf",
    "1315": "ura",
    "1316": "Ch",
    "1317": "Chi",
    "1318": "Chin",
    "1319": "ate",
    "1320": "ateg",
    "1321": "No",
    "1322": "Nob",
    "1323": "Nobe",
    "1324": "Nobel",
    "1325": "tain",
    "1326": "lb",
    "1327": "lba",
    "1328": "ich",
    "1329": "Sa",
    "1330": "Sal",
    "1331": "Salv",
    "1332": "Salva",
    "1333": "Salvad",
    "1334": "Salvado",
    "1335": "cat",
    "1336": "io ",
    "1337": "gua",
    "1338": "guag",
    "1339": "eq",
    "1340": "equ",
    "1341": "eque",
    "1342": ".S",
    "1343": "fie",
    "1344": "sper",
    "1345": "spera",
    "1346": "speran",
    "1347": "c_",
    "1348": "Eu",
    "1349": "Eur",
    "1350": "sta",
    "1351": "stan",
    "1352": "or ",
    "1353": "ndy",
    "1354": "and ",
    "1355": "g,",
    "1356": "g, ",
    "1357": "hi",
    "1358": "him",
    "1359": "himm",
    "1360": "himmi",
    "1361": "Y)",
    "1362": "tem",
    "1363": "tems",
    "1364": "Jo",
    "1365": "td",
    "1366": "td ",
    "1367": "jun",
    "1368": "ve ",
    "1369": "VD",
    "1370": "etho",
    "1371": "ethod",
    "1372": "used",
    "1373": "xed",
    "1374": "no ",
    "1375": "oso",
    "1376": "Cor",
    "1377": "Corn",
    "1378": "oom",
    "1379": "rea",
    "1380": "reat",
    "1381": "not",
    "1382": "nota",
    "1383": "notab",
    "1384": "notabl",
    "1385": "ntr",
    "1386": "hit",
    "1387": "hite",
    "1388": "lf",
    "1389": "lf ",
    "1390": "ox",
    "1391": "r=",
    "1392": "nto",
    "1393": "ntol",
    "1394": "roph",
    "1395": "rophe",
    "1396": "se ",
    "1397": " (b. ",
    "1398": " td",
    "1399": " td ",
    "1400": "lan",
    "1401": "pea",
    "1402": "peak",
    "1403": "nn",
    "1404": "nni",
    "1405": "nnia",
    "1406": "ngi",
    "1407": "ngin",
    "1408": "ngine",
    "1409": "so ",
    "1410": "ligh",
    "1411": "light",
    "1412": "Fo",
    "1413": "For",
    "1414": "aken",
    "1415": "wn",
    "1416": "Ac",
    "1417": "6.",
    "1418": "6.j",
    "1419": "6.jp",
    "1420": "6.jpg",
    "1421": "arg",
    "1422": "fl",
    "1423": "wan",
    "1424": " -",
    "1425": " - ",
    "1426": "oss",
    "1427": "ossi",
    "1428": "ossib",
    "1429": "Ca",
    "1430": "Cam",
    "1431": "Camb",
    "1432": "sh",
    "1433": "sho",
    "1434": "shop",
    "1435": "van",
    "1436": "vang",
    "1437": "ins",
    "1438": "insu",
    "1439": "5:",
    "1440": "bou",
    "1441": "bout",
    "1442": "Re",
    "1443": "wr",
    "1444": "wri",
    "1445": "writ",
    "1446": "sig",
    "1447": "sign",
    "1448": "ms",
    "1449": "mse",
    "1450": "msel",
    "1451": "pec",
    "1452": "peci",
    "1453": "pecie",
    "1454": "pecies",
    "1455": "!-",
    "1456": "!--",
    "1457": "ol ",
    "1458": "arn",
    "1459": "arnh",
    "1460": "arnha",
    "1461": "arnhar",
    "1462": "arnhard",
    "1463": "fg",
    "1464": "fgh",
    "1465": "fgha",
    "1466": "fghan",
    "1467": "eib",
    "1468": "eibn",
    "1469": "zen",
    "1470": "S,",
    "1471": "S, ",
    "1472": "ilo",
    "1473": "ilos",
    "1474": "iloso",
    "1475": "pic",
    "1476": "ndam",
    "1477": "ndame",
    "1478": "ndamen",
    "1479": "r ",
    "1480": "r o",
    "1481": "r of",
    "1482": "r of ",
    "1483": "vic",
    "1484": "vice",
    "1485": "nb",
    "1486": "nbs",
    "1487": "nbsp",
    "1488": "(1",
    "1489": "emi",
    "1490": "emia",
    "1491": "fa",
    "1492": "fal",
    "1493": "ress",
    "1494": " (d",
    "1495": " (d.",
    "1496": " (d. ",
    "1497": "owev",
    "1498": "xtu",
    "1499": "xtur",
    "1500": "xture",
    "1501": "B.",
    "1502": "eco",
    "1503": "econ",
    "1504": "econd",
    "1505": "rgu",
    "1506": "rey",
    "1507": "line",
    "1508": "mus",
    "1509": "musi",
    "1510": "Jud",
    "1511": "Juda",
    "1512": "Judai",
    "1513": "Judais",
    "1514": "Wa",
    "1515": "all",
    "1516": "alle",
    "1517": "allel",
    "1518": "ho",
    "1519": "hor",
    "1520": "ney",
    "1521": "age",
    "1522": "sin",
    "1523": "sine",
    "1524": "sines",
    "1525": "pit",
    "1526": "pita",
    "1527": "ey",
    "1528": "ey ",
    "1529": "wis",
    "1530": "wise",
    "1531": "cal",
    "1532": "call",
    "1533": "cally",
    "1534": "omat",
    "1535": "nk",
    "1536": "5%",
    "1537": "rk",
    "1538": "rki",
    "1539": "rkin",
    "1540": "rking",
    "1541": "sm",
    "1542": "On",
    "1543": "rpo",
    "1544": "rpor",
    "1545": "Heb",
    "1546": "Hebr",
    "1547": "Hebre",
    "1548": "Hebrew",
    "1549": "angu",
    "1550": "ck",
    "1551": "ck ",
    "1552": "ne ",
    "1553": " n",
    "1554": " no",
    "1555": " not",
    "1556": "ark",
    "1557": "mes",
    "1558": "mest",
    "1559": "rel",
    "1560": "rely",
    "1561": "FSF",
    "1562": "ulh",
    "1563": "ulha",
    "1564": "ulham",
    "1565": "fam",
    "1566": "mor",
    "1567": "pro",
    "1568": "3 /su",
    "1569": "ton",
    "1570": "nit",
    "1571": "iv",
    "1572": "iva",
    "1573": "ival",
    "1574": "oor",
    "1575": "tc",
    "1576": "0)",
    "1577": "50",
    "1578": "yp",
    "1579": "ypt",
    "1580": "that ",
    "1581": "C ",
    "1582": "poi",
    "1583": "poin",
    "1584": "point",
    "1585": "flu",
    "1586": "flue",
    "1587": "fluen",
    "1588": "ized",
    "1589": "gm",
    "1590": "gma",
    "1591": "ite",
    "1592": "eiv",
    "1593": "xy",
    "1594": "ied",
    "1595": "ied ",
    "1596": "ure",
    "1597": "ted",
    "1598": "A,",
    "1599": "A, ",
    "1600": "xu",
    "1601": "xur",
    "1602": "our",
    "1603": "ourc",
    "1604": "ource",
    "1605": "odu",
    "1606": "oduc",
    "1607": "iel",
    "1608": "ield",
    "1609": "(19",
    "1610": "site",
    "1611": "H.",
    "1612": "ward",
    "1613": "ony",
    "1614": "onym",
    "1615": "uit",
    "1616": "AF",
    "1617": "AFL",
    "1618": "'s",
    "1619": "'s ",
    "1620": "Br",
    "1621": "Bri",
    "1622": "Brit",
    "1623": "Briti",
    "1624": "Britis",
    "1625": "uth",
    "1626": "1)",
    "1627": "ateu",
    "1628": "enu",
    "1629": "enue",
    "1630": "viet",
    "1631": "thr",
    "1632": "thro",
    "1633": "throp",
    "1634": "voi",
    "1635": "void",
    "1636": "usi",
    "1637": "usic",
    "1638": "ari",
    "1639": "ario",
    "1640": "ariou",
    "1641": "ora",
    "1642": "orah",
    "1643": "ts",
    "1644": "A ",
    "1645": "ade",
    "1646": "iden",
    "1647": "form",
    "1648": "ern",
    "1649": "nta",
    "1650": "ntal",
    "1651": "apu",
    "1652": "apul",
    "1653": "yg",
    "1654": "ygm",
    "1655": "arat",
    "1656": "pp",
    "1657": "ppe",
    "1658": "ppen",
    "1659": "sw",
    "1660": "swe",
    "1661": "swer",
    "1662": "ij",
    "1663": "edd",
    "1664": "oweve",
    "1665": "nec",
    "1666": "nect",
    "1667": "elo",
    "1668": "elop",
    "1669": "ive",
    "1670": "iver",
    "1671": "ree",
    "1672": "ree ",
    "1673": "nou",
    "1674": "tuc",
    "1675": "llow ",
    "1676": "aig",
    "1677": "tati",
    "1678": "Oc",
    "1679": "Oct",
    "1680": "Octo",
    "1681": "Octob",
    "1682": "k ",
    "1683": "zy",
    "1684": "zym",
    "1685": "zyme",
    "1686": "ann",
    "1687": "anni",
    "1688": "annib",
    "1689": "ick",
    "1690": "(d. ",
    "1691": "eou",
    "1692": ", ",
    "1693": "her",
    "1694": "llio",
    "1695": "ghan",
    "1696": "oon",
    "1697": "wat",
    "1698": "tea",
    "1699": "tead",
    "1700": "tl",
    "1701": "tla",
    "1702": "bn",
    "1703": "rpr",
    "1704": "rpre",
    "1705": "rpret",
    "1706": "GH",
    "1707": "GHz",
    "1708": "hav",
    "1709": "have",
    "1710": "L.",
    "1711": "Nov",
    "1712": "Nove",
    "1713": "Novem",
    "1714": "Novemb",
    "1715": "00",
    "1716": "000",
    "1717": "rio",
    "1718": "rior",
    "1719": "vol",
    "1720": "volv",
    "1721": "lud",
    "1722": "thod",
    "1723": "alled",
    "1724": "rant",
    "1725": "Er",
    "1726": "Erd",
    "1727": "he ",
    "1728": "VA",
    "1729": "xp",
    "1730": "xpa",
    "1731": "xpan",
    "1732": "ase",
    "1733": "ased",
    "1734": "ased ",
    "1735": "thor",
    "1736": "par",
    "1737": "i ",
    "1738": "sic",
    "1739": "api",
    "1740": "apit",
    "1741": "9,",
    "1742": "9, ",
    "1743": "hod",
    "1744": "wed",
    "1745": "lam",
    "1746": "stav",
    "1747": "ll-",
    "1748": "19",
    "1749": "can",
    "1750": "cant",
    "1751": "ima",
    "1752": "imat",
    "1753": "asia",
    "1754": "ay",
    "1755": "ays",
    "1756": "7-",
    "1757": "7-1",
    "1758": "#S",
    "1759": "riv",
    "1760": "rfa",
    "1761": "rfac",
    "1762": "tw",
    "1763": "two",
    "1764": "twor",
    "1765": "on ",
    "1766": "hr",
    "1767": "hro",
    "1768": "hrop",
    "1769": "ctic",
    "1770": "nu",
    "1771": "nue",
    "1772": "ssi",
    "1773": "ssio",
    "1774": "ssion",
    "1775": "gn",
    "1776": "gno",
    "1777": "gnos",
    "1778": "mocra",
    "1779": "iru",
    "1780": "irus",
    "1781": "pite",
    "1782": "hurc",
    "1783": "hurch",
    "1784": "ersi",
    "1785": "ersio",
    "1786": "b.",
    "1787": "b. ",
    "1788": "ndas",
    "1789": "B,",
    "1790": "B, ",
    "1791": "wea",
    "1792": "weal",
    "1793": "wealt",
    "1794": "wealth",
    "1795": "eri",
    "1796": "cam",
    "1797": "Chr",
    "1798": "Chri",
    "1799": "Chris",
    "1800": "eet",
    "1801": "cC",
    "1802": "cCa",
    "1803": "fre",
    "1804": "fred",
    "1805": "eed",
    "1806": "ams",
    "1807": "rs ",
    "1808": "tru",
    "1809": "truc",
    "1810": "truct",
    "1811": "aly",
    "1812": "alys",
    "1813": "alysi",
    "1814": "alysis",
    "1815": "anu",
    "1816": "anua",
    "1817": "anuar",
    "1818": "rus",
    "1819": "rusa",
    "1820": "ask",
    "1821": "lav",
    "1822": "6 - ",
    "1823": "lio",
    "1824": " ar",
    "1825": "eli",
    "1826": "elie",
    "1827": "LF",
    "1828": "tb",
    "1829": "tba",
    "1830": "tbal",
    "1831": "tball",
    "1832": "SB",
    "1833": "SBN",
    "1834": "ist",
    "1835": "isto",
    "1836": "hy",
    "1837": "hys",
    "1838": "hysi",
    "1839": "ccl",
    "1840": "ccle",
    "1841": "rome",
    "1842": "romet",
    "1843": "eme",
    "1844": "emen",
    "1845": "tar",
    "1846": "tart",
    "1847": "tarte",
    "1848": "tarted",
    "1849": "ino",
    "1850": "inoi",
    "1851": "Qu",
    "1852": "tle",
    "1853": "erei",
    "1854": "ereig",
    "1855": "far",
    "1856": "fare",
    "1857": "ring",
    "1858": "uni",
    "1859": "ely",
    "1860": "ug",
    "1861": "ugh",
    "1862": "lp",
    "1863": " /",
    "1864": " /t",
    "1865": "iri",
    "1866": "irit",
    "1867": "amen",
    "1868": "ament",
    "1869": "ored",
    "1870": "'t",
    "1871": "gres",
    "1872": "gress",
    "1873": "coun",
    "1874": "lt",
    "1875": "lta",
    "1876": "ltan",
    "1877": "ictu",
    "1878": "ictur",
    "1879": "oi",
    "1880": "oid",
    "1881": "ssib",
    "1882": "speci",
    "1883": "specia",
    "1884": "special",
    "1885": "ep",
    "1886": "ept",
    "1887": "War",
    "1888": "cy",
    "1889": "cy ",
    "1890": "dg",
    "1891": "dge",
    "1892": "dged",
    "1893": "gro",
    "1894": "grou",
    "1895": "ina",
    "1896": "nks",
    "1897": "ded ",
    "1898": "rke",
    "1899": "rket",
    "1900": "oti",
    "1901": "a ",
    "1902": "Ol",
    "1903": "Old",
    "1904": "V ",
    "1905": "ildl",
    "1906": "ildli",
    "1907": "ildlif",
    "1908": "ildlife",
    "1909": "tch",
    "1910": "4-1",
    "1911": "hlo",
    "1912": "hlor",
    "1913": "odul",
    "1914": "Is",
    "1915": "Isl",
    "1916": "hri",
    "1917": "hris",
    "1918": "ten",
    "1919": "is ",
    "1920": "Z-",
    "1921": "abi",
    "1922": "oman",
    "1923": "sb",
    "1924": "sba",
    "1925": "eld",
    "1926": "ddl",
    "1927": "ell",
    "1928": "ost",
    "1929": "osto",
    "1930": " C",
    "1931": " CO",
    "1932": " COU",
    "1933": "y)",
    "1934": "*Y",
    "1935": "mph",
    "1936": "out",
    "1937": "spi",
    "1938": "spit",
    "1939": "spite",
    "1940": "med",
    "1941": "nsy",
    "1942": "ev",
    "1943": "eve",
    "1944": "/ref",
    "1945": "CT",
    "1946": "tes",
    "1947": "cen",
    "1948": "cent",
    "1949": "ape",
    "1950": "aper",
    "1951": "ttl",
    "1952": "lite",
    "1953": "z ",
    "1954": "O,",
    "1955": "O, ",
    "1956": "ke ",
    "1957": "jo",
    "1958": "vel",
    "1959": "velo",
    "1960": "velop",
    "1961": "fou",
    "1962": "foun",
    "1963": "found",
    "1964": "uis",
    "1965": "hea",
    "1966": "heat",
    "1967": "tab",
    "1968": "tabl",
    "1969": "mil",
    "1970": "mill",
    "1971": "milli",
    "1972": "Va",
    "1973": "Van",
    "1974": "Vanc",
    "1975": "Vanco",
    "1976": "Vancou",
    "1977": "Vancouv",
    "1978": "lay",
    "1979": "urr",
    "1980": "oun",
    "1981": "ound",
    "1982": "rma",
    "1983": "rman",
    "1984": "ser",
    "1985": "serv",
    "1986": "bj",
    "1987": "bje",
    "1988": "bjec",
    "1989": "bject",
    "1990": "ry",
    "1991": "ry ",
    "1992": "vern",
    "1993": "yr",
    "1994": "yri",
    "1995": "yrig",
    "1996": "yrigh",
    "1997": "yright",
    "1998": "lue",
    "1999": "tew",
    "2000": "tewa",
    "2001": "lly",
    "2002": "ater",
    "2003": "iss",
    "2004": "issi",
    "2005": "rse",
    "2006": "rsey",
    "2007": "music",
    "2008": "outh",
    "2009": "sex",
    "2010": "nde",
    "2011": "enz",
    "2012": "enzy",
    "2013": "enzym",
    "2014": "iat",
    "2015": "uru",
    "2016": "ven",
    "2017": "vent",
    "2018": "9)",
    "2019": "xa",
    "2020": "xas",
    "2021": "orl",
    "2022": "orld",
    "2023": "uca",
    "2024": "ucat",
    "2025": "Yor",
    "2026": "fic",
    "2027": "fica",
    "2028": "emit",
    "2029": "emiti",
    "2030": "ws",
    "2031": "ws ",
    "2032": "Wi",
    "2033": "Wit",
    "2034": "tur",
    "2035": "turn",
    "2036": "ool",
    "2037": "oolo",
    "2038": "oolog",
    "2039": "lat",
    "2040": "late",
    "2041": "late ",
    "2042": "Du",
    "2043": "Dun",
    "2044": "Dune",
    "2045": "NI",
    "2046": "4 ",
    "2047": "4 /",
    "2048": "4 /t",
    "2049": "Ga",
    "2050": "Gar",
    "2051": "Gary",
    "2052": "eu",
    "2053": "orc",
    "2054": "orch",
    "2055": "ned",
    "2056": "ig",
    "2057": "iga",
    "2058": "igad",
    "2059": "nden",
    "2060": "coh",
    "2061": "coho",
    "2062": "cohol",
    "2063": "nca",
    "2064": ".g",
    "2065": ".g.",
    "2066": "zar",
    "2067": "zard",
    "2068": "came",
    "2069": "bitr",
    "2070": "ham",
    "2071": ",y",
    "2072": ",y_",
    "2073": "oser",
    "2074": "illa",
    "2075": "illag",
    "2076": "illage",
    "2077": "vid ",
    "2078": "sur",
    "2079": "gam",
    "2080": " /s",
    "2081": " /su",
    "2082": "urk",
    "2083": "ref",
    "2084": "cas",
    "2085": "cast",
    "2086": "5.",
    "2087": "5.j",
    "2088": "5.jp",
    "2089": "5.jpg",
    "2090": "rgi",
    "2091": "uk",
    "2092": "-r",
    "2093": "-ra",
    "2094": "-ran",
    "2095": "-rang",
    "2096": "unn",
    "2097": "Yea",
    "2098": "tera",
    "2099": "DP",
    "2100": "rui",
    "2101": "ruis",
    "2102": "viou",
    "2103": "||",
    "2104": "ban",
    "2105": "bank",
    "2106": "7 ",
    "2107": "7 -",
    "2108": "sop",
    "2109": "Hi",
    "2110": "His",
    "2111": "Hist",
    "2112": "Histo",
    "2113": "Ge",
    "2114": "Ger",
    "2115": "lon",
    "2116": "cau",
    "2117": "caus",
    "2118": "amo",
    "2119": "amou",
    "2120": "amous",
    "2121": "urc",
    "2122": "urce",
    "2123": "cid",
    "2124": "har",
    "2125": "hara",
    "2126": "harac",
    "2127": "haract",
    "2128": "gt",
    "2129": "gth",
    "2130": "part",
    "2131": "hop",
    "2132": "unct",
    "2133": "sar",
    "2134": "RP",
    "2135": "yt",
    "2136": "yth",
    "2137": "ous",
    "2138": "' ",
    "2139": "*S",
    "2140": "*Sc",
    "2141": "Isr",
    "2142": "Isra",
    "2143": "Israe",
    "2144": "Israel",
    "2145": "igat",
    "2146": "az",
    "2147": "azi",
    "2148": "d.",
    "2149": "d. ",
    "2150": "dem",
    "2151": "ue",
    "2152": "uel",
    "2153": "CE",
    "2154": "For ",
    "2155": "dv",
    "2156": "dva",
    "2157": "dvan",
    "2158": "ily",
    "2159": "grow",
    "2160": "oup",
    "2161": "oup ",
    "2162": "s A",
    "2163": "s An",
    "2164": "iven",
    "2165": "ader",
    "2166": "oca",
    "2167": "ocat",
    "2168": "ems ",
    "2169": "cow",
    "2170": "zab",
    "2171": "zabe",
    "2172": "zabet",
    "2173": "joi",
    "2174": "join",
    "2175": "C.",
    "2176": "set",
    "2177": "men",
    "2178": "ment",
    "2179": "case",
    "2180": "dam ",
    "2181": "gra",
    "2182": "5 /",
    "2183": "5 /t",
    "2184": "ega",
    "2185": "imag",
    "2186": "doe",
    "2187": "does",
    "2188": "eum",
    "2189": "ow ",
    "2190": "O ",
    "2191": "O s",
    "2192": "O su",
    "2193": "shi",
    "2194": "shin",
    "2195": "shing",
    "2196": "shingt",
    "2197": "shingto",
    "2198": "Fre",
    "2199": "Fren",
    "2200": " d",
    "2201": " de",
    "2202": " de ",
    "2203": "clu",
    "2204": "xua",
    "2205": "xual",
    "2206": "utu",
    "2207": "utur",
    "2208": "diti",
    "2209": "hen",
    "2210": "hen ",
    "2211": "ene",
    "2212": "ener",
    "2213": "enera",
    "2214": "wt",
    "2215": "wth",
    "2216": "Zw",
    "2217": "Zwi",
    "2218": "Zwin",
    "2219": "ing",
    "2220": "oa",
    "2221": "oak",
    "2222": "Bod",
    "2223": "Bodh",
    "2224": "fy",
    "2225": "unch",
    "2226": "erv",
    "2227": "ervi",
    "2228": "op",
    "2229": "opl",
    "2230": "up ",
    "2231": "dict",
    "2232": " to ",
    "2233": "lea",
    "2234": "leas",
    "2235": "mmu",
    "2236": "mmun",
    "2237": "mn",
    "2238": "mne",
    "2239": "mnes",
    "2240": "mnest",
    "2241": "mnesty",
    "2242": "len",
    "2243": "lend",
    "2244": "5)",
    "2245": "5)*",
    "2246": "dere",
    "2247": "dered",
    "2248": "hap",
    "2249": " %",
    "2250": "c ",
    "2251": "F ",
    "2252": "4 -",
    "2253": " an",
    "2254": " and",
    "2255": " and ",
    "2256": " I",
    "2257": "ally",
    "2258": "6,",
    "2259": "6, ",
    "2260": "ble",
    "2261": "ble ",
    "2262": "iou",
    "2263": "ious",
    "2264": "gui",
    "2265": "guis",
    "2266": "iso",
    "2267": "ison",
    "2268": "fac",
    "2269": "fact",
    "2270": "aj",
    "2271": "ajo",
    "2272": "ajor",
    "2273": "Ce",
    "2274": "Cen",
    "2275": "ucas",
    "2276": "she",
    "2277": "shed",
    "2278": "roo",
    "2279": "hyl",
    "2280": "itz",
    "2281": "itze",
    "2282": "itzer",
    "2283": "uctu",
    "2284": "ell ",
    "2285": "tc.",
    "2286": "ali",
    "2287": "alig",
    "2288": "align",
    "2289": "low",
    "2290": "ron",
    "2291": "rle",
    "2292": "rles",
    "2293": "ory",
    "2294": "ory ",
    "2295": "viv",
    "2296": "ine",
    "2297": "ined",
    "2298": "rn",
    "2299": "vill",
    "2300": "ivi",
    "2301": "cil",
    "2302": "sph",
    "2303": "tia",
    "2304": "para",
    "2305": "rpm",
    "2306": "rpme",
    "2307": "rpmen",
    "2308": "mond",
    "2309": "vy",
    "2310": "ore ",
    "2311": "umi",
    "2312": "umin",
    "2313": "han",
    "2314": "han ",
    "2315": "..",
    "2316": "NA",
    "2317": "vai",
    "2318": "vail",
    "2319": "DNS",
    "2320": "ota",
    "2321": "otal",
    "2322": "-a",
    "2323": "lut",
    "2324": "Ki",
    "2325": "ibu",
    "2326": "ibut",
    "2327": "Em",
    "2328": "sty",
    "2329": "styl",
    "2330": "icl",
    "2331": "icle",
    "2332": "7 - ",
    "2333": "jp",
    "2334": "jpg",
    "2335": "jpg|",
    "2336": "uch",
    "2337": "uch ",
    "2338": "uch a",
    "2339": "uch as",
    "2340": "ced",
    "2341": "ced ",
    "2342": "ys",
    "2343": "ven ",
    "2344": "eng",
    "2345": "engt",
    "2346": "ength",
    "2347": "sd",
    "2348": "aw",
    "2349": "awe",
    "2350": "awed",
    "2351": "bru",
    "2352": "brua",
    "2353": "bruar",
    "2354": "vin",
    "2355": "3,",
    "2356": "3, ",
    "2357": "rred",
    "2358": "ks",
    "2359": "ks ",
    "2360": "br ",
    "2361": "tis",
    "2362": "tish",
    "2363": "L ",
    "2364": "hyd",
    "2365": "hat",
    "2366": "tel",
    "2367": "firs",
    "2368": "first",
    "2369": " o",
    "2370": " of",
    "2371": "PI",
    "2372": "PID",
    "2373": "lind",
    "2374": "sed",
    "2375": "sed ",
    "2376": "leng",
    "2377": "isi",
    "2378": "isin",
    "2379": " by",
    "2380": " by ",
    "2381": "gi",
    "2382": "gin",
    "2383": "gine",
    "2384": ".e",
    "2385": ".e.",
    "2386": "nard",
    "2387": "ditio",
    "2388": "God",
    "2389": "def",
    "2390": "defi",
    "2391": "defin",
    "2392": " th",
    "2393": "hon",
    "2394": "than",
    "2395": "ositi",
    "2396": "-k",
    "2397": "-kn",
    "2398": "-kno",
    "2399": "fict",
    "2400": "usb",
    "2401": "usba",
    "2402": "vit",
    "2403": "arb",
    "2404": "arbo",
    "2405": "5-",
    "2406": "ono",
    "2407": "onom",
    "2408": "Me",
    "2409": "neti",
    "2410": "netic",
    "2411": "rbe",
    "2412": "rber",
    "2413": "Th",
    "2414": "The",
    "2415": "The ",
    "2416": "asu",
    "2417": "asur",
    "2418": "anc",
    "2419": "lec",
    "2420": "lect",
    "2421": "Ir",
    "2422": "Iri",
    "2423": "Iris",
    "2424": "Irish",
    "2425": "RY",
    "2426": "lecu",
    "2427": "sy",
    "2428": "sys",
    "2429": "syst",
    "2430": "Ho",
    "2431": "Hou",
    "2432": "Hous",
    "2433": "deri",
    "2434": "tri",
    "2435": "trin",
    "2436": "pz",
    "2437": "pzi",
    "2438": "pzig",
    "2439": "nus",
    "2440": "nusc",
    "2441": "nuscr",
    "2442": "thoug",
    "2443": "though",
    "2444": "mit",
    "2445": "l*",
    "2446": "xo",
    "2447": "ount",
    "2448": "seq",
    "2449": "sequ",
    "2450": "seque",
    "2451": "ried",
    "2452": "heo",
    "2453": "heor",
    "2454": "ys ",
    "2455": "eer",
    "2456": "ading",
    "2457": "! ",
    "2458": "ibi",
    "2459": "ibit",
    "2460": "ror",
    "2461": "1B",
    "2462": "nte",
    "2463": "nted",
    "2464": "ritor",
    "2465": "HO",
    "2466": "HO,",
    "2467": "L b",
    "2468": "L br",
    "2469": "l,",
    "2470": "l, ",
    "2471": "ida",
    "2472": "idat",
    "2473": "FL",
    "2474": "Sox",
    "2475": "nti",
    "2476": "whi",
    "2477": "whic",
    "2478": "which",
    "2479": "hel",
    "2480": "pear",
    "2481": "lti",
    "2482": "ltic",
    "2483": "in ",
    "2484": "in a",
    "2485": "in ar",
    "2486": "tow",
    "2487": "town",
    "2488": "rgen",
    "2489": "spo",
    "2490": "spon",
    "2491": "fied",
    "2492": "mbo",
    "2493": "mbol",
    "2494": "rib",
    "2495": "ribu",
    "2496": "ribut",
    "2497": "luen",
    "2498": "law",
    "2499": "rc",
    "2500": "rcu",
    "2501": "rcul",
    "2502": "cce",
    "2503": "irc",
    "2504": "ky",
    "2505": "kyl",
    "2506": "kyla",
    "2507": "llia",
    "2508": "lliam",
    "2509": "ens",
    "2510": "ensi",
    "2511": ". ",
    "2512": "*N",
    "2513": "0s",
    "2514": "0s ",
    "2515": "org",
    "2516": "9)*",
    "2517": "/su",
    "2518": "led",
    "2519": "nist",
    "2520": "ngr",
    "2521": "ngra",
    "2522": "lust",
    "2523": "II",
    "2524": "pri",
    "2525": "pril",
    "2526": "gaz",
    "2527": "ice",
    "2528": "ple",
    "2529": "B-",
    "2530": "dan",
    "2531": "mi)",
    "2532": "iled",
    "2533": "ket",
    "2534": "tic",
    "2535": "sof",
    "2536": "soft",
    "2537": "yna",
    "2538": "vig",
    "2539": "viga",
    "2540": "azil",
    "2541": "ese",
    "2542": "ounc",
    "2543": "irm",
    "2544": "irme",
    "2545": "irmed",
    "2546": "2)",
    "2547": "ilm",
    "2548": "d ",
    "2549": "hma",
    "2550": "hmad",
    "2551": "llec",
    "2552": "llect",
    "2553": "alen",
    "2554": "alend",
    "2555": "ple ",
    "2556": "ad ",
    "2557": "eur",
    "2558": "on,",
    "2559": "on, ",
    "2560": "utho",
    "2561": "uthor",
    "2562": "suc",
    "2563": "such",
    "2564": "pad",
    "2565": "lyw",
    "2566": "lywo",
    "2567": "oy",
    "2568": "oar",
    "2569": "oard",
    "2570": "exam",
    "2571": "examp",
    "2572": "exampl",
    "2573": "y o",
    "2574": "y of",
    "2575": "y of ",
    "2576": "ny",
    "2577": "ubj",
    "2578": "dia",
    "2579": "diam",
    "2580": "ucl",
    "2581": "ucle",
    "2582": "rick",
    "2583": "an ",
    "2584": "atic",
    "2585": "stiv",
    "2586": "pu",
    "2587": "put",
    "2588": "ylo",
    "2589": "ylor",
    "2590": "syc",
    "2591": "sych",
    "2592": "his",
    "2593": "izer",
    "2594": "opt",
    "2595": "wto",
    "2596": "wton",
    "2597": "eag",
    "2598": "eagu",
    "2599": "eague",
    "2600": "kes",
    "2601": "kes ",
    "2602": "je",
    "2603": "jec",
    "2604": "ant ",
    "2605": "ants",
    "2606": "wel",
    "2607": "well",
    "2608": "ner",
    "2609": "nerg",
    "2610": " on",
    "2611": " on ",
    "2612": "one",
    "2613": "ugu",
    "2614": "ugue",
    "2615": "wei",
    "2616": "me ",
    "2617": "xi",
    "2618": "om ",
    "2619": "spa",
    "2620": "spar",
    "2621": "igr",
    "2622": "sio",
    "2623": "sion",
    "2624": "ird",
    "2625": "ird ",
    "2626": "das",
    "2627": "itio",
    "2628": "ition",
    "2629": "yea",
    "2630": "year",
    "2631": "ruc",
    "2632": "ruct",
    "2633": "nax",
    "2634": "naxi",
    "2635": "naxim",
    "2636": "por",
    "2637": "port",
    "2638": "wal",
    "2639": "wall",
    "2640": "ew ",
    "2641": "gio",
    "2642": "gion",
    "2643": "awa",
    "2644": "harl",
    "2645": "vera",
    "2646": "verag",
    "2647": "ock",
    "2648": "lem",
    "2649": "oust",
    "2650": "may",
    "2651": "may ",
    "2652": "ly ",
    "2653": "bini",
    "2654": "Ze",
    "2655": "Zea",
    "2656": "eror",
    "2657": "val",
    "2658": "valu",
    "2659": "value",
    "2660": "Ni",
    "2661": "Nin",
    "2662": "igi",
    "2663": "igio",
    "2664": "phor",
    "2665": "ink",
    "2666": "ink ",
    "2667": "ult",
    "2668": "cu",
    "2669": "cut",
    "2670": "es ",
    "2671": "ork",
    "2672": "70",
    "2673": "70s",
    "2674": "des",
    "2675": "e ",
    "2676": "e o",
    "2677": "e of",
    "2678": "e of ",
    "2679": "Te",
    "2680": "Tec",
    "2681": "bac",
    "2682": "ram",
    "2683": "ramm",
    "2684": "ramma",
    "2685": "rammar",
    "2686": "leo",
    "2687": "ricu",
    "2688": "ricul",
    "2689": "ricult",
    "2690": "igin",
    "2691": "plom",
    "2692": "ploma",
    "2693": "aul",
    "2694": "ault",
    "2695": "Day",
    "2696": "gger",
    "2697": "lang",
    "2698": "lid",
    "2699": "e=",
    "2700": "k o",
    "2701": "k of",
    "2702": "sec",
    "2703": "seco",
    "2704": "secon",
    "2705": "second",
    "2706": "gan",
    "2707": "ugl",
    "2708": "ugla",
    "2709": "oin",
    "2710": "anw",
    "2711": "anwh",
    "2712": "ntro",
    "2713": "ntrol",
    "2714": "enta",
    "2715": "entar",
    "2716": "mons",
    "2717": "omi",
    "2718": "omin",
    "2719": "uu",
    "2720": "uum",
    "2721": "ef",
    "2722": "efi",
    "2723": "efin",
    "2724": "nee",
    "2725": "neer",
    "2726": "fore",
    "2727": "two ",
    "2728": "tg",
    "2729": "tgu",
    "2730": "tgun",
    "2731": "4 /s",
    "2732": "utr",
    "2733": "rth",
    "2734": "abli",
    "2735": "e:",
    "2736": "ard",
    "2737": "ber",
    "2738": "Do",
    "2739": "Don",
    "2740": "nsiv",
    "2741": "oe",
    "2742": "oved",
    "2743": "hal",
    "2744": "ici",
    "2745": "icie",
    "2746": "icien",
    "2747": "icient",
    "2748": "Fa",
    "2749": "Far",
    "2750": "Faro",
    "2751": "Faroe",
    "2752": "ds",
    "2753": " at",
    "2754": " at ",
    "2755": "ary",
    "2756": "nm",
    "2757": "nme",
    "2758": "nmen",
    "2759": "esa",
    "2760": "esar",
    "2761": "DI",
    "2762": "run",
    "2763": "rune",
    "2764": "runei",
    "2765": "Fit",
    "2766": "Fitz",
    "2767": "ction",
    "2768": "W,",
    "2769": "W, ",
    "2770": "cyc",
    "2771": "cycl",
    "2772": "bor",
    "2773": "nged",
    "2774": "ving",
    "2775": "stitu",
    "2776": "bni",
    "2777": "otb",
    "2778": "otba",
    "2779": "otbal",
    "2780": "lab",
    "2781": "labo",
    "2782": "jor",
    "2783": "how",
    "2784": "(#",
    "2785": "rh",
    "2786": "sis",
    "2787": "sist",
    "2788": "hanc",
    "2789": "ebr",
    "2790": "ebru",
    "2791": "o ",
    "2792": "o n",
    "2793": "o no",
    "2794": "teu",
    "2795": "cot",
    "2796": "ret",
    "2797": "urch",
    "2798": "deg",
    "2799": "degr",
    "2800": "degre",
    "2801": "degree",
    "2802": "ert",
    "2803": "erta",
    "2804": "ertai",
    "2805": "rish",
    "2806": "ft",
    "2807": " 1",
    "2808": "Hag",
    "2809": "Hagb",
    "2810": "Hagba",
    "2811": "Hagbar",
    "2812": "gal",
    "2813": "NO",
    "2814": "lex",
    "2815": "md",
    "2816": "mda",
    "2817": "mdas",
    "2818": "mdash",
    "2819": "ram ",
    "2820": "gene",
    "2821": "ms ",
    "2822": "gor",
    "2823": "gs",
    "2824": "gs ",
    "2825": "fiel",
    "2826": "field",
    "2827": "hot",
    "2828": "hoto",
    "2829": "8 - ",
    "2830": "0 -",
    "2831": "0 - ",
    "2832": "ka",
    "2833": "sus",
    "2834": "lm",
    "2835": "act",
    "2836": "ler",
    "2837": "lera",
    "2838": "lc",
    "2839": "lch",
    "2840": "lche",
    "2841": "lchem",
    "2842": "neteen",
    "2843": "7 /",
    "2844": "alek",
    "2845": "hic",
    "2846": "hich",
    "2847": "iol",
    "2848": "bum",
    "2849": "en ",
    "2850": "Par",
    "2851": "lar",
    "2852": "lark",
    "2853": "lleg",
    "2854": "llege",
    "2855": "long",
    "2856": "aru",
    "2857": "ud",
    "2858": "udi",
    "2859": "udie",
    "2860": "udied",
    "2861": "ae",
    "2862": "ot ",
    "2863": "r*S",
    "2864": "r*St",
    "2865": "low ",
    "2866": "ane",
    "2867": "anen",
    "2868": "riti",
    "2869": "ritis",
    "2870": "tte",
    "2871": "tter",
    "2872": "warm",
    "2873": "ica",
    "2874": "icat",
    "2875": "wit",
    "2876": "with",
    "2877": "s a",
    "2878": "s an",
    "2879": "s and",
    "2880": "zo",
    "2881": "iq",
    "2882": "iqu",
    "2883": "las",
    "2884": "lass",
    "2885": "w ",
    "2886": "Fl",
    "2887": "Fla",
    "2888": "Flam",
    "2889": "ervic",
    "2890": "ervice",
    "2891": "Zwing",
    "2892": "igh",
    "2893": "ight",
    "2894": "rmy",
    "2895": "1 ",
    "2896": "1 /",
    "2897": "1 /t",
    "2898": "itl",
    "2899": "Le",
    "2900": "ople",
    "2901": "o;",
    "2902": "Tu",
    "2903": "Tur",
    "2904": "0%",
    "2905": "ece",
    "2906": "hed",
    "2907": "hed ",
    "2908": "Gal",
    "2909": "Gala",
    "2910": "Galat",
    "2911": "ved ",
    "2912": "cum",
    "2913": "cume",
    "2914": "cumen",
    "2915": "yte",
    "2916": "view",
    "2917": "3-",
    "2918": " c",
    "2919": " ce",
    "2920": "euv",
    "2921": "ies",
    "2922": "eat",
    "2923": "eath",
    "2924": "ways",
    "2925": "tud",
    "2926": "qu",
    "2927": "esel",
    "2928": "awai",
    "2929": "awaii",
    "2930": "nd ",
    "2931": "iven ",
    "2932": "SC",
    "2933": "SCO",
    "2934": ":/",
    "2935": "://",
    "2936": "bet",
    "2937": "RT",
    "2938": "rote",
    "2939": "wes",
    "2940": "west",
    "2941": "ogr",
    "2942": "ogra",
    "2943": "tum",
    "2944": "que",
    "2945": "zec",
    "2946": "zech",
    "2947": "bno",
    "2948": "bnor",
    "2949": "bnorm",
    "2950": "tic ",
    "2951": "ugg",
    "2952": "nne",
    "2953": "nner",
    "2954": "CO",
    "2955": "COU",
    "2956": "uli",
    "2957": "fra",
    "2958": "frac",
    "2959": "Ami",
    "2960": "Amin",
    "2961": "Vi",
    "2962": "Vil",
    "2963": "akes",
    "2964": "akes ",
    "2965": "rec",
    "2966": "rect",
    "2967": "lib",
    "2968": "ue ",
    "2969": "tal",
    "2970": "tali",
    "2971": "talin",
    "2972": "russ",
    "2973": "ean",
    "2974": "eani",
    "2975": "eanin",
    "2976": "ani",
    "2977": "tts",
    "2978": "ttsb",
    "2979": "elit",
    "2980": "ntio",
    "2981": "ntion",
    "2982": "geri",
    "2983": "geria",
    "2984": "efu",
    "2985": "eful",
    "2986": "dt",
    "2987": "dtd",
    "2988": "dtd ",
    "2989": "rud",
    "2990": "rude",
    "2991": "duca",
    "2992": "dow",
    "2993": "k of ",
    "2994": "oul",
    "2995": "uph",
    "2996": "uphr",
    "2997": "La",
    "2998": "o_",
    "2999": "iop",
    "3000": "iopi",
    "3001": "#U",
    "3002": "Pr",
    "3003": "Pro",
    "3004": "rol",
    "3005": "wo",
    "3006": " tha",
    "3007": " that",
    "3008": "fe",
    "3009": "fen",
    "3010": "less",
    "3011": "owever",
    "3012": "least",
    "3013": "gat",
    "3014": "gate",
    "3015": "ust",
    "3016": "ust ",
    "3017": "you",
    "3018": "W.",
    "3019": "ons",
    "3020": "onso",
    "3021": "Ya",
    "3022": "Yah",
    "3023": "Yahw",
    "3024": "ecu",
    "3025": "ecut",
    "3026": "ts ",
    "3027": "stem",
    "3028": "fte",
    "3029": "1 -",
    "3030": "D,",
    "3031": "D, ",
    "3032": "hang",
    "3033": "ritic",
    "3034": "vem",
    "3035": "veme",
    "3036": "vemen",
    "3037": "yto",
    "3038": "bee",
    "3039": "been",
    "3040": "stab",
    "3041": "stabl",
    "3042": "stabli",
    "3043": "stablis",
    "3044": "stablish",
    "3045": "eda",
    "3046": "dot",
    "3047": "ructu",
    "3048": "ructur",
    "3049": "Afghan",
    "3050": "rly",
    "3051": "Oly",
    "3052": "Olym",
    "3053": "rough",
    "3054": "iar",
    "3055": "rid",
    "3056": "ridg",
    "3057": "but",
    "3058": "owl",
    "3059": "fter",
    "3060": "ticl",
    "3061": "ticle",
    "3062": "cap",
    "3063": "yst",
    "3064": "yste",
    "3065": "ystem",
    "3066": "fun",
    "3067": "func",
    "3068": "funct",
    "3069": "Je",
    "3070": "nent",
    "3071": "20",
    "3072": "20s",
    "3073": "Ci",
    "3074": "bas",
    "3075": "yi",
    "3076": "yin",
    "3077": "nh",
    "3078": "nhu",
    "3079": "nhur",
    "3080": "nhurs",
    "3081": "nhursa",
    "3082": "ranc",
    "3083": "ack",
    "3084": "tan",
    "3085": "Jum",
    "3086": "Jumo",
    "3087": "Jumon",
    "3088": "Eas",
    "3089": "East",
    "3090": "ior",
    "3091": "tag",
    "3092": "ery",
    "3093": "ery ",
    "3094": "anch",
    "3095": "lia",
    "3096": "lian",
    "3097": "IC",
    "3098": "ML",
    "3099": "olu",
    "3100": "e 1",
    "3101": "e 19",
    "3102": "tib",
    "3103": "A.",
    "3104": "mai",
    "3105": "main",
    "3106": "iba",
    "3107": "ibal",
    "3108": "90",
    "3109": "90s",
    "3110": "nci",
    "3111": "ncil",
    "3112": "idi",
    "3113": "ain",
    "3114": "olut",
    "3115": "-m",
    "3116": "hand",
    "3117": "5 -",
    "3118": "5 - ",
    "3119": "beh",
    "3120": "beha",
    "3121": "thel",
    "3122": "thele",
    "3123": "theles",
    "3124": "theless",
    "3125": "inet",
    "3126": "inete",
    "3127": "inetee",
    "3128": "ewe",
    "3129": "ewed",
    "3130": "chn",
    "3131": "**",
    "3132": "nth",
    "3133": "nthr",
    "3134": "nthro",
    "3135": "nthrop",
    "3136": "fro",
    "3137": "from",
    "3138": "from ",
    "3139": "del",
    "3140": "F)",
    "3141": "6 /",
    "3142": "6 /t",
    "3143": "umbe",
    "3144": "ived",
    "3145": "--",
    "3146": "edi",
    "3147": "ingl",
    "3148": "ingle",
    "3149": "ema",
    "3150": "ake ",
    "3151": "orat",
    "3152": "3 /t",
    "3153": "9),",
    "3154": "9), ",
    "3155": "ut ",
    "3156": "tabli",
    "3157": "tablis",
    "3158": "san",
    "3159": "eive",
    "3160": "),",
    "3161": "), ",
    "3162": "mud",
    "3163": "alt",
    "3164": "alt ",
    "3165": "fil",
    "3166": "ken",
    "3167": "car",
    "3168": "noun",
    "3169": "nounc",
    "3170": "ful",
    "3171": "oci",
    "3172": "ocit",
    "3173": "Stat",
    "3174": "State",
    "3175": "ify",
    "3176": "hib",
    "3177": "hibi",
    "3178": "hibit",
    "3179": "end",
    "3180": "o-",
    "3181": "rm ",
    "3182": "% ",
    "3183": "mic",
    "3184": "gov",
    "3185": "gove",
    "3186": "gover",
    "3187": "govern",
    "3188": "ebu",
    "3189": "NE",
    "3190": "rang",
    "3191": "Mo",
    "3192": "Moo",
    "3193": "Moon",
    "3194": "harm",
    "3195": "cia",
    "3196": "cian",
    "3197": "R.",
    "3198": "5,",
    "3199": "5, ",
    "3200": "irt",
    "3201": "irtu",
    "3202": "blem",
    "3203": "ain ",
    "3204": "D)",
    "3205": "ull",
    "3206": "rive",
    "3207": "gas",
    "3208": "I ",
    "3209": "Sc",
    "3210": "Sch",
    "3211": "Scho",
    "3212": "Schoo",
    "3213": "School",
    "3214": "din",
    "3215": "oad",
    "3216": "utc",
    "3217": "utch",
    "3218": "love",
    "3219": "clud",
    "3220": "ften",
    "3221": "enc",
    "3222": "wry",
    "3223": "dad",
    "3224": "ped",
    "3225": "lbe",
    "3226": "lber",
    "3227": "LA",
    "3228": "HP",
    "3229": "s,",
    "3230": "s, ",
    "3231": "g /",
    "3232": "g /t",
    "3233": "g /tt",
    "3234": "Gu",
    "3235": "Gui",
    "3236": "Guin",
    "3237": "Guine",
    "3238": "Guinea",
    "3239": "ym",
    "3240": "iew",
    "3241": "jud",
    "3242": "8-",
    "3243": "8-1",
    "3244": "Gen",
    "3245": "*1",
    "3246": "*19",
    "3247": "rder",
    "3248": "oth ",
    "3249": "m/",
    "3250": "How",
    "3251": "Howe",
    "3252": "Howev",
    "3253": "Col",
    "3254": "Coll",
    "3255": "Colle",
    "3256": "Colleg",
    "3257": "aism",
    "3258": "mis",
    "3259": "misp",
    "3260": "misph",
    "3261": "y,",
    "3262": "y, ",
    "3263": "aty",
    "3264": "Ro",
    "3265": "Rom",
    "3266": "oic",
    "3267": "gard"
  },
  "merges": {
    "40,13": 92,
    "63,64": 93,
    "93,77": 94,
    "94,73": 95,
    "71,78": 96,
    "80,78": 97,
    "97,78": 98,
    "98,68": 99,
    "99,60": 100,
    "80,72": 101,
    "101,64": 102,
    "102,63": 103,
    "103,1": 104,
    "79,68": 105,
    "105,79": 106,
    "74,62": 107,
    "105,71": 108,
    "108,68": 109,
    "80,77": 110,
    "110,79": 111,
    "111,67": 112,
    "1,61": 113,
    "113,77": 114,
    "81,68": 115,
    "115,63": 116,
    "116,64": 117,
    "117,73": 118,
    "85,64": 119,
    "119,63": 120,
    "60,70": 121,
    "121,64": 122,
    "77,60": 123,
    "123,62": 124,
    "124,79": 125,
    "125,64": 126,
    "126,77": 127,
    "115,64": 128,
    "65,68": 129,
    "129,77": 130,
    "64,72": 131,
    "131,61": 132,
    "78,79": 133,
    "133,74": 134,
    "134,79": 135,
    "73,68": 136,
    "136,78": 137,
    "18,1": 138,
    "138,12": 139,
    "139,1": 140,
    "64,77": 141,
    "141,66": 142,
    "63,60": 143,
    "143,77": 144,
    "80,73": 145,
    "145,62": 146,
    "81,64": 147,
    "147,63": 148,
    "77,74": 149,
    "149,80": 150,
    "150,66": 151,
    "82,64": 152,
    "66,67": 153,
    "153,60": 154,
    "65,13": 155,
    "74,71": 156,
    "68,65": 157,
    "157,68": 158,
    "158,64": 159,
    "159,63": 160,
    "31,74": 161,
    "75,74": 162,
    "162,78": 163,
    "163,64": 164,
    "164,77": 165,
    "60,77": 166,
    "166,60": 167,
    "167,62": 168,
    "168,79": 169,
    "78,62": 170,
    "170,74": 171,
    "63,68": 172,
    "172,62": 173,
    "71,66": 174,
    "174,60": 175,
    "175,77": 176,
    "60,80": 177,
    "177,78": 178,
    "178,79": 179,
    "77,68": 180,
    "180,71": 181,
    "74,63": 182,
    "182,67": 183,
    "79,77": 184,
    "74,74": 185,
    "185,70": 186,
    "186,1": 187,
    "50,11": 188,
    "188,1": 189,
    "68,71": 190,
    "190,71": 191,
    "191,1": 192,
    "73,74": 193,
    "193,72": 194,
    "45,60": 195,
    "12,16": 196,
    "196,23": 197,
    "73,64": 198,
    "198,71": 199,
    "101,75": 200,
    "64,71": 201,
    "201,79": 202,
    "202,77": 203,
    "30,65": 204,
    "204,66": 205,
    "205,67": 206,
    "206,60": 207,
    "72,61": 208,
    "208,64": 209,
    "64,60": 210,
    "210,71": 211,
    "201,60": 212,
    "23,11": 213,
    "213,1": 214,
    "14,14": 215,
    "60,81": 216,
    "216,64": 217,
    "217,73": 218,
    "131,78": 219,
    "180,60": 220,
    "34,73": 221,
    "221,66": 222,
    "222,71": 223,
    "73,78": 224,
    "224,1": 225,
    "12,34": 226,
    "226,73": 227,
    "227,66": 228,
    "228,71": 229,
    "60,71": 230,
    "230,81": 231,
    "231,60": 232,
    "232,63": 233,
    "233,74": 234,
    "71,64": 235,
    "235,66": 236,
    "236,64": 237,
    "71,74": 238,
    "238,84": 239,
    "84,1": 240,
    "77,65": 241,
    "241,74": 242,
    "242,77": 243,
    "60,78": 244,
    "244,79": 245,
    "245,60": 246,
    "23,8": 247,
    "72,60": 248,
    "248,71": 249,
    "249,71": 250,
    "105,74": 251,
    "251,73": 252,
    "1,7": 253,
    "253,61": 254,
    "254,13": 255,
    "62,79": 256,
    "256,80": 257,
    "74,78": 258,
    "258,60": 259,
    "259,80": 260,
    "260,77": 261,
    "77,81": 262,
    "262,68": 263,
    "263,62": 264,
    "264,64": 265,
    "32,11": 266,
    "266,1": 267,
    "149,76": 268,
    "268,80": 269,
    "60,73": 270,
    "270,66": 271,
    "271,64": 272,
    "272,71": 273,
    "79,74": 274,
    "274,61": 275,
    "68,77": 276,
    "276,78": 277,
    "277,79": 278,
    "60,62": 279,
    "279,64": 280,
    "72,75": 281,
    "281,68": 282,
    "282,74": 283,
    "283,73": 284,
    "31,64": 285,
    "285,60": 286,
    "52,38": 287,
    "287,38": 288,
    "85,60": 289,
    "289,79": 290,
    "71,71": 291,
    "291,68": 292,
    "292,73": 293,
    "293,66": 294,
    "49,47": 295,
    "295,49": 296,
    "80,62": 297,
    "297,79": 298,
    "77,66": 299,
    "299,64": 300,
    "66,1": 301,
    "301,40": 302,
    "302,74": 303,
    "68,62": 304,
    "304,80": 305,
    "305,71": 306,
    "306,79": 307,
    "73,12": 308,
    "150,73": 309,
    "309,63": 310,
    "33,13": 311,
    "68,73": 312,
    "312,68": 313,
    "313,79": 314,
    "314,68": 315,
    "315,74": 316,
    "316,73": 317,
    "73,60": 318,
    "318,71": 319,
    "319,71": 320,
    "320,84": 321,
    "68,78": 322,
    "322,62": 323,
    "323,80": 324,
    "324,78": 325,
    "201,1": 326,
    "244,68": 327,
    "327,74": 328,
    "328,73": 329,
    "61,60": 330,
    "330,61": 331,
    "66,64": 332,
    "332,73": 333,
    "333,62": 334,
    "70,68": 335,
    "335,73": 336,
    "67,80": 337,
    "337,77": 338,
    "338,78": 339,
    "339,60": 340,
    "138,14": 341,
    "341,78": 342,
    "14,70": 343,
    "343,66": 344,
    "149,79": 345,
    "345,67": 346,
    "346,64": 347,
    "74,79": 348,
    "348,67": 349,
    "349,64": 350,
    "210,78": 351,
    "351,80": 352,
    "352,77": 353,
    "258,64": 354,
    "354,1": 355,
    "78,71": 356,
    "356,60": 357,
    "332,71": 358,
    "32,85": 359,
    "359,64": 360,
    "360,62": 361,
    "361,67": 362,
    "74,81": 363,
    "363,68": 364,
    "364,64": 365,
    "365,79": 366,
    "133,68": 367,
    "367,62": 368,
    "79,79": 369,
    "33,60": 370,
    "370,73": 371,
    "371,68": 372,
    "372,64": 373,
    "373,71": 374,
    "256,1": 375,
    "73,66": 376,
    "376,80": 377,
    "7,63": 378,
    "378,13": 379,
    "64,73": 380,
    "380,79": 381,
    "381,78": 382,
    "157,1": 383,
    "84,71": 384,
    "384,64": 385,
    "72,84": 386,
    "386,1": 387,
    "376,71": 388,
    "388,64": 389,
    "60,75": 390,
    "390,60": 391,
    "367,79": 392,
    "60,68": 393,
    "393,78": 394,
    "53,74": 395,
    "395,60": 396,
    "396,73": 397,
    "141,64": 398,
    "398,1": 399,
    "123,64": 400,
    "63,77": 401,
    "401,64": 402,
    "37,60": 403,
    "403,77": 404,
    "404,61": 405,
    "405,74": 406,
    "19,11": 407,
    "407,1": 408,
    "62,67": 409,
    "409,60": 410,
    "410,73": 411,
    "411,68": 412,
    "270,79": 413,
    "57,86": 414,
    "393,68": 415,
    "75,79": 416,
    "416,68": 417,
    "74,80": 418,
    "418,66": 419,
    "70,73": 420,
    "420,74": 421,
    "421,82": 422,
    "422,73": 423,
    "17,1": 424,
    "424,14": 425,
    "425,78": 426,
    "70,64": 427,
    "427,63": 428,
    "60,65": 429,
    "429,79": 430,
    "430,64": 431,
    "123,61": 432,
    "230,80": 433,
    "433,64": 434,
    "64,11": 435,
    "435,1": 436,
    "83,79": 437,
    "291,74": 438,
    "438,82": 439,
    "256,74": 440,
    "440,77": 441,
    "66,77": 442,
    "442,64": 443,
    "443,64": 444,
    "49,33": 445,
    "445,1": 446,
    "369,74": 447,
    "68,72": 448,
    "448,68": 449,
    "449,73": 450,
    "74,61": 451,
    "451,68": 452,
    "452,71": 453,
    "256,68": 454,
    "454,74": 455,
    "230,60": 456,
    "73,77": 457,
    "141,78": 458,
    "42,60": 459,
    "230,78": 460,
    "460,64": 461,
    "21,1": 462,
    "462,12": 463,
    "61,71": 464,
    "464,68": 465,
    "35,68": 466,
    "466,73": 467,
    "82,68": 468,
    "468,62": 469,
    "469,67": 470,
    "60,79": 471,
    "471,80": 472,
    "472,77": 473,
    "403,84": 474,
    "474,73": 475,
    "475,64": 476,
    "276,64": 477,
    "477,62": 478,
    "478,79": 479,
    "416,64": 480,
    "480,72": 481,
    "481,61": 482,
    "12,78": 483,
    "483,75": 484,
    "484,64": 485,
    "11,25": 486,
    "71,68": 487,
    "487,79": 488,
    "488,68": 489,
    "85,68": 490,
    "71,60": 491,
    "491,67": 492,
    "492,74": 493,
    "72,74": 494,
    "494,62": 495,
    "495,77": 496,
    "230,64": 497,
    "471,78": 498,
    "498,74": 499,
    "499,73": 500,
    "190,63": 501,
    "64,61": 502,
    "502,60": 503,
    "51,64": 504,
    "504,63": 505,
    "505,60": 506,
    "48,74": 507,
    "507,80": 508,
    "508,79": 509,
    "509,67": 510,
    "62,74": 511,
    "511,1": 512,
    "83,64": 513,
    "73,62": 514,
    "514,67": 515,
    "82,67": 516,
    "516,74": 517,
    "517,1": 518,
    "348,64": 519,
    "519,77": 520,
    "78,68": 521,
    "521,79": 522,
    "74,73": 523,
    "523,68": 524,
    "524,62": 525,
    "36,74": 526,
    "526,79": 527,
    "527,67": 528,
    "410,77": 529,
    "529,60": 530,
    "530,62": 531,
    "531,79": 532,
    "65,77": 533,
    "533,68": 534,
    "534,62": 535,
    "535,60": 536,
    "30,72": 537,
    "537,64": 538,
    "538,77": 539,
    "539,68": 540,
    "64,62": 541,
    "541,67": 542,
    "14,78": 543,
    "61,77": 544,
    "544,64": 545,
    "545,81": 546,
    "84,62": 547,
    "547,67": 548,
    "80,71": 549,
    "73,71": 550,
    "550,84": 551,
    "1,82": 552,
    "552,68": 553,
    "553,79": 554,
    "554,67": 555,
    "210,72": 556,
    "471,68": 557,
    "557,74": 558,
    "558,73": 559,
    "147,77": 560,
    "560,84": 561,
    "561,1": 562,
    "62,71": 563,
    "563,68": 564,
    "564,73": 565,
    "78,64": 566,
    "566,71": 567,
    "567,65": 568,
    "72,64": 569,
    "569,77": 570,
    "570,68": 571,
    "68,79": 572,
    "572,67": 573,
    "573,64": 574,
    "75,1": 575,
    "575,74": 576,
    "576,65": 577,
    "577,1": 578,
    "511,71": 579,
    "579,73": 580,
    "84,73": 581,
    "572,1": 582,
    "424,12": 583,
    "258,71": 584,
    "75,67": 585,
    "585,74": 586,
    "541,79": 587,
    "180,62": 588,
    "588,79": 589,
    "47,36": 590,
    "590,31": 591,
    "123,73": 592,
    "77,78": 593,
    "593,68": 594,
    "594,74": 595,
    "595,73": 596,
    "129,73": 597,
    "149,63": 598,
    "149,75": 599,
    "599,64": 600,
    "123,79": 601,
    "601,64": 602,
    "448,75": 603,
    "603,74": 604,
    "604,77": 605,
    "605,79": 606,
    "47,44": 607,
    "607,42": 608,
    "63,80": 609,
    "609,62": 610,
    "12,61": 611,
    "611,74": 612,
    "34,1": 613,
    "613,61": 614,
    "614,77": 615,
    "201,75": 616,
    "616,1": 617,
    "291,64": 618,
    "618,63": 619,
    "74,66": 620,
    "620,68": 621,
    "621,62": 622,
    "48,64": 623,
    "623,62": 624,
    "624,74": 625,
    "625,73": 626,
    "626,63": 627,
    "79,80": 628,
    "628,60": 629,
    "629,71": 630,
    "149,81": 631,
    "631,64": 632,
    "40,64": 633,
    "633,79": 634,
    "634,67": 635,
    "635,80": 636,
    "153,61": 637,
    "66,80": 638,
    "638,64": 639,
    "141,62": 640,
    "417,63": 641,
    "79,67": 642,
    "642,74": 643,
    "643,71": 644,
    "644,68": 645,
    "64,79": 646,
    "646,67": 647,
    "74,77": 648,
    "648,75": 649,
    "649,74": 650,
    "650,77": 651,
    "651,60": 652,
    "468,63": 653,
    "653,79": 654,
    "654,67": 655,
    "32,8": 656,
    "145,63": 657,
    "494,78": 658,
    "149,72": 659,
    "659,1": 660,
    "75,64": 661,
    "661,64": 662,
    "662,63": 663,
    "102,73": 664,
    "664,68": 665,
    "665,62": 666,
    "23,1": 667,
    "667,12": 668,
    "489,74": 669,
    "68,60": 670,
    "670,73": 671,
    "322,64": 672,
    "672,73": 673,
    "673,67": 674,
    "674,74": 675,
    "60,63": 676,
    "676,60": 677,
    "677,84": 678,
    "77,9": 679,
    "71,63": 680,
    "680,77": 681,
    "681,64": 682,
    "80,75": 683,
    "683,78": 684,
    "238,81": 685,
    "230,1": 686,
    "77,63": 687,
    "687,1": 688,
    "64,82": 689,
    "77,77": 690,
    "690,84": 691,
    "105,81": 692,
    "210,77": 693,
    "693,62": 694,
    "60,61": 695,
    "695,74": 696,
    "696,77": 697,
    "66,71": 698,
    "698,74": 699,
    "699,61": 700,
    "700,60": 701,
    "701,71": 702,
    "244,1": 703,
    "80,68": 704,
    "79,60": 705,
    "705,68": 706,
    "706,71": 707,
    "145,79": 708,
    "708,77": 709,
    "687,82": 710,
    "710,60": 711,
    "711,77": 712,
    "712,64": 713,
    "252,60": 714,
    "198,79": 715,
    "715,64": 716,
    "716,64": 717,
    "238,62": 718,
    "718,70": 719,
    "9,34": 720,
    "238,77": 721,
    "34,60": 722,
    "67,64": 723,
    "723,62": 724,
    "724,67": 725,
    "19,8": 726,
    "726,9": 727,
    "61,80": 728,
    "73,79": 729,
    "729,84": 730,
    "133,64": 731,
    "363,60": 732,
    "62,68": 733,
    "733,64": 734,
    "71,80": 735,
    "735,78": 736,
    "736,68": 737,
    "572,68": 738,
    "738,78": 739,
    "62,77": 740,
    "740,64": 741,
    "741,64": 742,
    "742,73": 743,
    "692,64": 744,
    "136,61": 745,
    "64,74": 746,
    "746,75": 747,
    "747,71": 748,
    "748,64": 749,
    "66,74": 750,
    "750,73": 751,
    "68,63": 752,
    "752,64": 753,
    "77,61": 754,
    "754,74": 755,
    "755,73": 756,
    "81,60": 757,
    "690,68": 758,
    "758,64": 759,
    "759,63": 760,
    "11,15": 761,
    "761,15": 762,
    "487,73": 763,
    "763,74": 764,
    "74,72": 765,
    "765,60": 766,
    "766,68": 767,
    "767,73": 768,
    "42,68": 769,
    "769,73": 770,
    "770,68": 771,
    "771,78": 772,
    "772,79": 773,
    "511,80": 774,
    "64,78": 775,
    "775,80": 776,
    "776,78": 777,
    "68,74": 778,
    "778,73": 779,
    "68,64": 780,
    "780,62": 781,
    "781,64": 782,
    "431,77": 783,
    "78,75": 784,
    "784,64": 785,
    "785,62": 786,
    "786,79": 787,
    "69,80": 788,
    "788,77": 789,
    "93,73": 790,
    "790,79": 791,
    "497,62": 792,
    "792,79": 793,
    "84,64": 794,
    "794,79": 795,
    "136,81": 796,
    "348,78": 797,
    "797,82": 798,
    "798,60": 799,
    "49,51": 800,
    "800,1": 801,
    "318,77": 802,
    "802,62": 803,
    "62,64": 804,
    "804,78": 805,
    "805,78": 806,
    "491,68": 807,
    "807,72": 808,
    "671,64": 809,
    "809,79": 810,
    "418,81": 811,
    "811,64": 812,
    "71,84": 813,
    "813,73": 814,
    "72,9": 815,
    "63,74": 816,
    "816,75": 817,
    "817,67": 818,
    "19,12": 819,
    "819,84": 820,
    "820,64": 821,
    "821,60": 822,
    "822,77": 823,
    "141,72": 824,
    "824,60": 825,
    "77,79": 826,
    "826,64": 827,
    "827,63": 828,
    "68,8": 829,
    "695,71": 830,
    "830,64": 831,
    "50,73": 832,
    "80,79": 833,
    "833,71": 834,
    "834,64": 835,
    "30,71": 836,
    "75,68": 837,
    "837,63": 838,
    "13,8": 839,
    "50,13": 840,
    "840,48": 841,
    "841,13": 842,
    "163,79": 843,
    "66,60": 844,
    "844,68": 845,
    "845,73": 846,
    "618,84": 847,
    "61,61": 848,
    "848,68": 849,
    "487,66": 850,
    "850,73": 851,
    "136,73": 852,
    "852,66": 853,
    "619,1": 854,
    "61,84": 855,
    "855,79": 856,
    "123,77": 857,
    "690,64": 858,
    "858,73": 859,
    "299,60": 860,
    "860,73": 861,
    "642,64": 862,
    "64,64": 863,
    "863,1": 864,
    "69,60": 865,
    "865,72": 866,
    "62,62": 867,
    "867,80": 868,
    "648,72": 869,
    "804,75": 870,
    "870,79": 871,
    "9,49": 872,
    "75,71": 873,
    "1,79": 874,
    "874,74": 875,
    "79,85": 876,
    "37,64": 877,
    "416,80": 878,
    "878,77": 879,
    "879,64": 880,
    "77,71": 881,
    "235,81": 882,
    "882,64": 883,
    "883,71": 884,
    "79,1": 885,
    "143,72": 886,
    "886,64": 887,
    "887,73": 888,
    "73,63": 889,
    "889,60": 890,
    "890,77": 891,
    "891,63": 892,
    "93,63": 893,
    "705,79": 894,
    "894,64": 895,
    "895,78": 896,
    "172,81": 897,
    "897,68": 898,
    "898,63": 899,
    "899,80": 900,
    "39,80": 901,
    "210,80": 902,
    "902,79": 903,
    "72,72": 904,
    "904,74": 905,
    "905,73": 906,
    "138,73": 907,
    "907,63": 908,
    "908,60": 909,
    "909,78": 910,
    "71,81": 911,
    "318,73": 912,
    "108,71": 913,
    "409,1": 914,
    "67,1": 915,
    "180,79": 916,
    "196,24": 917,
    "1,60": 918,
    "918,78": 919,
    "511,73": 920,
    "920,63": 921,
    "166,71": 922,
    "922,68": 923,
    "923,60": 924,
    "924,72": 925,
    "8,1": 926,
    "926,14": 927,
    "927,79": 928,
    "281,71": 929,
    "77,75": 930,
    "15,1": 931,
    "931,14": 932,
    "932,79": 933,
    "82,82": 934,
    "152,77": 935,
    "935,64": 936,
    "64,63": 937,
    "937,74": 938,
    "938,73": 939,
    "141,60": 940,
    "940,66": 941,
    "31,1": 942,
    "904,60": 943,
    "943,73": 944,
    "944,63": 945,
    "844,77": 946,
    "946,64": 947,
    "947,79": 948,
    "78,74": 949,
    "949,62": 950,
    "950,68": 951,
    "951,60": 952,
    "32,74": 953,
    "270,60": 954,
    "954,63": 955,
    "642,68": 956,
    "956,73": 957,
    "643,80": 958,
    "775,79": 959,
    "959,68": 960,
    "960,72": 961,
    "35,36": 962,
    "962,32": 963,
    "417,78": 964,
    "15,12": 965,
    "916,74": 966,
    "60,13": 967,
    "585,64": 968,
    "968,73": 969,
    "8,9": 970,
    "970,16": 971,
    "971,24": 972,
    "456,84": 973,
    "648,79": 974,
    "63,73": 975,
    "975,64": 976,
    "976,84": 977,
    "52,74": 978,
    "978,77": 979,
    "780,73": 980,
    "980,63": 981,
    "1,65": 982,
    "982,68": 983,
    "983,62": 984,
    "984,79": 985,
    "985,68": 986,
    "794,63": 987,
    "763,66": 988,
    "35,77": 989,
    "989,60": 990,
    "990,73": 991,
    "873,74": 992,
    "33,43": 993,
    "993,30": 994,
    "680,68": 995,
    "995,64": 996,
    "996,77": 997,
    "143,79": 998,
    "998,60": 999,
    "13,9": 1000,
    "217,1": 1001,
    "494,73": 1002,
    "1002,66": 1003,
    "190,64": 1004,
    "1004,1": 1005,
    "166,64": 1006,
    "1006,1": 1007,
    "64,68": 1008,
    "1008,73": 1009,
    "1009,66": 1010,
    "873,60": 1011,
    "146,68": 1012,
    "1012,71": 1013,
    "82,60": 1014,
    "1014,77": 1015,
    "75,72": 1016,
    "1016,64": 1017,
    "1017,73": 1018,
    "193,82": 1019,
    "1019,73": 1020,
    "123,84": 1021,
    "235,84": 1022,
    "276,1": 1023,
    "494,79": 1024,
    "676,68": 1025,
    "1025,73": 1026,
    "7,61": 1027,
    "1027,13": 1028,
    "1028,1": 1029,
    "48,51": 1030,
    "1030,32": 1031,
    "61,68": 1032,
    "1032,73": 1033,
    "514,64": 1034,
    "1034,1": 1035,
    "322,67": 1036,
    "585,60": 1037,
    "1037,73": 1038,
    "68,85": 1039,
    "1039,64": 1040,
    "54,74": 1041,
    "1041,80": 1042,
    "66,66": 1043,
    "646,1": 1044,
    "105,72": 1045,
    "63,84": 1046,
    "642,60": 1047,
    "1047,79": 1048,
    "949,63": 1049,
    "64,70": 1050,
    "1050,1": 1051,
    "20,1": 1052,
    "1052,73": 1053,
    "1053,63": 1054,
    "1054,60": 1055,
    "1055,78": 1056,
    "304,79": 1057,
    "235,1": 1058,
    "312,62": 1059,
    "1059,71": 1060,
    "1060,80": 1061,
    "1061,63": 1062,
    "52,67": 1063,
    "101,60": 1064,
    "1064,73": 1065,
    "824,78": 1066,
    "1043,64": 1067,
    "1067,78": 1068,
    "1068,79": 1069,
    "733,65": 1070,
    "1070,68": 1071,
    "274,72": 1072,
    "38,51": 1073,
    "77,72": 1074,
    "1074,68": 1075,
    "78,1": 1076,
    "1076,74": 1077,
    "1077,65": 1078,
    "1078,1": 1079,
    "563,64": 1080,
    "1032,71": 1081,
    "1081,68": 1082,
    "63,63": 1083,
    "1083,64": 1084,
    "1084,63": 1085,
    "642,1": 1086,
    "77,64": 1087,
    "1087,73": 1088,
    "1088,62": 1089,
    "1089,67": 1090,
    "166,79": 1091,
    "1091,68": 1092,
    "115,71": 1093,
    "1093,84": 1094,
    "60,72": 1095,
    "1095,64": 1096,
    "1096,78": 1097,
    "198,73": 1098,
    "74,82": 1099,
    "1099,64": 1100,
    "1100,63": 1101,
    "304,1": 1102,
    "36,77": 1103,
    "1103,64": 1104,
    "74,65": 1105,
    "1105,12": 1106,
    "77,80": 1107,
    "376,63": 1108,
    "1108,74": 1109,
    "72,80": 1110,
    "1110,73": 1111,
    "1111,68": 1112,
    "869,74": 1113,
    "1113,80": 1114,
    "1114,78": 1115,
    "180,73": 1116,
    "74,67": 1117,
    "1117,73": 1118,
    "61,78": 1119,
    "1119,64": 1120,
    "1120,77": 1121,
    "1121,81": 1122,
    "244,75": 1123,
    "1123,60": 1124,
    "1124,77": 1125,
    "270,63": 1126,
    "1126,64": 1127,
    "1127,77": 1128,
    "156,71": 1129,
    "1129,74": 1130,
    "974,67": 1131,
    "172,63": 1132,
    "511,72": 1133,
    "1133,75": 1134,
    "65,74": 1135,
    "1135,77": 1136,
    "363,64": 1137,
    "74,70": 1138,
    "1138,64": 1139,
    "201,64": 1140,
    "14,72": 1141,
    "1141,60": 1142,
    "1142,79": 1143,
    "180,78": 1144,
    "1039,74": 1145,
    "1145,73": 1146,
    "31,50": 1147,
    "648,63": 1148,
    "1148,64": 1149,
    "1149,77": 1150,
    "75,77": 1151,
    "1151,64": 1152,
    "1152,78": 1153,
    "68,70": 1154,
    "1154,64": 1155,
    "572,62": 1156,
    "1156,67": 1157,
    "172,79": 1158,
    "115,74": 1159,
    "1159,71": 1160,
    "79,64": 1161,
    "1161,77": 1162,
    "1162,73": 1163,
    "97,1": 1164,
    "54,64": 1165,
    "1165,71": 1166,
    "1166,79": 1167,
    "867,74": 1168,
    "1168,77": 1169,
    "1169,63": 1170,
    "78,60": 1171,
    "1171,80": 1172,
    "1172,77": 1173,
    "780,1": 1174,
    "611,60": 1175,
    "369,68": 1176,
    "1176,73": 1177,
    "1177,66": 1178,
    "258,68": 1179,
    "1179,79": 1180,
    "14,77": 1181,
    "1181,64": 1182,
    "65,80": 1183,
    "687,64": 1184,
    "141,74": 1185,
    "646,79": 1186,
    "1186,64": 1187,
    "1187,77": 1188,
    "184,74": 1189,
    "84,74": 1190,
    "64,66": 1191,
    "1191,68": 1192,
    "1192,73": 1193,
    "38,73": 1194,
    "1194,63": 1195,
    "248,66": 1196,
    "858,71": 1197,
    "274,77": 1198,
    "224,68": 1199,
    "1199,74": 1200,
    "1200,73": 1201,
    "775,11": 1202,
    "1202,1": 1203,
    "64,83": 1204,
    "1204,79": 1205,
    "376,1": 1206,
    "78,80": 1207,
    "1207,71": 1208,
    "1208,79": 1209,
    "110,68": 1210,
    "1210,73": 1211,
    "1211,66": 1212,
    "81,74": 1213,
    "1213,73": 1214,
    "1214,1": 1215,
    "80,60": 1216,
    "1216,77": 1217,
    "184,84": 1218,
    "837,78": 1219,
    "1219,74": 1220,
    "1220,63": 1221,
    "67,71": 1222,
    "1105,1": 1223,
    "376,64": 1224,
    "1224,77": 1225,
    "1137,77": 1226,
    "1226,73": 1227,
    "826,68": 1228,
    "1228,71": 1229,
    "1229,71": 1230,
    "61,74": 1231,
    "1231,63": 1232,
    "80,65": 1233,
    "1233,65": 1234,
    "1234,72": 1235,
    "1235,60": 1236,
    "1204,60": 1237,
    "1237,73": 1238,
    "1238,63": 1239,
    "1032,79": 1240,
    "1014,84": 1241,
    "133,77": 1242,
    "1242,74": 1243,
    "33,49": 1244,
    "1244,33": 1245,
    "1245,1": 1246,
    "75,60": 1247,
    "78,78": 1248,
    "1248,60": 1249,
    "1249,84": 1250,
    "48,79": 1251,
    "1251,60": 1252,
    "22,8": 1253,
    "70,77": 1254,
    "1254,60": 1255,
    "72,68": 1256,
    "1087,78": 1257,
    "238,66": 1258,
    "35,48": 1259,
    "1259,42": 1260,
    "101,61": 1261,
    "78,70": 1262,
    "67,60": 1263,
    "1263,78": 1264,
    "1264,1": 1265,
    "521,63": 1266,
    "68,61": 1267,
    "35,64": 1268,
    "1268,61": 1269,
    "67,72": 1270,
    "765,72": 1271,
    "1271,60": 1272,
    "1272,73": 1273,
    "1273,63": 1274,
    "235,78": 1275,
    "1275,79": 1276,
    "248,62": 1277,
    "1277,67": 1278,
    "1278,68": 1279,
    "1279,73": 1280,
    "60,66": 1281,
    "1281,61": 1282,
    "1282,60": 1283,
    "1283,77": 1284,
    "400,71": 1285,
    "61,64": 1286,
    "1286,71": 1287,
    "648,64": 1288,
    "746,66": 1289,
    "765,64": 1290,
    "330,71": 1291,
    "180,64": 1292,
    "1292,78": 1293,
    "80,61": 1294,
    "1294,71": 1295,
    "1295,64": 1296,
    "79,84": 1297,
    "1297,1": 1298,
    "60,67": 1299,
    "1299,60": 1300,
    "494,80": 1301,
    "1301,73": 1302,
    "97,64": 1303,
    "1303,78": 1304,
    "1304,1": 1305,
    "487,78": 1306,
    "166,62": 1307,
    "62,60": 1308,
    "1308,66": 1309,
    "1309,74": 1310,
    "332,77": 1311,
    "238,74": 1312,
    "1312,63": 1313,
    "201,65": 1314,
    "110,60": 1315,
    "32,67": 1316,
    "1316,68": 1317,
    "1317,73": 1318,
    "471,64": 1319,
    "1319,66": 1320,
    "43,74": 1321,
    "1321,61": 1322,
    "1322,64": 1323,
    "1323,71": 1324,
    "706,73": 1325,
    "71,61": 1326,
    "1326,60": 1327,
    "304,67": 1328,
    "48,60": 1329,
    "1329,71": 1330,
    "1330,81": 1331,
    "1331,60": 1332,
    "1332,63": 1333,
    "1333,74": 1334,
    "1308,79": 1335,
    "778,1": 1336,
    "638,60": 1337,
    "1337,66": 1338,
    "64,76": 1339,
    "1339,80": 1340,
    "1340,64": 1341,
    "13,48": 1342,
    "129,64": 1343,
    "785,77": 1344,
    "1344,60": 1345,
    "1345,73": 1346,
    "62,58": 1347,
    "34,80": 1348,
    "1348,77": 1349,
    "133,60": 1350,
    "1350,73": 1351,
    "648,1": 1352,
    "889,84": 1353,
    "1126,1": 1354,
    "66,11": 1355,
    "1355,1": 1356,
    "67,68": 1357,
    "1357,72": 1358,
    "1358,72": 1359,
    "1359,68": 1360,
    "54,8": 1361,
    "1161,72": 1362,
    "1362,78": 1363,
    "39,74": 1364,
    "79,63": 1365,
    "1365,1": 1366,
    "788,73": 1367,
    "147,1": 1368,
    "51,33": 1369,
    "647,74": 1370,
    "1370,63": 1371,
    "1303,63": 1372,
    "513,63": 1373,
    "193,1": 1374,
    "258,74": 1375,
    "953,77": 1376,
    "1376,73": 1377,
    "185,72": 1378,
    "1087,60": 1379,
    "1379,79": 1380,
    "193,79": 1381,
    "1381,60": 1382,
    "1382,61": 1383,
    "1383,71": 1384,
    "729,77": 1385,
    "1357,79": 1386,
    "1386,64": 1387,
    "71,65": 1388,
    "1388,1": 1389,
    "74,83": 1390,
    "77,27": 1391,
    "729,74": 1392,
    "1392,71": 1393,
    "599,67": 1394,
    "1394,64": 1395,
    "566,1": 1396,
    "255,1": 1397,
    "874,63": 1398,
    "1398,1": 1399,
    "491,73": 1400,
    "661,60": 1401,
    "1401,70": 1402,
    "73,73": 1403,
    "1403,68": 1404,
    "1404,60": 1405,
    "376,68": 1406,
    "1406,73": 1407,
    "1407,64": 1408,
    "949,1": 1409,
    "850,67": 1410,
    "1410,79": 1411,
    "35,74": 1412,
    "1412,77": 1413,
    "122,73": 1414,
    "82,73": 1415,
    "30,62": 1416,
    "21,13": 1417,
    "1417,69": 1418,
    "1418,75": 1419,
    "1419,66": 1420,
    "166,66": 1421,
    "65,71": 1422,
    "1014,73": 1423,
    "1,12": 1424,
    "1424,1": 1425,
    "258,78": 1426,
    "1426,68": 1427,
    "1427,61": 1428,
    "32,60": 1429,
    "1429,72": 1430,
    "1430,61": 1431,
    "78,67": 1432,
    "1432,74": 1433,
    "1433,75": 1434,
    "757,73": 1435,
    "1435,66": 1436,
    "312,78": 1437,
    "1437,80": 1438,
    "20,25": 1439,
    "1231,80": 1440,
    "1440,79": 1441,
    "47,64": 1442,
    "82,77": 1443,
    "1443,68": 1444,
    "1444,79": 1445,
    "521,66": 1446,
    "1446,73": 1447,
    "72,78": 1448,
    "1448,64": 1449,
    "1449,71": 1450,
    "661,62": 1451,
    "1451,68": 1452,
    "1452,64": 1453,
    "1453,78": 1454,
    "2,12": 1455,
    "1455,12": 1456,
    "156,1": 1457,
    "166,73": 1458,
    "1458,67": 1459,
    "1459,60": 1460,
    "1460,77": 1461,
    "1461,63": 1462,
    "65,66": 1463,
    "1463,67": 1464,
    "1464,60": 1465,
    "1465,73": 1466,
    "1008,61": 1467,
    "1467,73": 1468,
    "119,73": 1469,
    "48,11": 1470,
    "1470,1": 1471,
    "190,74": 1472,
    "1472,78": 1473,
    "1473,74": 1474,
    "837,62": 1475,
    "890,72": 1476,
    "1476,64": 1477,
    "1477,73": 1478,
    "77,1": 1479,
    "1479,74": 1480,
    "1480,65": 1481,
    "1481,1": 1482,
    "115,62": 1483,
    "1483,64": 1484,
    "73,61": 1485,
    "1485,78": 1486,
    "1486,75": 1487,
    "7,16": 1488,
    "131,68": 1489,
    "1489,60": 1490,
    "65,60": 1491,
    "1491,71": 1492,
    "1257,78": 1493,
    "253,63": 1494,
    "1494,13": 1495,
    "1495,1": 1496,
    "1100,81": 1497,
    "437,80": 1498,
    "1498,77": 1499,
    "1499,64": 1500,
    "31,13": 1501,
    "541,74": 1502,
    "1502,73": 1503,
    "1503,63": 1504,
    "299,80": 1505,
    "1087,84": 1506,
    "763,64": 1507,
    "1110,78": 1508,
    "1508,68": 1509,
    "901,63": 1510,
    "1510,60": 1511,
    "1511,68": 1512,
    "1512,78": 1513,
    "52,60": 1514,
    "230,71": 1515,
    "1515,64": 1516,
    "1516,71": 1517,
    "67,74": 1518,
    "1518,77": 1519,
    "198,84": 1520,
    "1281,64": 1521,
    "521,73": 1522,
    "1522,64": 1523,
    "1523,78": 1524,
    "837,79": 1525,
    "1525,60": 1526,
    "64,84": 1527,
    "1527,1": 1528,
    "468,78": 1529,
    "1529,64": 1530,
    "1308,71": 1531,
    "1531,71": 1532,
    "1532,84": 1533,
    "766,79": 1534,
    "73,70": 1535,
    "20,5": 1536,
    "77,70": 1537,
    "1537,68": 1538,
    "1538,73": 1539,
    "1539,66": 1540,
    "78,72": 1541,
    "44,73": 1542,
    "930,74": 1543,
    "1543,77": 1544,
    "877,61": 1545,
    "1545,77": 1546,
    "1546,64": 1547,
    "1547,82": 1548,
    "271,80": 1549,
    "62,70": 1550,
    "1550,1": 1551,
    "198,1": 1552,
    "1,73": 1553,
    "1553,74": 1554,
    "1554,79": 1555,
    "166,70": 1556,
    "569,78": 1557,
    "1557,79": 1558,
    "1087,71": 1559,
    "1559,84": 1560,
    "1259,35": 1561,
    "549,67": 1562,
    "1562,60": 1563,
    "1563,72": 1564,
    "1491,72": 1565,
    "494,77": 1566,
    "1151,74": 1567,
    "342,80": 1568,
    "274,73": 1569,
    "136,79": 1570,
    "68,81": 1571,
    "1571,60": 1572,
    "1572,71": 1573,
    "185,77": 1574,
    "79,62": 1575,
    "15,8": 1576,
    "20,15": 1577,
    "84,75": 1578,
    "1578,79": 1579,
    "1048,1": 1580,
    "32,1": 1581,
    "162,68": 1582,
    "1582,73": 1583,
    "1583,79": 1584,
    "1422,80": 1585,
    "1585,64": 1586,
    "1586,73": 1587,
    "1040,63": 1588,
    "66,72": 1589,
    "1589,60": 1590,
    "572,64": 1591,
    "1008,81": 1592,
    "83,84": 1593,
    "780,63": 1594,
    "1594,1": 1595,
    "110,64": 1596,
    "1161,63": 1597,
    "30,11": 1598,
    "1598,1": 1599,
    "83,80": 1600,
    "1600,77": 1601,
    "418,77": 1602,
    "1602,62": 1603,
    "1603,64": 1604,
    "182,80": 1605,
    "1605,62": 1606,
    "780,71": 1607,
    "1607,63": 1608,
    "1488,24": 1609,
    "522,64": 1610,
    "37,13": 1611,
    "1015,63": 1612,
    "523,84": 1613,
    "1613,72": 1614,
    "704,79": 1615,
    "30,35": 1616,
    "1616,41": 1617,
    "6,78": 1618,
    "1618,1": 1619,
    "31,77": 1620,
    "1620,68": 1621,
    "1621,79": 1622,
    "1622,68": 1623,
    "1623,78": 1624,
    "833,67": 1625,
    "16,8": 1626,
    "1319,80": 1627,
    "380,80": 1628,
    "1628,64": 1629,
    "128,79": 1630,
    "642,77": 1631,
    "1631,74": 1632,
    "1632,75": 1633,
    "1213,68": 1634,
    "1634,63": 1635,
    "97,68": 1636,
    "1636,62": 1637,
    "166,68": 1638,
    "1638,74": 1639,
    "1639,80": 1640,
    "648,60": 1641,
    "1641,67": 1642,
    "79,78": 1643,
    "30,1": 1644,
    "676,64": 1645,
    "753,73": 1646,
    "1136,72": 1647,
    "141,73": 1648,
    "729,60": 1649,
    "1649,71": 1650,
    "390,80": 1651,
    "1651,71": 1652,
    "84,66": 1653,
    "1653,72": 1654,
    "167,79": 1655,
    "75,75": 1656,
    "1656,64": 1657,
    "1657,73": 1658,
    "78,82": 1659,
    "1659,64": 1660,
    "1660,77": 1661,
    "68,69": 1662,
    "937,63": 1663,
    "1497,64": 1664,
    "198,62": 1665,
    "1665,79": 1666,
    "201,74": 1667,
    "1667,75": 1668,
    "1571,64": 1669,
    "1669,77": 1670,
    "1087,64": 1671,
    "1671,1": 1672,
    "193,80": 1673,
    "628,62": 1674,
    "439,1": 1675,
    "393,66": 1676,
    "894,68": 1677,
    "44,62": 1678,
    "1678,79": 1679,
    "1679,74": 1680,
    "1680,61": 1681,
    "70,1": 1682,
    "85,84": 1683,
    "1683,72": 1684,
    "1684,64": 1685,
    "270,73": 1686,
    "1686,68": 1687,
    "1687,61": 1688,
    "304,70": 1689,
    "379,1": 1690,
    "746,80": 1691,
    "11,1": 1692,
    "723,77": 1693,
    "292,74": 1694,
    "154,73": 1695,
    "185,73": 1696,
    "1014,79": 1697,
    "1161,60": 1698,
    "1698,63": 1699,
    "79,71": 1700,
    "1700,60": 1701,
    "61,73": 1702,
    "930,77": 1703,
    "1703,64": 1704,
    "1704,79": 1705,
    "36,37": 1706,
    "1706,85": 1707,
    "1263,81": 1708,
    "1708,64": 1709,
    "41,13": 1710,
    "1321,81": 1711,
    "1711,64": 1712,
    "1712,72": 1713,
    "1713,61": 1714,
    "15,15": 1715,
    "1715,15": 1716,
    "180,74": 1717,
    "1717,77": 1718,
    "1213,71": 1719,
    "1719,81": 1720,
    "735,63": 1721,
    "643,63": 1722,
    "1516,63": 1723,
    "592,79": 1724,
    "34,77": 1725,
    "1725,63": 1726,
    "723,1": 1727,
    "51,30": 1728,
    "83,75": 1729,
    "1729,60": 1730,
    "1730,73": 1731,
    "244,64": 1732,
    "1732,63": 1733,
    "1733,1": 1734,
    "643,77": 1735,
    "1247,77": 1736,
    "68,1": 1737,
    "521,62": 1738,
    "390,68": 1739,
    "1739,79": 1740,
    "24,11": 1741,
    "1741,1": 1742,
    "1518,63": 1743,
    "152,63": 1744,
    "491,72": 1745,
    "1350,81": 1746,
    "291,12": 1747,
    "16,24": 1748,
    "1308,73": 1749,
    "1749,79": 1750,
    "448,60": 1751,
    "1751,79": 1752,
    "327,60": 1753,
    "60,84": 1754,
    "1754,78": 1755,
    "22,12": 1756,
    "1756,16": 1757,
    "3,48": 1758,
    "180,81": 1759,
    "241,60": 1760,
    "1760,62": 1761,
    "79,82": 1762,
    "1762,74": 1763,
    "1763,77": 1764,
    "523,1": 1765,
    "67,77": 1766,
    "1766,74": 1767,
    "1767,75": 1768,
    "454,62": 1769,
    "73,80": 1770,
    "1770,64": 1771,
    "1248,68": 1772,
    "1772,74": 1773,
    "1773,73": 1774,
    "66,73": 1775,
    "1775,74": 1776,
    "1776,78": 1777,
    "496,60": 1778,
    "276,80": 1779,
    "1779,78": 1780,
    "1525,64": 1781,
    "338,62": 1782,
    "1782,67": 1783,
    "458,68": 1784,
    "1784,74": 1785,
    "61,13": 1786,
    "1786,1": 1787,
    "890,78": 1788,
    "31,11": 1789,
    "1789,1": 1790,
    "152,60": 1791,
    "1791,71": 1792,
    "1792,79": 1793,
    "1793,67": 1794,
    "141,68": 1795,
    "1308,72": 1796,
    "1316,77": 1797,
    "1797,68": 1798,
    "1798,78": 1799,
    "863,79": 1800,
    "62,32": 1801,
    "1801,60": 1802,
    "533,64": 1803,
    "1803,63": 1804,
    "863,63": 1805,
    "1095,78": 1806,
    "593,1": 1807,
    "184,80": 1808,
    "1808,62": 1809,
    "1809,79": 1810,
    "230,84": 1811,
    "1811,78": 1812,
    "1812,68": 1813,
    "1813,78": 1814,
    "270,80": 1815,
    "1815,60": 1816,
    "1816,77": 1817,
    "1107,78": 1818,
    "1818,60": 1819,
    "244,70": 1820,
    "491,81": 1821,
    "463,1": 1822,
    "487,74": 1823,
    "918,77": 1824,
    "201,68": 1825,
    "1825,64": 1826,
    "41,35": 1827,
    "79,61": 1828,
    "1828,60": 1829,
    "1829,71": 1830,
    "1830,71": 1831,
    "48,31": 1832,
    "1832,43": 1833,
    "322,79": 1834,
    "1834,74": 1835,
    "67,84": 1836,
    "1836,78": 1837,
    "1837,68": 1838,
    "867,71": 1839,
    "1839,64": 1840,
    "659,64": 1841,
    "1841,79": 1842,
    "131,64": 1843,
    "1843,73": 1844,
    "705,77": 1845,
    "1845,79": 1846,
    "1846,64": 1847,
    "1847,63": 1848,
    "312,74": 1849,
    "1849,68": 1850,
    "46,80": 1851,
    "1700,64": 1852,
    "398,68": 1853,
    "1853,66": 1854,
    "1491,77": 1855,
    "1855,64": 1856,
    "1116,66": 1857,
    "145,68": 1858,
    "201,84": 1859,
    "80,66": 1860,
    "1860,67": 1861,
    "71,75": 1862,
    "1,14": 1863,
    "1863,79": 1864,
    "276,68": 1865,
    "1865,79": 1866,
    "1096,73": 1867,
    "1867,79": 1868,
    "1288,63": 1869,
    "6,79": 1870,
    "443,78": 1871,
    "1871,78": 1872,
    "774,73": 1873,
    "71,79": 1874,
    "1874,60": 1875,
    "1875,73": 1876,
    "1057,80": 1877,
    "1877,77": 1878,
    "74,68": 1879,
    "1879,63": 1880,
    "1772,61": 1881,
    "786,68": 1882,
    "1882,60": 1883,
    "1883,71": 1884,
    "64,75": 1885,
    "1885,79": 1886,
    "1514,77": 1887,
    "62,84": 1888,
    "1888,1": 1889,
    "63,66": 1890,
    "1890,64": 1891,
    "1891,63": 1892,
    "442,74": 1893,
    "1893,80": 1894,
    "312,60": 1895,
    "1535,78": 1896,
    "893,1": 1897,
    "1537,64": 1898,
    "1898,79": 1899,
    "348,68": 1900,
    "60,1": 1901,
    "44,71": 1902,
    "1902,63": 1903,
    "51,1": 1904,
    "501,71": 1905,
    "1905,68": 1906,
    "1906,65": 1907,
    "1907,64": 1908,
    "1575,67": 1909,
    "819,16": 1910,
    "1222,74": 1911,
    "1911,77": 1912,
    "1605,71": 1913,
    "38,78": 1914,
    "1914,71": 1915,
    "1766,68": 1916,
    "1916,78": 1917,
    "1161,73": 1918,
    "322,1": 1919,
    "55,12": 1920,
    "695,68": 1921,
    "766,73": 1922,
    "78,61": 1923,
    "1923,60": 1924,
    "201,63": 1925,
    "1083,71": 1926,
    "201,71": 1927,
    "258,79": 1928,
    "1928,74": 1929,
    "1,32": 1930,
    "1930,44": 1931,
    "1931,50": 1932,
    "84,8": 1933,
    "9,54": 1934,
    "281,67": 1935,
    "418,79": 1936,
    "784,68": 1937,
    "1937,79": 1938,
    "1938,64": 1939,
    "569,63": 1940,
    "224,84": 1941,
    "64,81": 1942,
    "1942,64": 1943,
    "1182,65": 1944,
    "32,49": 1945,
    "1161,78": 1946,
    "804,73": 1947,
    "1947,79": 1948,
    "390,64": 1949,
    "1949,77": 1950,
    "369,71": 1951,
    "488,64": 1952,
    "85,1": 1953,
    "44,11": 1954,
    "1954,1": 1955,
    "427,1": 1956,
    "69,74": 1957,
    "147,71": 1958,
    "1958,74": 1959,
    "1959,75": 1960,
    "1135,80": 1961,
    "1961,73": 1962,
    "1962,63": 1963,
    "704,78": 1964,
    "723,60": 1965,
    "1965,79": 1966,
    "705,61": 1967,
    "1967,71": 1968,
    "1256,71": 1969,
    "1969,71": 1970,
    "1970,68": 1971,
    "51,60": 1972,
    "1972,73": 1973,
    "1973,62": 1974,
    "1974,74": 1975,
    "1975,80": 1976,
    "1976,81": 1977,
    "491,84": 1978,
    "110,77": 1979,
    "418,73": 1980,
    "1980,63": 1981,
    "1074,60": 1982,
    "1982,73": 1983,
    "566,77": 1984,
    "1984,81": 1985,
    "61,69": 1986,
    "1986,64": 1987,
    "1987,62": 1988,
    "1988,79": 1989,
    "77,84": 1990,
    "1990,1": 1991,
    "560,73": 1992,
    "84,77": 1993,
    "1993,68": 1994,
    "1994,66": 1995,
    "1995,67": 1996,
    "1996,79": 1997,
    "735,64": 1998,
    "1161,82": 1999,
    "1999,60": 2000,
    "291,84": 2001,
    "1319,77": 2002,
    "322,78": 2003,
    "2003,68": 2004,
    "593,64": 2005,
    "2005,84": 2006,
    "1509,62": 2007,
    "1936,67": 2008,
    "566,83": 2009,
    "889,64": 2010,
    "380,85": 2011,
    "2011,84": 2012,
    "2012,72": 2013,
    "670,79": 2014,
    "110,80": 2015,
    "147,73": 2016,
    "2016,79": 2017,
    "24,8": 2018,
    "83,60": 2019,
    "2019,78": 2020,
    "648,71": 2021,
    "2021,63": 2022,
    "297,60": 2023,
    "2023,79": 2024,
    "1041,77": 2025,
    "129,62": 2026,
    "2026,60": 2027,
    "1489,79": 2028,
    "2028,68": 2029,
    "82,78": 2030,
    "2030,1": 2031,
    "52,68": 2032,
    "2032,79": 2033,
    "628,77": 2034,
    "2034,73": 2035,
    "185,71": 2036,
    "2036,74": 2037,
    "2037,66": 2038,
    "491,79": 2039,
    "2039,64": 2040,
    "2040,1": 2041,
    "33,80": 2042,
    "2042,73": 2043,
    "2043,64": 2044,
    "43,38": 2045,
    "19,1": 2046,
    "2046,14": 2047,
    "2047,79": 2048,
    "36,60": 2049,
    "2049,77": 2050,
    "2050,84": 2051,
    "64,80": 2052,
    "648,62": 2053,
    "2053,67": 2054,
    "198,63": 2055,
    "68,66": 2056,
    "2056,60": 2057,
    "2057,63": 2058,
    "2010,73": 2059,
    "511,67": 2060,
    "2060,74": 2061,
    "2061,71": 2062,
    "514,60": 2063,
    "13,66": 2064,
    "2064,13": 2065,
    "289,77": 2066,
    "2066,63": 2067,
    "1796,64": 2068,
    "1240,77": 2069,
    "1263,72": 2070,
    "11,84": 2071,
    "2071,58": 2072,
    "354,77": 2073,
    "191,60": 2074,
    "2074,66": 2075,
    "2075,64": 2076,
    "116,1": 2077,
    "1207,77": 2078,
    "844,72": 2079,
    "1863,78": 2080,
    "2080,80": 2081,
    "110,70": 2082,
    "1087,65": 2083,
    "1308,78": 2084,
    "2084,79": 2085,
    "20,13": 2086,
    "2086,69": 2087,
    "2087,75": 2088,
    "2088,66": 2089,
    "299,68": 2090,
    "80,70": 2091,
    "12,77": 2092,
    "2092,60": 2093,
    "2093,73": 2094,
    "2094,66": 2095,
    "145,73": 2096,
    "1165,60": 2097,
    "1162,60": 2098,
    "33,45": 2099,
    "1107,68": 2100,
    "2100,78": 2101,
    "1159,80": 2102,
    "87,87": 2103,
    "330,73": 2104,
    "2104,70": 2105,
    "22,1": 2106,
    "2106,12": 2107,
    "949,75": 2108,
    "37,68": 2109,
    "2109,78": 2110,
    "2110,79": 2111,
    "2111,74": 2112,
    "36,64": 2113,
    "2113,77": 2114,
    "238,73": 2115,
    "1308,80": 2116,
    "2116,78": 2117,
    "1095,74": 2118,
    "2118,80": 2119,
    "2119,78": 2120,
    "110,62": 2121,
    "2121,64": 2122,
    "733,63": 2123,
    "1263,77": 2124,
    "2124,60": 2125,
    "2125,62": 2126,
    "2126,79": 2127,
    "66,79": 2128,
    "2128,67": 2129,
    "1736,79": 2130,
    "1518,75": 2131,
    "146,79": 2132,
    "1171,77": 2133,
    "47,45": 2134,
    "84,79": 2135,
    "2135,67": 2136,
    "418,78": 2137,
    "6,1": 2138,
    "9,48": 2139,
    "2139,62": 2140,
    "1914,77": 2141,
    "2141,60": 2142,
    "2142,64": 2143,
    "2143,71": 2144,
    "2057,79": 2145,
    "60,85": 2146,
    "2146,68": 2147,
    "63,13": 2148,
    "2148,1": 2149,
    "93,72": 2150,
    "80,64": 2151,
    "2151,71": 2152,
    "32,34": 2153,
    "1413,1": 2154,
    "63,81": 2155,
    "2155,60": 2156,
    "2156,73": 2157,
    "190,84": 2158,
    "1893,82": 2159,
    "418,75": 2160,
    "2160,1": 2161,
    "1076,30": 2162,
    "2162,73": 2163,
    "1669,73": 2164,
    "1645,77": 2165,
    "107,60": 2166,
    "2166,79": 2167,
    "219,1": 2168,
    "511,82": 2169,
    "289,61": 2170,
    "2170,64": 2171,
    "2171,79": 2172,
    "1957,68": 2173,
    "2173,73": 2174,
    "32,13": 2175,
    "566,79": 2176,
    "569,73": 2177,
    "2177,79": 2178,
    "2084,64": 2179,
    "886,1": 2180,
    "442,60": 2181,
    "1052,14": 2182,
    "2182,79": 2183,
    "1191,60": 2184,
    "1751,66": 2185,
    "816,64": 2186,
    "2186,78": 2187,
    "2052,72": 2188,
    "1099,1": 2189,
    "44,1": 2190,
    "2190,78": 2191,
    "2191,80": 2192,
    "1432,68": 2193,
    "2193,73": 2194,
    "2194,66": 2195,
    "2195,79": 2196,
    "2196,74": 2197,
    "989,64": 2198,
    "2198,73": 2199,
    "1,63": 2200,
    "2200,64": 2201,
    "2201,1": 2202,
    "563,80": 2203,
    "1600,60": 2204,
    "2204,71": 2205,
    "833,80": 2206,
    "2206,77": 2207,
    "1158,68": 2208,
    "723,73": 2209,
    "2209,1": 2210,
    "380,64": 2211,
    "2211,77": 2212,
    "2212,60": 2213,
    "82,79": 2214,
    "2214,67": 2215,
    "55,82": 2216,
    "2216,68": 2217,
    "2217,73": 2218,
    "312,66": 2219,
    "74,60": 2220,
    "2220,70": 2221,
    "161,63": 2222,
    "2222,67": 2223,
    "65,84": 2224,
    "146,67": 2225,
    "141,81": 2226,
    "2226,68": 2227,
    "74,75": 2228,
    "2228,71": 2229,
    "683,1": 2230,
    "173,79": 2231,
    "875,1": 2232,
    "235,60": 2233,
    "2233,78": 2234,
    "904,80": 2235,
    "2235,73": 2236,
    "72,73": 2237,
    "2237,64": 2238,
    "2238,78": 2239,
    "2239,79": 2240,
    "2240,84": 2241,
    "235,73": 2242,
    "2242,63": 2243,
    "20,8": 2244,
    "2244,9": 2245,
    "94,64": 2246,
    "2246,63": 2247,
    "1263,75": 2248,
    "1,5": 2249,
    "62,1": 2250,
    "35,1": 2251,
    "2046,12": 2252,
    "918,73": 2253,
    "2253,63": 2254,
    "2254,1": 2255,
    "1,38": 2256,
    "1515,84": 2257,
    "21,11": 2258,
    "2258,1": 2259,
    "464,64": 2260,
    "2260,1": 2261,
    "778,80": 2262,
    "2262,78": 2263,
    "638,68": 2264,
    "2264,78": 2265,
    "322,74": 2266,
    "2266,73": 2267,
    "1491,62": 2268,
    "2268,79": 2269,
    "60,69": 2270,
    "2270,74": 2271,
    "2271,77": 2272,
    "32,64": 2273,
    "2273,73": 2274,
    "2023,78": 2275,
    "1432,64": 2276,
    "2276,63": 2277,
    "149,74": 2278,
    "1836,71": 2279,
    "572,85": 2280,
    "2280,64": 2281,
    "2281,77": 2282,
    "298,80": 2283,
    "1927,1": 2284,
    "1575,13": 2285,
    "230,68": 2286,
    "2286,66": 2287,
    "2287,73": 2288,
    "238,82": 2289,
    "149,73": 2290,
    "881,64": 2291,
    "2291,78": 2292,
    "648,84": 2293,
    "2293,1": 2294,
    "115,81": 2295,
    "312,64": 2296,
    "2296,63": 2297,
    "77,73": 2298,
    "1093,71": 2299,
    "1571,68": 2300,
    "733,71": 2301,
    "784,67": 2302,
    "105,60": 2303,
    "1736,60": 2304,
    "930,72": 2305,
    "2305,64": 2306,
    "2306,73": 2307,
    "1002,63": 2308,
    "81,84": 2309,
    "1288,1": 2310,
    "101,68": 2311,
    "2311,73": 2312,
    "1263,73": 2313,
    "2313,1": 2314,
    "13,13": 2315,
    "43,30": 2316,
    "757,68": 2317,
    "2317,71": 2318,
    "993,48": 2319,
    "348,60": 2320,
    "2320,71": 2321,
    "12,60": 2322,
    "735,79": 2323,
    "40,68": 2324,
    "1267,80": 2325,
    "2325,79": 2326,
    "34,72": 2327,
    "133,84": 2328,
    "2328,71": 2329,
    "304,71": 2330,
    "2330,64": 2331,
    "2107,1": 2332,
    "69,75": 2333,
    "2333,66": 2334,
    "2334,87": 2335,
    "297,67": 2336,
    "2336,1": 2337,
    "2337,60": 2338,
    "2338,78": 2339,
    "804,63": 2340,
    "2340,1": 2341,
    "84,78": 2342,
    "2016,1": 2343,
    "380,66": 2344,
    "2344,79": 2345,
    "2345,67": 2346,
    "78,63": 2347,
    "60,82": 2348,
    "2348,64": 2349,
    "2349,63": 2350,
    "544,80": 2351,
    "2351,60": 2352,
    "2352,77": 2353,
    "115,73": 2354,
    "18,11": 2355,
    "2355,1": 2356,
    "858,63": 2357,
    "70,78": 2358,
    "2358,1": 2359,
    "544,1": 2360,
    "105,78": 2361,
    "2361,67": 2362,
    "41,1": 2363,
    "1836,63": 2364,
    "1263,79": 2365,
    "1161,71": 2366,
    "130,78": 2367,
    "2367,79": 2368,
    "1,74": 2369,
    "2369,65": 2370,
    "45,38": 2371,
    "2371,33": 2372,
    "763,63": 2373,
    "566,63": 2374,
    "2374,1": 2375,
    "2242,66": 2376,
    "322,68": 2377,
    "2377,73": 2378,
    "113,84": 2379,
    "2379,1": 2380,
    "66,68": 2381,
    "2381,73": 2382,
    "2382,64": 2383,
    "13,64": 2384,
    "2384,13": 2385,
    "802,63": 2386,
    "2208,74": 2387,
    "526,63": 2388,
    "93,65": 2389,
    "2389,68": 2390,
    "2390,73": 2391,
    "874,67": 2392,
    "1518,73": 2393,
    "1047,73": 2394,
    "1180,68": 2395,
    "12,70": 2396,
    "2396,73": 2397,
    "2397,74": 2398,
    "2026,79": 2399,
    "97,61": 2400,
    "2400,60": 2401,
    "115,79": 2402,
    "166,61": 2403,
    "2403,74": 2404,
    "20,12": 2405,
    "523,74": 2406,
    "2406,72": 2407,
    "42,64": 2408,
    "715,68": 2409,
    "2409,62": 2410,
    "754,64": 2411,
    "2411,77": 2412,
    "49,67": 2413,
    "2413,64": 2414,
    "2414,1": 2415,
    "244,80": 2416,
    "2416,77": 2417,
    "270,62": 2418,
    "235,62": 2419,
    "2419,79": 2420,
    "38,77": 2421,
    "2421,68": 2422,
    "2422,78": 2423,
    "2423,67": 2424,
    "47,54": 2425,
    "2419,80": 2426,
    "78,84": 2427,
    "2427,78": 2428,
    "2428,79": 2429,
    "37,74": 2430,
    "2430,80": 2431,
    "2431,78": 2432,
    "94,68": 2433,
    "184,68": 2434,
    "2434,73": 2435,
    "75,85": 2436,
    "2436,68": 2437,
    "2437,66": 2438,
    "1770,78": 2439,
    "2439,62": 2440,
    "2440,77": 2441,
    "958,66": 2442,
    "2442,67": 2443,
    "1256,79": 2444,
    "71,9": 2445,
    "83,74": 2446,
    "1980,79": 2447,
    "566,76": 2448,
    "2448,80": 2449,
    "2449,64": 2450,
    "1292,63": 2451,
    "723,74": 2452,
    "2452,77": 2453,
    "2342,1": 2454,
    "863,77": 2455,
    "1026,66": 2456,
    "2,1": 2457,
    "1267,68": 2458,
    "2458,79": 2459,
    "149,77": 2460,
    "16,31": 2461,
    "729,64": 2462,
    "2462,63": 2463,
    "966,77": 2464,
    "37,44": 2465,
    "2465,11": 2466,
    "2363,61": 2467,
    "2467,77": 2468,
    "71,11": 2469,
    "2469,1": 2470,
    "752,60": 2471,
    "2471,79": 2472,
    "35,41": 2473,
    "507,83": 2474,
    "729,68": 2475,
    "516,68": 2476,
    "2476,62": 2477,
    "2477,67": 2478,
    "723,71": 2479,
    "1401,77": 2480,
    "1874,68": 2481,
    "2481,62": 2482,
    "312,1": 2483,
    "2483,60": 2484,
    "2484,77": 2485,
    "274,82": 2486,
    "2486,73": 2487,
    "300,73": 2488,
    "784,74": 2489,
    "2489,73": 2490,
    "1343,63": 2491,
    "208,74": 2492,
    "2492,71": 2493,
    "180,61": 2494,
    "2494,80": 2495,
    "2495,79": 2496,
    "1998,73": 2497,
    "491,82": 2498,
    "77,62": 2499,
    "2499,80": 2500,
    "2500,71": 2501,
    "867,64": 2502,
    "276,62": 2503,
    "70,84": 2504,
    "2504,71": 2505,
    "2505,60": 2506,
    "292,60": 2507,
    "2507,72": 2508,
    "380,78": 2509,
    "2509,68": 2510,
    "13,1": 2511,
    "9,43": 2512,
    "15,78": 2513,
    "2513,1": 2514,
    "648,66": 2515,
    "2018,9": 2516,
    "543,80": 2517,
    "235,63": 2518,
    "137,79": 2519,
    "376,77": 2520,
    "2520,60": 2521,
    "736,79": 2522,
    "38,38": 2523,
    "1151,68": 2524,
    "2524,71": 2525,
    "844,85": 2526,
    "304,64": 2527,
    "873,64": 2528,
    "31,12": 2529,
    "143,73": 2530,
    "1256,8": 2531,
    "1004,63": 2532,
    "427,79": 2533,
    "105,62": 2534,
    "949,65": 2535,
    "2535,79": 2536,
    "581,60": 2537,
    "115,66": 2538,
    "2538,60": 2539,
    "2147,71": 2540,
    "775,64": 2541,
    "1980,62": 2542,
    "276,72": 2543,
    "2543,64": 2544,
    "2544,63": 2545,
    "17,8": 2546,
    "190,72": 2547,
    "63,1": 2548,
    "1270,60": 2549,
    "2549,63": 2550,
    "618,62": 2551,
    "2551,79": 2552,
    "497,73": 2553,
    "2553,63": 2554,
    "2528,1": 2555,
    "676,1": 2556,
    "2052,77": 2557,
    "523,11": 2558,
    "2558,1": 2559,
    "1625,74": 2560,
    "2560,77": 2561,
    "1207,62": 2562,
    "2562,67": 2563,
    "1247,63": 2564,
    "813,82": 2565,
    "2565,74": 2566,
    "74,84": 2567,
    "2220,77": 2568,
    "2568,63": 2569,
    "1237,72": 2570,
    "2570,75": 2571,
    "2571,71": 2572,
    "240,74": 2573,
    "2573,65": 2574,
    "2574,1": 2575,
    "73,84": 2576,
    "1294,69": 2577,
    "172,60": 2578,
    "2578,72": 2579,
    "297,71": 2580,
    "2580,64": 2581,
    "588,70": 2582,
    "270,1": 2583,
    "557,62": 2584,
    "367,81": 2585,
    "75,80": 2586,
    "2586,79": 2587,
    "384,74": 2588,
    "2588,77": 2589,
    "2427,62": 2590,
    "2590,67": 2591,
    "1357,78": 2592,
    "1040,77": 2593,
    "2228,79": 2594,
    "2214,74": 2595,
    "2595,73": 2596,
    "210,66": 2597,
    "2597,80": 2598,
    "2598,64": 2599,
    "427,78": 2600,
    "2600,1": 2601,
    "69,64": 2602,
    "2602,62": 2603,
    "413,1": 2604,
    "413,78": 2605,
    "152,71": 2606,
    "2606,71": 2607,
    "198,77": 2608,
    "2608,66": 2609,
    "2369,73": 2610,
    "2610,1": 2611,
    "523,64": 2612,
    "1860,80": 2613,
    "2613,64": 2614,
    "152,68": 2615,
    "569,1": 2616,
    "83,68": 2617,
    "765,1": 2618,
    "784,60": 2619,
    "2619,77": 2620,
    "2056,77": 2621,
    "521,74": 2622,
    "2622,73": 2623,
    "276,63": 2624,
    "2624,1": 2625,
    "143,78": 2626,
    "738,74": 2627,
    "2627,73": 2628,
    "794,60": 2629,
    "2629,77": 2630,
    "1107,62": 2631,
    "2631,79": 2632,
    "318,83": 2633,
    "2633,68": 2634,
    "2634,72": 2635,
    "162,77": 2636,
    "2636,79": 2637,
    "1014,71": 2638,
    "2638,71": 2639,
    "689,1": 2640,
    "2381,74": 2641,
    "2641,73": 2642,
    "2348,60": 2643,
    "2124,71": 2644,
    "560,60": 2645,
    "2645,66": 2646,
    "107,70": 2647,
    "235,72": 2648,
    "2137,79": 2649,
    "248,84": 2650,
    "2650,1": 2651,
    "813,1": 2652,
    "1033,68": 2653,
    "55,64": 2654,
    "2654,60": 2655,
    "1185,77": 2656,
    "757,71": 2657,
    "2657,80": 2658,
    "2658,64": 2659,
    "43,68": 2660,
    "2660,73": 2661,
    "2056,68": 2662,
    "2662,74": 2663,
    "586,77": 2664,
    "312,70": 2665,
    "2665,1": 2666,
    "549,79": 2667,
    "62,80": 2668,
    "2668,79": 2669,
    "775,1": 2670,
    "648,70": 2671,
    "22,15": 2672,
    "2672,78": 2673,
    "93,78": 2674,
    "64,1": 2675,
    "2675,74": 2676,
    "2676,65": 2677,
    "2677,1": 2678,
    "49,64": 2679,
    "2679,62": 2680,
    "330,62": 2681,
    "123,72": 2682,
    "2682,72": 2683,
    "2683,60": 2684,
    "2684,77": 2685,
    "235,74": 2686,
    "588,80": 2687,
    "2687,71": 2688,
    "2688,79": 2689,
    "2662,73": 2690,
    "992,72": 2691,
    "2691,60": 2692,
    "177,71": 2693,
    "2693,79": 2694,
    "370,84": 2695,
    "1067,77": 2696,
    "1400,66": 2697,
    "487,63": 2698,
    "64,27": 2699,
    "1682,74": 2700,
    "2700,65": 2701,
    "566,62": 2702,
    "2702,74": 2703,
    "2703,73": 2704,
    "2704,63": 2705,
    "844,73": 2706,
    "1860,71": 2707,
    "2707,60": 2708,
    "1879,73": 2709,
    "270,82": 2710,
    "2710,67": 2711,
    "1385,74": 2712,
    "2712,71": 2713,
    "381,60": 2714,
    "2714,77": 2715,
    "1002,78": 2716,
    "765,68": 2717,
    "2717,73": 2718,
    "80,80": 2719,
    "2719,72": 2720,
    "64,65": 2721,
    "2721,68": 2722,
    "2722,73": 2723,
    "198,64": 2724,
    "2724,77": 2725,
    "1136,64": 2726,
    "1763,1": 2727,
    "79,66": 2728,
    "2728,80": 2729,
    "2729,73": 2730,
    "2047,78": 2731,
    "833,77": 2732,
    "826,67": 2733,
    "830,68": 2734,
    "64,25": 2735,
    "166,63": 2736,
    "1286,77": 2737,
    "33,74": 2738,
    "2738,73": 2739,
    "1199,81": 2740,
    "74,64": 2741,
    "1137,63": 2742,
    "1263,71": 2743,
    "304,68": 2744,
    "2744,64": 2745,
    "2745,73": 2746,
    "2746,79": 2747,
    "35,60": 2748,
    "2748,77": 2749,
    "2749,74": 2750,
    "2750,64": 2751,
    "63,78": 2752,
    "918,79": 2753,
    "2753,1": 2754,
    "166,84": 2755,
    "73,72": 2756,
    "2756,64": 2757,
    "2757,73": 2758,
    "775,60": 2759,
    "2759,77": 2760,
    "33,38": 2761,
    "1107,73": 2762,
    "2762,64": 2763,
    "2763,68": 2764,
    "466,79": 2765,
    "2765,85": 2766,
    "455,73": 2767,
    "52,11": 2768,
    "2768,1": 2769,
    "1888,62": 2770,
    "2770,71": 2771,
    "1231,77": 2772,
    "1224,63": 2773,
    "2354,66": 2774,
    "392,80": 2775,
    "1702,68": 2776,
    "348,61": 2777,
    "2777,60": 2778,
    "2778,71": 2779,
    "491,61": 2780,
    "2780,74": 2781,
    "1957,77": 2782,
    "1518,82": 2783,
    "7,3": 2784,
    "77,67": 2785,
    "521,78": 2786,
    "2786,79": 2787,
    "2313,62": 2788,
    "502,77": 2789,
    "2789,80": 2790,
    "74,1": 2791,
    "2791,73": 2792,
    "2792,74": 2793,
    "1161,80": 2794,
    "511,79": 2795,
    "1087,79": 2796,
    "2121,67": 2797,
    "93,66": 2798,
    "2798,77": 2799,
    "2799,64": 2800,
    "2800,64": 2801,
    "141,79": 2802,
    "2802,60": 2803,
    "2803,68": 2804,
    "1144,67": 2805,
    "65,79": 2806,
    "1,16": 2807,
    "403,66": 2808,
    "2808,61": 2809,
    "2809,60": 2810,
    "2810,77": 2811,
    "844,71": 2812,
    "43,44": 2813,
    "235,83": 2814,
    "72,63": 2815,
    "2815,60": 2816,
    "2816,78": 2817,
    "2817,67": 2818,
    "2682,1": 2819,
    "333,64": 2820,
    "1448,1": 2821,
    "750,77": 2822,
    "66,78": 2823,
    "2823,1": 2824,
    "1343,71": 2825,
    "2825,63": 2826,
    "1518,79": 2827,
    "2827,74": 2828,
    "668,1": 2829,
    "931,12": 2830,
    "2830,1": 2831,
    "70,60": 2832,
    "1207,78": 2833,
    "71,72": 2834,
    "279,79": 2835,
    "235,77": 2836,
    "2836,60": 2837,
    "71,62": 2838,
    "2838,67": 2839,
    "2839,64": 2840,
    "2840,72": 2841,
    "717,73": 2842,
    "2106,14": 2843,
    "497,70": 2844,
    "1357,62": 2845,
    "2845,67": 2846,
    "778,71": 2847,
    "728,72": 2848,
    "380,1": 2849,
    "195,77": 2850,
    "491,77": 2851,
    "2851,70": 2852,
    "618,66": 2853,
    "2853,64": 2854,
    "2115,66": 2855,
    "166,80": 2856,
    "80,63": 2857,
    "2857,68": 2858,
    "2858,64": 2859,
    "2859,63": 2860,
    "60,64": 2861,
    "348,1": 2862,
    "679,48": 2863,
    "2863,79": 2864,
    "2289,1": 2865,
    "270,64": 2866,
    "2866,73": 2867,
    "916,68": 2868,
    "2868,78": 2869,
    "369,64": 2870,
    "2870,77": 2871,
    "1015,72": 2872,
    "304,60": 2873,
    "2873,79": 2874,
    "468,79": 2875,
    "2875,67": 2876,
    "1076,60": 2877,
    "2877,73": 2878,
    "2878,63": 2879,
    "85,74": 2880,
    "68,76": 2881,
    "2881,80": 2882,
    "491,78": 2883,
    "2883,78": 2884,
    "82,1": 2885,
    "35,71": 2886,
    "2886,60": 2887,
    "2887,72": 2888,
    "2227,62": 2889,
    "2889,64": 2890,
    "2218,66": 2891,
    "2056,67": 2892,
    "2892,79": 2893,
    "1074,84": 2894,
    "16,1": 2895,
    "2895,14": 2896,
    "2896,79": 2897,
    "572,71": 2898,
    "41,64": 2899,
    "2229,64": 2900,
    "74,26": 2901,
    "49,80": 2902,
    "2902,77": 2903,
    "15,5": 2904,
    "541,64": 2905,
    "723,63": 2906,
    "2906,1": 2907,
    "2049,71": 2908,
    "2908,60": 2909,
    "2909,79": 2910,
    "148,1": 2911,
    "2668,72": 2912,
    "2912,64": 2913,
    "2913,73": 2914,
    "2135,64": 2915,
    "128,82": 2916,
    "18,12": 2917,
    "1,62": 2918,
    "2918,64": 2919,
    "2052,81": 2920,
    "780,78": 2921,
    "210,79": 2922,
    "2922,67": 2923,
    "1241,78": 2924,
    "628,63": 2925,
    "76,80": 2926,
    "2541,71": 2927,
    "2643,68": 2928,
    "2928,68": 2929,
    "889,1": 2930,
    "2164,1": 2931,
    "48,32": 2932,
    "2932,44": 2933,
    "25,14": 2934,
    "2934,14": 2935,
    "1286,79": 2936,
    "47,49": 2937,
    "345,64": 2938,
    "152,78": 2939,
    "2939,79": 2940,
    "620,77": 2941,
    "2941,60": 2942,
    "628,72": 2943,
    "2926,64": 2944,
    "119,62": 2945,
    "2945,67": 2946,
    "1702,74": 2947,
    "2947,77": 2948,
    "2948,72": 2949,
    "2534,1": 2950,
    "1860,66": 2951,
    "1403,64": 2952,
    "2952,77": 2953,
    "32,44": 2954,
    "2954,50": 2955,
    "549,68": 2956,
    "533,60": 2957,
    "2957,62": 2958,
    "537,68": 2959,
    "2959,73": 2960,
    "51,68": 2961,
    "2961,71": 2962,
    "122,78": 2963,
    "2963,1": 2964,
    "1087,62": 2965,
    "2965,79": 2966,
    "487,61": 2967,
    "2151,1": 2968,
    "705,71": 2969,
    "2969,68": 2970,
    "2970,73": 2971,
    "1818,78": 2972,
    "210,73": 2973,
    "2973,68": 2974,
    "2974,73": 2975,
    "270,68": 2976,
    "369,78": 2977,
    "2977,61": 2978,
    "1825,79": 2979,
    "2475,74": 2980,
    "2980,73": 2981,
    "1311,68": 2982,
    "2982,60": 2983,
    "2721,80": 2984,
    "2984,71": 2985,
    "63,79": 2986,
    "2986,63": 2987,
    "2987,1": 2988,
    "1107,63": 2989,
    "2989,64": 2990,
    "610,60": 2991,
    "816,82": 2992,
    "2701,1": 2993,
    "418,71": 2994,
    "683,67": 2995,
    "2995,77": 2996,
    "41,60": 2997,
    "74,58": 2998,
    "778,75": 2999,
    "2999,68": 3000,
    "3,50": 3001,
    "45,77": 3002,
    "3002,74": 3003,
    "149,71": 3004,
    "82,74": 3005,
    "2392,60": 3006,
    "3006,79": 3007,
    "65,64": 3008,
    "3008,73": 3009,
    "1275,78": 3010,
    "1664,77": 3011,
    "2234,79": 3012,
    "844,79": 3013,
    "3013,64": 3014,
    "97,79": 3015,
    "3015,1": 3016,
    "1190,80": 3017,
    "52,13": 3018,
    "523,78": 3019,
    "3019,74": 3020,
    "54,60": 3021,
    "3021,67": 3022,
    "3022,82": 3023,
    "541,80": 3024,
    "3024,79": 3025,
    "1643,1": 3026,
    "731,72": 3027,
    "2806,64": 3028,
    "2895,12": 3029,
    "33,11": 3030,
    "3030,1": 3031,
    "2313,66": 3032,
    "2868,62": 3033,
    "147,72": 3034,
    "3034,64": 3035,
    "3035,73": 3036,
    "2135,74": 3037,
    "1286,64": 3038,
    "3038,73": 3039,
    "1350,61": 3040,
    "3040,71": 3041,
    "3041,68": 3042,
    "3042,78": 3043,
    "3043,67": 3044,
    "937,60": 3045,
    "816,79": 3046,
    "2632,80": 3047,
    "3047,77": 3048,
    "207,73": 3049,
    "881,84": 3050,
    "1902,84": 3051,
    "3051,72": 3052,
    "151,67": 3053,
    "670,77": 3054,
    "180,63": 3055,
    "3055,66": 3056,
    "728,79": 3057,
    "1099,71": 3058,
    "3028,77": 3059,
    "2534,71": 3060,
    "3060,64": 3061,
    "1308,75": 3062,
    "2342,79": 3063,
    "3063,64": 3064,
    "3064,72": 3065,
    "1183,73": 3066,
    "3066,62": 3067,
    "3067,79": 3068,
    "39,64": 3069,
    "1098,79": 3070,
    "17,15": 3071,
    "3071,78": 3072,
    "32,68": 3073,
    "330,78": 3074,
    "84,68": 3075,
    "3075,73": 3076,
    "73,67": 3077,
    "3077,80": 3078,
    "3078,77": 3079,
    "3079,78": 3080,
    "3080,60": 3081,
    "592,62": 3082,
    "279,70": 3083,
    "705,73": 3084,
    "901,72": 3085,
    "3085,74": 3086,
    "3086,73": 3087,
    "722,78": 3088,
    "3088,79": 3089,
    "778,77": 3090,
    "705,66": 3091,
    "141,84": 3092,
    "3092,1": 3093,
    "2418,67": 3094,
    "487,60": 3095,
    "3095,73": 3096,
    "38,32": 3097,
    "42,41": 3098,
    "156,80": 3099,
    "2675,16": 3100,
    "3100,24": 3101,
    "105,61": 3102,
    "30,13": 3103,
    "248,68": 3104,
    "3104,73": 3105,
    "1267,60": 3106,
    "3106,71": 3107,
    "24,15": 3108,
    "3108,78": 3109,
    "514,68": 3110,
    "3110,71": 3111,
    "752,68": 3112,
    "393,73": 3113,
    "3099,79": 3114,
    "12,72": 3115,
    "2313,63": 3116,
    "1052,12": 3117,
    "3117,1": 3118,
    "1286,67": 3119,
    "3119,60": 3120,
    "862,71": 3121,
    "3121,64": 3122,
    "3122,78": 3123,
    "3123,78": 3124,
    "2296,79": 3125,
    "3125,64": 3126,
    "3126,64": 3127,
    "689,64": 3128,
    "3128,63": 3129,
    "409,73": 3130,
    "9,9": 3131,
    "729,67": 3132,
    "3132,77": 3133,
    "3133,74": 3134,
    "3134,75": 3135,
    "533,74": 3136,
    "3136,72": 3137,
    "3137,1": 3138,
    "93,71": 3139,
    "35,8": 3140,
    "462,14": 3141,
    "3141,79": 3142,
    "1261,64": 3143,
    "1669,63": 3144,
    "12,12": 3145,
    "937,68": 3146,
    "2219,71": 3147,
    "3147,64": 3148,
    "131,60": 3149,
    "122,1": 3150,
    "1641,79": 3151,
    "341,79": 3152,
    "2018,11": 3153,
    "3153,1": 3154,
    "833,1": 3155,
    "1968,68": 3156,
    "3156,78": 3157,
    "1171,73": 3158,
    "1592,64": 3159,
    "8,11": 3160,
    "3160,1": 3161,
    "1110,63": 3162,
    "230,79": 3163,
    "3163,1": 3164,
    "129,71": 3165,
    "427,73": 3166,
    "1308,77": 3167,
    "1673,73": 3168,
    "3168,62": 3169,
    "1183,71": 3170,
    "107,68": 3171,
    "3171,79": 3172,
    "1252,79": 3173,
    "3173,64": 3174,
    "157,84": 3175,
    "1357,61": 3176,
    "3176,68": 3177,
    "3177,79": 3178,
    "380,63": 3179,
    "74,12": 3180,
    "1074,1": 3181,
    "5,1": 3182,
    "1256,62": 3183,
    "750,81": 3184,
    "3184,64": 3185,
    "3185,77": 3186,
    "3186,73": 3187,
    "502,80": 3188,
    "43,34": 3189,
    "592,66": 3190,
    "42,74": 3191,
    "3191,74": 3192,
    "3192,73": 3193,
    "2124,72": 3194,
    "733,60": 3195,
    "3195,73": 3196,
    "47,13": 3197,
    "20,11": 3198,
    "3198,1": 3199,
    "276,79": 3200,
    "3200,80": 3201,
    "2260,72": 3202,
    "3113,1": 3203,
    "33,8": 3204,
    "549,71": 3205,
    "1759,64": 3206,
    "844,78": 3207,
    "38,1": 3208,
    "48,62": 3209,
    "3209,67": 3210,
    "3210,74": 3211,
    "3211,74": 3212,
    "3212,71": 3213,
    "172,73": 3214,
    "2220,63": 3215,
    "833,62": 3216,
    "3216,67": 3217,
    "685,64": 3218,
    "2203,63": 3219,
    "3028,73": 3220,
    "380,62": 3221,
    "1443,84": 3222,
    "143,63": 3223,
    "661,63": 3224,
    "1326,64": 3225,
    "3225,77": 3226,
    "41,30": 3227,
    "37,45": 3228,
    "78,11": 3229,
    "3229,1": 3230,
    "301,14": 3231,
    "3231,79": 3232,
    "3232,79": 3233,
    "36,80": 3234,
    "3234,68": 3235,
    "3235,73": 3236,
    "3236,64": 3237,
    "3237,60": 3238,
    "84,72": 3239,
    "780,82": 3240,
    "788,63": 3241,
    "23,12": 3242,
    "3242,16": 3243,
    "2113,73": 3244,
    "9,16": 3245,
    "3245,24": 3246,
    "1184,77": 3247,
    "349,1": 3248,
    "72,14": 3249,
    "2430,82": 3250,
    "3250,64": 3251,
    "3251,81": 3252,
    "953,71": 3253,
    "3253,71": 3254,
    "3254,64": 3255,
    "3255,66": 3256,
    "394,72": 3257,
    "1256,78": 3258,
    "3258,75": 3259,
    "3259,67": 3260,
    "84,11": 3261,
    "3261,1": 3262,
    "471,84": 3263,
    "47,74": 3264,
    "3264,72": 3265,
    "1879,62": 3266,
    "946,63": 3267
  },
  "next_id": 3268
}