{
  "id2token": {
    "0": "\n",
    "1": " ",
    "2": "!",
    "3": "#",
    "4": "$",
    "5": "%",
    "6": "'",
    "7": "(",
    "8": ")",
    "9": "*",
    "10": "+",
    "11": ",",
    "12": "-",
    "13": ".",
    "14": "/",
    "15": "0",
    "16": "1",
    "17": "2",
    "18": "3",
    "19": "4",
    "20": "5",
    "21": "6",
    "22": "7",
    "23": "8",
    "24": "9",
    "25": ":",
    "26": ";",
    "27": "=",
    "28": "?",
    "29": "@",
    "30": "A",
    "31": "B",
    "32": "C",
    "33": "D",
    "34": "E",
    "35": "F",
    "36": "G",
    "37": "H",
    "38": "I",
    "39": "J",
    "40": "K",
    "41": "L",
    "42": "M",
    "43": "N",
    "44": "O",
    "45": "P",
    "46": "Q",
    "47": "R",
    "48": "S",
    "49": "T",
    "50": "U",
    "51": "V",
    "52": "W",
    "53": "X",
    "54": "Y",
    "55": "Z",
    "56": "\\",
    "57": "^",
    "58": "_",
    "59": "`",
    "60": "a",
    "61": "b",
    "62": "c",
    "63": "d",
    "64": "e",
    "65": "f",
    "66": "g",
    "67": "h",
    "68": "i",
    "69": "j",
    "70": "k",
    "71": "l",
    "72": "m",
    "73": "n",
    "74": "o",
    "75": "p",
    "76": "q",
    "77": "r",
    "78": "s",
    "79": "t",
    "80": "u",
    "81": "v",
    "82": "w",
    "83": "x",
    "84": "y",
    "85": "z",
    "86": "{",
    "87": "|",
    "88": "}",
    "89": "~",
    "90": "<|endoftext|>",
    "91": "<pad>",
    "92": "ly",
    "93": "lyr",
    "94": "5 ",
    "95": "5 y",
    "96": "5 ye",
    "97": "5 yea",
    "98": "em",
    "99": "emo",
    "100": "emoc",
    "101": "emocr",
    "102": "cd",
    "103": "cdo",
    "104": "cdot",
    "105": "es",
    "106": "est",
    "107": "ip",
    "108": "ipt",
    "109": "yl",
    "110": "yli",
    "111": "ylin",
    "112": "ylind",
    "113": "lyn",
    "114": "lyno",
    "115": "lynom",
    "116": "CV",
    "117": "CVD",
    "118": "us",
    "119": "use",
    "120": "useu",
    "121": "useum",
    "122": "ie",
    "123": "ier",
    "124": "rr",
    "125": "rri",
    "126": "rrie",
    "127": "rried",
    "128": "be",
    "129": "bec",
    "130": "Ze",
    "131": "Zea",
    "132": "um",
    "133": "umm",
    "134": "pe",
    "135": "ped",
    "136": "ro",
    "137": "rop",
    "138": "or",
    "139": "orn",
    "140": "ornh",
    "141": "ornho",
    "142": "ornhol",
    "143": "xa",
    "144": "sp",
    "145": "pp",
    "146": "ppe",
    "147": "pped",
    "148": "br",
    "149": "bra",
    "150": "bran",
    "151": "Pa",
    "152": "Par",
    "153": "mb",
    "154": "mbr",
    "155": "mbri",
    "156": "fs",
    "157": "on",
    "158": "oni",
    "159": "lo",
    "160": "loo",
    "161": "lood",
    "162": "ma",
    "163": "may",
    "164": "may ",
    "165": "Ag",
    "166": "Aga",
    "167": "Agav",
    "168": "Agave",
    "169": "el",
    "170": "ag",
    "171": "aga",
    "172": "agaz",
    "173": " a",
    "174": " an",
    "175": "au",
    "176": "aux",
    "177": "sa",
    "178": "sat",
    "179": "an",
    "180": "and",
    "181": "and ",
    "182": "ol",
    "183": "oll",
    "184": "olle",
    "185": "olleg",
    "186": "pl",
    "187": "plo",
    "188": "plom",
    "189": "ploma",
    "190": "un",
    "191": "uni",
    "192": "univ",
    "193": "unive",
    "194": "univer",
    "195": "nt",
    "196": "nti",
    "197": "ntio",
    "198": "li",
    "199": "lib",
    "200": "as",
    "201": "ast",
    "202": "ou",
    "203": "oug",
    "204": "ough",
    "205": "usl",
    "206": "usli",
    "207": "er",
    "208": "ers",
    "209": "erso",
    "210": "erson",
    "211": "io",
    "212": "ion",
    "213": "rn",
    "214": "rne",
    "215": "rner",
    "216": "B*",
    "217": "B**",
    "218": "sk",
    "219": "ska",
    "220": "th",
    "221": "thi",
    "222": "thin",
    "223": "ok",
    "224": "oku",
    "225": "S$",
    "226": "no",
    "227": "nor",
    "228": "nort",
    "229": "north",
    "230": "tw",
    "231": "two",
    "232": "twor",
    "233": "do",
    "234": "dom",
    "235": "og",
    "236": "ogl",
    "237": "ogle",
    "238": "un ",
    "239": "ho",
    "240": "hod",
    "241": "om",
    "242": "omp",
    "243": "ompu",
    "244": "omput",
    "245": "d ",
    "246": "d o",
    "247": "d of",
    "248": "d of ",
    "249": "ni",
    "250": "nis",
    "251": "ti",
    "252": "tit",
    "253": "ba",
    "254": "bat",
    "255": "bate",
    "256": "ad",
    "257": "ort",
    "258": "orta",
    "259": "of",
    "260": "of ",
    "261": "0 ",
    "262": "gg",
    "263": "ggl",
    "264": "C ",
    "265": "mbe",
    "266": "co",
    "267": "cor",
    "268": "rm",
    "269": "rms",
    "270": "lk",
    "271": "lk ",
    "272": "ll",
    "273": "lly",
    "274": "lly ",
    "275": "fo",
    "276": "foo",
    "277": "foot",
    "278": "ki",
    "279": "kin",
    "280": "king",
    "281": "ome",
    "282": "omed",
    "283": "hi",
    "284": "hip",
    "285": "ul",
    "286": "ult",
    "287": "ultu",
    "288": "ultur",
    "289": "Ba",
    "290": "Bas",
    "291": "Basq",
    "292": "so",
    "293": "sop",
    "294": "bag",
    "295": "ct",
    "296": "ct ",
    "297": "a*",
    "298": "a*A",
    "299": "a*Ag",
    "300": "a*Aga",
    "301": "a*Agav",
    "302": "a*Agave",
    "303": "Ib",
    "304": "Iba",
    "305": "Ibad",
    "306": "ee",
    "307": "ee ",
    "308": "en",
    "309": "end",
    "310": "at",
    "311": "ga",
    "312": "gav",
    "313": "gave",
    "314": "rb",
    "315": "rbi",
    "316": "in",
    "317": "int",
    "318": "Ri",
    "319": "if",
    "320": "iff",
    "321": "pa",
    "322": "lli",
    "323": "llin",
    "324": "llino",
    "325": "llinoi",
    "326": "llinois",
    "327": "me",
    "328": "med",
    "329": "medi",
    "330": "ir",
    "331": "irc",
    "332": "::",
    "333": "la",
    "334": "lac",
    "335": "uc",
    "336": "uch",
    "337": "uch ",
    "338": "CT",
    "339": "ia",
    "340": "iam",
    "341": "ar",
    "342": "ara",
    "343": "ci",
    "344": "cip",
    "345": "bo",
    "346": "bon",
    "347": "bone",
    "348": "Ir",
    "349": "Ire",
    "350": "Irel",
    "351": "od",
    "352": "ody",
    "353": "erm",
    "354": "erma",
    "355": "erman",
    "356": "ge",
    "357": "get",
    "358": "geta",
    "359": "se",
    "360": "see",
    "361": "see ",
    "362": "ers ",
    "363": "30",
    "364": "30s",
    "365": "ory",
    "366": "et",
    "367": "ett",
    "368": "ettl",
    "369": "hom",
    "370": "home",
    "371": " y",
    "372": " ye",
    "373": " yea",
    "374": " year",
    "375": "pi",
    "376": "pir",
    "377": "pire",
    "378": " o",
    "379": "eme",
    "380": "emen",
    "381": "ea",
    "382": "ead",
    "383": "Ge",
    "384": "oke",
    "385": "**",
    "386": "ch",
    "387": "chi",
    "388": "chin",
    "389": "vi",
    "390": "vic",
    "391": "vice",
    "392": "mo",
    "393": "mon",
    "394": "mont",
    "395": "month",
    "396": "lig",
    "397": "ligi",
    "398": "cl",
    "399": "50",
    "400": "lar",
    "401": "lare",
    "402": "atr",
    "403": "atro",
    "404": "Ha",
    "405": "Hal",
    "406": "Hall",
    "407": "/t",
    "408": "qu",
    "409": "rv",
    "410": "rve",
    "411": "rvey",
    "412": "ph",
    "413": "phe",
    "414": "phel",
    "415": "ne",
    "416": "new",
    "417": "gr",
    "418": "gra",
    "419": "te",
    "420": "ter",
    "421": "tera",
    "422": "tr",
    "423": "tro",
    "424": "troy",
    "425": "tri",
    "426": "ov",
    "427": "ove",
    "428": "over",
    "429": " l",
    "430": " la",
    "431": "be ",
    "432": "bu",
    "433": "but",
    "434": "lb",
    "435": "lbo",
    "436": "lbou",
    "437": "dv",
    "438": "dor",
    "439": "com",
    "440": "up",
    "441": "upi",
    "442": "upit",
    "443": "upite",
    "444": "eel",
    "445": "eel ",
    "446": "pik",
    "447": "pike",
    "448": "lia",
    "449": "liam",
    "450": "are",
    "451": "are ",
    "452": "it",
    "453": "iti",
    "454": "itio",
    "455": "ug",
    "456": "ugh",
    "457": "ig",
    "458": "Ni",
    "459": "Nic",
    "460": "ft",
    "461": "fte",
    "462": "ften",
    "463": "ed",
    "464": "ede",
    "465": "eder",
    "466": "twe",
    "467": "nr",
    "468": "gn",
    "469": "gni",
    "470": "for",
    "471": "form",
    "472": "Ac",
    "473": "ua",
    "474": "uab",
    "475": "uabl",
    "476": "st",
    "477": "sta",
    "478": "stan",
    "479": "stand",
    "480": "olo",
    "481": "olog",
    "482": "ass",
    "483": "ean",
    "484": "eani",
    "485": "va",
    "486": "vag",
    "487": "pec",
    "488": "peci",
    "489": "dn",
    "490": "vat",
    "491": "vate",
    "492": "P.",
    "493": "ont",
    "494": "ontr",
    "495": "ontra",
    "496": "rma",
    "497": "rman",
    "498": "wa",
    "499": "wal",
    "500": "wall",
    "501": "wi",
    "502": "wik",
    "503": "wiki",
    "504": "mi",
    "505": "mig",
    "506": "migr",
    "507": "migra",
    "508": "ror",
    "509": "mp",
    "510": "mpo",
    "511": "mpor",
    "512": "mport",
    "513": "mporta",
    "514": "uar",
    "515": "ra",
    "516": "rar",
    "517": "fol",
    "518": "foll",
    "519": "follo",
    "520": "follow",
    "521": "follows",
    "522": "co-",
    "523": "fi",
    "524": "fir",
    "525": "firs",
    "526": "eas",
    "527": "easu",
    "528": "easur",
    "529": "lym",
    "530": "lymp",
    "531": "aum",
    "532": "ban",
    "533": "band",
    "534": "nl",
    "535": "nly",
    "536": "nly ",
    "537": "le",
    "538": "lea",
    "539": "ate",
    "540": "eth",
    "541": "ethe",
    "542": "aul",
    "543": "ault",
    "544": "ared",
    "545": "ow",
    "546": "owe",
    "547": "owev",
    "548": "oweve",
    "549": "ap",
    "550": "app",
    "551": "ert",
    "552": "ab",
    "553": "abi",
    "554": "abil",
    "555": "ade",
    "556": "ader",
    "557": "iou",
    "558": "ious",
    "559": "is",
    "560": "ish",
    "561": "lae",
    "562": "laeo",
    "563": "bi",
    "564": "bin",
    "565": "ted",
    "566": "ac",
    "567": "ack",
    "568": "acks",
    "569": "ackso",
    "570": "ackson",
    "571": "to",
    "572": "tob",
    "573": "ark",
    "574": "kind",
    "575": "bou",
    "576": "bout",
    "577": "bout ",
    "578": "inc",
    "579": "inci",
    "580": "BI",
    "581": "ur",
    "582": "urg",
    "583": "ri",
    "584": "rig",
    "585": "ep",
    "586": "epa",
    "587": "epar",
    "588": "epara",
    "589": "iv",
    "590": "ivi",
    "591": "ivin",
    "592": "Geo",
    "593": "Geor",
    "594": "Georg",
    "595": "rs",
    "596": "rse",
    "597": "ene",
    "598": "ener",
    "599": "ford",
    "600": "iga",
    "601": "igan",
    "602": "lev",
    "603": "leve",
    "604": "mbi",
    "605": "mbie",
    "606": "teg",
    "607": "tego",
    "608": "tegor",
    "609": "al",
    "610": "ali",
    "611": "alio",
    "612": "we",
    "613": "wes",
    "614": "west",
    "615": "now",
    "616": "now ",
    "617": "gl",
    "618": "gle",
    "619": "pr",
    "620": "pri",
    "621": "pris",
    "622": "fe",
    "623": "fes",
    "624": "fest",
    "625": "m ",
    "626": "En",
    "627": "Eng",
    "628": "sd",
    "629": "rbit",
    "630": "hw",
    "631": "unn",
    "632": "unne",
    "633": "unnel",
    "634": "ugl",
    "635": "ugla",
    "636": "im",
    "637": "imp",
    "638": "impo",
    "639": "impor",
    "640": "import",
    "641": "importa",
    "642": "uce",
    "643": "ersi",
    "644": "ersio",
    "645": "-b",
    "646": "-bo",
    "647": "-bor",
    "648": "ust",
    "649": "gen",
    "650": "gent",
    "651": "ati",
    "652": "atin",
    "653": "rsi",
    "654": "rsio",
    "655": "rsion",
    "656": "acl",
    "657": "tha",
    "658": "than",
    "659": "than ",
    "660": "So",
    "661": "Sou",
    "662": "Sout",
    "663": "South",
    "664": "Mi",
    "665": "vo",
    "666": "von",
    "667": "ylo",
    "668": "ylor",
    "669": "eri",
    "670": "cu",
    "671": "aded",
    "672": "nn",
    "673": "nn)",
    "674": "ex",
    "675": "exi",
    "676": "exic",
    "677": "dox",
    "678": "rt",
    "679": "rte",
    "680": "Co",
    "681": "Con",
    "682": "Conf",
    "683": "Confe",
    "684": "Confed",
    "685": "Confede",
    "686": "odu",
    "687": "oduc",
    "688": "ec",
    "689": "eca",
    "690": "ecam",
    "691": " on",
    "692": " on ",
    "693": "Em",
    "694": "Emp",
    "695": "lf",
    "696": "lf-",
    "697": "ersion",
    "698": "lit",
    "699": "liti",
    "700": "litic",
    "701": "ntion",
    "702": "bia",
    "703": "ic",
    "704": "ict",
    "705": "tow",
    "706": "hu",
    "707": "hur",
    "708": "(b",
    "709": "(b.",
    "710": "(b. ",
    "711": "(b. 1",
    "712": "-c",
    "713": "-ca",
    "714": "-cal",
    "715": "Ca",
    "716": "Cay",
    "717": "Caym",
    "718": "Je",
    "719": "Jew",
    "720": "hu ",
    "721": "nh",
    "722": "nho",
    "723": "nhol",
    "724": "Nig",
    "725": "Nige",
    "726": "Niger",
    "727": "ctr",
    "728": "ito",
    "729": "itor",
    "730": "hir",
    "731": "Ira",
    "732": "ppo",
    "733": "e ",
    "734": "e 1",
    "735": "e 19",
    "736": "gh",
    "737": "ght",
    "738": "rol",
    "739": "ce",
    "740": "cel",
    "741": "cela",
    "742": "Wh",
    "743": "lu",
    "744": "lut",
    "745": "luti",
    "746": "lutio",
    "747": "Fr",
    "748": "Fre",
    "749": "Fren",
    "750": "Frenc",
    "751": "6*",
    "752": "6*1",
    "753": "6*19",
    "754": "lan",
    "755": "cord",
    "756": "ear",
    "757": "earl",
    "758": "easo",
    "759": "eason",
    "760": "pho",
    "761": "vie",
    "762": "n ",
    "763": "nk",
    "764": "sy",
    "765": "sy ",
    "766": "kn",
    "767": "kno",
    "768": "know",
    "769": "knowl",
    "770": "knowle",
    "771": "ice",
    "772": "n'",
    "773": "n't",
    "774": "da",
    "775": "das",
    "776": "dash",
    "777": "Or",
    "778": "Ord",
    "779": "ugu",
    "780": "ugua",
    "781": "uguay",
    "782": "gd",
    "783": "ntr",
    "784": "ntra",
    "785": "xas",
    "786": "ete",
    "787": "not",
    "788": "note",
    "789": "Engl",
    "790": "Engli",
    "791": "Englis",
    "792": "war",
    "793": "ward",
    "794": "du",
    "795": "lad",
    "796": "rc",
    "797": "rce",
    "798": "ite",
    "799": "ata",
    "800": "wer",
    "801": "were",
    "802": "were ",
    "803": "mbo",
    "804": "mbol",
    "805": ".S",
    "806": ".S.",
    "807": "ut",
    "808": "uto",
    "809": "ima",
    "810": "cho",
    "811": "No",
    "812": "Nor",
    "813": "his",
    "814": "oli",
    "815": "olic",
    "816": "nd",
    "817": "ndl",
    "818": "ins",
    "819": "Sp",
    "820": "Spa",
    "821": "pin",
    "822": "/f",
    "823": "/fe",
    "824": "ino",
    "825": " -",
    "826": " - ",
    "827": "emed",
    "828": "xi",
    "829": "pt",
    "830": "pte",
    "831": "ptem",
    "832": "ptemb",
    "833": "ipm",
    "834": "ipme",
    "835": "wh",
    "836": "who",
    "837": "who ",
    "838": "eli",
    "839": "elie",
    "840": "wo",
    "841": "wor",
    "842": "worl",
    "843": "world",
    "844": "onl",
    "845": "only",
    "846": "cr",
    "847": "cri",
    "848": "crim",
    "849": "crimm",
    "850": "fic",
    "851": "fict",
    "852": "ficti",
    "853": "il",
    "854": "ili",
    "855": "ilit",
    "856": "rti",
    "857": "rtic",
    "858": "our",
    "859": "ourc",
    "860": " p",
    "861": " po",
    "862": "ds",
    "863": "(1",
    "864": "(19",
    "865": "yle",
    "866": "nc",
    "867": "nce",
    "868": "cro",
    "869": "rin",
    "870": "ring",
    "871": "Yo",
    "872": "Yor",
    "873": "spo",
    "874": "iu",
    "875": "ius",
    "876": "sto",
    "877": "ston",
    "878": "stoni",
    "879": "stonia",
    "880": "Dj",
    "881": "Dji",
    "882": "Djib",
    "883": "xit",
    "884": "xite",
    "885": "hin",
    "886": "ss",
    "887": "ssi",
    "888": "ssis",
    "889": "tec",
    "890": "ing",
    "891": "ingh",
    "892": " (",
    "893": "ord",
    "894": "orde",
    "895": "ve",
    "896": "ven",
    "897": "vent",
    "898": "wel",
    "899": "well",
    "900": "ps",
    "901": "alo",
    "902": "isl",
    "903": "isla",
    "904": "mil",
    "905": "eco",
    "906": "econ",
    "907": "econo",
    "908": "econom",
    "909": "Is",
    "910": "Isr",
    "911": "Isra",
    "912": "e=",
    "913": "e= ",
    "914": "Ru",
    "915": "Rus",
    "916": "Russ",
    "917": "per",
    "918": "perc",
    "919": "perce",
    "920": "ept",
    "921": "epte",
    "922": "eptem",
    "923": "eptemb",
    "924": "Br",
    "925": "Go",
    "926": "n=",
    "927": "rvi",
    "928": "rvic",
    "929": "luc",
    "930": "een",
    "931": "een ",
    "932": "le ",
    "933": "De",
    "934": "Dea",
    "935": "mit",
    "936": "mith",
    "937": "utt",
    "938": "uttl",
    "939": "uttle",
    "940": "une",
    "941": "ime",
    "942": "lie",
    "943": "ovi",
    "944": "ovie",
    "945": "or ",
    "946": "eng",
    "947": "engi",
    "948": "engin",
    "949": "he",
    "950": "heo",
    "951": "heor",
    "952": "arc",
    "953": "arct",
    "954": "arcti",
    "955": "xe",
    "956": "xed",
    "957": "xam",
    "958": "xamp",
    "959": "An",
    "960": "Ans",
    "961": "Anse",
    "962": "Ansel",
    "963": "Anselm",
    "964": "ela",
    "965": "elat",
    "966": "rio",
    "967": "riod",
    "968": "eb",
    "969": "ary",
    "970": "ary ",
    "971": "tt",
    "972": "tty",
    "973": "ttys",
    "974": "ttysb",
    "975": "gram",
    "976": ", ",
    "977": "orb",
    "978": "lp",
    "979": "lph",
    "980": "lpha",
    "981": "igi",
    "982": "igin",
    "983": "ff",
    "984": "ffi",
    "985": "ffic",
    "986": "00",
    "987": "000",
    "988": "4*",
    "989": "4*1",
    "990": "4*19",
    "991": "Ho",
    "992": "How",
    "993": "Howe",
    "994": "Howev",
    "995": "fr",
    "996": "fre",
    "997": "fred",
    "998": "(d",
    "999": "(d.",
    "1000": "(d. ",
    "1001": "ys",
    "1002": "ysi",
    "1003": "iev",
    "1004": "ji",
    "1005": "jib",
    "1006": "jibo",
    "1007": " w",
    "1008": " wi",
    "1009": " wit",
    "1010": "eo",
    "1011": "gi",
    "1012": "gid",
    "1013": "gida",
    "1014": "bru",
    "1015": "brua",
    "1016": "itiv",
    "1017": "tl",
    "1018": "OC",
    "1019": "OC_",
    "1020": "OC__",
    "1021": "ity",
    "1022": "K ",
    "1023": "bit",
    "1024": "bitr",
    "1025": "bitra",
    "1026": "60",
    "1027": "3 ",
    "1028": "3 |",
    "1029": "3 ||",
    "1030": "3 || ",
    "1031": "y ",
    "1032": "La",
    "1033": "!-",
    "1034": "!--",
    "1035": "DO",
    "1036": "DOS",
    "1037": "ucl",
    "1038": "lle",
    "1039": "llel",
    "1040": "00 ",
    "1041": "all",
    "1042": "all ",
    "1043": " b",
    "1044": " bi",
    "1045": " bir",
    "1046": " birt",
    "1047": " birth",
    "1048": "yo",
    "1049": "yon",
    "1050": "yond",
    "1051": "dl",
    "1052": "dla",
    "1053": "rcen",
    "1054": "rcent",
    "1055": "U.",
    "1056": "U.S",
    "1057": "ye",
    "1058": "ha",
    "1059": "has",
    "1060": "has ",
    "1061": "aci",
    "1062": "acif",
    "1063": "acifi",
    "1064": "oe",
    "1065": "oet",
    "1066": "Tr",
    "1067": "Tru",
    "1068": "Trus",
    "1069": "san",
    "1070": "bl",
    "1071": "bli",
    "1072": "blin",
    "1073": "ian",
    "1074": "ianc",
    "1075": "F ",
    "1076": "po",
    "1077": "pon",
    "1078": "lt",
    "1079": "lti",
    "1080": "k,",
    "1081": "k, ",
    "1082": "CP",
    "1083": "CPU",
    "1084": "Ro",
    "1085": "Rom",
    "1086": "tor",
    "1087": "dat",
    "1088": "iph",
    "1089": "su",
    "1090": "sul",
    "1091": "wid",
    "1092": "4%",
    "1093": "pu",
    "1094": "pub",
    "1095": "publ",
    "1096": "publi",
    "1097": " /",
    "1098": " /t",
    "1099": "ann",
    "1100": "anne",
    "1101": "yst",
    "1102": "yste",
    "1103": "rd",
    "1104": "mor",
    "1105": "more",
    "1106": "more ",
    "1107": "nta",
    "1108": "ntar",
    "1109": "ntarc",
    "1110": "ntarct",
    "1111": "ndo",
    "1112": "ndon",
    "1113": "By",
    "1114": "Byz",
    "1115": "Byza",
    "1116": "Byzan",
    "1117": "Byzant",
    "1118": "oft",
    "1119": "In",
    "1120": "Ind",
    "1121": "ien",
    "1122": "ient",
    "1123": "mis",
    "1124": "miss",
    "1125": "az",
    "1126": "azz",
    "1127": "si",
    "1128": "sis",
    "1129": "eek",
    "1130": "re",
    "1131": "rec",
    "1132": "reci",
    "1133": "recip",
    "1134": " be",
    "1135": " bet",
    "1136": " betw",
    "1137": " betwe",
    "1138": "pria",
    "1139": "Am",
    "1140": "Fo",
    "1141": "For",
    "1142": "Da",
    "1143": "Dal",
    "1144": "Dale",
    "1145": "Dalek",
    "1146": "van",
    "1147": "hic",
    "1148": "lta",
    "1149": "eph",
    "1150": "hr",
    "1151": "hri",
    "1152": "hris",
    "1153": "hrist",
    "1154": "Wo",
    "1155": "Wor",
    "1156": "Worl",
    "1157": "av",
    "1158": "avi",
    "1159": "avin",
    "1160": "ind",
    "1161": "indo",
    "1162": "ele",
    "1163": "elep",
    "1164": "eleph",
    "1165": "thio",
    "1166": "Jo",
    "1167": "ney",
    "1168": "bral",
    "1169": "de",
    "1170": "de ",
    "1171": "Id",
    "1172": "enera",
    "1173": " pl",
    "1174": " pla",
    "1175": "ogn",
    "1176": "PA",
    "1177": "sid",
    "1178": "side",
    "1179": "ves",
    "1180": "mat",
    "1181": "mate",
    "1182": "mater",
    "1183": "materi",
    "1184": "materia",
    "1185": "rch",
    "1186": "loc",
    "1187": "loca",
    "1188": "was",
    "1189": "was ",
    "1190": "EL",
    "1191": "ELF",
    "1192": "R ",
    "1193": "Du",
    "1194": "Dub",
    "1195": "lbour",
    "1196": "ollo",
    "1197": "ollow",
    "1198": "5%",
    "1199": "5% ",
    "1200": "ik",
    "1201": "ike",
    "1202": "con",
    "1203": "cons",
    "1204": "nor ",
    "1205": "sea",
    "1206": "seas",
    "1207": "ica",
    "1208": "icar",
    "1209": "icara",
    "1210": "icarag",
    "1211": "l ",
    "1212": "Pau",
    "1213": "Paul",
    "1214": "gli",
    "1215": "glis",
    "1216": "isa",
    "1217": "isan",
    "1218": "abl",
    "1219": "able",
    "1220": "able ",
    "1221": " V",
    "1222": " Ve",
    "1223": " Veg",
    "1224": "sin",
    "1225": "sinc",
    "1226": "hel",
    "1227": "helm",
    "1228": "enn",
    "1229": "enns",
    "1230": "ennsy",
    "1231": "ennsyl",
    "1232": "itia",
    "1233": " A",
    "1234": "spa",
    "1235": "spap",
    "1236": "iz",
    "1237": "ize",
    "1238": "yd",
    "1239": "ydr",
    "1240": "va ",
    "1241": "va S",
    "1242": "va Sc",
    "1243": "terr",
    "1244": "terra",
    "1245": "ev",
    "1246": "inth",
    "1247": "ach",
    "1248": "bro",
    "1249": "brot",
    "1250": "broth",
    "1251": "brothe",
    "1252": "op",
    "1253": "opu",
    "1254": "opul",
    "1255": "Pr",
    "1256": "Pri",
    "1257": "cra",
    "1258": "craf",
    "1259": "craft",
    "1260": "St",
    "1261": "Sta",
    "1262": "Stat",
    "1263": "State",
    "1264": "bol",
    "1265": "na",
    "1266": "nat",
    "1267": "nati",
    "1268": "pol",
    "1269": "ges",
    "1270": "gest",
    "1271": "ot",
    "1272": "oth",
    "1273": "ras",
    "1274": "rash",
    "1275": "cy",
    "1276": "cy ",
    "1277": "icat",
    "1278": "icati",
    "1279": "les",
    "1280": "lest",
    "1281": "lesti",
    "1282": "lestin",
    "1283": "pine",
    "1284": "nni",
    "1285": "nnin",
    "1286": "har",
    "1287": "hart",
    "1288": "oc",
    "1289": "oci",
    "1290": "ocid",
    "1291": "s)",
    "1292": "aso",
    "1293": "lue",
    "1294": ". ",
    "1295": ". F",
    "1296": "ke",
    "1297": "kes",
    "1298": "ns",
    "1299": "nsa",
    "1300": "nsas",
    "1301": "ca",
    "1302": "car",
    "1303": "card",
    "1304": "rw",
    "1305": "rwi",
    "1306": "rwik",
    "1307": "rwiki",
    "1308": "2:",
    "1309": "ei",
    "1310": "eiv",
    "1311": "eive",
    "1312": "sr",
    "1313": "sra",
    "1314": "HB",
    "1315": "3)",
    "1316": "niv",
    "1317": "nive",
    "1318": "niver",
    "1319": "evi",
    "1320": "evid",
    "1321": "evide",
    "1322": "eviden",
    "1323": "4:",
    "1324": "sor",
    "1325": "ere",
    "1326": "ere ",
    "1327": "ates",
    "1328": "y o",
    "1329": "y of",
    "1330": "mar",
    "1331": "mary",
    "1332": "ya",
    "1333": "yar",
    "1334": "yard",
    "1335": "vil",
    "1336": "vill",
    "1337": "ng",
    "1338": "ngt",
    "1339": "ngth",
    "1340": "pha",
    "1341": "phal",
    "1342": "phalt",
    "1343": "hem",
    "1344": "str",
    "1345": "stri",
    "1346": "stric",
    "1347": "strict",
    "1348": "di",
    "1349": "dig",
    "1350": "dige",
    "1351": "digen",
    "1352": "digeno",
    "1353": "Li",
    "1354": "clu",
    "1355": "noz",
    "1356": "ina",
    "1357": "lif",
    "1358": "##",
    "1359": "Po",
    "1360": "noth",
    "1361": "nothe",
    "1362": "tn",
    "1363": "tne",
    "1364": "tnes",
    "1365": "tness",
    "1366": "4,",
    "1367": "4, ",
    "1368": "oun",
    "1369": "ount",
    "1370": "yc",
    "1371": "my",
    "1372": "my ",
    "1373": "Su",
    "1374": "Sun",
    "1375": "Sund",
    "1376": "lc",
    "1377": "lcu",
    "1378": "lcul",
    "1379": "Lo",
    "1380": "Lon",
    "1381": "Lond",
    "1382": "Londo",
    "1383": "London",
    "1384": "tu",
    "1385": "tub",
    "1386": "tube",
    "1387": "las",
    "1388": "lass",
    "1389": "fin",
    "1390": "s ",
    "1391": "s V",
    "1392": "s Ve",
    "1393": "s Veg",
    "1394": "RI",
    "1395": "RIS",
    "1396": "pli",
    "1397": "syc",
    "1398": "fro",
    "1399": "from",
    "1400": "Ci",
    "1401": "Cit",
    "1402": "chig",
    "1403": "chiga",
    "1404": "duc",
    "1405": "zz",
    "1406": "islat",
    "1407": "tho",
    "1408": "pb",
    "1409": "pbe",
    "1410": "pbel",
    "1411": "aj",
    "1412": "ajo",
    "1413": "hol",
    "1414": "eda",
    "1415": "8 ",
    "1416": "oes",
    "1417": "rl",
    "1418": "rly",
    "1419": "ted ",
    "1420": "int ",
    "1421": "sel",
    "1422": "sely",
    "1423": "tin",
    "1424": "bet",
    "1425": "res",
    "1426": "resc",
    "1427": "resce",
    "1428": "rescen",
    "1429": "e m",
    "1430": "e mi",
    "1431": "e min",
    "1432": "e mini",
    "1433": "e minis",
    "1434": "anu",
    "1435": "anua",
    "1436": "anuar",
    "1437": "set",
    "1438": "sc",
    "1439": "scr",
    "1440": "scri",
    "1441": "scrim",
    "1442": "scrimm",
    "1443": "X ",
    "1444": "cal",
    "1445": "call",
    "1446": " E",
    "1447": " Em",
    "1448": " Emp",
    "1449": "gu",
    "1450": "gur",
    "1451": " f",
    "1452": " fr",
    "1453": " fro",
    "1454": "40",
    "1455": "nda",
    "1456": "ndas",
    "1457": "ndash",
    "1458": "id",
    "1459": "ide",
    "1460": "iden",
    "1461": "ib",
    "1462": "ist",
    "1463": "isto",
    "1464": "bre",
    "1465": "brev",
    "1466": "Ga",
    "1467": "Gal",
    "1468": "bac",
    "1469": "back",
    "1470": "dan",
    "1471": "rip",
    "1472": "ript",
    "1473": "soe",
    "1474": "soev",
    "1475": "'a",
    "1476": "pen",
    "1477": "pens",
    "1478": "pensi",
    "1479": "pensiv",
    "1480": "nef",
    "1481": "Com",
    "1482": "ea ",
    "1483": "A ",
    "1484": "rli",
    "1485": "rlia",
    "1486": "rliam",
    "1487": "Ot",
    "1488": "Ott",
    "1489": "Otto",
    "1490": "ae",
    "1491": "aeo",
    "1492": "aeol",
    "1493": "aeolo",
    "1494": "aeolog",
    "1495": "w ",
    "1496": "w a",
    "1497": "w as",
    "1498": "w as ",
    "1499": "her",
    "1500": "her ",
    "1501": "tot",
    "1502": "from ",
    "1503": "n,",
    "1504": "n, ",
    "1505": "bs",
    "1506": "bsi",
    "1507": "bsit",
    "1508": "IS",
    "1509": "ISC",
    "1510": "ton",
    "1511": "err",
    "1512": "lep",
    "1513": "leph",
    "1514": "lepha",
    "1515": "lephan",
    "1516": "s b",
    "1517": "s by",
    "1518": "s by ",
    "1519": "ppor",
    "1520": "pport",
    "1521": "eg",
    "1522": "ega",
    "1523": "egal",
    "1524": "umb",
    "1525": "umbe",
    "1526": "coa",
    "1527": "coas",
    "1528": "coast",
    "1529": "alig",
    "1530": "align",
    "1531": "1 ",
    "1532": "ls",
    "1533": "lsh",
    "1534": "sig",
    "1535": "usi",
    "1536": "usic",
    "1537": "vai",
    "1538": "vail",
    "1539": "cos",
    "1540": "cose",
    "1541": "ux",
    "1542": "dog",
    "1543": "h ",
    "1544": "cin",
    "1545": "eou",
    "1546": "/r",
    "1547": "/re",
    "1548": "/ref",
    "1549": " J",
    "1550": "ane",
    "1551": "aneu",
    "1552": "vel",
    "1553": "velo",
    "1554": "velop",
    "1555": "ob",
    "1556": "obi",
    "1557": "obio",
    "1558": "t ",
    "1559": "t o",
    "1560": "t of",
    "1561": "sh",
    "1562": "sha",
    "1563": "shal",
    "1564": "AT",
    "1565": "ATM",
    "1566": "Th",
    "1567": "The",
    "1568": "Thea",
    "1569": "Theat",
    "1570": "ka",
    "1571": "kat",
    "1572": "+\\",
    "1573": "7)",
    "1574": "xid",
    "1575": "oup",
    "1576": "lon",
    "1577": "long",
    "1578": "ree",
    "1579": "urc",
    "1580": "urce",
    "1581": "ak",
    "1582": "ake",
    "1583": "aken",
    "1584": "ova",
    "1585": "ovan",
    "1586": "rem",
    "1587": "ant",
    "1588": "anth",
    "1589": "by",
    "1590": "by ",
    "1591": "kl",
    "1592": "kli",
    "1593": "spac",
    "1594": "pm",
    "1595": "acu",
    "1596": "Se",
    "1597": "Sem",
    "1598": "Semi",
    "1599": "Semit",
    "1600": "leas",
    "1601": "lease",
    "1602": "leased",
    "1603": "s o",
    "1604": "s of",
    "1605": "s of ",
    "1606": "eem",
    "1607": "eems",
    "1608": "eems ",
    "1609": "llis",
    "1610": "Bat",
    "1611": "Batt",
    "1612": "Battl",
    "1613": "Battle",
    "1614": "2*",
    "1615": "2*1",
    "1616": "2*19",
    "1617": "gri",
    "1618": "gric",
    "1619": "kt",
    "1620": "c ",
    "1621": "gre",
    "1622": "gree",
    "1623": ") ",
    "1624": "oo",
    "1625": "ood",
    "1626": "rst",
    "1627": "rst ",
    "1628": "tur",
    "1629": "turn",
    "1630": " U",
    "1631": " Un",
    "1632": "omi",
    "1633": "uro",
    "1634": "urop",
    "1635": "LI",
    "1636": "ploy",
    "1637": "ses",
    "1638": "ler",
    "1639": "Bj",
    "1640": "Bjr",
    "1641": "Bjrk",
    "1642": "elo",
    "1643": "xt",
    "1644": "lbu",
    "1645": "lbum",
    "1646": "oor",
    "1647": "gs",
    "1648": "oul",
    "1649": "ols",
    "1650": "In ",
    "1651": "used",
    "1652": "used ",
    "1653": "fore",
    "1654": "irl",
    "1655": "orm",
    "1656": "nad",
    "1657": "ys ",
    "1658": "nal",
    "1659": "nal ",
    "1660": "der",
    "1661": "dern",
    "1662": "oub",
    "1663": "oubt",
    "1664": "dun",
    "1665": "dune",
    "1666": "Dy",
    "1667": "Dys",
    "1668": "Dyso",
    "1669": "Dyson",
    "1670": "thor",
    "1671": "ono",
    "1672": "onom",
    "1673": "ulti",
    "1674": "-B",
    "1675": "-Be",
    "1676": "nth",
    "1677": "nthe",
    "1678": "sus",
    "1679": "val",
    "1680": "valu",
    "1681": "value",
    "1682": "nsi",
    "1683": "nsid",
    "1684": "nside",
    "1685": "se ",
    "1686": "abe",
    "1687": "abet",
    "1688": "ocr",
    "1689": "ocra",
    "1690": "rif",
    "1691": "rifl",
    "1692": "mati",
    "1693": "matia",
    "1694": "whi",
    "1695": "whic",
    "1696": "which",
    "1697": "which ",
    "1698": "ns ",
    "1699": "morp",
    "1700": "morph",
    "1701": "var",
    "1702": "vard",
    "1703": "ho ",
    "1704": "1-",
    "1705": "lui",
    "1706": "luid",
    "1707": "urch",
    "1708": "siden",
    "1709": "NO",
    "1710": "NOT",
    "1711": "cen",
    "1712": "cent",
    "1713": "centu",
    "1714": "act",
    "1715": "nct",
    "1716": "shi",
    "1717": "mal",
    "1718": "mall",
    "1719": "cs",
    "1720": "Na",
    "1721": "Nat",
    "1722": "Nati",
    "1723": "oa",
    "1724": "oat",
    "1725": "leg",
    "1726": "legs",
    "1727": "dy",
    "1728": "dy ",
    "1729": "ged",
    "1730": "gedd",
    "1731": "hm",
    "1732": "hma",
    "1733": "rov",
    "1734": "rovi",
    "1735": "rovin",
    "1736": "rovinc",
    "1737": "za",
    "1738": "zan",
    "1739": "zani",
    "1740": "s;",
    "1741": "tz",
    "1742": "chn",
    "1743": "ke ",
    "1744": "unc",
    "1745": "-o",
    "1746": "-or",
    "1747": "-ori",
    "1748": "gm",
    "1749": "gme",
    "1750": "ngu",
    "1751": "- ",
    "1752": "ste",
    "1753": "stem",
    "1754": "dsw",
    "1755": "dswo",
    "1756": "roo",
    "1757": "lps",
    "1758": "lps ",
    "1759": "cam",
    "1760": "came",
    "1761": "sci",
    "1762": "scil",
    "1763": "scill",
    "1764": "led",
    "1765": "att",
    "1766": "earc",
    "1767": " m",
    "1768": "rry",
    "1769": "GH",
    "1770": "GHB",
    "1771": "pso",
    "1772": "pson",
    "1773": "ent",
    "1774": "enti",
    "1775": "its",
    "1776": "nou",
    "1777": "noun",
    "1778": "nounc",
    "1779": "gai",
    "1780": "cep",
    "1781": "cept",
    "1782": "i ",
    "1783": "nne",
    "1784": "yn",
    "1785": "yna",
    "1786": "ynam",
    "1787": "ynami",
    "1788": "ider",
    "1789": "mer",
    "1790": "meri",
    "1791": "nen",
    "1792": "nent",
    "1793": "mou",
    "1794": "moun",
    "1795": "mount",
    "1796": "ww",
    "1797": "nas",
    "1798": "naso",
    "1799": "nasof",
    "1800": "org",
    "1801": "orga",
    "1802": "ten",
    "1803": "tena",
    "1804": "pic",
    "1805": "pict",
    "1806": "SC",
    "1807": "put",
    "1808": "sio",
    "1809": "lt ",
    "1810": "isk",
    "1811": "aug",
    "1812": "augh",
    "1813": "aught",
    "1814": "aughte",
    "1815": "gla",
    "1816": "Ja",
    "1817": "Jam",
    "1818": "Jame",
    "1819": "James",
    "1820": "rint",
    "1821": "rinth",
    "1822": "erd",
    "1823": "erdi",
    "1824": "erdin",
    "1825": "erdina",
    "1826": "erdinan",
    "1827": "erdinand",
    "1828": "nan",
    "1829": "nanc",
    "1830": "mu",
    "1831": "mus",
    "1832": "musi",
    "1833": "music",
    "1834": "sed",
    "1835": "sed ",
    "1836": "dec",
    "1837": "eid",
    "1838": "dd",
    "1839": "ddi",
    "1840": "ddit",
    "1841": "dditi",
    "1842": "dditio",
    "1843": "tiz",
    "1844": "tize",
    "1845": "tizen",
    "1846": "thou",
    "1847": "thoug",
    "1848": "eep",
    "1849": "igh",
    "1850": "nnis",
    "1851": "4 ",
    "1852": "4 (",
    "1853": "cab",
    "1854": "ial",
    "1855": "inct",
    "1856": "k/",
    "1857": "fl",
    "1858": "fle",
    "1859": "pan",
    "1860": "pani",
    "1861": "vit",
    "1862": "Can",
    "1863": "Cana",
    "1864": "Canad",
    "1865": "e o",
    "1866": "e of",
    "1867": "e of ",
    "1868": "AL",
    "1869": "ALI",
    "1870": "Oc",
    "1871": "Oct",
    "1872": "Octo",
    "1873": "Octob",
    "1874": "ycl",
    "1875": "ork",
    "1876": "roa",
    "1877": "roat",
    "1878": "aa",
    "1879": "aar",
    "1880": "tua",
    "1881": "tuat",
    "1882": "wis",
    "1883": "por",
    "1884": "data",
    "1885": "st ",
    "1886": "st o",
    "1887": "lio",
    "1888": "ld",
    "1889": "ld ",
    "1890": "ani",
    "1891": "anis",
    "1892": "anish",
    "1893": " r",
    "1894": "km",
    "1895": "obe",
    "1896": "ober",
    "1897": "arm",
    "1898": "vis",
    "1899": "ta",
    "1900": "tab",
    "1901": "tabl",
    "1902": "table",
    "1903": "fu",
    "1904": "fun",
    "1905": "func",
    "1906": "bil",
    "1907": "flu",
    "1908": "ym",
    "1909": "yma",
    "1910": "yman",
    "1911": "Gala",
    "1912": "ay",
    "1913": "ay ",
    "1914": "wide",
    "1915": "unct",
    "1916": "itim",
    "1917": "ank",
    "1918": "G ",
    "1919": "nst",
    "1920": "nsta",
    "1921": "nu",
    "1922": "nut",
    "1923": "9)",
    "1924": "alle",
    "1925": "alled",
    "1926": "aur",
    "1927": "nsk",
    "1928": "nskr",
    "1929": "rg",
    "1930": "own",
    "1931": "owne",
    "1932": "owned",
    "1933": "os",
    "1934": "ose",
    "1935": "fen",
    "1936": "usin",
    "1937": "usine",
    "1938": "ced",
    "1939": "fa",
    "1940": "fac",
    "1941": "fact",
    "1942": "act ",
    "1943": "xu",
    "1944": "xua",
    "1945": "ser",
    "1946": "serv",
    "1947": "anna",
    "1948": "lek",
    "1949": " (d",
    "1950": " (d.",
    "1951": " (d. ",
    "1952": " (d. 1",
    "1953": "ise",
    "1954": "othe",
    "1955": "ater",
    "1956": "owd",
    "1957": "owde",
    "1958": "owder",
    "1959": "ould",
    "1960": "AS",
    "1961": "ASI",
    "1962": "ASIC",
    "1963": "anner",
    "1964": "ngl",
    "1965": "ngla",
    "1966": "tis",
    "1967": "tist",
    "1968": "hio",
    "1969": "nim",
    "1970": "that",
    "1971": "that ",
    "1972": "igio",
    "1973": "ster",
    "1974": "oge",
    "1975": "ogen",
    "1976": "lace",
    "1977": "tat",
    "1978": "nia",
    "1979": "mpl",
    "1980": "mple",
    "1981": "eer",
    "1982": "sen",
    "1983": "umber",
    "1984": "dem",
    "1985": "demo",
    "1986": "democ",
    "1987": "democr",
    "1988": "democra",
    "1989": "0,",
    "1990": "0,0",
    "1991": "0,00",
    "1992": "0,000",
    "1993": "ein",
    "1994": "olit",
    "1995": "oliti",
    "1996": "ale",
    "1997": "Ki",
    "1998": "Kin",
    "1999": "rme",
    "2000": "rmer",
    "2001": "tla",
    "2002": "esu",
    "2003": "Nov",
    "2004": "Nove",
    "2005": "Novem",
    "2006": "Novemb",
    "2007": "aw",
    "2008": "alled ",
    "2009": "nec",
    "2010": "nece",
    "2011": "neces",
    "2012": "ax",
    "2013": "cti",
    "2014": "ctiv",
    "2015": "poi",
    "2016": "poin",
    "2017": "point",
    "2018": "ral",
    "2019": "min",
    "2020": "ming",
    "2021": "attr",
    "2022": "icl",
    "2023": "icle",
    "2024": "uma",
    "2025": "uman",
    "2026": "umann",
    "2027": "ber",
    "2028": "rh",
    "2029": "wr",
    "2030": "wri",
    "2031": "writ",
    "2032": "write",
    "2033": "dm",
    "2034": "dmi",
    "2035": "ja",
    "2036": "jad",
    "2037": "tag",
    "2038": "tage",
    "2039": "Bu",
    "2040": "Bur",
    "2041": "Burg",
    "2042": "mpa",
    "2043": "mpat",
    "2044": "ey",
    "2045": "ey ",
    "2046": "Bul",
    "2047": "Bulg",
    "2048": "Bulga",
    "2049": "Bulgar",
    "2050": "the",
    "2051": "mag",
    "2052": "magn",
    "2053": "ode",
    "2054": "ond",
    "2055": "AM",
    "2056": "men",
    "2057": "zi",
    "2058": "zil",
    "2059": "zill",
    "2060": "Ar",
    "2061": "Ari",
    "2062": "Aris",
    "2063": "Arist",
    "2064": "ts",
    "2065": "Inn",
    "2066": "mali",
    "2067": "owi",
    "2068": "owin",
    "2069": "ndi",
    "2070": "Isl",
    "2071": "Isla",
    "2072": "Islan",
    "2073": "stab",
    "2074": "stabl",
    "2075": "edi",
    "2076": "sia",
    "2077": "-t",
    "2078": "-to",
    "2079": "0 a",
    "2080": "0 an",
    "2081": "pre",
    "2082": "pres",
    "2083": "sch",
    "2084": "v.",
    "2085": "v. ",
    "2086": "ori",
    "2087": "orid",
    "2088": "orida",
    "2089": "ith",
    "2090": "ithe",
    "2091": "hor",
    "2092": "hort",
    "2093": "6 ",
    "2094": "6 -",
    "2095": "6 - ",
    "2096": "yne",
    "2097": "etw",
    "2098": "etwo",
    "2099": "urn",
    "2100": "ngua",
    "2101": "nguag",
    "2102": ":/",
    "2103": "://",
    "2104": "ern",
    "2105": "erne",
    "2106": "ernet",
    "2107": "wil",
    "2108": "will",
    "2109": "sco",
    "2110": "scow",
    "2111": "dif",
    "2112": "diff",
    "2113": "79",
    "2114": "eac",
    "2115": "mm",
    "2116": "vid",
    "2117": "o-",
    "2118": "Do",
    "2119": "Dol",
    "2120": "Doll",
    "2121": "uld",
    "2122": "uld ",
    "2123": "fed",
    "2124": "fede",
    "2125": "feder",
    "2126": "federa",
    "2127": "matr",
    "2128": "matri",
    "2129": "mera",
    "2130": "t of ",
    "2131": "ai",
    "2132": "ail",
    "2133": "aily",
    "2134": "OT",
    "2135": "onth",
    "2136": "onths",
    "2137": "aly",
    "2138": "ordi",
    "2139": "ordin",
    "2140": "s t",
    "2141": "s to",
    "2142": "tim",
    "2143": "time",
    "2144": "eci",
    "2145": "ecia",
    "2146": "ppen",
    "2147": "itic",
    "2148": "ot ",
    "2149": "pai",
    "2150": "pain",
    "2151": "||",
    "2152": "|| ",
    "2153": "rast",
    "2154": "rastr",
    "2155": "rastru",
    "2156": "mally",
    "2157": "unci",
    "2158": "Be",
    "2159": "uta",
    "2160": "utan",
    "2161": "3r",
    "2162": "3rd",
    "2163": "pal",
    "2164": "rou",
    "2165": "roup",
    "2166": "mes",
    "2167": "2 ",
    "2168": "istor",
    "2169": "vem",
    "2170": "veme",
    "2171": "vemen",
    "2172": "gua",
    "2173": "ims",
    "2174": "imse",
    "2175": "imsel",
    "2176": "imself",
    "2177": "ze",
    "2178": "oad",
    "2179": "ry",
    "2180": "rat",
    "2181": "rate",
    "2182": "Tl",
    "2183": "sign",
    "2184": "SR",
    "2185": "gul",
    "2186": "uct",
    "2187": "uctu",
    "2188": "uctur",
    "2189": "Dam",
    "2190": "al ",
    "2191": "0*",
    "2192": "0*1",
    "2193": "0*19",
    "2194": "6:",
    "2195": "eb ",
    "2196": "etwe",
    "2197": "etwee",
    "2198": ".)",
    "2199": "noi",
    "2200": "noir",
    "2201": "eeps",
    "2202": " and",
    "2203": "enc",
    "2204": "ndid",
    "2205": "eu",
    "2206": "eud",
    "2207": "rrym",
    "2208": "ovel",
    "2209": "W)",
    "2210": "et ",
    "2211": "emb",
    "2212": "embe",
    "2213": "L ",
    "2214": " ra",
    "2215": "yz",
    "2216": "yza",
    "2217": "yzan",
    "2218": "yzant",
    "2219": "eliu",
    "2220": "elium",
    "2221": "ous",
    "2222": "ouse",
    "2223": "wn",
    "2224": "You",
    "2225": "r*",
    "2226": "rrit",
    "2227": "rrito",
    "2228": "lav",
    "2229": "lave",
    "2230": "gy",
    "2231": "gyp",
    "2232": "ver",
    "2233": "very",
    "2234": "very ",
    "2235": "pee",
    "2236": "peed",
    "2237": "rmi",
    "2238": "rmin",
    "2239": "rmio",
    "2240": "rmion",
    "2241": "isti",
    "2242": "4)",
    "2243": "zy",
    "2244": "zym",
    "2245": "ule",
    "2246": "ules",
    "2247": "VI",
    "2248": "VII",
    "2249": "pend",
    "2250": "eve",
    "2251": "evel",
    "2252": "evelo",
    "2253": "evelop",
    "2254": "ck",
    "2255": "Bru",
    "2256": "jo",
    "2257": "ard",
    "2258": "Ara",
    "2259": "uge",
    "2260": "tte",
    "2261": "ts ",
    "2262": "ase",
    "2263": "pea",
    "2264": "pean",
    "2265": "Wi",
    "2266": "Win",
    "2267": "Wint",
    "2268": "Winte",
    "2269": "Winter",
    "2270": " S",
    "2271": " Sc",
    "2272": " Sco",
    "2273": "9%",
    "2274": "eq",
    "2275": "equ",
    "2276": ",0",
    "2277": ",00",
    "2278": "apt",
    "2279": "rot",
    "2280": "bros",
    "2281": "SB",
    "2282": "SBN",
    "2283": "gs ",
    "2284": "rp",
    "2285": "riol",
    "2286": "riole",
    "2287": "bill",
    "2288": "billi",
    "2289": "ever",
    "2290": "cus",
    "2291": "yme",
    "2292": "ymen",
    "2293": "yment",
    "2294": "iat",
    "2295": "whe",
    "2296": "whel",
    "2297": "lin",
    "2298": "Bak",
    "2299": "Bake",
    "2300": "Bakel",
    "2301": "erta",
    "2302": "ertai",
    "2303": "egi",
    "2304": "egis",
    "2305": "te ",
    "2306": "tern",
    "2307": "oi",
    "2308": "oid",
    "2309": "9 ",
    "2310": "sent",
    "2311": "senti",
    "2312": "sentia",
    "2313": "P)",
    "2314": "iri",
    "2315": "irit",
    "2316": "cou",
    "2317": "cour",
    "2318": "so ",
    "2319": "erte",
    "2320": "erted",
    "2321": "sear",
    "2322": "searc",
    "2323": "sks",
    "2324": "sks ",
    "2325": "lled",
    "2326": "on ",
    "2327": "bee",
    "2328": "been",
    "2329": "Sy",
    "2330": "Syr",
    "2331": "led ",
    "2332": "Basqu",
    "2333": "von ",
    "2334": "tai",
    "2335": "tain",
    "2336": "ower",
    "2337": "5*",
    "2338": "5*1",
    "2339": "5*19",
    "2340": "gat",
    "2341": "how",
    "2342": "howe",
    "2343": "howev",
    "2344": "howeve",
    "2345": "ligio",
    "2346": "ref",
    "2347": "ref ",
    "2348": "cie",
    "2349": "cies",
    "2350": "cas",
    "2351": "ner",
    "2352": "nera",
    "2353": "Nob",
    "2354": "Nobe",
    "2355": "Nobel",
    "2356": "i-",
    "2357": "i-s",
    "2358": "i-sh",
    "2359": "uti",
    "2360": "spe",
    "2361": "spec",
    "2362": "speci",
    "2363": "specia",
    "2364": " (b",
    "2365": " (b.",
    "2366": "oca",
    "2367": "ior",
    "2368": "8 -",
    "2369": "8 - ",
    "2370": "eor",
    "2371": "eorg",
    "2372": "nit",
    "2373": "adem",
    "2374": "cto",
    "2375": "ctor",
    "2376": " e",
    "2377": "asc",
    "2378": "ato",
    "2379": "atol",
    "2380": "atoli",
    "2381": "atolia",
    "2382": "req",
    "2383": "requ",
    "2384": " |",
    "2385": " ||",
    "2386": " || ",
    "2387": "que",
    "2388": "quen",
    "2389": "imm",
    "2390": "Wik",
    "2391": "byt",
    "2392": "byte",
    "2393": "co ",
    "2394": "++",
    "2395": "Ya",
    "2396": "Yan",
    "2397": "Yank",
    "2398": "Yanke",
    "2399": "Yankee",
    "2400": "grap",
    "2401": "an ",
    "2402": "venn",
    "2403": "ment",
    "2404": "sis*",
    "2405": "sis*A",
    "2406": "sis*Ag",
    "2407": "sis*Aga",
    "2408": "sis*Agav",
    "2409": "sis*Agave",
    "2410": "erms",
    "2411": "erms ",
    "2412": "He",
    "2413": "Hea",
    "2414": "Hear",
    "2415": "Hears",
    "2416": "Hearst",
    "2417": "ogr",
    "2418": "ogra",
    "2419": "kee",
    "2420": "keep",
    "2421": " c",
    "2422": " ce",
    "2423": "ake ",
    "2424": "us ",
    "2425": "dva",
    "2426": "dvan",
    "2427": "ibl",
    "2428": "ible",
    "2429": "unt",
    "2430": "gaz",
    "2431": "gazi",
    "2432": "gazin",
    "2433": "rew",
    "2434": "Af",
    "2435": "Afr",
    "2436": "Afri",
    "2437": "bb",
    "2438": "bb{",
    "2439": "iss",
    "2440": "oved",
    "2441": "n /",
    "2442": "n /s",
    "2443": "n /su",
    "2444": "tes",
    "2445": "test",
    "2446": "Ema",
    "2447": "Emac",
    "2448": "Emacs",
    "2449": "day",
    "2450": "We",
    "2451": "Wes",
    "2452": "West",
    "2453": "tan",
    "2454": "mof",
    "2455": "atio",
    "2456": "ation",
    "2457": "guag",
    "2458": "lab",
    "2459": " Am",
    "2460": " Ame",
    "2461": " Amer",
    "2462": "tic",
    "2463": "tick",
    "2464": "Bee",
    "2465": "Beer",
    "2466": "orf",
    "2467": "box",
    "2468": "Mk",
    "2469": "med ",
    "2470": "nge",
    "2471": "-to-",
    "2472": "-to-o",
    "2473": "-to-on",
    "2474": "-to-one",
    "2475": "llo",
    "2476": "llow",
    "2477": "ron",
    "2478": "cien",
    "2479": "poll",
    "2480": "Ori",
    "2481": "Orio",
    "2482": "pret",
    "2483": "cyc",
    "2484": "cycl",
    "2485": "eni",
    "2486": "H.",
    "2487": "thr",
    "2488": "sys",
    "2489": "syst",
    "2490": "syste",
    "2491": "system",
    "2492": "nect",
    "2493": "ain",
    "2494": "aint",
    "2495": "xec",
    "2496": "xecu",
    "2497": "sty",
    "2498": "rod",
    "2499": "rodu",
    "2500": "roduc",
    "2501": "ud",
    "2502": "alit",
    "2503": "lex",
    "2504": "rect",
    "2505": "los",
    "2506": "lose",
    "2507": "ttl",
    "2508": "ttle",
    "2509": "n-",
    "2510": "iva",
    "2511": "ivat",
    "2512": "--",
    "2513": "-- ",
    "2514": "tol",
    "2515": "tolo",
    "2516": "tolog",
    "2517": "ibi",
    "2518": "ibit",
    "2519": "aig",
    "2520": "ker",
    "2521": "nny",
    "2522": "Un",
    "2523": "Uni",
    "2524": "Univ",
    "2525": "rtin",
    "2526": "bri",
    "2527": "brig",
    "2528": "brigh",
    "2529": "ek",
    "2530": "),",
    "2531": "), ",
    "2532": "TO",
    "2533": "se o",
    "2534": "se of",
    "2535": "se of ",
    "2536": " =",
    "2537": "iel",
    "2538": "ve ",
    "2539": "yno",
    "2540": "ynol",
    "2541": "ynold",
    "2542": "brai",
    "2543": "brain",
    "2544": "ham",
    "2545": "hamp",
    "2546": "hampi",
    "2547": "hampio",
    "2548": "ws",
    "2549": "mai",
    "2550": "main",
    "2551": "hou",
    "2552": "houn",
    "2553": "hound",
    "2554": "at ",
    "2555": "ris",
    "2556": "rish",
    "2557": "mi)",
    "2558": "aba",
    "2559": "tate",
    "2560": "tates",
    "2561": "tatesm",
    "2562": "tatesma",
    "2563": "uch a",
    "2564": "ru",
    "2565": "rus",
    "2566": "ebr",
    "2567": "ebru",
    "2568": "ebrua",
    "2569": "doe",
    "2570": "does",
    "2571": "af",
    "2572": "aft",
    "2573": "afte",
    "2574": "ryn",
    "2575": "pap",
    "2576": "one",
    "2577": "onee",
    "2578": "x)",
    "2579": "imar",
    "2580": "hl",
    "2581": "forc",
    "2582": "1:",
    "2583": "Car",
    "2584": "Cart",
    "2585": "Carth",
    "2586": "Cartha",
    "2587": "Carthag",
    "2588": "FL",
    "2589": "FL ",
    "2590": "din",
    "2591": "ding",
    "2592": "eps",
    "2593": "rth",
    "2594": "rthe",
    "2595": "ong",
    "2596": "hed",
    "2597": "estr",
    "2598": "-k",
    "2599": "-kn",
    "2600": "-kno",
    "2601": "-know",
    "2602": "anc",
    "2603": "tzs",
    "2604": "tzsc",
    "2605": "tzsch",
    "2606": "oly",
    "2607": "olyn",
    "2608": "olyno",
    "2609": "olynom",
    "2610": "sce",
    "2611": "scen",
    "2612": "arg",
    "2613": " g",
    "2614": "ind ",
    "2615": "ind o",
    "2616": "ind of",
    "2617": "ind of ",
    "2618": "lm",
    "2619": "yed",
    "2620": "zeb",
    "2621": "tae",
    "2622": "yi",
    "2623": "yin",
    "2624": "0)",
    "2625": "0)*",
    "2626": "0)*1",
    "2627": "ola",
    "2628": "lik",
    "2629": "nger",
    "2630": "ars",
    "2631": "mest",
    "2632": "ix",
    "2633": "ty",
    "2634": "ty ",
    "2635": "am",
    "2636": "amp",
    "2637": "funct",
    "2638": "ibe",
    "2639": "iber",
    "2640": "AD",
    "2641": "tine",
    "2642": "tinen",
    "2643": "tinent",
    "2644": ":W",
    "2645": ":Wi",
    "2646": ":Wik",
    "2647": "lap",
    "2648": "cono",
    "2649": "conom",
    "2650": "pac",
    "2651": "o-o",
    "2652": "o-on",
    "2653": "o-one",
    "2654": "8,",
    "2655": "8,0",
    "2656": "8,00",
    "2657": "8,000",
    "2658": "natu",
    "2659": "natur",
    "2660": "tau",
    "2661": "x(",
    "2662": "inst",
    "2663": "inste",
    "2664": "instei",
    "2665": "instein",
    "2666": "comm",
    "2667": "commo",
    "2668": "common",
    "2669": "uca",
    "2670": "ucas",
    "2671": "roop",
    "2672": "Gol",
    "2673": "Gold",
    "2674": "Den",
    "2675": "Deng",
    "2676": "19",
    "2677": "199",
    "2678": "Ea",
    "2679": " (s",
    "2680": " (sh",
    "2681": " (sho",
    "2682": "/h",
    "2683": "ival",
    "2684": "ivale",
    "2685": "je",
    "2686": "tar",
    "2687": "sas",
    "2688": "dia",
    "2689": "azi",
    "2690": "azin",
    "2691": "b ",
    "2692": "20",
    "2693": "Unive",
    "2694": "Univer",
    "2695": "als",
    "2696": "also",
    "2697": "also ",
    "2698": "rna",
    "2699": "rnat",
    "2700": "rnati",
    "2701": "rnatio",
    "2702": "Bo",
    "2703": "Bot",
    "2704": "Bots",
    "2705": "Botsw",
    "2706": "Botswa",
    "2707": "in ",
    "2708": "(l",
    "2709": "(ly",
    "2710": "(lyr",
    "2711": "(lyri",
    "2712": "(lyric",
    "2713": "coac",
    "2714": "coach",
    "2715": "ence",
    "2716": "lec",
    "2717": "lect",
    "2718": "4 |",
    "2719": "4 ||",
    "2720": "4 || ",
    "2721": "brid",
    "2722": "bridg",
    "2723": "y)",
    "2724": "-d",
    "2725": "-da",
    "2726": "ope",
    "2727": "ute",
    "2728": "hich",
    "2729": "T ",
    "2730": "riz",
    "2731": "rize",
    "2732": "Denm",
    "2733": "Denma",
    "2734": "Carn",
    "2735": "Carne",
    "2736": "Carneg",
    "2737": "ici",
    "2738": "icio",
    "2739": "iciou",
    "2740": "ilm",
    "2741": "gt",
    "2742": "ir ",
    "2743": "art",
    "2744": "cht",
    "2745": "udd",
    "2746": "uddh",
    "2747": "ula",
    "2748": "#D",
    "2749": "#De",
    "2750": "ndom",
    "2751": "nua",
    "2752": "nual",
    "2753": "uri",
    "2754": "urin",
    "2755": "* ",
    "2756": "sic",
    "2757": "avo",
    "2758": "ini",
    "2759": "init",
    "2760": "ight",
    "2761": "dap",
    "2762": "dapt",
    "2763": "Ne",
    "2764": "New",
    "2765": "News",
    "2766": "ric",
    "2767": "rict",
    "2768": "if ",
    "2769": "den",
    "2770": "gag",
    "2771": "mong",
    "2772": "Fa",
    "2773": "Fat",
    "2774": "Fath",
    "2775": "Fathe",
    "2776": "Father",
    "2777": "inv",
    "2778": "inva",
    "2779": "one ",
    "2780": "tee",
    "2781": "lead",
    "2782": "nci",
    "2783": "aus",
    "2784": "uss",
    "2785": "them",
    "2786": "thema",
    "2787": "themat",
    "2788": "pie",
    "2789": "sse",
    "2790": "ssem",
    "2791": "ssemb",
    "2792": "ssembl",
    "2793": "sua",
    "2794": "sual",
    "2795": "nd ",
    "2796": "rece",
    "2797": "recen",
    "2798": "nste",
    "2799": "oop",
    "2800": "mem",
    "2801": "memb",
    "2802": "membe",
    "2803": "Fl",
    "2804": "Flo",
    "2805": "Flor",
    "2806": "ife",
    "2807": " C",
    "2808": " Co",
    "2809": "pag",
    "2810": "page",
    "2811": "ray",
    "2812": "acr",
    "2813": "acre",
    "2814": "nso",
    "2815": "nsor",
    "2816": "2-",
    "2817": "onn",
    "2818": "onni",
    "2819": "ame",
    "2820": "amen",
    "2821": "ave",
    "2822": "cio",
    "2823": "ciou",
    "2824": "cious",
    "2825": "hy",
    "2826": "ile",
    "2827": "ile ",
    "2828": "icr",
    "2829": "icro",
    "2830": "eig",
    "2831": "pid",
    "2832": "ght ",
    "2833": "cedo",
    "2834": "ive",
    "2835": "cc",
    "2836": "api",
    "2837": "apit",
    "2838": "ran",
    "2839": "ors",
    "2840": "orse",
    "2841": "4 y",
    "2842": "4 ye",
    "2843": "4 yea",
    "2844": "graph",
    "2845": "vol",
    "2846": "volv",
    "2847": "port",
    "2848": "V ",
    "2849": "ren",
    "2850": "reng",
    "2851": "rengt",
    "2852": "Te",
    "2853": "Tel",
    "2854": "Tele",
    "2855": "been ",
    "2856": "igr",
    "2857": "ost",
    "2858": "ost ",
    "2859": "lco",
    "2860": "ms",
    "2861": "ss ",
    "2862": "8)",
    "2863": "8)*",
    "2864": "dua",
    "2865": "mine",
    "2866": "minen",
    "2867": "sf",
    "2868": "sfe",
    "2869": "twork",
    "2870": "Heb",
    "2871": "Hebr",
    "2872": "hea",
    "2873": "cid",
    "2874": "'s",
    "2875": "go",
    "2876": "gov",
    "2877": "gove",
    "2878": "gover",
    "2879": "govern",
    "2880": "ks",
    "2881": "Ang",
    "2882": "Ange",
    "2883": "ield",
    "2884": "lat",
    "2885": "late",
    "2886": "later",
    "2887": "cle",
    "2888": "icil",
    "2889": "url",
    "2890": "urli",
    "2891": "urlin",
    "2892": "up ",
    "2893": "oust",
    "2894": "1%",
    "2895": "1% ",
    "2896": "The ",
    "2897": "rtu",
    "2898": "bur",
    "2899": "beer",
    "2900": "Vr",
    "2901": "opl",
    "2902": "I)",
    "2903": "V.",
    "2904": "nin",
    "2905": "not ",
    "2906": "as ",
    "2907": "uru",
    "2908": "urus",
    "2909": "elow",
    "2910": "lled ",
    "2911": "ida",
    "2912": "pedi",
    "2913": "Gov",
    "2914": "Gove",
    "2915": "Gover",
    "2916": "bor",
    "2917": "bord",
    "2918": "borde",
    "2919": "'s ",
    "2920": "Dec",
    "2921": "Dece",
    "2922": "Decem",
    "2923": "Decemb",
    "2924": "des",
    "2925": "flui",
    "2926": "fluid",
    "2927": "NC",
    "2928": "rge",
    "2929": "ago",
    "2930": "agon",
    "2931": "2,",
    "2932": "2, ",
    "2933": "Confu",
    "2934": "Wil",
    "2935": "Dem",
    "2936": "Demo",
    "2937": "2)",
    "2938": "low",
    "2939": "low ",
    "2940": "Ger",
    "2941": "Germ",
    "2942": "Germa",
    "2943": "ated",
    "2944": "1.",
    "2945": "Cl",
    "2946": "itl",
    "2947": "itle",
    "2948": " /m",
    "2949": " le",
    "2950": " lea",
    "2951": " leas",
    "2952": " least",
    "2953": "eneral",
    "2954": "Mic",
    "2955": "Micr",
    "2956": "Micro",
    "2957": "itin",
    "2958": "iting",
    "2959": "rie",
    "2960": "ries",
    "2961": "usto",
    "2962": "geno",
    "2963": "gis",
    "2964": "gisl",
    "2965": "gisla",
    "2966": "Hou",
    "2967": "Hous",
    "2968": "spee",
    "2969": "sl",
    "2970": "sla",
    "2971": "slan",
    "2972": "cte",
    "2973": "Arm",
    "2974": "cha",
    "2975": "chan",
    "2976": "chang",
    "2977": "gib",
    "2978": "z ",
    "2979": "ze ",
    "2980": "ndam",
    "2981": "rced",
    "2982": "rced ",
    "2983": "Ph",
    "2984": "Phy",
    "2985": "Phys",
    "2986": "Physi",
    "2987": "ays",
    "2988": "dit",
    "2989": "diti",
    "2990": "ditio",
    "2991": "dition",
    "2992": "ntu",
    "2993": "ntur",
    "2994": "awa",
    "2995": "Lif",
    "2996": "Life",
    "2997": "sod",
    "2998": "wk",
    "2999": "ces",
    "3000": "cess",
    "3001": "mn",
    "3002": "mna",
    "3003": "mnas",
    "3004": "iste",
    "3005": "ister",
    "3006": "kH",
    "3007": "kHz",
    "3008": "States",
    "3009": "ical",
    "3010": "stea",
    "3011": "stead",
    "3012": "fica",
    "3013": "ndr",
    "3014": "line",
    "3015": "ced ",
    "3016": "tter",
    "3017": "UI",
    "3018": "icu",
    "3019": "icul",
    "3020": "icula",
    "3021": "hlo",
    "3022": "olu",
    "3023": "olut",
    "3024": "mov",
    "3025": "deo",
    "3026": "th ",
    "3027": "msf",
    "3028": "arti",
    "3029": "artic",
    "3030": "phan",
    "3031": "phant",
    "3032": "ju",
    "3033": "jus",
    "3034": "just",
    "3035": "Ame",
    "3036": "Amer",
    "3037": "Ameri",
    "3038": "ub",
    "3039": "ubi",
    "3040": "ubic",
    "3041": "way",
    "3042": "och",
    "3043": "uli",
    "3044": "s -",
    "3045": "s - ",
    "3046": "bis",
    "3047": "bish",
    "3048": "bisho",
    "3049": "roth",
    "3050": "70",
    "3051": "nie",
    "3052": "nies",
    "3053": "asi",
    "3054": "asil",
    "3055": "asily",
    "3056": "cov",
    "3057": "cove",
    "3058": "oei",
    "3059": "Org",
    "3060": "Orga",
    "3061": "Organ",
    "3062": "old",
    "3063": "And",
    "3064": "Andr",
    "3065": "Andre",
    "3066": "Wov",
    "3067": "Wove",
    "3068": "Woven",
    "3069": "hag",
    "3070": "esi",
    "3071": "lecu",
    "3072": "igm",
    "3073": "mme",
    "3074": "gypt",
    "3075": "larg",
    "3076": "large",
    "3077": "a-",
    "3078": "aw ",
    "3079": "el ",
    "3080": "Q ",
    "3081": "sur",
    "3082": "ic ",
    "3083": "ha ",
    "3084": "Pl",
    "3085": "Ple",
    "3086": "Plea",
    "3087": "Pleas",
    "3088": "vin",
    "3089": "ving",
    "3090": "lack",
    "3091": "ang",
    "3092": "yal",
    "3093": "ern ",
    "3094": "c.",
    "3095": "}}",
    "3096": "Ch",
    "3097": "Che",
    "3098": "Chee",
    "3099": "Cheer",
    "3100": "9t",
    "3101": "9th",
    "3102": "beca",
    "3103": "becam",
    "3104": "became",
    "3105": "exa",
    "3106": "exam",
    "3107": "examp",
    "3108": "exampl",
    "3109": "xp",
    "3110": "ebe",
    "3111": "aran",
    "3112": "had",
    "3113": "6,",
    "3114": "6, ",
    "3115": "mill",
    "3116": "rag",
    "3117": "Ear",
    "3118": "Earl",
    "3119": "eous",
    "3120": "bj",
    "3121": "bje",
    "3122": "bjec",
    "3123": "bject",
    "3124": "mba",
    "3125": "mbab",
    "3126": "mbabw",
    "3127": "ine",
    "3128": "ines",
    "3129": "esul",
    "3130": "esult",
    "3131": "1,",
    "3132": "1, ",
    "3133": "nam",
    "3134": "name",
    "3135": "bse",
    "3136": "bsen",
    "3137": "8, ",
    "3138": "ora",
    "3139": "par",
    "3140": "para",
    "3141": "gend",
    "3142": "part",
    "3143": "elop",
    "3144": "sib",
    "3145": "DP",
    "3146": "yr",
    "3147": "3 /",
    "3148": "3 /s",
    "3149": "3 /su",
    "3150": "Vry",
    "3151": "ire",
    "3152": "irec",
    "3153": "trin",
    "3154": "ved",
    "3155": "*1",
    "3156": "*19",
    "3157": "mic",
    "3158": "4 /",
    "3159": "4 /s",
    "3160": "eru",
    "3161": "erus",
    "3162": "erusa",
    "3163": "erusal",
    "3164": "n*",
    "3165": "let",
    "3166": "lete",
    "3167": "he ",
    "3168": "ech",
    "3169": "echa",
    "3170": "ird",
    "3171": "ded",
    "3172": "bed",
    "3173": "iot",
    "3174": "Tle",
    "3175": "Tlei",
    "3176": "Tleil",
    "3177": "Tleila",
    "3178": "Tleilax",
    "3179": "rm ",
    "3180": "erv",
    "3181": "dvi",
    "3182": "dvic",
    "3183": "dvice",
    "3184": "nag",
    "3185": "a ",
    "3186": "isi",
    "3187": "isis",
    "3188": "(d. 1",
    "3189": "s*",
    "3190": "me ",
    "3191": "ry ",
    "3192": "log",
    "3193": "BC",
    "3194": "shw",
    "3195": "nefi",
    "3196": "gula",
    "3197": "hav",
    "3198": "vio",
    "3199": "viou",
    "3200": "IQ",
    "3201": "azil",
    "3202": "tyl",
    "3203": "ame ",
    "3204": "e.",
    "3205": "e.g",
    "3206": "itt",
    "3207": "imen",
    "3208": "cre",
    "3209": "ront",
    "3210": "3 (",
    "3211": "zen",
    "3212": "rld",
    "3213": "cce",
    "3214": "cces",
    "3215": "ccess",
    "3216": "imat",
    "3217": "fie",
    "3218": "fiel",
    "3219": "insta",
    "3220": "instan",
    "3221": " by",
    "3222": " by ",
    "3223": " s",
    "3224": " st",
    "3225": "hal",
    "3226": "half",
    "3227": "iven",
    "3228": "Tes",
    "3229": "Test",
    "3230": "ess",
    "3231": "ccep",
    "3232": "ccept",
    "3233": "fuc",
    "3234": "fuci",
    "3235": " 1",
    "3236": "ause",
    "3237": "ck ",
    "3238": "ck o",
    "3239": "ck of",
    "3240": "ck of ",
    "3241": "voi",
    "3242": "void",
    "3243": "aila",
    "3244": "ailab",
    "3245": "cil",
    "3246": "rit",
    "3247": "rita",
    "3248": "ritag",
    "3249": "here",
    "3250": "ure",
    "3251": "und",
    "3252": "Russi",
    "3253": "Russia",
    "3254": "ibu",
    "3255": "ibut",
    "3256": "dal",
    "3257": "iza",
    "3258": "incl",
    "3259": "inclu",
    "3260": "lom",
    "3261": "lomb",
    "3262": "orti",
    "3263": "icag",
    "3264": "icago",
    "3265": "Gr",
    "3266": "Gra",
    "3267": "Gram",
    "3268": "ch ",
    "3269": "ona",
    "3270": "onan",
    "3271": "vir",
    "3272": "viro",
    "3273": "wit",
    "3274": "with",
    "3275": "hil",
    "3276": "hild",
    "3277": "rch ",
    "3278": "mae",
    "3279": "mael",
    "3280": "cis",
    "3281": "cisi",
    "3282": "iance",
    "3283": "rea",
    "3284": "reat",
    "3285": "Re",
    "3286": "Rep",
    "3287": "Repu",
    "3288": "Repub",
    "3289": "tati",
    "3290": "tal",
    "3291": "rom",
    "3292": "rom ",
    "3293": "eop",
    "3294": "owa",
    "3295": "hra",
    "3296": "spi",
    "3297": "spic",
    "3298": "ally",
    "3299": "5,",
    "3300": "5, ",
    "3301": "nsin",
    "3302": "\\c",
    "3303": "\\cd",
    "3304": "\\cdo",
    "3305": "lso",
    "3306": "lso ",
    "3307": "Et",
    "3308": "Ett",
    "3309": "Etti",
    "3310": "Ettin",
    "3311": "Etting",
    "3312": "ume",
    "3313": "opea",
    "3314": "opean",
    "3315": "Wa",
    "3316": "War",
    "3317": "--|",
    "3318": "embl",
    "3319": "iona",
    "3320": "rta",
    "3321": "rtai",
    "3322": "rtain",
    "3323": "lid",
    "3324": "lida",
    "3325": "liday",
    "3326": ")*",
    "3327": ")*1",
    "3328": ")*19",
    "3329": "jec",
    "3330": "hema",
    "3331": "gam",
    "3332": "game",
    "3333": "pab",
    "3334": "pabl",
    "3335": "urt",
    "3336": "nsiv",
    "3337": "peri",
    "3338": "math",
    "3339": "mmi",
    "3340": "mmig",
    "3341": "mmigr",
    "3342": "iry",
    "3343": "til",
    "3344": "ther",
    "3345": "eet",
    "3346": "mse",
    "3347": "msel",
    "3348": " lo",
    "3349": " lon",
    "3350": " long",
    "3351": " longe",
    "3352": "lla",
    "3353": "g ",
    "3354": "ape",
    "3355": "ash",
    "3356": "yri",
    "3357": "yric",
    "3358": "joi",
    "3359": "join",
    "3360": "flue",
    "3361": "fluen",
    "3362": "bel",
    "3363": "beli",
    "3364": "belie",
    "3365": "Za",
    "3366": "nb",
    "3367": "nbs",
    "3368": "nbsp",
    "3369": "arth",
    "3370": "-f",
    "3371": "-fi",
    "3372": "ime ",
    "3373": "ime m",
    "3374": "ime mi",
    "3375": "ime min",
    "3376": "ifi",
    "3377": "ifie",
    "3378": "rote",
    "3379": "known",
    "3380": "cill",
    "3381": "icia",
    "3382": "hat",
    "3383": "hat ",
    "3384": "rang",
    "3385": "ince",
    "3386": "sigm",
    "3387": "wher",
    "3388": "Ges",
    "3389": "Gest",
    "3390": "Gesta",
    "3391": "ku",
    "3392": "osa",
    "3393": "ject",
    "3394": "che",
    "3395": "ched",
    "3396": "ched ",
    "3397": "ath",
    "3398": "atho",
    "3399": "athol",
    "3400": "op ",
    "3401": "ill",
    "3402": "illi",
    "3403": "illia",
    "3404": "illiam",
    "3405": "dic",
    "3406": "dica",
    "3407": "ette",
    "3408": "etter",
    "3409": "pip",
    "3410": "pipe",
    "3411": "om ",
    "3412": "ersh",
    "3413": "ershw",
    "3414": "pola",
    "3415": "SD",
    "3416": "CI",
    "3417": "CIS",
    "3418": "lum",
    "3419": "vide",
    "3420": "vided",
    "3421": "ald",
    "3422": "hab",
    "3423": "habi",
    "3424": "pro",
    "3425": "proc",
    "3426": "proce",
    "3427": "ena",
    "3428": "enat",
    "3429": "wai",
    "3430": "waii",
    "3431": "alt",
    "3432": "alth",
    "3433": "ystem",
    "3434": "rs ",
    "3435": "Eth",
    "3436": "Ethe",
    "3437": "erc",
    "3438": "refe",
    "3439": "eal",
    "3440": "mpi",
    "3441": "mpio",
    "3442": ".g",
    "3443": ".g.",
    "3444": "a R",
    "3445": "a Ri",
    "3446": "tia",
    "3447": "Sa",
    "3448": "Sak",
    "3449": "Sakh",
    "3450": " --",
    "3451": "coc",
    "3452": "nes",
    "3453": "lud",
    "3454": "oull",
    "3455": "cap",
    "3456": "rticu",
    "3457": "rticul",
    "3458": "ussi",
    "3459": "ussia",
    "3460": "tre",
    "3461": "tree",
    "3462": "ros",
    "3463": "ross",
    "3464": "lared",
    "3465": "egali",
    "3466": "egalit",
    "3467": "prem",
    "3468": "righ",
    "3469": "right",
    "3470": "Han",
    "3471": "Hank",
    "3472": "owt",
    "3473": "owth",
    "3474": "hap",
    "3475": "hape",
    "3476": "its ",
    "3477": "izi",
    "3478": "izin",
    "3479": "ly ",
    "3480": "zat",
    "3481": "zati",
    "3482": "zatio",
    "3483": "ppos",
    "3484": "nke",
    "3485": "nked",
    "3486": "inta",
    "3487": "intai",
    "3488": "intain",
    "3489": "DE",
    "3490": "vin ",
    "3491": "ana",
    "3492": "anad",
    "3493": "order",
    "3494": "God",
    "3495": "mma",
    "3496": "mmal",
    "3497": "rup",
    "3498": "rupt",
    "3499": "eigh",
    "3500": "lai",
    "3501": "laim",
    "3502": "/d",
    "3503": "/di",
    "3504": "/div",
    "3505": "sm",
    "3506": "sms",
    "3507": "sms ",
    "3508": "mas",
    "3509": "masc",
    "3510": "mascu",
    "3511": "mascus",
    "3512": "ans",
    "3513": "ko",
    "3514": "ific",
    "3515": "-1",
    "3516": "liv",
    "3517": "live",
    "3518": "liver",
    "3519": "anke",
    "3520": "ankee",
    "3521": "3*",
    "3522": "3*1",
    "3523": "3*19",
    "3524": "reas",
    "3525": "reaso",
    "3526": "ilo",
    "3527": "eat",
    "3528": "eaty",
    "3529": "ifl",
    "3530": "ifle",
    "3531": "rac",
    "3532": "ract",
    "3533": "1)",
    "3534": "ried",
    "3535": "Vi",
    "3536": "dus",
    "3537": "dust",
    "3538": "tore",
    "3539": "igu",
    "3540": "igul",
    "3541": ".*",
    "3542": "ds ",
    "3543": "scho",
    "3544": "ign",
    "3545": "adi",
    "3546": "It",
    "3547": "Ita",
    "3548": "Ital",
    "3549": "pe ",
    "3550": "esid",
    "3551": "ateg",
    "3552": "ing ",
    "3553": "vest",
    "3554": "nos",
    "3555": "nosa",
    "3556": "nosau",
    "3557": "M ",
    "3558": "nov",
    "3559": "nova",
    "3560": "novat",
    "3561": "YS",
    "3562": "YSI",
    "3563": "ught",
    "3564": "ughte",
    "3565": "lic",
    "3566": "lict",
    "3567": " mg",
    "3568": " mg/",
    "3569": "ote",
    "3570": "eepi",
    "3571": "eepin",
    "3572": "dow",
    "3573": "gro",
    "3574": "grow",
    "3575": "growt",
    "3576": "growth",
    "3577": "styl",
    "3578": "r ",
    "3579": "r l",
    "3580": "ad ",
    "3581": "ad o",
    "3582": "ad of",
    "3583": "ad of ",
    "3584": "ied",
    "3585": "pto",
    "3586": "5 /",
    "3587": "5 /t",
    "3588": "gar",
    "3589": "zed",
    "3590": "ness",
    "3591": " /r",
    "3592": " /re",
    "3593": " /ref",
    "3594": "for ",
    "3595": "lur",
    "3596": "= ",
    "3597": "Priz",
    "3598": "Prize",
    "3599": "nar",
    "3600": "nar ",
    "3601": "nto",
    "3602": "div",
    "3603": "divi",
    "3604": "divid",
    "3605": " as",
    "3606": " as ",
    "3607": "ri ",
    "3608": "oba",
    "3609": "obal",
    "3610": " sy",
    "3611": " sys",
    "3612": " syst",
    "3613": " syste",
    "3614": "ebra",
    "3615": "uth",
    "3616": "utho",
    "3617": "uthor",
    "3618": " t",
    "3619": " th",
    "3620": " tha",
    "3621": " than",
    "3622": " than ",
    "3623": "ret",
    "3624": "owed",
    "3625": "ilt",
    "3626": "ync",
    "3627": "ynch",
    "3628": "esti",
    "3629": "estio",
    "3630": "tech",
    "3631": "abo",
    "3632": "abol",
    "3633": "sho",
    "3634": "glo",
    "3635": "glob",
    "3636": "globa",
    "3637": "global",
    "3638": "abou",
    "3639": "die",
    "3640": "die ",
    "3641": "k ",
    "3642": "k I",
    "3643": "18",
    "3644": "obert",
    "3645": "anadi",
    "3646": "oph",
    "3647": "mos",
    "3648": "most",
    "3649": "yt",
    "3650": "yte",
    "3651": "tual",
    "3652": "er ",
    "3653": "ue",
    "3654": "ue ",
    "3655": "oma",
    "3656": "ari",
    "3657": "aria",
    "3658": " su",
    "3659": "inr",
    "3660": "inri",
    "3661": "inric",
    "3662": "inrich",
    "3663": "inrich ",
    "3664": "hon",
    "3665": "age",
    "3666": "vah",
    "3667": "ER",
    "3668": "fire",
    "3669": "cta",
    "3670": "ctat",
    "3671": "ctato",
    "3672": "ubl",
    "3673": "BB",
    "3674": "BBC",
    "3675": "rab",
    "3676": "raba",
    "3677": "ow ",
    "3678": "term",
    "3679": "termi",
    "3680": "ipe",
    "3681": "eak",
    "3682": "f ",
    "3683": "isho",
    "3684": "ligh",
    "3685": "word",
    "3686": "sw",
    "3687": "swa",
    "3688": "trol",
    "3689": "SE",
    "3690": "SEM",
    "3691": "SEM)",
    "3692": " i",
    "3693": " in",
    "3694": "nod",
    "3695": "vy",
    "3696": "vyw",
    "3697": "vywe",
    "3698": "vywei",
    "3699": "cca",
    "3700": "ighb",
    "3701": "ighbo",
    "3702": "ven ",
    "3703": "oco",
    "3704": "ocol",
    "3705": "ocola",
    "3706": "itiz",
    "3707": "itize",
    "3708": "itizen",
    "3709": "yea",
    "3710": "lth",
    "3711": "wne",
    "3712": "ved ",
    "3713": "o ",
    "3714": "o n",
    "3715": "o no",
    "3716": "edis",
    "3717": "Her",
    "3718": "Hera",
    "3719": "Herat",
    "3720": "irly",
    "3721": "irly ",
    "3722": "rist",
    "3723": "dg",
    "3724": " to",
    "3725": "when",
    "3726": "to ",
    "3727": "fg",
    "3728": "fgh",
    "3729": "fgha",
    "3730": "udi",
    "3731": "rpo",
    "3732": "goi",
    "3733": "goin",
    "3734": "going",
    "3735": "vemb",
    "3736": "en ",
    "3737": "rack",
    "3738": "scop",
    "3739": "essu",
    "3740": "essur",
    "3741": "ssel",
    "3742": "__",
    "3743": "B ",
    "3744": "iend",
    "3745": "dera",
    "3746": "ngw",
    "3747": "ngwr",
    "3748": "ngwri",
    "3749": "eba",
    "3750": "LP",
    "3751": "voc",
    "3752": "voca",
    "3753": "osi",
    "3754": "osin",
    "3755": "leu",
    "3756": "arka",
    "3757": "PU",
    "3758": "ngs",
    "3759": "vari",
    "3760": "cog",
    "3761": "cogn",
    "3762": "cogni",
    "3763": "lob",
    "3764": "loba",
    "3765": "lobal",
    "3766": "ange",
    "3767": "loy",
    "3768": "riou",
    "3769": "IA",
    "3770": "polo",
    "3771": "Eas",
    "3772": "East",
    "3773": "road",
    "3774": "got",
    "3775": "goti",
    "3776": "gotia",
    "3777": "ngi",
    "3778": "-s",
    "3779": "-sh",
    "3780": "ymo",
    "3781": "70s",
    "3782": "hes",
    "3783": "hess",
    "3784": "dot",
    "3785": "zar",
    "3786": "liz",
    "3787": "lize",
    "3788": "cat",
    "3789": "rde",
    "3790": "rder",
    "3791": "sou",
    "3792": "sout",
    "3793": "anen",
    "3794": "ally ",
    "3795": "Syd",
    "3796": "bbi",
    "3797": "-y",
    "3798": "-ye",
    "3799": "-yea",
    "3800": "wee",
    "3801": "week",
    "3802": "dne",
    "3803": "dney",
    "3804": "elan",
    "3805": "eland",
    "3806": "sth",
    "3807": "sthe",
    "3808": "dw",
    "3809": "dwi",
    "3810": "rib",
    "3811": "ribu",
    "3812": "1s",
    "3813": "1st",
    "3814": "pop",
    "3815": "popu",
    "3816": "popul",
    "3817": "ley",
    "3818": "ut ",
    "3819": "moud",
    "3820": "rel",
    "3821": "' ",
    "3822": "eam",
    "3823": " (1",
    "3824": " (19",
    "3825": "eopl",
    "3826": "gmen",
    "3827": "fri",
    "3828": "cks",
    "3829": "ckso",
    "3830": "ckson",
    "3831": ") -",
    "3832": ") - ",
    "3833": "Ma",
    "3834": "ril",
    "3835": "neu",
    "3836": "adin",
    "3837": "uble",
    "3838": " /ma",
    "3839": "ero",
    "3840": "sist",
    "3841": "Testa",
    "3842": "bla",
    "3843": "Al",
    "3844": "Roma",
    "3845": "ned",
    "3846": "dt",
    "3847": "ui",
    "3848": "uis",
    "3849": "ef",
    "3850": "eff",
    "3851": "rpor",
    "3852": "hous",
    "3853": "rro",
    "3854": "rrou",
    "3855": "rroun",
    "3856": "media",
    "3857": "mediat",
    "3858": "ng ",
    "3859": "www",
    "3860": "fig",
    "3861": "figu",
    "3862": "figur",
    "3863": "eh",
    "3864": "eha",
    "3865": "enr",
    "3866": "onic",
    "3867": "bert",
    "3868": "ral ",
    "3869": "had ",
    "3870": "sorb",
    "3871": "yth",
    "3872": "olly",
    "3873": "ollyw",
    "3874": "ollywo",
    "3875": "ollywoo",
    "3876": "clud",
    "3877": "bal",
    "3878": "ball",
    "3879": "balla",
    "3880": "ballad",
    "3881": "!)",
    "3882": "mpe",
    "3883": "mper",
    "3884": "mpero",
    "3885": "end{",
    "3886": "Prin",
    "3887": "Princ",
    "3888": "pent",
    "3889": "Le",
    "3890": "Leo",
    "3891": "Leon",
    "3892": "egr",
    "3893": "dr",
    "3894": "/dl",
    "3895": "+ ",
    "3896": "ego",
    "3897": "egon",
    "3898": "Civ",
    "3899": "Civi",
    "3900": "hwi",
    "3901": "I ",
    "3902": "-19",
    "3903": "atu",
    "3904": "atur",
    "3905": "ll ",
    "3906": "bad",
    "3907": "nima",
    "3908": "hog",
    "3909": "hoga",
    "3910": "hogan",
    "3911": "organ",
    "3912": "cit",
    "3913": "nte",
    "3914": "nted",
    "3915": "inar",
    "3916": "rans",
    "3917": "M)",
    "3918": "num",
    "3919": "numb",
    "3920": "numbe",
    "3921": "number",
    "3922": "*B",
    "3923": "lde",
    "3924": "lden",
    "3925": "uil",
    "3926": "ott",
    "3927": "90",
    "3928": "90s",
    "3929": "ecame",
    "3930": "e,",
    "3931": "e, ",
    "3932": " Ar",
    "3933": "ille",
    "3934": "ads",
    "3935": "ads ",
    "3936": "orl",
    "3937": "orld",
    "3938": "cree",
    "3939": "creen",
    "3940": "3-",
    "3941": "elig",
    "3942": "eligi",
    "3943": "eligio",
    "3944": "year",
    "3945": "y of ",
    "3946": "tiv",
    "3947": "sibl",
    "3948": "qr",
    "3949": "aret",
    "3950": "in a",
    "3951": "in ar",
    "3952": "ook",
    "3953": "ondo",
    "3954": "ondon",
    "3955": "cuu",
    "3956": "cuum",
    "3957": "twee",
    "3958": "orr",
    "3959": "orro",
    "3960": "orrow",
    "3961": "nuc",
    "3962": "nucl",
    "3963": "ky",
    "3964": "pect",
    "3965": "ria",
    "3966": "area",
    "3967": "erg",
    "3968": "rdi",
    "3969": "row",
    "3970": "Sh",
    "3971": "She",
    "3972": "hie",
    "3973": "hiev",
    "3974": "e*",
    "3975": "ped ",
    "3976": "ew",
    "3977": "lain",
    "3978": "edit",
    "3979": "ect",
    "3980": "es ",
    "3981": "uel",
    "3982": " v",
    "3983": " vo",
    "3984": " vow",
    "3985": " vowe",
    "3986": " vowel",
    "3987": "shou",
    "3988": "shoul",
    "3989": "ent ",
    "3990": "apo",
    "3991": "apor",
    "3992": "ench",
    "3993": "Unio",
    "3994": "mak",
    "3995": "ose ",
    "3996": "Tra",
    "3997": "nt ",
    "3998": "issi",
    "3999": "arl",
    "4000": "itu",
    "4001": "itud",
    "4002": "p ",
    "4003": "bas",
    "4004": "dri",
    "4005": "driv",
    "4006": "gha",
    "4007": "ghal",
    "4008": "8)*1",
    "4009": "smu",
    "4010": "giv",
    "4011": "rci",
    "4012": "rcis",
    "4013": "tisf",
    "4014": "anned",
    "4015": "gio",
    "4016": "gion",
    "4017": "U ",
    "4018": "ies",
    "4019": "o,",
    "4020": "o, ",
    "4021": "lang",
    "4022": "langu",
    "4023": "rad",
    "4024": "rad ",
    "4025": "git",
    "4026": "exil",
    "4027": "amo",
    "4028": "amon",
    "4029": "among",
    "4030": "llen",
    "4031": "lleng",
    "4032": "terb",
    "4033": "terbu",
    "4034": "Mo",
    "4035": "Mon",
    "4036": "Mont",
    "4037": "ext",
    "4038": "tive",
    "4039": "siu",
    "4040": "sius",
    "4041": "evem",
    "4042": "eveme",
    "4043": "evemen",
    "4044": "evement",
    "4045": "aren",
    "4046": "arent",
    "4047": "nd o",
    "4048": "nd of",
    "4049": "nd of ",
    "4050": "tra",
    "4051": "trac",
    "4052": "ots",
    "4053": "otsw",
    "4054": "otswa",
    "4055": "Roman",
    "4056": "rget",
    "4057": "til ",
    "4058": "Of",
    "4059": "Off",
    "4060": "Offi",
    "4061": "Offic",
    "4062": "thod",
    "4063": "ssib",
    "4064": "ada",
    "4065": "id ",
    "4066": " /s",
    "4067": " /su",
    "4068": "Hz",
    "4069": "Dyl",
    "4070": "Dyla",
    "4071": "Dylan",
    "4072": "ustr",
    "4073": " (b. ",
    "4074": " (b. 1",
    "4075": "fess",
    "4076": "riso",
    "4077": "rison",
    "4078": "mplo",
    "4079": "mploy",
    "4080": "opi",
    "4081": "opic",
    "4082": "cul",
    "4083": "tru",
    "4084": "truc",
    "4085": "truct",
    "4086": "pter",
    "4087": "hig",
    "4088": "high",
    "4089": "mber",
    "4090": "nry",
    "4091": "e p",
    "4092": "e po",
    "4093": "re ",
    "4094": "Fe",
    "4095": "Feb",
    "4096": "edr",
    "4097": "edri",
    "4098": "3 -",
    "4099": "3 - ",
    "4100": "son",
    "4101": "ecau",
    "4102": "ecaus",
    "4103": "dge",
    "4104": "dget",
    "4105": "mari",
    "4106": "maril",
    "4107": "riest",
    "4108": ") b",
    "4109": ") br",
    "4110": "gma",
    "4111": " St",
    "4112": " Sta",
    "4113": "omin",
    "4114": "ista",
    "4115": "eir",
    "4116": "eirc",
    "4117": "han",
    "4118": "his ",
    "4119": "aph",
    "4120": "sq",
    "4121": "squ",
    "4122": "SBN ",
    "4123": "W ",
    "4124": "wat",
    "4125": "wate",
    "4126": "water",
    "4127": "iba",
    "4128": "ronto",
    "4129": "pare",
    "4130": "paren",
    "4131": "parent",
    "4132": "dre",
    "4133": "bn",
    "4134": "bni",
    "4135": "bniz",
    "4136": "era",
    "4137": "nun",
    "4138": "like",
    "4139": "rn ",
    "4140": "rik",
    "4141": "rike",
    "4142": "oy",
    "4143": "oya",
    "4144": "oyal",
    "4145": "mot",
    "4146": "..",
    "4147": "Q}",
    "4148": "ook ",
    "4149": "Min",
    "4150": "Mini",
    "4151": "Minis",
    "4152": "Minist",
    "4153": "thiop",
    "4154": "swi",
    "4155": "ady",
    "4156": "-sp",
    "4157": "-spe",
    "4158": "-spee",
    "4159": "nom",
    "4160": "nomi",
    "4161": "mmo",
    "4162": "mmod",
    "4163": "mmoda",
    "4164": "sess",
    "4165": "tect",
    "4166": "thol",
    "4167": "tholi",
    "4168": "Hau",
    "4169": "Haus",
    "4170": "soc",
    "4171": "soci",
    "4172": "cau",
    "4173": "caus",
    "4174": "ruz",
    "4175": "gue",
    "4176": "cide",
    "4177": "ciden",
    "4178": "oso",
    "4179": "osop",
    "4180": "td",
    "4181": "ony",
    "4182": "cop",
    "4183": "tle",
    "4184": "Pol",
    "4185": "tex",
    "4186": "cia",
    "4187": "RC",
    "4188": "Islam",
    "4189": "roun",
    "4190": "oq",
    "4191": "oqu",
    "4192": "irs",
    "4193": "irst",
    "4194": "tio",
    "4195": "lind",
    "4196": "Nigh",
    "4197": "Night",
    "4198": "arge",
    "4199": "it ",
    "4200": "adio",
    "4201": "cad",
    "4202": "cade",
    "4203": "g/",
    "4204": "g/d",
    "4205": "g/dl",
    "4206": "/s",
    "4207": "f w",
    "4208": "f wh",
    "4209": " F",
    "4210": " Fi",
    "4211": "footb",
    "4212": "footba",
    "4213": "footbal",
    "4214": "nde",
    "4215": "nder",
    "4216": " T",
    "4217": " Te",
    "4218": " Tes",
    "4219": " Test",
    "4220": "le t",
    "4221": "le to",
    "4222": "rove",
    "4223": "ger",
    "4224": "cente",
    "4225": "nins",
    "4226": "ninsu",
    "4227": "witc",
    "4228": "witch",
    "4229": "moc",
    "4230": "mocr",
    "4231": "mocra",
    "4232": "7,",
    "4233": "7, ",
    "4234": "cher",
    "4235": "ura",
    "4236": "uran",
    "4237": "urang",
    "4238": "have",
    "4239": "ortal",
    "4240": "nned",
    "4241": "il ",
    "4242": "Fra",
    "4243": "Fran",
    "4244": "Confeder",
    "4245": "Confedera",
    "4246": "any",
    "4247": "any ",
    "4248": "Angl",
    "4249": "5}",
    "4250": "gene",
    "4251": "gener",
    "4252": "athe",
    "4253": "rnal",
    "4254": "dustr",
    "4255": "Geog",
    "4256": "Geogr",
    "4257": "Geogra",
    "4258": "Geograp",
    "4259": "hy ",
    "4260": "Arb",
    "4261": "Arbo",
    "4262": "wort",
    "4263": "worth",
    "4264": "WW",
    "4265": "s'",
    "4266": "ich",
    "4267": "uit",
    "4268": "nded",
    "4269": "lana",
    "4270": "lanat",
    "4271": "sam",
    "4272": "same",
    "4273": "same ",
    "4274": "oin",
    "4275": "oint",
    "4276": "osp",
    "4277": "osph",
    "4278": "osphe",
    "4279": "ospher",
    "4280": "orth",
    "4281": "tib",
    "4282": "Bri",
    "4283": "Brit",
    "4284": "hew",
    "4285": "rim",
    "4286": "rime",
    "4287": "rimen",
    "4288": "Boa",
    "4289": "Boar",
    "4290": "articl",
    "4291": "fictio",
    "4292": "fiction",
    "4293": "ucat",
    "4294": "CS",
    "4295": "betw",
    "4296": "betwe",
    "4297": "tea",
    "4298": "ix ",
    "4299": " I",
    "4300": "tic ",
    "4301": "agi",
    "4302": "agin",
    "4303": "yer",
    "4304": "out",
    "4305": "out ",
    "4306": "lor",
    "4307": "rothe",
    "4308": "coun",
    "4309": "count",
    "4310": "adel",
    "4311": "renc",
    "4312": "uk",
    "4313": "uke",
    "4314": "-|",
    "4315": "ace",
    "4316": "Irela",
    "4317": "NF",
    "4318": "hro",
    "4319": "hrou",
    "4320": "hroug",
    "4321": "cine",
    "4322": "widt",
    "4323": "aii",
    "4324": "ecto",
    "4325": "ector",
    "4326": "amer",
    "4327": "amera",
    "4328": "del",
    "4329": "ual",
    "4330": "ita",
    "4331": "itar",
    "4332": "viv",
    "4333": "ief",
    "4334": "oon",
    "4335": "rvice",
    "4336": "sider",
    "4337": "Get",
    "4338": "oh",
    "4339": "RA",
    "4340": "RAM",
    "4341": "ila",
    "4342": "ilag",
    "4343": "culp",
    "4344": "culpt",
    "4345": "she",
    "4346": "7.",
    "4347": " and ",
    "4348": "D ",
    "4349": "D A",
    "4350": "untr",
    "4351": "uf",
    "4352": "ufa",
    "4353": "ufac",
    "4354": "y*",
    "4355": "boo",
    "4356": "book",
    "4357": "rench",
    "4358": "batt",
    "4359": "don",
    "4360": "0, ",
    "4361": "r.",
    "4362": "iq",
    "4363": "iqu",
    "4364": "opt",
    "4365": "-si",
    "4366": "-siz",
    "4367": "-size",
    "4368": "rter",
    "4369": "IN",
    "4370": "ING",
    "4371": "ski",
    "4372": "Hausd",
    "4373": "Hausdo",
    "4374": "Hausdor",
    "4375": "agan",
    "4376": "elai",
    "4377": "elaid",
    "4378": "egin",
    "4379": "hist",
    "4380": "histo",
    "4381": "Fi",
    "4382": " of",
    "4383": " of ",
    "4384": "Bus",
    "4385": "Bush",
    "4386": "roc",
    "4387": "rock",
    "4388": "team",
    "4389": "ario",
    "4390": "ariou",
    "4391": "ery",
    "4392": "ery ",
    "4393": "x ",
    "4394": "genera",
    "4395": "general",
    "4396": "brar",
    "4397": "esa",
    "4398": "esar",
    "4399": "Cal",
    "4400": "Cali",
    "4401": "Calif",
    "4402": "Califo",
    "4403": "Califor",
    "4404": "hurc",
    "4405": "irt",
    "4406": "irth",
    "4407": "mbl",
    "4408": "la ",
    "4409": "ampl",
    "4410": " fi",
    "4411": " fic",
    "4412": " fict",
    "4413": " ficti",
    "4414": "wo ",
    "4415": "% ",
    "4416": "Me",
    "4417": "dim",
    "4418": "dime",
    "4419": "harl",
    "4420": "nic",
    "4421": "erio",
    "4422": "eriod",
    "4423": "ribut",
    "4424": "ny",
    "4425": "ny ",
    "4426": "lop",
    "4427": "tion",
    "4428": "man",
    "4429": "many",
    "4430": "many ",
    "4431": "tric",
    "4432": "trict",
    "4433": "nsu",
    "4434": "vad",
    "4435": "vada",
    "4436": "nici",
    "4437": "nicip",
    "4438": "kil",
    "4439": "kill",
    "4440": "irect",
    "4441": "rk",
    "4442": "rke",
    "4443": "rket",
    "4444": "9,",
    "4445": "9, ",
    "4446": "cei",
    "4447": "ceiv",
    "4448": "ceive",
    "4449": "ple",
    "4450": "hib",
    "4451": "hibi",
    "4452": "sine",
    "4453": "sines",
    "4454": "siness",
    "4455": "iver",
    "4456": "2n",
    "4457": "2nd",
    "4458": "pera",
    "4459": " D",
    "4460": " De",
    "4461": " Dem",
    "4462": " Demo",
    "4463": "6)",
    "4464": "try",
    "4465": "ble",
    "4466": "F-",
    "4467": "1 /",
    "4468": "1 /s",
    "4469": "Joh",
    "4470": "John",
    "4471": "John ",
    "4472": "zes",
    "4473": "rba",
    "4474": "lf ",
    "4475": "fou",
    "4476": "siv",
    "4477": ".e",
    "4478": ".e.",
    "4479": "Hi",
    "4480": "Hit",
    "4481": "olv",
    "4482": "yll",
    "4483": "eum",
    "4484": "ne ",
    "4485": "sti",
    "4486": "stic",
    "4487": "35",
    "4488": "opp",
    "4489": "dur",
    "4490": "ngs ",
    "4491": "obj",
    "4492": "obje",
    "4493": "objec",
    "4494": "object",
    "4495": "King",
    "4496": "teb",
    "4497": "tebr",
    "4498": "seq",
    "4499": "sequ",
    "4500": "nks",
    "4501": " is",
    "4502": " is ",
    "4503": "range",
    "4504": "tom",
    "4505": "toma",
    "4506": "tomat",
    "4507": "Sea",
    "4508": "urr",
    "4509": "urre",
    "4510": "urren",
    "4511": "ased",
    "4512": "ust ",
    "4513": "TP",
    "4514": "TP ",
    "4515": "und ",
    "4516": "aim",
    "4517": "9)*",
    "4518": "9)*1",
    "4519": "spit",
    "4520": "spite",
    "4521": "tud",
    "4522": "len",
    "4523": "leng",
    "4524": "lengt",
    "4525": "length",
    "4526": "jah",
    "4527": "fied"
  },
  "merges": {
    "71,84": 92,
    "92,77": 93,
    "20,1": 94,
    "94,84": 95,
    "95,64": 96,
    "96,60": 97,
    "64,72": 98,
    "98,74": 99,
    "99,62": 100,
    "100,77": 101,
    "62,63": 102,
    "102,74": 103,
    "103,79": 104,
    "64,78": 105,
    "105,79": 106,
    "68,75": 107,
    "107,79": 108,
    "84,71": 109,
    "109,68": 110,
    "110,73": 111,
    "111,63": 112,
    "92,73": 113,
    "113,74": 114,
    "114,72": 115,
    "32,51": 116,
    "116,33": 117,
    "80,78": 118,
    "118,64": 119,
    "119,80": 120,
    "120,72": 121,
    "68,64": 122,
    "122,77": 123,
    "77,77": 124,
    "124,68": 125,
    "125,64": 126,
    "126,63": 127,
    "61,64": 128,
    "128,62": 129,
    "55,64": 130,
    "130,60": 131,
    "80,72": 132,
    "132,72": 133,
    "75,64": 134,
    "134,63": 135,
    "77,74": 136,
    "136,75": 137,
    "74,77": 138,
    "138,73": 139,
    "139,67": 140,
    "140,74": 141,
    "141,71": 142,
    "83,60": 143,
    "78,75": 144,
    "75,75": 145,
    "145,64": 146,
    "146,63": 147,
    "61,77": 148,
    "148,60": 149,
    "149,73": 150,
    "45,60": 151,
    "151,77": 152,
    "72,61": 153,
    "153,77": 154,
    "154,68": 155,
    "65,78": 156,
    "74,73": 157,
    "157,68": 158,
    "71,74": 159,
    "159,74": 160,
    "160,63": 161,
    "72,60": 162,
    "162,84": 163,
    "163,1": 164,
    "30,66": 165,
    "165,60": 166,
    "166,81": 167,
    "167,64": 168,
    "64,71": 169,
    "60,66": 170,
    "170,60": 171,
    "171,85": 172,
    "1,60": 173,
    "173,73": 174,
    "60,80": 175,
    "175,83": 176,
    "78,60": 177,
    "177,79": 178,
    "60,73": 179,
    "179,63": 180,
    "180,1": 181,
    "74,71": 182,
    "182,71": 183,
    "183,64": 184,
    "184,66": 185,
    "75,71": 186,
    "186,74": 187,
    "187,72": 188,
    "188,60": 189,
    "80,73": 190,
    "190,68": 191,
    "191,81": 192,
    "192,64": 193,
    "193,77": 194,
    "73,79": 195,
    "195,68": 196,
    "196,74": 197,
    "71,68": 198,
    "198,61": 199,
    "60,78": 200,
    "200,79": 201,
    "74,80": 202,
    "202,66": 203,
    "203,67": 204,
    "118,71": 205,
    "205,68": 206,
    "64,77": 207,
    "207,78": 208,
    "208,74": 209,
    "209,73": 210,
    "68,74": 211,
    "211,73": 212,
    "77,73": 213,
    "213,64": 214,
    "214,77": 215,
    "31,9": 216,
    "216,9": 217,
    "78,70": 218,
    "218,60": 219,
    "79,67": 220,
    "220,68": 221,
    "221,73": 222,
    "74,70": 223,
    "223,80": 224,
    "48,4": 225,
    "73,74": 226,
    "226,77": 227,
    "227,79": 228,
    "228,67": 229,
    "79,82": 230,
    "230,74": 231,
    "231,77": 232,
    "63,74": 233,
    "233,72": 234,
    "74,66": 235,
    "235,71": 236,
    "236,64": 237,
    "190,1": 238,
    "67,74": 239,
    "239,63": 240,
    "74,72": 241,
    "241,75": 242,
    "242,80": 243,
    "243,79": 244,
    "63,1": 245,
    "245,74": 246,
    "246,65": 247,
    "247,1": 248,
    "73,68": 249,
    "249,78": 250,
    "79,68": 251,
    "251,79": 252,
    "61,60": 253,
    "253,79": 254,
    "254,64": 255,
    "60,63": 256,
    "138,79": 257,
    "257,60": 258,
    "74,65": 259,
    "259,1": 260,
    "15,1": 261,
    "66,66": 262,
    "262,71": 263,
    "32,1": 264,
    "153,64": 265,
    "62,74": 266,
    "266,77": 267,
    "77,72": 268,
    "268,78": 269,
    "71,70": 270,
    "270,1": 271,
    "71,71": 272,
    "272,84": 273,
    "273,1": 274,
    "65,74": 275,
    "275,74": 276,
    "276,79": 277,
    "70,68": 278,
    "278,73": 279,
    "279,66": 280,
    "241,64": 281,
    "281,63": 282,
    "67,68": 283,
    "283,75": 284,
    "80,71": 285,
    "285,79": 286,
    "286,80": 287,
    "287,77": 288,
    "31,60": 289,
    "289,78": 290,
    "290,76": 291,
    "78,74": 292,
    "292,75": 293,
    "253,66": 294,
    "62,79": 295,
    "295,1": 296,
    "60,9": 297,
    "297,30": 298,
    "298,66": 299,
    "299,60": 300,
    "300,81": 301,
    "301,64": 302,
    "38,61": 303,
    "303,60": 304,
    "304,63": 305,
    "64,64": 306,
    "306,1": 307,
    "64,73": 308,
    "308,63": 309,
    "60,79": 310,
    "66,60": 311,
    "311,81": 312,
    "312,64": 313,
    "77,61": 314,
    "314,68": 315,
    "68,73": 316,
    "316,79": 317,
    "47,68": 318,
    "68,65": 319,
    "319,65": 320,
    "75,60": 321,
    "272,68": 322,
    "322,73": 323,
    "323,74": 324,
    "324,68": 325,
    "325,78": 326,
    "72,64": 327,
    "327,63": 328,
    "328,68": 329,
    "68,77": 330,
    "330,62": 331,
    "25,25": 332,
    "71,60": 333,
    "333,62": 334,
    "80,62": 335,
    "335,67": 336,
    "336,1": 337,
    "32,49": 338,
    "68,60": 339,
    "339,72": 340,
    "60,77": 341,
    "341,60": 342,
    "62,68": 343,
    "343,75": 344,
    "61,74": 345,
    "345,73": 346,
    "346,64": 347,
    "38,77": 348,
    "348,64": 349,
    "349,71": 350,
    "74,63": 351,
    "351,84": 352,
    "207,72": 353,
    "353,60": 354,
    "354,73": 355,
    "66,64": 356,
    "356,79": 357,
    "357,60": 358,
    "78,64": 359,
    "359,64": 360,
    "360,1": 361,
    "208,1": 362,
    "18,15": 363,
    "363,78": 364,
    "138,84": 365,
    "64,79": 366,
    "366,79": 367,
    "367,71": 368,
    "239,72": 369,
    "369,64": 370,
    "1,84": 371,
    "371,64": 372,
    "372,60": 373,
    "373,77": 374,
    "75,68": 375,
    "375,77": 376,
    "376,64": 377,
    "1,74": 378,
    "98,64": 379,
    "379,73": 380,
    "64,60": 381,
    "381,63": 382,
    "36,64": 383,
    "223,64": 384,
    "9,9": 385,
    "62,67": 386,
    "386,68": 387,
    "387,73": 388,
    "81,68": 389,
    "389,62": 390,
    "390,64": 391,
    "72,74": 392,
    "392,73": 393,
    "393,79": 394,
    "394,67": 395,
    "198,66": 396,
    "396,68": 397,
    "62,71": 398,
    "20,15": 399,
    "333,77": 400,
    "400,64": 401,
    "310,77": 402,
    "402,74": 403,
    "37,60": 404,
    "404,71": 405,
    "405,71": 406,
    "14,79": 407,
    "76,80": 408,
    "77,81": 409,
    "409,64": 410,
    "410,84": 411,
    "75,67": 412,
    "412,64": 413,
    "413,71": 414,
    "73,64": 415,
    "415,82": 416,
    "66,77": 417,
    "417,60": 418,
    "79,64": 419,
    "419,77": 420,
    "420,60": 421,
    "79,77": 422,
    "422,74": 423,
    "423,84": 424,
    "422,68": 425,
    "74,81": 426,
    "426,64": 427,
    "427,77": 428,
    "1,71": 429,
    "429,60": 430,
    "128,1": 431,
    "61,80": 432,
    "432,79": 433,
    "71,61": 434,
    "434,74": 435,
    "435,80": 436,
    "63,81": 437,
    "233,77": 438,
    "266,72": 439,
    "80,75": 440,
    "440,68": 441,
    "441,79": 442,
    "442,64": 443,
    "306,71": 444,
    "444,1": 445,
    "375,70": 446,
    "446,64": 447,
    "198,60": 448,
    "448,72": 449,
    "341,64": 450,
    "450,1": 451,
    "68,79": 452,
    "452,68": 453,
    "453,74": 454,
    "80,66": 455,
    "455,67": 456,
    "68,66": 457,
    "43,68": 458,
    "458,62": 459,
    "65,79": 460,
    "460,64": 461,
    "461,73": 462,
    "64,63": 463,
    "463,64": 464,
    "464,77": 465,
    "230,64": 466,
    "73,77": 467,
    "66,73": 468,
    "468,68": 469,
    "275,77": 470,
    "470,72": 471,
    "30,62": 472,
    "80,60": 473,
    "473,61": 474,
    "474,71": 475,
    "78,79": 476,
    "476,60": 477,
    "477,73": 478,
    "478,63": 479,
    "182,74": 480,
    "480,66": 481,
    "200,78": 482,
    "381,73": 483,
    "483,68": 484,
    "81,60": 485,
    "485,66": 486,
    "134,62": 487,
    "487,68": 488,
    "63,73": 489,
    "485,79": 490,
    "490,64": 491,
    "45,13": 492,
    "157,79": 493,
    "493,77": 494,
    "494,60": 495,
    "268,60": 496,
    "496,73": 497,
    "82,60": 498,
    "498,71": 499,
    "499,71": 500,
    "82,68": 501,
    "501,70": 502,
    "502,68": 503,
    "72,68": 504,
    "504,66": 505,
    "505,77": 506,
    "506,60": 507,
    "136,77": 508,
    "72,75": 509,
    "509,74": 510,
    "510,77": 511,
    "511,79": 512,
    "512,60": 513,
    "473,77": 514,
    "77,60": 515,
    "515,77": 516,
    "275,71": 517,
    "517,71": 518,
    "518,74": 519,
    "519,82": 520,
    "520,78": 521,
    "266,12": 522,
    "65,68": 523,
    "523,77": 524,
    "524,78": 525,
    "381,78": 526,
    "526,80": 527,
    "527,77": 528,
    "92,72": 529,
    "529,75": 530,
    "175,72": 531,
    "253,73": 532,
    "532,63": 533,
    "73,71": 534,
    "534,84": 535,
    "535,1": 536,
    "71,64": 537,
    "537,60": 538,
    "310,64": 539,
    "366,67": 540,
    "540,64": 541,
    "175,71": 542,
    "542,79": 543,
    "450,63": 544,
    "74,82": 545,
    "545,64": 546,
    "546,81": 547,
    "547,64": 548,
    "60,75": 549,
    "549,75": 550,
    "207,79": 551,
    "60,61": 552,
    "552,68": 553,
    "553,71": 554,
    "256,64": 555,
    "555,77": 556,
    "211,80": 557,
    "557,78": 558,
    "68,78": 559,
    "559,67": 560,
    "333,64": 561,
    "561,74": 562,
    "61,68": 563,
    "563,73": 564,
    "419,63": 565,
    "60,62": 566,
    "566,70": 567,
    "567,78": 568,
    "568,74": 569,
    "569,73": 570,
    "79,74": 571,
    "571,61": 572,
    "341,70": 573,
    "279,63": 574,
    "345,80": 575,
    "575,79": 576,
    "576,1": 577,
    "316,62": 578,
    "578,68": 579,
    "31,38": 580,
    "80,77": 581,
    "581,66": 582,
    "77,68": 583,
    "583,66": 584,
    "64,75": 585,
    "585,60": 586,
    "586,77": 587,
    "587,60": 588,
    "68,81": 589,
    "589,68": 590,
    "590,73": 591,
    "383,74": 592,
    "592,77": 593,
    "593,66": 594,
    "77,78": 595,
    "595,64": 596,
    "308,64": 597,
    "597,77": 598,
    "470,63": 599,
    "457,60": 600,
    "600,73": 601,
    "537,81": 602,
    "602,64": 603,
    "153,68": 604,
    "604,64": 605,
    "419,66": 606,
    "606,74": 607,
    "607,77": 608,
    "60,71": 609,
    "609,68": 610,
    "610,74": 611,
    "82,64": 612,
    "612,78": 613,
    "613,79": 614,
    "226,82": 615,
    "615,1": 616,
    "66,71": 617,
    "617,64": 618,
    "75,77": 619,
    "619,68": 620,
    "620,78": 621,
    "65,64": 622,
    "622,78": 623,
    "623,79": 624,
    "72,1": 625,
    "34,73": 626,
    "626,66": 627,
    "78,63": 628,
    "315,79": 629,
    "67,82": 630,
    "190,73": 631,
    "631,64": 632,
    "632,71": 633,
    "455,71": 634,
    "634,60": 635,
    "68,72": 636,
    "636,75": 637,
    "637,74": 638,
    "638,77": 639,
    "639,79": 640,
    "640,60": 641,
    "335,64": 642,
    "208,68": 643,
    "643,74": 644,
    "12,61": 645,
    "645,74": 646,
    "646,77": 647,
    "118,79": 648,
    "356,73": 649,
    "649,79": 650,
    "310,68": 651,
    "651,73": 652,
    "595,68": 653,
    "653,74": 654,
    "654,73": 655,
    "566,71": 656,
    "220,60": 657,
    "657,73": 658,
    "658,1": 659,
    "48,74": 660,
    "660,80": 661,
    "661,79": 662,
    "662,67": 663,
    "42,68": 664,
    "81,74": 665,
    "665,73": 666,
    "109,74": 667,
    "667,77": 668,
    "207,68": 669,
    "62,80": 670,
    "555,63": 671,
    "73,73": 672,
    "672,8": 673,
    "64,83": 674,
    "674,68": 675,
    "675,62": 676,
    "233,83": 677,
    "77,79": 678,
    "678,64": 679,
    "32,74": 680,
    "680,73": 681,
    "681,65": 682,
    "682,64": 683,
    "683,63": 684,
    "684,64": 685,
    "351,80": 686,
    "686,62": 687,
    "64,62": 688,
    "688,60": 689,
    "689,72": 690,
    "378,73": 691,
    "691,1": 692,
    "34,72": 693,
    "693,75": 694,
    "71,65": 695,
    "695,12": 696,
    "644,73": 697,
    "198,79": 698,
    "698,68": 699,
    "699,62": 700,
    "197,73": 701,
    "563,60": 702,
    "68,62": 703,
    "703,79": 704,
    "571,82": 705,
    "67,80": 706,
    "706,77": 707,
    "7,61": 708,
    "708,13": 709,
    "709,1": 710,
    "710,16": 711,
    "12,62": 712,
    "712,60": 713,
    "713,71": 714,
    "32,60": 715,
    "715,84": 716,
    "716,72": 717,
    "39,64": 718,
    "718,82": 719,
    "706,1": 720,
    "73,67": 721,
    "721,74": 722,
    "722,71": 723,
    "458,66": 724,
    "724,64": 725,
    "725,77": 726,
    "295,77": 727,
    "452,74": 728,
    "728,77": 729,
    "283,77": 730,
    "348,60": 731,
    "145,74": 732,
    "64,1": 733,
    "733,16": 734,
    "734,24": 735,
    "66,67": 736,
    "736,79": 737,
    "136,71": 738,
    "62,64": 739,
    "739,71": 740,
    "740,60": 741,
    "52,67": 742,
    "71,80": 743,
    "743,79": 744,
    "744,68": 745,
    "745,74": 746,
    "35,77": 747,
    "747,64": 748,
    "748,73": 749,
    "749,62": 750,
    "21,9": 751,
    "751,16": 752,
    "752,24": 753,
    "333,73": 754,
    "267,63": 755,
    "381,77": 756,
    "756,71": 757,
    "526,74": 758,
    "758,73": 759,
    "412,74": 760,
    "389,64": 761,
    "73,1": 762,
    "73,70": 763,
    "78,84": 764,
    "764,1": 765,
    "70,73": 766,
    "766,74": 767,
    "767,82": 768,
    "768,71": 769,
    "769,64": 770,
    "703,64": 771,
    "73,6": 772,
    "772,79": 773,
    "63,60": 774,
    "774,78": 775,
    "775,67": 776,
    "44,77": 777,
    "777,63": 778,
    "455,80": 779,
    "779,60": 780,
    "780,84": 781,
    "66,63": 782,
    "195,77": 783,
    "783,60": 784,
    "143,78": 785,
    "366,64": 786,
    "226,79": 787,
    "787,64": 788,
    "627,71": 789,
    "789,68": 790,
    "790,78": 791,
    "498,77": 792,
    "792,63": 793,
    "63,80": 794,
    "333,63": 795,
    "77,62": 796,
    "796,64": 797,
    "452,64": 798,
    "310,60": 799,
    "612,77": 800,
    "800,64": 801,
    "801,1": 802,
    "153,74": 803,
    "803,71": 804,
    "13,48": 805,
    "805,13": 806,
    "80,79": 807,
    "807,74": 808,
    "636,60": 809,
    "386,74": 810,
    "43,74": 811,
    "811,77": 812,
    "283,78": 813,
    "182,68": 814,
    "814,62": 815,
    "73,63": 816,
    "816,71": 817,
    "316,78": 818,
    "48,75": 819,
    "819,60": 820,
    "375,73": 821,
    "14,65": 822,
    "822,64": 823,
    "316,74": 824,
    "1,12": 825,
    "825,1": 826,
    "379,63": 827,
    "83,68": 828,
    "75,79": 829,
    "829,64": 830,
    "830,72": 831,
    "831,61": 832,
    "107,72": 833,
    "833,64": 834,
    "82,67": 835,
    "835,74": 836,
    "836,1": 837,
    "169,68": 838,
    "838,64": 839,
    "82,74": 840,
    "840,77": 841,
    "841,71": 842,
    "842,63": 843,
    "157,71": 844,
    "844,84": 845,
    "62,77": 846,
    "846,68": 847,
    "847,72": 848,
    "848,72": 849,
    "523,62": 850,
    "850,79": 851,
    "851,68": 852,
    "68,71": 853,
    "853,68": 854,
    "854,79": 855,
    "678,68": 856,
    "856,62": 857,
    "202,77": 858,
    "858,62": 859,
    "1,75": 860,
    "860,74": 861,
    "63,78": 862,
    "7,16": 863,
    "863,24": 864,
    "109,64": 865,
    "73,62": 866,
    "866,64": 867,
    "846,74": 868,
    "583,73": 869,
    "869,66": 870,
    "54,74": 871,
    "871,77": 872,
    "144,74": 873,
    "68,80": 874,
    "874,78": 875,
    "476,74": 876,
    "876,73": 877,
    "877,68": 878,
    "878,60": 879,
    "33,69": 880,
    "880,68": 881,
    "881,61": 882,
    "828,79": 883,
    "883,64": 884,
    "283,73": 885,
    "78,78": 886,
    "886,68": 887,
    "887,78": 888,
    "419,62": 889,
    "316,66": 890,
    "890,67": 891,
    "1,7": 892,
    "138,63": 893,
    "893,64": 894,
    "81,64": 895,
    "895,73": 896,
    "896,79": 897,
    "612,71": 898,
    "898,71": 899,
    "75,78": 900,
    "609,74": 901,
    "559,71": 902,
    "902,60": 903,
    "504,71": 904,
    "688,74": 905,
    "905,73": 906,
    "906,74": 907,
    "907,72": 908,
    "38,78": 909,
    "909,77": 910,
    "910,60": 911,
    "64,27": 912,
    "912,1": 913,
    "47,80": 914,
    "914,78": 915,
    "915,78": 916,
    "134,77": 917,
    "917,62": 918,
    "918,64": 919,
    "585,79": 920,
    "920,64": 921,
    "921,72": 922,
    "922,61": 923,
    "31,77": 924,
    "36,74": 925,
    "73,27": 926,
    "409,68": 927,
    "927,62": 928,
    "743,62": 929,
    "306,73": 930,
    "930,1": 931,
    "537,1": 932,
    "33,64": 933,
    "933,60": 934,
    "504,79": 935,
    "935,67": 936,
    "807,79": 937,
    "937,71": 938,
    "938,64": 939,
    "190,64": 940,
    "636,64": 941,
    "198,64": 942,
    "426,68": 943,
    "943,64": 944,
    "138,1": 945,
    "308,66": 946,
    "946,68": 947,
    "947,73": 948,
    "67,64": 949,
    "949,74": 950,
    "950,77": 951,
    "341,62": 952,
    "952,79": 953,
    "953,68": 954,
    "83,64": 955,
    "955,63": 956,
    "143,72": 957,
    "957,75": 958,
    "30,73": 959,
    "959,78": 960,
    "960,64": 961,
    "961,71": 962,
    "962,72": 963,
    "169,60": 964,
    "964,79": 965,
    "583,74": 966,
    "966,63": 967,
    "64,61": 968,
    "341,84": 969,
    "969,1": 970,
    "79,79": 971,
    "971,84": 972,
    "972,78": 973,
    "973,61": 974,
    "418,72": 975,
    "11,1": 976,
    "138,61": 977,
    "71,75": 978,
    "978,67": 979,
    "979,60": 980,
    "457,68": 981,
    "981,73": 982,
    "65,65": 983,
    "983,68": 984,
    "984,62": 985,
    "15,15": 986,
    "986,15": 987,
    "19,9": 988,
    "988,16": 989,
    "989,24": 990,
    "37,74": 991,
    "991,82": 992,
    "992,64": 993,
    "993,81": 994,
    "65,77": 995,
    "995,64": 996,
    "996,63": 997,
    "7,63": 998,
    "998,13": 999,
    "999,1": 1000,
    "84,78": 1001,
    "1001,68": 1002,
    "122,81": 1003,
    "69,68": 1004,
    "1004,61": 1005,
    "1005,74": 1006,
    "1,82": 1007,
    "1007,68": 1008,
    "1008,79": 1009,
    "64,74": 1010,
    "66,68": 1011,
    "1011,63": 1012,
    "1012,60": 1013,
    "148,80": 1014,
    "1014,60": 1015,
    "453,81": 1016,
    "79,71": 1017,
    "44,32": 1018,
    "1018,58": 1019,
    "1019,58": 1020,
    "452,84": 1021,
    "40,1": 1022,
    "563,79": 1023,
    "1023,77": 1024,
    "1024,60": 1025,
    "21,15": 1026,
    "18,1": 1027,
    "1027,87": 1028,
    "1028,87": 1029,
    "1029,1": 1030,
    "84,1": 1031,
    "41,60": 1032,
    "2,12": 1033,
    "1033,12": 1034,
    "33,44": 1035,
    "1035,48": 1036,
    "335,71": 1037,
    "272,64": 1038,
    "1038,71": 1039,
    "986,1": 1040,
    "609,71": 1041,
    "1041,1": 1042,
    "1,61": 1043,
    "1043,68": 1044,
    "1044,77": 1045,
    "1045,79": 1046,
    "1046,67": 1047,
    "84,74": 1048,
    "1048,73": 1049,
    "1049,63": 1050,
    "63,71": 1051,
    "1051,60": 1052,
    "797,73": 1053,
    "1053,79": 1054,
    "50,13": 1055,
    "1055,48": 1056,
    "84,64": 1057,
    "67,60": 1058,
    "1058,78": 1059,
    "1059,1": 1060,
    "566,68": 1061,
    "1061,65": 1062,
    "1062,68": 1063,
    "74,64": 1064,
    "1064,79": 1065,
    "49,77": 1066,
    "1066,80": 1067,
    "1067,78": 1068,
    "177,73": 1069,
    "61,71": 1070,
    "1070,68": 1071,
    "1071,73": 1072,
    "339,73": 1073,
    "1073,62": 1074,
    "35,1": 1075,
    "75,74": 1076,
    "1076,73": 1077,
    "71,79": 1078,
    "1078,68": 1079,
    "70,11": 1080,
    "1080,1": 1081,
    "32,45": 1082,
    "1082,50": 1083,
    "47,74": 1084,
    "1084,72": 1085,
    "571,77": 1086,
    "774,79": 1087,
    "107,67": 1088,
    "78,80": 1089,
    "1089,71": 1090,
    "501,63": 1091,
    "19,5": 1092,
    "75,80": 1093,
    "1093,61": 1094,
    "1094,71": 1095,
    "1095,68": 1096,
    "1,14": 1097,
    "1097,79": 1098,
    "179,73": 1099,
    "1099,64": 1100,
    "1001,79": 1101,
    "1101,64": 1102,
    "77,63": 1103,
    "392,77": 1104,
    "1104,64": 1105,
    "1105,1": 1106,
    "195,60": 1107,
    "1107,77": 1108,
    "1108,62": 1109,
    "1109,79": 1110,
    "816,74": 1111,
    "1111,73": 1112,
    "31,84": 1113,
    "1113,85": 1114,
    "1114,60": 1115,
    "1115,73": 1116,
    "1116,79": 1117,
    "259,79": 1118,
    "38,73": 1119,
    "1119,63": 1120,
    "122,73": 1121,
    "1121,79": 1122,
    "504,78": 1123,
    "1123,78": 1124,
    "60,85": 1125,
    "1125,85": 1126,
    "78,68": 1127,
    "1127,78": 1128,
    "306,70": 1129,
    "77,64": 1130,
    "1130,62": 1131,
    "1131,68": 1132,
    "1132,75": 1133,
    "1043,64": 1134,
    "1134,79": 1135,
    "1135,82": 1136,
    "1136,64": 1137,
    "620,60": 1138,
    "30,72": 1139,
    "35,74": 1140,
    "1140,77": 1141,
    "33,60": 1142,
    "1142,71": 1143,
    "1143,64": 1144,
    "1144,70": 1145,
    "485,73": 1146,
    "283,62": 1147,
    "1078,60": 1148,
    "585,67": 1149,
    "67,77": 1150,
    "1150,68": 1151,
    "1151,78": 1152,
    "1152,79": 1153,
    "52,74": 1154,
    "1154,77": 1155,
    "1155,71": 1156,
    "60,81": 1157,
    "1157,68": 1158,
    "1158,73": 1159,
    "316,63": 1160,
    "1160,74": 1161,
    "169,64": 1162,
    "1162,75": 1163,
    "1163,67": 1164,
    "221,74": 1165,
    "39,74": 1166,
    "415,84": 1167,
    "149,71": 1168,
    "63,64": 1169,
    "1169,1": 1170,
    "38,63": 1171,
    "598,60": 1172,
    "860,71": 1173,
    "1173,60": 1174,
    "235,73": 1175,
    "45,30": 1176,
    "1127,63": 1177,
    "1177,64": 1178,
    "895,78": 1179,
    "162,79": 1180,
    "1180,64": 1181,
    "1181,77": 1182,
    "1182,68": 1183,
    "1183,60": 1184,
    "796,67": 1185,
    "159,62": 1186,
    "1186,60": 1187,
    "498,78": 1188,
    "1188,1": 1189,
    "34,41": 1190,
    "1190,35": 1191,
    "47,1": 1192,
    "33,80": 1193,
    "1193,61": 1194,
    "436,77": 1195,
    "183,74": 1196,
    "1196,82": 1197,
    "20,5": 1198,
    "1198,1": 1199,
    "68,70": 1200,
    "1200,64": 1201,
    "266,73": 1202,
    "1202,78": 1203,
    "227,1": 1204,
    "359,60": 1205,
    "1205,78": 1206,
    "703,60": 1207,
    "1207,77": 1208,
    "1208,60": 1209,
    "1209,66": 1210,
    "71,1": 1211,
    "151,80": 1212,
    "1212,71": 1213,
    "617,68": 1214,
    "1214,78": 1215,
    "559,60": 1216,
    "1216,73": 1217,
    "552,71": 1218,
    "1218,64": 1219,
    "1219,1": 1220,
    "1,51": 1221,
    "1221,64": 1222,
    "1222,66": 1223,
    "1127,73": 1224,
    "1224,62": 1225,
    "949,71": 1226,
    "1226,72": 1227,
    "308,73": 1228,
    "1228,78": 1229,
    "1229,84": 1230,
    "1230,71": 1231,
    "453,60": 1232,
    "1,30": 1233,
    "144,60": 1234,
    "1234,75": 1235,
    "68,85": 1236,
    "1236,64": 1237,
    "84,63": 1238,
    "1238,77": 1239,
    "485,1": 1240,
    "1240,48": 1241,
    "1241,62": 1242,
    "420,77": 1243,
    "1243,60": 1244,
    "64,81": 1245,
    "317,67": 1246,
    "566,67": 1247,
    "148,74": 1248,
    "1248,79": 1249,
    "1249,67": 1250,
    "1250,64": 1251,
    "74,75": 1252,
    "1252,80": 1253,
    "1253,71": 1254,
    "45,77": 1255,
    "1255,68": 1256,
    "846,60": 1257,
    "1257,65": 1258,
    "1258,79": 1259,
    "48,79": 1260,
    "1260,60": 1261,
    "1261,79": 1262,
    "1262,64": 1263,
    "345,71": 1264,
    "73,60": 1265,
    "1265,79": 1266,
    "1266,68": 1267,
    "1076,71": 1268,
    "356,78": 1269,
    "1269,79": 1270,
    "74,79": 1271,
    "1271,67": 1272,
    "515,78": 1273,
    "1273,67": 1274,
    "62,84": 1275,
    "1275,1": 1276,
    "1207,79": 1277,
    "1277,68": 1278,
    "537,78": 1279,
    "1279,79": 1280,
    "1280,68": 1281,
    "1281,73": 1282,
    "821,64": 1283,
    "672,68": 1284,
    "1284,73": 1285,
    "1058,77": 1286,
    "1286,79": 1287,
    "74,62": 1288,
    "1288,68": 1289,
    "1289,63": 1290,
    "78,8": 1291,
    "200,74": 1292,
    "743,64": 1293,
    "13,1": 1294,
    "1294,35": 1295,
    "70,64": 1296,
    "1296,78": 1297,
    "73,78": 1298,
    "1298,60": 1299,
    "1299,78": 1300,
    "62,60": 1301,
    "1301,77": 1302,
    "1302,63": 1303,
    "77,82": 1304,
    "1304,68": 1305,
    "1305,70": 1306,
    "1306,68": 1307,
    "17,25": 1308,
    "64,68": 1309,
    "1309,81": 1310,
    "1310,64": 1311,
    "78,77": 1312,
    "1312,60": 1313,
    "37,31": 1314,
    "18,8": 1315,
    "249,81": 1316,
    "1316,64": 1317,
    "1317,77": 1318,
    "1245,68": 1319,
    "1319,63": 1320,
    "1320,64": 1321,
    "1321,73": 1322,
    "19,25": 1323,
    "292,77": 1324,
    "207,64": 1325,
    "1325,1": 1326,
    "539,78": 1327,
    "1031,74": 1328,
    "1328,65": 1329,
    "162,77": 1330,
    "1330,84": 1331,
    "84,60": 1332,
    "1332,77": 1333,
    "1333,63": 1334,
    "389,71": 1335,
    "1335,71": 1336,
    "73,66": 1337,
    "1337,79": 1338,
    "1338,67": 1339,
    "412,60": 1340,
    "1340,71": 1341,
    "1341,79": 1342,
    "949,72": 1343,
    "476,77": 1344,
    "1344,68": 1345,
    "1345,62": 1346,
    "1346,79": 1347,
    "63,68": 1348,
    "1348,66": 1349,
    "1349,64": 1350,
    "1350,73": 1351,
    "1351,74": 1352,
    "41,68": 1353,
    "398,80": 1354,
    "226,85": 1355,
    "316,60": 1356,
    "198,65": 1357,
    "3,3": 1358,
    "45,74": 1359,
    "787,67": 1360,
    "1360,64": 1361,
    "79,73": 1362,
    "1362,64": 1363,
    "1363,78": 1364,
    "1364,78": 1365,
    "19,11": 1366,
    "1366,1": 1367,
    "202,73": 1368,
    "1368,79": 1369,
    "84,62": 1370,
    "72,84": 1371,
    "1371,1": 1372,
    "48,80": 1373,
    "1373,73": 1374,
    "1374,63": 1375,
    "71,62": 1376,
    "1376,80": 1377,
    "1377,71": 1378,
    "41,74": 1379,
    "1379,73": 1380,
    "1380,63": 1381,
    "1381,74": 1382,
    "1382,73": 1383,
    "79,80": 1384,
    "1384,61": 1385,
    "1385,64": 1386,
    "333,78": 1387,
    "1387,78": 1388,
    "523,73": 1389,
    "78,1": 1390,
    "1390,51": 1391,
    "1391,64": 1392,
    "1392,66": 1393,
    "47,38": 1394,
    "1394,48": 1395,
    "186,68": 1396,
    "764,62": 1397,
    "995,74": 1398,
    "1398,72": 1399,
    "32,68": 1400,
    "1400,79": 1401,
    "387,66": 1402,
    "1402,60": 1403,
    "794,62": 1404,
    "85,85": 1405,
    "903,79": 1406,
    "220,74": 1407,
    "75,61": 1408,
    "1408,64": 1409,
    "1409,71": 1410,
    "60,69": 1411,
    "1411,74": 1412,
    "239,71": 1413,
    "463,60": 1414,
    "23,1": 1415,
    "1064,78": 1416,
    "77,71": 1417,
    "1417,84": 1418,
    "565,1": 1419,
    "317,1": 1420,
    "359,71": 1421,
    "1421,84": 1422,
    "251,73": 1423,
    "128,79": 1424,
    "1130,78": 1425,
    "1425,62": 1426,
    "1426,64": 1427,
    "1427,73": 1428,
    "733,72": 1429,
    "1429,68": 1430,
    "1430,73": 1431,
    "1431,68": 1432,
    "1432,78": 1433,
    "179,80": 1434,
    "1434,60": 1435,
    "1435,77": 1436,
    "359,79": 1437,
    "78,62": 1438,
    "1438,77": 1439,
    "1439,68": 1440,
    "1440,72": 1441,
    "1441,72": 1442,
    "53,1": 1443,
    "1301,71": 1444,
    "1444,71": 1445,
    "1,34": 1446,
    "1446,72": 1447,
    "1447,75": 1448,
    "66,80": 1449,
    "1449,77": 1450,
    "1,65": 1451,
    "1451,77": 1452,
    "1452,74": 1453,
    "19,15": 1454,
    "816,60": 1455,
    "1455,78": 1456,
    "1456,67": 1457,
    "68,63": 1458,
    "1458,64": 1459,
    "1459,73": 1460,
    "68,61": 1461,
    "559,79": 1462,
    "1462,74": 1463,
    "148,64": 1464,
    "1464,81": 1465,
    "36,60": 1466,
    "1466,71": 1467,
    "253,62": 1468,
    "1468,70": 1469,
    "774,73": 1470,
    "583,75": 1471,
    "1471,79": 1472,
    "292,64": 1473,
    "1473,81": 1474,
    "6,60": 1475,
    "134,73": 1476,
    "1476,78": 1477,
    "1477,68": 1478,
    "1478,81": 1479,
    "415,65": 1480,
    "680,72": 1481,
    "381,1": 1482,
    "30,1": 1483,
    "1417,68": 1484,
    "1484,60": 1485,
    "1485,72": 1486,
    "44,79": 1487,
    "1487,79": 1488,
    "1488,74": 1489,
    "60,64": 1490,
    "1490,74": 1491,
    "1491,71": 1492,
    "1492,74": 1493,
    "1493,66": 1494,
    "82,1": 1495,
    "1495,60": 1496,
    "1496,78": 1497,
    "1497,1": 1498,
    "949,77": 1499,
    "1499,1": 1500,
    "571,79": 1501,
    "1399,1": 1502,
    "73,11": 1503,
    "1503,1": 1504,
    "61,78": 1505,
    "1505,68": 1506,
    "1506,79": 1507,
    "38,48": 1508,
    "1508,32": 1509,
    "571,73": 1510,
    "207,77": 1511,
    "537,75": 1512,
    "1512,67": 1513,
    "1513,60": 1514,
    "1514,73": 1515,
    "1390,61": 1516,
    "1516,84": 1517,
    "1517,1": 1518,
    "732,77": 1519,
    "1519,79": 1520,
    "64,66": 1521,
    "1521,60": 1522,
    "1522,71": 1523,
    "132,61": 1524,
    "1524,64": 1525,
    "266,60": 1526,
    "1526,78": 1527,
    "1527,79": 1528,
    "610,66": 1529,
    "1529,73": 1530,
    "16,1": 1531,
    "71,78": 1532,
    "1532,67": 1533,
    "1127,66": 1534,
    "118,68": 1535,
    "1535,62": 1536,
    "485,68": 1537,
    "1537,71": 1538,
    "266,78": 1539,
    "1539,64": 1540,
    "80,83": 1541,
    "233,66": 1542,
    "67,1": 1543,
    "343,73": 1544,
    "1010,80": 1545,
    "14,77": 1546,
    "1546,64": 1547,
    "1547,65": 1548,
    "1,39": 1549,
    "179,64": 1550,
    "1550,80": 1551,
    "895,71": 1552,
    "1552,74": 1553,
    "1553,75": 1554,
    "74,61": 1555,
    "1555,68": 1556,
    "1556,74": 1557,
    "79,1": 1558,
    "1558,74": 1559,
    "1559,65": 1560,
    "78,67": 1561,
    "1561,60": 1562,
    "1562,71": 1563,
    "30,49": 1564,
    "1564,42": 1565,
    "49,67": 1566,
    "1566,64": 1567,
    "1567,60": 1568,
    "1568,79": 1569,
    "70,60": 1570,
    "1570,79": 1571,
    "10,56": 1572,
    "22,8": 1573,
    "828,63": 1574,
    "202,75": 1575,
    "159,73": 1576,
    "1576,66": 1577,
    "1130,64": 1578,
    "581,62": 1579,
    "1579,64": 1580,
    "60,70": 1581,
    "1581,64": 1582,
    "1582,73": 1583,
    "426,60": 1584,
    "1584,73": 1585,
    "1130,72": 1586,
    "179,79": 1587,
    "1587,67": 1588,
    "61,84": 1589,
    "1589,1": 1590,
    "70,71": 1591,
    "1591,68": 1592,
    "1234,62": 1593,
    "75,72": 1594,
    "566,80": 1595,
    "48,64": 1596,
    "1596,72": 1597,
    "1597,68": 1598,
    "1598,79": 1599,
    "538,78": 1600,
    "1600,64": 1601,
    "1601,63": 1602,
    "1390,74": 1603,
    "1603,65": 1604,
    "1604,1": 1605,
    "306,72": 1606,
    "1606,78": 1607,
    "1607,1": 1608,
    "322,78": 1609,
    "289,79": 1610,
    "1610,79": 1611,
    "1611,71": 1612,
    "1612,64": 1613,
    "17,9": 1614,
    "1614,16": 1615,
    "1615,24": 1616,
    "417,68": 1617,
    "1617,62": 1618,
    "70,79": 1619,
    "62,1": 1620,
    "417,64": 1621,
    "1621,64": 1622,
    "8,1": 1623,
    "74,74": 1624,
    "1624,63": 1625,
    "595,79": 1626,
    "1626,1": 1627,
    "1384,77": 1628,
    "1628,73": 1629,
    "1,50": 1630,
    "1630,73": 1631,
    "241,68": 1632,
    "581,74": 1633,
    "1633,75": 1634,
    "41,38": 1635,
    "187,84": 1636,
    "359,78": 1637,
    "537,77": 1638,
    "31,69": 1639,
    "1639,77": 1640,
    "1640,70": 1641,
    "169,74": 1642,
    "83,79": 1643,
    "434,80": 1644,
    "1644,72": 1645,
    "1624,77": 1646,
    "66,78": 1647,
    "202,71": 1648,
    "182,78": 1649,
    "1119,1": 1650,
    "119,63": 1651,
    "1651,1": 1652,
    "470,64": 1653,
    "330,71": 1654,
    "138,72": 1655,
    "1265,63": 1656,
    "1001,1": 1657,
    "1265,71": 1658,
    "1658,1": 1659,
    "1169,77": 1660,
    "1660,73": 1661,
    "202,61": 1662,
    "1662,79": 1663,
    "794,73": 1664,
    "1664,64": 1665,
    "33,84": 1666,
    "1666,78": 1667,
    "1667,74": 1668,
    "1668,73": 1669,
    "1407,77": 1670,
    "157,74": 1671,
    "1671,72": 1672,
    "286,68": 1673,
    "12,31": 1674,
    "1674,64": 1675,
    "195,67": 1676,
    "1676,64": 1677,
    "1089,78": 1678,
    "485,71": 1679,
    "1679,80": 1680,
    "1680,64": 1681,
    "1298,68": 1682,
    "1682,63": 1683,
    "1683,64": 1684,
    "359,1": 1685,
    "552,64": 1686,
    "1686,79": 1687,
    "1288,77": 1688,
    "1688,60": 1689,
    "583,65": 1690,
    "1690,71": 1691,
    "1180,68": 1692,
    "1692,60": 1693,
    "835,68": 1694,
    "1694,62": 1695,
    "1695,67": 1696,
    "1696,1": 1697,
    "1298,1": 1698,
    "1104,75": 1699,
    "1699,67": 1700,
    "485,77": 1701,
    "1701,63": 1702,
    "239,1": 1703,
    "16,12": 1704,
    "743,68": 1705,
    "1705,63": 1706,
    "1579,67": 1707,
    "1178,73": 1708,
    "43,44": 1709,
    "1709,49": 1710,
    "739,73": 1711,
    "1711,79": 1712,
    "1712,80": 1713,
    "566,79": 1714,
    "866,79": 1715,
    "1561,68": 1716,
    "162,71": 1717,
    "1717,71": 1718,
    "62,78": 1719,
    "43,60": 1720,
    "1720,79": 1721,
    "1721,68": 1722,
    "74,60": 1723,
    "1723,79": 1724,
    "537,66": 1725,
    "1725,78": 1726,
    "63,84": 1727,
    "1727,1": 1728,
    "356,63": 1729,
    "1729,63": 1730,
    "67,72": 1731,
    "1731,60": 1732,
    "136,81": 1733,
    "1733,68": 1734,
    "1734,73": 1735,
    "1735,62": 1736,
    "85,60": 1737,
    "1737,73": 1738,
    "1738,68": 1739,
    "78,26": 1740,
    "79,85": 1741,
    "386,73": 1742,
    "1296,1": 1743,
    "190,62": 1744,
    "12,74": 1745,
    "1745,77": 1746,
    "1746,68": 1747,
    "66,72": 1748,
    "1748,64": 1749,
    "1337,80": 1750,
    "12,1": 1751,
    "476,64": 1752,
    "1752,72": 1753,
    "862,82": 1754,
    "1754,74": 1755,
    "136,74": 1756,
    "978,78": 1757,
    "1757,1": 1758,
    "1301,72": 1759,
    "1759,64": 1760,
    "1438,68": 1761,
    "1761,71": 1762,
    "1762,71": 1763,
    "537,63": 1764,
    "310,79": 1765,
    "756,62": 1766,
    "1,72": 1767,
    "124,84": 1768,
    "36,37": 1769,
    "1769,31": 1770,
    "900,74": 1771,
    "1771,73": 1772,
    "308,79": 1773,
    "1773,68": 1774,
    "452,78": 1775,
    "226,80": 1776,
    "1776,73": 1777,
    "1777,62": 1778,
    "311,68": 1779,
    "739,75": 1780,
    "1780,79": 1781,
    "68,1": 1782,
    "672,64": 1783,
    "84,73": 1784,
    "1784,60": 1785,
    "1785,72": 1786,
    "1786,68": 1787,
    "1459,77": 1788,
    "327,77": 1789,
    "1789,68": 1790,
    "415,73": 1791,
    "1791,79": 1792,
    "392,80": 1793,
    "1793,73": 1794,
    "1794,79": 1795,
    "82,82": 1796,
    "1265,78": 1797,
    "1797,74": 1798,
    "1798,65": 1799,
    "138,66": 1800,
    "1800,60": 1801,
    "419,73": 1802,
    "1802,60": 1803,
    "375,62": 1804,
    "1804,79": 1805,
    "48,32": 1806,
    "1093,79": 1807,
    "1127,74": 1808,
    "1078,1": 1809,
    "559,70": 1810,
    "175,66": 1811,
    "1811,67": 1812,
    "1812,79": 1813,
    "1813,64": 1814,
    "617,60": 1815,
    "39,60": 1816,
    "1816,72": 1817,
    "1817,64": 1818,
    "1818,78": 1819,
    "869,79": 1820,
    "1820,67": 1821,
    "207,63": 1822,
    "1822,68": 1823,
    "1823,73": 1824,
    "1824,60": 1825,
    "1825,73": 1826,
    "1826,63": 1827,
    "1265,73": 1828,
    "1828,62": 1829,
    "72,80": 1830,
    "1830,78": 1831,
    "1831,68": 1832,
    "1832,62": 1833,
    "359,63": 1834,
    "1834,1": 1835,
    "1169,62": 1836,
    "1309,63": 1837,
    "63,63": 1838,
    "1838,68": 1839,
    "1839,79": 1840,
    "1840,68": 1841,
    "1841,74": 1842,
    "251,85": 1843,
    "1843,64": 1844,
    "1844,73": 1845,
    "1407,80": 1846,
    "1846,66": 1847,
    "306,75": 1848,
    "457,67": 1849,
    "1284,78": 1850,
    "19,1": 1851,
    "1851,7": 1852,
    "1301,61": 1853,
    "339,71": 1854,
    "578,79": 1855,
    "70,14": 1856,
    "65,71": 1857,
    "1857,64": 1858,
    "321,73": 1859,
    "1859,68": 1860,
    "389,79": 1861,
    "715,73": 1862,
    "1862,60": 1863,
    "1863,63": 1864,
    "733,74": 1865,
    "1865,65": 1866,
    "1866,1": 1867,
    "30,41": 1868,
    "1868,38": 1869,
    "44,62": 1870,
    "1870,79": 1871,
    "1871,74": 1872,
    "1872,61": 1873,
    "1370,71": 1874,
    "138,70": 1875,
    "136,60": 1876,
    "1876,79": 1877,
    "60,60": 1878,
    "1878,77": 1879,
    "1384,60": 1880,
    "1880,79": 1881,
    "501,78": 1882,
    "1076,77": 1883,
    "1087,60": 1884,
    "476,1": 1885,
    "1885,74": 1886,
    "198,74": 1887,
    "71,63": 1888,
    "1888,1": 1889,
    "179,68": 1890,
    "1890,78": 1891,
    "1891,67": 1892,
    "1,77": 1893,
    "70,72": 1894,
    "1555,64": 1895,
    "1895,77": 1896,
    "341,72": 1897,
    "389,78": 1898,
    "79,60": 1899,
    "1899,61": 1900,
    "1900,71": 1901,
    "1901,64": 1902,
    "65,80": 1903,
    "1903,73": 1904,
    "1904,62": 1905,
    "563,71": 1906,
    "1857,80": 1907,
    "84,72": 1908,
    "1908,60": 1909,
    "1909,73": 1910,
    "1467,60": 1911,
    "60,84": 1912,
    "1912,1": 1913,
    "1091,64": 1914,
    "1744,79": 1915,
    "453,72": 1916,
    "179,70": 1917,
    "36,1": 1918,
    "1298,79": 1919,
    "1919,60": 1920,
    "73,80": 1921,
    "1921,79": 1922,
    "24,8": 1923,
    "1041,64": 1924,
    "1924,63": 1925,
    "175,77": 1926,
    "1298,70": 1927,
    "1927,77": 1928,
    "77,66": 1929,
    "545,73": 1930,
    "1930,64": 1931,
    "1931,63": 1932,
    "74,78": 1933,
    "1933,64": 1934,
    "622,73": 1935,
    "1535,73": 1936,
    "1936,64": 1937,
    "739,63": 1938,
    "65,60": 1939,
    "1939,62": 1940,
    "1940,79": 1941,
    "1714,1": 1942,
    "83,80": 1943,
    "1943,60": 1944,
    "359,77": 1945,
    "1945,81": 1946,
    "1099,60": 1947,
    "537,70": 1948,
    "892,63": 1949,
    "1949,13": 1950,
    "1950,1": 1951,
    "1951,16": 1952,
    "559,64": 1953,
    "1272,64": 1954,
    "539,77": 1955,
    "545,63": 1956,
    "1956,64": 1957,
    "1957,77": 1958,
    "1648,63": 1959,
    "30,48": 1960,
    "1960,38": 1961,
    "1961,32": 1962,
    "1100,77": 1963,
    "1337,71": 1964,
    "1964,60": 1965,
    "251,78": 1966,
    "1966,79": 1967,
    "283,74": 1968,
    "249,72": 1969,
    "657,79": 1970,
    "1970,1": 1971,
    "981,74": 1972,
    "1752,77": 1973,
    "235,64": 1974,
    "1974,73": 1975,
    "334,64": 1976,
    "1899,79": 1977,
    "249,60": 1978,
    "509,71": 1979,
    "1979,64": 1980,
    "306,77": 1981,
    "359,73": 1982,
    "1525,77": 1983,
    "1169,72": 1984,
    "1984,74": 1985,
    "1985,62": 1986,
    "1986,77": 1987,
    "1987,60": 1988,
    "15,11": 1989,
    "1989,15": 1990,
    "1990,15": 1991,
    "1991,15": 1992,
    "1309,73": 1993,
    "814,79": 1994,
    "1994,68": 1995,
    "609,64": 1996,
    "40,68": 1997,
    "1997,73": 1998,
    "268,64": 1999,
    "1999,77": 2000,
    "1017,60": 2001,
    "105,80": 2002,
    "811,81": 2003,
    "2003,64": 2004,
    "2004,72": 2005,
    "2005,61": 2006,
    "60,82": 2007,
    "1925,1": 2008,
    "415,62": 2009,
    "2009,64": 2010,
    "2010,78": 2011,
    "60,83": 2012,
    "295,68": 2013,
    "2013,81": 2014,
    "1076,68": 2015,
    "2015,73": 2016,
    "2016,79": 2017,
    "515,71": 2018,
    "504,73": 2019,
    "2019,66": 2020,
    "1765,77": 2021,
    "703,71": 2022,
    "2022,64": 2023,
    "132,60": 2024,
    "2024,73": 2025,
    "2025,73": 2026,
    "128,77": 2027,
    "77,67": 2028,
    "82,77": 2029,
    "2029,68": 2030,
    "2030,79": 2031,
    "2031,64": 2032,
    "63,72": 2033,
    "2033,68": 2034,
    "69,60": 2035,
    "2035,63": 2036,
    "1899,66": 2037,
    "2037,64": 2038,
    "31,80": 2039,
    "2039,77": 2040,
    "2040,66": 2041,
    "509,60": 2042,
    "2042,79": 2043,
    "64,84": 2044,
    "2044,1": 2045,
    "2039,71": 2046,
    "2046,66": 2047,
    "2047,60": 2048,
    "2048,77": 2049,
    "220,64": 2050,
    "162,66": 2051,
    "2051,73": 2052,
    "351,64": 2053,
    "157,63": 2054,
    "30,42": 2055,
    "327,73": 2056,
    "85,68": 2057,
    "2057,71": 2058,
    "2058,71": 2059,
    "30,77": 2060,
    "2060,68": 2061,
    "2061,78": 2062,
    "2062,79": 2063,
    "79,78": 2064,
    "1119,73": 2065,
    "1717,68": 2066,
    "545,68": 2067,
    "2067,73": 2068,
    "816,68": 2069,
    "909,71": 2070,
    "2070,60": 2071,
    "2071,73": 2072,
    "477,61": 2073,
    "2073,71": 2074,
    "463,68": 2075,
    "1127,60": 2076,
    "12,79": 2077,
    "2077,74": 2078,
    "261,60": 2079,
    "2079,73": 2080,
    "619,64": 2081,
    "2081,78": 2082,
    "1438,67": 2083,
    "81,13": 2084,
    "2084,1": 2085,
    "138,68": 2086,
    "2086,63": 2087,
    "2087,60": 2088,
    "452,67": 2089,
    "2089,64": 2090,
    "239,77": 2091,
    "2091,79": 2092,
    "21,1": 2093,
    "2093,12": 2094,
    "2094,1": 2095,
    "1784,64": 2096,
    "366,82": 2097,
    "2097,74": 2098,
    "581,73": 2099,
    "1750,60": 2100,
    "2100,66": 2101,
    "25,14": 2102,
    "2102,14": 2103,
    "207,73": 2104,
    "2104,64": 2105,
    "2105,79": 2106,
    "501,71": 2107,
    "2107,71": 2108,
    "1438,74": 2109,
    "2109,82": 2110,
    "1348,65": 2111,
    "2111,65": 2112,
    "22,24": 2113,
    "381,62": 2114,
    "72,72": 2115,
    "389,63": 2116,
    "74,12": 2117,
    "33,74": 2118,
    "2118,71": 2119,
    "2119,71": 2120,
    "285,63": 2121,
    "2121,1": 2122,
    "622,63": 2123,
    "2123,64": 2124,
    "2124,77": 2125,
    "2125,60": 2126,
    "1180,77": 2127,
    "2127,68": 2128,
    "1789,60": 2129,
    "1560,1": 2130,
    "60,68": 2131,
    "2131,71": 2132,
    "2132,84": 2133,
    "44,49": 2134,
    "493,67": 2135,
    "2135,78": 2136,
    "609,84": 2137,
    "893,68": 2138,
    "2138,73": 2139,
    "1390,79": 2140,
    "2140,74": 2141,
    "251,72": 2142,
    "2142,64": 2143,
    "688,68": 2144,
    "2144,60": 2145,
    "146,73": 2146,
    "453,62": 2147,
    "1271,1": 2148,
    "321,68": 2149,
    "2149,73": 2150,
    "87,87": 2151,
    "2151,1": 2152,
    "1273,79": 2153,
    "2153,77": 2154,
    "2154,80": 2155,
    "1718,84": 2156,
    "1744,68": 2157,
    "31,64": 2158,
    "807,60": 2159,
    "2159,73": 2160,
    "18,77": 2161,
    "2161,63": 2162,
    "321,71": 2163,
    "136,80": 2164,
    "2164,75": 2165,
    "327,78": 2166,
    "17,1": 2167,
    "1463,77": 2168,
    "895,72": 2169,
    "2169,64": 2170,
    "2170,73": 2171,
    "1449,60": 2172,
    "636,78": 2173,
    "2173,64": 2174,
    "2174,71": 2175,
    "2175,65": 2176,
    "85,64": 2177,
    "1723,63": 2178,
    "77,84": 2179,
    "515,79": 2180,
    "2180,64": 2181,
    "49,71": 2182,
    "1534,73": 2183,
    "48,47": 2184,
    "1449,71": 2185,
    "335,79": 2186,
    "2186,80": 2187,
    "2187,77": 2188,
    "1142,72": 2189,
    "609,1": 2190,
    "15,9": 2191,
    "2191,16": 2192,
    "2192,24": 2193,
    "21,25": 2194,
    "968,1": 2195,
    "2097,64": 2196,
    "2196,64": 2197,
    "13,8": 2198,
    "226,68": 2199,
    "2199,77": 2200,
    "1848,78": 2201,
    "174,63": 2202,
    "308,62": 2203,
    "2069,63": 2204,
    "64,80": 2205,
    "2205,63": 2206,
    "1768,72": 2207,
    "427,71": 2208,
    "52,8": 2209,
    "366,1": 2210,
    "98,61": 2211,
    "2211,64": 2212,
    "41,1": 2213,
    "1893,60": 2214,
    "84,85": 2215,
    "2215,60": 2216,
    "2216,73": 2217,
    "2217,79": 2218,
    "838,80": 2219,
    "2219,72": 2220,
    "202,78": 2221,
    "2221,64": 2222,
    "82,73": 2223,
    "871,80": 2224,
    "77,9": 2225,
    "125,79": 2226,
    "2226,74": 2227,
    "333,81": 2228,
    "2228,64": 2229,
    "66,84": 2230,
    "2230,75": 2231,
    "895,77": 2232,
    "2232,84": 2233,
    "2233,1": 2234,
    "134,64": 2235,
    "2235,63": 2236,
    "268,68": 2237,
    "2237,73": 2238,
    "2237,74": 2239,
    "2239,73": 2240,
    "1462,68": 2241,
    "19,8": 2242,
    "85,84": 2243,
    "2243,72": 2244,
    "285,64": 2245,
    "2245,78": 2246,
    "51,38": 2247,
    "2247,38": 2248,
    "1476,63": 2249,
    "1245,64": 2250,
    "2250,71": 2251,
    "2251,74": 2252,
    "2252,75": 2253,
    "62,70": 2254,
    "924,80": 2255,
    "69,74": 2256,
    "341,63": 2257,
    "2060,60": 2258,
    "455,64": 2259,
    "971,64": 2260,
    "2064,1": 2261,
    "200,64": 2262,
    "134,60": 2263,
    "2263,73": 2264,
    "52,68": 2265,
    "2265,73": 2266,
    "2266,79": 2267,
    "2267,64": 2268,
    "2268,77": 2269,
    "1,48": 2270,
    "2270,62": 2271,
    "2271,74": 2272,
    "24,5": 2273,
    "64,76": 2274,
    "2274,80": 2275,
    "11,15": 2276,
    "2276,15": 2277,
    "549,79": 2278,
    "136,79": 2279,
    "1248,78": 2280,
    "48,31": 2281,
    "2281,43": 2282,
    "1647,1": 2283,
    "77,75": 2284,
    "966,71": 2285,
    "2285,64": 2286,
    "1906,71": 2287,
    "2287,68": 2288,
    "2250,77": 2289,
    "670,78": 2290,
    "1908,64": 2291,
    "2291,73": 2292,
    "2292,79": 2293,
    "339,79": 2294,
    "835,64": 2295,
    "2295,71": 2296,
    "198,73": 2297,
    "289,70": 2298,
    "2298,64": 2299,
    "2299,71": 2300,
    "551,60": 2301,
    "2301,68": 2302,
    "1521,68": 2303,
    "2303,78": 2304,
    "419,1": 2305,
    "420,73": 2306,
    "74,68": 2307,
    "2307,63": 2308,
    "24,1": 2309,
    "1982,79": 2310,
    "2310,68": 2311,
    "2311,60": 2312,
    "45,8": 2313,
    "330,68": 2314,
    "2314,79": 2315,
    "266,80": 2316,
    "2316,77": 2317,
    "292,1": 2318,
    "551,64": 2319,
    "2319,63": 2320,
    "1205,77": 2321,
    "2321,62": 2322,
    "218,78": 2323,
    "2323,1": 2324,
    "1038,63": 2325,
    "157,1": 2326,
    "128,64": 2327,
    "2327,73": 2328,
    "48,84": 2329,
    "2329,77": 2330,
    "1764,1": 2331,
    "291,80": 2332,
    "666,1": 2333,
    "1899,68": 2334,
    "2334,73": 2335,
    "546,77": 2336,
    "20,9": 2337,
    "2337,16": 2338,
    "2338,24": 2339,
    "311,79": 2340,
    "239,82": 2341,
    "2341,64": 2342,
    "2342,81": 2343,
    "2343,64": 2344,
    "397,74": 2345,
    "1130,65": 2346,
    "2346,1": 2347,
    "343,64": 2348,
    "2348,78": 2349,
    "1301,78": 2350,
    "415,77": 2351,
    "2351,60": 2352,
    "811,61": 2353,
    "2353,64": 2354,
    "2354,71": 2355,
    "68,12": 2356,
    "2356,78": 2357,
    "2357,67": 2358,
    "807,68": 2359,
    "144,64": 2360,
    "2360,62": 2361,
    "2361,68": 2362,
    "2362,60": 2363,
    "892,61": 2364,
    "2364,13": 2365,
    "1288,60": 2366,
    "211,77": 2367,
    "1415,12": 2368,
    "2368,1": 2369,
    "1010,77": 2370,
    "2370,66": 2371,
    "249,79": 2372,
    "555,72": 2373,
    "295,74": 2374,
    "2374,77": 2375,
    "1,64": 2376,
    "200,62": 2377,
    "310,74": 2378,
    "2378,71": 2379,
    "2379,68": 2380,
    "2380,60": 2381,
    "1130,76": 2382,
    "2382,80": 2383,
    "1,87": 2384,
    "2384,87": 2385,
    "2385,1": 2386,
    "408,64": 2387,
    "2387,73": 2388,
    "636,72": 2389,
    "2265,70": 2390,
    "1589,79": 2391,
    "2391,64": 2392,
    "266,1": 2393,
    "10,10": 2394,
    "54,60": 2395,
    "2395,73": 2396,
    "2396,70": 2397,
    "2397,64": 2398,
    "2398,64": 2399,
    "418,75": 2400,
    "179,1": 2401,
    "896,73": 2402,
    "2056,79": 2403,
    "1128,9": 2404,
    "2404,30": 2405,
    "2405,66": 2406,
    "2406,60": 2407,
    "2407,81": 2408,
    "2408,64": 2409,
    "353,78": 2410,
    "2410,1": 2411,
    "37,64": 2412,
    "2412,60": 2413,
    "2413,77": 2414,
    "2414,78": 2415,
    "2415,79": 2416,
    "235,77": 2417,
    "2417,60": 2418,
    "1296,64": 2419,
    "2419,75": 2420,
    "1,62": 2421,
    "2421,64": 2422,
    "1582,1": 2423,
    "118,1": 2424,
    "437,60": 2425,
    "2425,73": 2426,
    "1461,71": 2427,
    "2427,64": 2428,
    "190,79": 2429,
    "311,85": 2430,
    "2430,68": 2431,
    "2431,73": 2432,
    "1130,82": 2433,
    "30,65": 2434,
    "2434,77": 2435,
    "2435,68": 2436,
    "61,61": 2437,
    "2437,86": 2438,
    "559,78": 2439,
    "427,63": 2440,
    "762,14": 2441,
    "2441,78": 2442,
    "2442,80": 2443,
    "419,78": 2444,
    "2444,79": 2445,
    "693,60": 2446,
    "2446,62": 2447,
    "2447,78": 2448,
    "774,84": 2449,
    "52,64": 2450,
    "2450,78": 2451,
    "2451,79": 2452,
    "1899,73": 2453,
    "392,65": 2454,
    "651,74": 2455,
    "2455,73": 2456,
    "2172,66": 2457,
    "333,61": 2458,
    "1233,72": 2459,
    "2459,64": 2460,
    "2460,77": 2461,
    "251,62": 2462,
    "2462,70": 2463,
    "2158,64": 2464,
    "2464,77": 2465,
    "138,65": 2466,
    "345,83": 2467,
    "42,70": 2468,
    "328,1": 2469,
    "1337,64": 2470,
    "2078,12": 2471,
    "2471,74": 2472,
    "2472,73": 2473,
    "2473,64": 2474,
    "272,74": 2475,
    "2475,82": 2476,
    "136,73": 2477,
    "2348,73": 2478,
    "1268,71": 2479,
    "777,68": 2480,
    "2480,74": 2481,
    "2081,79": 2482,
    "1275,62": 2483,
    "2483,71": 2484,
    "308,68": 2485,
    "37,13": 2486,
    "220,77": 2487,
    "764,78": 2488,
    "2488,79": 2489,
    "2489,64": 2490,
    "2490,72": 2491,
    "2009,79": 2492,
    "2131,73": 2493,
    "2493,79": 2494,
    "955,62": 2495,
    "2495,80": 2496,
    "476,84": 2497,
    "136,63": 2498,
    "2498,80": 2499,
    "2499,62": 2500,
    "80,63": 2501,
    "610,79": 2502,
    "537,83": 2503,
    "1131,79": 2504,
    "159,78": 2505,
    "2505,64": 2506,
    "971,71": 2507,
    "2507,64": 2508,
    "73,12": 2509,
    "589,60": 2510,
    "2510,79": 2511,
    "12,12": 2512,
    "2512,1": 2513,
    "571,71": 2514,
    "2514,74": 2515,
    "2515,66": 2516,
    "1461,68": 2517,
    "2517,79": 2518,
    "2131,66": 2519,
    "1296,77": 2520,
    "672,84": 2521,
    "50,73": 2522,
    "2522,68": 2523,
    "2523,81": 2524,
    "856,73": 2525,
    "148,68": 2526,
    "2526,66": 2527,
    "2527,67": 2528,
    "64,70": 2529,
    "8,11": 2530,
    "2530,1": 2531,
    "49,44": 2532,
    "1685,74": 2533,
    "2533,65": 2534,
    "2534,1": 2535,
    "1,27": 2536,
    "122,71": 2537,
    "895,1": 2538,
    "1784,74": 2539,
    "2539,71": 2540,
    "2540,63": 2541,
    "149,68": 2542,
    "2542,73": 2543,
    "1058,72": 2544,
    "2544,75": 2545,
    "2545,68": 2546,
    "2546,74": 2547,
    "82,78": 2548,
    "162,68": 2549,
    "2549,73": 2550,
    "239,80": 2551,
    "2551,73": 2552,
    "2552,63": 2553,
    "310,1": 2554,
    "583,78": 2555,
    "2555,67": 2556,
    "504,8": 2557,
    "552,60": 2558,
    "1977,64": 2559,
    "2559,78": 2560,
    "2560,72": 2561,
    "2561,60": 2562,
    "337,60": 2563,
    "77,80": 2564,
    "2564,78": 2565,
    "968,77": 2566,
    "2566,80": 2567,
    "2567,60": 2568,
    "233,64": 2569,
    "2569,78": 2570,
    "60,65": 2571,
    "2571,79": 2572,
    "2572,64": 2573,
    "2179,73": 2574,
    "321,75": 2575,
    "157,64": 2576,
    "2576,64": 2577,
    "83,8": 2578,
    "809,77": 2579,
    "67,71": 2580,
    "470,62": 2581,
    "16,25": 2582,
    "715,77": 2583,
    "2583,79": 2584,
    "2584,67": 2585,
    "2585,60": 2586,
    "2586,66": 2587,
    "35,41": 2588,
    "2588,1": 2589,
    "1348,73": 2590,
    "2590,66": 2591,
    "585,78": 2592,
    "678,67": 2593,
    "2593,64": 2594,
    "157,66": 2595,
    "949,63": 2596,
    "106,77": 2597,
    "12,70": 2598,
    "2598,73": 2599,
    "2599,74": 2600,
    "2600,82": 2601,
    "179,62": 2602,
    "1741,78": 2603,
    "2603,62": 2604,
    "2604,67": 2605,
    "182,84": 2606,
    "2606,73": 2607,
    "2607,74": 2608,
    "2608,72": 2609,
    "1438,64": 2610,
    "2610,73": 2611,
    "341,66": 2612,
    "1,66": 2613,
    "1160,1": 2614,
    "2614,74": 2615,
    "2615,65": 2616,
    "2616,1": 2617,
    "71,72": 2618,
    "1057,63": 2619,
    "2177,61": 2620,
    "1899,64": 2621,
    "84,68": 2622,
    "2622,73": 2623,
    "15,8": 2624,
    "2624,9": 2625,
    "2625,16": 2626,
    "182,60": 2627,
    "198,70": 2628,
    "2470,77": 2629,
    "341,78": 2630,
    "2166,79": 2631,
    "68,83": 2632,
    "79,84": 2633,
    "2633,1": 2634,
    "60,72": 2635,
    "2635,75": 2636,
    "1905,79": 2637,
    "1461,64": 2638,
    "2638,77": 2639,
    "30,33": 2640,
    "1423,64": 2641,
    "2641,73": 2642,
    "2642,79": 2643,
    "25,52": 2644,
    "2644,68": 2645,
    "2645,70": 2646,
    "333,75": 2647,
    "1202,74": 2648,
    "2648,72": 2649,
    "321,62": 2650,
    "2117,74": 2651,
    "2651,73": 2652,
    "2652,64": 2653,
    "23,11": 2654,
    "2654,15": 2655,
    "2655,15": 2656,
    "2656,15": 2657,
    "1266,80": 2658,
    "2658,77": 2659,
    "1899,80": 2660,
    "83,7": 2661,
    "818,79": 2662,
    "2662,64": 2663,
    "2663,68": 2664,
    "2664,73": 2665,
    "439,72": 2666,
    "2666,74": 2667,
    "2667,73": 2668,
    "335,60": 2669,
    "2669,78": 2670,
    "1756,75": 2671,
    "925,71": 2672,
    "2672,63": 2673,
    "933,73": 2674,
    "2674,66": 2675,
    "16,24": 2676,
    "2676,24": 2677,
    "34,60": 2678,
    "892,78": 2679,
    "2679,67": 2680,
    "2680,74": 2681,
    "14,67": 2682,
    "2510,71": 2683,
    "2683,64": 2684,
    "69,64": 2685,
    "1899,77": 2686,
    "177,78": 2687,
    "1348,60": 2688,
    "1125,68": 2689,
    "2689,73": 2690,
    "61,1": 2691,
    "17,15": 2692,
    "2524,64": 2693,
    "2693,77": 2694,
    "609,78": 2695,
    "2695,74": 2696,
    "2696,1": 2697,
    "213,60": 2698,
    "2698,79": 2699,
    "2699,68": 2700,
    "2700,74": 2701,
    "31,74": 2702,
    "2702,79": 2703,
    "2703,78": 2704,
    "2704,82": 2705,
    "2705,60": 2706,
    "316,1": 2707,
    "7,71": 2708,
    "2708,84": 2709,
    "2709,77": 2710,
    "2710,68": 2711,
    "2711,62": 2712,
    "1526,62": 2713,
    "2713,67": 2714,
    "2203,64": 2715,
    "537,62": 2716,
    "2716,79": 2717,
    "1851,87": 2718,
    "2718,87": 2719,
    "2719,1": 2720,
    "2526,63": 2721,
    "2721,66": 2722,
    "84,8": 2723,
    "12,63": 2724,
    "2724,60": 2725,
    "1252,64": 2726,
    "807,64": 2727,
    "1147,67": 2728,
    "49,1": 2729,
    "583,85": 2730,
    "2730,64": 2731,
    "2674,72": 2732,
    "2732,60": 2733,
    "2583,73": 2734,
    "2734,64": 2735,
    "2735,66": 2736,
    "703,68": 2737,
    "2737,74": 2738,
    "2738,80": 2739,
    "853,72": 2740,
    "66,79": 2741,
    "330,1": 2742,
    "341,79": 2743,
    "386,79": 2744,
    "2501,63": 2745,
    "2745,67": 2746,
    "285,60": 2747,
    "3,33": 2748,
    "2748,64": 2749,
    "1111,72": 2750,
    "1921,60": 2751,
    "2751,71": 2752,
    "581,68": 2753,
    "2753,73": 2754,
    "9,1": 2755,
    "1127,62": 2756,
    "1157,74": 2757,
    "316,68": 2758,
    "2758,79": 2759,
    "1849,79": 2760,
    "774,75": 2761,
    "2761,79": 2762,
    "43,64": 2763,
    "2763,82": 2764,
    "2764,78": 2765,
    "583,62": 2766,
    "2766,79": 2767,
    "319,1": 2768,
    "1169,73": 2769,
    "311,66": 2770,
    "393,66": 2771,
    "35,60": 2772,
    "2772,79": 2773,
    "2773,67": 2774,
    "2774,64": 2775,
    "2775,77": 2776,
    "316,81": 2777,
    "2777,60": 2778,
    "2576,1": 2779,
    "419,64": 2780,
    "538,63": 2781,
    "866,68": 2782,
    "175,78": 2783,
    "118,78": 2784,
    "2050,72": 2785,
    "2785,60": 2786,
    "2786,79": 2787,
    "375,64": 2788,
    "886,64": 2789,
    "2789,72": 2790,
    "2790,61": 2791,
    "2791,71": 2792,
    "1089,60": 2793,
    "2793,71": 2794,
    "816,1": 2795,
    "1131,64": 2796,
    "2796,73": 2797,
    "1919,64": 2798,
    "1624,75": 2799,
    "327,72": 2800,
    "2800,61": 2801,
    "2801,64": 2802,
    "35,71": 2803,
    "2803,74": 2804,
    "2804,77": 2805,
    "319,64": 2806,
    "1,32": 2807,
    "2807,74": 2808,
    "321,66": 2809,
    "2809,64": 2810,
    "515,84": 2811,
    "566,77": 2812,
    "2812,64": 2813,
    "1298,74": 2814,
    "2814,77": 2815,
    "17,12": 2816,
    "157,73": 2817,
    "2817,68": 2818,
    "2635,64": 2819,
    "2819,73": 2820,
    "1157,64": 2821,
    "343,74": 2822,
    "2822,80": 2823,
    "2823,78": 2824,
    "67,84": 2825,
    "853,64": 2826,
    "2826,1": 2827,
    "703,77": 2828,
    "2828,74": 2829,
    "1309,66": 2830,
    "375,63": 2831,
    "737,1": 2832,
    "1938,74": 2833,
    "589,64": 2834,
    "62,62": 2835,
    "549,68": 2836,
    "2836,79": 2837,
    "515,73": 2838,
    "138,78": 2839,
    "2839,64": 2840,
    "1851,84": 2841,
    "2841,64": 2842,
    "2842,60": 2843,
    "2400,67": 2844,
    "665,71": 2845,
    "2845,81": 2846,
    "1883,79": 2847,
    "51,1": 2848,
    "1130,73": 2849,
    "2849,66": 2850,
    "2850,79": 2851,
    "49,64": 2852,
    "2852,71": 2853,
    "2853,64": 2854,
    "2328,1": 2855,
    "457,77": 2856,
    "1933,79": 2857,
    "2857,1": 2858,
    "1376,74": 2859,
    "72,78": 2860,
    "886,1": 2861,
    "23,8": 2862,
    "2862,9": 2863,
    "794,60": 2864,
    "2019,64": 2865,
    "2865,73": 2866,
    "78,65": 2867,
    "2867,64": 2868,
    "232,70": 2869,
    "2412,61": 2870,
    "2870,77": 2871,
    "949,60": 2872,
    "343,63": 2873,
    "6,78": 2874,
    "66,74": 2875,
    "2875,81": 2876,
    "2876,64": 2877,
    "2877,77": 2878,
    "2878,73": 2879,
    "70,78": 2880,
    "959,66": 2881,
    "2881,64": 2882,
    "2537,63": 2883,
    "333,79": 2884,
    "2884,64": 2885,
    "2885,77": 2886,
    "398,64": 2887,
    "2737,71": 2888,
    "581,71": 2889,
    "2889,68": 2890,
    "2890,73": 2891,
    "440,1": 2892,
    "2221,79": 2893,
    "16,5": 2894,
    "2894,1": 2895,
    "1567,1": 2896,
    "678,80": 2897,
    "432,77": 2898,
    "2327,77": 2899,
    "51,77": 2900,
    "1252,71": 2901,
    "38,8": 2902,
    "51,13": 2903,
    "249,73": 2904,
    "787,1": 2905,
    "200,1": 2906,
    "581,80": 2907,
    "2907,78": 2908,
    "1642,82": 2909,
    "2325,1": 2910,
    "1458,60": 2911,
    "135,68": 2912,
    "925,81": 2913,
    "2913,64": 2914,
    "2914,77": 2915,
    "345,77": 2916,
    "2916,63": 2917,
    "2917,64": 2918,
    "2874,1": 2919,
    "933,62": 2920,
    "2920,64": 2921,
    "2921,72": 2922,
    "2922,61": 2923,
    "1169,78": 2924,
    "1907,68": 2925,
    "2925,63": 2926,
    "43,32": 2927,
    "1929,64": 2928,
    "170,74": 2929,
    "2929,73": 2930,
    "17,11": 2931,
    "2931,1": 2932,
    "682,80": 2933,
    "2265,71": 2934,
    "933,72": 2935,
    "2935,74": 2936,
    "17,8": 2937,
    "159,82": 2938,
    "2938,1": 2939,
    "383,77": 2940,
    "2940,72": 2941,
    "2941,60": 2942,
    "539,63": 2943,
    "16,13": 2944,
    "32,71": 2945,
    "452,71": 2946,
    "2946,64": 2947,
    "1097,72": 2948,
    "429,64": 2949,
    "2949,60": 2950,
    "2950,78": 2951,
    "2951,79": 2952,
    "1172,71": 2953,
    "664,62": 2954,
    "2954,77": 2955,
    "2955,74": 2956,
    "453,73": 2957,
    "2957,66": 2958,
    "583,64": 2959,
    "2959,78": 2960,
    "648,74": 2961,
    "649,74": 2962,
    "1011,78": 2963,
    "2963,71": 2964,
    "2964,60": 2965,
    "991,80": 2966,
    "2966,78": 2967,
    "2360,64": 2968,
    "78,71": 2969,
    "2969,60": 2970,
    "2970,73": 2971,
    "295,64": 2972,
    "2060,72": 2973,
    "386,60": 2974,
    "2974,73": 2975,
    "2975,66": 2976,
    "1011,61": 2977,
    "85,1": 2978,
    "2177,1": 2979,
    "1455,72": 2980,
    "797,63": 2981,
    "2981,1": 2982,
    "45,67": 2983,
    "2983,84": 2984,
    "2984,78": 2985,
    "2985,68": 2986,
    "1912,78": 2987,
    "1348,79": 2988,
    "2988,68": 2989,
    "2989,74": 2990,
    "2990,73": 2991,
    "195,80": 2992,
    "2992,77": 2993,
    "2007,60": 2994,
    "1353,65": 2995,
    "2995,64": 2996,
    "292,63": 2997,
    "82,70": 2998,
    "739,78": 2999,
    "2999,78": 3000,
    "72,73": 3001,
    "3001,60": 3002,
    "3002,78": 3003,
    "1462,64": 3004,
    "3004,77": 3005,
    "70,37": 3006,
    "3006,85": 3007,
    "1263,78": 3008,
    "1207,71": 3009,
    "1752,60": 3010,
    "3010,63": 3011,
    "850,60": 3012,
    "816,77": 3013,
    "2297,64": 3014,
    "1938,1": 3015,
    "2260,77": 3016,
    "50,38": 3017,
    "703,80": 3018,
    "3018,71": 3019,
    "3019,60": 3020,
    "2580,74": 3021,
    "182,80": 3022,
    "3022,79": 3023,
    "392,81": 3024,
    "1169,74": 3025,
    "220,1": 3026,
    "2860,65": 3027,
    "2743,68": 3028,
    "3028,62": 3029,
    "1340,73": 3030,
    "3030,79": 3031,
    "69,80": 3032,
    "3032,78": 3033,
    "3033,79": 3034,
    "1139,64": 3035,
    "3035,77": 3036,
    "3036,68": 3037,
    "80,61": 3038,
    "3038,68": 3039,
    "3039,62": 3040,
    "498,84": 3041,
    "1288,67": 3042,
    "285,68": 3043,
    "1390,12": 3044,
    "3044,1": 3045,
    "563,78": 3046,
    "3046,67": 3047,
    "3047,74": 3048,
    "2279,67": 3049,
    "22,15": 3050,
    "249,64": 3051,
    "3051,78": 3052,
    "200,68": 3053,
    "3053,71": 3054,
    "3054,84": 3055,
    "266,81": 3056,
    "3056,64": 3057,
    "1064,68": 3058,
    "777,66": 3059,
    "3059,60": 3060,
    "3060,73": 3061,
    "182,63": 3062,
    "959,63": 3063,
    "3063,77": 3064,
    "3064,64": 3065,
    "1154,81": 3066,
    "3066,64": 3067,
    "3067,73": 3068,
    "1058,66": 3069,
    "105,68": 3070,
    "2716,80": 3071,
    "457,72": 3072,
    "2115,64": 3073,
    "2231,79": 3074,
    "400,66": 3075,
    "3075,64": 3076,
    "60,12": 3077,
    "2007,1": 3078,
    "169,1": 3079,
    "46,1": 3080,
    "1089,77": 3081,
    "703,1": 3082,
    "1058,1": 3083,
    "45,71": 3084,
    "3084,64": 3085,
    "3085,60": 3086,
    "3086,78": 3087,
    "389,73": 3088,
    "3088,66": 3089,
    "334,70": 3090,
    "179,66": 3091,
    "1332,71": 3092,
    "2104,1": 3093,
    "62,13": 3094,
    "88,88": 3095,
    "32,67": 3096,
    "3096,64": 3097,
    "3097,64": 3098,
    "3098,77": 3099,
    "24,79": 3100,
    "3100,67": 3101,
    "129,60": 3102,
    "3102,72": 3103,
    "3103,64": 3104,
    "674,60": 3105,
    "3105,72": 3106,
    "3106,75": 3107,
    "3107,71": 3108,
    "83,75": 3109,
    "968,64": 3110,
    "342,73": 3111,
    "1058,63": 3112,
    "21,11": 3113,
    "3113,1": 3114,
    "904,71": 3115,
    "515,66": 3116,
    "2678,77": 3117,
    "3117,71": 3118,
    "1545,78": 3119,
    "61,69": 3120,
    "3120,64": 3121,
    "3121,62": 3122,
    "3122,79": 3123,
    "153,60": 3124,
    "3124,61": 3125,
    "3125,82": 3126,
    "316,64": 3127,
    "3127,78": 3128,
    "2002,71": 3129,
    "3129,79": 3130,
    "16,11": 3131,
    "3131,1": 3132,
    "1265,72": 3133,
    "3133,64": 3134,
    "1505,64": 3135,
    "3135,73": 3136,
    "2654,1": 3137,
    "138,60": 3138,
    "321,77": 3139,
    "3139,60": 3140,
    "649,63": 3141,
    "3139,79": 3142,
    "1642,75": 3143,
    "1127,61": 3144,
    "33,45": 3145,
    "84,77": 3146,
    "1027,14": 3147,
    "3147,78": 3148,
    "3148,80": 3149,
    "2900,84": 3150,
    "330,64": 3151,
    "3151,62": 3152,
    "425,73": 3153,
    "895,63": 3154,
    "9,16": 3155,
    "3155,24": 3156,
    "504,62": 3157,
    "1851,14": 3158,
    "3158,78": 3159,
    "207,80": 3160,
    "3160,78": 3161,
    "3161,60": 3162,
    "3162,71": 3163,
    "73,9": 3164,
    "537,79": 3165,
    "3165,64": 3166,
    "949,1": 3167,
    "688,67": 3168,
    "3168,60": 3169,
    "330,63": 3170,
    "1169,63": 3171,
    "128,63": 3172,
    "211,79": 3173,
    "2182,64": 3174,
    "3174,68": 3175,
    "3175,71": 3176,
    "3176,60": 3177,
    "3177,83": 3178,
    "268,1": 3179,
    "207,81": 3180,
    "437,68": 3181,
    "3181,62": 3182,
    "3182,64": 3183,
    "1265,66": 3184,
    "60,1": 3185,
    "559,68": 3186,
    "3186,78": 3187,
    "1000,16": 3188,
    "78,9": 3189,
    "327,1": 3190,
    "2179,1": 3191,
    "159,66": 3192,
    "31,32": 3193,
    "1561,82": 3194,
    "1480,68": 3195,
    "2185,60": 3196,
    "1058,81": 3197,
    "389,74": 3198,
    "3198,80": 3199,
    "38,46": 3200,
    "2689,71": 3201,
    "2633,71": 3202,
    "2819,1": 3203,
    "64,13": 3204,
    "3204,66": 3205,
    "452,79": 3206,
    "941,73": 3207,
    "846,64": 3208,
    "2477,79": 3209,
    "1027,7": 3210,
    "2177,73": 3211,
    "1417,63": 3212,
    "2835,64": 3213,
    "3213,78": 3214,
    "3214,78": 3215,
    "809,79": 3216,
    "523,64": 3217,
    "3217,71": 3218,
    "2662,60": 3219,
    "3219,73": 3220,
    "1043,84": 3221,
    "3221,1": 3222,
    "1,78": 3223,
    "3223,79": 3224,
    "1058,71": 3225,
    "3225,65": 3226,
    "2834,73": 3227,
    "2852,78": 3228,
    "3228,79": 3229,
    "105,78": 3230,
    "3213,75": 3231,
    "3231,79": 3232,
    "1903,62": 3233,
    "3233,68": 3234,
    "1,16": 3235,
    "2783,64": 3236,
    "2254,1": 3237,
    "3237,74": 3238,
    "3238,65": 3239,
    "3239,1": 3240,
    "665,68": 3241,
    "3241,63": 3242,
    "2132,60": 3243,
    "3243,61": 3244,
    "343,71": 3245,
    "583,79": 3246,
    "3246,60": 3247,
    "3247,66": 3248,
    "1499,64": 3249,
    "581,64": 3250,
    "190,63": 3251,
    "916,68": 3252,
    "3252,60": 3253,
    "1461,80": 3254,
    "3254,79": 3255,
    "774,71": 3256,
    "1236,60": 3257,
    "578,71": 3258,
    "3258,80": 3259,
    "159,72": 3260,
    "3260,61": 3261,
    "257,68": 3262,
    "1207,66": 3263,
    "3263,74": 3264,
    "36,77": 3265,
    "3265,60": 3266,
    "3266,72": 3267,
    "386,1": 3268,
    "157,60": 3269,
    "3269,73": 3270,
    "389,77": 3271,
    "3271,74": 3272,
    "501,79": 3273,
    "3273,67": 3274,
    "283,71": 3275,
    "3275,63": 3276,
    "1185,1": 3277,
    "162,64": 3278,
    "3278,71": 3279,
    "343,78": 3280,
    "3280,68": 3281,
    "1074,64": 3282,
    "1130,60": 3283,
    "3283,79": 3284,
    "47,64": 3285,
    "3285,75": 3286,
    "3286,80": 3287,
    "3287,61": 3288,
    "1977,68": 3289,
    "1899,71": 3290,
    "136,72": 3291,
    "3291,1": 3292,
    "1010,75": 3293,
    "545,60": 3294,
    "1150,60": 3295,
    "144,68": 3296,
    "3296,62": 3297,
    "1041,84": 3298,
    "20,11": 3299,
    "3299,1": 3300,
    "1682,73": 3301,
    "56,62": 3302,
    "3302,63": 3303,
    "3303,74": 3304,
    "1532,74": 3305,
    "3305,1": 3306,
    "34,79": 3307,
    "3307,79": 3308,
    "3308,68": 3309,
    "3309,73": 3310,
    "3310,66": 3311,
    "132,64": 3312,
    "2726,60": 3313,
    "3313,73": 3314,
    "52,60": 3315,
    "3315,77": 3316,
    "2512,87": 3317,
    "2211,71": 3318,
    "212,60": 3319,
    "678,60": 3320,
    "3320,68": 3321,
    "3321,73": 3322,
    "198,63": 3323,
    "3323,60": 3324,
    "3324,84": 3325,
    "8,9": 3326,
    "3326,16": 3327,
    "3327,24": 3328,
    "2685,62": 3329,
    "1343,60": 3330,
    "311,72": 3331,
    "3331,64": 3332,
    "321,61": 3333,
    "3333,71": 3334,
    "581,79": 3335,
    "1682,81": 3336,
    "917,68": 3337,
    "1180,67": 3338,
    "2115,68": 3339,
    "3339,66": 3340,
    "3340,77": 3341,
    "330,84": 3342,
    "251,71": 3343,
    "2050,77": 3344,
    "306,79": 3345,
    "2860,64": 3346,
    "3346,71": 3347,
    "429,74": 3348,
    "3348,73": 3349,
    "3349,66": 3350,
    "3350,64": 3351,
    "272,60": 3352,
    "66,1": 3353,
    "549,64": 3354,
    "200,67": 3355,
    "3146,68": 3356,
    "3356,62": 3357,
    "2256,68": 3358,
    "3358,73": 3359,
    "1907,64": 3360,
    "3360,73": 3361,
    "128,71": 3362,
    "3362,68": 3363,
    "3363,64": 3364,
    "55,60": 3365,
    "73,61": 3366,
    "3366,78": 3367,
    "3367,75": 3368,
    "2743,67": 3369,
    "12,65": 3370,
    "3370,68": 3371,
    "941,1": 3372,
    "3372,72": 3373,
    "3373,68": 3374,
    "3374,73": 3375,
    "319,68": 3376,
    "3376,64": 3377,
    "2279,64": 3378,
    "768,73": 3379,
    "3245,71": 3380,
    "2737,60": 3381,
    "1058,79": 3382,
    "3382,1": 3383,
    "2838,66": 3384,
    "578,64": 3385,
    "1534,72": 3386,
    "2295,77": 3387,
    "383,78": 3388,
    "3388,79": 3389,
    "3389,60": 3390,
    "70,80": 3391,
    "1933,60": 3392,
    "3329,79": 3393,
    "386,64": 3394,
    "3394,63": 3395,
    "3395,1": 3396,
    "310,67": 3397,
    "3397,74": 3398,
    "3398,71": 3399,
    "1252,1": 3400,
    "853,71": 3401,
    "3401,68": 3402,
    "3402,60": 3403,
    "3403,72": 3404,
    "1348,62": 3405,
    "3405,60": 3406,
    "367,64": 3407,
    "3407,77": 3408,
    "375,75": 3409,
    "3409,64": 3410,
    "241,1": 3411,
    "208,67": 3412,
    "3412,82": 3413,
    "1268,60": 3414,
    "48,33": 3415,
    "32,38": 3416,
    "3416,48": 3417,
    "743,72": 3418,
    "2116,64": 3419,
    "3419,63": 3420,
    "609,63": 3421,
    "1058,61": 3422,
    "3422,68": 3423,
    "619,74": 3424,
    "3424,62": 3425,
    "3425,64": 3426,
    "308,60": 3427,
    "3427,79": 3428,
    "498,68": 3429,
    "3429,68": 3430,
    "609,79": 3431,
    "3431,67": 3432,
    "1102,72": 3433,
    "595,1": 3434,
    "3307,67": 3435,
    "3435,64": 3436,
    "207,62": 3437,
    "2346,64": 3438,
    "381,71": 3439,
    "509,68": 3440,
    "3440,74": 3441,
    "13,66": 3442,
    "3442,13": 3443,
    "3185,47": 3444,
    "3444,68": 3445,
    "251,60": 3446,
    "48,60": 3447,
    "3447,70": 3448,
    "3448,67": 3449,
    "825,12": 3450,
    "266,62": 3451,
    "415,78": 3452,
    "743,63": 3453,
    "1648,71": 3454,
    "1301,75": 3455,
    "857,80": 3456,
    "3456,71": 3457,
    "2784,68": 3458,
    "3458,60": 3459,
    "422,64": 3460,
    "3460,64": 3461,
    "136,78": 3462,
    "3462,78": 3463,
    "401,63": 3464,
    "1523,68": 3465,
    "3465,79": 3466,
    "2081,72": 3467,
    "584,67": 3468,
    "3468,79": 3469,
    "404,73": 3470,
    "3470,70": 3471,
    "545,79": 3472,
    "3472,67": 3473,
    "1058,75": 3474,
    "3474,64": 3475,
    "1775,1": 3476,
    "1236,68": 3477,
    "3477,73": 3478,
    "92,1": 3479,
    "1737,79": 3480,
    "3480,68": 3481,
    "3481,74": 3482,
    "732,78": 3483,
    "763,64": 3484,
    "3484,63": 3485,
    "317,60": 3486,
    "3486,68": 3487,
    "3487,73": 3488,
    "33,34": 3489,
    "3088,1": 3490,
    "179,60": 3491,
    "3491,63": 3492,
    "894,77": 3493,
    "925,63": 3494,
    "2115,60": 3495,
    "3495,71": 3496,
    "2564,75": 3497,
    "3497,79": 3498,
    "2830,67": 3499,
    "333,68": 3500,
    "3500,72": 3501,
    "14,63": 3502,
    "3502,68": 3503,
    "3503,81": 3504,
    "78,72": 3505,
    "3505,78": 3506,
    "3506,1": 3507,
    "162,78": 3508,
    "3508,62": 3509,
    "3509,80": 3510,
    "3510,78": 3511,
    "179,78": 3512,
    "70,74": 3513,
    "3376,62": 3514,
    "12,16": 3515,
    "198,81": 3516,
    "3516,64": 3517,
    "3517,77": 3518,
    "1917,64": 3519,
    "3519,64": 3520,
    "18,9": 3521,
    "3521,16": 3522,
    "3522,24": 3523,
    "3283,78": 3524,
    "3524,74": 3525,
    "853,74": 3526,
    "381,79": 3527,
    "3527,84": 3528,
    "319,71": 3529,
    "3529,64": 3530,
    "515,62": 3531,
    "3531,79": 3532,
    "16,8": 3533,
    "2959,63": 3534,
    "51,68": 3535,
    "794,78": 3536,
    "3536,79": 3537,
    "1086,64": 3538,
    "457,80": 3539,
    "3539,71": 3540,
    "13,9": 3541,
    "862,1": 3542,
    "2083,74": 3543,
    "457,73": 3544,
    "256,68": 3545,
    "38,79": 3546,
    "3546,60": 3547,
    "3547,71": 3548,
    "134,1": 3549,
    "3070,63": 3550,
    "539,66": 3551,
    "890,1": 3552,
    "1179,79": 3553,
    "226,78": 3554,
    "3554,60": 3555,
    "3555,80": 3556,
    "42,1": 3557,
    "226,81": 3558,
    "3558,60": 3559,
    "3559,79": 3560,
    "54,48": 3561,
    "3561,38": 3562,
    "456,79": 3563,
    "3563,64": 3564,
    "198,62": 3565,
    "3565,79": 3566,
    "1767,66": 3567,
    "3567,14": 3568,
    "1271,64": 3569,
    "1848,68": 3570,
    "3570,73": 3571,
    "233,82": 3572,
    "417,74": 3573,
    "3573,82": 3574,
    "3574,79": 3575,
    "3575,67": 3576,
    "2497,71": 3577,
    "77,1": 3578,
    "3578,71": 3579,
    "256,1": 3580,
    "3580,74": 3581,
    "3581,65": 3582,
    "3582,1": 3583,
    "122,63": 3584,
    "829,74": 3585,
    "94,14": 3586,
    "3586,79": 3587,
    "311,77": 3588,
    "2177,63": 3589,
    "3452,78": 3590,
    "1097,77": 3591,
    "3591,64": 3592,
    "3592,65": 3593,
    "470,1": 3594,
    "743,77": 3595,
    "27,1": 3596,
    "1256,85": 3597,
    "3597,64": 3598,
    "1265,77": 3599,
    "3599,1": 3600,
    "195,74": 3601,
    "1348,81": 3602,
    "3602,68": 3603,
    "3603,63": 3604,
    "173,78": 3605,
    "3605,1": 3606,
    "583,1": 3607,
    "1555,60": 3608,
    "3608,71": 3609,
    "3223,84": 3610,
    "3610,78": 3611,
    "3611,79": 3612,
    "3612,64": 3613,
    "2566,60": 3614,
    "807,67": 3615,
    "3615,74": 3616,
    "3616,77": 3617,
    "1,79": 3618,
    "3618,67": 3619,
    "3619,60": 3620,
    "3620,73": 3621,
    "3621,1": 3622,
    "1130,79": 3623,
    "546,63": 3624,
    "853,79": 3625,
    "1784,62": 3626,
    "3626,67": 3627,
    "106,68": 3628,
    "3628,74": 3629,
    "889,67": 3630,
    "552,74": 3631,
    "3631,71": 3632,
    "1561,74": 3633,
    "617,74": 3634,
    "3634,61": 3635,
    "3635,60": 3636,
    "3636,71": 3637,
    "3631,80": 3638,
    "1348,64": 3639,
    "3639,1": 3640,
    "70,1": 3641,
    "3641,38": 3642,
    "16,23": 3643,
    "1896,79": 3644,
    "3492,68": 3645,
    "1252,67": 3646,
    "392,78": 3647,
    "3647,79": 3648,
    "84,79": 3649,
    "3649,64": 3650,
    "1880,71": 3651,
    "207,1": 3652,
    "80,64": 3653,
    "3653,1": 3654,
    "241,60": 3655,
    "341,68": 3656,
    "3656,60": 3657,
    "3223,80": 3658,
    "316,77": 3659,
    "3659,68": 3660,
    "3660,62": 3661,
    "3661,67": 3662,
    "3662,1": 3663,
    "239,73": 3664,
    "170,64": 3665,
    "485,67": 3666,
    "34,47": 3667,
    "524,64": 3668,
    "295,60": 3669,
    "3669,79": 3670,
    "3670,74": 3671,
    "3038,71": 3672,
    "31,31": 3673,
    "3673,32": 3674,
    "515,61": 3675,
    "3675,60": 3676,
    "545,1": 3677,
    "420,72": 3678,
    "3678,68": 3679,
    "107,64": 3680,
    "381,70": 3681,
    "65,1": 3682,
    "560,74": 3683,
    "396,67": 3684,
    "841,63": 3685,
    "78,82": 3686,
    "3686,60": 3687,
    "423,71": 3688,
    "48,34": 3689,
    "3689,42": 3690,
    "3690,8": 3691,
    "1,68": 3692,
    "3692,73": 3693,
    "226,63": 3694,
    "81,84": 3695,
    "3695,82": 3696,
    "3696,64": 3697,
    "3697,68": 3698,
    "2835,60": 3699,
    "1849,61": 3700,
    "3700,74": 3701,
    "896,1": 3702,
    "1288,74": 3703,
    "3703,71": 3704,
    "3704,60": 3705,
    "453,85": 3706,
    "3706,64": 3707,
    "3707,73": 3708,
    "1057,60": 3709,
    "1078,67": 3710,
    "2223,64": 3711,
    "3154,1": 3712,
    "74,1": 3713,
    "3713,73": 3714,
    "3714,74": 3715,
    "2075,78": 3716,
    "2412,77": 3717,
    "3717,60": 3718,
    "3718,79": 3719,
    "1654,84": 3720,
    "3720,1": 3721,
    "2555,79": 3722,
    "63,66": 3723,
    "3618,74": 3724,
    "2295,73": 3725,
    "571,1": 3726,
    "65,66": 3727,
    "3727,67": 3728,
    "3728,60": 3729,
    "2501,68": 3730,
    "2284,74": 3731,
    "2875,68": 3732,
    "3732,73": 3733,
    "3733,66": 3734,
    "2169,61": 3735,
    "308,1": 3736,
    "3531,70": 3737,
    "2109,75": 3738,
    "3230,80": 3739,
    "3739,77": 3740,
    "2789,71": 3741,
    "58,58": 3742,
    "31,1": 3743,
    "1121,63": 3744,
    "1660,60": 3745,
    "1337,82": 3746,
    "3746,77": 3747,
    "3747,68": 3748,
    "968,60": 3749,
    "41,45": 3750,
    "665,62": 3751,
    "3751,60": 3752,
    "1933,68": 3753,
    "3753,73": 3754,
    "537,80": 3755,
    "573,60": 3756,
    "45,50": 3757,
    "1337,78": 3758,
    "1701,68": 3759,
    "266,66": 3760,
    "3760,73": 3761,
    "3761,68": 3762,
    "159,61": 3763,
    "3763,60": 3764,
    "3764,71": 3765,
    "3091,64": 3766,
    "159,84": 3767,
    "966,80": 3768,
    "38,30": 3769,
    "1268,74": 3770,
    "2678,78": 3771,
    "3771,79": 3772,
    "1876,63": 3773,
    "2875,79": 3774,
    "3774,68": 3775,
    "3775,60": 3776,
    "1337,68": 3777,
    "12,78": 3778,
    "3778,67": 3779,
    "1908,74": 3780,
    "3050,78": 3781,
    "949,78": 3782,
    "3782,78": 3783,
    "233,79": 3784,
    "1737,77": 3785,
    "198,85": 3786,
    "3786,64": 3787,
    "1301,79": 3788,
    "1103,64": 3789,
    "3789,77": 3790,
    "292,80": 3791,
    "3791,79": 3792,
    "1550,73": 3793,
    "3298,1": 3794,
    "2329,63": 3795,
    "2437,68": 3796,
    "12,84": 3797,
    "3797,64": 3798,
    "3798,60": 3799,
    "612,64": 3800,
    "3800,70": 3801,
    "489,64": 3802,
    "3802,84": 3803,
    "964,73": 3804,
    "3804,63": 3805,
    "476,67": 3806,
    "3806,64": 3807,
    "63,82": 3808,
    "3808,68": 3809,
    "583,61": 3810,
    "3810,80": 3811,
    "16,78": 3812,
    "3812,79": 3813,
    "1076,75": 3814,
    "3814,80": 3815,
    "3815,71": 3816,
    "537,84": 3817,
    "807,1": 3818,
    "1793,63": 3819,
    "1130,71": 3820,
    "6,1": 3821,
    "381,72": 3822,
    "892,16": 3823,
    "3823,24": 3824,
    "3293,71": 3825,
    "1749,73": 3826,
    "995,68": 3827,
    "2254,78": 3828,
    "3828,74": 3829,
    "3829,73": 3830,
    "1623,12": 3831,
    "3831,1": 3832,
    "42,60": 3833,
    "583,71": 3834,
    "415,80": 3835,
    "3545,73": 3836,
    "3672,64": 3837,
    "2948,60": 3838,
    "207,74": 3839,
    "1128,79": 3840,
    "3229,60": 3841,
    "1070,60": 3842,
    "30,71": 3843,
    "1085,60": 3844,
    "415,63": 3845,
    "63,79": 3846,
    "80,68": 3847,
    "3847,78": 3848,
    "64,65": 3849,
    "3849,65": 3850,
    "3731,77": 3851,
    "2551,78": 3852,
    "124,74": 3853,
    "3853,80": 3854,
    "3854,73": 3855,
    "329,60": 3856,
    "3856,79": 3857,
    "1337,1": 3858,
    "1796,82": 3859,
    "523,66": 3860,
    "3860,80": 3861,
    "3861,77": 3862,
    "64,67": 3863,
    "3863,60": 3864,
    "308,77": 3865,
    "158,62": 3866,
    "2027,79": 3867,
    "2018,1": 3868,
    "3112,1": 3869,
    "1324,61": 3870,
    "3649,67": 3871,
    "183,84": 3872,
    "3872,82": 3873,
    "3873,74": 3874,
    "3874,74": 3875,
    "1354,63": 3876,
    "253,71": 3877,
    "3877,71": 3878,
    "3878,60": 3879,
    "3879,63": 3880,
    "2,8": 3881,
    "509,64": 3882,
    "3882,77": 3883,
    "3883,74": 3884,
    "309,86": 3885,
    "1256,73": 3886,
    "3886,62": 3887,
    "1476,79": 3888,
    "41,64": 3889,
    "3889,74": 3890,
    "3890,73": 3891,
    "1521,77": 3892,
    "63,77": 3893,
    "3502,71": 3894,
    "10,1": 3895,
    "1521,74": 3896,
    "3896,73": 3897,
    "1400,81": 3898,
    "3898,68": 3899,
    "630,68": 3900,
    "38,1": 3901,
    "3515,24": 3902,
    "310,80": 3903,
    "3903,77": 3904,
    "272,1": 3905,
    "253,63": 3906,
    "1969,60": 3907,
    "239,66": 3908,
    "3908,60": 3909,
    "3909,73": 3910,
    "1801,73": 3911,
    "343,79": 3912,
    "195,64": 3913,
    "3913,63": 3914,
    "1356,77": 3915,
    "2838,78": 3916,
    "42,8": 3917,
    "1921,72": 3918,
    "3918,61": 3919,
    "3919,64": 3920,
    "3920,77": 3921,
    "9,31": 3922,
    "1888,64": 3923,
    "3923,73": 3924,
    "3847,71": 3925,
    "1271,79": 3926,
    "24,15": 3927,
    "3927,78": 3928,
    "690,64": 3929,
    "64,11": 3930,
    "3930,1": 3931,
    "1233,77": 3932,
    "3401,64": 3933,
    "256,78": 3934,
    "3934,1": 3935,
    "138,71": 3936,
    "3936,63": 3937,
    "3208,64": 3938,
    "3938,73": 3939,
    "18,12": 3940,
    "838,66": 3941,
    "3941,68": 3942,
    "3942,74": 3943,
    "3709,77": 3944,
    "1329,1": 3945,
    "251,81": 3946,
    "3144,71": 3947,
    "76,77": 3948,
    "450,79": 3949,
    "2707,60": 3950,
    "3950,77": 3951,
    "1624,70": 3952,
    "2054,74": 3953,
    "3953,73": 3954,
    "670,80": 3955,
    "3955,72": 3956,
    "466,64": 3957,
    "138,77": 3958,
    "3958,74": 3959,
    "3959,82": 3960,
    "1921,62": 3961,
    "3961,71": 3962,
    "70,84": 3963,
    "487,79": 3964,
    "583,60": 3965,
    "450,60": 3966,
    "207,66": 3967,
    "1103,68": 3968,
    "136,82": 3969,
    "48,67": 3970,
    "3970,64": 3971,
    "283,64": 3972,
    "3972,81": 3973,
    "64,9": 3974,
    "135,1": 3975,
    "64,82": 3976,
    "3500,73": 3977,
    "2075,79": 3978,
    "688,79": 3979,
    "105,1": 3980,
    "3653,71": 3981,
    "1,81": 3982,
    "3982,74": 3983,
    "3983,82": 3984,
    "3984,64": 3985,
    "3985,71": 3986,
    "3633,80": 3987,
    "3987,71": 3988,
    "1773,1": 3989,
    "549,74": 3990,
    "3990,77": 3991,
    "2203,67": 3992,
    "2523,74": 3993,
    "162,70": 3994,
    "1934,1": 3995,
    "1066,60": 3996,
    "195,1": 3997,
    "2439,68": 3998,
    "341,71": 3999,
    "452,80": 4000,
    "4000,63": 4001,
    "75,1": 4002,
    "253,78": 4003,
    "3893,68": 4004,
    "4004,81": 4005,
    "736,60": 4006,
    "4006,71": 4007,
    "2863,16": 4008,
    "3505,80": 4009,
    "1011,81": 4010,
    "796,68": 4011,
    "4011,78": 4012,
    "1966,65": 4013,
    "1100,63": 4014,
    "1011,74": 4015,
    "4015,73": 4016,
    "50,1": 4017,
    "122,78": 4018,
    "74,11": 4019,
    "4019,1": 4020,
    "754,66": 4021,
    "4021,80": 4022,
    "515,63": 4023,
    "4023,1": 4024,
    "1011,79": 4025,
    "675,71": 4026,
    "2635,74": 4027,
    "4027,73": 4028,
    "4028,66": 4029,
    "1038,73": 4030,
    "4030,66": 4031,
    "420,61": 4032,
    "4032,80": 4033,
    "42,74": 4034,
    "4034,73": 4035,
    "4035,79": 4036,
    "674,79": 4037,
    "3946,64": 4038,
    "1127,80": 4039,
    "4039,78": 4040,
    "2250,72": 4041,
    "4041,64": 4042,
    "4042,73": 4043,
    "4043,79": 4044,
    "450,73": 4045,
    "4045,79": 4046,
    "2795,74": 4047,
    "4047,65": 4048,
    "4048,1": 4049,
    "422,60": 4050,
    "4050,62": 4051,
    "1271,78": 4052,
    "4052,82": 4053,
    "4053,60": 4054,
    "3844,73": 4055,
    "2928,79": 4056,
    "3343,1": 4057,
    "44,65": 4058,
    "4058,65": 4059,
    "4059,68": 4060,
    "4060,62": 4061,
    "1407,63": 4062,
    "887,61": 4063,
    "256,60": 4064,
    "1458,1": 4065,
    "1097,78": 4066,
    "4066,80": 4067,
    "37,85": 4068,
    "1666,71": 4069,
    "4069,60": 4070,
    "4070,73": 4071,
    "648,77": 4072,
    "2365,1": 4073,
    "4073,16": 4074,
    "623,78": 4075,
    "2555,74": 4076,
    "4076,73": 4077,
    "1979,74": 4078,
    "4078,84": 4079,
    "1252,68": 4080,
    "4080,62": 4081,
    "670,71": 4082,
    "422,80": 4083,
    "4083,62": 4084,
    "4084,79": 4085,
    "830,77": 4086,
    "283,66": 4087,
    "4087,67": 4088,
    "265,77": 4089,
    "467,84": 4090,
    "733,75": 4091,
    "4091,74": 4092,
    "1130,1": 4093,
    "35,64": 4094,
    "4094,61": 4095,
    "463,77": 4096,
    "4096,68": 4097,
    "1027,12": 4098,
    "4098,1": 4099,
    "292,73": 4100,
    "689,80": 4101,
    "4101,78": 4102,
    "3723,64": 4103,
    "4103,79": 4104,
    "1330,68": 4105,
    "4105,71": 4106,
    "2960,79": 4107,
    "1623,61": 4108,
    "4108,77": 4109,
    "1748,60": 4110,
    "2270,79": 4111,
    "4111,60": 4112,
    "1632,73": 4113,
    "1462,60": 4114,
    "1309,77": 4115,
    "4115,62": 4116,
    "1058,73": 4117,
    "813,1": 4118,
    "549,67": 4119,
    "78,76": 4120,
    "4120,80": 4121,
    "2282,1": 4122,
    "52,1": 4123,
    "498,79": 4124,
    "4124,64": 4125,
    "4125,77": 4126,
    "1461,60": 4127,
    "3209,74": 4128,
    "3139,64": 4129,
    "4129,73": 4130,
    "4130,79": 4131,
    "3893,64": 4132,
    "61,73": 4133,
    "4133,68": 4134,
    "4134,85": 4135,
    "207,60": 4136,
    "1921,73": 4137,
    "2628,64": 4138,
    "213,1": 4139,
    "583,70": 4140,
    "4140,64": 4141,
    "74,84": 4142,
    "4142,60": 4143,
    "4143,71": 4144,
    "392,79": 4145,
    "13,13": 4146,
    "46,88": 4147,
    "3952,1": 4148,
    "664,73": 4149,
    "4149,68": 4150,
    "4150,78": 4151,
    "4151,79": 4152,
    "1165,75": 4153,
    "3686,68": 4154,
    "256,84": 4155,
    "3778,75": 4156,
    "4156,64": 4157,
    "4157,64": 4158,
    "226,72": 4159,
    "4159,68": 4160,
    "2115,74": 4161,
    "4161,63": 4162,
    "4162,60": 4163,
    "1637,78": 4164,
    "889,79": 4165,
    "1407,71": 4166,
    "4166,68": 4167,
    "404,80": 4168,
    "4168,78": 4169,
    "292,62": 4170,
    "4170,68": 4171,
    "1301,80": 4172,
    "4172,78": 4173,
    "2564,85": 4174,
    "1449,64": 4175,
    "2873,64": 4176,
    "4176,73": 4177,
    "1933,74": 4178,
    "4178,75": 4179,
    "79,63": 4180,
    "157,84": 4181,
    "266,75": 4182,
    "1017,64": 4183,
    "1359,71": 4184,
    "419,83": 4185,
    "343,60": 4186,
    "47,32": 4187,
    "2071,72": 4188,
    "2164,73": 4189,
    "74,76": 4190,
    "4190,80": 4191,
    "330,78": 4192,
    "4192,79": 4193,
    "251,74": 4194,
    "2297,63": 4195,
    "724,67": 4196,
    "4196,79": 4197,
    "2612,64": 4198,
    "452,1": 4199,
    "3545,74": 4200,
    "1301,63": 4201,
    "4201,64": 4202,
    "66,14": 4203,
    "4203,63": 4204,
    "4204,71": 4205,
    "14,78": 4206,
    "3682,82": 4207,
    "4207,67": 4208,
    "1,35": 4209,
    "4209,68": 4210,
    "277,61": 4211,
    "4211,60": 4212,
    "4212,71": 4213,
    "816,64": 4214,
    "4214,77": 4215,
    "1,49": 4216,
    "4216,64": 4217,
    "4217,78": 4218,
    "4218,79": 4219,
    "932,79": 4220,
    "4220,74": 4221,
    "1733,64": 4222,
    "356,77": 4223,
    "1712,64": 4224,
    "2904,78": 4225,
    "4225,80": 4226,
    "3273,62": 4227,
    "4227,67": 4228,
    "392,62": 4229,
    "4229,77": 4230,
    "4230,60": 4231,
    "22,11": 4232,
    "4232,1": 4233,
    "3394,77": 4234,
    "581,60": 4235,
    "4235,73": 4236,
    "4236,66": 4237,
    "3197,64": 4238,
    "258,71": 4239,
    "1783,63": 4240,
    "853,1": 4241,
    "747,60": 4242,
    "4242,73": 4243,
    "685,77": 4244,
    "4244,60": 4245,
    "179,84": 4246,
    "4246,1": 4247,
    "2881,71": 4248,
    "20,88": 4249,
    "649,64": 4250,
    "4250,77": 4251,
    "3397,64": 4252,
    "2698,71": 4253,
    "3537,77": 4254,
    "592,66": 4255,
    "4255,77": 4256,
    "4256,60": 4257,
    "4257,75": 4258,
    "2825,1": 4259,
    "2060,61": 4260,
    "4260,74": 4261,
    "841,79": 4262,
    "4262,67": 4263,
    "52,52": 4264,
    "78,6": 4265,
    "703,67": 4266,
    "3847,79": 4267,
    "4214,63": 4268,
    "754,60": 4269,
    "4269,79": 4270,
    "177,72": 4271,
    "4271,64": 4272,
    "4272,1": 4273,
    "2307,73": 4274,
    "4274,79": 4275,
    "1933,75": 4276,
    "4276,67": 4277,
    "4277,64": 4278,
    "4278,77": 4279,
    "257,67": 4280,
    "251,61": 4281,
    "924,68": 4282,
    "4282,79": 4283,
    "949,82": 4284,
    "583,72": 4285,
    "4285,64": 4286,
    "4286,73": 4287,
    "2702,60": 4288,
    "4288,77": 4289,
    "3029,71": 4290,
    "852,74": 4291,
    "4291,73": 4292,
    "2669,79": 4293,
    "32,48": 4294,
    "1424,82": 4295,
    "4295,64": 4296,
    "419,60": 4297,
    "2632,1": 4298,
    "1,38": 4299,
    "2462,1": 4300,
    "170,68": 4301,
    "4301,73": 4302,
    "1057,77": 4303,
    "202,79": 4304,
    "4304,1": 4305,
    "159,77": 4306,
    "3049,64": 4307,
    "2316,73": 4308,
    "4308,79": 4309,
    "555,71": 4310,
    "2849,62": 4311,
    "80,70": 4312,
    "4312,64": 4313,
    "12,87": 4314,
    "566,64": 4315,
    "350,60": 4316,
    "43,35": 4317,
    "1150,74": 4318,
    "4318,80": 4319,
    "4319,66": 4320,
    "1544,64": 4321,
    "1091,79": 4322,
    "2131,68": 4323,
    "3979,74": 4324,
    "4324,77": 4325,
    "2819,77": 4326,
    "4326,60": 4327,
    "1169,71": 4328,
    "473,71": 4329,
    "452,60": 4330,
    "4330,77": 4331,
    "389,81": 4332,
    "122,65": 4333,
    "1624,73": 4334,
    "928,64": 4335,
    "1178,77": 4336,
    "383,79": 4337,
    "74,67": 4338,
    "47,30": 4339,
    "4339,42": 4340,
    "853,60": 4341,
    "4341,66": 4342,
    "4082,75": 4343,
    "4343,79": 4344,
    "1561,64": 4345,
    "22,13": 4346,
    "2202,1": 4347,
    "33,1": 4348,
    "4348,30": 4349,
    "2429,77": 4350,
    "80,65": 4351,
    "4351,60": 4352,
    "4352,62": 4353,
    "84,9": 4354,
    "345,74": 4355,
    "4355,70": 4356,
    "4311,67": 4357,
    "254,79": 4358,
    "233,73": 4359,
    "1989,1": 4360,
    "77,13": 4361,
    "68,76": 4362,
    "4362,80": 4363,
    "1252,79": 4364,
    "3778,68": 4365,
    "4365,85": 4366,
    "4366,64": 4367,
    "679,77": 4368,
    "38,43": 4369,
    "4369,36": 4370,
    "218,68": 4371,
    "4169,63": 4372,
    "4372,74": 4373,
    "4373,77": 4374,
    "171,73": 4375,
    "964,68": 4376,
    "4376,63": 4377,
    "2303,73": 4378,
    "813,79": 4379,
    "4379,74": 4380,
    "35,68": 4381,
    "378,65": 4382,
    "4382,1": 4383,
    "2039,78": 4384,
    "4384,67": 4385,
    "136,62": 4386,
    "4386,70": 4387,
    "4297,72": 4388,
    "3656,74": 4389,
    "4389,80": 4390,
    "207,84": 4391,
    "4391,1": 4392,
    "83,1": 4393,
    "4251,60": 4394,
    "4394,71": 4395,
    "149,77": 4396,
    "105,60": 4397,
    "4397,77": 4398,
    "715,71": 4399,
    "4399,68": 4400,
    "4400,65": 4401,
    "4401,74": 4402,
    "4402,77": 4403,
    "707,62": 4404,
    "330,79": 4405,
    "4405,67": 4406,
    "153,71": 4407,
    "333,1": 4408,
    "2636,71": 4409,
    "1451,68": 4410,
    "4410,62": 4411,
    "4411,79": 4412,
    "4412,68": 4413,
    "840,1": 4414,
    "5,1": 4415,
    "42,64": 4416,
    "1348,72": 4417,
    "4417,64": 4418,
    "1286,71": 4419,
    "249,62": 4420,
    "669,74": 4421,
    "4421,63": 4422,
    "3811,79": 4423,
    "73,84": 4424,
    "4424,1": 4425,
    "159,75": 4426,
    "4194,73": 4427,
    "162,73": 4428,
    "4428,84": 4429,
    "4429,1": 4430,
    "425,62": 4431,
    "4431,79": 4432,
    "1298,80": 4433,
    "485,63": 4434,
    "4434,60": 4435,
    "4420,68": 4436,
    "4436,75": 4437,
    "278,71": 4438,
    "4438,71": 4439,
    "3152,79": 4440,
    "77,70": 4441,
    "4441,64": 4442,
    "4442,79": 4443,
    "24,11": 4444,
    "4444,1": 4445,
    "739,68": 4446,
    "4446,81": 4447,
    "4447,64": 4448,
    "186,64": 4449,
    "283,61": 4450,
    "4450,68": 4451,
    "1224,64": 4452,
    "4452,78": 4453,
    "4453,78": 4454,
    "2834,77": 4455,
    "17,73": 4456,
    "4456,63": 4457,
    "917,60": 4458,
    "1,33": 4459,
    "4459,64": 4460,
    "4460,72": 4461,
    "4461,74": 4462,
    "21,8": 4463,
    "422,84": 4464,
    "1070,64": 4465,
    "35,12": 4466,
    "1531,14": 4467,
    "4467,78": 4468,
    "1166,67": 4469,
    "4469,73": 4470,
    "4470,1": 4471,
    "2177,78": 4472,
    "314,60": 4473,
    "695,1": 4474,
    "275,80": 4475,
    "1127,81": 4476,
    "13,64": 4477,
    "4477,13": 4478,
    "37,68": 4479,
    "4479,79": 4480,
    "182,81": 4481,
    "109,71": 4482,
    "2205,72": 4483,
    "415,1": 4484,
    "476,68": 4485,
    "4485,62": 4486,
    "18,20": 4487,
    "1252,75": 4488,
    "794,77": 4489,
    "3758,1": 4490,
    "1555,69": 4491,
    "4491,64": 4492,
    "4492,62": 4493,
    "4493,79": 4494,
    "1998,66": 4495,
    "419,61": 4496,
    "4496,77": 4497,
    "359,76": 4498,
    "4498,80": 4499,
    "763,78": 4500,
    "3692,78": 4501,
    "4501,1": 4502,
    "3384,64": 4503,
    "571,72": 4504,
    "4504,60": 4505,
    "4505,79": 4506,
    "1596,60": 4507,
    "581,77": 4508,
    "4508,64": 4509,
    "4509,73": 4510,
    "2262,63": 4511,
    "648,1": 4512,
    "49,45": 4513,
    "4513,1": 4514,
    "3251,1": 4515,
    "2131,72": 4516,
    "1923,9": 4517,
    "4517,16": 4518,
    "3296,79": 4519,
    "4519,64": 4520,
    "1384,63": 4521,
    "537,73": 4522,
    "4522,66": 4523,
    "4523,79": 4524,
    "4524,67": 4525,
    "2035,67": 4526,
    "3217,63": 4527
  },
  "next_id": 4528
}