{
  "id2token": {
    "0": "\n",
    "1": " ",
    "2": "!",
    "3": "#",
    "4": "$",
    "5": "%",
    "6": "'",
    "7": "(",
    "8": ")",
    "9": "*",
    "10": "+",
    "11": ",",
    "12": "-",
    "13": ".",
    "14": "/",
    "15": "0",
    "16": "1",
    "17": "2",
    "18": "3",
    "19": "4",
    "20": "5",
    "21": "6",
    "22": "7",
    "23": "8",
    "24": "9",
    "25": ":",
    "26": ";",
    "27": "=",
    "28": "?",
    "29": "@",
    "30": "A",
    "31": "B",
    "32": "C",
    "33": "D",
    "34": "E",
    "35": "F",
    "36": "G",
    "37": "H",
    "38": "I",
    "39": "J",
    "40": "K",
    "41": "L",
    "42": "M",
    "43": "N",
    "44": "O",
    "45": "P",
    "46": "Q",
    "47": "R",
    "48": "S",
    "49": "T",
    "50": "U",
    "51": "V",
    "52": "W",
    "53": "X",
    "54": "Y",
    "55": "Z",
    "56": "\\",
    "57": "^",
    "58": "_",
    "59": "`",
    "60": "a",
    "61": "b",
    "62": "c",
    "63": "d",
    "64": "e",
    "65": "f",
    "66": "g",
    "67": "h",
    "68": "i",
    "69": "j",
    "70": "k",
    "71": "l",
    "72": "m",
    "73": "n",
    "74": "o",
    "75": "p",
    "76": "q",
    "77": "r",
    "78": "s",
    "79": "t",
    "80": "u",
    "81": "v",
    "82": "w",
    "83": "x",
    "84": "y",
    "85": "z",
    "86": "{",
    "87": "|",
    "88": "}",
    "89": "~",
    "90": "<|endoftext|>",
    "91": "<pad>",
    "92": "<USER> ",
    "93": "<ASSISTANT> ",
    "94": "lg",
    "95": "lga",
    "96": "lgae",
    "97": "re",
    "98": "rea",
    "99": "reas",
    "100": "se",
    "101": "sel",
    "102": "self",
    "103": "ea",
    "104": "eac",
    "105": "eact",
    "106": "ns",
    "107": "ns ",
    "108": "an",
    "109": "ani",
    "110": "anie",
    "111": "anies",
    "112": "fi",
    "113": "fin",
    "114": "fini",
    "115": "D ",
    "116": "D -",
    "117": "nl",
    "118": "nly",
    "119": "ly",
    "120": "lyi",
    "121": "lyin",
    "122": "lying",
    "123": "pa",
    "124": "ss",
    "125": "ssu",
    "126": "ssur",
    "127": "be",
    "128": "ber",
    "129": "bert",
    "130": "na",
    "131": "nar",
    "132": "nard",
    "133": "it",
    "134": "itu",
    "135": "itut",
    "136": "ed",
    "137": "edi",
    "138": "ne",
    "139": "ner",
    "140": "ex",
    "141": "exa",
    "142": "ll",
    "143": "lle",
    "144": "lley",
    "145": "hu",
    "146": "hus",
    "147": "la",
    "148": "lat",
    "149": "eu",
    "150": "eud",
    "151": "wa",
    "152": "war",
    "153": "ware",
    "154": "tl",
    "155": "tle",
    "156": "tle ",
    "157": "ul",
    "158": "ull",
    "159": "if",
    "160": "ifo",
    "161": "ifor",
    "162": "iforn",
    "163": "ifi",
    "164": "gr",
    "165": "gre",
    "166": "gree",
    "167": "rd",
    "168": "da",
    "169": "dar",
    "170": "st",
    "171": "sti",
    "172": "stiv",
    "173": "St",
    "174": "2 ",
    "175": "2 -",
    "176": "Ki",
    "177": "Kin",
    "178": "King",
    "179": "Kingd",
    "180": "Kingdo",
    "181": "rr",
    "182": "rra",
    "183": "rray",
    "184": "ro",
    "185": "roo",
    "186": "room",
    "187": "ic",
    "188": "ich",
    "189": "ha",
    "190": "har",
    "191": "1%",
    "192": "lk",
    "193": "yz",
    "194": "yza",
    "195": "yzan",
    "196": "co",
    "197": "cot",
    "198": "up",
    "199": "upe",
    "200": "uper",
    "201": "el",
    "202": " t",
    "203": " to",
    "204": "pr",
    "205": "pre",
    "206": "pret",
    "207": "ho",
    "208": "hor",
    "209": "hord",
    "210": "AI",
    "211": "AIM",
    "212": "hoo",
    "213": "hool",
    "214": "gy",
    "215": "gyp",
    "216": "gypt",
    "217": "fu",
    "218": "fir",
    "219": "firm",
    "220": "wt",
    "221": "wth",
    "222": "po",
    "223": "por",
    "224": "ca",
    "225": "cas",
    "226": "mb",
    "227": "mbo",
    "228": "mbol",
    "229": "),",
    "230": "), ",
    "231": "pi",
    "232": "pil",
    "233": "pilo",
    "234": "ren",
    "235": "rena",
    "236": "ith",
    "237": "ithe",
    "238": "fie",
    "239": "fiel",
    "240": "field",
    "241": ")#",
    "242": "al",
    "243": "all",
    "244": "ally",
    "245": "ally ",
    "246": " a",
    "247": " an",
    "248": " and",
    "249": "ig",
    "250": "igo",
    "251": "ir",
    "252": "irt",
    "253": "irth",
    "254": "no",
    "255": "now",
    "256": "nown",
    "257": "er",
    "258": "ere",
    "259": "erem",
    "260": "rod",
    "261": "rodu",
    "262": "roduc",
    "263": "A ",
    "264": "le",
    "265": "lew",
    "266": "so",
    "267": "sor",
    "268": "as",
    "269": "as ",
    "270": "ru",
    "271": "rus",
    "272": "rust",
    "273": " b",
    "274": " br",
    "275": "be ",
    "276": "on",
    "277": "ong",
    "278": "ongo",
    "279": "ase",
    "280": "ased",
    "281": "oo",
    "282": "ool",
    "283": "mbe",
    "284": "mber",
    "285": "00",
    "286": "000",
    "287": "em",
    "288": "ema",
    "289": "bb",
    "290": "bby",
    "291": "ug",
    "292": "ug ",
    "293": "is",
    "294": "iss",
    "295": "issa",
    "296": "issan",
    "297": "issanc",
    "298": "issance",
    "299": "il",
    "300": "ilo",
    "301": "ilos",
    "302": "iloso",
    "303": "li",
    "304": "lip",
    "305": "eat",
    "306": "ph",
    "307": "phe",
    "308": "phew",
    "309": "ice",
    "310": "icen",
    "311": "ol",
    "312": "si",
    "313": "sio",
    "314": "sion",
    "315": "tr",
    "316": "tro",
    "317": "ot",
    "318": "ot ",
    "319": "eb",
    "320": "eba",
    "321": "L ",
    "322": "rm",
    "323": "nb",
    "324": "ct",
    "325": "cti",
    "326": "ctic",
    "327": "ga",
    "328": "gam",
    "329": "9%",
    "330": "ird",
    "331": "ird ",
    "332": "ju",
    "333": "jus",
    "334": "just",
    "335": "Od",
    "336": "Ody",
    "337": "Odys",
    "338": "sso",
    "339": "ssoc",
    "340": "ssoci",
    "341": "ssocia",
    "342": "Ma",
    "343": "Mac",
    "344": "af",
    "345": "aft",
    "346": "afte",
    "347": "et",
    "348": "ety",
    "349": "etyl",
    "350": "ty",
    "351": "typ",
    "352": "rl",
    "353": "rly",
    "354": "igh",
    "355": "ben",
    "356": "benc",
    "357": "bench",
    "358": "in",
    "359": "in ",
    "360": "was",
    "361": "was ",
    "362": "to",
    "363": "tom",
    "364": "gd",
    "365": "gda",
    "366": "gdal",
    "367": "He",
    "368": "He ",
    "369": "ra",
    "370": "rag",
    "371": "e ",
    "372": "e t",
    "373": "e to",
    "374": "ur",
    "375": "urc",
    "376": "Bo",
    "377": "hod",
    "378": "Co",
    "379": "(b",
    "380": "(b.",
    "381": "(b. ",
    "382": "nd",
    "383": "nda",
    "384": "ndan",
    "385": "zi",
    "386": "elb",
    "387": "rc",
    "388": "rch",
    "389": "ine",
    "390": "ined",
    "391": "lo",
    "392": "low",
    "393": "lown",
    "394": "pt",
    "395": "pti",
    "396": "sit",
    "397": "op",
    "398": "opl",
    "399": "hy",
    "400": "hyp",
    "401": "ma",
    "402": "mbl",
    "403": "Ka",
    "404": "om",
    "405": "omb",
    "406": "ombi",
    "407": "ombia",
    "408": "7%",
    "409": "ib",
    "410": "ibb",
    "411": "TO",
    "412": "bl",
    "413": "bli",
    "414": "lot",
    "415": "bo",
    "416": "bou",
    "417": "bout",
    "418": "otb",
    "419": "otba",
    "420": "rma",
    "421": "rmal",
    "422": " =",
    "423": " = ",
    "424": "lor",
    "425": "lord",
    "426": "x ",
    "427": "lu",
    "428": "lud",
    "429": "lude",
    "430": "L b",
    "431": "L br",
    "432": "ou",
    "433": "oun",
    "434": "ount",
    "435": "av",
    "436": "ave",
    "437": "aver",
    "438": "ag",
    "439": "age",
    "440": "ia",
    "441": "iat",
    "442": "aso",
    "443": "ason",
    "444": "oma",
    "445": "read",
    "446": "ready",
    "447": ",:",
    "448": "jur",
    "449": "icl",
    "450": "icle",
    "451": "bi",
    "452": "bil",
    "453": "bili",
    "454": "It",
    "455": "It ",
    "456": "ow",
    "457": "owe",
    "458": "owev",
    "459": "oweve",
    "460": "un",
    "461": "uni",
    "462": "unit",
    "463": "cap",
    "464": "cape",
    "465": "caped",
    "466": "cag",
    "467": "cago",
    "468": "ify",
    "469": "Ho",
    "470": "How",
    "471": "Howe",
    "472": "Howev",
    "473": "Howeve",
    "474": "Di",
    "475": "Dig",
    "476": "Digi",
    "477": "ve",
    "478": "vem",
    "479": "vemb",
    "480": "vembe",
    "481": "sig",
    "482": "sign",
    "483": "io",
    "484": "ior",
    "485": "7 ",
    "486": "cc",
    "487": "cco",
    "488": "ar",
    "489": "arp",
    "490": "arpl",
    "491": "arple",
    "492": "3)",
    "493": "inn",
    "494": "inni",
    "495": "innin",
    "496": "inning",
    "497": "gu",
    "498": "gus",
    "499": "gust",
    "500": "ery",
    "501": "ery ",
    "502": "ser",
    "503": "ern",
    "504": "th",
    "505": "thu",
    "506": "thur",
    "507": "cto",
    "508": "ctor",
    "509": "fy",
    "510": "dd",
    "511": "dde",
    "512": "Qu",
    "513": "at",
    "514": "ati",
    "515": "atis",
    "516": "atisf",
    "517": "ev",
    "518": "eve",
    "519": "ever",
    "520": "exan",
    "521": "exand",
    "522": "ad",
    "523": "ade",
    "524": "ader",
    "525": "l ",
    "526": "ithm",
    "527": "dr",
    "528": "art",
    "529": "arte",
    "530": "lex",
    "531": "H ",
    "532": "H -",
    "533": ". ",
    "534": "ta",
    "535": "tag",
    "536": "te",
    "537": "tes",
    "538": "*U",
    "539": "*Un",
    "540": "*Uni",
    "541": "*Univ",
    "542": "*Unive",
    "543": "*Univer",
    "544": "ba",
    "545": "bab",
    "546": "7)",
    "547": "7)*",
    "548": "bis",
    "549": "bisc",
    "550": "biscu",
    "551": "Ca",
    "552": "xa",
    "553": "xan",
    "554": "xand",
    "555": "sc",
    "556": "sch",
    "557": "eth",
    "558": "ctu",
    "559": "ctur",
    "560": "thm",
    "561": "xp",
    "562": "xpl",
    "563": "mar",
    "564": "ri",
    "565": "#K",
    "566": "t)",
    "567": "hou",
    "568": "houg",
    "569": "hough",
    "570": "rt",
    "571": "Re",
    "572": "llo",
    "573": "mp",
    "574": "mpo",
    "575": "mpos",
    "576": "oc",
    "577": "oca",
    "578": "ocau",
    "579": "ocaus",
    "580": "ocaust",
    "581": "im",
    "582": "imp",
    "583": "impo",
    "584": "iq",
    "585": "iqu",
    "586": "las",
    "587": "lass",
    "588": "pe",
    "589": "pen",
    "590": "nc",
    "591": "nch",
    "592": "kr",
    "593": "kra",
    "594": "az",
    "595": "azi",
    "596": "azin",
    "597": "azine",
    "598": "ti",
    "599": "tir",
    "600": "tire",
    "601": "ult",
    "602": "Va",
    "603": "Val",
    "604": "Vall",
    "605": "rb",
    "606": "avy",
    "607": "rui",
    "608": "ruis",
    "609": "he",
    "610": "her",
    "611": "Te",
    "612": "Tes",
    "613": "Tess",
    "614": "lay",
    "615": "opt",
    "616": "cl",
    "617": "clu",
    "618": "clud",
    "619": "ay",
    "620": "ays",
    "621": "ary",
    "622": "ary ",
    "623": "pab",
    "624": "pabl",
    "625": "pable",
    "626": "ili",
    "627": "ond",
    "628": ").",
    "629": "wn",
    "630": "wn ",
    "631": "pon",
    "632": "ei",
    "633": "ein",
    "634": "einz",
    "635": "mpl",
    "636": "mple",
    "637": "ft",
    "638": "fte",
    "639": "A C",
    "640": "ems",
    "641": "ems ",
    "642": "ya",
    "643": "yan",
    "644": "ela",
    "645": "ini",
    "646": "inio",
    "647": "inion",
    "648": "Je",
    "649": "Jes",
    "650": "Jesu",
    "651": "M ",
    "652": "M -",
    "653": "itt",
    "654": "itte",
    "655": "ina",
    "656": "inal",
    "657": "lf",
    "658": "lfo",
    "659": "lfon",
    "660": "ui",
    "661": "uil",
    "662": "ym",
    "663": "or",
    "664": "orp",
    "665": "orpo",
    "666": "nah",
    "667": "naho",
    "668": "tec",
    "669": "tect",
    "670": "unc",
    "671": "e=",
    "672": "ai",
    "673": "aim",
    "674": "mi",
    "675": "mia",
    "676": "mial",
    "677": "Pi",
    "678": "Pil",
    "679": "Pilo",
    "680": "Pilot",
    "681": "ino",
    "682": "vi",
    "683": "vie",
    "684": "viet",
    "685": "8 ",
    "686": "8 #",
    "687": "eatu",
    "688": "eatur",
    "689": "isi",
    "690": "cle",
    "691": "cles",
    "692": "clesi",
    "693": "-G",
    "694": "ov",
    "695": "ovi",
    "696": "ovie",
    "697": "ec",
    "698": "eck",
    "699": "Be",
    "700": "Ben",
    "701": "Benc",
    "702": "Bench",
    "703": "tar",
    "704": "aii",
    "705": "CL",
    "706": "mat",
    "707": "emp",
    "708": "ann",
    "709": "anno",
    "710": "ng",
    "711": "nge",
    "712": "lb",
    "713": "lbu",
    "714": "lbum",
    "715": "ni",
    "716": "nis",
    "717": "Au",
    "718": "Aut",
    "719": "Auto",
    "720": "yl",
    "721": "yle",
    "722": "M-",
    "723": "str",
    "724": "stro",
    "725": " A",
    "726": "4t",
    "727": "4th",
    "728": "P ",
    "729": "P b",
    "730": "P br",
    "731": "ab",
    "732": "abe",
    "733": "abet",
    "734": "law",
    "735": "je",
    "736": "jec",
    "737": "alr",
    "738": "alry",
    "739": "Bou",
    "740": "Bour",
    "741": "ife",
    "742": "oni",
    "743": "ord",
    "744": "ap",
    "745": "apa",
    "746": "ang",
    "747": "ange",
    "748": "angel",
    "749": "log",
    "750": "lim",
    "751": "Cor",
    "752": "Corp",
    "753": "Corpo",
    "754": "Corpor",
    "755": "Corpora",
    "756": "id",
    "757": "ide",
    "758": "iden",
    "759": "mo",
    "760": "mot",
    "761": "irs",
    "762": "par",
    "763": "lea",
    "764": "ds",
    "765": "rat",
    "766": "pu",
    "767": "pus",
    "768": "e-",
    "769": "?*",
    "770": "d ",
    "771": "d n",
    "772": "d no",
    "773": "d not",
    "774": "Ei",
    "775": "Eis",
    "776": "Eise",
    "777": "Eisen",
    "778": "nan",
    "779": " ar",
    "780": " art",
    "781": "uri",
    "782": "urin",
    "783": "me",
    "784": "me ",
    "785": "ke",
    "786": "qu",
    "787": "que",
    "788": "Yo",
    "789": "Yor",
    "790": "York",
    "791": "nt",
    "792": "ntr",
    "793": "ntry",
    "794": "pie",
    "795": "piec",
    "796": "piece",
    "797": "ight",
    "798": "uc",
    "799": "Br",
    "800": "cu",
    "801": "cut",
    "802": "eren",
    "803": "erenc",
    "804": "gan",
    "805": "pp",
    "806": "ppo",
    "807": "sy",
    "808": "syc",
    "809": "sych",
    "810": "ddl",
    "811": "Ai",
    "812": "Air",
    "813": "tes ",
    "814": "cy",
    "815": "cyt",
    "816": "of",
    "817": "of ",
    "818": "ted",
    "819": "DI",
    "820": "DIV",
    "821": "DIV ",
    "822": "ked",
    "823": "noo",
    "824": "noon",
    "825": "pir",
    "826": "= ",
    "827": "ue",
    "828": "ue ",
    "829": "nes",
    "830": "ness",
    "831": "So",
    "832": "Son",
    "833": "Song",
    "834": "0 ",
    "835": "0 -",
    "836": "0 - ",
    "837": "hav",
    "838": "nea",
    "839": "id ",
    "840": "Po",
    "841": "Pow",
    "842": "Powe",
    "843": "5 ",
    "844": "5 -",
    "845": "dn",
    "846": "gat",
    "847": "nta",
    "848": "rmi",
    "849": "d.",
    "850": "tt",
    "851": "ttp",
    "852": "*1",
    "853": "*19",
    "854": "tav",
    "855": "olo",
    "856": "? ",
    "857": "ona",
    "858": "onal",
    "859": "ud",
    "860": "dq",
    "861": "dqu",
    "862": "dquo",
    "863": "hn",
    "864": "jo",
    "865": "jor",
    "866": "igi",
    "867": "igio",
    "868": "sp",
    "869": "spi",
    "870": "spit",
    "871": "NU",
    "872": "NU ",
    "873": "ilot",
    "874": "du",
    "875": "dus",
    "876": "dust",
    "877": "gl",
    "878": "gla",
    "879": "ell",
    "880": "su",
    "881": "lt",
    "882": "ltu",
    "883": "ltur",
    "884": "ch",
    "885": "chu",
    "886": "chur",
    "887": "churc",
    "888": "church",
    "889": "ge",
    "890": "ger",
    "891": "es",
    "892": "ese",
    "893": "rn",
    "894": "rna",
    "895": "cor",
    "896": "cord",
    "897": "res",
    "898": "resi",
    "899": "resid",
    "900": "ucl",
    "901": "itl",
    "902": "men",
    "903": "mens",
    "904": "imo",
    "905": "imon",
    "906": "f-",
    "907": "ail",
    "908": "ye",
    "909": "yea",
    "910": "year",
    "911": "sex",
    "912": "tah",
    "913": "4 ",
    "914": ".*",
    "915": "we",
    "916": "weh",
    "917": "lf-",
    "918": "soc",
    "919": "soci",
    "920": "socia",
    "921": "ist",
    "922": "isto",
    "923": "eum",
    "924": "ota",
    "925": "otal",
    "926": "tw",
    "927": "two",
    "928": "twor",
    "929": "au",
    "930": "aur",
    "931": "aura",
    "932": "IP",
    "933": "ee",
    "934": "een",
    "935": "nte",
    "936": "nten",
    "937": "ntent",
    "938": "ars",
    "939": "fo",
    "940": "mati",
    "941": "havi",
    "942": "havio",
    "943": "tto",
    "944": "ttom",
    "945": "ncy",
    "946": "ie",
    "947": "iel",
    "948": "ield",
    "949": "am",
    "950": "ame",
    "951": "amen",
    "952": "lask",
    "953": "mbi",
    "954": "en",
    "955": "ene",
    "956": "bg",
    "957": "bgc",
    "958": "bgco",
    "959": "wo",
    "960": "ran",
    "961": "rans",
    "962": "oot",
    "963": "ootb",
    "964": "ootba",
    "965": "Sov",
    "966": "Sovi",
    "967": "Sovie",
    "968": "Soviet",
    "969": "has",
    "970": "has ",
    "971": "vir",
    "972": "viro",
    "973": "rig",
    "974": "rigi",
    "975": "rigin",
    "976": "tie",
    "977": "ment",
    "978": "omo",
    "979": "arc",
    "980": "arch",
    "981": "sic",
    "982": "con",
    "983": "cono",
    "984": "conom",
    "985": "sul",
    "986": " /",
    "987": " /t",
    "988": "ari",
    "989": "rg",
    "990": "rgo",
    "991": "r ",
    "992": "r o",
    "993": "r of",
    "994": "r of ",
    "995": "od",
    "996": "odo",
    "997": "odon",
    "998": "ome",
    "999": "omen",
    "1000": "ze",
    "1001": "ze ",
    "1002": "erm",
    "1003": "erms",
    "1004": "tage",
    "1005": "ons",
    "1006": "onst",
    "1007": "fr",
    "1008": "fro",
    "1009": "frob",
    "1010": "frobe",
    "1011": "vid",
    "1012": "vide",
    "1013": "vided",
    "1014": "ither",
    "1015": "De",
    "1016": "Deg",
    "1017": "Dege",
    "1018": "Degen",
    "1019": "fe",
    "1020": "fes",
    "1021": "fess",
    "1022": "sk",
    "1023": "6 ",
    "1024": "6 -",
    "1025": "les",
    "1026": "less",
    "1027": "til",
    "1028": "moc",
    "1029": "mocr",
    "1030": "rup",
    "1031": "rupt",
    "1032": "inc",
    "1033": "fri",
    "1034": "fric",
    "1035": "frica",
    "1036": "iz",
    "1037": "way",
    "1038": "By",
    "1039": "Bye",
    "1040": "Byer",
    "1041": "emb",
    "1042": "ip",
    "1043": "ipl",
    "1044": "fy ",
    "1045": "nat",
    "1046": "nati",
    "1047": "nly ",
    "1048": " 0",
    "1049": "ci",
    "1050": "cin",
    "1051": "cinn",
    "1052": "rro",
    "1053": "rrow",
    "1054": "coh",
    "1055": "coho",
    "1056": "cohol",
    "1057": "gs",
    "1058": "rad",
    "1059": "za",
    "1060": "zab",
    "1061": "rol",
    "1062": "roll",
    "1063": "cha",
    "1064": "elo",
    "1065": "elop",
    "1066": "nst",
    "1067": "Th",
    "1068": "The",
    "1069": "The ",
    "1070": "hr",
    "1071": "g ",
    "1072": "ark",
    "1073": "int",
    "1074": "ida",
    "1075": "idal",
    "1076": "ass",
    "1077": "7 -",
    "1078": "7 - ",
    "1079": "err",
    "1080": "erre",
    "1081": "eas",
    "1082": "cil",
    "1083": "cill",
    "1084": "ira",
    "1085": "irab",
    "1086": "irabl",
    "1087": "va",
    "1088": "van",
    "1089": "vann",
    "1090": "hi",
    "1091": "hir",
    "1092": "hird",
    "1093": "ac",
    "1094": "act",
    "1095": "era",
    "1096": "eral",
    "1097": "duc",
    "1098": "duce",
    "1099": "duce ",
    "1100": "ut",
    "1101": "ute",
    "1102": "uter",
    "1103": "anp",
    "1104": "anpo",
    "1105": "gi",
    "1106": "gic",
    "1107": "dua",
    "1108": "ge ",
    "1109": "ge o",
    "1110": "ge of",
    "1111": "ge of ",
    "1112": "tai",
    "1113": "inis",
    "1114": "opp",
    "1115": "Ch",
    "1116": "Chu",
    "1117": "Chur",
    "1118": "Churc",
    "1119": "Church",
    "1120": "eur",
    "1121": "wd",
    "1122": "abs",
    "1123": "abso",
    "1124": "absol",
    "1125": "absolu",
    "1126": "absolut",
    "1127": "ors",
    "1128": "orse",
    "1129": "lar",
    "1130": "lare",
    "1131": "sult",
    "1132": "at ",
    "1133": "rin",
    "1134": "tf",
    "1135": "tfo",
    "1136": "onse",
    "1137": "onser",
    "1138": "onserv",
    "1139": "Bro",
    "1140": "Brow",
    "1141": "Brown",
    "1142": "can",
    "1143": "can ",
    "1144": "ent",
    "1145": "ent ",
    "1146": "liv",
    "1147": "live",
    "1148": "isl",
    "1149": "uth",
    "1150": "edia",
    "1151": "ediat",
    "1152": "bs",
    "1153": "bst",
    "1154": "bsta",
    "1155": "bstan",
    "1156": "**",
    "1157": "h ",
    "1158": "yer",
    "1159": "Col",
    "1160": "Coll",
    "1161": "Colle",
    "1162": "Colleg",
    "1163": "ous",
    "1164": "Bourd",
    "1165": "yi",
    "1166": "yin",
    "1167": "ying",
    "1168": "cue",
    "1169": "cued",
    "1170": "ria",
    "1171": "tat",
    "1172": "tate",
    "1173": "6 /",
    "1174": "6 /s",
    "1175": "!-",
    "1176": "go",
    "1177": "gov",
    "1178": "gove",
    "1179": "gover",
    "1180": "govern",
    "1181": "bee",
    "1182": "been",
    "1183": "um",
    "1184": "ume",
    "1185": "en ",
    "1186": "fec",
    "1187": "fect",
    "1188": "tu",
    "1189": "tur",
    "1190": "ture",
    "1191": "Mal",
    "1192": "Male",
    "1193": ")*",
    "1194": "/o",
    "1195": "ess",
    "1196": "eci",
    "1197": "Boo",
    "1198": "Book",
    "1199": "ned",
    "1200": "ned ",
    "1201": "tio",
    "1202": "y ",
    "1203": "see",
    "1204": "see ",
    "1205": "ys",
    "1206": "yst",
    "1207": "yste",
    "1208": "ystem",
    "1209": "lba",
    "1210": "lban",
    "1211": "ngl",
    "1212": "ngle",
    "1213": "ter",
    "1214": "tern",
    "1215": "us",
    "1216": "ey",
    "1217": "ey,",
    "1218": "ey, ",
    "1219": "the",
    "1220": "thel",
    "1221": "thele",
    "1222": "theles",
    "1223": "theless",
    "1224": "boo",
    "1225": "book",
    "1226": "nct",
    "1227": "ls",
    "1228": "lso",
    "1229": "lson",
    "1230": "tal",
    "1231": "ID",
    "1232": "nu",
    "1233": "tem",
    "1234": "tema",
    "1235": "urr",
    "1236": "urre",
    "1237": "urren",
    "1238": "ebr",
    "1239": "ebru",
    "1240": "ebrua",
    "1241": "ebruar",
    "1242": "bel",
    "1243": "fs",
    "1244": " V",
    "1245": " VI",
    "1246": "rti",
    "1247": "tho",
    "1248": "thou",
    "1249": "aid",
    "1250": "ely",
    "1251": "os",
    "1252": "ose",
    "1253": "A.",
    "1254": "ki",
    "1255": "kis",
    "1256": "e th",
    "1257": "/t",
    "1258": "To",
    "1259": "Tor",
    "1260": "Toro",
    "1261": "Toron",
    "1262": "Toront",
    "1263": "yp",
    "1264": "ype",
    "1265": ".S",
    "1266": "fa",
    "1267": "far",
    "1268": "fare",
    "1269": "rec",
    "1270": "rect",
    "1271": "19",
    "1272": "spr",
    "1273": "spre",
    "1274": "sprea",
    "1275": "fl",
    "1276": "fla",
    "1277": "flat",
    "1278": "*A",
    "1279": "ss ",
    "1280": "rk",
    "1281": "nla",
    "1282": "nlan",
    "1283": "nland",
    "1284": "tla",
    "1285": "clude",
    "1286": "irc",
    "1287": "use",
    "1288": "use ",
    "1289": "3%",
    "1290": "rar",
    "1291": "its",
    "1292": "o ",
    "1293": "o n",
    "1294": "o no",
    "1295": "o not",
    "1296": "ptis",
    "1297": "gn",
    "1298": "gni",
    "1299": "ici",
    "1300": "8 -",
    "1301": "8 - ",
    "1302": "if ",
    "1303": "fee",
    "1304": "feet",
    "1305": "TD",
    "1306": ")|",
    "1307": "irst",
    "1308": "natio",
    "1309": "nation",
    "1310": "xam",
    "1311": "xamp",
    "1312": "xampl",
    "1313": "ear",
    "1314": "earc",
    "1315": "bj",
    "1316": "bje",
    "1317": "bjec",
    "1318": "bject",
    "1319": "jum",
    "1320": "jump",
    "1321": "S ",
    "1322": "nce",
    "1323": "ylv",
    "1324": "ylva",
    "1325": "ylvan",
    "1326": ".e",
    "1327": "ody",
    "1328": "odyn",
    "1329": "odyna",
    "1330": "fre",
    "1331": "fred",
    "1332": "uct",
    "1333": "uctu",
    "1334": "ver",
    "1335": "vers",
    "1336": "versi",
    "1337": "versio",
    "1338": "version",
    "1339": "entr",
    "1340": "gm",
    "1341": "gma",
    "1342": "any",
    "1343": "ele",
    "1344": "elec",
    "1345": "elect",
    "1346": "pic",
    "1347": "pica",
    "1348": "pical",
    "1349": "ce",
    "1350": "cem",
    "1351": "cemb",
    "1352": "cembe",
    "1353": "cember",
    "1354": "sun",
    "1355": "suna",
    "1356": "inin",
    "1357": "bar",
    "1358": "cho",
    "1359": "iev",
    "1360": "pri",
    "1361": "han",
    "1362": "han ",
    "1363": "2 /",
    "1364": "2 /s",
    "1365": "al ",
    "1366": "lie",
    "1367": " /td",
    "1368": " E",
    "1369": " Er",
    "1370": " Era",
    "1371": " Eras",
    "1372": "ete",
    "1373": "ica",
    "1374": "rado",
    "1375": "ad ",
    "1376": "lam",
    "1377": "yag",
    "1378": "uctur",
    "1379": "eag",
    "1380": "eagu",
    "1381": "eig",
    "1382": "eign",
    "1383": "eg",
    "1384": "R ",
    "1385": "199",
    "1386": "owl",
    "1387": "ndm",
    "1388": "ndme",
    "1389": "univ",
    "1390": "unive",
    "1391": "univer",
    "1392": "univers",
    "1393": "tc",
    "1394": "tc.",
    "1395": "Gr",
    "1396": "led",
    "1397": "abl",
    "1398": "mos",
    "1399": "most",
    "1400": "9)",
    "1401": "hen",
    "1402": "hen ",
    "1403": "r=",
    "1404": "pos",
    "1405": "xi",
    "1406": "xid",
    "1407": "nti",
    "1408": "ntio",
    "1409": "ntion",
    "1410": "br",
    "1411": "bra",
    "1412": "brai",
    "1413": "brain",
    "1414": "ove",
    "1415": "ovem",
    "1416": "oveme",
    "1417": "ovemen",
    "1418": "di",
    "1419": "dic",
    "1420": "erl",
    "1421": "enc",
    "1422": "ja",
    "1423": "jad",
    "1424": "wr",
    "1425": "wri",
    "1426": "writ",
    "1427": "cia",
    "1428": "cial",
    "1429": "21",
    "1430": "I ",
    "1431": "sil",
    "1432": "silv",
    "1433": "silve",
    "1434": "viden",
    "1435": "nai",
    "1436": "nais",
    "1437": "naiss",
    "1438": "naissa",
    "1439": "naissan",
    "1440": "Ba",
    "1441": "Bar",
    "1442": "Baro",
    "1443": "Baron",
    "1444": "NF",
    "1445": "NFL",
    "1446": "inom",
    "1447": "egi",
    "1448": "egin",
    "1449": "sh",
    "1450": "shi",
    "1451": "ship",
    "1452": "rinc",
    "1453": "thoug",
    "1454": "ir ",
    "1455": "ctio",
    "1456": "ction",
    "1457": "jam",
    "1458": "how",
    "1459": "rre",
    "1460": "rrec",
    "1461": "0 /",
    "1462": "0 /s",
    "1463": "0 /su",
    "1464": "gdo",
    "1465": "m ",
    "1466": "m b",
    "1467": "m br",
    "1468": "gc",
    "1469": "gco",
    "1470": "rac",
    "1471": "racu",
    "1472": "racul",
    "1473": "dy",
    "1474": "dy ",
    "1475": "isio",
    "1476": "ision",
    "1477": "lag",
    "1478": "Wh",
    "1479": "oved",
    "1480": "not",
    "1481": "irm",
    "1482": "irma",
    "1483": "irman",
    "1484": "5t",
    "1485": "5th",
    "1486": "yme",
    "1487": "ymen",
    "1488": "de",
    "1489": "eath",
    "1490": "ssi",
    "1491": "ssil",
    "1492": "etr",
    "1493": "aus",
    "1494": "aust",
    "1495": "cet",
    "1496": "9 ",
    "1497": "9 -",
    "1498": "9 - ",
    "1499": "Am",
    "1500": "Ame",
    "1501": "Amer",
    "1502": "Ameri",
    "1503": "hic",
    "1504": "hicl",
    "1505": "per",
    "1506": "cid",
    "1507": "Ex",
    "1508": "Ext",
    "1509": "Exte",
    "1510": "st ",
    "1511": "abli",
    "1512": "8)",
    "1513": "1 ",
    "1514": "1 -",
    "1515": "1 - ",
    "1516": "Eu",
    "1517": "Eur",
    "1518": "Euro",
    "1519": "Europ",
    "1520": "Europe",
    "1521": "foo",
    "1522": "foot",
    "1523": "footb",
    "1524": "footba",
    "1525": "cul",
    "1526": "cula",
    "1527": "cular",
    "1528": "mpa",
    "1529": "mpas",
    "1530": "mpass",
    "1531": "gg",
    "1532": "gge",
    "1533": "En",
    "1534": "Eno",
    "1535": "rce",
    "1536": "ay ",
    "1537": "igr",
    "1538": "igra",
    "1539": "omm",
    "1540": "ymn",
    "1541": "ymna",
    "1542": "uss",
    "1543": "ussi",
    "1544": "ussia",
    "1545": "3 ",
    "1546": "3 -",
    "1547": "nci",
    "1548": "ncip",
    "1549": "lid",
    "1550": "iv",
    "1551": "iva",
    "1552": "ival",
    "1553": "d o",
    "1554": "d of",
    "1555": "d of ",
    "1556": "uo",
    "1557": "uou",
    "1558": "uous",
    "1559": "Ea",
    "1560": "Eas",
    "1561": "East",
    "1562": "opu",
    "1563": "opul",
    "1564": "cui",
    "1565": "cuis",
    "1566": "icu",
    "1567": "icul",
    "1568": "icult",
    "1569": "CP",
    "1570": "CPU",
    "1571": "ry",
    "1572": "ryl",
    "1573": "ral",
    "1574": "din",
    "1575": "ding",
    "1576": "6)",
    "1577": "br ",
    "1578": "do",
    "1579": "dor",
    "1580": "zat",
    "1581": "6t",
    "1582": "6th",
    "1583": "ts",
    "1584": "tsm",
    "1585": "'t",
    "1586": "ific",
    "1587": "ifica",
    "1588": "ifican",
    "1589": "ces",
    "1590": "exu",
    "1591": "exua",
    "1592": "oa",
    "1593": "oad",
    "1594": "Se",
    "1595": "ruc",
    "1596": "ruct",
    "1597": "CM",
    "1598": "C.",
    "1599": "mor",
    "1600": "morp",
    "1601": "morph",
    "1602": "nag",
    "1603": "bre",
    "1604": "brev",
    "1605": "oto",
    "1606": "otop",
    "1607": "ce ",
    "1608": "Can",
    "1609": "Cana",
    "1610": "Canad",
    "1611": "xin",
    "1612": "xing",
    "1613": "rand",
    "1614": "orm",
    "1615": "bsp",
    "1616": "our",
    "1617": "oura",
    "1618": "ourag",
    "1619": "nn",
    "1620": "nno",
    "1621": "eo",
    "1622": "eor",
    "1623": "uro",
    "1624": "tb",
    "1625": "tba",
    "1626": "chn",
    "1627": "ugh",
    "1628": "ris",
    "1629": "mbr",
    "1630": "mbr ",
    "1631": "she",
    "1632": "she ",
    "1633": "afe",
    "1634": "ocu",
    "1635": "ocum",
    "1636": "sw",
    "1637": "swe",
    "1638": "swer",
    "1639": "sb",
    "1640": "sba",
    "1641": "fus",
    "1642": "xil",
    "1643": "xili",
    "1644": "xilia",
    "1645": "ifu",
    "1646": "iful",
    "1647": "e o",
    "1648": "e of",
    "1649": "e of ",
    "1650": "Ot",
    "1651": "Ott",
    "1652": "Otto",
    "1653": "eca",
    "1654": "ecam",
    "1655": "ecame",
    "1656": "lan",
    "1657": "land",
    "1658": "ngs",
    "1659": "iff",
    "1660": "ibl",
    "1661": "eme",
    "1662": "emen",
    "1663": "cen",
    "1664": "cent",
    "1665": "kes",
    "1666": "kes ",
    "1667": "nam",
    "1668": "name",
    "1669": "tiv",
    "1670": "Pa",
    "1671": "Pal",
    "1672": "Pale",
    "1673": "Pales",
    "1674": "Palest",
    "1675": "ved",
    "1676": "ved ",
    "1677": "bat",
    "1678": "eep",
    "1679": "ule",
    "1680": "cou",
    "1681": "istr",
    "1682": "istri",
    "1683": "istrib",
    "1684": "istribu",
    "1685": "td",
    "1686": "ua",
    "1687": "uat",
    "1688": "eari",
    "1689": "earin",
    "1690": "earing",
    "1691": "pera",
    "1692": "nd ",
    "1693": "nd o",
    "1694": "nd of",
    "1695": "nd of ",
    "1696": "ka",
    "1697": "kan",
    "1698": ".)",
    "1699": "gin",
    "1700": "gine",
    "1701": "rv",
    "1702": "el ",
    "1703": "ing",
    "1704": "ing ",
    "1705": "ash",
    "1706": "ause",
    "1707": "fied",
    "1708": "ath",
    "1709": "ath ",
    "1710": "pro",
    "1711": "prov",
    "1712": "provi",
    "1713": "mn",
    "1714": "mne",
    "1715": "mnen",
    "1716": "ert",
    "1717": "erta",
    "1718": "ertai",
    "1719": "ertain",
    "1720": "cow",
    "1721": "ysi",
    "1722": "kin",
    "1723": "lit",
    "1724": "liti",
    "1725": "litic",
    "1726": "erf",
    "1727": "erfo",
    "1728": "erfor",
    "1729": "rou",
    "1730": "roup",
    "1731": "Or",
    "1732": "Ort",
    "1733": "Orth",
    "1734": "flu",
    "1735": "flue",
    "1736": "fluen",
    "1737": "rth",
    "1738": "rthe",
    "1739": "rther",
    "1740": "rog",
    "1741": "rogr",
    "1742": "XF",
    "1743": "nk",
    "1744": "J ",
    "1745": "J -",
    "1746": "gol",
    "1747": "gold",
    "1748": "cte",
    "1749": "rly ",
    "1750": "bbe",
    "1751": "bbed",
    "1752": "oi",
    "1753": "oit",
    "1754": "ince",
    "1755": "bal",
    "1756": "ball",
    "1757": "-Q",
    "1758": "-Qa",
    "1759": "-Qae",
    "1760": "-Qaed",
    "1761": "oll",
    "1762": "olle",
    "1763": "olleg",
    "1764": "gh",
    "1765": "gha",
    "1766": "gham",
    "1767": "pora",
    "1768": "vo",
    "1769": "vol",
    "1770": "y,",
    "1771": "y, ",
    "1772": "rri",
    "1773": "rrie",
    "1774": "Ag",
    "1775": "gar",
    "1776": "gard",
    "1777": "umen",
    "1778": "ument",
    "1779": "aye",
    "1780": "ayer",
    "1781": "inu",
    "1782": "lad",
    "1783": "ladi",
    "1784": "ladia",
    "1785": "ladiat",
    "1786": "ladiato",
    "1787": "ladiator",
    "1788": "sed",
    "1789": "ght",
    "1790": "bes",
    "1791": "ef",
    "1792": "vin",
    "1793": "ony",
    "1794": "onym",
    "1795": "over",
    "1796": "xf",
    "1797": "xfo",
    "1798": "xfor",
    "1799": "ial",
    "1800": "wh",
    "1801": "who",
    "1802": "ste",
    "1803": "stem",
    "1804": "cta",
    "1805": "ctav",
    "1806": "ive",
    "1807": "iver",
    "1808": "rci",
    "1809": "elf",
    "1810": "5 - ",
    "1811": "rte",
    "1812": "rted",
    "1813": "tha",
    "1814": "than",
    "1815": "than ",
    "1816": "rke",
    "1817": "rka",
    "1818": "rkan",
    "1819": "kn",
    "1820": "kno",
    "1821": "know",
    "1822": "known",
    "1823": "Ja",
    "1824": "Jap",
    "1825": "Japa",
    "1826": "60",
    "1827": "60s",
    "1828": "ovemb",
    "1829": "ovembe",
    "1830": "pto",
    "1831": "C ",
    "1832": "C (",
    "1833": "VI",
    "1834": "VII",
    "1835": "sop",
    "1836": "gai",
    "1837": "gain",
    "1838": ") ",
    "1839": "nit",
    "1840": "cond",
    "1841": "F.",
    "1842": "emo",
    "1843": "emon",
    "1844": "mal",
    "1845": "mall",
    "1846": "urop",
    "1847": "urope",
    "1848": "eta",
    "1849": "etar",
    "1850": "spa",
    "1851": "spap",
    "1852": "K ",
    "1853": "K -",
    "1854": "wer",
    "1855": "Fe",
    "1856": "Fed",
    "1857": "Fede",
    "1858": "Feder",
    "1859": "anu",
    "1860": "anua",
    "1861": "pl",
    "1862": "ple",
    "1863": "arg",
    "1864": "spo",
    "1865": "spon",
    "1866": "ranc",
    "1867": "omn",
    "1868": "omne",
    "1869": "omnen",
    "1870": "min",
    "1871": "esi",
    "1872": "nh",
    "1873": "nha",
    "1874": "nhar",
    "1875": "nhard",
    "1876": "idi",
    "1877": "/s",
    "1878": "/su",
    "1879": "ild",
    "1880": "0,",
    "1881": "0, ",
    "1882": "lled",
    "1883": "eup",
    "1884": "fis",
    "1885": "fish",
    "1886": "tri",
    "1887": "Bu",
    "1888": "Bur",
    "1889": "Burg",
    "1890": "def",
    "1891": "defe",
    "1892": "defen",
    "1893": "wor",
    "1894": "gen",
    "1895": "gene",
    "1896": "gener",
    "1897": "genera",
    "1898": "ize",
    "1899": "dam",
    "1900": "dard",
    "1901": "iou",
    "1902": "ious",
    "1903": "pare",
    "1904": "bru",
    "1905": "apan",
    "1906": "omi",
    "1907": "tch",
    "1908": "rbi",
    "1909": "rbia",
    "1910": "nni",
    "1911": "nnin",
    "1912": "nning",
    "1913": "dea",
    "1914": "deat",
    "1915": "death",
    "1916": "gun",
    "1917": "ray",
    "1918": "rta",
    "1919": "rtai",
    "1920": "rtain",
    "1921": "nio",
    "1922": "nion",
    "1923": "erc",
    "1924": "ola",
    "1925": "lly",
    "1926": "kee",
    "1927": "keep",
    "1928": "oy",
    "1929": "ily",
    "1930": "D - ",
    "1931": "Un",
    "1932": "Uni",
    "1933": "Univ",
    "1934": "Unive",
    "1935": "Univer",
    "1936": "Univers",
    "1937": "Colu",
    "1938": "Colum",
    "1939": ", ",
    "1940": "2 /su",
    "1941": "esig",
    "1942": "esign",
    "1943": "iod",
    "1944": "ize ",
    "1945": "rel",
    "1946": "rela",
    "1947": "ego",
    "1948": "te ",
    "1949": "abi",
    "1950": "abin",
    "1951": "8,",
    "1952": "8, ",
    "1953": "us ",
    "1954": "tera",
    "1955": "Lo",
    "1956": "ric",
    "1957": "rict",
    "1958": "day",
    "1959": "tain",
    "1960": "spe",
    "1961": "spec",
    "1962": "speci",
    "1963": "xide",
    "1964": "ster",
    "1965": "enez",
    "1966": "enezu",
    "1967": "ava",
    "1968": "avat",
    "1969": "ario",
    "1970": "ariou",
    "1971": "arious",
    "1972": "zil",
    "1973": "gui",
    "1974": "guis",
    "1975": "guish",
    "1976": "easa",
    "1977": "easan",
    "1978": "easant",
    "1979": "ima",
    "1980": "imat",
    "1981": "red",
    "1982": "ndar",
    "1983": "ndard",
    "1984": "Eng",
    "1985": "Engl",
    "1986": "uch",
    "1987": "uch ",
    "1988": "uch a",
    "1989": "uch as",
    "1990": "ale",
    "1991": "ales",
    "1992": "alest",
    "1993": "nem",
    "1994": "nema",
    "1995": "ok",
    "1996": "oke",
    "1997": "male",
    "1998": "lic",
    "1999": "lict",
    "2000": "rtic",
    "2001": "rticl",
    "2002": "rticle",
    "2003": "lys",
    "2004": "lysi",
    "2005": "lysis",
    "2006": "mpan",
    "2007": "gio",
    "2008": "gion",
    "2009": "BC",
    "2010": "0)",
    "2011": "0)*",
    "2012": "hat",
    "2013": "20",
    "2014": "200",
    "2015": "brua",
    "2016": "bruar",
    "2017": "pla",
    "2018": "rmy",
    "2019": "one",
    "2020": "one ",
    "2021": "ji",
    "2022": "jit",
    "2023": "30",
    "2024": "300",
    "2025": "Die",
    "2026": "Dieg",
    "2027": "Diego",
    "2028": "ring",
    "2029": "hem",
    "2030": "heme",
    "2031": "gra",
    "2032": "ench",
    "2033": "pec",
    "2034": "peci",
    "2035": "ers",
    "2036": "impor",
    "2037": "import",
    "2038": "xt",
    "2039": "cur",
    "2040": "ham",
    "2041": "hamp",
    "2042": "Ru",
    "2043": "Rus",
    "2044": "Russ",
    "2045": "rvi",
    "2046": "rvic",
    "2047": "rvice",
    "2048": "eyr",
    "2049": "ual",
    "2050": " c",
    "2051": " ce",
    "2052": " cen",
    "2053": "del",
    "2054": "ton",
    "2055": "ont",
    "2056": "umer",
    "2057": "cr",
    "2058": "cra",
    "2059": "craf",
    "2060": ".S.",
    "2061": "nou",
    "2062": "noun",
    "2063": "rked",
    "2064": "gt",
    "2065": "gth",
    "2066": "oppe",
    "2067": "opped",
    "2068": "llel",
    "2069": "zu",
    "2070": "nse",
    "2071": "gon",
    "2072": "specia",
    "2073": "special",
    "2074": "pul",
    "2075": "efe",
    "2076": "efen",
    "2077": "Ju",
    "2078": "/m",
    "2079": "/ma",
    "2080": "/mat",
    "2081": "/math",
    "2082": "30s",
    "2083": "race",
    "2084": "tan",
    "2085": "tand",
    "2086": " Y",
    "2087": " Yo",
    "2088": " Yor",
    "2089": "NP",
    "2090": "-E",
    "2091": "-Eu",
    "2092": "that",
    "2093": "that ",
    "2094": "Gu",
    "2095": "Gui",
    "2096": "Guin",
    "2097": "Guine",
    "2098": "Guinea",
    "2099": "atio",
    "2100": "ation",
    "2101": "sta",
    "2102": "stan",
    "2103": " L",
    "2104": "icip",
    "2105": "ST",
    "2106": "abit",
    "2107": "urs",
    "2108": "urse",
    "2109": "C -",
    "2110": "hot",
    "2111": "hoto",
    "2112": "ak",
    "2113": "ere ",
    "2114": "cep",
    "2115": "cept",
    "2116": "s ",
    "2117": "s o",
    "2118": "s on",
    "2119": "s on ",
    "2120": "ll ",
    "2121": "olu",
    "2122": "nste",
    "2123": "nstel",
    "2124": "hema",
    "2125": "hemat",
    "2126": "mu",
    "2127": "mul",
    "2128": "mula",
    "2129": "rriv",
    "2130": "thn",
    "2131": "rms",
    "2132": "uit",
    "2133": "ondu",
    "2134": "onduc",
    "2135": "onduct",
    "2136": "may",
    "2137": "may ",
    "2138": "nic",
    "2139": "erv",
    "2140": "og",
    "2141": "oga",
    "2142": "D /",
    "2143": "D /t",
    "2144": "erma",
    "2145": "ity",
    "2146": "y o",
    "2147": "y of",
    "2148": "y of ",
    "2149": "nde",
    "2150": "nded",
    "2151": "ore",
    "2152": "yr",
    "2153": "hit",
    "2154": "embl",
    "2155": "Al",
    "2156": "Ala",
    "2157": "Alas",
    "2158": "Alask",
    "2159": "rio",
    "2160": "riou",
    "2161": "rious",
    "2162": "tart",
    "2163": "rve",
    "2164": "ez",
    "2165": "Fo",
    "2166": "For",
    "2167": "ibe",
    "2168": "iber",
    "2169": "urf",
    "2170": "urfa",
    "2171": "urfac",
    "2172": "hang",
    "2173": "llow",
    "2174": "yd",
    "2175": "dg",
    "2176": "dge",
    "2177": "top",
    "2178": "loth",
    "2179": "bu",
    "2180": "but",
    "2181": "uta",
    "2182": "utat",
    "2183": "eti",
    "2184": "CD",
    "2185": "zati",
    "2186": "zatio",
    "2187": "zation",
    "2188": "pone",
    "2189": "ponen",
    "2190": "nue",
    "2191": "rman",
    "2192": "rai",
    "2193": "rail",
    "2194": "adi",
    "2195": "Cat",
    "2196": "Cath",
    "2197": "ub",
    "2198": "ubl",
    "2199": "ubli",
    "2200": "lif",
    "2201": "lifo",
    "2202": "lifor",
    "2203": "liforn",
    "2204": "old",
    "2205": "from",
    "2206": " p",
    "2207": " po",
    "2208": " pop",
    "2209": " popu",
    "2210": " popul",
    "2211": "ain",
    "2212": "aint",
    "2213": "Hoo",
    "2214": "Hoov",
    "2215": "Hoove",
    "2216": "Hoover",
    "2217": "unt",
    "2218": "untr",
    "2219": "untry",
    "2220": "El",
    "2221": "Elf",
    "2222": "gno",
    "2223": "Hen",
    "2224": "Henr",
    "2225": "ite",
    "2226": "lig",
    "2227": "ligi",
    "2228": "ligio",
    "2229": "geno",
    "2230": "genou",
    "2231": "genous",
    "2232": "ien",
    "2233": "nal",
    "2234": "nal ",
    "2235": "ack",
    "2236": "mum",
    "2237": "rov",
    "2238": "rove",
    "2239": "Cha",
    "2240": "Char",
    "2241": "rain",
    "2242": "ena",
    "2243": "enar",
    "2244": "ded",
    "2245": "ded ",
    "2246": "ivi",
    "2247": "air",
    "2248": "mag",
    "2249": "stra",
    "2250": "2)",
    "2251": "ht",
    "2252": "oce",
    "2253": "ocen",
    "2254": "se ",
    "2255": "se o",
    "2256": "se of",
    "2257": "se of ",
    "2258": "urro",
    "2259": "urrou",
    "2260": "urroun",
    "2261": "urround",
    "2262": "km",
    "2263": "imi",
    "2264": "imin",
    "2265": "Ar",
    "2266": "Arg",
    "2267": "Arge",
    "2268": "Argen",
    "2269": "Argent",
    "2270": "iop",
    "2271": "iopi",
    "2272": "ito",
    "2273": "wi",
    "2274": "cod",
    "2275": "codo",
    "2276": "codon",
    "2277": "urce",
    "2278": "7 /",
    "2279": "7 /s",
    "2280": "7 /su",
    "2281": "tte",
    "2282": "onz",
    "2283": "matic",
    "2284": "osa",
    "2285": "osau",
    "2286": "osaur",
    "2287": "pend",
    "2288": "pun",
    "2289": "punk",
    "2290": "rde",
    "2291": "rder",
    "2292": "FT",
    "2293": "ago",
    "2294": "Den",
    "2295": "Denm",
    "2296": "Denma",
    "2297": "bin",
    "2298": "der",
    "2299": "owle",
    "2300": "owled",
    "2301": "ana",
    "2302": "anad",
    "2303": "lf ",
    "2304": "spir",
    "2305": "gry",
    "2306": "mm",
    "2307": "riv",
    "2308": "rive",
    "2309": "river",
    "2310": "uck",
    "2311": "renc",
    "2312": "rench",
    "2313": "mil",
    "2314": "mily",
    "2315": "xib",
    "2316": "char",
    "2317": "chard",
    "2318": "ree",
    "2319": "reet",
    "2320": "len",
    "2321": "ep",
    "2322": "epe",
    "2323": "epen",
    "2324": "Ge",
    "2325": "Ger",
    "2326": "Germ",
    "2327": "Germa",
    "2328": "rrit",
    "2329": "rrito",
    "2330": "rritor",
    "2331": "2t",
    "2332": "2th",
    "2333": "wel",
    "2334": "dv",
    "2335": "dve",
    "2336": "dver",
    "2337": "6)*",
    "2338": "usi",
    "2339": "usic",
    "2340": "lia",
    "2341": "ld",
    "2342": "ld ",
    "2343": "4 -",
    "2344": "4 - ",
    "2345": "eph",
    "2346": "hyd",
    "2347": "hydr",
    "2348": "val",
    "2349": "oco",
    "2350": "ocol",
    "2351": "cast",
    "2352": "rs",
    "2353": "rse",
    "2354": "F ",
    "2355": "F -",
    "2356": "F - ",
    "2357": "s t",
    "2358": "s to",
    "2359": "et ",
    "2360": " td",
    "2361": "cess",
    "2362": "shed",
    "2363": " -",
    "2364": " --",
    "2365": "| ",
    "2366": "hip",
    "2367": "tz",
    "2368": "--",
    "2369": "Con",
    "2370": "Cons",
    "2371": "Conse",
    "2372": "Conser",
    "2373": "Conserv",
    "2374": "ork",
    "2375": "ntro",
    "2376": "ntrol",
    "2377": "rtu",
    "2378": "Pe",
    "2379": "Per",
    "2380": "est",
    "2381": "esti",
    "2382": "hie",
    "2383": "hiev",
    "2384": "tia",
    "2385": "#P",
    "2386": "Ga",
    "2387": "Gau",
    "2388": "Gaud",
    "2389": "s -",
    "2390": "s --",
    "2391": "twe",
    "2392": "twee",
    "2393": "hl",
    "2394": "hlo",
    "2395": "tled",
    "2396": "ant",
    "2397": "oug",
    "2398": "ough",
    "2399": "Aga",
    "2400": "Agas",
    "2401": "Odd",
    "2402": "Oddi",
    "2403": "Oddie",
    "2404": "Dr",
    "2405": "Dra",
    "2406": "Drac",
    "2407": "Dracu",
    "2408": "Dracul",
    "2409": "ace",
    "2410": "Cant",
    "2411": "Canto",
    "2412": "Canton",
    "2413": "ven",
    "2414": "ven ",
    "2415": "3.",
    "2416": "ala",
    "2417": "alat",
    "2418": "alati",
    "2419": "ppor",
    "2420": "pport",
    "2421": "itn",
    "2422": "itne",
    "2423": "itnes",
    "2424": "itness",
    "2425": "tati",
    "2426": "ret",
    "2427": "-b",
    "2428": "ps",
    "2429": "#H",
    "2430": "DV",
    "2431": "DVD",
    "2432": "Hi",
    "2433": "Hit",
    "2434": "Hitl",
    "2435": "Hitle",
    "2436": "Hitler",
    "2437": "mon",
    "2438": "eng",
    "2439": "ttl",
    "2440": "ttle",
    "2441": "Gd",
    "2442": "red ",
    "2443": "cy ",
    "2444": "lge",
    "2445": "lgeb",
    "2446": "wis",
    "2447": "wise",
    "2448": "uel",
    "2449": "stru",
    "2450": "ire",
    "2451": "das",
    "2452": "dash",
    "2453": "BI",
    "2454": " /m",
    "2455": "hin",
    "2456": "cri",
    "2457": "pecia",
    "2458": "pecial",
    "2459": "phi",
    "2460": "c ",
    "2461": "dib",
    "2462": "dibl",
    "2463": "occ",
    "2464": "troy",
    "2465": "iec",
    "2466": "iece",
    "2467": "oop",
    "2468": "tic",
    "2469": "1,",
    "2470": "1, ",
    "2471": "sup",
    "2472": "xy",
    "2473": "xyg",
    "2474": "xyge",
    "2475": "xygen",
    "2476": "thod",
    "2477": "ften",
    "2478": "Fr",
    "2479": "Fre",
    "2480": "Fren",
    "2481": "Frenc",
    "2482": "French",
    "2483": "le=",
    "2484": "le= ",
    "2485": "ower",
    "2486": "uar",
    "2487": "bit",
    "2488": "rba",
    "2489": "rban",
    "2490": "erat",
    "2491": "bas",
    "2492": "base",
    "2493": "pha",
    "2494": "mod",
    "2495": "moda",
    "2496": "modat",
    "2497": "pol",
    "2498": "ob",
    "2499": "tted",
    "2500": "knowl",
    "2501": "knowle",
    "2502": "knowled",
    "2503": "upi",
    "2504": "upie",
    "2505": "agu",
    "2506": "ague",
    "2507": "rren",
    "2508": " n",
    "2509": " nd",
    "2510": " nda",
    "2511": " ndas",
    "2512": " ndash",
    "2513": "vis",
    "2514": "whe",
    "2515": "whel",
    "2516": "SB",
    "2517": "SBN",
    "2518": "rgu",
    "2519": "shin",
    "2520": "shing",
    "2521": "shingt",
    "2522": "shingto",
    "2523": "ote",
    "2524": "oted",
    "2525": "oted ",
    "2526": "s,",
    "2527": "s, ",
    "2528": "ista",
    "2529": "istan",
    "2530": "wit",
    "2531": "5 e",
    "2532": "5 es",
    "2533": "5 est",
    "2534": "esid",
    "2535": "dern",
    "2536": "lth",
    "2537": "ltho",
    "2538": "lthou",
    "2539": "lthoug",
    "2540": "yc",
    "2541": "ism",
    "2542": "ff",
    "2543": " no",
    "2544": "At",
    "2545": "Atl",
    "2546": "Atla",
    "2547": "ationa",
    "2548": "ational",
    "2549": "ies",
    "2550": "lua",
    "2551": "00 ",
    "2552": "met",
    "2553": "metr",
    "2554": "ls ",
    "2555": "ndi",
    "2556": "ndia",
    "2557": "gred",
    "2558": "net",
    "2559": "uted",
    "2560": "yn",
    "2561": "yna",
    "2562": "ova",
    "2563": "ovat",
    "2564": "fic",
    "2565": "fici",
    "2566": "fac",
    "2567": "gue",
    "2568": "ings",
    "2569": "eue",
    "2570": "Sa",
    "2571": "San",
    "2572": "ward",
    "2573": "the ",
    "2574": "yo",
    "2575": "yor",
    "2576": "tsb",
    "2577": "tsbu",
    "2578": "tsbur",
    "2579": "he ",
    "2580": "Mi",
    "2581": "Mil",
    "2582": "Mili",
    "2583": "Milit",
    "2584": "Milita",
    "2585": "Militar",
    "2586": "b ",
    "2587": "iga",
    "2588": "nish",
    "2589": "nera",
    "2590": "ita",
    "2591": "itar",
    "2592": "die",
    "2593": "dier",
    "2594": "ile",
    "2595": "ile ",
    "2596": "roun",
    "2597": "round",
    "2598": "ch ",
    "2599": "ch a",
    "2600": "ch as",
    "2601": "lla",
    "2602": "llab",
    "2603": "N ",
    "2604": "N -",
    "2605": "ck",
    "2606": "ckn",
    "2607": "ckna",
    "2608": "uu",
    "2609": "uum",
    "2610": "hine",
    "2611": " and ",
    "2612": "mou",
    "2613": "moun",
    "2614": "mount",
    "2615": "dom",
    "2616": "MA",
    "2617": "fter",
    "2618": "'s",
    "2619": "'s ",
    "2620": "gal",
    "2621": "nin",
    "2622": "ning",
    "2623": "Ita",
    "2624": "Ital",
    "2625": "unct",
    "2626": "G ",
    "2627": "G -",
    "2628": "G --",
    "2629": "sexu",
    "2630": "sexua",
    "2631": "game",
    "2632": "key",
    "2633": "Bra",
    "2634": "Braz",
    "2635": "Brazi",
    "2636": "Brazil",
    "2637": " o",
    "2638": " of",
    "2639": "XI",
    "2640": "icat",
    "2641": "ssa",
    "2642": "ssag",
    "2643": "ssage",
    "2644": "um ",
    "2645": "gger",
    "2646": "uch as ",
    "2647": "cam",
    "2648": "came",
    "2649": "came ",
    "2650": "Cl",
    "2651": "Cli",
    "2652": "Clin",
    "2653": "Clint",
    "2654": "Clinto",
    "2655": "xford",
    "2656": "ket",
    "2657": "ketb",
    "2658": "ketba",
    "2659": "ty ",
    "2660": "9)*",
    "2661": "oe",
    "2662": "oer",
    "2663": "ttee",
    "2664": "edr",
    "2665": "edri",
    "2666": "edric",
    "2667": "fea",
    "2668": "feat",
    "2669": "nz",
    "2670": "nze",
    "2671": "K b",
    "2672": "K br",
    "2673": "erd",
    "2674": "ttoma",
    "2675": "ttoman",
    "2676": "bor",
    "2677": "pit",
    "2678": "cla",
    "2679": "mous",
    "2680": "4,",
    "2681": "4, ",
    "2682": "spect",
    "2683": "lti",
    "2684": "ltic",
    "2685": "gs ",
    "2686": "serv",
    "2687": "ust",
    "2688": "ustr",
    "2689": "20t",
    "2690": "20th",
    "2691": "Ark",
    "2692": "Arka",
    "2693": "Arkan",
    "2694": "lum",
    "2695": "fine",
    "2696": "fined",
    "2697": "mond",
    "2698": "sys",
    "2699": "syst",
    "2700": "X ",
    "2701": "Fi",
    "2702": "Fib",
    "2703": "Fibo",
    "2704": "rine",
    "2705": "ted ",
    "2706": "erb",
    "2707": "nec",
    "2708": "nect",
    "2709": "urit",
    "2710": "dul",
    "2711": "dult",
    "2712": "5,",
    "2713": "5, ",
    "2714": "nr",
    "2715": "lik",
    "2716": "like",
    "2717": "emi",
    "2718": "sen",
    "2719": "sent",
    "2720": "German",
    "2721": "hap",
    "2722": "gme",
    "2723": "gmen",
    "2724": "gment",
    "2725": "out",
    "2726": "for",
    "2727": "fore",
    "2728": "adem",
    "2729": "ok ",
    "2730": "9-",
    "2731": "rid",
    "2732": "ridg",
    "2733": "ridge",
    "2734": "form",
    "2735": "ips",
    "2736": "ips ",
    "2737": "Jew",
    "2738": "leg",
    "2739": "lege",
    "2740": "gel",
    "2741": "Ol",
    "2742": "Old",
    "2743": "oor",
    "2744": ":/",
    "2745": "ks",
    "2746": "mer",
    "2747": "meri",
    "2748": "hre",
    "2749": "hree",
    "2750": "nounc",
    "2751": "med",
    "2752": "med ",
    "2753": "xo",
    "2754": "whi",
    "2755": "whic",
    "2756": "which",
    "2757": "cad",
    "2758": "leas",
    "2759": "least",
    "2760": "3t",
    "2761": "3tr",
    "2762": "3tr ",
    "2763": "3tr t",
    "2764": "3tr td",
    "2765": " th",
    "2766": " tha",
    "2767": " that",
    "2768": " that ",
    "2769": "ddi",
    "2770": "ll-",
    "2771": "cyc",
    "2772": "oin",
    "2773": "api",
    "2774": "apit",
    "2775": "thni",
    "2776": "thnic",
    "2777": "aud",
    "2778": "dif",
    "2779": "roug",
    "2780": "mai",
    "2781": "main",
    "2782": "ileg",
    "2783": "ora",
    "2784": "gor",
    "2785": "ntri",
    "2786": "ntrie",
    "2787": "niv",
    "2788": "nive",
    "2789": "niver",
    "2790": "let",
    "2791": "lete",
    "2792": "oth",
    "2793": "oth ",
    "2794": "onsu",
    "2795": "sco",
    "2796": "firs",
    "2797": "first",
    "2798": "tak",
    "2799": "take",
    "2800": "AL",
    "2801": "AL ",
    "2802": "mit",
    "2803": "teg",
    "2804": "ew",
    "2805": "ew ",
    "2806": " I",
    "2807": "oso",
    "2808": "osop",
    "2809": "ow ",
    "2810": "tian",
    "2811": "2)*",
    "2812": "bed",
    "2813": "rts",
    "2814": "sty",
    "2815": "styl",
    "2816": "basi",
    "2817": "rie",
    "2818": "gur",
    "2819": "had",
    "2820": "rit",
    "2821": "rito",
    "2822": "ritor",
    "2823": "scop",
    "2824": "sto",
    "2825": "stor",
    "2826": " #",
    "2827": "ayez",
    "2828": "oft",
    "2829": "nox",
    "2830": "b.",
    "2831": "b. ",
    "2832": "mni",
    "2833": "tone",
    "2834": "oli",
    "2835": "olic",
    "2836": "ost",
    "2837": "pm",
    "2838": "pme",
    "2839": "pmen",
    "2840": "pment",
    "2841": "rug",
    "2842": "nsy",
    "2843": "nsyl",
    "2844": "nsylv",
    "2845": "40",
    "2846": "400",
    "2847": "1)",
    "2848": "amo",
    "2849": "amou",
    "2850": "amous",
    "2851": "pho",
    "2852": "phon",
    "2853": "- ",
    "2854": "rmin",
    "2855": "uto",
    "2856": "gua",
    "2857": "guag",
    "2858": "Bun",
    "2859": "Bund",
    "2860": "und",
    "2861": "unda",
    "2862": "uma",
    "2863": "uman",
    "2864": "ny",
    "2865": "nym",
    "2866": "2 - ",
    "2867": "ecu",
    "2868": "hun",
    "2869": "hung",
    "2870": "lis",
    "2871": "othe",
    "2872": "chi",
    "2873": "chin",
    "2874": "8t",
    "2875": "8th",
    "2876": "N.",
    "2877": "ultu",
    "2878": "ultur",
    "2879": "4)",
    "2880": "ax",
    "2881": "axi",
    "2882": "axim",
    "2883": "dum",
    "2884": "opy",
    "2885": "sth",
    "2886": "sthe",
    "2887": "ucc",
    "2888": "ucce",
    "2889": "ucces",
    "2890": "uccess",
    "2891": "Ni",
    "2892": "Nie",
    "2893": "Niet",
    "2894": "Nietz",
    "2895": "ence",
    "2896": "amed",
    "2897": "up ",
    "2898": "face",
    "2899": "sur",
    "2900": "ries",
    "2901": "ore ",
    "2902": "tre",
    "2903": "tres",
    "2904": "S -",
    "2905": "'ta",
    "2906": "tab",
    "2907": "tabl",
    "2908": "tabli",
    "2909": "rt ",
    "2910": "ezu",
    "2911": "lso ",
    "2912": "ited",
    "2913": "ical",
    "2914": "Bri",
    "2915": "Brit",
    "2916": "aw",
    "2917": "rya",
    "2918": "ryan",
    "2919": "hed",
    "2920": "ler",
    "2921": "ople",
    "2922": "tis",
    "2923": "ate",
    "2924": "ater",
    "2925": "i ",
    "2926": "til ",
    "2927": "have",
    "2928": "have ",
    "2929": "ata",
    "2930": "wl",
    "2931": "6-",
    "2932": "ift",
    "2933": "ress",
    "2934": "iti",
    "2935": "itic",
    "2936": "lyw",
    "2937": "lywo",
    "2938": "lywoo",
    "2939": "lywood",
    "2940": "doo",
    "2941": "door",
    "2942": "Man",
    "2943": "aved",
    "2944": "pea",
    "2945": "pear",
    "2946": "sib",
    "2947": "ndo",
    "2948": "ndom",
    "2949": "vel",
    "2950": "velo",
    "2951": "oon",
    "2952": "fle",
    "2953": "ng ",
    "2954": "In",
    "2955": "Ind",
    "2956": "pte",
    "2957": "pter",
    "2958": "erk",
    "2959": "cip",
    "2960": "ed ",
    "2961": "sid",
    "2962": "olar",
    "2963": "aki",
    "2964": "akis",
    "2965": "#Hu",
    "2966": "f ",
    "2967": "stea",
    "2968": "stead",
    "2969": "enu",
    "2970": "get",
    "2971": "geth",
    "2972": "ort",
    "2973": "orth",
    "2974": "rda",
    "2975": "erman",
    "2976": "arl",
    "2977": "nsi",
    "2978": "nsio",
    "2979": "nsion",
    "2980": "-c",
    "2981": "-ce",
    "2982": "-cen",
    "2983": "dd ",
    "2984": "cie",
    "2985": "cien",
    "2986": "eau",
    "2987": "'m",
    "2988": "'m ",
    "2989": "Arm",
    "2990": "lem",
    "2991": "leme",
    "2992": "lemen",
    "2993": "tly",
    "2994": "ula",
    "2995": "ular",
    "2996": "x_",
    "2997": "-Ge",
    "2998": "OE",
    "2999": "OED",
    "3000": "mini",
    "3001": "minis",
    "3002": "ovement",
    "3003": "ped",
    "3004": "6-1",
    "3005": "-co",
    "3006": "D.",
    "3007": "vai",
    "3008": "vail",
    "3009": "E ",
    "3010": "omin",
    "3011": "omina",
    "3012": "are",
    "3013": "piri",
    "3014": "pirit",
    "3015": "tish",
    "3016": "op ",
    "3017": "izo",
    "3018": "izon",
    "3019": "umb",
    "3020": "umbe",
    "3021": "umber",
    "3022": "ede",
    "3023": "eder",
    "3024": "sin",
    "3025": "sine",
    "3026": "Ara",
    "3027": "Arab",
    "3028": "ft ",
    "3029": "n=",
    "3030": "ement",
    "3031": "L -",
    "3032": "ubs",
    "3033": "5 #",
    "3034": "itud",
    "3035": "itude",
    "3036": "sl",
    "3037": "sla",
    "3038": "rnal",
    "3039": "bur",
    "3040": "wes",
    "3041": "west",
    "3042": "vember",
    "3043": "liam",
    "3044": "ryp",
    "3045": "rypt",
    "3046": "tp",
    "3047": ".g",
    "3048": ".g.",
    "3049": "t ",
    "3050": "t o",
    "3051": "t of",
    "3052": "t of ",
    "3053": "uti",
    "3054": "wed",
    "3055": "rior",
    "3056": "ix",
    "3057": "ix ",
    "3058": "thi",
    "3059": "thio",
    "3060": "upt",
    "3061": "ise",
    "3062": "gis",
    "3063": "gisl",
    "3064": "T ",
    "3065": "T -",
    "3066": "atist",
    "3067": "doe",
    "3068": "does",
    "3069": "mpt",
    "3070": "gent",
    "3071": "ope",
    "3072": "y-",
    "3073": "old ",
    "3074": "lian",
    "3075": "r,",
    "3076": "r, ",
    "3077": "play",
    "3078": "ble",
    "3079": "blem",
    "3080": "cea",
    "3081": "cean",
    "3082": "DP",
    "3083": "de ",
    "3084": "chan",
    "3085": "chang",
    "3086": "sa",
    "3087": "haps",
    "3088": "ymp",
    "3089": "onstr",
    "3090": "onstra",
    "3091": "K.",
    "3092": "lde",
    "3093": "lden",
    "3094": "tiz",
    "3095": "tize",
    "3096": "tra",
    "3097": "ncil",
    "3098": "Ir",
    "3099": "is ",
    "3100": "had ",
    "3101": "ols",
    "3102": "atr",
    "3103": "er ",
    "3104": "livi",
    "3105": "livin",
    "3106": "td ",
    "3107": "viv",
    "3108": "lio",
    "3109": "lion",
    "3110": "ure",
    "3111": "oh",
    "3112": "ohn",
    "3113": "st.",
    "3114": "st.)",
    "3115": "hm",
    "3116": "radi",
    "3117": "deo",
    "3118": "para",
    "3119": "loc",
    "3120": "loci",
    "3121": "etit",
    "3122": "by",
    "3123": "any ",
    "3124": "E b",
    "3125": "E br",
    "3126": "sm",
    "3127": "hil",
    "3128": "oen",
    "3129": "tyl",
    "3130": "velop",
    "3131": "k ",
    "3132": "sea",
    "3133": "evel",
    "3134": "nzer",
    "3135": "kip",
    "3136": "ror",
    "3137": "-u",
    "3138": "-up",
    "3139": "onsta",
    "3140": "onstan",
    "3141": "ick",
    "3142": "ndr",
    "3143": "ndre",
    "3144": "ndred",
    "3145": "dad",
    "3146": "Up",
    "3147": "Upr",
    "3148": "Upri",
    "3149": "Upris",
    "3150": "Uprisi",
    "3151": "soph",
    "3152": "ft)",
    "3153": "pan",
    "3154": "most ",
    "3155": "W ",
    "3156": "W -",
    "3157": "May",
    "3158": "Mayo",
    "3159": "Mayor",
    "3160": "eh",
    "3161": "ehe",
    "3162": "ehen",
    "3163": "ho ",
    "3164": "Aug",
    "3165": "Augu",
    "3166": "Augus",
    "3167": "August",
    "3168": "vio",
    "3169": "viou",
    "3170": "vious",
    "3171": "Pot",
    "3172": "Pott",
    "3173": "Potte",
    "3174": "Potter",
    "3175": "gul",
    "3176": "itr",
    "3177": "nua",
    "3178": "nuar",
    "3179": "ach",
    "3180": "thol",
    "3181": "chae",
    "3182": "chael",
    "3183": " as",
    "3184": "ead",
    "3185": "h)",
    "3186": "genc",
    "3187": "gency",
    "3188": "IV",
    "3189": "'i",
    "3190": "'im",
    "3191": "ecul",
    "3192": "ept",
    "3193": "ept ",
    "3194": "orde",
    "3195": "order",
    "3196": "stab",
    "3197": "stabl",
    "3198": "stabli",
    "3199": "well",
    "3200": "lli",
    "3201": "llia",
    "3202": "lliam",
    "3203": "n'",
    "3204": "n't",
    "3205": "loy",
    "3206": "alan",
    "3207": "alanc",
    "3208": "plo",
    "3209": "ploy",
    "3210": "pril",
    "3211": "Pl",
    "3212": "Pla",
    "3213": "Play",
    "3214": "V ",
    "3215": "V o",
    "3216": "V of",
    "3217": "V of ",
    "3218": "Ve",
    "3219": "Ven",
    "3220": "om/",
    "3221": "gib",
    "3222": "eri",
    "3223": "alo",
    "3224": "lec",
    "3225": "lect",
    "3226": "lecu",
    "3227": "uis",
    "3228": "DN",
    "3229": "sq",
    "3230": "squ",
    "3231": "rn ",
    "3232": "In ",
    "3233": "oph",
    "3234": "ophe",
    "3235": "opher",
    "3236": "I o",
    "3237": "I of",
    "3238": "I of ",
    "3239": "etw",
    "3240": "etwe",
    "3241": "Sp",
    "3242": "Spl",
    "3243": "Spli",
    "3244": "Split",
    "3245": "ibi",
    "3246": "ibit",
    "3247": "cit",
    "3248": "terr",
    "3249": "overn",
    "3250": "roa",
    "3251": "road",
    "3252": "code",
    "3253": "ae",
    "3254": "ynt",
    "3255": "ynth",
    "3256": "dat",
    "3257": "Wa",
    "3258": "War",
    "3259": "dri",
    "3260": "dric",
    "3261": "a ",
    "3262": "bum",
    "3263": "ebruary",
    "3264": "B.",
    "3265": "aten",
    "3266": "atent",
    "3267": "angu",
    "3268": "ommo",
    "3269": "ommon",
    "3270": "le ",
    "3271": "agi",
    "3272": "Ne",
    "3273": "New",
    "3274": "orn",
    "3275": "atu",
    "3276": "atur",
    "3277": "-n",
    "3278": "ener",
    "3279": "enera",
    "3280": "mus",
    "3281": "arge",
    "3282": "m (",
    "3283": " e",
    "3284": " es",
    "3285": " est",
    "3286": "7t",
    "3287": "7th",
    "3288": "urn",
    "3289": "ersi",
    "3290": "ersia",
    "3291": "reer",
    "3292": "ard",
    "3293": "ardw",
    "3294": "ardwa",
    "3295": "ardwar",
    "3296": "ardware",
    "3297": "py",
    "3298": "are ",
    "3299": "ames",
    "3300": "Er",
    "3301": "Era",
    "3302": "Eras",
    "3303": "/or",
    "3304": "etz",
    "3305": "etzi",
    "3306": "etzit",
    "3307": "lw",
    "3308": "lwa",
    "3309": "Who",
    "3310": "ank",
    "3311": "tas",
    "3312": "t-",
    "3313": "sf",
    "3314": "AIM-",
    "3315": "usa",
    "3316": "usal",
    "3317": "usale",
    "3318": "son",
    "3319": "bba",
    "3320": "bbar",
    "3321": "bbard",
    "3322": "etic",
    "3323": "ens",
    "3324": "ensi",
    "3325": "ensiv",
    "3326": "ensive",
    "3327": "ngd",
    "3328": "ngdo",
    "3329": "ralt",
    "3330": "ut ",
    "3331": "aba",
    "3332": "abat",
    "3333": "pris",
    "3334": "EE",
    "3335": "itia",
    "3336": "Ha",
    "3337": "gges",
    "3338": "ggest",
    "3339": "Bah",
    "3340": "dl",
    "3341": "dle",
    "3342": "ssue",
    "3343": "aph",
    "3344": "oul",
    "3345": "ara",
    "3346": "aga",
    "3347": "agaz",
    "3348": "eles",
    "3349": "eless",
    "3350": "fer",
    "3351": "vinc",
    "3352": "Bal",
    "3353": "Balk",
    "3354": "Balka",
    "3355": "Balkan",
    "3356": "enn",
    "3357": "nnis",
    "3358": "sia",
    "3359": "sian",
    "3360": "nual",
    "3361": "ey ",
    "3362": "yb",
    "3363": "ewe",
    "3364": "rry",
    "3365": "nor",
    "3366": "lou",
    "3367": "loud",
    "3368": "ffi",
    "3369": "ffic",
    "3370": ",0",
    "3371": ",00",
    "3372": ",000",
    "3373": "ref",
    "3374": "refo",
    "3375": "refor",
    "3376": "zar",
    "3377": "mes",
    "3378": "ptem",
    "3379": "cene",
    "3380": "eing",
    "3381": "Chr",
    "3382": "Chri",
    "3383": "Chris",
    "3384": ".*1",
    "3385": ".*19",
    "3386": "jac",
    "3387": "lep",
    "3388": "ook",
    "3389": "ets",
    "3390": "ybe",
    "3391": "istor",
    "3392": "Sox",
    "3393": "off",
    "3394": "oes",
    "3395": "sup ",
    "3396": "bsi",
    "3397": "bsit",
    "3398": "my",
    "3399": "myt",
    "3400": "myth",
    "3401": "Fa",
    "3402": "Far",
    "3403": "Faro",
    "3404": "veme",
    "3405": "vemen",
    "3406": "lai",
    "3407": "lain",
    "3408": "outh",
    "3409": "cei",
    "3410": "ceiv",
    "3411": "ract",
    "3412": "an ",
    "3413": "usin",
    "3414": "usine",
    "3415": "iven",
    "3416": "ngt",
    "3417": "aila",
    "3418": "ailab",
    "3419": "ten",
    "3420": "tent",
    "3421": " of ",
    "3422": "bn",
    "3423": "bni",
    "3424": "dj",
    "3425": "dje",
    "3426": "djec",
    "3427": "dject",
    "3428": "peri",
    "3429": "n ",
    "3430": "ws",
    "3431": "ish",
    "3432": "ncie",
    "3433": "rge",
    "3434": "Bea",
    "3435": "rom",
    "3436": "rom ",
    "3437": "stic",
    "3438": "Net",
    "3439": "Netw",
    "3440": "ur ",
    "3441": "AS",
    "3442": "ASC",
    "3443": "ASCI",
    "3444": "erag",
    "3445": "e|",
    "3446": "e| ",
    "3447": "phan",
    "3448": "olut",
    "3449": "ried",
    "3450": "with",
    "3451": "duca",
    "3452": "ducat",
    "3453": "asi",
    "3454": "asio",
    "3455": "asion",
    "3456": "lang",
    "3457": "langu",
    "3458": "but ",
    "3459": "ibu",
    "3460": "-|",
    "3461": "nef",
    "3462": "nefi",
    "3463": "his",
    "3464": "his ",
    "3465": "onto",
    "3466": "Power",
    "3467": "ould",
    "3468": " B",
    "3469": " Bo",
    "3470": " Bow",
    "3471": " Bowl",
    "3472": "ami",
    "3473": "amin",
    "3474": "dit",
    "3475": "oman",
    "3476": "ady",
    "3477": "sed ",
    "3478": "utio",
    "3479": "ution",
    "3480": "inem",
    "3481": "inema",
    "3482": "fon",
    "3483": "hing",
    "3484": "diti",
    "3485": "olog",
    "3486": "oct",
    "3487": "pik",
    "3488": "pike",
    "3489": "tler",
    "3490": "hard",
    "3491": "ourc",
    "3492": "Kh",
    "3493": "Kha",
    "3494": "leb",
    "3495": "lebr",
    "3496": "cre",
    "3497": "rtur",
    "3498": "rim",
    "3499": "!--",
    "3500": "den",
    "3501": "denc",
    "3502": "tim",
    "3503": "time",
    "3504": "nstei",
    "3505": "nstein",
    "3506": "s)",
    "3507": "8 /",
    "3508": "8 /s",
    "3509": "8 /su",
    "3510": "als",
    "3511": "also",
    "3512": "4)*",
    "3513": "oper",
    "3514": "opera",
    "3515": "ifie",
    "3516": "ified",
    "3517": "s*",
    "3518": "ee ",
    "3519": "tive",
    "3520": "tei",
    "3521": "tein",
    "3522": "ood",
    "3523": "Go",
    "3524": "Gov",
    "3525": "Gove",
    "3526": "Gover",
    "3527": "vr",
    "3528": "anc",
    "3529": "pio",
    "3530": "pion",
    "3531": "ole",
    "3532": "zig",
    "3533": "zige",
    "3534": "uca",
    "3535": "ucat",
    "3536": "nth",
    "3537": "osed",
    "3538": "logy",
    "3539": "cal",
    "3540": "ficia",
    "3541": "ficial",
    "3542": "otor",
    "3543": "nerg",
    "3544": "V -",
    "3545": "sr",
    "3546": "sra",
    "3547": "and",
    "3548": "and ",
    "3549": "ict",
    "3550": "dyn",
    "3551": "dyna",
    "3552": "dynam",
    "3553": "dynami",
    "3554": "lev",
    "3555": "levi",
    "3556": "levis",
    "3557": "abo",
    "3558": "Dec",
    "3559": "Deco",
    "3560": "nds",
    "3561": "nds ",
    "3562": "Fat",
    "3563": "Fath",
    "3564": "Fathe",
    "3565": "Father",
    "3566": "ibut",
    "3567": "ups",
    "3568": "pert",
    "3569": "Du",
    "3570": "awn",
    "3571": "awn ",
    "3572": "ave ",
    "3573": "ydr",
    "3574": "rough",
    "3575": "cau",
    "3576": "caus",
    "3577": "cause",
    "3578": "apt",
    "3579": "pin",
    "3580": "Ro",
    "3581": "Rom",
    "3582": "ump",
    "3583": "Gal",
    "3584": "Gala",
    "3585": "Galat",
    "3586": "Galati",
    "3587": "uen",
    "3588": "tud",
    "3589": "elan",
    "3590": "eland",
    "3591": "dan",
    "3592": "c.",
    "3593": "c.)",
    "3594": "to ",
    "3595": "Clinton",
    "3596": "Nu",
    "3597": "Nuc",
    "3598": "Nucl",
    "3599": "Thi",
    "3600": "Thir",
    "3601": "uk",
    "3602": "stat",
    "3603": "vil",
    "3604": "vily",
    "3605": "mina",
    "3606": "F)",
    "3607": " - ",
    "3608": "hab",
    "3609": "nbs",
    "3610": "nbsp",
    "3611": "rm ",
    "3612": "cus",
    "3613": "ww",
    "3614": "rsh",
    "3615": "gas",
    "3616": "ril",
    "3617": "rilo",
    "3618": "stit",
    "3619": "stitu",
    "3620": "stitut",
    "3621": "iso",
    "3622": "ison",
    "3623": "rot",
    "3624": "rote",
    "3625": "Fra",
    "3626": "Fran",
    "3627": "inum",
    "3628": "eer",
    "3629": "Ze",
    "3630": "Zea",
    "3631": "ised",
    "3632": "com",
    "3633": "comb",
    "3634": "combu",
    "3635": "combus",
    "3636": "combust",
    "3637": "erg",
    "3638": "cycl",
    "3639": "lv",
    "3640": "lvi",
    "3641": "Sat",
    "3642": "Satu",
    "3643": "Satur",
    "3644": "ree ",
    "3645": "EO",
    "3646": "cis",
    "3647": "deq",
    "3648": "dequ",
    "3649": "dict",
    "3650": "ging",
    "3651": " (",
    "3652": "rem",
    "3653": "Sc",
    "3654": "Sco",
    "3655": "Scot",
    "3656": "cro",
    "3657": "' ",
    "3658": "nf",
    "3659": "ivid",
    "3660": "ivide",
    "3661": "0s",
    "3662": "tig",
    "3663": "pula",
    "3664": " cent",
    "3665": "ron",
    "3666": "lui",
    "3667": "luid",
    "3668": "rede",
    "3669": "reder",
    "3670": "lice",
    "3671": "licen",
    "3672": "esen",
    "3673": "vent",
    "3674": "eel",
    "3675": "ized",
    "3676": "nsti",
    "3677": "nstit",
    "3678": "nstitu",
    "3679": "boy",
    "3680": "seas",
    "3681": "seaso",
    "3682": "season",
    "3683": "OL",
    "3684": "eis",
    "3685": "ligh",
    "3686": "light",
    "3687": "you",
    "3688": "s of",
    "3689": "s of ",
    "3690": "ds ",
    "3691": "OM",
    "3692": "urk",
    "3693": "tili",
    "3694": "efu",
    "3695": "5*",
    "3696": "ms",
    "3697": "ccor",
    "3698": "ccord",
    "3699": "amer",
    "3700": "houl",
    "3701": "hould",
    "3702": "sod",
    "3703": "sode",
    "3704": "Op",
    "3705": "Ope",
    "3706": "ras",
    "3707": "bniz",
    "3708": "un ",
    "3709": "ero",
    "3710": "Mo",
    "3711": "eus",
    "3712": "orat",
    "3713": "wev",
    "3714": "weve",
    "3715": "II",
    "3716": "hro",
    "3717": "itiz",
    "3718": " P",
    "3719": "roj",
    "3720": "roje",
    "3721": "rojec",
    "3722": "xim",
    "3723": "le t",
    "3724": "tua",
    "3725": "h,",
    "3726": "h, ",
    "3727": "ocr",
    "3728": "east",
    "3729": "mes ",
    "3730": "6 - ",
    "3731": "om ",
    "3732": "its ",
    "3733": "Mar",
    "3734": "Mary",
    "3735": "ska",
    "3736": "oint",
    "3737": "igib",
    "3738": "ect",
    "3739": "ught",
    "3740": "oved ",
    "3741": "tree",
    "3742": "treet",
    "3743": "ediate",
    "3744": "end",
    "3745": "tatis",
    "3746": "tatist",
    "3747": "alle",
    "3748": "alled",
    "3749": "anuar",
    "3750": "hol",
    "3751": "hola",
    "3752": "div",
    "3753": "divi",
    "3754": "isti",
    "3755": "istic",
    "3756": "3,",
    "3757": "3, ",
    "3758": "onso",
    "3759": "tend",
    "3760": "ah",
    "3761": "80",
    "3762": "80s",
    "3763": "tter",
    "3764": "tel",
    "3765": "tele",
    "3766": "ragm",
    "3767": "ragme",
    "3768": "ragmen",
    "3769": "ragment",
    "3770": "ilit",
    "3771": "n-",
    "3772": "other",
    "3773": "l-",
    "3774": "ider",
    "3775": "onee",
    "3776": "oneer",
    "3777": "ban",
    "3778": "band",
    "3779": "trie",
    "3780": "triev",
    "3781": "7-",
    "3782": "7-1",
    "3783": "sis",
    "3784": "gro",
    "3785": "grou",
    "3786": "groun",
    "3787": "ground",
    "3788": "Ya",
    "3789": "Yah",
    "3790": "Yahw",
    "3791": "Yahwe",
    "3792": "Yahweh",
    "3793": "hd",
    "3794": "hda",
    "3795": "Eni",
    "3796": "Enig",
    "3797": "Enigm",
    "3798": "slan",
    "3799": "sland",
    "3800": "Bab",
    "3801": "Babe",
    "3802": "ek",
    "3803": "rnat",
    "3804": "efa",
    "3805": "efac",
    "3806": "omp",
    "3807": "ompu",
    "3808": "omput",
    "3809": "qua",
    "3810": "For ",
    "3811": "nv",
    "3812": "nvi",
    "3813": "nvir",
    "3814": "nviro",
    "3815": "isin",
    "3816": "ys ",
    "3817": "upr",
    "3818": "upri",
    "3819": "edw",
    "3820": "edwi",
    "3821": "rst",
    "3822": "uld",
    "3823": "ill",
    "3824": "illi",
    "3825": "illia",
    "3826": "illiam",
    "3827": "ind",
    "3828": "ram",
    "3829": "rama",
    "3830": "rmo",
    "3831": "rmon",
    "3832": "ssib",
    "3833": "ssibl",
    "3834": "try",
    "3835": "phis",
    "3836": "igin",
    "3837": "sho",
    "3838": "shop",
    "3839": "vot",
    "3840": "athe",
    "3841": "ather",
    "3842": "Nig",
    "3843": "Nige",
    "3844": "Niger",
    "3845": "olv",
    "3846": "9-1",
    "3847": "bul",
    "3848": "ndas",
    "3849": "ndash",
    "3850": "tit",
    "3851": "titu",
    "3852": "rga",
    "3853": "rgan",
    "3854": "cret",
    "3855": "yri",
    "3856": "yria",
    "3857": "ided",
    "3858": "p:",
    "3859": "p:/",
    "3860": "G - ",
    "3861": " X",
    "3862": "bol",
    "3863": "asia",
    "3864": "etra",
    "3865": "Ottom",
    "3866": "Ottoma",
    "3867": "Ottoman",
    "3868": "oid",
    "3869": "aut",
    "3870": "ncl",
    "3871": "nclu",
    "3872": "nclud",
    "3873": "erti",
    "3874": "ertic",
    "3875": "hei",
    "3876": "heis",
    "3877": "lp",
    "3878": "lp ",
    "3879": "r b",
    "3880": "r br",
    "3881": "yed",
    "3882": "itle",
    "3883": "aic",
    "3884": "omes",
    "3885": "omest",
    "3886": "omesti",
    "3887": "omestic",
    "3888": "pite",
    "3889": "ledg",
    "3890": "pect",
    "3891": "3 - ",
    "3892": "tor",
    "3893": "Xi",
    "3894": "xic",
    "3895": "owever",
    "3896": "ea ",
    "3897": "ound",
    "3898": "math",
    "3899": "eni",
    "3900": "enio",
    "3901": "enior",
    "3902": "by ",
    "3903": "ure ",
    "3904": "ient",
    "3905": "oup",
    "3906": "dis",
    "3907": "dist",
    "3908": "distr",
    "3909": "distri",
    "3910": "distrib",
    "3911": "distribu",
    "3912": "gula",
    "3913": "ament",
    "3914": "Pir",
    "3915": "sli",
    "3916": "slim",
    "3917": "wid",
    "3918": "wide",
    "3919": "ouv",
    "3920": ".e.",
    "3921": "La",
    "3922": "Lan",
    "3923": "Lang",
    "3924": "Langu",
    "3925": "ske",
    "3926": "sker",
    "3927": "uring",
    "3928": "who ",
    "3929": "ther",
    "3930": "IM",
    "3931": "IMS",
    "3932": "lac",
    "3933": "kl",
    "3934": "kli",
    "3935": "klin",
    "3936": "freq",
    "3937": "frequ",
    "3938": "mun",
    "3939": "muni",
    "3940": "/td",
    "3941": "Ele",
    "3942": "Elec",
    "3943": "Elect",
    "3944": "eim",
    "3945": "pub",
    "3946": "publ",
    "3947": "publi",
    "3948": "omma",
    "3949": "omman",
    "3950": "lue",
    "3951": "gos",
    "3952": "gosl",
    "3953": "cif",
    "3954": "vern",
    "3955": "spread",
    "3956": "sbi",
    "3957": "sbia",
    "3958": "sbian",
    "3959": " (d",
    "3960": " (d.",
    "3961": " (d. ",
    "3962": "th ",
    "3963": "LG",
    "3964": "obi",
    "3965": "obil",
    "3966": "ock",
    "3967": "bja",
    "3968": "dia",
    "3969": "nom",
    "3970": "velt",
    "3971": "xod",
    "3972": "xodo",
    "3973": "bet",
    "3974": "oti",
    "3975": "F --",
    "3976": "nota",
    "3977": "notab",
    "3978": "Em",
    "3979": "eror",
    "3980": "oba",
    "3981": "obal",
    "3982": "mme",
    "3983": "mmer",
    "3984": "rk ",
    "3985": "ali",
    "3986": "alig",
    "3987": "align",
    "3988": "align=",
    "3989": "obl",
    "3990": "oble",
    "3991": "oblem",
    "3992": "oots",
    "3993": "ootst",
    "3994": "ootstr",
    "3995": "ootstra",
    "3996": "ootstrap",
    "3997": "inav",
    "3998": "ox",
    "3999": " /s",
    "4000": " /su",
    "4001": "hos",
    "4002": "host",
    "4003": "num",
    "4004": "wic",
    "4005": "wick",
    "4006": "nsiv",
    "4007": "nsive",
    "4008": "uki",
    "4009": "gle",
    "4010": "visi",
    "4011": "visio",
    "4012": "vision",
    "4013": "rah",
    "4014": "raha",
    "4015": "raham",
    "4016": "stei",
    "4017": "stein",
    "4018": "Na",
    "4019": "Nat",
    "4020": "Nati",
    "4021": "Natio",
    "4022": "Nation",
    "4023": "vic",
    "4024": "vice",
    "4025": "ford",
    "4026": "7tr",
    "4027": "7tr ",
    "4028": "7tr t",
    "4029": "7tr td",
    "4030": "epend",
    "4031": "on ",
    "4032": "tin",
    "4033": "ting",
    "4034": "bbey",
    "4035": "hn ",
    "4036": "Gen",
    "4037": "wo ",
    "4038": "hew",
    "4039": "U ",
    "4040": "dica",
    "4041": "dicat",
    "4042": "bui",
    "4043": "buil",
    "4044": "Fem",
    "4045": "Fema",
    "4046": "Femal",
    "4047": "Female",
    "4048": "zed",
    "4049": "zed ",
    "4050": "itor",
    "4051": "eleo",
    "4052": "eleon",
    "4053": "oge",
    "4054": "ogen",
    "4055": "ken",
    "4056": "hand",
    "4057": "aly",
    "4058": "Min",
    "4059": "Mini",
    "4060": "Minis",
    "4061": "p ",
    "4062": "hind",
    "4063": "nto",
    "4064": "nton",
    "4065": "ulp",
    "4066": "ulpt",
    "4067": "from ",
    "4068": "eli",
    "4069": "elig",
    "4070": "4*",
    "4071": "iu",
    "4072": "ium",
    "4073": "I -",
    "4074": "LU",
    "4075": "rase",
    "4076": "lleg",
    "4077": "ied",
    "4078": "tea",
    "4079": "tead",
    "4080": "Hed",
    "4081": "Hede",
    "4082": "osi",
    "4083": "osit",
    "4084": "zz",
    "4085": "ece",
    "4086": " (b",
    "4087": " (b.",
    "4088": " (b. ",
    "4089": "nia",
    "4090": "600",
    "4091": "Da",
    "4092": "indo",
    "4093": "indow",
    "4094": "ysis",
    "4095": "apo",
    "4096": "apol",
    "4097": "Is",
    "4098": "Isr",
    "4099": "Isra",
    "4100": "Israe",
    "4101": "Israel",
    "4102": "NA",
    "4103": "or ",
    "4104": "jun",
    "4105": "junc",
    "4106": "junct",
    "4107": "4tr",
    "4108": "4tr ",
    "4109": "4tr t",
    "4110": "4tr td",
    "4111": " W",
    "4112": "part",
    "4113": "ts ",
    "4114": "Li",
    "4115": "diu",
    "4116": "dium",
    "4117": "6tr",
    "4118": "6tr ",
    "4119": "6tr t",
    "4120": "6tr td",
    "4121": "ry ",
    "4122": "ance",
    "4123": "ptu",
    "4124": "ptur",
    "4125": "liq",
    "4126": "liqu",
    "4127": "emin",
    "4128": "phen",
    "4129": "gee",
    "4130": "ake",
    "4131": "aken",
    "4132": "omos",
    "4133": "omose",
    "4134": "omosex",
    "4135": "king",
    "4136": "ered",
    "4137": "o-",
    "4138": "re ",
    "4139": "lod",
    "4140": "ving",
    "4141": "sue",
    "4142": "ean",
    "4143": "arr",
    "4144": "arry",
    "4145": "ke ",
    "4146": "efi",
    "4147": "rtr",
    "4148": "nne",
    "4149": "nnec",
    "4150": "nnect",
    "4151": "tr ",
    "4152": "pac",
    "4153": "ius",
    "4154": "lm",
    "4155": "dox",
    "4156": "pe ",
    "4157": "-A",
    "4158": "-Am",
    "4159": "-Ame",
    "4160": "-Amer",
    "4161": "-Ameri",
    "4162": "4-",
    "4163": "beh",
    "4164": "them",
    "4165": "thema",
    "4166": "themat",
    "4167": "ilm",
    "4168": "lica",
    "4169": "God",
    "4170": "Af",
    "4171": "Afg",
    "4172": "Afgh",
    "4173": "vea",
    "4174": "veal",
    "4175": "oci",
    "4176": "mma",
    "4177": "ime",
    "4178": "lon",
    "4179": "sep",
    "4180": "seph",
    "4181": "org",
    "4182": "ch as ",
    "4183": "dow",
    "4184": "down",
    "4185": "cat",
    "4186": "ggl",
    "4187": "tn",
    "4188": "tna",
    "4189": "tnam",
    "4190": "hat ",
    "4191": "ny ",
    "4192": "osti",
    "4193": "ostic",
    "4194": "ndow",
    "4195": "wher",
    "4196": "where",
    "4197": "so ",
    "4198": "hon",
    "4199": "hone",
    "4200": "yber",
    "4201": "90",
    "4202": "90s",
    "4203": "ust ",
    "4204": " to ",
    "4205": "Emp",
    "4206": " f",
    "4207": " fo",
    "4208": " for",
    "4209": "pid",
    "4210": "ify ",
    "4211": "yon",
    "4212": "yond",
    "4213": "t.",
    "4214": "ditio",
    "4215": "dition",
    "4216": "zec",
    "4217": "zech",
    "4218": "dig",
    "4219": "digi",
    "4220": "digit",
    "4221": "Alb",
    "4222": "Alba",
    "4223": "Alban",
    "4224": "eet",
    "4225": "empt",
    "4226": "-1",
    "4227": "w ",
    "4228": "lib",
    "4229": "libe",
    "4230": "liber",
    "4231": "E -",
    "4232": "E --",
    "4233": "anis",
    "4234": "anish",
    "4235": "dva",
    "4236": "dvan",
    "4237": "nhag",
    "4238": "nhage",
    "4239": "ired",
    "4240": "9t",
    "4241": "9th",
    "4242": "ecut",
    "4243": "port",
    "4244": "lve",
    "4245": "eiv",
    "4246": ";1",
    "4247": "ugha",
    "4248": "ughal",
    "4249": "anin",
    "4250": "aning",
    "4251": "orl",
    "4252": "orld",
    "4253": "C b",
    "4254": "C br",
    "4255": "ced",
    "4256": "xu",
    "4257": "xua",
    "4258": "arif",
    "4259": "Pr",
    "4260": "Pro",
    "4261": "aeo",
    "4262": "aeol",
    "4263": "aeolo",
    "4264": "aeolog",
    "4265": "ign",
    "4266": "my ",
    "4267": "it ",
    "4268": "odu",
    "4269": "odul",
    "4270": "aul",
    "4271": "ault",
    "4272": "BO",
    "4273": "BOL",
    "4274": "lack",
    "4275": "ne ",
    "4276": "ddle",
    "4277": "seq",
    "4278": "sequ",
    "4279": "pher",
    "4280": "Sta",
    "4281": "Stat",
    "4282": "ipa",
    "4283": "inge",
    "4284": "inger",
    "4285": "urch",
    "4286": "nie",
    "4287": "nies",
    "4288": "50",
    "4289": "50s",
    "4290": "hni",
    "4291": "hnic",
    "4292": "Army",
    "4293": "ve ",
    "4294": "nry",
    "4295": "urt",
    "4296": "hich",
    "4297": "gne",
    "4298": "vement",
    "4299": "stri",
    "4300": "strib",
    "4301": "stribu",
    "4302": "orc",
    "4303": "orce",
    "4304": "via",
    "4305": "ada",
    "4306": "adar",
    "4307": "mpu",
    "4308": "mput",
    "4309": "sear",
    "4310": "bon",
    "4311": "bond",
    "4312": "bout ",
    "4313": "wea",
    "4314": "ast",
    "4315": "icr",
    "4316": "icro",
    "4317": "ink",
    "4318": "ink ",
    "4319": "5-"
  },
  "merges": {
    "71,66": 94,
    "94,60": 95,
    "95,64": 96,
    "77,64": 97,
    "97,60": 98,
    "98,78": 99,
    "78,64": 100,
    "100,71": 101,
    "101,65": 102,
    "64,60": 103,
    "103,62": 104,
    "104,79": 105,
    "73,78": 106,
    "106,1": 107,
    "60,73": 108,
    "108,68": 109,
    "109,64": 110,
    "110,78": 111,
    "65,68": 112,
    "112,73": 113,
    "113,68": 114,
    "33,1": 115,
    "115,12": 116,
    "73,71": 117,
    "117,84": 118,
    "71,84": 119,
    "119,68": 120,
    "120,73": 121,
    "121,66": 122,
    "75,60": 123,
    "78,78": 124,
    "124,80": 125,
    "125,77": 126,
    "61,64": 127,
    "127,77": 128,
    "128,79": 129,
    "73,60": 130,
    "130,77": 131,
    "131,63": 132,
    "68,79": 133,
    "133,80": 134,
    "134,79": 135,
    "64,63": 136,
    "136,68": 137,
    "73,64": 138,
    "138,77": 139,
    "64,83": 140,
    "140,60": 141,
    "71,71": 142,
    "142,64": 143,
    "143,84": 144,
    "67,80": 145,
    "145,78": 146,
    "71,60": 147,
    "147,79": 148,
    "64,80": 149,
    "149,63": 150,
    "82,60": 151,
    "151,77": 152,
    "152,64": 153,
    "79,71": 154,
    "154,64": 155,
    "155,1": 156,
    "80,71": 157,
    "157,71": 158,
    "68,65": 159,
    "159,74": 160,
    "160,77": 161,
    "161,73": 162,
    "159,68": 163,
    "66,77": 164,
    "164,64": 165,
    "165,64": 166,
    "77,63": 167,
    "63,60": 168,
    "168,77": 169,
    "78,79": 170,
    "170,68": 171,
    "171,81": 172,
    "48,79": 173,
    "17,1": 174,
    "174,12": 175,
    "40,68": 176,
    "176,73": 177,
    "177,66": 178,
    "178,63": 179,
    "179,74": 180,
    "77,77": 181,
    "181,60": 182,
    "182,84": 183,
    "77,74": 184,
    "184,74": 185,
    "185,72": 186,
    "68,62": 187,
    "187,67": 188,
    "67,60": 189,
    "189,77": 190,
    "16,5": 191,
    "71,70": 192,
    "84,85": 193,
    "193,60": 194,
    "194,73": 195,
    "62,74": 196,
    "196,79": 197,
    "80,75": 198,
    "198,64": 199,
    "199,77": 200,
    "64,71": 201,
    "1,79": 202,
    "202,74": 203,
    "75,77": 204,
    "204,64": 205,
    "205,79": 206,
    "67,74": 207,
    "207,77": 208,
    "208,63": 209,
    "30,38": 210,
    "210,42": 211,
    "207,74": 212,
    "212,71": 213,
    "66,84": 214,
    "214,75": 215,
    "215,79": 216,
    "65,80": 217,
    "112,77": 218,
    "218,72": 219,
    "82,79": 220,
    "220,67": 221,
    "75,74": 222,
    "222,77": 223,
    "62,60": 224,
    "224,78": 225,
    "72,61": 226,
    "226,74": 227,
    "227,71": 228,
    "8,11": 229,
    "229,1": 230,
    "75,68": 231,
    "231,71": 232,
    "232,74": 233,
    "97,73": 234,
    "234,60": 235,
    "133,67": 236,
    "236,64": 237,
    "112,64": 238,
    "238,71": 239,
    "239,63": 240,
    "8,3": 241,
    "60,71": 242,
    "242,71": 243,
    "243,84": 244,
    "244,1": 245,
    "1,60": 246,
    "246,73": 247,
    "247,63": 248,
    "68,66": 249,
    "249,74": 250,
    "68,77": 251,
    "251,79": 252,
    "252,67": 253,
    "73,74": 254,
    "254,82": 255,
    "255,73": 256,
    "64,77": 257,
    "257,64": 258,
    "258,72": 259,
    "184,63": 260,
    "260,80": 261,
    "261,62": 262,
    "30,1": 263,
    "71,64": 264,
    "264,82": 265,
    "78,74": 266,
    "266,77": 267,
    "60,78": 268,
    "268,1": 269,
    "77,80": 270,
    "270,78": 271,
    "271,79": 272,
    "1,61": 273,
    "273,77": 274,
    "127,1": 275,
    "74,73": 276,
    "276,66": 277,
    "277,74": 278,
    "268,64": 279,
    "279,63": 280,
    "74,74": 281,
    "281,71": 282,
    "226,64": 283,
    "283,77": 284,
    "15,15": 285,
    "285,15": 286,
    "64,72": 287,
    "287,60": 288,
    "61,61": 289,
    "289,84": 290,
    "80,66": 291,
    "291,1": 292,
    "68,78": 293,
    "293,78": 294,
    "294,60": 295,
    "295,73": 296,
    "296,62": 297,
    "297,64": 298,
    "68,71": 299,
    "299,74": 300,
    "300,78": 301,
    "301,74": 302,
    "71,68": 303,
    "303,75": 304,
    "103,79": 305,
    "75,67": 306,
    "306,64": 307,
    "307,82": 308,
    "187,64": 309,
    "309,73": 310,
    "74,71": 311,
    "78,68": 312,
    "312,74": 313,
    "313,73": 314,
    "79,77": 315,
    "315,74": 316,
    "74,79": 317,
    "317,1": 318,
    "64,61": 319,
    "319,60": 320,
    "41,1": 321,
    "77,72": 322,
    "73,61": 323,
    "62,79": 324,
    "324,68": 325,
    "325,62": 326,
    "66,60": 327,
    "327,72": 328,
    "24,5": 329,
    "251,63": 330,
    "330,1": 331,
    "69,80": 332,
    "332,78": 333,
    "333,79": 334,
    "44,63": 335,
    "335,84": 336,
    "336,78": 337,
    "124,74": 338,
    "338,62": 339,
    "339,68": 340,
    "340,60": 341,
    "42,60": 342,
    "342,62": 343,
    "60,65": 344,
    "344,79": 345,
    "345,64": 346,
    "64,79": 347,
    "347,84": 348,
    "348,71": 349,
    "79,84": 350,
    "350,75": 351,
    "77,71": 352,
    "352,84": 353,
    "249,67": 354,
    "127,73": 355,
    "355,62": 356,
    "356,67": 357,
    "68,73": 358,
    "358,1": 359,
    "151,78": 360,
    "360,1": 361,
    "79,74": 362,
    "362,72": 363,
    "66,63": 364,
    "364,60": 365,
    "365,71": 366,
    "37,64": 367,
    "367,1": 368,
    "77,60": 369,
    "369,66": 370,
    "64,1": 371,
    "371,79": 372,
    "372,74": 373,
    "80,77": 374,
    "374,62": 375,
    "31,74": 376,
    "207,63": 377,
    "32,74": 378,
    "7,61": 379,
    "379,13": 380,
    "380,1": 381,
    "73,63": 382,
    "382,60": 383,
    "383,73": 384,
    "85,68": 385,
    "201,61": 386,
    "77,62": 387,
    "387,67": 388,
    "358,64": 389,
    "389,63": 390,
    "71,74": 391,
    "391,82": 392,
    "392,73": 393,
    "75,79": 394,
    "394,68": 395,
    "312,79": 396,
    "74,75": 397,
    "397,71": 398,
    "67,84": 399,
    "399,75": 400,
    "72,60": 401,
    "226,71": 402,
    "40,60": 403,
    "74,72": 404,
    "404,61": 405,
    "405,68": 406,
    "406,60": 407,
    "22,5": 408,
    "68,61": 409,
    "409,61": 410,
    "49,44": 411,
    "61,71": 412,
    "412,68": 413,
    "391,79": 414,
    "61,74": 415,
    "415,80": 416,
    "416,79": 417,
    "317,61": 418,
    "418,60": 419,
    "322,60": 420,
    "420,71": 421,
    "1,27": 422,
    "422,1": 423,
    "391,77": 424,
    "424,63": 425,
    "83,1": 426,
    "71,80": 427,
    "427,63": 428,
    "428,64": 429,
    "321,61": 430,
    "430,77": 431,
    "74,80": 432,
    "432,73": 433,
    "433,79": 434,
    "60,81": 435,
    "435,64": 436,
    "436,77": 437,
    "60,66": 438,
    "438,64": 439,
    "68,60": 440,
    "440,79": 441,
    "268,74": 442,
    "442,73": 443,
    "404,60": 444,
    "98,63": 445,
    "445,84": 446,
    "11,25": 447,
    "332,77": 448,
    "187,71": 449,
    "449,64": 450,
    "61,68": 451,
    "451,71": 452,
    "452,68": 453,
    "38,79": 454,
    "454,1": 455,
    "74,82": 456,
    "456,64": 457,
    "457,81": 458,
    "458,64": 459,
    "80,73": 460,
    "460,68": 461,
    "461,79": 462,
    "224,75": 463,
    "463,64": 464,
    "464,63": 465,
    "224,66": 466,
    "466,74": 467,
    "159,84": 468,
    "37,74": 469,
    "469,82": 470,
    "470,64": 471,
    "471,81": 472,
    "472,64": 473,
    "33,68": 474,
    "474,66": 475,
    "475,68": 476,
    "81,64": 477,
    "477,72": 478,
    "478,61": 479,
    "479,64": 480,
    "312,66": 481,
    "481,73": 482,
    "68,74": 483,
    "483,77": 484,
    "22,1": 485,
    "62,62": 486,
    "486,74": 487,
    "60,77": 488,
    "488,75": 489,
    "489,71": 490,
    "490,64": 491,
    "18,8": 492,
    "358,73": 493,
    "493,68": 494,
    "494,73": 495,
    "495,66": 496,
    "66,80": 497,
    "497,78": 498,
    "498,79": 499,
    "257,84": 500,
    "500,1": 501,
    "100,77": 502,
    "257,73": 503,
    "79,67": 504,
    "504,80": 505,
    "505,77": 506,
    "324,74": 507,
    "507,77": 508,
    "65,84": 509,
    "63,63": 510,
    "510,64": 511,
    "46,80": 512,
    "60,79": 513,
    "513,68": 514,
    "514,78": 515,
    "515,65": 516,
    "64,81": 517,
    "517,64": 518,
    "518,77": 519,
    "141,73": 520,
    "520,63": 521,
    "60,63": 522,
    "522,64": 523,
    "523,77": 524,
    "71,1": 525,
    "236,72": 526,
    "63,77": 527,
    "488,79": 528,
    "528,64": 529,
    "264,83": 530,
    "37,1": 531,
    "531,12": 532,
    "13,1": 533,
    "79,60": 534,
    "534,66": 535,
    "79,64": 536,
    "536,78": 537,
    "9,50": 538,
    "538,73": 539,
    "539,68": 540,
    "540,81": 541,
    "541,64": 542,
    "542,77": 543,
    "61,60": 544,
    "544,61": 545,
    "22,8": 546,
    "546,9": 547,
    "451,78": 548,
    "548,62": 549,
    "549,80": 550,
    "32,60": 551,
    "83,60": 552,
    "552,73": 553,
    "553,63": 554,
    "78,62": 555,
    "555,67": 556,
    "347,67": 557,
    "324,80": 558,
    "558,77": 559,
    "504,72": 560,
    "83,75": 561,
    "561,71": 562,
    "401,77": 563,
    "77,68": 564,
    "3,40": 565,
    "79,8": 566,
    "207,80": 567,
    "567,66": 568,
    "568,67": 569,
    "77,79": 570,
    "47,64": 571,
    "142,74": 572,
    "72,75": 573,
    "573,74": 574,
    "574,78": 575,
    "74,62": 576,
    "576,60": 577,
    "577,80": 578,
    "578,78": 579,
    "579,79": 580,
    "68,72": 581,
    "581,75": 582,
    "582,74": 583,
    "68,76": 584,
    "584,80": 585,
    "147,78": 586,
    "586,78": 587,
    "75,64": 588,
    "588,73": 589,
    "73,62": 590,
    "590,67": 591,
    "70,77": 592,
    "592,60": 593,
    "60,85": 594,
    "594,68": 595,
    "595,73": 596,
    "596,64": 597,
    "79,68": 598,
    "598,77": 599,
    "599,64": 600,
    "157,79": 601,
    "51,60": 602,
    "602,71": 603,
    "603,71": 604,
    "77,61": 605,
    "435,84": 606,
    "270,68": 607,
    "607,78": 608,
    "67,64": 609,
    "609,77": 610,
    "49,64": 611,
    "611,78": 612,
    "612,78": 613,
    "147,84": 614,
    "397,79": 615,
    "62,71": 616,
    "616,80": 617,
    "617,63": 618,
    "60,84": 619,
    "619,78": 620,
    "488,84": 621,
    "621,1": 622,
    "123,61": 623,
    "623,71": 624,
    "624,64": 625,
    "299,68": 626,
    "276,63": 627,
    "8,13": 628,
    "82,73": 629,
    "629,1": 630,
    "222,73": 631,
    "64,68": 632,
    "632,73": 633,
    "633,85": 634,
    "573,71": 635,
    "635,64": 636,
    "65,79": 637,
    "637,64": 638,
    "263,32": 639,
    "287,78": 640,
    "640,1": 641,
    "84,60": 642,
    "642,73": 643,
    "201,60": 644,
    "358,68": 645,
    "645,74": 646,
    "646,73": 647,
    "39,64": 648,
    "648,78": 649,
    "649,80": 650,
    "42,1": 651,
    "651,12": 652,
    "133,79": 653,
    "653,64": 654,
    "358,60": 655,
    "655,71": 656,
    "71,65": 657,
    "657,74": 658,
    "658,73": 659,
    "80,68": 660,
    "660,71": 661,
    "84,72": 662,
    "74,77": 663,
    "663,75": 664,
    "664,74": 665,
    "130,67": 666,
    "666,74": 667,
    "536,62": 668,
    "668,79": 669,
    "460,62": 670,
    "64,27": 671,
    "60,68": 672,
    "672,72": 673,
    "72,68": 674,
    "674,60": 675,
    "675,71": 676,
    "45,68": 677,
    "677,71": 678,
    "678,74": 679,
    "679,79": 680,
    "358,74": 681,
    "81,68": 682,
    "682,64": 683,
    "683,79": 684,
    "23,1": 685,
    "685,3": 686,
    "305,80": 687,
    "687,77": 688,
    "293,68": 689,
    "616,64": 690,
    "690,78": 691,
    "691,68": 692,
    "12,36": 693,
    "74,81": 694,
    "694,68": 695,
    "695,64": 696,
    "64,62": 697,
    "697,70": 698,
    "31,64": 699,
    "699,73": 700,
    "700,62": 701,
    "701,67": 702,
    "534,77": 703,
    "672,68": 704,
    "32,41": 705,
    "401,79": 706,
    "287,75": 707,
    "108,73": 708,
    "708,74": 709,
    "73,66": 710,
    "710,64": 711,
    "71,61": 712,
    "712,80": 713,
    "713,72": 714,
    "73,68": 715,
    "715,78": 716,
    "30,80": 717,
    "717,79": 718,
    "718,74": 719,
    "84,71": 720,
    "720,64": 721,
    "42,12": 722,
    "170,77": 723,
    "723,74": 724,
    "1,30": 725,
    "19,79": 726,
    "726,67": 727,
    "45,1": 728,
    "728,61": 729,
    "729,77": 730,
    "60,61": 731,
    "731,64": 732,
    "732,79": 733,
    "147,82": 734,
    "69,64": 735,
    "735,62": 736,
    "242,77": 737,
    "737,84": 738,
    "376,80": 739,
    "739,77": 740,
    "159,64": 741,
    "276,68": 742,
    "663,63": 743,
    "60,75": 744,
    "744,60": 745,
    "108,66": 746,
    "746,64": 747,
    "747,71": 748,
    "391,66": 749,
    "303,72": 750,
    "378,77": 751,
    "751,75": 752,
    "752,74": 753,
    "753,77": 754,
    "754,60": 755,
    "68,63": 756,
    "756,64": 757,
    "757,73": 758,
    "72,74": 759,
    "759,79": 760,
    "251,78": 761,
    "123,77": 762,
    "264,60": 763,
    "63,78": 764,
    "369,79": 765,
    "75,80": 766,
    "766,78": 767,
    "64,12": 768,
    "28,9": 769,
    "63,1": 770,
    "770,73": 771,
    "771,74": 772,
    "772,79": 773,
    "34,68": 774,
    "774,78": 775,
    "775,64": 776,
    "776,73": 777,
    "130,73": 778,
    "246,77": 779,
    "779,79": 780,
    "374,68": 781,
    "781,73": 782,
    "72,64": 783,
    "783,1": 784,
    "70,64": 785,
    "76,80": 786,
    "786,64": 787,
    "54,74": 788,
    "788,77": 789,
    "789,70": 790,
    "73,79": 791,
    "791,77": 792,
    "792,84": 793,
    "231,64": 794,
    "794,62": 795,
    "795,64": 796,
    "354,79": 797,
    "80,62": 798,
    "31,77": 799,
    "62,80": 800,
    "800,79": 801,
    "258,73": 802,
    "802,62": 803,
    "327,73": 804,
    "75,75": 805,
    "805,74": 806,
    "78,84": 807,
    "807,62": 808,
    "808,67": 809,
    "510,71": 810,
    "30,68": 811,
    "811,77": 812,
    "537,1": 813,
    "62,84": 814,
    "814,79": 815,
    "74,65": 816,
    "816,1": 817,
    "536,63": 818,
    "33,38": 819,
    "819,51": 820,
    "820,1": 821,
    "785,63": 822,
    "254,74": 823,
    "823,73": 824,
    "231,77": 825,
    "27,1": 826,
    "80,64": 827,
    "827,1": 828,
    "138,78": 829,
    "829,78": 830,
    "48,74": 831,
    "831,73": 832,
    "832,66": 833,
    "15,1": 834,
    "834,12": 835,
    "835,1": 836,
    "189,81": 837,
    "138,60": 838,
    "756,1": 839,
    "45,74": 840,
    "840,82": 841,
    "841,64": 842,
    "20,1": 843,
    "843,12": 844,
    "63,73": 845,
    "327,79": 846,
    "791,60": 847,
    "322,68": 848,
    "63,13": 849,
    "79,79": 850,
    "850,75": 851,
    "9,16": 852,
    "852,24": 853,
    "534,81": 854,
    "311,74": 855,
    "28,1": 856,
    "276,60": 857,
    "857,71": 858,
    "80,63": 859,
    "63,76": 860,
    "860,80": 861,
    "861,74": 862,
    "67,73": 863,
    "69,74": 864,
    "864,77": 865,
    "249,68": 866,
    "866,74": 867,
    "78,75": 868,
    "868,68": 869,
    "869,79": 870,
    "43,50": 871,
    "871,1": 872,
    "300,79": 873,
    "63,80": 874,
    "874,78": 875,
    "875,79": 876,
    "66,71": 877,
    "877,60": 878,
    "201,71": 879,
    "78,80": 880,
    "71,79": 881,
    "881,80": 882,
    "882,77": 883,
    "62,67": 884,
    "884,80": 885,
    "885,77": 886,
    "886,62": 887,
    "887,67": 888,
    "66,64": 889,
    "889,77": 890,
    "64,78": 891,
    "891,64": 892,
    "77,73": 893,
    "893,60": 894,
    "196,77": 895,
    "895,63": 896,
    "97,78": 897,
    "897,68": 898,
    "898,63": 899,
    "798,71": 900,
    "133,71": 901,
    "783,73": 902,
    "902,78": 903,
    "581,74": 904,
    "904,73": 905,
    "65,12": 906,
    "672,71": 907,
    "84,64": 908,
    "908,60": 909,
    "909,77": 910,
    "100,83": 911,
    "534,67": 912,
    "19,1": 913,
    "13,9": 914,
    "82,64": 915,
    "915,67": 916,
    "657,12": 917,
    "266,62": 918,
    "918,68": 919,
    "919,60": 920,
    "293,79": 921,
    "921,74": 922,
    "149,72": 923,
    "317,60": 924,
    "924,71": 925,
    "79,82": 926,
    "926,74": 927,
    "927,77": 928,
    "60,80": 929,
    "929,77": 930,
    "930,60": 931,
    "38,45": 932,
    "64,64": 933,
    "933,73": 934,
    "791,64": 935,
    "935,73": 936,
    "936,79": 937,
    "488,78": 938,
    "65,74": 939,
    "706,68": 940,
    "837,68": 941,
    "941,74": 942,
    "850,74": 943,
    "943,72": 944,
    "590,84": 945,
    "68,64": 946,
    "946,71": 947,
    "947,63": 948,
    "60,72": 949,
    "949,64": 950,
    "950,73": 951,
    "586,70": 952,
    "226,68": 953,
    "64,73": 954,
    "954,64": 955,
    "61,66": 956,
    "956,62": 957,
    "957,74": 958,
    "82,74": 959,
    "369,73": 960,
    "960,78": 961,
    "281,79": 962,
    "962,61": 963,
    "963,60": 964,
    "831,81": 965,
    "965,68": 966,
    "966,64": 967,
    "967,79": 968,
    "189,78": 969,
    "969,1": 970,
    "682,77": 971,
    "971,74": 972,
    "564,66": 973,
    "973,68": 974,
    "974,73": 975,
    "598,64": 976,
    "902,79": 977,
    "404,74": 978,
    "488,62": 979,
    "979,67": 980,
    "312,62": 981,
    "196,73": 982,
    "982,74": 983,
    "983,72": 984,
    "880,71": 985,
    "1,14": 986,
    "986,79": 987,
    "488,68": 988,
    "77,66": 989,
    "989,74": 990,
    "77,1": 991,
    "991,74": 992,
    "992,65": 993,
    "993,1": 994,
    "74,63": 995,
    "995,74": 996,
    "996,73": 997,
    "404,64": 998,
    "998,73": 999,
    "85,64": 1000,
    "1000,1": 1001,
    "257,72": 1002,
    "1002,78": 1003,
    "535,64": 1004,
    "276,78": 1005,
    "1005,79": 1006,
    "65,77": 1007,
    "1007,74": 1008,
    "1008,61": 1009,
    "1009,64": 1010,
    "682,63": 1011,
    "1011,64": 1012,
    "1012,63": 1013,
    "237,77": 1014,
    "33,64": 1015,
    "1015,66": 1016,
    "1016,64": 1017,
    "1017,73": 1018,
    "65,64": 1019,
    "1019,78": 1020,
    "1020,78": 1021,
    "78,70": 1022,
    "21,1": 1023,
    "1023,12": 1024,
    "264,78": 1025,
    "1025,78": 1026,
    "598,71": 1027,
    "759,62": 1028,
    "1028,77": 1029,
    "270,75": 1030,
    "1030,79": 1031,
    "358,62": 1032,
    "1007,68": 1033,
    "1033,62": 1034,
    "1034,60": 1035,
    "68,85": 1036,
    "151,84": 1037,
    "31,84": 1038,
    "1038,64": 1039,
    "1039,77": 1040,
    "287,61": 1041,
    "68,75": 1042,
    "1042,71": 1043,
    "509,1": 1044,
    "130,79": 1045,
    "1045,68": 1046,
    "118,1": 1047,
    "1,15": 1048,
    "62,68": 1049,
    "1049,73": 1050,
    "1050,73": 1051,
    "181,74": 1052,
    "1052,82": 1053,
    "196,67": 1054,
    "1054,74": 1055,
    "1055,71": 1056,
    "66,78": 1057,
    "369,63": 1058,
    "85,60": 1059,
    "1059,61": 1060,
    "184,71": 1061,
    "1061,71": 1062,
    "884,60": 1063,
    "201,74": 1064,
    "1064,75": 1065,
    "106,79": 1066,
    "49,67": 1067,
    "1067,64": 1068,
    "1068,1": 1069,
    "67,77": 1070,
    "66,1": 1071,
    "488,70": 1072,
    "358,79": 1073,
    "756,60": 1074,
    "1074,71": 1075,
    "268,78": 1076,
    "485,12": 1077,
    "1077,1": 1078,
    "257,77": 1079,
    "1079,64": 1080,
    "103,78": 1081,
    "1049,71": 1082,
    "1082,71": 1083,
    "251,60": 1084,
    "1084,61": 1085,
    "1085,71": 1086,
    "81,60": 1087,
    "1087,73": 1088,
    "1088,73": 1089,
    "67,68": 1090,
    "1090,77": 1091,
    "1091,63": 1092,
    "60,62": 1093,
    "1093,79": 1094,
    "257,60": 1095,
    "1095,71": 1096,
    "874,62": 1097,
    "1097,64": 1098,
    "1098,1": 1099,
    "80,79": 1100,
    "1100,64": 1101,
    "1101,77": 1102,
    "108,75": 1103,
    "1103,74": 1104,
    "66,68": 1105,
    "1105,62": 1106,
    "874,60": 1107,
    "889,1": 1108,
    "1108,74": 1109,
    "1109,65": 1110,
    "1110,1": 1111,
    "534,68": 1112,
    "645,78": 1113,
    "397,75": 1114,
    "32,67": 1115,
    "1115,80": 1116,
    "1116,77": 1117,
    "1117,62": 1118,
    "1118,67": 1119,
    "149,77": 1120,
    "82,63": 1121,
    "731,78": 1122,
    "1122,74": 1123,
    "1123,71": 1124,
    "1124,80": 1125,
    "1125,79": 1126,
    "663,78": 1127,
    "1127,64": 1128,
    "147,77": 1129,
    "1129,64": 1130,
    "985,79": 1131,
    "513,1": 1132,
    "564,73": 1133,
    "79,65": 1134,
    "1134,74": 1135,
    "1005,64": 1136,
    "1136,77": 1137,
    "1137,81": 1138,
    "799,74": 1139,
    "1139,82": 1140,
    "1140,73": 1141,
    "224,73": 1142,
    "1142,1": 1143,
    "954,79": 1144,
    "1144,1": 1145,
    "303,81": 1146,
    "1146,64": 1147,
    "293,71": 1148,
    "1100,67": 1149,
    "137,60": 1150,
    "1150,79": 1151,
    "61,78": 1152,
    "1152,79": 1153,
    "1153,60": 1154,
    "1154,73": 1155,
    "9,9": 1156,
    "67,1": 1157,
    "908,77": 1158,
    "378,71": 1159,
    "1159,71": 1160,
    "1160,64": 1161,
    "1161,66": 1162,
    "432,78": 1163,
    "740,63": 1164,
    "84,68": 1165,
    "1165,73": 1166,
    "1166,66": 1167,
    "800,64": 1168,
    "1168,63": 1169,
    "564,60": 1170,
    "534,79": 1171,
    "1171,64": 1172,
    "1023,14": 1173,
    "1173,78": 1174,
    "2,12": 1175,
    "66,74": 1176,
    "1176,81": 1177,
    "1177,64": 1178,
    "1178,77": 1179,
    "1179,73": 1180,
    "127,64": 1181,
    "1181,73": 1182,
    "80,72": 1183,
    "1183,64": 1184,
    "954,1": 1185,
    "1019,62": 1186,
    "1186,79": 1187,
    "79,80": 1188,
    "1188,77": 1189,
    "1189,64": 1190,
    "342,71": 1191,
    "1191,64": 1192,
    "8,9": 1193,
    "14,74": 1194,
    "891,78": 1195,
    "697,68": 1196,
    "376,74": 1197,
    "1197,70": 1198,
    "138,63": 1199,
    "1199,1": 1200,
    "598,74": 1201,
    "84,1": 1202,
    "100,64": 1203,
    "1203,1": 1204,
    "84,78": 1205,
    "1205,79": 1206,
    "1206,64": 1207,
    "1207,72": 1208,
    "712,60": 1209,
    "1209,73": 1210,
    "710,71": 1211,
    "1211,64": 1212,
    "536,77": 1213,
    "1213,73": 1214,
    "80,78": 1215,
    "64,84": 1216,
    "1216,11": 1217,
    "1217,1": 1218,
    "504,64": 1219,
    "1219,71": 1220,
    "1220,64": 1221,
    "1221,78": 1222,
    "1222,78": 1223,
    "415,74": 1224,
    "1224,70": 1225,
    "590,79": 1226,
    "71,78": 1227,
    "1227,74": 1228,
    "1228,73": 1229,
    "534,71": 1230,
    "38,33": 1231,
    "73,80": 1232,
    "536,72": 1233,
    "1233,60": 1234,
    "374,77": 1235,
    "1235,64": 1236,
    "1236,73": 1237,
    "319,77": 1238,
    "1238,80": 1239,
    "1239,60": 1240,
    "1240,77": 1241,
    "127,71": 1242,
    "65,78": 1243,
    "1,51": 1244,
    "1244,38": 1245,
    "570,68": 1246,
    "504,74": 1247,
    "1247,80": 1248,
    "672,63": 1249,
    "201,84": 1250,
    "74,78": 1251,
    "1251,64": 1252,
    "30,13": 1253,
    "70,68": 1254,
    "1254,78": 1255,
    "372,67": 1256,
    "14,79": 1257,
    "49,74": 1258,
    "1258,77": 1259,
    "1259,74": 1260,
    "1260,73": 1261,
    "1261,79": 1262,
    "84,75": 1263,
    "1263,64": 1264,
    "13,48": 1265,
    "65,60": 1266,
    "1266,77": 1267,
    "1267,64": 1268,
    "97,62": 1269,
    "1269,79": 1270,
    "16,24": 1271,
    "868,77": 1272,
    "1272,64": 1273,
    "1273,60": 1274,
    "65,71": 1275,
    "1275,60": 1276,
    "1276,79": 1277,
    "9,30": 1278,
    "124,1": 1279,
    "77,70": 1280,
    "117,60": 1281,
    "1281,73": 1282,
    "1282,63": 1283,
    "154,60": 1284,
    "618,64": 1285,
    "251,62": 1286,
    "1215,64": 1287,
    "1287,1": 1288,
    "18,5": 1289,
    "369,77": 1290,
    "133,78": 1291,
    "74,1": 1292,
    "1292,73": 1293,
    "1293,74": 1294,
    "1294,79": 1295,
    "395,78": 1296,
    "66,73": 1297,
    "1297,68": 1298,
    "187,68": 1299,
    "685,12": 1300,
    "1300,1": 1301,
    "159,1": 1302,
    "1019,64": 1303,
    "1303,79": 1304,
    "49,33": 1305,
    "8,87": 1306,
    "761,79": 1307,
    "1046,74": 1308,
    "1308,73": 1309,
    "552,72": 1310,
    "1310,75": 1311,
    "1311,71": 1312,
    "103,77": 1313,
    "1313,62": 1314,
    "61,69": 1315,
    "1315,64": 1316,
    "1316,62": 1317,
    "1317,79": 1318,
    "332,72": 1319,
    "1319,75": 1320,
    "48,1": 1321,
    "590,64": 1322,
    "720,81": 1323,
    "1323,60": 1324,
    "1324,73": 1325,
    "13,64": 1326,
    "995,84": 1327,
    "1327,73": 1328,
    "1328,60": 1329,
    "1007,64": 1330,
    "1330,63": 1331,
    "798,79": 1332,
    "1332,80": 1333,
    "477,77": 1334,
    "1334,78": 1335,
    "1335,68": 1336,
    "1336,74": 1337,
    "1337,73": 1338,
    "1144,77": 1339,
    "66,72": 1340,
    "1340,60": 1341,
    "108,84": 1342,
    "201,64": 1343,
    "1343,62": 1344,
    "1344,79": 1345,
    "231,62": 1346,
    "1346,60": 1347,
    "1347,71": 1348,
    "62,64": 1349,
    "1349,72": 1350,
    "1350,61": 1351,
    "1351,64": 1352,
    "1352,77": 1353,
    "880,73": 1354,
    "1354,60": 1355,
    "645,73": 1356,
    "544,77": 1357,
    "884,74": 1358,
    "946,81": 1359,
    "204,68": 1360,
    "189,73": 1361,
    "1361,1": 1362,
    "174,14": 1363,
    "1363,78": 1364,
    "242,1": 1365,
    "303,64": 1366,
    "987,63": 1367,
    "1,34": 1368,
    "1368,77": 1369,
    "1369,60": 1370,
    "1370,78": 1371,
    "347,64": 1372,
    "187,60": 1373,
    "1058,74": 1374,
    "522,1": 1375,
    "147,72": 1376,
    "642,66": 1377,
    "1333,77": 1378,
    "103,66": 1379,
    "1379,80": 1380,
    "632,66": 1381,
    "1381,73": 1382,
    "64,66": 1383,
    "47,1": 1384,
    "1271,24": 1385,
    "456,71": 1386,
    "382,72": 1387,
    "1387,64": 1388,
    "461,81": 1389,
    "1389,64": 1390,
    "1390,77": 1391,
    "1391,78": 1392,
    "79,62": 1393,
    "1393,13": 1394,
    "36,77": 1395,
    "264,63": 1396,
    "731,71": 1397,
    "759,78": 1398,
    "1398,79": 1399,
    "24,8": 1400,
    "609,73": 1401,
    "1401,1": 1402,
    "77,27": 1403,
    "222,78": 1404,
    "83,68": 1405,
    "1405,63": 1406,
    "791,68": 1407,
    "1407,74": 1408,
    "1408,73": 1409,
    "61,77": 1410,
    "1410,60": 1411,
    "1411,68": 1412,
    "1412,73": 1413,
    "694,64": 1414,
    "1414,72": 1415,
    "1415,64": 1416,
    "1416,73": 1417,
    "63,68": 1418,
    "1418,62": 1419,
    "257,71": 1420,
    "954,62": 1421,
    "69,60": 1422,
    "1422,63": 1423,
    "82,77": 1424,
    "1424,68": 1425,
    "1425,79": 1426,
    "1049,60": 1427,
    "1427,71": 1428,
    "17,16": 1429,
    "38,1": 1430,
    "312,71": 1431,
    "1431,81": 1432,
    "1432,64": 1433,
    "1012,73": 1434,
    "130,68": 1435,
    "1435,78": 1436,
    "1436,78": 1437,
    "1437,60": 1438,
    "1438,73": 1439,
    "31,60": 1440,
    "1440,77": 1441,
    "1441,74": 1442,
    "1442,73": 1443,
    "43,35": 1444,
    "1444,41": 1445,
    "681,72": 1446,
    "1383,68": 1447,
    "1447,73": 1448,
    "78,67": 1449,
    "1449,68": 1450,
    "1450,75": 1451,
    "1133,62": 1452,
    "1248,66": 1453,
    "251,1": 1454,
    "325,74": 1455,
    "1455,73": 1456,
    "1422,72": 1457,
    "207,82": 1458,
    "181,64": 1459,
    "1459,62": 1460,
    "834,14": 1461,
    "1461,78": 1462,
    "1462,80": 1463,
    "364,74": 1464,
    "72,1": 1465,
    "1465,61": 1466,
    "1466,77": 1467,
    "66,62": 1468,
    "1468,74": 1469,
    "369,62": 1470,
    "1470,80": 1471,
    "1471,71": 1472,
    "63,84": 1473,
    "1473,1": 1474,
    "689,74": 1475,
    "1475,73": 1476,
    "147,66": 1477,
    "52,67": 1478,
    "1414,63": 1479,
    "254,79": 1480,
    "251,72": 1481,
    "1481,60": 1482,
    "1482,73": 1483,
    "20,79": 1484,
    "1484,67": 1485,
    "662,64": 1486,
    "1486,73": 1487,
    "63,64": 1488,
    "305,67": 1489,
    "124,68": 1490,
    "1490,71": 1491,
    "347,77": 1492,
    "929,78": 1493,
    "1493,79": 1494,
    "1349,79": 1495,
    "24,1": 1496,
    "1496,12": 1497,
    "1497,1": 1498,
    "30,72": 1499,
    "1499,64": 1500,
    "1500,77": 1501,
    "1501,68": 1502,
    "1090,62": 1503,
    "1503,71": 1504,
    "588,77": 1505,
    "1049,63": 1506,
    "34,83": 1507,
    "1507,79": 1508,
    "1508,64": 1509,
    "170,1": 1510,
    "1397,68": 1511,
    "23,8": 1512,
    "16,1": 1513,
    "1513,12": 1514,
    "1514,1": 1515,
    "34,80": 1516,
    "1516,77": 1517,
    "1517,74": 1518,
    "1518,75": 1519,
    "1519,64": 1520,
    "939,74": 1521,
    "1521,79": 1522,
    "1522,61": 1523,
    "1523,60": 1524,
    "800,71": 1525,
    "1525,60": 1526,
    "1526,77": 1527,
    "573,60": 1528,
    "1528,78": 1529,
    "1529,78": 1530,
    "66,66": 1531,
    "1531,64": 1532,
    "34,73": 1533,
    "1533,74": 1534,
    "387,64": 1535,
    "619,1": 1536,
    "249,77": 1537,
    "1537,60": 1538,
    "404,72": 1539,
    "662,73": 1540,
    "1540,60": 1541,
    "1215,78": 1542,
    "1542,68": 1543,
    "1543,60": 1544,
    "18,1": 1545,
    "1545,12": 1546,
    "590,68": 1547,
    "1547,75": 1548,
    "303,63": 1549,
    "68,81": 1550,
    "1550,60": 1551,
    "1551,71": 1552,
    "770,74": 1553,
    "1553,65": 1554,
    "1554,1": 1555,
    "80,74": 1556,
    "1556,80": 1557,
    "1557,78": 1558,
    "34,60": 1559,
    "1559,78": 1560,
    "1560,79": 1561,
    "397,80": 1562,
    "1562,71": 1563,
    "800,68": 1564,
    "1564,78": 1565,
    "187,80": 1566,
    "1566,71": 1567,
    "1567,79": 1568,
    "32,45": 1569,
    "1569,50": 1570,
    "77,84": 1571,
    "1571,71": 1572,
    "369,71": 1573,
    "1418,73": 1574,
    "1574,66": 1575,
    "21,8": 1576,
    "1410,1": 1577,
    "63,74": 1578,
    "1578,77": 1579,
    "1059,79": 1580,
    "21,79": 1581,
    "1581,67": 1582,
    "79,78": 1583,
    "1583,72": 1584,
    "6,79": 1585,
    "163,62": 1586,
    "1586,60": 1587,
    "1587,73": 1588,
    "1349,78": 1589,
    "140,80": 1590,
    "1590,60": 1591,
    "74,60": 1592,
    "1592,63": 1593,
    "48,64": 1594,
    "270,62": 1595,
    "1595,79": 1596,
    "32,42": 1597,
    "32,13": 1598,
    "759,77": 1599,
    "1599,75": 1600,
    "1600,67": 1601,
    "130,66": 1602,
    "1410,64": 1603,
    "1603,81": 1604,
    "317,74": 1605,
    "1605,75": 1606,
    "1349,1": 1607,
    "551,73": 1608,
    "1608,60": 1609,
    "1609,63": 1610,
    "1405,73": 1611,
    "1611,66": 1612,
    "960,63": 1613,
    "663,72": 1614,
    "1152,75": 1615,
    "432,77": 1616,
    "1616,60": 1617,
    "1617,66": 1618,
    "73,73": 1619,
    "1619,74": 1620,
    "64,74": 1621,
    "1621,77": 1622,
    "374,74": 1623,
    "79,61": 1624,
    "1624,60": 1625,
    "884,73": 1626,
    "291,67": 1627,
    "564,78": 1628,
    "226,77": 1629,
    "1629,1": 1630,
    "1449,64": 1631,
    "1631,1": 1632,
    "344,64": 1633,
    "576,80": 1634,
    "1634,72": 1635,
    "78,82": 1636,
    "1636,64": 1637,
    "1637,77": 1638,
    "78,61": 1639,
    "1639,60": 1640,
    "217,78": 1641,
    "1405,71": 1642,
    "1642,68": 1643,
    "1643,60": 1644,
    "159,80": 1645,
    "1645,71": 1646,
    "371,74": 1647,
    "1647,65": 1648,
    "1648,1": 1649,
    "44,79": 1650,
    "1650,79": 1651,
    "1651,74": 1652,
    "697,60": 1653,
    "1653,72": 1654,
    "1654,64": 1655,
    "147,73": 1656,
    "1656,63": 1657,
    "710,78": 1658,
    "159,65": 1659,
    "409,71": 1660,
    "287,64": 1661,
    "1661,73": 1662,
    "1349,73": 1663,
    "1663,79": 1664,
    "785,78": 1665,
    "1665,1": 1666,
    "130,72": 1667,
    "1667,64": 1668,
    "598,81": 1669,
    "45,60": 1670,
    "1670,71": 1671,
    "1671,64": 1672,
    "1672,78": 1673,
    "1673,79": 1674,
    "477,63": 1675,
    "1675,1": 1676,
    "544,79": 1677,
    "933,75": 1678,
    "157,64": 1679,
    "196,80": 1680,
    "921,77": 1681,
    "1681,68": 1682,
    "1682,61": 1683,
    "1683,80": 1684,
    "79,63": 1685,
    "80,60": 1686,
    "1686,79": 1687,
    "1313,68": 1688,
    "1688,73": 1689,
    "1689,66": 1690,
    "1505,60": 1691,
    "382,1": 1692,
    "1692,74": 1693,
    "1693,65": 1694,
    "1694,1": 1695,
    "70,60": 1696,
    "1696,73": 1697,
    "13,8": 1698,
    "1105,73": 1699,
    "1699,64": 1700,
    "77,81": 1701,
    "201,1": 1702,
    "358,66": 1703,
    "1703,1": 1704,
    "268,67": 1705,
    "1493,64": 1706,
    "238,63": 1707,
    "513,67": 1708,
    "1708,1": 1709,
    "204,74": 1710,
    "1710,81": 1711,
    "1711,68": 1712,
    "72,73": 1713,
    "1713,64": 1714,
    "1714,73": 1715,
    "257,79": 1716,
    "1716,60": 1717,
    "1717,68": 1718,
    "1718,73": 1719,
    "196,82": 1720,
    "1205,68": 1721,
    "1254,73": 1722,
    "303,79": 1723,
    "1723,68": 1724,
    "1724,62": 1725,
    "257,65": 1726,
    "1726,74": 1727,
    "1727,77": 1728,
    "184,80": 1729,
    "1729,75": 1730,
    "44,77": 1731,
    "1731,79": 1732,
    "1732,67": 1733,
    "1275,80": 1734,
    "1734,64": 1735,
    "1735,73": 1736,
    "570,67": 1737,
    "1737,64": 1738,
    "1738,77": 1739,
    "184,66": 1740,
    "1740,77": 1741,
    "53,35": 1742,
    "73,70": 1743,
    "39,1": 1744,
    "1744,12": 1745,
    "1176,71": 1746,
    "1746,63": 1747,
    "324,64": 1748,
    "353,1": 1749,
    "289,64": 1750,
    "1750,63": 1751,
    "74,68": 1752,
    "1752,79": 1753,
    "1032,64": 1754,
    "544,71": 1755,
    "1755,71": 1756,
    "12,46": 1757,
    "1757,60": 1758,
    "1758,64": 1759,
    "1759,63": 1760,
    "311,71": 1761,
    "1761,64": 1762,
    "1762,66": 1763,
    "66,67": 1764,
    "1764,60": 1765,
    "1765,72": 1766,
    "223,60": 1767,
    "81,74": 1768,
    "1768,71": 1769,
    "84,11": 1770,
    "1770,1": 1771,
    "181,68": 1772,
    "1772,64": 1773,
    "30,66": 1774,
    "327,77": 1775,
    "1775,63": 1776,
    "1184,73": 1777,
    "1777,79": 1778,
    "619,64": 1779,
    "1779,77": 1780,
    "358,80": 1781,
    "147,63": 1782,
    "1782,68": 1783,
    "1783,60": 1784,
    "1784,79": 1785,
    "1785,74": 1786,
    "1786,77": 1787,
    "100,63": 1788,
    "1764,79": 1789,
    "127,78": 1790,
    "64,65": 1791,
    "682,73": 1792,
    "276,84": 1793,
    "1793,72": 1794,
    "1414,77": 1795,
    "83,65": 1796,
    "1796,74": 1797,
    "1797,77": 1798,
    "440,71": 1799,
    "82,67": 1800,
    "1800,74": 1801,
    "170,64": 1802,
    "1802,72": 1803,
    "324,60": 1804,
    "1804,81": 1805,
    "1550,64": 1806,
    "1806,77": 1807,
    "387,68": 1808,
    "201,65": 1809,
    "844,1": 1810,
    "570,64": 1811,
    "1811,63": 1812,
    "504,60": 1813,
    "1813,73": 1814,
    "1814,1": 1815,
    "1280,64": 1816,
    "1280,60": 1817,
    "1817,73": 1818,
    "70,73": 1819,
    "1819,74": 1820,
    "1820,82": 1821,
    "1821,73": 1822,
    "39,60": 1823,
    "1823,75": 1824,
    "1824,60": 1825,
    "21,15": 1826,
    "1826,78": 1827,
    "1415,61": 1828,
    "1828,64": 1829,
    "394,74": 1830,
    "32,1": 1831,
    "1831,7": 1832,
    "51,38": 1833,
    "1833,38": 1834,
    "266,75": 1835,
    "327,68": 1836,
    "1836,73": 1837,
    "8,1": 1838,
    "715,79": 1839,
    "982,63": 1840,
    "35,13": 1841,
    "287,74": 1842,
    "1842,73": 1843,
    "401,71": 1844,
    "1844,71": 1845,
    "1623,75": 1846,
    "1846,64": 1847,
    "347,60": 1848,
    "1848,77": 1849,
    "868,60": 1850,
    "1850,75": 1851,
    "40,1": 1852,
    "1852,12": 1853,
    "915,77": 1854,
    "35,64": 1855,
    "1855,63": 1856,
    "1856,64": 1857,
    "1857,77": 1858,
    "108,80": 1859,
    "1859,60": 1860,
    "75,71": 1861,
    "1861,64": 1862,
    "488,66": 1863,
    "868,74": 1864,
    "1864,73": 1865,
    "960,62": 1866,
    "404,73": 1867,
    "1867,64": 1868,
    "1868,73": 1869,
    "674,73": 1870,
    "891,68": 1871,
    "73,67": 1872,
    "1872,60": 1873,
    "1873,77": 1874,
    "1874,63": 1875,
    "756,68": 1876,
    "14,78": 1877,
    "1877,80": 1878,
    "299,63": 1879,
    "15,11": 1880,
    "1880,1": 1881,
    "143,63": 1882,
    "149,75": 1883,
    "112,78": 1884,
    "1884,67": 1885,
    "315,68": 1886,
    "31,80": 1887,
    "1887,77": 1888,
    "1888,66": 1889,
    "1488,65": 1890,
    "1890,64": 1891,
    "1891,73": 1892,
    "959,77": 1893,
    "889,73": 1894,
    "1894,64": 1895,
    "1895,77": 1896,
    "1896,60": 1897,
    "1036,64": 1898,
    "168,72": 1899,
    "169,63": 1900,
    "483,80": 1901,
    "1901,78": 1902,
    "762,64": 1903,
    "1410,80": 1904,
    "745,73": 1905,
    "404,68": 1906,
    "1393,67": 1907,
    "605,68": 1908,
    "1908,60": 1909,
    "1619,68": 1910,
    "1910,73": 1911,
    "1911,66": 1912,
    "1488,60": 1913,
    "1913,79": 1914,
    "1914,67": 1915,
    "497,73": 1916,
    "369,84": 1917,
    "570,60": 1918,
    "1918,68": 1919,
    "1919,73": 1920,
    "715,74": 1921,
    "1921,73": 1922,
    "257,62": 1923,
    "311,60": 1924,
    "142,84": 1925,
    "785,64": 1926,
    "1926,75": 1927,
    "74,84": 1928,
    "299,84": 1929,
    "116,1": 1930,
    "50,73": 1931,
    "1931,68": 1932,
    "1932,81": 1933,
    "1933,64": 1934,
    "1934,77": 1935,
    "1935,78": 1936,
    "1159,80": 1937,
    "1937,72": 1938,
    "11,1": 1939,
    "1364,80": 1940,
    "1871,66": 1941,
    "1941,73": 1942,
    "483,63": 1943,
    "1898,1": 1944,
    "97,71": 1945,
    "1945,60": 1946,
    "1383,74": 1947,
    "536,1": 1948,
    "731,68": 1949,
    "1949,73": 1950,
    "23,11": 1951,
    "1951,1": 1952,
    "1215,1": 1953,
    "1213,60": 1954,
    "41,74": 1955,
    "564,62": 1956,
    "1956,79": 1957,
    "168,84": 1958,
    "1112,73": 1959,
    "868,64": 1960,
    "1960,62": 1961,
    "1961,68": 1962,
    "1406,64": 1963,
    "1802,77": 1964,
    "955,85": 1965,
    "1965,80": 1966,
    "435,60": 1967,
    "1967,79": 1968,
    "988,74": 1969,
    "1969,80": 1970,
    "1970,78": 1971,
    "385,71": 1972,
    "497,68": 1973,
    "1973,78": 1974,
    "1974,67": 1975,
    "1081,60": 1976,
    "1976,73": 1977,
    "1977,79": 1978,
    "581,60": 1979,
    "1979,79": 1980,
    "97,63": 1981,
    "383,77": 1982,
    "1982,63": 1983,
    "1533,66": 1984,
    "1984,71": 1985,
    "798,67": 1986,
    "1986,1": 1987,
    "1987,60": 1988,
    "1988,78": 1989,
    "242,64": 1990,
    "1990,78": 1991,
    "1991,79": 1992,
    "138,72": 1993,
    "1993,60": 1994,
    "74,70": 1995,
    "1995,64": 1996,
    "1844,64": 1997,
    "303,62": 1998,
    "1998,79": 1999,
    "1246,62": 2000,
    "2000,71": 2001,
    "2001,64": 2002,
    "119,78": 2003,
    "2003,68": 2004,
    "2004,78": 2005,
    "1528,73": 2006,
    "1105,74": 2007,
    "2007,73": 2008,
    "31,32": 2009,
    "15,8": 2010,
    "2010,9": 2011,
    "189,79": 2012,
    "17,15": 2013,
    "2013,15": 2014,
    "1904,60": 2015,
    "2015,77": 2016,
    "1861,60": 2017,
    "322,84": 2018,
    "276,64": 2019,
    "2019,1": 2020,
    "69,68": 2021,
    "2021,79": 2022,
    "18,15": 2023,
    "2023,15": 2024,
    "474,64": 2025,
    "2025,66": 2026,
    "2026,74": 2027,
    "1133,66": 2028,
    "609,72": 2029,
    "2029,64": 2030,
    "164,60": 2031,
    "1421,67": 2032,
    "588,62": 2033,
    "2033,68": 2034,
    "257,78": 2035,
    "583,77": 2036,
    "2036,79": 2037,
    "83,79": 2038,
    "800,77": 2039,
    "189,72": 2040,
    "2040,75": 2041,
    "47,80": 2042,
    "2042,78": 2043,
    "2043,78": 2044,
    "1701,68": 2045,
    "2045,62": 2046,
    "2046,64": 2047,
    "1216,77": 2048,
    "1686,71": 2049,
    "1,62": 2050,
    "2050,64": 2051,
    "2051,73": 2052,
    "1488,71": 2053,
    "362,73": 2054,
    "276,79": 2055,
    "1184,77": 2056,
    "62,77": 2057,
    "2057,60": 2058,
    "2058,65": 2059,
    "1265,13": 2060,
    "254,80": 2061,
    "2061,73": 2062,
    "1816,63": 2063,
    "66,79": 2064,
    "2064,67": 2065,
    "1114,64": 2066,
    "2066,63": 2067,
    "143,71": 2068,
    "85,80": 2069,
    "106,64": 2070,
    "1176,73": 2071,
    "1962,60": 2072,
    "2072,71": 2073,
    "766,71": 2074,
    "1791,64": 2075,
    "2075,73": 2076,
    "39,80": 2077,
    "14,72": 2078,
    "2078,60": 2079,
    "2079,79": 2080,
    "2080,67": 2081,
    "2023,78": 2082,
    "1470,64": 2083,
    "534,73": 2084,
    "2084,63": 2085,
    "1,54": 2086,
    "2086,74": 2087,
    "2087,77": 2088,
    "43,45": 2089,
    "12,34": 2090,
    "2090,80": 2091,
    "1813,79": 2092,
    "2092,1": 2093,
    "36,80": 2094,
    "2094,68": 2095,
    "2095,73": 2096,
    "2096,64": 2097,
    "2097,60": 2098,
    "514,74": 2099,
    "2099,73": 2100,
    "170,60": 2101,
    "2101,73": 2102,
    "1,41": 2103,
    "1299,75": 2104,
    "48,49": 2105,
    "1949,79": 2106,
    "374,78": 2107,
    "2107,64": 2108,
    "1831,12": 2109,
    "207,79": 2110,
    "2110,74": 2111,
    "60,70": 2112,
    "258,1": 2113,
    "1349,75": 2114,
    "2114,79": 2115,
    "78,1": 2116,
    "2116,74": 2117,
    "2117,73": 2118,
    "2118,1": 2119,
    "142,1": 2120,
    "311,80": 2121,
    "1066,64": 2122,
    "2122,71": 2123,
    "2029,60": 2124,
    "2124,79": 2125,
    "72,80": 2126,
    "2126,71": 2127,
    "2127,60": 2128,
    "1772,81": 2129,
    "504,73": 2130,
    "322,78": 2131,
    "660,79": 2132,
    "627,80": 2133,
    "2133,62": 2134,
    "2134,79": 2135,
    "401,84": 2136,
    "2136,1": 2137,
    "715,62": 2138,
    "257,81": 2139,
    "74,66": 2140,
    "2140,60": 2141,
    "115,14": 2142,
    "2142,79": 2143,
    "1002,60": 2144,
    "133,84": 2145,
    "1202,74": 2146,
    "2146,65": 2147,
    "2147,1": 2148,
    "382,64": 2149,
    "2149,63": 2150,
    "663,64": 2151,
    "84,77": 2152,
    "1090,79": 2153,
    "1041,71": 2154,
    "30,71": 2155,
    "2155,60": 2156,
    "2156,78": 2157,
    "2157,70": 2158,
    "564,74": 2159,
    "2159,80": 2160,
    "2160,78": 2161,
    "703,79": 2162,
    "1701,64": 2163,
    "64,85": 2164,
    "35,74": 2165,
    "2165,77": 2166,
    "409,64": 2167,
    "2167,77": 2168,
    "374,65": 2169,
    "2169,60": 2170,
    "2170,62": 2171,
    "1361,66": 2172,
    "572,82": 2173,
    "84,63": 2174,
    "63,66": 2175,
    "2175,64": 2176,
    "362,75": 2177,
    "414,67": 2178,
    "61,80": 2179,
    "2179,79": 2180,
    "1100,60": 2181,
    "2181,79": 2182,
    "347,68": 2183,
    "32,33": 2184,
    "1580,68": 2185,
    "2185,74": 2186,
    "2186,73": 2187,
    "631,64": 2188,
    "2188,73": 2189,
    "1232,64": 2190,
    "420,73": 2191,
    "369,68": 2192,
    "2192,71": 2193,
    "522,68": 2194,
    "551,79": 2195,
    "2195,67": 2196,
    "80,61": 2197,
    "2197,71": 2198,
    "2198,68": 2199,
    "303,65": 2200,
    "2200,74": 2201,
    "2201,77": 2202,
    "2202,73": 2203,
    "311,63": 2204,
    "1008,72": 2205,
    "1,75": 2206,
    "2206,74": 2207,
    "2207,75": 2208,
    "2208,80": 2209,
    "2209,71": 2210,
    "672,73": 2211,
    "2211,79": 2212,
    "469,74": 2213,
    "2213,81": 2214,
    "2214,64": 2215,
    "2215,77": 2216,
    "460,79": 2217,
    "2217,77": 2218,
    "2218,84": 2219,
    "34,71": 2220,
    "2220,65": 2221,
    "1297,74": 2222,
    "367,73": 2223,
    "2223,77": 2224,
    "133,64": 2225,
    "303,66": 2226,
    "2226,68": 2227,
    "2227,74": 2228,
    "1894,74": 2229,
    "2229,80": 2230,
    "2230,78": 2231,
    "946,73": 2232,
    "130,71": 2233,
    "2233,1": 2234,
    "1093,70": 2235,
    "2126,72": 2236,
    "184,81": 2237,
    "2237,64": 2238,
    "1115,60": 2239,
    "2239,77": 2240,
    "2192,73": 2241,
    "954,60": 2242,
    "2242,77": 2243,
    "1488,63": 2244,
    "2244,1": 2245,
    "1550,68": 2246,
    "672,77": 2247,
    "401,66": 2248,
    "723,60": 2249,
    "17,8": 2250,
    "67,79": 2251,
    "576,64": 2252,
    "2252,73": 2253,
    "100,1": 2254,
    "2254,74": 2255,
    "2255,65": 2256,
    "2256,1": 2257,
    "1235,74": 2258,
    "2258,80": 2259,
    "2259,73": 2260,
    "2260,63": 2261,
    "70,72": 2262,
    "581,68": 2263,
    "2263,73": 2264,
    "30,77": 2265,
    "2265,66": 2266,
    "2266,64": 2267,
    "2267,73": 2268,
    "2268,79": 2269,
    "483,75": 2270,
    "2270,68": 2271,
    "133,74": 2272,
    "82,68": 2273,
    "196,63": 2274,
    "2274,74": 2275,
    "2275,73": 2276,
    "375,64": 2277,
    "485,14": 2278,
    "2278,78": 2279,
    "2279,80": 2280,
    "850,64": 2281,
    "276,85": 2282,
    "940,62": 2283,
    "1251,60": 2284,
    "2284,80": 2285,
    "2285,77": 2286,
    "589,63": 2287,
    "766,73": 2288,
    "2288,70": 2289,
    "167,64": 2290,
    "2290,77": 2291,
    "35,49": 2292,
    "438,74": 2293,
    "1015,73": 2294,
    "2294,72": 2295,
    "2295,60": 2296,
    "451,73": 2297,
    "1488,77": 2298,
    "1386,64": 2299,
    "2299,63": 2300,
    "108,60": 2301,
    "2301,63": 2302,
    "657,1": 2303,
    "869,77": 2304,
    "164,84": 2305,
    "72,72": 2306,
    "564,81": 2307,
    "2307,64": 2308,
    "2308,77": 2309,
    "798,70": 2310,
    "234,62": 2311,
    "2311,67": 2312,
    "674,71": 2313,
    "2313,84": 2314,
    "1405,61": 2315,
    "1063,77": 2316,
    "2316,63": 2317,
    "97,64": 2318,
    "2318,79": 2319,
    "264,73": 2320,
    "64,75": 2321,
    "2321,64": 2322,
    "2322,73": 2323,
    "36,64": 2324,
    "2324,77": 2325,
    "2325,72": 2326,
    "2326,60": 2327,
    "1772,79": 2328,
    "2328,74": 2329,
    "2329,77": 2330,
    "17,79": 2331,
    "2331,67": 2332,
    "915,71": 2333,
    "63,81": 2334,
    "2334,64": 2335,
    "2335,77": 2336,
    "1576,9": 2337,
    "1215,68": 2338,
    "2338,62": 2339,
    "303,60": 2340,
    "71,63": 2341,
    "2341,1": 2342,
    "913,12": 2343,
    "2343,1": 2344,
    "2321,67": 2345,
    "399,63": 2346,
    "2346,77": 2347,
    "1087,71": 2348,
    "576,74": 2349,
    "2349,71": 2350,
    "225,79": 2351,
    "77,78": 2352,
    "2352,64": 2353,
    "35,1": 2354,
    "2354,12": 2355,
    "2355,1": 2356,
    "2116,79": 2357,
    "2357,74": 2358,
    "347,1": 2359,
    "202,63": 2360,
    "1589,78": 2361,
    "1631,63": 2362,
    "1,12": 2363,
    "2363,12": 2364,
    "87,1": 2365,
    "1090,75": 2366,
    "79,85": 2367,
    "12,12": 2368,
    "378,73": 2369,
    "2369,78": 2370,
    "2370,64": 2371,
    "2371,77": 2372,
    "2372,81": 2373,
    "663,70": 2374,
    "792,74": 2375,
    "2375,71": 2376,
    "570,80": 2377,
    "45,64": 2378,
    "2378,77": 2379,
    "891,79": 2380,
    "2380,68": 2381,
    "1090,64": 2382,
    "2382,81": 2383,
    "598,60": 2384,
    "3,45": 2385,
    "36,60": 2386,
    "2386,80": 2387,
    "2387,63": 2388,
    "2116,12": 2389,
    "2389,12": 2390,
    "926,64": 2391,
    "2391,64": 2392,
    "67,71": 2393,
    "2393,74": 2394,
    "155,63": 2395,
    "108,79": 2396,
    "432,66": 2397,
    "2397,67": 2398,
    "1774,60": 2399,
    "2399,78": 2400,
    "335,63": 2401,
    "2401,68": 2402,
    "2402,64": 2403,
    "33,77": 2404,
    "2404,60": 2405,
    "2405,62": 2406,
    "2406,80": 2407,
    "2407,71": 2408,
    "1093,64": 2409,
    "1608,79": 2410,
    "2410,74": 2411,
    "2411,73": 2412,
    "477,73": 2413,
    "2413,1": 2414,
    "18,13": 2415,
    "242,60": 2416,
    "2416,79": 2417,
    "2417,68": 2418,
    "806,77": 2419,
    "2419,79": 2420,
    "133,73": 2421,
    "2421,64": 2422,
    "2422,78": 2423,
    "2423,78": 2424,
    "1171,68": 2425,
    "97,79": 2426,
    "12,61": 2427,
    "75,78": 2428,
    "3,37": 2429,
    "33,51": 2430,
    "2430,33": 2431,
    "37,68": 2432,
    "2432,79": 2433,
    "2433,71": 2434,
    "2434,64": 2435,
    "2435,77": 2436,
    "759,73": 2437,
    "954,66": 2438,
    "850,71": 2439,
    "2439,64": 2440,
    "36,63": 2441,
    "1981,1": 2442,
    "814,1": 2443,
    "94,64": 2444,
    "2444,61": 2445,
    "2273,78": 2446,
    "2446,64": 2447,
    "827,71": 2448,
    "723,80": 2449,
    "251,64": 2450,
    "168,78": 2451,
    "2451,67": 2452,
    "31,38": 2453,
    "986,72": 2454,
    "1090,73": 2455,
    "2057,68": 2456,
    "2034,60": 2457,
    "2457,71": 2458,
    "306,68": 2459,
    "62,1": 2460,
    "1418,61": 2461,
    "2461,71": 2462,
    "576,62": 2463,
    "316,84": 2464,
    "946,62": 2465,
    "2465,64": 2466,
    "281,75": 2467,
    "598,62": 2468,
    "16,11": 2469,
    "2469,1": 2470,
    "880,75": 2471,
    "83,84": 2472,
    "2472,66": 2473,
    "2473,64": 2474,
    "2474,73": 2475,
    "1247,63": 2476,
    "638,73": 2477,
    "35,77": 2478,
    "2478,64": 2479,
    "2479,73": 2480,
    "2480,62": 2481,
    "2481,67": 2482,
    "264,27": 2483,
    "2483,1": 2484,
    "457,77": 2485,
    "1686,77": 2486,
    "451,79": 2487,
    "605,60": 2488,
    "2488,73": 2489,
    "1095,79": 2490,
    "544,78": 2491,
    "2491,64": 2492,
    "306,60": 2493,
    "759,63": 2494,
    "2494,60": 2495,
    "2495,79": 2496,
    "222,71": 2497,
    "74,61": 2498,
    "2281,63": 2499,
    "1821,71": 2500,
    "2500,64": 2501,
    "2501,63": 2502,
    "198,68": 2503,
    "2503,64": 2504,
    "438,80": 2505,
    "2505,64": 2506,
    "1459,73": 2507,
    "1,73": 2508,
    "2508,63": 2509,
    "2509,60": 2510,
    "2510,78": 2511,
    "2511,67": 2512,
    "682,78": 2513,
    "1800,64": 2514,
    "2514,71": 2515,
    "48,31": 2516,
    "2516,43": 2517,
    "989,80": 2518,
    "1450,73": 2519,
    "2519,66": 2520,
    "2520,79": 2521,
    "2521,74": 2522,
    "317,64": 2523,
    "2523,63": 2524,
    "2524,1": 2525,
    "78,11": 2526,
    "2526,1": 2527,
    "921,60": 2528,
    "2528,73": 2529,
    "2273,79": 2530,
    "843,64": 2531,
    "2531,78": 2532,
    "2532,79": 2533,
    "1871,63": 2534,
    "2298,73": 2535,
    "881,67": 2536,
    "2536,74": 2537,
    "2537,80": 2538,
    "2538,66": 2539,
    "84,62": 2540,
    "293,72": 2541,
    "65,65": 2542,
    "2508,74": 2543,
    "30,79": 2544,
    "2544,71": 2545,
    "2545,60": 2546,
    "2100,60": 2547,
    "2547,71": 2548,
    "946,78": 2549,
    "427,60": 2550,
    "285,1": 2551,
    "783,79": 2552,
    "2552,77": 2553,
    "1227,1": 2554,
    "382,68": 2555,
    "2555,60": 2556,
    "165,63": 2557,
    "138,79": 2558,
    "1101,63": 2559,
    "84,73": 2560,
    "2560,60": 2561,
    "694,60": 2562,
    "2562,79": 2563,
    "112,62": 2564,
    "2564,68": 2565,
    "1266,62": 2566,
    "497,64": 2567,
    "1703,78": 2568,
    "149,64": 2569,
    "48,60": 2570,
    "2570,73": 2571,
    "152,63": 2572,
    "1219,1": 2573,
    "84,74": 2574,
    "2574,77": 2575,
    "1583,61": 2576,
    "2576,80": 2577,
    "2577,77": 2578,
    "609,1": 2579,
    "42,68": 2580,
    "2580,71": 2581,
    "2581,68": 2582,
    "2582,79": 2583,
    "2583,60": 2584,
    "2584,77": 2585,
    "61,1": 2586,
    "249,60": 2587,
    "716,67": 2588,
    "139,60": 2589,
    "133,60": 2590,
    "2590,77": 2591,
    "1418,64": 2592,
    "2592,77": 2593,
    "299,64": 2594,
    "2594,1": 2595,
    "1729,73": 2596,
    "2596,63": 2597,
    "884,1": 2598,
    "2598,60": 2599,
    "2599,78": 2600,
    "142,60": 2601,
    "2601,61": 2602,
    "43,1": 2603,
    "2603,12": 2604,
    "62,70": 2605,
    "2605,73": 2606,
    "2606,60": 2607,
    "80,80": 2608,
    "2608,72": 2609,
    "2455,64": 2610,
    "248,1": 2611,
    "759,80": 2612,
    "2612,73": 2613,
    "2613,79": 2614,
    "1578,72": 2615,
    "42,30": 2616,
    "638,77": 2617,
    "6,78": 2618,
    "2618,1": 2619,
    "327,71": 2620,
    "715,73": 2621,
    "2621,66": 2622,
    "454,60": 2623,
    "2623,71": 2624,
    "670,79": 2625,
    "36,1": 2626,
    "2626,12": 2627,
    "2627,12": 2628,
    "911,80": 2629,
    "2629,60": 2630,
    "328,64": 2631,
    "785,84": 2632,
    "799,60": 2633,
    "2633,85": 2634,
    "2634,68": 2635,
    "2635,71": 2636,
    "1,74": 2637,
    "2637,65": 2638,
    "53,38": 2639,
    "1373,79": 2640,
    "124,60": 2641,
    "2641,66": 2642,
    "2642,64": 2643,
    "1183,1": 2644,
    "1532,77": 2645,
    "1989,1": 2646,
    "224,72": 2647,
    "2647,64": 2648,
    "2648,1": 2649,
    "32,71": 2650,
    "2650,68": 2651,
    "2651,73": 2652,
    "2652,79": 2653,
    "2653,74": 2654,
    "1798,63": 2655,
    "785,79": 2656,
    "2656,61": 2657,
    "2657,60": 2658,
    "350,1": 2659,
    "1400,9": 2660,
    "74,64": 2661,
    "2661,77": 2662,
    "2281,64": 2663,
    "136,77": 2664,
    "2664,68": 2665,
    "2665,62": 2666,
    "1019,60": 2667,
    "2667,79": 2668,
    "73,85": 2669,
    "2669,64": 2670,
    "1852,61": 2671,
    "2671,77": 2672,
    "257,63": 2673,
    "944,60": 2674,
    "2674,73": 2675,
    "415,77": 2676,
    "231,79": 2677,
    "616,60": 2678,
    "2612,78": 2679,
    "19,11": 2680,
    "2680,1": 2681,
    "1961,79": 2682,
    "881,68": 2683,
    "2683,62": 2684,
    "1057,1": 2685,
    "502,81": 2686,
    "1215,79": 2687,
    "2687,77": 2688,
    "2013,79": 2689,
    "2689,67": 2690,
    "2265,70": 2691,
    "2691,60": 2692,
    "2692,73": 2693,
    "427,72": 2694,
    "113,64": 2695,
    "2695,63": 2696,
    "2437,63": 2697,
    "807,78": 2698,
    "2698,79": 2699,
    "53,1": 2700,
    "35,68": 2701,
    "2701,61": 2702,
    "2702,74": 2703,
    "1133,64": 2704,
    "818,1": 2705,
    "257,61": 2706,
    "138,62": 2707,
    "2707,79": 2708,
    "781,79": 2709,
    "874,71": 2710,
    "2710,79": 2711,
    "20,11": 2712,
    "2712,1": 2713,
    "73,77": 2714,
    "303,70": 2715,
    "2715,64": 2716,
    "287,68": 2717,
    "100,73": 2718,
    "2718,79": 2719,
    "2327,73": 2720,
    "189,75": 2721,
    "1340,64": 2722,
    "2722,73": 2723,
    "2723,79": 2724,
    "432,79": 2725,
    "939,77": 2726,
    "2726,64": 2727,
    "523,72": 2728,
    "1995,1": 2729,
    "24,12": 2730,
    "564,63": 2731,
    "2731,66": 2732,
    "2732,64": 2733,
    "2726,72": 2734,
    "1042,78": 2735,
    "2735,1": 2736,
    "648,82": 2737,
    "264,66": 2738,
    "2738,64": 2739,
    "889,71": 2740,
    "44,71": 2741,
    "2741,63": 2742,
    "281,77": 2743,
    "25,14": 2744,
    "70,78": 2745,
    "783,77": 2746,
    "2746,68": 2747,
    "1070,64": 2748,
    "2748,64": 2749,
    "2062,62": 2750,
    "783,63": 2751,
    "2751,1": 2752,
    "83,74": 2753,
    "1800,68": 2754,
    "2754,62": 2755,
    "2755,67": 2756,
    "224,63": 2757,
    "763,78": 2758,
    "2758,79": 2759,
    "18,79": 2760,
    "2760,77": 2761,
    "2761,1": 2762,
    "2762,79": 2763,
    "2763,63": 2764,
    "202,67": 2765,
    "2765,60": 2766,
    "2766,79": 2767,
    "2767,1": 2768,
    "510,68": 2769,
    "142,12": 2770,
    "814,62": 2771,
    "1752,73": 2772,
    "744,68": 2773,
    "2773,79": 2774,
    "2130,68": 2775,
    "2775,62": 2776,
    "929,63": 2777,
    "1418,65": 2778,
    "1729,66": 2779,
    "401,68": 2780,
    "2780,73": 2781,
    "2594,66": 2782,
    "663,60": 2783,
    "1176,77": 2784,
    "792,68": 2785,
    "2785,64": 2786,
    "715,81": 2787,
    "2787,64": 2788,
    "2788,77": 2789,
    "264,79": 2790,
    "2790,64": 2791,
    "317,67": 2792,
    "2792,1": 2793,
    "1005,80": 2794,
    "555,74": 2795,
    "218,78": 2796,
    "2796,79": 2797,
    "534,70": 2798,
    "2798,64": 2799,
    "30,41": 2800,
    "2800,1": 2801,
    "674,79": 2802,
    "536,66": 2803,
    "64,82": 2804,
    "2804,1": 2805,
    "1,38": 2806,
    "1251,74": 2807,
    "2807,75": 2808,
    "456,1": 2809,
    "2384,73": 2810,
    "2250,9": 2811,
    "127,63": 2812,
    "570,78": 2813,
    "170,84": 2814,
    "2814,71": 2815,
    "2491,68": 2816,
    "564,64": 2817,
    "497,77": 2818,
    "189,63": 2819,
    "564,79": 2820,
    "2820,74": 2821,
    "2821,77": 2822,
    "2795,75": 2823,
    "170,74": 2824,
    "2824,77": 2825,
    "1,3": 2826,
    "1779,85": 2827,
    "816,79": 2828,
    "254,83": 2829,
    "61,13": 2830,
    "2830,1": 2831,
    "1713,68": 2832,
    "2054,64": 2833,
    "311,68": 2834,
    "2834,62": 2835,
    "1251,79": 2836,
    "75,72": 2837,
    "2837,64": 2838,
    "2838,73": 2839,
    "2839,79": 2840,
    "270,66": 2841,
    "106,84": 2842,
    "2842,71": 2843,
    "2843,81": 2844,
    "19,15": 2845,
    "2845,15": 2846,
    "16,8": 2847,
    "949,74": 2848,
    "2848,80": 2849,
    "2849,78": 2850,
    "306,74": 2851,
    "2851,73": 2852,
    "12,1": 2853,
    "848,73": 2854,
    "1100,74": 2855,
    "497,60": 2856,
    "2856,66": 2857,
    "1887,73": 2858,
    "2858,63": 2859,
    "460,63": 2860,
    "2860,60": 2861,
    "1183,60": 2862,
    "2862,73": 2863,
    "73,84": 2864,
    "2864,72": 2865,
    "175,1": 2866,
    "697,80": 2867,
    "145,73": 2868,
    "2868,66": 2869,
    "303,78": 2870,
    "2792,64": 2871,
    "884,68": 2872,
    "2872,73": 2873,
    "23,79": 2874,
    "2874,67": 2875,
    "43,13": 2876,
    "601,80": 2877,
    "2877,77": 2878,
    "19,8": 2879,
    "60,83": 2880,
    "2880,68": 2881,
    "2881,72": 2882,
    "874,72": 2883,
    "397,84": 2884,
    "170,67": 2885,
    "2885,64": 2886,
    "798,62": 2887,
    "2887,64": 2888,
    "2888,78": 2889,
    "2889,78": 2890,
    "43,68": 2891,
    "2891,64": 2892,
    "2892,79": 2893,
    "2893,85": 2894,
    "1421,64": 2895,
    "950,63": 2896,
    "198,1": 2897,
    "2566,64": 2898,
    "880,77": 2899,
    "2817,78": 2900,
    "2151,1": 2901,
    "315,64": 2902,
    "2902,78": 2903,
    "1321,12": 2904,
    "1585,60": 2905,
    "534,61": 2906,
    "2906,71": 2907,
    "2907,68": 2908,
    "570,1": 2909,
    "2164,80": 2910,
    "1228,1": 2911,
    "2225,63": 2912,
    "1373,71": 2913,
    "799,68": 2914,
    "2914,79": 2915,
    "60,82": 2916,
    "1571,60": 2917,
    "2917,73": 2918,
    "609,63": 2919,
    "264,77": 2920,
    "398,64": 2921,
    "598,78": 2922,
    "513,64": 2923,
    "2923,77": 2924,
    "68,1": 2925,
    "1027,1": 2926,
    "837,64": 2927,
    "2927,1": 2928,
    "513,60": 2929,
    "82,71": 2930,
    "21,12": 2931,
    "159,79": 2932,
    "897,78": 2933,
    "133,68": 2934,
    "2934,62": 2935,
    "119,82": 2936,
    "2936,74": 2937,
    "2937,74": 2938,
    "2938,63": 2939,
    "1578,74": 2940,
    "2940,77": 2941,
    "342,73": 2942,
    "436,63": 2943,
    "588,60": 2944,
    "2944,77": 2945,
    "312,61": 2946,
    "382,74": 2947,
    "2947,72": 2948,
    "477,71": 2949,
    "2949,74": 2950,
    "281,73": 2951,
    "1275,64": 2952,
    "710,1": 2953,
    "38,73": 2954,
    "2954,63": 2955,
    "394,64": 2956,
    "2956,77": 2957,
    "257,70": 2958,
    "1049,75": 2959,
    "136,1": 2960,
    "312,63": 2961,
    "1924,77": 2962,
    "2112,68": 2963,
    "2963,78": 2964,
    "2429,80": 2965,
    "65,1": 2966,
    "1802,60": 2967,
    "2967,63": 2968,
    "954,80": 2969,
    "889,79": 2970,
    "2970,67": 2971,
    "663,79": 2972,
    "2972,67": 2973,
    "167,60": 2974,
    "2144,73": 2975,
    "488,71": 2976,
    "106,68": 2977,
    "2977,74": 2978,
    "2978,73": 2979,
    "12,62": 2980,
    "2980,64": 2981,
    "2981,73": 2982,
    "510,1": 2983,
    "1049,64": 2984,
    "2984,73": 2985,
    "103,80": 2986,
    "6,72": 2987,
    "2987,1": 2988,
    "2265,72": 2989,
    "264,72": 2990,
    "2990,64": 2991,
    "2991,73": 2992,
    "154,84": 2993,
    "157,60": 2994,
    "2994,77": 2995,
    "83,58": 2996,
    "693,64": 2997,
    "44,34": 2998,
    "2998,33": 2999,
    "1870,68": 3000,
    "3000,78": 3001,
    "1417,79": 3002,
    "588,63": 3003,
    "2931,16": 3004,
    "2980,74": 3005,
    "33,13": 3006,
    "1087,68": 3007,
    "3007,71": 3008,
    "34,1": 3009,
    "1906,73": 3010,
    "3010,60": 3011,
    "488,64": 3012,
    "825,68": 3013,
    "3013,79": 3014,
    "2922,67": 3015,
    "397,1": 3016,
    "1036,74": 3017,
    "3017,73": 3018,
    "1183,61": 3019,
    "3019,64": 3020,
    "3020,77": 3021,
    "136,64": 3022,
    "3022,77": 3023,
    "312,73": 3024,
    "3024,64": 3025,
    "2265,60": 3026,
    "3026,61": 3027,
    "637,1": 3028,
    "73,27": 3029,
    "1662,79": 3030,
    "321,12": 3031,
    "2197,78": 3032,
    "843,3": 3033,
    "134,63": 3034,
    "3034,64": 3035,
    "78,71": 3036,
    "3036,60": 3037,
    "894,71": 3038,
    "2179,77": 3039,
    "915,78": 3040,
    "3040,79": 3041,
    "480,77": 3042,
    "2340,72": 3043,
    "1571,75": 3044,
    "3044,79": 3045,
    "79,75": 3046,
    "13,66": 3047,
    "3047,13": 3048,
    "79,1": 3049,
    "3049,74": 3050,
    "3050,65": 3051,
    "3051,1": 3052,
    "1100,68": 3053,
    "915,63": 3054,
    "2159,77": 3055,
    "68,83": 3056,
    "3056,1": 3057,
    "504,68": 3058,
    "3058,74": 3059,
    "198,79": 3060,
    "293,64": 3061,
    "1105,78": 3062,
    "3062,71": 3063,
    "49,1": 3064,
    "3064,12": 3065,
    "515,79": 3066,
    "1578,64": 3067,
    "3067,78": 3068,
    "573,79": 3069,
    "1894,79": 3070,
    "397,64": 3071,
    "84,12": 3072,
    "2204,1": 3073,
    "2340,73": 3074,
    "77,11": 3075,
    "3075,1": 3076,
    "2017,84": 3077,
    "412,64": 3078,
    "3078,72": 3079,
    "1349,60": 3080,
    "3080,73": 3081,
    "33,45": 3082,
    "1488,1": 3083,
    "1063,73": 3084,
    "3084,66": 3085,
    "78,60": 3086,
    "2721,78": 3087,
    "662,75": 3088,
    "1006,77": 3089,
    "3089,60": 3090,
    "40,13": 3091,
    "2341,64": 3092,
    "3092,73": 3093,
    "598,85": 3094,
    "3094,64": 3095,
    "315,60": 3096,
    "1547,71": 3097,
    "38,77": 3098,
    "293,1": 3099,
    "2819,1": 3100,
    "311,78": 3101,
    "513,77": 3102,
    "257,1": 3103,
    "1146,68": 3104,
    "3104,73": 3105,
    "1685,1": 3106,
    "682,81": 3107,
    "303,74": 3108,
    "3108,73": 3109,
    "374,64": 3110,
    "74,67": 3111,
    "3111,73": 3112,
    "170,13": 3113,
    "3113,8": 3114,
    "67,72": 3115,
    "1058,68": 3116,
    "1488,74": 3117,
    "762,60": 3118,
    "391,62": 3119,
    "3119,68": 3120,
    "2183,79": 3121,
    "61,84": 3122,
    "1342,1": 3123,
    "3009,61": 3124,
    "3124,77": 3125,
    "78,72": 3126,
    "1090,71": 3127,
    "2661,73": 3128,
    "350,71": 3129,
    "2950,75": 3130,
    "70,1": 3131,
    "100,60": 3132,
    "518,71": 3133,
    "2670,77": 3134,
    "1254,75": 3135,
    "184,77": 3136,
    "12,80": 3137,
    "3137,75": 3138,
    "1006,60": 3139,
    "3139,73": 3140,
    "187,70": 3141,
    "382,77": 3142,
    "3142,64": 3143,
    "3143,63": 3144,
    "168,63": 3145,
    "50,75": 3146,
    "3146,77": 3147,
    "3147,68": 3148,
    "3148,78": 3149,
    "3149,68": 3150,
    "1835,67": 3151,
    "637,8": 3152,
    "123,73": 3153,
    "1399,1": 3154,
    "52,1": 3155,
    "3155,12": 3156,
    "342,84": 3157,
    "3157,74": 3158,
    "3158,77": 3159,
    "64,67": 3160,
    "3160,64": 3161,
    "3161,73": 3162,
    "207,1": 3163,
    "717,66": 3164,
    "3164,80": 3165,
    "3165,78": 3166,
    "3166,79": 3167,
    "682,74": 3168,
    "3168,80": 3169,
    "3169,78": 3170,
    "840,79": 3171,
    "3171,79": 3172,
    "3172,64": 3173,
    "3173,77": 3174,
    "497,71": 3175,
    "133,77": 3176,
    "1232,60": 3177,
    "3177,77": 3178,
    "1093,67": 3179,
    "1247,71": 3180,
    "1063,64": 3181,
    "3181,71": 3182,
    "246,78": 3183,
    "103,63": 3184,
    "67,8": 3185,
    "1894,62": 3186,
    "3186,84": 3187,
    "38,51": 3188,
    "6,68": 3189,
    "3189,72": 3190,
    "2867,71": 3191,
    "2321,79": 3192,
    "3192,1": 3193,
    "743,64": 3194,
    "3194,77": 3195,
    "2101,61": 3196,
    "3196,71": 3197,
    "3197,68": 3198,
    "2333,71": 3199,
    "142,68": 3200,
    "3200,60": 3201,
    "3201,72": 3202,
    "73,6": 3203,
    "3203,79": 3204,
    "391,84": 3205,
    "2416,73": 3206,
    "3206,62": 3207,
    "1861,74": 3208,
    "3208,84": 3209,
    "1360,71": 3210,
    "45,71": 3211,
    "3211,60": 3212,
    "3212,84": 3213,
    "51,1": 3214,
    "3214,74": 3215,
    "3215,65": 3216,
    "3216,1": 3217,
    "51,64": 3218,
    "3218,73": 3219,
    "404,14": 3220,
    "1105,61": 3221,
    "257,68": 3222,
    "242,74": 3223,
    "264,62": 3224,
    "3224,79": 3225,
    "3224,80": 3226,
    "660,78": 3227,
    "33,43": 3228,
    "78,76": 3229,
    "3229,80": 3230,
    "893,1": 3231,
    "2954,1": 3232,
    "397,67": 3233,
    "3233,64": 3234,
    "3234,77": 3235,
    "1430,74": 3236,
    "3236,65": 3237,
    "3237,1": 3238,
    "347,82": 3239,
    "3239,64": 3240,
    "48,75": 3241,
    "3241,71": 3242,
    "3242,68": 3243,
    "3243,79": 3244,
    "409,68": 3245,
    "3245,79": 3246,
    "1049,79": 3247,
    "1213,77": 3248,
    "1795,73": 3249,
    "184,60": 3250,
    "3250,63": 3251,
    "2274,64": 3252,
    "60,64": 3253,
    "2560,79": 3254,
    "3254,67": 3255,
    "168,79": 3256,
    "52,60": 3257,
    "3257,77": 3258,
    "527,68": 3259,
    "3259,62": 3260,
    "60,1": 3261,
    "2179,72": 3262,
    "1241,84": 3263,
    "31,13": 3264,
    "2923,73": 3265,
    "3265,79": 3266,
    "746,80": 3267,
    "1539,74": 3268,
    "3268,73": 3269,
    "264,1": 3270,
    "438,68": 3271,
    "43,64": 3272,
    "3272,82": 3273,
    "663,73": 3274,
    "513,80": 3275,
    "3275,77": 3276,
    "12,73": 3277,
    "955,77": 3278,
    "3278,60": 3279,
    "2126,78": 3280,
    "1863,64": 3281,
    "1465,7": 3282,
    "1,64": 3283,
    "3283,78": 3284,
    "3284,79": 3285,
    "22,79": 3286,
    "3286,67": 3287,
    "374,73": 3288,
    "2035,68": 3289,
    "3289,60": 3290,
    "2318,77": 3291,
    "488,63": 3292,
    "3292,82": 3293,
    "3293,60": 3294,
    "3294,77": 3295,
    "3295,64": 3296,
    "75,84": 3297,
    "3012,1": 3298,
    "950,78": 3299,
    "34,77": 3300,
    "3300,60": 3301,
    "3301,78": 3302,
    "1194,77": 3303,
    "347,85": 3304,
    "3304,68": 3305,
    "3305,79": 3306,
    "71,82": 3307,
    "3307,60": 3308,
    "1478,74": 3309,
    "108,70": 3310,
    "534,78": 3311,
    "79,12": 3312,
    "78,65": 3313,
    "211,12": 3314,
    "1215,60": 3315,
    "3315,71": 3316,
    "3316,64": 3317,
    "266,73": 3318,
    "289,60": 3319,
    "3319,77": 3320,
    "3320,63": 3321,
    "2183,62": 3322,
    "954,78": 3323,
    "3323,68": 3324,
    "3324,81": 3325,
    "3325,64": 3326,
    "710,63": 3327,
    "3327,74": 3328,
    "1573,79": 3329,
    "1100,1": 3330,
    "731,60": 3331,
    "3331,79": 3332,
    "1360,78": 3333,
    "34,34": 3334,
    "2934,60": 3335,
    "37,60": 3336,
    "1532,78": 3337,
    "3337,79": 3338,
    "1440,67": 3339,
    "63,71": 3340,
    "3340,64": 3341,
    "125,64": 3342,
    "744,67": 3343,
    "432,71": 3344,
    "488,60": 3345,
    "438,60": 3346,
    "3346,85": 3347,
    "1343,78": 3348,
    "3348,78": 3349,
    "1019,77": 3350,
    "1792,62": 3351,
    "1440,71": 3352,
    "3352,70": 3353,
    "3353,60": 3354,
    "3354,73": 3355,
    "954,73": 3356,
    "1910,78": 3357,
    "312,60": 3358,
    "3358,73": 3359,
    "3177,71": 3360,
    "1216,1": 3361,
    "84,61": 3362,
    "2804,64": 3363,
    "181,84": 3364,
    "254,77": 3365,
    "391,80": 3366,
    "3366,63": 3367,
    "2542,68": 3368,
    "3368,62": 3369,
    "11,15": 3370,
    "3370,15": 3371,
    "3371,15": 3372,
    "97,65": 3373,
    "3373,74": 3374,
    "3374,77": 3375,
    "1059,77": 3376,
    "783,78": 3377,
    "2956,72": 3378,
    "1663,64": 3379,
    "633,66": 3380,
    "1115,77": 3381,
    "3381,68": 3382,
    "3382,78": 3383,
    "914,16": 3384,
    "3384,24": 3385,
    "1422,62": 3386,
    "264,75": 3387,
    "281,70": 3388,
    "347,78": 3389,
    "3362,64": 3390,
    "922,77": 3391,
    "831,83": 3392,
    "816,65": 3393,
    "2661,78": 3394,
    "2471,1": 3395,
    "1152,68": 3396,
    "3396,79": 3397,
    "72,84": 3398,
    "3398,79": 3399,
    "3399,67": 3400,
    "35,60": 3401,
    "3401,77": 3402,
    "3402,74": 3403,
    "478,64": 3404,
    "3404,73": 3405,
    "147,68": 3406,
    "3406,73": 3407,
    "2725,67": 3408,
    "1349,68": 3409,
    "3409,81": 3410,
    "1470,79": 3411,
    "108,1": 3412,
    "2338,73": 3413,
    "3413,64": 3414,
    "1806,73": 3415,
    "710,79": 3416,
    "907,60": 3417,
    "3417,61": 3418,
    "536,73": 3419,
    "3419,79": 3420,
    "2638,1": 3421,
    "61,73": 3422,
    "3422,68": 3423,
    "63,69": 3424,
    "3424,64": 3425,
    "3425,62": 3426,
    "3426,79": 3427,
    "1505,68": 3428,
    "73,1": 3429,
    "82,78": 3430,
    "293,67": 3431,
    "1547,64": 3432,
    "989,64": 3433,
    "699,60": 3434,
    "184,72": 3435,
    "3435,1": 3436,
    "171,62": 3437,
    "3272,79": 3438,
    "3438,82": 3439,
    "374,1": 3440,
    "30,48": 3441,
    "3441,32": 3442,
    "3442,38": 3443,
    "1095,66": 3444,
    "64,87": 3445,
    "3445,1": 3446,
    "2493,73": 3447,
    "2121,79": 3448,
    "2817,63": 3449,
    "2530,67": 3450,
    "1097,60": 3451,
    "3451,79": 3452,
    "268,68": 3453,
    "3453,74": 3454,
    "3454,73": 3455,
    "1656,66": 3456,
    "3456,80": 3457,
    "2180,1": 3458,
    "409,80": 3459,
    "12,87": 3460,
    "138,65": 3461,
    "3461,68": 3462,
    "1090,78": 3463,
    "3463,1": 3464,
    "2055,74": 3465,
    "842,77": 3466,
    "3344,63": 3467,
    "1,31": 3468,
    "3468,74": 3469,
    "3469,82": 3470,
    "3470,71": 3471,
    "949,68": 3472,
    "3472,73": 3473,
    "1418,79": 3474,
    "444,73": 3475,
    "522,84": 3476,
    "1788,1": 3477,
    "3053,74": 3478,
    "3478,73": 3479,
    "389,72": 3480,
    "3480,60": 3481,
    "939,73": 3482,
    "2455,66": 3483,
    "3474,68": 3484,
    "855,66": 3485,
    "576,79": 3486,
    "231,70": 3487,
    "3487,64": 3488,
    "155,77": 3489,
    "190,63": 3490,
    "1616,62": 3491,
    "40,67": 3492,
    "3492,60": 3493,
    "264,61": 3494,
    "3494,77": 3495,
    "2057,64": 3496,
    "2377,77": 3497,
    "564,72": 3498,
    "1175,12": 3499,
    "1488,73": 3500,
    "3500,62": 3501,
    "598,72": 3502,
    "3502,64": 3503,
    "2122,68": 3504,
    "3504,73": 3505,
    "78,8": 3506,
    "685,14": 3507,
    "3507,78": 3508,
    "3508,80": 3509,
    "242,78": 3510,
    "3510,74": 3511,
    "2879,9": 3512,
    "3071,77": 3513,
    "3513,60": 3514,
    "163,64": 3515,
    "3515,63": 3516,
    "78,9": 3517,
    "933,1": 3518,
    "1669,64": 3519,
    "536,68": 3520,
    "3520,73": 3521,
    "281,63": 3522,
    "36,74": 3523,
    "3523,81": 3524,
    "3524,64": 3525,
    "3525,77": 3526,
    "81,77": 3527,
    "108,62": 3528,
    "231,74": 3529,
    "3529,73": 3530,
    "311,64": 3531,
    "385,66": 3532,
    "3532,64": 3533,
    "798,60": 3534,
    "3534,79": 3535,
    "791,67": 3536,
    "1252,63": 3537,
    "749,84": 3538,
    "224,71": 3539,
    "2565,60": 3540,
    "3540,71": 3541,
    "1605,77": 3542,
    "139,66": 3543,
    "3214,12": 3544,
    "78,77": 3545,
    "3545,60": 3546,
    "108,63": 3547,
    "3547,1": 3548,
    "187,79": 3549,
    "1473,73": 3550,
    "3550,60": 3551,
    "3551,72": 3552,
    "3552,68": 3553,
    "264,81": 3554,
    "3554,68": 3555,
    "3555,78": 3556,
    "731,74": 3557,
    "1015,62": 3558,
    "3558,74": 3559,
    "382,78": 3560,
    "3560,1": 3561,
    "3401,79": 3562,
    "3562,67": 3563,
    "3563,64": 3564,
    "3564,77": 3565,
    "3459,79": 3566,
    "198,78": 3567,
    "1505,79": 3568,
    "33,80": 3569,
    "2916,73": 3570,
    "3570,1": 3571,
    "436,1": 3572,
    "2174,77": 3573,
    "2779,67": 3574,
    "224,80": 3575,
    "3575,78": 3576,
    "3576,64": 3577,
    "744,79": 3578,
    "231,73": 3579,
    "47,74": 3580,
    "3580,72": 3581,
    "1183,75": 3582,
    "2386,71": 3583,
    "3583,60": 3584,
    "3584,79": 3585,
    "3585,68": 3586,
    "827,73": 3587,
    "1188,63": 3588,
    "644,73": 3589,
    "3589,63": 3590,
    "168,73": 3591,
    "62,13": 3592,
    "3592,8": 3593,
    "362,1": 3594,
    "2654,73": 3595,
    "43,80": 3596,
    "3596,62": 3597,
    "3597,71": 3598,
    "1067,68": 3599,
    "3599,77": 3600,
    "80,70": 3601,
    "2101,79": 3602,
    "682,71": 3603,
    "3603,84": 3604,
    "1870,60": 3605,
    "35,8": 3606,
    "2363,1": 3607,
    "189,61": 3608,
    "323,78": 3609,
    "3609,75": 3610,
    "322,1": 3611,
    "800,78": 3612,
    "82,82": 3613,
    "2352,67": 3614,
    "327,78": 3615,
    "564,71": 3616,
    "3616,74": 3617,
    "171,79": 3618,
    "3618,80": 3619,
    "3619,79": 3620,
    "293,74": 3621,
    "3621,73": 3622,
    "184,79": 3623,
    "3623,64": 3624,
    "2478,60": 3625,
    "3625,73": 3626,
    "1781,72": 3627,
    "933,77": 3628,
    "55,64": 3629,
    "3629,60": 3630,
    "3061,63": 3631,
    "196,72": 3632,
    "3632,61": 3633,
    "3633,80": 3634,
    "3634,78": 3635,
    "3635,79": 3636,
    "257,66": 3637,
    "2771,71": 3638,
    "71,81": 3639,
    "3639,68": 3640,
    "2570,79": 3641,
    "3641,80": 3642,
    "3642,77": 3643,
    "2318,1": 3644,
    "34,44": 3645,
    "1049,78": 3646,
    "1488,76": 3647,
    "3647,80": 3648,
    "1419,79": 3649,
    "1699,66": 3650,
    "1,7": 3651,
    "97,72": 3652,
    "48,62": 3653,
    "3653,74": 3654,
    "3654,79": 3655,
    "2057,74": 3656,
    "6,1": 3657,
    "73,65": 3658,
    "2246,63": 3659,
    "3659,64": 3660,
    "15,78": 3661,
    "598,66": 3662,
    "2074,60": 3663,
    "2052,79": 3664,
    "184,73": 3665,
    "427,68": 3666,
    "3666,63": 3667,
    "1981,64": 3668,
    "3668,77": 3669,
    "1998,64": 3670,
    "3670,73": 3671,
    "892,73": 3672,
    "2413,79": 3673,
    "933,71": 3674,
    "1898,63": 3675,
    "1066,68": 3676,
    "3676,79": 3677,
    "3677,80": 3678,
    "415,84": 3679,
    "3132,78": 3680,
    "3680,74": 3681,
    "3681,73": 3682,
    "44,41": 3683,
    "632,78": 3684,
    "2226,67": 3685,
    "3685,79": 3686,
    "2574,80": 3687,
    "2117,65": 3688,
    "3688,1": 3689,
    "764,1": 3690,
    "44,42": 3691,
    "374,70": 3692,
    "1027,68": 3693,
    "1791,80": 3694,
    "20,9": 3695,
    "72,78": 3696,
    "487,77": 3697,
    "3697,63": 3698,
    "950,77": 3699,
    "567,71": 3700,
    "3700,63": 3701,
    "266,63": 3702,
    "3702,64": 3703,
    "44,75": 3704,
    "3704,64": 3705,
    "369,78": 3706,
    "3423,85": 3707,
    "460,1": 3708,
    "257,74": 3709,
    "42,74": 3710,
    "149,78": 3711,
    "2783,79": 3712,
    "915,81": 3713,
    "3713,64": 3714,
    "38,38": 3715,
    "1070,74": 3716,
    "2934,85": 3717,
    "1,45": 3718,
    "184,69": 3719,
    "3719,64": 3720,
    "3720,62": 3721,
    "1405,72": 3722,
    "3270,79": 3723,
    "1188,60": 3724,
    "67,11": 3725,
    "3725,1": 3726,
    "576,77": 3727,
    "1081,79": 3728,
    "3377,1": 3729,
    "1024,1": 3730,
    "404,1": 3731,
    "1291,1": 3732,
    "342,77": 3733,
    "3733,84": 3734,
    "1022,60": 3735,
    "2772,79": 3736,
    "866,61": 3737,
    "697,79": 3738,
    "1627,79": 3739,
    "1479,1": 3740,
    "2902,64": 3741,
    "3741,79": 3742,
    "1151,64": 3743,
    "954,63": 3744,
    "2425,78": 3745,
    "3745,79": 3746,
    "243,64": 3747,
    "3747,63": 3748,
    "1860,77": 3749,
    "207,71": 3750,
    "3750,60": 3751,
    "1418,81": 3752,
    "3752,68": 3753,
    "921,68": 3754,
    "3754,62": 3755,
    "18,11": 3756,
    "3756,1": 3757,
    "1005,74": 3758,
    "3419,63": 3759,
    "60,67": 3760,
    "23,15": 3761,
    "3761,78": 3762,
    "2281,77": 3763,
    "536,71": 3764,
    "3764,64": 3765,
    "370,72": 3766,
    "3766,64": 3767,
    "3767,73": 3768,
    "3768,79": 3769,
    "626,79": 3770,
    "73,12": 3771,
    "2871,77": 3772,
    "71,12": 3773,
    "757,77": 3774,
    "2019,64": 3775,
    "3775,77": 3776,
    "544,73": 3777,
    "3777,63": 3778,
    "1886,64": 3779,
    "3779,81": 3780,
    "22,12": 3781,
    "3781,16": 3782,
    "312,78": 3783,
    "164,74": 3784,
    "3784,80": 3785,
    "3785,73": 3786,
    "3786,63": 3787,
    "54,60": 3788,
    "3788,67": 3789,
    "3789,82": 3790,
    "3790,64": 3791,
    "3791,67": 3792,
    "67,63": 3793,
    "3793,60": 3794,
    "1533,68": 3795,
    "3795,66": 3796,
    "3796,72": 3797,
    "3037,73": 3798,
    "3798,63": 3799,
    "1440,61": 3800,
    "3800,64": 3801,
    "64,70": 3802,
    "894,79": 3803,
    "1791,60": 3804,
    "3804,62": 3805,
    "404,75": 3806,
    "3806,80": 3807,
    "3807,79": 3808,
    "786,60": 3809,
    "2166,1": 3810,
    "73,81": 3811,
    "3811,68": 3812,
    "3812,77": 3813,
    "3813,74": 3814,
    "689,73": 3815,
    "1205,1": 3816,
    "198,77": 3817,
    "3817,68": 3818,
    "136,82": 3819,
    "3819,68": 3820,
    "2352,79": 3821,
    "157,63": 3822,
    "299,71": 3823,
    "3823,68": 3824,
    "3824,60": 3825,
    "3825,72": 3826,
    "358,63": 3827,
    "369,72": 3828,
    "3828,60": 3829,
    "322,74": 3830,
    "3830,73": 3831,
    "1490,61": 3832,
    "3832,71": 3833,
    "315,84": 3834,
    "2459,78": 3835,
    "866,73": 3836,
    "1449,74": 3837,
    "3837,75": 3838,
    "1768,79": 3839,
    "1708,64": 3840,
    "3840,77": 3841,
    "2891,66": 3842,
    "3842,64": 3843,
    "3843,77": 3844,
    "311,81": 3845,
    "2730,16": 3846,
    "2179,71": 3847,
    "383,78": 3848,
    "3848,67": 3849,
    "598,79": 3850,
    "3850,80": 3851,
    "989,60": 3852,
    "3852,73": 3853,
    "3496,79": 3854,
    "2152,68": 3855,
    "3855,60": 3856,
    "757,63": 3857,
    "75,25": 3858,
    "3858,14": 3859,
    "2627,1": 3860,
    "1,53": 3861,
    "415,71": 3862,
    "3453,60": 3863,
    "1492,60": 3864,
    "1652,72": 3865,
    "3865,60": 3866,
    "3866,73": 3867,
    "1752,63": 3868,
    "929,79": 3869,
    "590,71": 3870,
    "3870,80": 3871,
    "3871,63": 3872,
    "1716,68": 3873,
    "3873,62": 3874,
    "609,68": 3875,
    "3875,78": 3876,
    "71,75": 3877,
    "3877,1": 3878,
    "991,61": 3879,
    "3879,77": 3880,
    "908,63": 3881,
    "901,64": 3882,
    "672,62": 3883,
    "998,78": 3884,
    "3884,79": 3885,
    "3885,68": 3886,
    "3886,62": 3887,
    "2677,64": 3888,
    "1396,66": 3889,
    "2033,79": 3890,
    "1546,1": 3891,
    "362,77": 3892,
    "53,68": 3893,
    "1405,62": 3894,
    "459,77": 3895,
    "103,1": 3896,
    "433,63": 3897,
    "706,67": 3898,
    "954,68": 3899,
    "3899,74": 3900,
    "3900,77": 3901,
    "3122,1": 3902,
    "3110,1": 3903,
    "2232,79": 3904,
    "432,75": 3905,
    "1418,78": 3906,
    "3906,79": 3907,
    "3907,77": 3908,
    "3908,68": 3909,
    "3909,61": 3910,
    "3910,80": 3911,
    "3175,60": 3912,
    "951,79": 3913,
    "677,77": 3914,
    "3036,68": 3915,
    "3915,72": 3916,
    "2273,63": 3917,
    "3917,64": 3918,
    "432,81": 3919,
    "1326,13": 3920,
    "41,60": 3921,
    "3921,73": 3922,
    "3922,66": 3923,
    "3923,80": 3924,
    "1022,64": 3925,
    "3925,77": 3926,
    "782,66": 3927,
    "1801,1": 3928,
    "1219,77": 3929,
    "38,42": 3930,
    "3930,48": 3931,
    "147,62": 3932,
    "70,71": 3933,
    "3933,68": 3934,
    "3934,73": 3935,
    "1330,76": 3936,
    "3936,80": 3937,
    "2126,73": 3938,
    "3938,68": 3939,
    "1257,63": 3940,
    "2220,64": 3941,
    "3941,62": 3942,
    "3942,79": 3943,
    "632,72": 3944,
    "766,61": 3945,
    "3945,71": 3946,
    "3946,68": 3947,
    "1539,60": 3948,
    "3948,73": 3949,
    "427,64": 3950,
    "1176,78": 3951,
    "3951,71": 3952,
    "1049,65": 3953,
    "1334,73": 3954,
    "1274,63": 3955,
    "1639,68": 3956,
    "3956,60": 3957,
    "3957,73": 3958,
    "3651,63": 3959,
    "3959,13": 3960,
    "3960,1": 3961,
    "504,1": 3962,
    "41,36": 3963,
    "2498,68": 3964,
    "3964,71": 3965,
    "576,70": 3966,
    "1315,60": 3967,
    "1418,60": 3968,
    "254,72": 3969,
    "2949,79": 3970,
    "2753,63": 3971,
    "3971,74": 3972,
    "127,79": 3973,
    "317,68": 3974,
    "2355,12": 3975,
    "1480,60": 3976,
    "3976,61": 3977,
    "34,72": 3978,
    "3709,77": 3979,
    "2498,60": 3980,
    "3980,71": 3981,
    "2306,64": 3982,
    "3982,77": 3983,
    "1280,1": 3984,
    "242,68": 3985,
    "3985,66": 3986,
    "3986,73": 3987,
    "3987,27": 3988,
    "2498,71": 3989,
    "3989,64": 3990,
    "3990,72": 3991,
    "962,78": 3992,
    "3992,79": 3993,
    "3993,77": 3994,
    "3994,60": 3995,
    "3995,75": 3996,
    "655,81": 3997,
    "74,83": 3998,
    "986,78": 3999,
    "3999,80": 4000,
    "207,78": 4001,
    "4001,79": 4002,
    "1232,72": 4003,
    "2273,62": 4004,
    "4004,70": 4005,
    "2977,81": 4006,
    "4006,64": 4007,
    "3601,68": 4008,
    "877,64": 4009,
    "2513,68": 4010,
    "4010,74": 4011,
    "4011,73": 4012,
    "369,67": 4013,
    "4013,60": 4014,
    "4014,72": 4015,
    "1802,68": 4016,
    "4016,73": 4017,
    "43,60": 4018,
    "4018,79": 4019,
    "4019,68": 4020,
    "4020,74": 4021,
    "4021,73": 4022,
    "682,62": 4023,
    "4023,64": 4024,
    "2726,63": 4025,
    "3286,77": 4026,
    "4026,1": 4027,
    "4027,79": 4028,
    "4028,63": 4029,
    "2323,63": 4030,
    "276,1": 4031,
    "598,73": 4032,
    "4032,66": 4033,
    "1750,84": 4034,
    "863,1": 4035,
    "2324,73": 4036,
    "959,1": 4037,
    "609,82": 4038,
    "50,1": 4039,
    "1419,60": 4040,
    "4040,79": 4041,
    "2179,68": 4042,
    "4042,71": 4043,
    "1855,72": 4044,
    "4044,60": 4045,
    "4045,71": 4046,
    "4046,64": 4047,
    "1000,63": 4048,
    "4048,1": 4049,
    "2272,77": 4050,
    "1343,74": 4051,
    "4051,73": 4052,
    "2140,64": 4053,
    "4053,73": 4054,
    "785,73": 4055,
    "1361,63": 4056,
    "242,84": 4057,
    "2580,73": 4058,
    "4058,68": 4059,
    "4059,78": 4060,
    "75,1": 4061,
    "2455,63": 4062,
    "791,74": 4063,
    "4063,73": 4064,
    "157,75": 4065,
    "4065,79": 4066,
    "2205,1": 4067,
    "201,68": 4068,
    "4068,66": 4069,
    "19,9": 4070,
    "68,80": 4071,
    "4071,72": 4072,
    "1430,12": 4073,
    "41,50": 4074,
    "3706,64": 4075,
    "143,66": 4076,
    "946,63": 4077,
    "536,60": 4078,
    "4078,63": 4079,
    "367,63": 4080,
    "4080,64": 4081,
    "1251,68": 4082,
    "4082,79": 4083,
    "85,85": 4084,
    "697,64": 4085,
    "3651,61": 4086,
    "4086,13": 4087,
    "4087,1": 4088,
    "715,60": 4089,
    "1826,15": 4090,
    "33,60": 4091,
    "3827,74": 4092,
    "4092,82": 4093,
    "1721,78": 4094,
    "744,74": 4095,
    "4095,71": 4096,
    "38,78": 4097,
    "4097,77": 4098,
    "4098,60": 4099,
    "4099,64": 4100,
    "4100,71": 4101,
    "43,30": 4102,
    "663,1": 4103,
    "332,73": 4104,
    "4104,62": 4105,
    "4105,79": 4106,
    "726,77": 4107,
    "4107,1": 4108,
    "4108,79": 4109,
    "4109,63": 4110,
    "1,52": 4111,
    "762,79": 4112,
    "1583,1": 4113,
    "41,68": 4114,
    "1418,80": 4115,
    "4115,72": 4116,
    "1581,77": 4117,
    "4117,1": 4118,
    "4118,79": 4119,
    "4119,63": 4120,
    "1571,1": 4121,
    "3528,64": 4122,
    "394,80": 4123,
    "4123,77": 4124,
    "303,76": 4125,
    "4125,80": 4126,
    "2717,73": 4127,
    "307,73": 4128,
    "889,64": 4129,
    "2112,64": 4130,
    "4130,73": 4131,
    "978,78": 4132,
    "4132,64": 4133,
    "4133,83": 4134,
    "1722,66": 4135,
    "258,63": 4136,
    "74,12": 4137,
    "97,1": 4138,
    "391,63": 4139,
    "1792,66": 4140,
    "880,64": 4141,
    "103,73": 4142,
    "488,77": 4143,
    "4143,84": 4144,
    "785,1": 4145,
    "1791,68": 4146,
    "570,77": 4147,
    "1619,64": 4148,
    "4148,62": 4149,
    "4149,79": 4150,
    "315,1": 4151,
    "123,62": 4152,
    "4071,78": 4153,
    "71,72": 4154,
    "1578,83": 4155,
    "588,1": 4156,
    "12,30": 4157,
    "4157,72": 4158,
    "4158,64": 4159,
    "4159,77": 4160,
    "4160,68": 4161,
    "19,12": 4162,
    "127,67": 4163,
    "1219,72": 4164,
    "4164,60": 4165,
    "4165,79": 4166,
    "299,72": 4167,
    "1998,60": 4168,
    "3523,63": 4169,
    "30,65": 4170,
    "4170,66": 4171,
    "4171,67": 4172,
    "477,60": 4173,
    "4173,71": 4174,
    "576,68": 4175,
    "2306,60": 4176,
    "581,64": 4177,
    "391,73": 4178,
    "100,75": 4179,
    "4179,67": 4180,
    "663,66": 4181,
    "2600,1": 4182,
    "1578,82": 4183,
    "4183,73": 4184,
    "224,79": 4185,
    "1531,71": 4186,
    "79,73": 4187,
    "4187,60": 4188,
    "4188,72": 4189,
    "2012,1": 4190,
    "2864,1": 4191,
    "2836,68": 4192,
    "4192,62": 4193,
    "2947,82": 4194,
    "2514,77": 4195,
    "4195,64": 4196,
    "266,1": 4197,
    "207,73": 4198,
    "4198,64": 4199,
    "3390,77": 4200,
    "24,15": 4201,
    "4201,78": 4202,
    "2687,1": 4203,
    "203,1": 4204,
    "3978,75": 4205,
    "1,65": 4206,
    "4206,74": 4207,
    "4207,77": 4208,
    "231,63": 4209,
    "468,1": 4210,
    "2574,73": 4211,
    "4211,63": 4212,
    "79,13": 4213,
    "3484,74": 4214,
    "4214,73": 4215,
    "1000,62": 4216,
    "4216,67": 4217,
    "1418,66": 4218,
    "4218,68": 4219,
    "4219,79": 4220,
    "2155,61": 4221,
    "4221,60": 4222,
    "4222,73": 4223,
    "933,79": 4224,
    "707,79": 4225,
    "12,16": 4226,
    "82,1": 4227,
    "303,61": 4228,
    "4228,64": 4229,
    "4229,77": 4230,
    "3009,12": 4231,
    "4231,12": 4232,
    "109,78": 4233,
    "4233,67": 4234,
    "2334,60": 4235,
    "4235,73": 4236,
    "1873,66": 4237,
    "4237,64": 4238,
    "2450,63": 4239,
    "24,79": 4240,
    "4240,67": 4241,
    "2867,79": 4242,
    "223,79": 4243,
    "3639,64": 4244,
    "632,81": 4245,
    "26,16": 4246,
    "1627,60": 4247,
    "4247,71": 4248,
    "109,73": 4249,
    "4249,66": 4250,
    "663,71": 4251,
    "4251,63": 4252,
    "1831,61": 4253,
    "4253,77": 4254,
    "1349,63": 4255,
    "83,80": 4256,
    "4256,60": 4257,
    "988,65": 4258,
    "45,77": 4259,
    "4259,74": 4260,
    "3253,74": 4261,
    "4261,71": 4262,
    "4262,74": 4263,
    "4263,66": 4264,
    "249,73": 4265,
    "3398,1": 4266,
    "133,1": 4267,
    "995,80": 4268,
    "4268,71": 4269,
    "929,71": 4270,
    "4270,79": 4271,
    "31,44": 4272,
    "4272,41": 4273,
    "3932,70": 4274,
    "138,1": 4275,
    "810,64": 4276,
    "100,76": 4277,
    "4277,80": 4278,
    "307,77": 4279,
    "173,60": 4280,
    "4280,79": 4281,
    "1042,60": 4282,
    "1703,64": 4283,
    "4283,77": 4284,
    "375,67": 4285,
    "715,64": 4286,
    "4286,78": 4287,
    "20,15": 4288,
    "4288,78": 4289,
    "863,68": 4290,
    "4290,62": 4291,
    "2989,84": 4292,
    "477,1": 4293,
    "2714,84": 4294,
    "374,79": 4295,
    "1503,67": 4296,
    "1297,64": 4297,
    "3405,79": 4298,
    "723,68": 4299,
    "4299,61": 4300,
    "4300,80": 4301,
    "663,62": 4302,
    "4302,64": 4303,
    "682,60": 4304,
    "522,60": 4305,
    "4305,77": 4306,
    "573,80": 4307,
    "4307,79": 4308,
    "3132,77": 4309,
    "415,73": 4310,
    "4310,63": 4311,
    "417,1": 4312,
    "915,60": 4313,
    "268,79": 4314,
    "187,77": 4315,
    "4315,74": 4316,
    "358,70": 4317,
    "4317,1": 4318,
    "20,12": 4319
  },
  "next_id": 4320
}