{
  "id2token": {
    "0": "\n",
    "1": " ",
    "2": "!",
    "3": "#",
    "4": "$",
    "5": "%",
    "6": "'",
    "7": "(",
    "8": ")",
    "9": "*",
    "10": "+",
    "11": ",",
    "12": "-",
    "13": ".",
    "14": "/",
    "15": "0",
    "16": "1",
    "17": "2",
    "18": "3",
    "19": "4",
    "20": "5",
    "21": "6",
    "22": "7",
    "23": "8",
    "24": "9",
    "25": ":",
    "26": ";",
    "27": "=",
    "28": "?",
    "29": "@",
    "30": "A",
    "31": "B",
    "32": "C",
    "33": "D",
    "34": "E",
    "35": "F",
    "36": "G",
    "37": "H",
    "38": "I",
    "39": "J",
    "40": "K",
    "41": "L",
    "42": "M",
    "43": "N",
    "44": "O",
    "45": "P",
    "46": "Q",
    "47": "R",
    "48": "S",
    "49": "T",
    "50": "U",
    "51": "V",
    "52": "W",
    "53": "X",
    "54": "Y",
    "55": "Z",
    "56": "\\",
    "57": "^",
    "58": "_",
    "59": "`",
    "60": "a",
    "61": "b",
    "62": "c",
    "63": "d",
    "64": "e",
    "65": "f",
    "66": "g",
    "67": "h",
    "68": "i",
    "69": "j",
    "70": "k",
    "71": "l",
    "72": "m",
    "73": "n",
    "74": "o",
    "75": "p",
    "76": "q",
    "77": "r",
    "78": "s",
    "79": "t",
    "80": "u",
    "81": "v",
    "82": "w",
    "83": "x",
    "84": "y",
    "85": "z",
    "86": "{",
    "87": "|",
    "88": "}",
    "89": "~",
    "90": "<|endoftext|>",
    "91": "<pad>",
    "92": "K.",
    "93": "de",
    "94": "der",
    "95": "dern",
    "96": "ls",
    "97": "us",
    "98": "uss",
    "99": "ussi",
    "100": "ussia",
    "101": "um",
    "102": "ume",
    "103": "umed",
    "104": "umed ",
    "105": "ti",
    "106": "tit",
    "107": "oc",
    "108": "til",
    "109": "tili",
    "110": "ur",
    "111": "urt",
    "112": "urth",
    "113": " b",
    "114": " br",
    "115": "vi",
    "116": "vid",
    "117": "vide",
    "118": "viden",
    "119": "ze",
    "120": "zed",
    "121": "ak",
    "122": "ake",
    "123": "ra",
    "124": "rac",
    "125": "ract",
    "126": "racte",
    "127": "racter",
    "128": "vie",
    "129": "fi",
    "130": "fir",
    "131": "em",
    "132": "emb",
    "133": "st",
    "134": "sto",
    "135": "stot",
    "136": "ni",
    "137": "nis",
    "138": "3 ",
    "139": "3 -",
    "140": "3 - ",
    "141": "er",
    "142": "erg",
    "143": "da",
    "144": "dar",
    "145": "un",
    "146": "unc",
    "147": "ve",
    "148": "ved",
    "149": "ro",
    "150": "rou",
    "151": "roug",
    "152": "we",
    "153": "gh",
    "154": "gha",
    "155": "f.",
    "156": "ol",
    "157": "if",
    "158": "ifi",
    "159": "ifie",
    "160": "ified",
    "161": "Bo",
    "162": "po",
    "163": "pos",
    "164": "pose",
    "165": "poser",
    "166": "ar",
    "167": "ara",
    "168": "arac",
    "169": "aract",
    "170": "sc",
    "171": "sco",
    "172": "di",
    "173": "dic",
    "174": "lg",
    "175": "lga",
    "176": "lgar",
    "177": "au",
    "178": "aus",
    "179": "aust",
    "180": "ri",
    "181": "ril",
    "182": "od",
    "183": "odh",
    "184": "tr",
    "185": "oo",
    "186": "ook",
    "187": "ook ",
    "188": "U,",
    "189": "U, ",
    "190": "il",
    "191": "ill",
    "192": "ill ",
    "193": "no",
    "194": "nom",
    "195": "Pa",
    "196": "-1",
    "197": "-18",
    "198": "ne",
    "199": "nel",
    "200": "ump",
    "201": "el",
    "202": "elt",
    "203": "eltr",
    "204": "Af",
    "205": "Afg",
    "206": "Afgh",
    "207": "Afgha",
    "208": "mb",
    "209": "mbe",
    "210": "ea",
    "211": "eal",
    "212": "ela",
    "213": "8,",
    "214": "8, ",
    "215": "//",
    "216": "av",
    "217": "ave",
    "218": "aven",
    "219": "ems",
    "220": "ria",
    "221": "En",
    "222": "Eng",
    "223": "Engl",
    "224": "ns",
    "225": "ns ",
    "226": "-E",
    "227": "-En",
    "228": "-Eng",
    "229": "-Engl",
    "230": "al",
    "231": "alv",
    "232": "alva",
    "233": "alvad",
    "234": "alvado",
    "235": "le",
    "236": "leg",
    "237": "lege",
    "238": "lo",
    "239": "loy",
    "240": "y ",
    "241": "rf",
    "242": "rfo",
    "243": "rfor",
    "244": "as",
    "245": "ast",
    "246": "asta",
    "247": "8)",
    "248": "ma",
    "249": "mal",
    "250": "mall",
    "251": "tio",
    "252": "tion",
    "253": " (",
    "254": " (b",
    "255": " (b.",
    "256": "ct",
    "257": "ctu",
    "258": "os",
    "259": "osa",
    "260": "osau",
    "261": "osaur",
    "262": "rv",
    "263": "rvi",
    "264": "rvic",
    "265": "rvice",
    "266": "C,",
    "267": "C, ",
    "268": "roq",
    "269": "roqu",
    "270": "an",
    "271": "ang",
    "272": "ange",
    "273": "angel",
    "274": "to",
    "275": "tob",
    "276": "ir",
    "277": "irs",
    "278": "irst",
    "279": "ac",
    "280": "ace",
    "281": "mp",
    "282": "mpi",
    "283": "mpio",
    "284": "mpion",
    "285": "Be",
    "286": "Bea",
    "287": "WI",
    "288": "WII",
    "289": "za",
    "290": "zat",
    "291": "ll",
    "292": "lli",
    "293": "llin",
    "294": "lling",
    "295": "TR",
    "296": "TRT",
    "297": "uc",
    "298": "uct",
    "299": "rg",
    "300": "rge",
    "301": "g ",
    "302": "g K",
    "303": "g Ko",
    "304": "ic",
    "305": "icu",
    "306": "icul",
    "307": "icult",
    "308": "n-",
    "309": "roun",
    "310": "round",
    "311": "D.",
    "312": "in",
    "313": "ini",
    "314": "init",
    "315": "initi",
    "316": "initio",
    "317": "inition",
    "318": "na",
    "319": "nal",
    "320": "nall",
    "321": "nally",
    "322": "is",
    "323": "isc",
    "324": "iscu",
    "325": "iscus",
    "326": "el ",
    "327": "asi",
    "328": "asio",
    "329": "asion",
    "330": "ba",
    "331": "bab",
    "332": "ge",
    "333": "gen",
    "334": "genc",
    "335": "ki",
    "336": "kin",
    "337": "hu",
    "338": "hur",
    "339": "hurs",
    "340": "hursa",
    "341": "3 /",
    "342": "3 /s",
    "343": "/k",
    "344": "/kg",
    "345": "rot",
    "346": "roth",
    "347": "rothe",
    "348": "ot",
    "349": "oth",
    "350": "othe",
    "351": "eas",
    "352": "easu",
    "353": "easur",
    "354": "ose",
    "355": "ose ",
    "356": "sl",
    "357": "sla",
    "358": "gel",
    "359": "Cz",
    "360": "Cze",
    "361": "Czec",
    "362": "Czech",
    "363": "ov",
    "364": "ovi",
    "365": "ovie",
    "366": "oviet",
    "367": "sti",
    "368": "stic",
    "369": "tt",
    "370": "Da",
    "371": "Dan",
    "372": "Dani",
    "373": "Danie",
    "374": "Daniel",
    "375": "ct ",
    "376": "ng",
    "377": "ngu",
    "378": "(d",
    "379": "(d.",
    "380": "en",
    "381": "ent",
    "382": "ents",
    "383": "if ",
    "384": "yl",
    "385": "yle",
    "386": "my",
    "387": "my ",
    "388": "ngl",
    "389": "ngle",
    "390": "ap",
    "391": "apa",
    "392": "stit",
    "393": "ai",
    "394": "ais",
    "395": "Xo",
    "396": "Xoa",
    "397": "Xoan",
    "398": "ere",
    "399": "ere ",
    "400": "rae",
    "401": "dr",
    "402": "dre",
    "403": "Ha",
    "404": "Har",
    "405": "Harb",
    "406": "Harbo",
    "407": "4,",
    "408": "4, ",
    "409": "ch",
    "410": "cha",
    "411": "chan",
    "412": "chani",
    "413": "ant",
    "414": "^{",
    "415": "aii",
    "416": "pt",
    "417": "pti",
    "418": "ou",
    "419": "oug",
    "420": "kn",
    "421": "kno",
    "422": "know",
    "423": "known",
    "424": "2 ",
    "425": "2 /",
    "426": "2 /s",
    "427": "ke",
    "428": "ked",
    "429": "af",
    "430": "aft",
    "431": "afte",
    "432": "rab",
    "433": "alu",
    "434": "alue",
    "435": "e,",
    "436": "e, ",
    "437": "xt",
    "438": "llo",
    "439": "llow",
    "440": "cto",
    "441": "ctor",
    "442": "gr",
    "443": "gre",
    "444": "gree",
    "445": "TD",
    "446": "TD ",
    "447": "tto",
    "448": "im",
    "449": "imi",
    "450": "imin",
    "451": "ob",
    "452": "obi",
    "453": "obil",
    "454": "cti",
    "455": "ctio",
    "456": "ala",
    "457": "nr",
    "458": "ers",
    "459": "Ma",
    "460": "als",
    "461": "alse",
    "462": "6 ",
    "463": "6 -",
    "464": "bl",
    "465": "bli",
    "466": "Fi",
    "467": "Fin",
    "468": "wi",
    "469": "wic",
    "470": "wich",
    "471": "at",
    "472": "atu",
    "473": "atur",
    "474": "Hay",
    "475": "Hayn",
    "476": "Hayne",
    "477": "ire",
    "478": "irec",
    "479": "irect",
    "480": "pte",
    "481": "ptem",
    "482": "ptemb",
    "483": "-s",
    "484": "-sp",
    "485": "-spe",
    "486": ",:",
    "487": "li",
    "488": "lit",
    "489": "liti",
    "490": "zi",
    "491": "la",
    "492": "lah",
    "493": "laho",
    "494": "mo",
    "495": "moc",
    "496": "mocr",
    "497": "ale",
    "498": "ats",
    "499": "atso",
    "500": "atson",
    "501": "ild",
    "502": "eb",
    "503": "eba",
    "504": "Ve",
    "505": "Ved",
    "506": "Veda",
    "507": "So",
    "508": "Sou",
    "509": "Sout",
    "510": "South",
    "511": "co",
    "512": "co ",
    "513": "xe",
    "514": "nc",
    "515": "nch",
    "516": "wh",
    "517": "who",
    "518": "who ",
    "519": "ote",
    "520": "oter",
    "521": "si",
    "522": "sit",
    "523": "on",
    "524": "oni",
    "525": "onic",
    "526": "Go",
    "527": "Got",
    "528": "Goth",
    "529": "char",
    "530": "chara",
    "531": "charac",
    "532": "charact",
    "533": "fr",
    "534": "fri",
    "535": "fric",
    "536": "frica",
    "537": "Am",
    "538": "Ame",
    "539": "Amer",
    "540": "Ameri",
    "541": "ec",
    "542": "ech",
    "543": "/s",
    "544": "br",
    "545": "bre",
    "546": "brev",
    "547": "yc",
    "548": "ych",
    "549": "ul",
    "550": "nl",
    "551": "nly",
    "552": " w",
    "553": " wi",
    "554": " wit",
    "555": " with",
    "556": "eam",
    "557": "ati",
    "558": "atio",
    "559": "ation",
    "560": "ver",
    "561": "very",
    "562": "very ",
    "563": "cl",
    "564": "cli",
    "565": "clin",
    "566": "se",
    "567": "sel",
    "568": "self",
    "569": "me",
    "570": "mer",
    "571": "meri",
    "572": "it",
    "573": "ith",
    "574": "ithe",
    "575": "p ",
    "576": "p o",
    "577": "p of",
    "578": "p of ",
    "579": "col",
    "580": "coln",
    "581": "yn",
    "582": "it ",
    "583": "2 -",
    "584": "osl",
    "585": "ph",
    "586": "pho",
    "587": "ect",
    "588": "ric",
    "589": "rict",
    "590": "RG",
    "591": "RGB",
    "592": "ran",
    "593": "rs",
    "594": "rsi",
    "595": "rsio",
    "596": "rsion",
    "597": "fin",
    "598": "rod",
    "599": "rop",
    "600": "rope",
    "601": "rat",
    "602": "rate",
    "603": "imp",
    "604": "impo",
    "605": "impor",
    "606": "import",
    "607": "RO",
    "608": "ROM",
    "609": "du",
    "610": "duc",
    "611": "-b",
    "612": "-bo",
    "613": "E ",
    "614": "E b",
    "615": "E br",
    "616": "elp",
    "617": "elp ",
    "618": "lle",
    "619": "lled",
    "620": "og",
    "621": "ogi",
    "622": "ogic",
    "623": "Se",
    "624": "Sec",
    "625": "Seco",
    "626": "Secon",
    "627": "Second",
    "628": "tu",
    "629": "tua",
    "630": "tual",
    "631": "rov",
    "632": "rove",
    "633": "Ke",
    "634": "Ket",
    "635": "Keth",
    "636": "Kethu",
    "637": "ghb",
    "638": "gu",
    "639": "gue",
    "640": "erc",
    "641": "ptid",
    "642": "th",
    "643": "tho",
    "644": "thol",
    "645": "tholi",
    "646": "et",
    "647": "eth",
    "648": "or",
    "649": "orp",
    "650": "orpo",
    "651": "orpor",
    "652": "orpora",
    "653": "wid",
    "654": "widt",
    "655": "width",
    "656": "C)",
    "657": "und",
    "658": "mos",
    "659": "rom",
    "660": "rom ",
    "661": "pe",
    "662": "pee",
    "663": "peed",
    "664": "umen",
    "665": "umeni",
    "666": "umenic",
    "667": "8 ",
    "668": "8 -",
    "669": "litio",
    "670": "ia",
    "671": "ian",
    "672": "ise",
    "673": "isen",
    "674": "isenh",
    "675": "isenho",
    "676": "ad",
    "677": "ada",
    "678": "aday",
    "679": "r*",
    "680": "ld",
    "681": "ldr",
    "682": "ldre",
    "683": "up",
    "684": "ups",
    "685": "lov",
    "686": "al ",
    "687": "rd",
    "688": "rd ",
    "689": "ew",
    "690": "rr",
    "691": "rry",
    "692": "tiv",
    "693": "ear",
    "694": "earc",
    "695": "ab",
    "696": "abo",
    "697": "abor",
    "698": "gl",
    "699": "glo",
    "700": "glob",
    "701": "globa",
    "702": "global",
    "703": "as ",
    "704": "ui",
    "705": "ta",
    "706": "tai",
    "707": "tail",
    "708": "unt",
    "709": "untr",
    "710": "rdw",
    "711": "rdwa",
    "712": "rdwar",
    "713": "rdware",
    "714": "tiona",
    "715": "net",
    "716": "nete",
    "717": "netee",
    "718": "loc",
    "719": "lock",
    "720": "*E",
    "721": "lor",
    "722": "Ea",
    "723": "he",
    "724": "hec",
    "725": "hech",
    "726": "4)",
    "727": "4)*",
    "728": "bu",
    "729": "nt",
    "730": "nty",
    "731": "ste",
    "732": "ova",
    "733": "ci",
    "734": "cie",
    "735": "lu",
    "736": "lus",
    "737": "lusi"
  },
  "merges": {
    "40,13": 92,
    "63,64": 93,
    "93,77": 94,
    "94,73": 95,
    "71,78": 96,
    "80,78": 97,
    "97,78": 98,
    "98,68": 99,
    "99,60": 100,
    "80,72": 101,
    "101,64": 102,
    "102,63": 103,
    "103,1": 104,
    "79,68": 105,
    "105,79": 106,
    "74,62": 107,
    "105,71": 108,
    "108,68": 109,
    "80,77": 110,
    "110,79": 111,
    "111,67": 112,
    "1,61": 113,
    "113,77": 114,
    "81,68": 115,
    "115,63": 116,
    "116,64": 117,
    "117,73": 118,
    "85,64": 119,
    "119,63": 120,
    "60,70": 121,
    "121,64": 122,
    "77,60": 123,
    "123,62": 124,
    "124,79": 125,
    "125,64": 126,
    "126,77": 127,
    "115,64": 128,
    "65,68": 129,
    "129,77": 130,
    "64,72": 131,
    "131,61": 132,
    "78,79": 133,
    "133,74": 134,
    "134,79": 135,
    "73,68": 136,
    "136,78": 137,
    "18,1": 138,
    "138,12": 139,
    "139,1": 140,
    "64,77": 141,
    "141,66": 142,
    "63,60": 143,
    "143,77": 144,
    "80,73": 145,
    "145,62": 146,
    "81,64": 147,
    "147,63": 148,
    "77,74": 149,
    "149,80": 150,
    "150,66": 151,
    "82,64": 152,
    "66,67": 153,
    "153,60": 154,
    "65,13": 155,
    "74,71": 156,
    "68,65": 157,
    "157,68": 158,
    "158,64": 159,
    "159,63": 160,
    "31,74": 161,
    "75,74": 162,
    "162,78": 163,
    "163,64": 164,
    "164,77": 165,
    "60,77": 166,
    "166,60": 167,
    "167,62": 168,
    "168,79": 169,
    "78,62": 170,
    "170,74": 171,
    "63,68": 172,
    "172,62": 173,
    "71,66": 174,
    "174,60": 175,
    "175,77": 176,
    "60,80": 177,
    "177,78": 178,
    "178,79": 179,
    "77,68": 180,
    "180,71": 181,
    "74,63": 182,
    "182,67": 183,
    "79,77": 184,
    "74,74": 185,
    "185,70": 186,
    "186,1": 187,
    "50,11": 188,
    "188,1": 189,
    "68,71": 190,
    "190,71": 191,
    "191,1": 192,
    "73,74": 193,
    "193,72": 194,
    "45,60": 195,
    "12,16": 196,
    "196,23": 197,
    "73,64": 198,
    "198,71": 199,
    "101,75": 200,
    "64,71": 201,
    "201,79": 202,
    "202,77": 203,
    "30,65": 204,
    "204,66": 205,
    "205,67": 206,
    "206,60": 207,
    "72,61": 208,
    "208,64": 209,
    "64,60": 210,
    "210,71": 211,
    "201,60": 212,
    "23,11": 213,
    "213,1": 214,
    "14,14": 215,
    "60,81": 216,
    "216,64": 217,
    "217,73": 218,
    "131,78": 219,
    "180,60": 220,
    "34,73": 221,
    "221,66": 222,
    "222,71": 223,
    "73,78": 224,
    "224,1": 225,
    "12,34": 226,
    "226,73": 227,
    "227,66": 228,
    "228,71": 229,
    "60,71": 230,
    "230,81": 231,
    "231,60": 232,
    "232,63": 233,
    "233,74": 234,
    "71,64": 235,
    "235,66": 236,
    "236,64": 237,
    "71,74": 238,
    "238,84": 239,
    "84,1": 240,
    "77,65": 241,
    "241,74": 242,
    "242,77": 243,
    "60,78": 244,
    "244,79": 245,
    "245,60": 246,
    "23,8": 247,
    "72,60": 248,
    "248,71": 249,
    "249,71": 250,
    "105,74": 251,
    "251,73": 252,
    "1,7": 253,
    "253,61": 254,
    "254,13": 255,
    "62,79": 256,
    "256,80": 257,
    "74,78": 258,
    "258,60": 259,
    "259,80": 260,
    "260,77": 261,
    "77,81": 262,
    "262,68": 263,
    "263,62": 264,
    "264,64": 265,
    "32,11": 266,
    "266,1": 267,
    "149,76": 268,
    "268,80": 269,
    "60,73": 270,
    "270,66": 271,
    "271,64": 272,
    "272,71": 273,
    "79,74": 274,
    "274,61": 275,
    "68,77": 276,
    "276,78": 277,
    "277,79": 278,
    "60,62": 279,
    "279,64": 280,
    "72,75": 281,
    "281,68": 282,
    "282,74": 283,
    "283,73": 284,
    "31,64": 285,
    "285,60": 286,
    "52,38": 287,
    "287,38": 288,
    "85,60": 289,
    "289,79": 290,
    "71,71": 291,
    "291,68": 292,
    "292,73": 293,
    "293,66": 294,
    "49,47": 295,
    "295,49": 296,
    "80,62": 297,
    "297,79": 298,
    "77,66": 299,
    "299,64": 300,
    "66,1": 301,
    "301,40": 302,
    "302,74": 303,
    "68,62": 304,
    "304,80": 305,
    "305,71": 306,
    "306,79": 307,
    "73,12": 308,
    "150,73": 309,
    "309,63": 310,
    "33,13": 311,
    "68,73": 312,
    "312,68": 313,
    "313,79": 314,
    "314,68": 315,
    "315,74": 316,
    "316,73": 317,
    "73,60": 318,
    "318,71": 319,
    "319,71": 320,
    "320,84": 321,
    "68,78": 322,
    "322,62": 323,
    "323,80": 324,
    "324,78": 325,
    "201,1": 326,
    "244,68": 327,
    "327,74": 328,
    "328,73": 329,
    "61,60": 330,
    "330,61": 331,
    "66,64": 332,
    "332,73": 333,
    "333,62": 334,
    "70,68": 335,
    "335,73": 336,
    "67,80": 337,
    "337,77": 338,
    "338,78": 339,
    "339,60": 340,
    "138,14": 341,
    "341,78": 342,
    "14,70": 343,
    "343,66": 344,
    "149,79": 345,
    "345,67": 346,
    "346,64": 347,
    "74,79": 348,
    "348,67": 349,
    "349,64": 350,
    "210,78": 351,
    "351,80": 352,
    "352,77": 353,
    "258,64": 354,
    "354,1": 355,
    "78,71": 356,
    "356,60": 357,
    "332,71": 358,
    "32,85": 359,
    "359,64": 360,
    "360,62": 361,
    "361,67": 362,
    "74,81": 363,
    "363,68": 364,
    "364,64": 365,
    "365,79": 366,
    "133,68": 367,
    "367,62": 368,
    "79,79": 369,
    "33,60": 370,
    "370,73": 371,
    "371,68": 372,
    "372,64": 373,
    "373,71": 374,
    "256,1": 375,
    "73,66": 376,
    "376,80": 377,
    "7,63": 378,
    "378,13": 379,
    "64,73": 380,
    "380,79": 381,
    "381,78": 382,
    "157,1": 383,
    "84,71": 384,
    "384,64": 385,
    "72,84": 386,
    "386,1": 387,
    "376,71": 388,
    "388,64": 389,
    "60,75": 390,
    "390,60": 391,
    "367,79": 392,
    "60,68": 393,
    "393,78": 394,
    "53,74": 395,
    "395,60": 396,
    "396,73": 397,
    "141,64": 398,
    "398,1": 399,
    "123,64": 400,
    "63,77": 401,
    "401,64": 402,
    "37,60": 403,
    "403,77": 404,
    "404,61": 405,
    "405,74": 406,
    "19,11": 407,
    "407,1": 408,
    "62,67": 409,
    "409,60": 410,
    "410,73": 411,
    "411,68": 412,
    "270,79": 413,
    "57,86": 414,
    "393,68": 415,
    "75,79": 416,
    "416,68": 417,
    "74,80": 418,
    "418,66": 419,
    "70,73": 420,
    "420,74": 421,
    "421,82": 422,
    "422,73": 423,
    "17,1": 424,
    "424,14": 425,
    "425,78": 426,
    "70,64": 427,
    "427,63": 428,
    "60,65": 429,
    "429,79": 430,
    "430,64": 431,
    "123,61": 432,
    "230,80": 433,
    "433,64": 434,
    "64,11": 435,
    "435,1": 436,
    "83,79": 437,
    "291,74": 438,
    "438,82": 439,
    "256,74": 440,
    "440,77": 441,
    "66,77": 442,
    "442,64": 443,
    "443,64": 444,
    "49,33": 445,
    "445,1": 446,
    "369,74": 447,
    "68,72": 448,
    "448,68": 449,
    "449,73": 450,
    "74,61": 451,
    "451,68": 452,
    "452,71": 453,
    "256,68": 454,
    "454,74": 455,
    "230,60": 456,
    "73,77": 457,
    "141,78": 458,
    "42,60": 459,
    "230,78": 460,
    "460,64": 461,
    "21,1": 462,
    "462,12": 463,
    "61,71": 464,
    "464,68": 465,
    "35,68": 466,
    "466,73": 467,
    "82,68": 468,
    "468,62": 469,
    "469,67": 470,
    "60,79": 471,
    "471,80": 472,
    "472,77": 473,
    "403,84": 474,
    "474,73": 475,
    "475,64": 476,
    "276,64": 477,
    "477,62": 478,
    "478,79": 479,
    "416,64": 480,
    "480,72": 481,
    "481,61": 482,
    "12,78": 483,
    "483,75": 484,
    "484,64": 485,
    "11,25": 486,
    "71,68": 487,
    "487,79": 488,
    "488,68": 489,
    "85,68": 490,
    "71,60": 491,
    "491,67": 492,
    "492,74": 493,
    "72,74": 494,
    "494,62": 495,
    "495,77": 496,
    "230,64": 497,
    "471,78": 498,
    "498,74": 499,
    "499,73": 500,
    "190,63": 501,
    "64,61": 502,
    "502,60": 503,
    "51,64": 504,
    "504,63": 505,
    "505,60": 506,
    "48,74": 507,
    "507,80": 508,
    "508,79": 509,
    "509,67": 510,
    "62,74": 511,
    "511,1": 512,
    "83,64": 513,
    "73,62": 514,
    "514,67": 515,
    "82,67": 516,
    "516,74": 517,
    "517,1": 518,
    "348,64": 519,
    "519,77": 520,
    "78,68": 521,
    "521,79": 522,
    "74,73": 523,
    "523,68": 524,
    "524,62": 525,
    "36,74": 526,
    "526,79": 527,
    "527,67": 528,
    "410,77": 529,
    "529,60": 530,
    "530,62": 531,
    "531,79": 532,
    "65,77": 533,
    "533,68": 534,
    "534,62": 535,
    "535,60": 536,
    "30,72": 537,
    "537,64": 538,
    "538,77": 539,
    "539,68": 540,
    "64,62": 541,
    "541,67": 542,
    "14,78": 543,
    "61,77": 544,
    "544,64": 545,
    "545,81": 546,
    "84,62": 547,
    "547,67": 548,
    "80,71": 549,
    "73,71": 550,
    "550,84": 551,
    "1,82": 552,
    "552,68": 553,
    "553,79": 554,
    "554,67": 555,
    "210,72": 556,
    "471,68": 557,
    "557,74": 558,
    "558,73": 559,
    "147,77": 560,
    "560,84": 561,
    "561,1": 562,
    "62,71": 563,
    "563,68": 564,
    "564,73": 565,
    "78,64": 566,
    "566,71": 567,
    "567,65": 568,
    "72,64": 569,
    "569,77": 570,
    "570,68": 571,
    "68,79": 572,
    "572,67": 573,
    "573,64": 574,
    "75,1": 575,
    "575,74": 576,
    "576,65": 577,
    "577,1": 578,
    "511,71": 579,
    "579,73": 580,
    "84,73": 581,
    "572,1": 582,
    "424,12": 583,
    "258,71": 584,
    "75,67": 585,
    "585,74": 586,
    "541,79": 587,
    "180,62": 588,
    "588,79": 589,
    "47,36": 590,
    "590,31": 591,
    "123,73": 592,
    "77,78": 593,
    "593,68": 594,
    "594,74": 595,
    "595,73": 596,
    "129,73": 597,
    "149,63": 598,
    "149,75": 599,
    "599,64": 600,
    "123,79": 601,
    "601,64": 602,
    "448,75": 603,
    "603,74": 604,
    "604,77": 605,
    "605,79": 606,
    "47,44": 607,
    "607,42": 608,
    "63,80": 609,
    "609,62": 610,
    "12,61": 611,
    "611,74": 612,
    "34,1": 613,
    "613,61": 614,
    "614,77": 615,
    "201,75": 616,
    "616,1": 617,
    "291,64": 618,
    "618,63": 619,
    "74,66": 620,
    "620,68": 621,
    "621,62": 622,
    "48,64": 623,
    "623,62": 624,
    "624,74": 625,
    "625,73": 626,
    "626,63": 627,
    "79,80": 628,
    "628,60": 629,
    "629,71": 630,
    "149,81": 631,
    "631,64": 632,
    "40,64": 633,
    "633,79": 634,
    "634,67": 635,
    "635,80": 636,
    "153,61": 637,
    "66,80": 638,
    "638,64": 639,
    "141,62": 640,
    "417,63": 641,
    "79,67": 642,
    "642,74": 643,
    "643,71": 644,
    "644,68": 645,
    "64,79": 646,
    "646,67": 647,
    "74,77": 648,
    "648,75": 649,
    "649,74": 650,
    "650,77": 651,
    "651,60": 652,
    "468,63": 653,
    "653,79": 654,
    "654,67": 655,
    "32,8": 656,
    "145,63": 657,
    "494,78": 658,
    "149,72": 659,
    "659,1": 660,
    "75,64": 661,
    "661,64": 662,
    "662,63": 663,
    "102,73": 664,
    "664,68": 665,
    "665,62": 666,
    "23,1": 667,
    "667,12": 668,
    "489,74": 669,
    "68,60": 670,
    "670,73": 671,
    "322,64": 672,
    "672,73": 673,
    "673,67": 674,
    "674,74": 675,
    "60,63": 676,
    "676,60": 677,
    "677,84": 678,
    "77,9": 679,
    "71,63": 680,
    "680,77": 681,
    "681,64": 682,
    "80,75": 683,
    "683,78": 684,
    "238,81": 685,
    "230,1": 686,
    "77,63": 687,
    "687,1": 688,
    "64,82": 689,
    "77,77": 690,
    "690,84": 691,
    "105,81": 692,
    "210,77": 693,
    "693,62": 694,
    "60,61": 695,
    "695,74": 696,
    "696,77": 697,
    "66,71": 698,
    "698,74": 699,
    "699,61": 700,
    "700,60": 701,
    "701,71": 702,
    "244,1": 703,
    "80,68": 704,
    "79,60": 705,
    "705,68": 706,
    "706,71": 707,
    "145,79": 708,
    "708,77": 709,
    "687,82": 710,
    "710,60": 711,
    "711,77": 712,
    "712,64": 713,
    "252,60": 714,
    "198,79": 715,
    "715,64": 716,
    "716,64": 717,
    "238,62": 718,
    "718,70": 719,
    "9,34": 720,
    "238,77": 721,
    "34,60": 722,
    "67,64": 723,
    "723,62": 724,
    "724,67": 725,
    "19,8": 726,
    "726,9": 727,
    "61,80": 728,
    "73,79": 729,
    "729,84": 730,
    "133,64": 731,
    "363,60": 732,
    "62,68": 733,
    "733,64": 734,
    "71,80": 735,
    "735,78": 736,
    "736,68": 737
  },
  "next_id": 738
}