{
  "id2token": {
    "0": "\n",
    "1": " ",
    "2": "!",
    "3": "#",
    "4": "$",
    "5": "%",
    "6": "'",
    "7": "(",
    "8": ")",
    "9": "*",
    "10": "+",
    "11": ",",
    "12": "-",
    "13": ".",
    "14": "/",
    "15": "0",
    "16": "1",
    "17": "2",
    "18": "3",
    "19": "4",
    "20": "5",
    "21": "6",
    "22": "7",
    "23": "8",
    "24": "9",
    "25": ":",
    "26": ";",
    "27": "=",
    "28": "?",
    "29": "@",
    "30": "A",
    "31": "B",
    "32": "C",
    "33": "D",
    "34": "E",
    "35": "F",
    "36": "G",
    "37": "H",
    "38": "I",
    "39": "J",
    "40": "K",
    "41": "L",
    "42": "M",
    "43": "N",
    "44": "O",
    "45": "P",
    "46": "Q",
    "47": "R",
    "48": "S",
    "49": "T",
    "50": "U",
    "51": "V",
    "52": "W",
    "53": "X",
    "54": "Y",
    "55": "Z",
    "56": "\\",
    "57": "^",
    "58": "_",
    "59": "`",
    "60": "a",
    "61": "b",
    "62": "c",
    "63": "d",
    "64": "e",
    "65": "f",
    "66": "g",
    "67": "h",
    "68": "i",
    "69": "j",
    "70": "k",
    "71": "l",
    "72": "m",
    "73": "n",
    "74": "o",
    "75": "p",
    "76": "q",
    "77": "r",
    "78": "s",
    "79": "t",
    "80": "u",
    "81": "v",
    "82": "w",
    "83": "x",
    "84": "y",
    "85": "z",
    "86": "{",
    "87": "|",
    "88": "}",
    "89": "~",
    "90": "<|endoftext|>",
    "91": "<pad>",
    "92": "K.",
    "93": "de",
    "94": "der",
    "95": "dern",
    "96": "ls",
    "97": "us",
    "98": "uss",
    "99": "ussi",
    "100": "ussia",
    "101": "um",
    "102": "ume",
    "103": "umed",
    "104": "umed ",
    "105": "ti",
    "106": "tit",
    "107": "oc",
    "108": "til",
    "109": "tili",
    "110": "ur",
    "111": "urt",
    "112": "urth",
    "113": " b",
    "114": " br",
    "115": "vi",
    "116": "vid",
    "117": "vide",
    "118": "viden",
    "119": "ze",
    "120": "zed",
    "121": "ak",
    "122": "ake",
    "123": "ra",
    "124": "rac",
    "125": "ract",
    "126": "racte",
    "127": "racter",
    "128": "vie",
    "129": "fi",
    "130": "fir",
    "131": "em",
    "132": "emb",
    "133": "st",
    "134": "sto",
    "135": "stot",
    "136": "ni",
    "137": "nis",
    "138": "3 ",
    "139": "3 -",
    "140": "3 - ",
    "141": "er",
    "142": "erg",
    "143": "da",
    "144": "dar",
    "145": "un",
    "146": "unc",
    "147": "ve",
    "148": "ved",
    "149": "ro",
    "150": "rou",
    "151": "roug",
    "152": "we",
    "153": "gh",
    "154": "gha",
    "155": "f.",
    "156": "ol",
    "157": "if",
    "158": "ifi",
    "159": "ifie",
    "160": "ified",
    "161": "Bo",
    "162": "po",
    "163": "pos",
    "164": "pose",
    "165": "poser",
    "166": "ar",
    "167": "ara",
    "168": "arac",
    "169": "aract",
    "170": "sc",
    "171": "sco",
    "172": "di",
    "173": "dic",
    "174": "lg",
    "175": "lga",
    "176": "lgar",
    "177": "au",
    "178": "aus",
    "179": "aust",
    "180": "ri",
    "181": "ril",
    "182": "od",
    "183": "odh",
    "184": "tr",
    "185": "oo",
    "186": "ook",
    "187": "ook ",
    "188": "U,",
    "189": "U, ",
    "190": "il",
    "191": "ill",
    "192": "ill ",
    "193": "no",
    "194": "nom",
    "195": "Pa",
    "196": "-1",
    "197": "-18",
    "198": "ne",
    "199": "nel",
    "200": "ump",
    "201": "el",
    "202": "elt",
    "203": "eltr",
    "204": "Af",
    "205": "Afg",
    "206": "Afgh",
    "207": "Afgha",
    "208": "mb",
    "209": "mbe",
    "210": "ea",
    "211": "eal",
    "212": "ela",
    "213": "8,",
    "214": "8, ",
    "215": "//",
    "216": "av",
    "217": "ave",
    "218": "aven",
    "219": "ems",
    "220": "ria",
    "221": "En",
    "222": "Eng",
    "223": "Engl",
    "224": "ns",
    "225": "ns ",
    "226": "-E",
    "227": "-En",
    "228": "-Eng",
    "229": "-Engl",
    "230": "al",
    "231": "alv",
    "232": "alva",
    "233": "alvad",
    "234": "alvado",
    "235": "le",
    "236": "leg",
    "237": "lege",
    "238": "lo",
    "239": "loy",
    "240": "y ",
    "241": "rf",
    "242": "rfo",
    "243": "rfor",
    "244": "as",
    "245": "ast",
    "246": "asta",
    "247": "8)",
    "248": "ma",
    "249": "mal",
    "250": "mall",
    "251": "tio",
    "252": "tion",
    "253": " (",
    "254": " (b",
    "255": " (b.",
    "256": "ct",
    "257": "ctu",
    "258": "os",
    "259": "osa",
    "260": "osau",
    "261": "osaur",
    "262": "rv",
    "263": "rvi",
    "264": "rvic",
    "265": "rvice",
    "266": "C,",
    "267": "C, ",
    "268": "roq",
    "269": "roqu",
    "270": "an",
    "271": "ang",
    "272": "ange",
    "273": "angel",
    "274": "to",
    "275": "tob",
    "276": "ir",
    "277": "irs",
    "278": "irst",
    "279": "ac",
    "280": "ace",
    "281": "mp",
    "282": "mpi",
    "283": "mpio",
    "284": "mpion",
    "285": "Be",
    "286": "Bea",
    "287": "WI",
    "288": "WII",
    "289": "za",
    "290": "zat",
    "291": "ll",
    "292": "lli",
    "293": "llin",
    "294": "lling",
    "295": "TR",
    "296": "TRT",
    "297": "uc",
    "298": "uct",
    "299": "rg",
    "300": "rge",
    "301": "g ",
    "302": "g K",
    "303": "g Ko",
    "304": "ic",
    "305": "icu",
    "306": "icul",
    "307": "icult",
    "308": "n-",
    "309": "roun",
    "310": "round",
    "311": "D.",
    "312": "in",
    "313": "ini",
    "314": "init",
    "315": "initi",
    "316": "initio",
    "317": "inition",
    "318": "na",
    "319": "nal",
    "320": "nall",
    "321": "nally",
    "322": "is",
    "323": "isc",
    "324": "iscu",
    "325": "iscus",
    "326": "el ",
    "327": "asi",
    "328": "asio",
    "329": "asion",
    "330": "ba",
    "331": "bab",
    "332": "ge",
    "333": "gen",
    "334": "genc",
    "335": "ki",
    "336": "kin",
    "337": "hu",
    "338": "hur",
    "339": "hurs",
    "340": "hursa",
    "341": "3 /",
    "342": "3 /s",
    "343": "/k",
    "344": "/kg",
    "345": "rot",
    "346": "roth",
    "347": "rothe",
    "348": "ot",
    "349": "oth",
    "350": "othe",
    "351": "eas",
    "352": "easu",
    "353": "easur",
    "354": "ose",
    "355": "ose ",
    "356": "sl",
    "357": "sla",
    "358": "gel",
    "359": "Cz",
    "360": "Cze",
    "361": "Czec",
    "362": "Czech",
    "363": "ov",
    "364": "ovi",
    "365": "ovie",
    "366": "oviet",
    "367": "sti",
    "368": "stic",
    "369": "tt",
    "370": "Da",
    "371": "Dan",
    "372": "Dani",
    "373": "Danie",
    "374": "Daniel",
    "375": "ct ",
    "376": "ng",
    "377": "ngu",
    "378": "(d",
    "379": "(d.",
    "380": "en",
    "381": "ent",
    "382": "ents",
    "383": "if ",
    "384": "yl",
    "385": "yle",
    "386": "my",
    "387": "my ",
    "388": "ngl",
    "389": "ngle",
    "390": "ap",
    "391": "apa",
    "392": "stit",
    "393": "ai",
    "394": "ais",
    "395": "Xo",
    "396": "Xoa",
    "397": "Xoan",
    "398": "ere",
    "399": "ere ",
    "400": "rae",
    "401": "dr",
    "402": "dre",
    "403": "Ha",
    "404": "Har",
    "405": "Harb",
    "406": "Harbo",
    "407": "4,",
    "408": "4, ",
    "409": "ch",
    "410": "cha",
    "411": "chan",
    "412": "chani",
    "413": "ant",
    "414": "^{",
    "415": "aii",
    "416": "pt",
    "417": "pti",
    "418": "ou",
    "419": "oug",
    "420": "kn",
    "421": "kno",
    "422": "know",
    "423": "known",
    "424": "2 ",
    "425": "2 /",
    "426": "2 /s",
    "427": "ke",
    "428": "ked",
    "429": "af",
    "430": "aft",
    "431": "afte",
    "432": "rab",
    "433": "alu",
    "434": "alue",
    "435": "e,",
    "436": "e, ",
    "437": "xt",
    "438": "llo",
    "439": "llow",
    "440": "cto",
    "441": "ctor",
    "442": "gr",
    "443": "gre",
    "444": "gree",
    "445": "TD",
    "446": "TD ",
    "447": "tto",
    "448": "im",
    "449": "imi",
    "450": "imin",
    "451": "ob",
    "452": "obi",
    "453": "obil",
    "454": "cti",
    "455": "ctio",
    "456": "ala",
    "457": "nr",
    "458": "ers",
    "459": "Ma",
    "460": "als",
    "461": "alse",
    "462": "6 ",
    "463": "6 -",
    "464": "bl",
    "465": "bli",
    "466": "Fi",
    "467": "Fin",
    "468": "wi",
    "469": "wic",
    "470": "wich",
    "471": "at",
    "472": "atu",
    "473": "atur",
    "474": "Hay",
    "475": "Hayn",
    "476": "Hayne",
    "477": "ire",
    "478": "irec",
    "479": "irect",
    "480": "pte",
    "481": "ptem",
    "482": "ptemb",
    "483": "-s",
    "484": "-sp",
    "485": "-spe",
    "486": ",:",
    "487": "li",
    "488": "lit",
    "489": "liti",
    "490": "zi",
    "491": "la",
    "492": "lah",
    "493": "laho",
    "494": "mo",
    "495": "moc",
    "496": "mocr",
    "497": "ale",
    "498": "ats",
    "499": "atso",
    "500": "atson",
    "501": "ild",
    "502": "eb",
    "503": "eba",
    "504": "Ve",
    "505": "Ved",
    "506": "Veda",
    "507": "So",
    "508": "Sou",
    "509": "Sout",
    "510": "South",
    "511": "co",
    "512": "co ",
    "513": "xe",
    "514": "nc",
    "515": "nch",
    "516": "wh",
    "517": "who",
    "518": "who ",
    "519": "ote",
    "520": "oter",
    "521": "si",
    "522": "sit",
    "523": "on",
    "524": "oni",
    "525": "onic",
    "526": "Go",
    "527": "Got",
    "528": "Goth",
    "529": "char",
    "530": "chara",
    "531": "charac",
    "532": "charact",
    "533": "fr",
    "534": "fri",
    "535": "fric",
    "536": "frica",
    "537": "Am",
    "538": "Ame",
    "539": "Amer",
    "540": "Ameri",
    "541": "ec",
    "542": "ech",
    "543": "/s",
    "544": "br",
    "545": "bre",
    "546": "brev",
    "547": "yc",
    "548": "ych",
    "549": "ul",
    "550": "nl",
    "551": "nly",
    "552": " w",
    "553": " wi",
    "554": " wit",
    "555": " with",
    "556": "eam",
    "557": "ati",
    "558": "atio",
    "559": "ation",
    "560": "ver",
    "561": "very",
    "562": "very ",
    "563": "cl",
    "564": "cli",
    "565": "clin",
    "566": "se",
    "567": "sel",
    "568": "self",
    "569": "me",
    "570": "mer",
    "571": "meri",
    "572": "it",
    "573": "ith",
    "574": "ithe",
    "575": "p ",
    "576": "p o",
    "577": "p of",
    "578": "p of ",
    "579": "col",
    "580": "coln",
    "581": "yn",
    "582": "it ",
    "583": "2 -",
    "584": "osl",
    "585": "ph",
    "586": "pho",
    "587": "ect",
    "588": "ric",
    "589": "rict",
    "590": "RG",
    "591": "RGB",
    "592": "ran",
    "593": "rs",
    "594": "rsi",
    "595": "rsio",
    "596": "rsion",
    "597": "fin",
    "598": "rod",
    "599": "rop",
    "600": "rope",
    "601": "rat",
    "602": "rate",
    "603": "imp",
    "604": "impo",
    "605": "impor",
    "606": "import",
    "607": "RO",
    "608": "ROM",
    "609": "du",
    "610": "duc",
    "611": "-b",
    "612": "-bo",
    "613": "E ",
    "614": "E b",
    "615": "E br",
    "616": "elp",
    "617": "elp ",
    "618": "lle",
    "619": "lled",
    "620": "og",
    "621": "ogi",
    "622": "ogic",
    "623": "Se",
    "624": "Sec",
    "625": "Seco",
    "626": "Secon",
    "627": "Second",
    "628": "tu",
    "629": "tua",
    "630": "tual",
    "631": "rov",
    "632": "rove",
    "633": "Ke",
    "634": "Ket",
    "635": "Keth",
    "636": "Kethu",
    "637": "ghb",
    "638": "gu",
    "639": "gue",
    "640": "erc",
    "641": "ptid",
    "642": "th",
    "643": "tho",
    "644": "thol",
    "645": "tholi",
    "646": "et",
    "647": "eth",
    "648": "or",
    "649": "orp",
    "650": "orpo",
    "651": "orpor",
    "652": "orpora",
    "653": "wid",
    "654": "widt",
    "655": "width",
    "656": "C)",
    "657": "und",
    "658": "mos",
    "659": "rom",
    "660": "rom ",
    "661": "pe",
    "662": "pee",
    "663": "peed",
    "664": "umen",
    "665": "umeni",
    "666": "umenic",
    "667": "8 ",
    "668": "8 -",
    "669": "litio",
    "670": "ia",
    "671": "ian",
    "672": "ise",
    "673": "isen",
    "674": "isenh",
    "675": "isenho",
    "676": "ad",
    "677": "ada",
    "678": "aday",
    "679": "r*",
    "680": "ld",
    "681": "ldr",
    "682": "ldre",
    "683": "up",
    "684": "ups",
    "685": "lov",
    "686": "al ",
    "687": "rd",
    "688": "rd ",
    "689": "ew",
    "690": "rr",
    "691": "rry",
    "692": "tiv",
    "693": "ear",
    "694": "earc",
    "695": "ab",
    "696": "abo",
    "697": "abor",
    "698": "gl",
    "699": "glo",
    "700": "glob",
    "701": "globa",
    "702": "global",
    "703": "as ",
    "704": "ui",
    "705": "ta",
    "706": "tai",
    "707": "tail",
    "708": "unt",
    "709": "untr",
    "710": "rdw",
    "711": "rdwa",
    "712": "rdwar",
    "713": "rdware",
    "714": "tiona",
    "715": "net",
    "716": "nete",
    "717": "netee",
    "718": "loc",
    "719": "lock",
    "720": "*E",
    "721": "lor",
    "722": "Ea",
    "723": "he",
    "724": "hec",
    "725": "hech",
    "726": "4)",
    "727": "4)*",
    "728": "bu",
    "729": "nt",
    "730": "nty",
    "731": "ste",
    "732": "ova",
    "733": "ci",
    "734": "cie",
    "735": "lu",
    "736": "lus",
    "737": "lusi",
    "738": "iti",
    "739": "itis",
    "740": "cr",
    "741": "cre",
    "742": "cree",
    "743": "creen",
    "744": "tive",
    "745": "nib",
    "746": "eo",
    "747": "eop",
    "748": "eopl",
    "749": "eople",
    "750": "go",
    "751": "gon",
    "752": "id",
    "753": "ide",
    "754": "rb",
    "755": "rbo",
    "756": "rbon",
    "757": "va",
    "758": "rri",
    "759": "rrie",
    "760": "rried",
    "761": ",0",
    "762": ",00",
    "763": "lin",
    "764": "lino",
    "765": "om",
    "766": "oma",
    "767": "omai",
    "768": "omain",
    "769": "Mi",
    "770": "Min",
    "771": "Mini",
    "772": "Minis",
    "773": "Minist",
    "774": "cou",
    "775": "es",
    "776": "esu",
    "777": "esus",
    "778": "io",
    "779": "ion",
    "780": "ie",
    "781": "iec",
    "782": "iece",
    "783": "after",
    "784": "sp",
    "785": "spe",
    "786": "spec",
    "787": "spect",
    "788": "ju",
    "789": "jur",
    "790": "den",
    "791": "dent",
    "792": "alec",
    "793": "alect",
    "794": "ye",
    "795": "yet",
    "796": "niv",
    "797": "ots",
    "798": "otsw",
    "799": "otswa",
    "800": "TV",
    "801": "TV ",
    "802": "nar",
    "803": "narc",
    "804": "ce",
    "805": "ces",
    "806": "cess",
    "807": "lai",
    "808": "laim",
    "809": "iane",
    "810": "ianet",
    "811": "ouv",
    "812": "ouve",
    "813": "ly",
    "814": "lyn",
    "815": "m*",
    "816": "do",
    "817": "dop",
    "818": "doph",
    "819": "4-",
    "820": "4-y",
    "821": "4-ye",
    "822": "4-yea",
    "823": "4-year",
    "824": "erm",
    "825": "erma",
    "826": "rt",
    "827": "rte",
    "828": "rted",
    "829": "i)",
    "830": "abl",
    "831": "able",
    "832": "Un",
    "833": "ut",
    "834": "utl",
    "835": "utle",
    "836": "Al",
    "837": "pi",
    "838": "pid",
    "839": ".)",
    "840": "U.",
    "841": "U.S",
    "842": "U.S.",
    "843": "post",
    "844": "ga",
    "845": "gai",
    "846": "gain",
    "847": "lley",
    "848": "bb",
    "849": "bbi",
    "850": "lig",
    "851": "lign",
    "852": "nin",
    "853": "ning",
    "854": "lled ",
    "855": "by",
    "856": "byt",
    "857": "rar",
    "858": "rre",
    "859": "rren",
    "860": "rga",
    "861": "rgan",
    "862": "the",
    "863": "ee",
    "864": "ee ",
    "865": "ja",
    "866": "jam",
    "867": "cc",
    "868": "ccu",
    "869": "orm",
    "870": "cep",
    "871": "cept",
    "872": "*T",
    "873": "pl",
    "874": " t",
    "875": " to",
    "876": "tz",
    "877": "He",
    "878": "ptu",
    "879": "ptur",
    "880": "pture",
    "881": "rl",
    "882": "lev",
    "883": "leve",
    "884": "level",
    "885": "t ",
    "886": "dam",
    "887": "dame",
    "888": "damen",
    "889": "nd",
    "890": "nda",
    "891": "ndar",
    "892": "ndard",
    "893": "ded",
    "894": "tat",
    "895": "tate",
    "896": "tates",
    "897": "div",
    "898": "divi",
    "899": "divid",
    "900": "dividu",
    "901": "Ju",
    "902": "eau",
    "903": "eaut",
    "904": "mm",
    "905": "mmo",
    "906": "mmon",
    "907": "3 n",
    "908": "3 nd",
    "909": "3 nda",
    "910": "3 ndas",
    "911": "lv",
    "912": "nan",
    "913": "till",
    "914": "ch ",
    "915": "h ",
    "916": "rit",
    "917": "-19",
    "918": " a",
    "919": " as",
    "920": "con",
    "921": "cond",
    "922": "arl",
    "923": "arli",
    "924": "arlia",
    "925": "arliam",
    "926": ") ",
    "927": ") /",
    "928": ") /t",
    "929": "mpl",
    "930": "rp",
    "931": "0 ",
    "932": "0 /",
    "933": "0 /t",
    "934": "ww",
    "935": "wer",
    "936": "were",
    "937": "ed",
    "938": "edo",
    "939": "edon",
    "940": "era",
    "941": "erag",
    "942": "B ",
    "943": "mma",
    "944": "mman",
    "945": "mmand",
    "946": "gar",
    "947": "gare",
    "948": "garet",
    "949": "so",
    "950": "soc",
    "951": "soci",
    "952": "socia",
    "953": "Co",
    "954": "ana",
    "955": "anad",
    "956": "thi",
    "957": "thin",
    "958": "thou",
    "959": "est",
    "960": "esti",
    "961": "estim",
    "962": "FG",
    "963": "FGC",
    "964": "ptis",
    "965": "0-",
    "966": "rito",
    "967": "a.",
    "968": "phe",
    "969": "phen",
    "970": ")*",
    "971": ")*1",
    "972": ")*19",
    "973": "alay",
    "974": "ort",
    "975": "dn",
    "976": "dne",
    "977": "dney",
    "978": "Wo",
    "979": "Wor",
    "980": "ien",
    "981": "iend",
    "982": " f",
    "983": " fi",
    "984": " fic",
    "985": " fict",
    "986": " ficti",
    "987": "yed",
    "988": "ling",
    "989": "Fr",
    "990": "Fra",
    "991": "Fran",
    "992": "plo",
    "993": "DN",
    "994": "DNA",
    "995": "ldi",
    "996": "ldie",
    "997": "ldier",
    "998": "dat",
    "999": "data",
    "1000": ".*",
    "1001": "ave ",
    "1002": "mon",
    "1003": "mong",
    "1004": "ile",
    "1005": "ile ",
    "1006": "are",
    "1007": "are ",
    "1008": "ei",
    "1009": "ein",
    "1010": "eing",
    "1011": "pla",
    "1012": "unci",
    "1013": "uncil",
    "1014": "wa",
    "1015": "war",
    "1016": "pm",
    "1017": "pme",
    "1018": "pmen",
    "1019": "now",
    "1020": "nown",
    "1021": "ray",
    "1022": "ley",
    "1023": "ir ",
    "1024": "mot",
    "1025": "adi",
    "1026": "adin",
    "1027": "(b",
    "1028": "(b.",
    "1029": "(b. ",
    "1030": "SV",
    "1031": "SVC",
    "1032": "bi",
    "1033": "bin",
    "1034": "nce",
    "1035": "nce ",
    "1036": "ish",
    "1037": "pha",
    "1038": "phan",
    "1039": "iz",
    "1040": "ize",
    "1041": "Yo",
    "1042": "You",
    "1043": "gg",
    "1044": "et ",
    "1045": "tim",
    "1046": "dy",
    "1047": "tha",
    "1048": "that",
    "1049": "sod",
    "1050": "ek",
    "1051": "ek ",
    "1052": "5 ",
    "1053": "5 n",
    "1054": "5 nd",
    "1055": "5 nda",
    "1056": "5 ndas",
    "1057": "ict",
    "1058": "le ",
    "1059": "inc",
    "1060": "incl",
    "1061": "inclu",
    "1062": "includ",
    "1063": "Wh",
    "1064": "uma",
    "1065": "uman",
    "1066": "erms",
    "1067": "gge",
    "1068": "gges",
    "1069": "ggest",
    "1070": "cif",
    "1071": "cifi",
    "1072": "tom",
    "1073": "IV",
    "1074": "rm",
    "1075": "rmi",
    "1076": "s ",
    "1077": "s o",
    "1078": "s of",
    "1079": "s of ",
    "1080": "cle",
    "1081": "bil",
    "1082": "bili",
    "1083": "dd",
    "1084": "dde",
    "1085": "dded",
    "1086": "th ",
    "1087": "re",
    "1088": "ren",
    "1089": "renc",
    "1090": "rench",
    "1091": "art",
    "1092": "arti",
    "1093": "vil",
    "1094": "vily",
    "1095": "am",
    "1096": "ame",
    "1097": "ames",
    "1098": "nen",
    "1099": "ow",
    "1100": "owe",
    "1101": "owed",
    "1102": "ic ",
    "1103": "Gr",
    "1104": "Gre",
    "1105": "of",
    "1106": "of-",
    "1107": "ru",
    "1108": "ngd",
    "1109": "ngdo",
    "1110": "mu",
    "1111": "mun",
    "1112": "muni",
    "1113": "ormo",
    "1114": "ormou",
    "1115": "ormous",
    "1116": "rin",
    "1117": "oh",
    "1118": "ohn",
    "1119": "bs",
    "1120": "bse",
    "1121": "bser",
    "1122": "bserv",
    "1123": "asp",
    "1124": "aspa",
    "1125": "aspar",
    "1126": "and",
    "1127": "ande",
    "1128": "ander",
    "1129": "oll",
    "1130": "ollo",
    "1131": "orth",
    "1132": "did",
    "1133": "com",
    "1134": "comp",
    "1135": "fo",
    "1136": "for",
    "1137": "ove",
    "1138": "ok",
    "1139": "oke",
    "1140": "ele",
    "1141": "/m",
    "1142": "/ma",
    "1143": "/mat",
    "1144": "ris",
    "1145": "izo",
    "1146": "izon",
    "1147": "BU",
    "1148": "ord",
    "1149": "orde",
    "1150": "order",
    "1151": "pr",
    "1152": "pre",
    "1153": "pres",
    "1154": "ik",
    "1155": "ike",
    "1156": "itc",
    "1157": "itch",
    "1158": "dit",
    "1159": "vio",
    "1160": "viol",
    "1161": "te",
    "1162": "ter",
    "1163": "tern",
    "1164": "us ",
    "1165": "Ye",
    "1166": "Yel",
    "1167": "Yelt",
    "1168": "cco",
    "1169": "ccor",
    "1170": "ccord",
    "1171": "sa",
    "1172": "sau",
    "1173": "saur",
    "1174": "ie ",
    "1175": "-ba",
    "1176": "tti",
    "1177": "ttin",
    "1178": "tting",
    "1179": "osi",
    "1180": "osit",
    "1181": "/r",
    "1182": "/re",
    "1183": "fu",
    "1184": "rde",
    "1185": "ero",
    "1186": "ett",
    "1187": "ette",
    "1188": "etter",
    "1189": "tro",
    "1190": "yo",
    "1191": "eg",
    "1192": "egi",
    "1193": "egin",
    "1194": "In",
    "1195": "Ind",
    "1196": "mag",
    "1197": "rrel",
    "1198": "tor",
    "1199": "nsi",
    "1200": "nsio",
    "1201": "nsion",
    "1202": "es,",
    "1203": "es, ",
    "1204": "ex",
    "1205": "ext",
    "1206": "ng ",
    "1207": "su",
    "1208": "sul",
    "1209": "sult",
    "1210": "uri",
    "1211": "urin",
    "1212": "uring",
    "1213": "vo",
    "1214": "von",
    "1215": "von ",
    "1216": "ua",
    "1217": "uar",
    "1218": "try",
    "1219": "pis",
    "1220": "piso",
    "1221": "pisod",
    "1222": "hl",
    "1223": "of ",
    "1224": "nge",
    "1225": "nger",
    "1226": "over",
    "1227": "overn",
    "1228": "rti",
    "1229": "rtil",
    "1230": "rtill",
    "1231": "bo",
    "1232": "bod",
    "1233": "uf",
    "1234": "uff",
    "1235": "uffm",
    "1236": "uffma",
    "1237": "exa",
    "1238": "exan",
    "1239": "exand",
    "1240": "bit",
    "1241": "way",
    "1242": "str",
    "1243": "stro",
    "1244": "DT",
    "1245": "DTD",
    "1246": "DTD ",
    "1247": "pa",
    "1248": "ss",
    "1249": "ssa",
    "1250": "ssay",
    "1251": "St",
    "1252": "Sta",
    "1253": "7)",
    "1254": "kr",
    "1255": "kra",
    "1256": "mi",
    "1257": "res",
    "1258": "log",
    "1259": "FS",
    "1260": "FSM",
    "1261": "umb",
    "1262": "sk",
    "1263": "ha",
    "1264": "has",
    "1265": "has ",
    "1266": "sid",
    "1267": "ib",
    "1268": "Fe",
    "1269": "Feb",
    "1270": "hm",
    "1271": "omm",
    "1272": "omma",
    "1273": "omman",
    "1274": "ommand",
    "1275": "les",
    "1276": "lest",
    "1277": "mac",
    "1278": "mach",
    "1279": "machi",
    "1280": "machin",
    "1281": "ag",
    "1282": "agb",
    "1283": "agba",
    "1284": "agbar",
    "1285": "rael",
    "1286": "be",
    "1287": "bel",
    "1288": "ore",
    "1289": "eog",
    "1290": "ome",
    "1291": "bal",
    "1292": "rie",
    "1293": "ries",
    "1294": "ub",
    "1295": "ubl",
    "1296": "uble",
    "1297": "ty",
    "1298": "ty ",
    "1299": "ah",
    "1300": "aha",
    "1301": "mou",
    "1302": "moun",
    "1303": "use",
    "1304": "uses",
    "1305": "uses ",
    "1306": "lis",
    "1307": "arc",
    "1308": "ca",
    "1309": "cag",
    "1310": "cago",
    "1311": "ger",
    "1312": "loo",
    "1313": "lood",
    "1314": "elf",
    "1315": "ura",
    "1316": "Ch",
    "1317": "Chi",
    "1318": "Chin",
    "1319": "ate",
    "1320": "ateg",
    "1321": "No",
    "1322": "Nob",
    "1323": "Nobe",
    "1324": "Nobel",
    "1325": "tain",
    "1326": "lb",
    "1327": "lba",
    "1328": "ich",
    "1329": "Sa",
    "1330": "Sal",
    "1331": "Salv",
    "1332": "Salva",
    "1333": "Salvad",
    "1334": "Salvado",
    "1335": "cat",
    "1336": "io ",
    "1337": "gua",
    "1338": "guag",
    "1339": "eq",
    "1340": "equ",
    "1341": "eque",
    "1342": ".S",
    "1343": "fie",
    "1344": "sper",
    "1345": "spera",
    "1346": "speran",
    "1347": "c_",
    "1348": "Eu",
    "1349": "Eur",
    "1350": "sta",
    "1351": "stan",
    "1352": "or ",
    "1353": "ndy",
    "1354": "and ",
    "1355": "g,",
    "1356": "g, ",
    "1357": "hi",
    "1358": "him",
    "1359": "himm",
    "1360": "himmi",
    "1361": "Y)",
    "1362": "tem",
    "1363": "tems",
    "1364": "Jo",
    "1365": "td",
    "1366": "td ",
    "1367": "jun",
    "1368": "ve ",
    "1369": "VD",
    "1370": "etho",
    "1371": "ethod",
    "1372": "used",
    "1373": "xed",
    "1374": "no ",
    "1375": "oso",
    "1376": "Cor",
    "1377": "Corn",
    "1378": "oom",
    "1379": "rea",
    "1380": "reat",
    "1381": "not",
    "1382": "nota",
    "1383": "notab",
    "1384": "notabl",
    "1385": "ntr",
    "1386": "hit",
    "1387": "hite",
    "1388": "lf",
    "1389": "lf ",
    "1390": "ox",
    "1391": "r=",
    "1392": "nto",
    "1393": "ntol",
    "1394": "roph",
    "1395": "rophe",
    "1396": "se ",
    "1397": " (b. ",
    "1398": " td",
    "1399": " td ",
    "1400": "lan",
    "1401": "pea",
    "1402": "peak",
    "1403": "nn",
    "1404": "nni",
    "1405": "nnia",
    "1406": "ngi",
    "1407": "ngin",
    "1408": "ngine",
    "1409": "so ",
    "1410": "ligh",
    "1411": "light",
    "1412": "Fo",
    "1413": "For",
    "1414": "aken",
    "1415": "wn",
    "1416": "Ac",
    "1417": "6.",
    "1418": "6.j",
    "1419": "6.jp",
    "1420": "6.jpg",
    "1421": "arg",
    "1422": "fl",
    "1423": "wan",
    "1424": " -",
    "1425": " - ",
    "1426": "oss",
    "1427": "ossi",
    "1428": "ossib",
    "1429": "Ca",
    "1430": "Cam",
    "1431": "Camb",
    "1432": "sh",
    "1433": "sho",
    "1434": "shop",
    "1435": "van",
    "1436": "vang",
    "1437": "ins",
    "1438": "insu",
    "1439": "5:",
    "1440": "bou",
    "1441": "bout",
    "1442": "Re",
    "1443": "wr",
    "1444": "wri",
    "1445": "writ",
    "1446": "sig",
    "1447": "sign",
    "1448": "ms",
    "1449": "mse",
    "1450": "msel",
    "1451": "pec",
    "1452": "peci",
    "1453": "pecie",
    "1454": "pecies",
    "1455": "!-",
    "1456": "!--",
    "1457": "ol ",
    "1458": "arn",
    "1459": "arnh",
    "1460": "arnha",
    "1461": "arnhar",
    "1462": "arnhard",
    "1463": "fg",
    "1464": "fgh",
    "1465": "fgha",
    "1466": "fghan",
    "1467": "eib",
    "1468": "eibn",
    "1469": "zen",
    "1470": "S,",
    "1471": "S, ",
    "1472": "ilo",
    "1473": "ilos",
    "1474": "iloso",
    "1475": "pic",
    "1476": "ndam",
    "1477": "ndame",
    "1478": "ndamen",
    "1479": "r ",
    "1480": "r o",
    "1481": "r of",
    "1482": "r of ",
    "1483": "vic",
    "1484": "vice",
    "1485": "nb",
    "1486": "nbs",
    "1487": "nbsp",
    "1488": "(1",
    "1489": "emi",
    "1490": "emia",
    "1491": "fa",
    "1492": "fal",
    "1493": "ress",
    "1494": " (d",
    "1495": " (d.",
    "1496": " (d. ",
    "1497": "owev",
    "1498": "xtu",
    "1499": "xtur",
    "1500": "xture",
    "1501": "B.",
    "1502": "eco",
    "1503": "econ",
    "1504": "econd",
    "1505": "rgu",
    "1506": "rey",
    "1507": "line",
    "1508": "mus",
    "1509": "musi",
    "1510": "Jud",
    "1511": "Juda",
    "1512": "Judai",
    "1513": "Judais",
    "1514": "Wa",
    "1515": "all",
    "1516": "alle",
    "1517": "allel",
    "1518": "ho",
    "1519": "hor",
    "1520": "ney",
    "1521": "age",
    "1522": "sin",
    "1523": "sine",
    "1524": "sines",
    "1525": "pit",
    "1526": "pita",
    "1527": "ey",
    "1528": "ey ",
    "1529": "wis",
    "1530": "wise",
    "1531": "cal",
    "1532": "call",
    "1533": "cally",
    "1534": "omat",
    "1535": "nk",
    "1536": "5%",
    "1537": "rk",
    "1538": "rki",
    "1539": "rkin",
    "1540": "rking",
    "1541": "sm",
    "1542": "On",
    "1543": "rpo",
    "1544": "rpor",
    "1545": "Heb",
    "1546": "Hebr",
    "1547": "Hebre",
    "1548": "Hebrew",
    "1549": "angu",
    "1550": "ck",
    "1551": "ck ",
    "1552": "ne ",
    "1553": " n",
    "1554": " no",
    "1555": " not",
    "1556": "ark",
    "1557": "mes",
    "1558": "mest",
    "1559": "rel",
    "1560": "rely",
    "1561": "FSF",
    "1562": "ulh",
    "1563": "ulha",
    "1564": "ulham",
    "1565": "fam",
    "1566": "mor",
    "1567": "pro",
    "1568": "3 /su",
    "1569": "ton",
    "1570": "nit",
    "1571": "iv",
    "1572": "iva",
    "1573": "ival",
    "1574": "oor",
    "1575": "tc",
    "1576": "0)",
    "1577": "50",
    "1578": "yp",
    "1579": "ypt",
    "1580": "that ",
    "1581": "C ",
    "1582": "poi",
    "1583": "poin",
    "1584": "point",
    "1585": "flu",
    "1586": "flue",
    "1587": "fluen",
    "1588": "ized",
    "1589": "gm",
    "1590": "gma",
    "1591": "ite",
    "1592": "eiv",
    "1593": "xy",
    "1594": "ied",
    "1595": "ied ",
    "1596": "ure",
    "1597": "ted",
    "1598": "A,",
    "1599": "A, ",
    "1600": "xu",
    "1601": "xur",
    "1602": "our",
    "1603": "ourc",
    "1604": "ource",
    "1605": "odu",
    "1606": "oduc",
    "1607": "iel",
    "1608": "ield",
    "1609": "(19",
    "1610": "site",
    "1611": "H.",
    "1612": "ward",
    "1613": "ony",
    "1614": "onym",
    "1615": "uit",
    "1616": "AF",
    "1617": "AFL",
    "1618": "'s",
    "1619": "'s ",
    "1620": "Br",
    "1621": "Bri",
    "1622": "Brit",
    "1623": "Briti",
    "1624": "Britis",
    "1625": "uth",
    "1626": "1)",
    "1627": "ateu",
    "1628": "enu",
    "1629": "enue",
    "1630": "viet",
    "1631": "thr",
    "1632": "thro",
    "1633": "throp",
    "1634": "voi",
    "1635": "void",
    "1636": "usi",
    "1637": "usic",
    "1638": "ari",
    "1639": "ario",
    "1640": "ariou",
    "1641": "ora",
    "1642": "orah",
    "1643": "ts",
    "1644": "A ",
    "1645": "ade",
    "1646": "iden",
    "1647": "form",
    "1648": "ern",
    "1649": "nta",
    "1650": "ntal",
    "1651": "apu",
    "1652": "apul",
    "1653": "yg",
    "1654": "ygm",
    "1655": "arat",
    "1656": "pp",
    "1657": "ppe",
    "1658": "ppen",
    "1659": "sw",
    "1660": "swe",
    "1661": "swer",
    "1662": "ij",
    "1663": "edd",
    "1664": "oweve",
    "1665": "nec",
    "1666": "nect",
    "1667": "elo",
    "1668": "elop",
    "1669": "ive",
    "1670": "iver",
    "1671": "ree",
    "1672": "ree ",
    "1673": "nou",
    "1674": "tuc",
    "1675": "llow ",
    "1676": "aig",
    "1677": "tati",
    "1678": "Oc",
    "1679": "Oct",
    "1680": "Octo",
    "1681": "Octob",
    "1682": "k ",
    "1683": "zy",
    "1684": "zym",
    "1685": "zyme",
    "1686": "ann",
    "1687": "anni",
    "1688": "annib",
    "1689": "ick",
    "1690": "(d. ",
    "1691": "eou",
    "1692": ", ",
    "1693": "her",
    "1694": "llio",
    "1695": "ghan",
    "1696": "oon",
    "1697": "wat",
    "1698": "tea",
    "1699": "tead",
    "1700": "tl",
    "1701": "tla",
    "1702": "bn",
    "1703": "rpr",
    "1704": "rpre",
    "1705": "rpret",
    "1706": "GH",
    "1707": "GHz",
    "1708": "hav",
    "1709": "have",
    "1710": "L.",
    "1711": "Nov",
    "1712": "Nove",
    "1713": "Novem",
    "1714": "Novemb",
    "1715": "00",
    "1716": "000",
    "1717": "rio",
    "1718": "rior",
    "1719": "vol",
    "1720": "volv",
    "1721": "lud",
    "1722": "thod",
    "1723": "alled",
    "1724": "rant",
    "1725": "Er",
    "1726": "Erd",
    "1727": "he ",
    "1728": "VA",
    "1729": "xp",
    "1730": "xpa",
    "1731": "xpan",
    "1732": "ase",
    "1733": "ased",
    "1734": "ased ",
    "1735": "thor",
    "1736": "par",
    "1737": "i ",
    "1738": "sic",
    "1739": "api",
    "1740": "apit",
    "1741": "9,",
    "1742": "9, ",
    "1743": "hod",
    "1744": "wed",
    "1745": "lam",
    "1746": "stav",
    "1747": "ll-",
    "1748": "19",
    "1749": "can",
    "1750": "cant",
    "1751": "ima",
    "1752": "imat",
    "1753": "asia",
    "1754": "ay",
    "1755": "ays",
    "1756": "7-",
    "1757": "7-1",
    "1758": "#S",
    "1759": "riv",
    "1760": "rfa",
    "1761": "rfac",
    "1762": "tw",
    "1763": "two",
    "1764": "twor",
    "1765": "on ",
    "1766": "hr",
    "1767": "hro",
    "1768": "hrop",
    "1769": "ctic",
    "1770": "nu",
    "1771": "nue",
    "1772": "ssi",
    "1773": "ssio",
    "1774": "ssion",
    "1775": "gn",
    "1776": "gno",
    "1777": "gnos",
    "1778": "mocra",
    "1779": "iru",
    "1780": "irus",
    "1781": "pite",
    "1782": "hurc",
    "1783": "hurch",
    "1784": "ersi",
    "1785": "ersio",
    "1786": "b.",
    "1787": "b. ",
    "1788": "ndas",
    "1789": "B,",
    "1790": "B, ",
    "1791": "wea",
    "1792": "weal",
    "1793": "wealt",
    "1794": "wealth",
    "1795": "eri",
    "1796": "cam",
    "1797": "Chr",
    "1798": "Chri",
    "1799": "Chris",
    "1800": "eet",
    "1801": "cC",
    "1802": "cCa",
    "1803": "fre",
    "1804": "fred",
    "1805": "eed",
    "1806": "ams",
    "1807": "rs ",
    "1808": "tru",
    "1809": "truc",
    "1810": "truct",
    "1811": "aly",
    "1812": "alys",
    "1813": "alysi",
    "1814": "alysis",
    "1815": "anu",
    "1816": "anua",
    "1817": "anuar",
    "1818": "rus",
    "1819": "rusa",
    "1820": "ask",
    "1821": "lav",
    "1822": "6 - ",
    "1823": "lio",
    "1824": " ar",
    "1825": "eli",
    "1826": "elie",
    "1827": "LF",
    "1828": "tb",
    "1829": "tba",
    "1830": "tbal",
    "1831": "tball",
    "1832": "SB",
    "1833": "SBN",
    "1834": "ist",
    "1835": "isto",
    "1836": "hy",
    "1837": "hys",
    "1838": "hysi",
    "1839": "ccl",
    "1840": "ccle",
    "1841": "rome",
    "1842": "romet",
    "1843": "eme",
    "1844": "emen",
    "1845": "tar",
    "1846": "tart",
    "1847": "tarte",
    "1848": "tarted",
    "1849": "ino",
    "1850": "inoi",
    "1851": "Qu",
    "1852": "tle",
    "1853": "erei",
    "1854": "ereig",
    "1855": "far",
    "1856": "fare",
    "1857": "ring",
    "1858": "uni",
    "1859": "ely",
    "1860": "ug",
    "1861": "ugh",
    "1862": "lp",
    "1863": " /",
    "1864": " /t",
    "1865": "iri",
    "1866": "irit",
    "1867": "amen",
    "1868": "ament",
    "1869": "ored",
    "1870": "'t",
    "1871": "gres",
    "1872": "gress",
    "1873": "coun",
    "1874": "lt",
    "1875": "lta",
    "1876": "ltan",
    "1877": "ictu",
    "1878": "ictur",
    "1879": "oi",
    "1880": "oid",
    "1881": "ssib",
    "1882": "speci",
    "1883": "specia",
    "1884": "special",
    "1885": "ep",
    "1886": "ept",
    "1887": "War",
    "1888": "cy",
    "1889": "cy ",
    "1890": "dg",
    "1891": "dge",
    "1892": "dged",
    "1893": "gro",
    "1894": "grou",
    "1895": "ina",
    "1896": "nks",
    "1897": "ded ",
    "1898": "rke",
    "1899": "rket",
    "1900": "oti",
    "1901": "a ",
    "1902": "Ol",
    "1903": "Old",
    "1904": "V ",
    "1905": "ildl",
    "1906": "ildli",
    "1907": "ildlif",
    "1908": "ildlife",
    "1909": "tch",
    "1910": "4-1",
    "1911": "hlo",
    "1912": "hlor",
    "1913": "odul",
    "1914": "Is",
    "1915": "Isl",
    "1916": "hri",
    "1917": "hris",
    "1918": "ten",
    "1919": "is ",
    "1920": "Z-",
    "1921": "abi",
    "1922": "oman",
    "1923": "sb",
    "1924": "sba",
    "1925": "eld",
    "1926": "ddl",
    "1927": "ell",
    "1928": "ost",
    "1929": "osto",
    "1930": " C",
    "1931": " CO",
    "1932": " COU",
    "1933": "y)",
    "1934": "*Y",
    "1935": "mph",
    "1936": "out",
    "1937": "spi",
    "1938": "spit",
    "1939": "spite",
    "1940": "med",
    "1941": "nsy",
    "1942": "ev",
    "1943": "eve",
    "1944": "/ref",
    "1945": "CT",
    "1946": "tes",
    "1947": "cen",
    "1948": "cent",
    "1949": "ape",
    "1950": "aper",
    "1951": "ttl",
    "1952": "lite",
    "1953": "z ",
    "1954": "O,",
    "1955": "O, ",
    "1956": "ke ",
    "1957": "jo",
    "1958": "vel",
    "1959": "velo",
    "1960": "velop",
    "1961": "fou",
    "1962": "foun",
    "1963": "found",
    "1964": "uis",
    "1965": "hea",
    "1966": "heat",
    "1967": "tab",
    "1968": "tabl",
    "1969": "mil",
    "1970": "mill",
    "1971": "milli",
    "1972": "Va",
    "1973": "Van",
    "1974": "Vanc",
    "1975": "Vanco",
    "1976": "Vancou",
    "1977": "Vancouv",
    "1978": "lay",
    "1979": "urr",
    "1980": "oun",
    "1981": "ound",
    "1982": "rma",
    "1983": "rman",
    "1984": "ser",
    "1985": "serv",
    "1986": "bj",
    "1987": "bje",
    "1988": "bjec",
    "1989": "bject",
    "1990": "ry",
    "1991": "ry ",
    "1992": "vern",
    "1993": "yr",
    "1994": "yri",
    "1995": "yrig",
    "1996": "yrigh",
    "1997": "yright",
    "1998": "lue",
    "1999": "tew",
    "2000": "tewa",
    "2001": "lly",
    "2002": "ater",
    "2003": "iss",
    "2004": "issi",
    "2005": "rse",
    "2006": "rsey",
    "2007": "music",
    "2008": "outh",
    "2009": "sex",
    "2010": "nde",
    "2011": "enz",
    "2012": "enzy",
    "2013": "enzym",
    "2014": "iat",
    "2015": "uru",
    "2016": "ven",
    "2017": "vent",
    "2018": "9)",
    "2019": "xa",
    "2020": "xas",
    "2021": "orl",
    "2022": "orld",
    "2023": "uca",
    "2024": "ucat",
    "2025": "Yor",
    "2026": "fic",
    "2027": "fica",
    "2028": "emit",
    "2029": "emiti",
    "2030": "ws",
    "2031": "ws ",
    "2032": "Wi",
    "2033": "Wit",
    "2034": "tur",
    "2035": "turn",
    "2036": "ool",
    "2037": "oolo",
    "2038": "oolog",
    "2039": "lat",
    "2040": "late",
    "2041": "late ",
    "2042": "Du",
    "2043": "Dun",
    "2044": "Dune",
    "2045": "NI",
    "2046": "4 ",
    "2047": "4 /",
    "2048": "4 /t",
    "2049": "Ga",
    "2050": "Gar",
    "2051": "Gary",
    "2052": "eu",
    "2053": "orc",
    "2054": "orch",
    "2055": "ned",
    "2056": "ig",
    "2057": "iga",
    "2058": "igad",
    "2059": "nden",
    "2060": "coh",
    "2061": "coho",
    "2062": "cohol",
    "2063": "nca",
    "2064": ".g",
    "2065": ".g.",
    "2066": "zar",
    "2067": "zard",
    "2068": "came",
    "2069": "bitr",
    "2070": "ham",
    "2071": ",y",
    "2072": ",y_",
    "2073": "oser",
    "2074": "illa",
    "2075": "illag",
    "2076": "illage",
    "2077": "vid ",
    "2078": "sur",
    "2079": "gam",
    "2080": " /s",
    "2081": " /su",
    "2082": "urk",
    "2083": "ref",
    "2084": "cas",
    "2085": "cast",
    "2086": "5.",
    "2087": "5.j",
    "2088": "5.jp",
    "2089": "5.jpg",
    "2090": "rgi",
    "2091": "uk",
    "2092": "-r",
    "2093": "-ra",
    "2094": "-ran",
    "2095": "-rang",
    "2096": "unn",
    "2097": "Yea",
    "2098": "tera",
    "2099": "DP",
    "2100": "rui",
    "2101": "ruis",
    "2102": "viou",
    "2103": "||",
    "2104": "ban",
    "2105": "bank",
    "2106": "7 ",
    "2107": "7 -",
    "2108": "sop",
    "2109": "Hi",
    "2110": "His",
    "2111": "Hist",
    "2112": "Histo",
    "2113": "Ge",
    "2114": "Ger",
    "2115": "lon",
    "2116": "cau",
    "2117": "caus",
    "2118": "amo",
    "2119": "amou",
    "2120": "amous",
    "2121": "urc",
    "2122": "urce",
    "2123": "cid",
    "2124": "har",
    "2125": "hara",
    "2126": "harac",
    "2127": "haract",
    "2128": "gt",
    "2129": "gth",
    "2130": "part",
    "2131": "hop",
    "2132": "unct",
    "2133": "sar",
    "2134": "RP",
    "2135": "yt",
    "2136": "yth",
    "2137": "ous",
    "2138": "' ",
    "2139": "*S",
    "2140": "*Sc",
    "2141": "Isr",
    "2142": "Isra",
    "2143": "Israe",
    "2144": "Israel",
    "2145": "igat",
    "2146": "az",
    "2147": "azi",
    "2148": "d.",
    "2149": "d. ",
    "2150": "dem",
    "2151": "ue",
    "2152": "uel",
    "2153": "CE",
    "2154": "For ",
    "2155": "dv",
    "2156": "dva",
    "2157": "dvan",
    "2158": "ily",
    "2159": "grow",
    "2160": "oup",
    "2161": "oup ",
    "2162": "s A",
    "2163": "s An",
    "2164": "iven",
    "2165": "ader",
    "2166": "oca",
    "2167": "ocat",
    "2168": "ems ",
    "2169": "cow",
    "2170": "zab",
    "2171": "zabe",
    "2172": "zabet",
    "2173": "joi",
    "2174": "join",
    "2175": "C.",
    "2176": "set",
    "2177": "men",
    "2178": "ment",
    "2179": "case",
    "2180": "dam ",
    "2181": "gra",
    "2182": "5 /",
    "2183": "5 /t",
    "2184": "ega",
    "2185": "imag",
    "2186": "doe",
    "2187": "does",
    "2188": "eum",
    "2189": "ow ",
    "2190": "O ",
    "2191": "O s",
    "2192": "O su",
    "2193": "shi",
    "2194": "shin",
    "2195": "shing",
    "2196": "shingt",
    "2197": "shingto",
    "2198": "Fre",
    "2199": "Fren",
    "2200": " d",
    "2201": " de",
    "2202": " de ",
    "2203": "clu",
    "2204": "xua",
    "2205": "xual",
    "2206": "utu",
    "2207": "utur",
    "2208": "diti",
    "2209": "hen",
    "2210": "hen ",
    "2211": "ene",
    "2212": "ener",
    "2213": "enera",
    "2214": "wt",
    "2215": "wth",
    "2216": "Zw",
    "2217": "Zwi",
    "2218": "Zwin",
    "2219": "ing",
    "2220": "oa",
    "2221": "oak",
    "2222": "Bod",
    "2223": "Bodh",
    "2224": "fy",
    "2225": "unch",
    "2226": "erv",
    "2227": "ervi",
    "2228": "op",
    "2229": "opl",
    "2230": "up ",
    "2231": "dict",
    "2232": " to ",
    "2233": "lea",
    "2234": "leas",
    "2235": "mmu",
    "2236": "mmun",
    "2237": "mn",
    "2238": "mne",
    "2239": "mnes",
    "2240": "mnest",
    "2241": "mnesty",
    "2242": "len",
    "2243": "lend",
    "2244": "5)",
    "2245": "5)*",
    "2246": "dere",
    "2247": "dered",
    "2248": "hap",
    "2249": " %",
    "2250": "c ",
    "2251": "F ",
    "2252": "4 -",
    "2253": " an",
    "2254": " and",
    "2255": " and ",
    "2256": " I",
    "2257": "ally",
    "2258": "6,",
    "2259": "6, ",
    "2260": "ble",
    "2261": "ble ",
    "2262": "iou",
    "2263": "ious",
    "2264": "gui",
    "2265": "guis",
    "2266": "iso",
    "2267": "ison",
    "2268": "fac",
    "2269": "fact",
    "2270": "aj",
    "2271": "ajo",
    "2272": "ajor",
    "2273": "Ce",
    "2274": "Cen",
    "2275": "ucas",
    "2276": "she",
    "2277": "shed",
    "2278": "roo",
    "2279": "hyl",
    "2280": "itz",
    "2281": "itze",
    "2282": "itzer",
    "2283": "uctu",
    "2284": "ell ",
    "2285": "tc.",
    "2286": "ali",
    "2287": "alig",
    "2288": "align",
    "2289": "low",
    "2290": "ron",
    "2291": "rle",
    "2292": "rles",
    "2293": "ory",
    "2294": "ory ",
    "2295": "viv",
    "2296": "ine",
    "2297": "ined",
    "2298": "rn",
    "2299": "vill",
    "2300": "ivi",
    "2301": "cil",
    "2302": "sph",
    "2303": "tia",
    "2304": "para",
    "2305": "rpm",
    "2306": "rpme",
    "2307": "rpmen",
    "2308": "mond",
    "2309": "vy",
    "2310": "ore ",
    "2311": "umi",
    "2312": "umin",
    "2313": "han",
    "2314": "han ",
    "2315": "..",
    "2316": "NA",
    "2317": "vai",
    "2318": "vail",
    "2319": "DNS",
    "2320": "ota",
    "2321": "otal",
    "2322": "-a",
    "2323": "lut",
    "2324": "Ki",
    "2325": "ibu",
    "2326": "ibut",
    "2327": "Em",
    "2328": "sty",
    "2329": "styl",
    "2330": "icl",
    "2331": "icle",
    "2332": "7 - ",
    "2333": "jp",
    "2334": "jpg",
    "2335": "jpg|",
    "2336": "uch",
    "2337": "uch ",
    "2338": "uch a",
    "2339": "uch as",
    "2340": "ced",
    "2341": "ced ",
    "2342": "ys",
    "2343": "ven ",
    "2344": "eng",
    "2345": "engt",
    "2346": "ength",
    "2347": "sd",
    "2348": "aw",
    "2349": "awe",
    "2350": "awed",
    "2351": "bru",
    "2352": "brua",
    "2353": "bruar",
    "2354": "vin",
    "2355": "3,",
    "2356": "3, ",
    "2357": "rred",
    "2358": "ks",
    "2359": "ks ",
    "2360": "br ",
    "2361": "tis",
    "2362": "tish",
    "2363": "L ",
    "2364": "hyd",
    "2365": "hat",
    "2366": "tel",
    "2367": "firs",
    "2368": "first",
    "2369": " o",
    "2370": " of",
    "2371": "PI",
    "2372": "PID",
    "2373": "lind",
    "2374": "sed",
    "2375": "sed ",
    "2376": "leng",
    "2377": "isi",
    "2378": "isin",
    "2379": " by",
    "2380": " by ",
    "2381": "gi",
    "2382": "gin",
    "2383": "gine",
    "2384": ".e",
    "2385": ".e.",
    "2386": "nard",
    "2387": "ditio",
    "2388": "God",
    "2389": "def",
    "2390": "defi",
    "2391": "defin",
    "2392": " th",
    "2393": "hon",
    "2394": "than",
    "2395": "ositi",
    "2396": "-k",
    "2397": "-kn",
    "2398": "-kno",
    "2399": "fict",
    "2400": "usb",
    "2401": "usba",
    "2402": "vit",
    "2403": "arb",
    "2404": "arbo",
    "2405": "5-",
    "2406": "ono",
    "2407": "onom",
    "2408": "Me",
    "2409": "neti",
    "2410": "netic",
    "2411": "rbe",
    "2412": "rber",
    "2413": "Th",
    "2414": "The",
    "2415": "The ",
    "2416": "asu",
    "2417": "asur",
    "2418": "anc",
    "2419": "lec",
    "2420": "lect",
    "2421": "Ir",
    "2422": "Iri",
    "2423": "Iris",
    "2424": "Irish",
    "2425": "RY",
    "2426": "lecu",
    "2427": "sy",
    "2428": "sys",
    "2429": "syst",
    "2430": "Ho",
    "2431": "Hou",
    "2432": "Hous",
    "2433": "deri",
    "2434": "tri",
    "2435": "trin",
    "2436": "pz",
    "2437": "pzi",
    "2438": "pzig",
    "2439": "nus",
    "2440": "nusc",
    "2441": "nuscr",
    "2442": "thoug",
    "2443": "though",
    "2444": "mit",
    "2445": "l*",
    "2446": "xo",
    "2447": "ount",
    "2448": "seq",
    "2449": "sequ",
    "2450": "seque",
    "2451": "ried",
    "2452": "heo",
    "2453": "heor",
    "2454": "ys ",
    "2455": "eer",
    "2456": "ading",
    "2457": "! ",
    "2458": "ibi",
    "2459": "ibit",
    "2460": "ror",
    "2461": "1B",
    "2462": "nte",
    "2463": "nted",
    "2464": "ritor",
    "2465": "HO",
    "2466": "HO,",
    "2467": "L b",
    "2468": "L br",
    "2469": "l,",
    "2470": "l, ",
    "2471": "ida",
    "2472": "idat",
    "2473": "FL",
    "2474": "Sox",
    "2475": "nti",
    "2476": "whi",
    "2477": "whic",
    "2478": "which",
    "2479": "hel",
    "2480": "pear",
    "2481": "lti",
    "2482": "ltic",
    "2483": "in ",
    "2484": "in a",
    "2485": "in ar",
    "2486": "tow",
    "2487": "town",
    "2488": "rgen",
    "2489": "spo",
    "2490": "spon",
    "2491": "fied",
    "2492": "mbo",
    "2493": "mbol",
    "2494": "rib",
    "2495": "ribu",
    "2496": "ribut",
    "2497": "luen",
    "2498": "law",
    "2499": "rc",
    "2500": "rcu",
    "2501": "rcul",
    "2502": "cce",
    "2503": "irc",
    "2504": "ky",
    "2505": "kyl",
    "2506": "kyla",
    "2507": "llia",
    "2508": "lliam",
    "2509": "ens",
    "2510": "ensi",
    "2511": ". ",
    "2512": "*N",
    "2513": "0s",
    "2514": "0s ",
    "2515": "org",
    "2516": "9)*",
    "2517": "/su",
    "2518": "led",
    "2519": "nist",
    "2520": "ngr",
    "2521": "ngra",
    "2522": "lust",
    "2523": "II",
    "2524": "pri",
    "2525": "pril",
    "2526": "gaz",
    "2527": "ice",
    "2528": "ple",
    "2529": "B-",
    "2530": "dan",
    "2531": "mi)",
    "2532": "iled",
    "2533": "ket",
    "2534": "tic",
    "2535": "sof",
    "2536": "soft",
    "2537": "yna",
    "2538": "vig",
    "2539": "viga",
    "2540": "azil",
    "2541": "ese",
    "2542": "ounc",
    "2543": "irm",
    "2544": "irme",
    "2545": "irmed",
    "2546": "2)",
    "2547": "ilm",
    "2548": "d ",
    "2549": "hma",
    "2550": "hmad",
    "2551": "llec",
    "2552": "llect",
    "2553": "alen",
    "2554": "alend",
    "2555": "ple ",
    "2556": "ad ",
    "2557": "eur",
    "2558": "on,",
    "2559": "on, ",
    "2560": "utho",
    "2561": "uthor",
    "2562": "suc",
    "2563": "such",
    "2564": "pad",
    "2565": "lyw",
    "2566": "lywo",
    "2567": "oy",
    "2568": "oar",
    "2569": "oard",
    "2570": "exam",
    "2571": "examp",
    "2572": "exampl",
    "2573": "y o",
    "2574": "y of",
    "2575": "y of ",
    "2576": "ny",
    "2577": "ubj",
    "2578": "dia",
    "2579": "diam",
    "2580": "ucl",
    "2581": "ucle",
    "2582": "rick",
    "2583": "an ",
    "2584": "atic",
    "2585": "stiv",
    "2586": "pu",
    "2587": "put",
    "2588": "ylo",
    "2589": "ylor",
    "2590": "syc",
    "2591": "sych",
    "2592": "his",
    "2593": "izer",
    "2594": "opt",
    "2595": "wto",
    "2596": "wton",
    "2597": "eag",
    "2598": "eagu",
    "2599": "eague",
    "2600": "kes",
    "2601": "kes ",
    "2602": "je",
    "2603": "jec",
    "2604": "ant ",
    "2605": "ants",
    "2606": "wel",
    "2607": "well",
    "2608": "ner",
    "2609": "nerg",
    "2610": " on",
    "2611": " on ",
    "2612": "one",
    "2613": "ugu",
    "2614": "ugue",
    "2615": "wei",
    "2616": "me ",
    "2617": "xi",
    "2618": "om ",
    "2619": "spa",
    "2620": "spar",
    "2621": "igr",
    "2622": "sio",
    "2623": "sion",
    "2624": "ird",
    "2625": "ird ",
    "2626": "das",
    "2627": "itio",
    "2628": "ition",
    "2629": "yea",
    "2630": "year",
    "2631": "ruc",
    "2632": "ruct",
    "2633": "nax",
    "2634": "naxi",
    "2635": "naxim",
    "2636": "por",
    "2637": "port",
    "2638": "wal",
    "2639": "wall",
    "2640": "ew ",
    "2641": "gio",
    "2642": "gion",
    "2643": "awa",
    "2644": "harl",
    "2645": "vera",
    "2646": "verag",
    "2647": "ock",
    "2648": "lem",
    "2649": "oust",
    "2650": "may",
    "2651": "may ",
    "2652": "ly ",
    "2653": "bini",
    "2654": "Ze",
    "2655": "Zea",
    "2656": "eror",
    "2657": "val",
    "2658": "valu",
    "2659": "value",
    "2660": "Ni",
    "2661": "Nin",
    "2662": "igi",
    "2663": "igio",
    "2664": "phor",
    "2665": "ink",
    "2666": "ink ",
    "2667": "ult",
    "2668": "cu",
    "2669": "cut",
    "2670": "es ",
    "2671": "ork",
    "2672": "70",
    "2673": "70s",
    "2674": "des",
    "2675": "e ",
    "2676": "e o",
    "2677": "e of",
    "2678": "e of ",
    "2679": "Te",
    "2680": "Tec",
    "2681": "bac",
    "2682": "ram",
    "2683": "ramm",
    "2684": "ramma",
    "2685": "rammar",
    "2686": "leo",
    "2687": "ricu",
    "2688": "ricul",
    "2689": "ricult",
    "2690": "igin",
    "2691": "plom",
    "2692": "ploma",
    "2693": "aul",
    "2694": "ault",
    "2695": "Day",
    "2696": "gger",
    "2697": "lang",
    "2698": "lid",
    "2699": "e=",
    "2700": "k o",
    "2701": "k of",
    "2702": "sec",
    "2703": "seco",
    "2704": "secon",
    "2705": "second",
    "2706": "gan",
    "2707": "ugl",
    "2708": "ugla",
    "2709": "oin",
    "2710": "anw",
    "2711": "anwh",
    "2712": "ntro",
    "2713": "ntrol",
    "2714": "enta",
    "2715": "entar",
    "2716": "mons",
    "2717": "omi",
    "2718": "omin",
    "2719": "uu",
    "2720": "uum",
    "2721": "ef",
    "2722": "efi",
    "2723": "efin",
    "2724": "nee",
    "2725": "neer",
    "2726": "fore",
    "2727": "two ",
    "2728": "tg",
    "2729": "tgu",
    "2730": "tgun",
    "2731": "4 /s",
    "2732": "utr",
    "2733": "rth",
    "2734": "abli",
    "2735": "e:",
    "2736": "ard",
    "2737": "ber",
    "2738": "Do",
    "2739": "Don",
    "2740": "nsiv",
    "2741": "oe",
    "2742": "oved",
    "2743": "hal",
    "2744": "ici",
    "2745": "icie",
    "2746": "icien",
    "2747": "icient",
    "2748": "Fa",
    "2749": "Far",
    "2750": "Faro",
    "2751": "Faroe",
    "2752": "ds",
    "2753": " at",
    "2754": " at ",
    "2755": "ary",
    "2756": "nm",
    "2757": "nme",
    "2758": "nmen",
    "2759": "esa",
    "2760": "esar",
    "2761": "DI",
    "2762": "run",
    "2763": "rune",
    "2764": "runei",
    "2765": "Fit",
    "2766": "Fitz",
    "2767": "ction",
    "2768": "W,",
    "2769": "W, ",
    "2770": "cyc",
    "2771": "cycl",
    "2772": "bor",
    "2773": "nged",
    "2774": "ving",
    "2775": "stitu",
    "2776": "bni",
    "2777": "otb",
    "2778": "otba",
    "2779": "otbal",
    "2780": "lab",
    "2781": "labo",
    "2782": "jor",
    "2783": "how",
    "2784": "(#",
    "2785": "rh",
    "2786": "sis",
    "2787": "sist",
    "2788": "hanc",
    "2789": "ebr",
    "2790": "ebru",
    "2791": "o ",
    "2792": "o n",
    "2793": "o no",
    "2794": "teu",
    "2795": "cot",
    "2796": "ret",
    "2797": "urch",
    "2798": "deg",
    "2799": "degr",
    "2800": "degre",
    "2801": "degree",
    "2802": "ert",
    "2803": "erta",
    "2804": "ertai",
    "2805": "rish",
    "2806": "ft",
    "2807": " 1",
    "2808": "Hag",
    "2809": "Hagb",
    "2810": "Hagba",
    "2811": "Hagbar",
    "2812": "gal",
    "2813": "NO",
    "2814": "lex",
    "2815": "md",
    "2816": "mda",
    "2817": "mdas",
    "2818": "mdash",
    "2819": "ram ",
    "2820": "gene",
    "2821": "ms ",
    "2822": "gor",
    "2823": "gs",
    "2824": "gs ",
    "2825": "fiel",
    "2826": "field",
    "2827": "hot",
    "2828": "hoto",
    "2829": "8 - ",
    "2830": "0 -",
    "2831": "0 - ",
    "2832": "ka",
    "2833": "sus",
    "2834": "lm",
    "2835": "act",
    "2836": "ler",
    "2837": "lera",
    "2838": "lc",
    "2839": "lch",
    "2840": "lche",
    "2841": "lchem",
    "2842": "neteen",
    "2843": "7 /",
    "2844": "alek",
    "2845": "hic",
    "2846": "hich",
    "2847": "iol",
    "2848": "bum",
    "2849": "en ",
    "2850": "Par",
    "2851": "lar",
    "2852": "lark",
    "2853": "lleg",
    "2854": "llege",
    "2855": "long",
    "2856": "aru",
    "2857": "ud",
    "2858": "udi",
    "2859": "udie",
    "2860": "udied",
    "2861": "ae",
    "2862": "ot ",
    "2863": "r*S",
    "2864": "r*St",
    "2865": "low ",
    "2866": "ane",
    "2867": "anen",
    "2868": "riti",
    "2869": "ritis",
    "2870": "tte",
    "2871": "tter",
    "2872": "warm",
    "2873": "ica",
    "2874": "icat",
    "2875": "wit",
    "2876": "with",
    "2877": "s a",
    "2878": "s an",
    "2879": "s and",
    "2880": "zo",
    "2881": "iq",
    "2882": "iqu",
    "2883": "las",
    "2884": "lass",
    "2885": "w ",
    "2886": "Fl",
    "2887": "Fla",
    "2888": "Flam",
    "2889": "ervic",
    "2890": "ervice",
    "2891": "Zwing",
    "2892": "igh",
    "2893": "ight",
    "2894": "rmy",
    "2895": "1 ",
    "2896": "1 /",
    "2897": "1 /t",
    "2898": "itl",
    "2899": "Le",
    "2900": "ople",
    "2901": "o;",
    "2902": "Tu",
    "2903": "Tur",
    "2904": "0%",
    "2905": "ece",
    "2906": "hed",
    "2907": "hed ",
    "2908": "Gal",
    "2909": "Gala",
    "2910": "Galat",
    "2911": "ved ",
    "2912": "cum",
    "2913": "cume",
    "2914": "cumen",
    "2915": "yte",
    "2916": "view",
    "2917": "3-",
    "2918": " c",
    "2919": " ce",
    "2920": "euv",
    "2921": "ies",
    "2922": "eat",
    "2923": "eath",
    "2924": "ways",
    "2925": "tud",
    "2926": "qu",
    "2927": "esel",
    "2928": "awai",
    "2929": "awaii",
    "2930": "nd ",
    "2931": "iven ",
    "2932": "SC",
    "2933": "SCO",
    "2934": ":/",
    "2935": "://",
    "2936": "bet",
    "2937": "RT",
    "2938": "rote",
    "2939": "wes",
    "2940": "west",
    "2941": "ogr",
    "2942": "ogra",
    "2943": "tum",
    "2944": "que",
    "2945": "zec",
    "2946": "zech",
    "2947": "bno",
    "2948": "bnor",
    "2949": "bnorm",
    "2950": "tic ",
    "2951": "ugg",
    "2952": "nne",
    "2953": "nner",
    "2954": "CO",
    "2955": "COU",
    "2956": "uli",
    "2957": "fra",
    "2958": "frac",
    "2959": "Ami",
    "2960": "Amin",
    "2961": "Vi",
    "2962": "Vil",
    "2963": "akes",
    "2964": "akes ",
    "2965": "rec",
    "2966": "rect",
    "2967": "lib",
    "2968": "ue ",
    "2969": "tal",
    "2970": "tali",
    "2971": "talin",
    "2972": "russ",
    "2973": "ean",
    "2974": "eani",
    "2975": "eanin",
    "2976": "ani",
    "2977": "tts",
    "2978": "ttsb",
    "2979": "elit",
    "2980": "ntio",
    "2981": "ntion",
    "2982": "geri",
    "2983": "geria",
    "2984": "efu",
    "2985": "eful",
    "2986": "dt",
    "2987": "dtd",
    "2988": "dtd ",
    "2989": "rud",
    "2990": "rude",
    "2991": "duca",
    "2992": "dow",
    "2993": "k of ",
    "2994": "oul",
    "2995": "uph",
    "2996": "uphr",
    "2997": "La",
    "2998": "o_",
    "2999": "iop",
    "3000": "iopi",
    "3001": "#U",
    "3002": "Pr",
    "3003": "Pro",
    "3004": "rol",
    "3005": "wo",
    "3006": " tha",
    "3007": " that",
    "3008": "fe",
    "3009": "fen",
    "3010": "less",
    "3011": "owever",
    "3012": "least",
    "3013": "gat",
    "3014": "gate",
    "3015": "ust",
    "3016": "ust ",
    "3017": "you",
    "3018": "W.",
    "3019": "ons",
    "3020": "onso",
    "3021": "Ya",
    "3022": "Yah",
    "3023": "Yahw",
    "3024": "ecu",
    "3025": "ecut",
    "3026": "ts ",
    "3027": "stem",
    "3028": "fte",
    "3029": "1 -",
    "3030": "D,",
    "3031": "D, ",
    "3032": "hang",
    "3033": "ritic",
    "3034": "vem",
    "3035": "veme",
    "3036": "vemen",
    "3037": "yto",
    "3038": "bee",
    "3039": "been",
    "3040": "stab",
    "3041": "stabl",
    "3042": "stabli",
    "3043": "stablis",
    "3044": "stablish",
    "3045": "eda",
    "3046": "dot",
    "3047": "ructu",
    "3048": "ructur",
    "3049": "Afghan",
    "3050": "rly",
    "3051": "Oly",
    "3052": "Olym",
    "3053": "rough",
    "3054": "iar",
    "3055": "rid",
    "3056": "ridg",
    "3057": "but",
    "3058": "owl",
    "3059": "fter",
    "3060": "ticl",
    "3061": "ticle",
    "3062": "cap",
    "3063": "yst",
    "3064": "yste",
    "3065": "ystem",
    "3066": "fun",
    "3067": "func",
    "3068": "funct",
    "3069": "Je",
    "3070": "nent",
    "3071": "20",
    "3072": "20s",
    "3073": "Ci",
    "3074": "bas",
    "3075": "yi",
    "3076": "yin",
    "3077": "nh",
    "3078": "nhu",
    "3079": "nhur",
    "3080": "nhurs",
    "3081": "nhursa",
    "3082": "ranc",
    "3083": "ack",
    "3084": "tan",
    "3085": "Jum",
    "3086": "Jumo",
    "3087": "Jumon",
    "3088": "Eas",
    "3089": "East",
    "3090": "ior",
    "3091": "tag",
    "3092": "ery",
    "3093": "ery ",
    "3094": "anch",
    "3095": "lia",
    "3096": "lian",
    "3097": "IC",
    "3098": "ML",
    "3099": "olu",
    "3100": "e 1",
    "3101": "e 19",
    "3102": "tib",
    "3103": "A.",
    "3104": "mai",
    "3105": "main",
    "3106": "iba",
    "3107": "ibal",
    "3108": "90",
    "3109": "90s",
    "3110": "nci",
    "3111": "ncil",
    "3112": "idi",
    "3113": "ain",
    "3114": "olut",
    "3115": "-m",
    "3116": "hand",
    "3117": "5 -",
    "3118": "5 - ",
    "3119": "beh",
    "3120": "beha",
    "3121": "thel",
    "3122": "thele",
    "3123": "theles",
    "3124": "theless",
    "3125": "inet",
    "3126": "inete",
    "3127": "inetee",
    "3128": "ewe",
    "3129": "ewed",
    "3130": "chn",
    "3131": "**",
    "3132": "nth",
    "3133": "nthr",
    "3134": "nthro",
    "3135": "nthrop",
    "3136": "fro",
    "3137": "from",
    "3138": "from ",
    "3139": "del",
    "3140": "F)",
    "3141": "6 /",
    "3142": "6 /t",
    "3143": "umbe",
    "3144": "ived",
    "3145": "--",
    "3146": "edi",
    "3147": "ingl",
    "3148": "ingle",
    "3149": "ema",
    "3150": "ake ",
    "3151": "orat",
    "3152": "3 /t",
    "3153": "9),",
    "3154": "9), ",
    "3155": "ut ",
    "3156": "tabli",
    "3157": "tablis",
    "3158": "san",
    "3159": "eive",
    "3160": "),",
    "3161": "), ",
    "3162": "mud",
    "3163": "alt",
    "3164": "alt ",
    "3165": "fil",
    "3166": "ken",
    "3167": "car",
    "3168": "noun",
    "3169": "nounc",
    "3170": "ful",
    "3171": "oci",
    "3172": "ocit",
    "3173": "Stat",
    "3174": "State",
    "3175": "ify",
    "3176": "hib",
    "3177": "hibi",
    "3178": "hibit",
    "3179": "end",
    "3180": "o-",
    "3181": "rm ",
    "3182": "% ",
    "3183": "mic",
    "3184": "gov",
    "3185": "gove",
    "3186": "gover",
    "3187": "govern",
    "3188": "ebu",
    "3189": "NE",
    "3190": "rang",
    "3191": "Mo",
    "3192": "Moo",
    "3193": "Moon",
    "3194": "harm",
    "3195": "cia",
    "3196": "cian",
    "3197": "R.",
    "3198": "5,",
    "3199": "5, ",
    "3200": "irt",
    "3201": "irtu",
    "3202": "blem",
    "3203": "ain ",
    "3204": "D)",
    "3205": "ull",
    "3206": "rive",
    "3207": "gas",
    "3208": "I ",
    "3209": "Sc",
    "3210": "Sch",
    "3211": "Scho",
    "3212": "Schoo",
    "3213": "School",
    "3214": "din",
    "3215": "oad",
    "3216": "utc",
    "3217": "utch",
    "3218": "love",
    "3219": "clud",
    "3220": "ften",
    "3221": "enc",
    "3222": "wry",
    "3223": "dad",
    "3224": "ped",
    "3225": "lbe",
    "3226": "lber",
    "3227": "LA",
    "3228": "HP",
    "3229": "s,",
    "3230": "s, ",
    "3231": "g /",
    "3232": "g /t",
    "3233": "g /tt",
    "3234": "Gu",
    "3235": "Gui",
    "3236": "Guin",
    "3237": "Guine",
    "3238": "Guinea",
    "3239": "ym",
    "3240": "iew",
    "3241": "jud",
    "3242": "8-",
    "3243": "8-1",
    "3244": "Gen",
    "3245": "*1",
    "3246": "*19",
    "3247": "rder",
    "3248": "oth ",
    "3249": "m/",
    "3250": "How",
    "3251": "Howe",
    "3252": "Howev",
    "3253": "Col",
    "3254": "Coll",
    "3255": "Colle",
    "3256": "Colleg",
    "3257": "aism",
    "3258": "mis",
    "3259": "misp",
    "3260": "misph",
    "3261": "y,",
    "3262": "y, ",
    "3263": "aty",
    "3264": "Ro",
    "3265": "Rom",
    "3266": "oic",
    "3267": "gard",
    "3268": "See",
    "3269": "DO",
    "3270": "DO,",
    "3271": "DO, ",
    "3272": "iev",
    "3273": "upp",
    "3274": "nie",
    "3275": "nies",
    "3276": "iod",
    "3277": "e s",
    "3278": "e su",
    "3279": "ont",
    "3280": "ho ",
    "3281": "me M",
    "3282": "ime",
    "3283": "ught",
    "3284": "owle",
    "3285": "ndr",
    "3286": "ndre",
    "3287": "ndred",
    "3288": "80",
    "3289": "80s",
    "3290": "st ",
    "3291": "st o",
    "3292": "st of",
    "3293": "st of ",
    "3294": "a_",
    "3295": "phr",
    "3296": "oes",
    "3297": "ula",
    "3298": "ath",
    "3299": "acte",
    "3300": "acter",
    "3301": "ugur",
    "3302": " A",
    "3303": " An",
    "3304": " Ang",
    "3305": "OM",
    "3306": "rda",
    "3307": "rdan",
    "3308": "ned ",
    "3309": "aur",
    "3310": "diu",
    "3311": "dium",
    "3312": "mber",
    "3313": "hol",
    "3314": "uld",
    "3315": "ald",
    "3316": "Di",
    "3317": "Din",
    "3318": "Dino",
    "3319": "moo",
    "3320": "mood",
    "3321": "any",
    "3322": "ras",
    "3323": "etw",
    "3324": "etwo",
    "3325": "etwor",
    "3326": "ddle",
    "3327": "have ",
    "3328": "ewa",
    "3329": "ewar",
    "3330": "eward",
    "3331": "eria",
    "3332": "cip",
    "3333": "cipa",
    "3334": "-c",
    "3335": "-ce",
    "3336": "-cen",
    "3337": "ito",
    "3338": "uctur",
    "3339": "itu",
    "3340": "itud",
    "3341": "Ba",
    "3342": "Bac",
    "3343": "Bach",
    "3344": "ware",
    "3345": ". b",
    "3346": ". br",
    "3347": "tyl",
    "3348": "ed ",
    "3349": "0)*",
    "3350": "err",
    "3351": "yz",
    "3352": "yza",
    "3353": "yzan",
    "3354": " fo",
    "3355": " for",
    "3356": "ata",
    "3357": "atal",
    "3358": "side",
    "3359": "y'",
    "3360": "nes",
    "3361": "afe",
    "3362": "m ",
    "3363": "wo ",
    "3364": "kg",
    "3365": "ebrua",
    "3366": "ebruar",
    "3367": "ity",
    "3368": "ity ",
    "3369": "s)",
    "3370": "s) ",
    "3371": "ssu",
    "3372": "Galt",
    "3373": "ype",
    "3374": "2-",
    "3375": "than ",
    "3376": "nsyl",
    "3377": "nsylv",
    "3378": "titu",
    "3379": "Ins",
    "3380": "Inst",
    "3381": "Insti",
    "3382": "Instit",
    "3383": "Institu",
    "3384": "Institut",
    "3385": "Hz",
    "3386": "had",
    "3387": "had ",
    "3388": "rig",
    "3389": "rigi",
    "3390": "hard",
    "3391": "ngo",
    "3392": "In ",
    "3393": "Ru",
    "3394": "Rus",
    "3395": "Russ",
    "3396": "Russi",
    "3397": "Russia",
    "3398": "aid",
    "3399": "boo",
    "3400": "book",
    "3401": "tre",
    "3402": "tree",
    "3403": "treet",
    "3404": "Ham",
    "3405": "Hama",
    "3406": "Hamas",
    "3407": "estic",
    "3408": "icr",
    "3409": "icro",
    "3410": "ocia",
    "3411": "oks",
    "3412": "nat",
    "3413": "use ",
    "3414": "olo",
    "3415": " F",
    "3416": " Fr",
    "3417": "4.",
    "3418": "4.j",
    "3419": "4.jp",
    "3420": "4.jpg",
    "3421": "yper",
    "3422": "ociat",
    "3423": "ld ",
    "3424": "pub",
    "3425": "publ",
    "3426": "publi",
    "3427": "tee",
    "3428": "vere",
    "3429": "veret",
    "3430": "igu",
    "3431": "igue",
    "3432": "urit",
    "3433": "pio",
    "3434": "nym",
    "3435": "800",
    "3436": "valv",
    "3437": "valve",
    "3438": "eft",
    "3439": "zon",
    "3440": "ame ",
    "3441": "ax",
    "3442": "ther",
    "3443": "agu",
    "3444": "g.",
    "3445": "nef",
    "3446": "nefi",
    "3447": "nem",
    "3448": "Hy",
    "3449": "Hyp",
    "3450": "Hype",
    "3451": "Hyper",
    "3452": "git",
    "3453": "logy",
    "3454": "ryo",
    "3455": "ille",
    "3456": "ht",
    "3457": "ix",
    "3458": "zati",
    "3459": "howe",
    "3460": "howev",
    "3461": "unda",
    "3462": "undam",
    "3463": "eva",
    "3464": "bid",
    "3465": "Uni",
    "3466": "ndi",
    "3467": "inct",
    "3468": "count",
    "3469": "f-",
    "3470": "ileg",
    "3471": "itia",
    "3472": "X-",
    "3473": "uba",
    "3474": "venu",
    "3475": "venue",
    "3476": "y_",
    "3477": "rthe",
    "3478": "win",
    "3479": "wing",
    "3480": "cien",
    "3481": "IR",
    "3482": "IRE",
    "3483": "trie",
    "3484": "tries",
    "3485": "vemb",
    "3486": "stru",
    "3487": "struc",
    "3488": "struct",
    "3489": "pret",
    "3490": "rap",
    "3491": "raph",
    "3492": "nati",
    "3493": "natio",
    "3494": "nation",
    "3495": "roy",
    "3496": "nor",
    "3497": "nort",
    "3498": "north",
    "3499": "BM",
    "3500": "reau",
    "3501": "aim",
    "3502": "row",
    "3503": "alia",
    "3504": "M.",
    "3505": "n*",
    "3506": "rba",
    "3507": "rban",
    "3508": "Prov",
    "3509": "Provi",
    "3510": "Provin",
    "3511": "Provinc",
    "3512": "teg",
    "3513": "nt ",
    "3514": "nol",
    "3515": "nolo",
    "3516": "nolog",
    "3517": "cry",
    "3518": "cryp",
    "3519": "mov",
    "3520": "cra",
    "3521": "craf",
    "3522": "craft",
    "3523": "Li",
    "3524": "Lio",
    "3525": "Lion",
    "3526": "cus",
    "3527": "II ",
    "3528": "-d",
    "3529": "-da",
    "3530": "-day",
    "3531": "tid",
    "3532": "romed",
    "3533": "diac",
    "3534": "orga",
    "3535": "hie",
    "3536": "hiev",
    "3537": "hoo",
    "3538": "hool",
    "3539": "epe",
    "3540": "epen",
    "3541": "zil",
    "3542": "ige",
    "3543": "iger",
    "3544": "term",
    "3545": "mpt",
    "3546": "leb",
    "3547": "lebr",
    "3548": "teri",
    "3549": "teria",
    "3550": "terial",
    "3551": "El",
    "3552": "Eli",
    "3553": "Eliz",
    "3554": "Eliza",
    "3555": "Elizab",
    "3556": "Elizabe",
    "3557": "Elizabet",
    "3558": "emie",
    "3559": "emier",
    "3560": "urn",
    "3561": "scov",
    "3562": "scove",
    "3563": "scover",
    "3564": "te ",
    "3565": "ical",
    "3566": "urre",
    "3567": "urren",
    "3568": "forc",
    "3569": ")I",
    "3570": ")Im",
    "3571": ")Ima",
    "3572": ")Imag",
    "3573": "sban",
    "3574": "ulhu",
    "3575": "ales",
    "3576": "1,",
    "3577": "1, ",
    "3578": "most",
    "3579": "get",
    "3580": "geta",
    "3581": "rtr",
    "3582": "sil",
    "3583": "ddi",
    "3584": "sr",
    "3585": "sra",
    "3586": "srae",
    "3587": "che",
    "3588": "+ ",
    "3589": "/T",
    "3590": "rigin",
    "3591": "ighb",
    "3592": "libe",
    "3593": "liber",
    "3594": "var",
    "3595": "hip",
    "3596": "GM",
    "3597": "GM ",
    "3598": "lge",
    "3599": "iom",
    "3600": "int",
    "3601": "into",
    "3602": "into ",
    "3603": "eci",
    "3604": "ecis",
    "3605": "Emp",
    "3606": "Kin",
    "3607": "King",
    "3608": "lla",
    "3609": "nder",
    "3610": "ete",
    "3611": "ssue",
    "3612": "ecor",
    "3613": "ecord",
    "3614": "tema",
    "3615": "gom",
    "3616": "gome",
    "3617": "xer",
    "3618": "hou",
    "3619": "houl",
    "3620": "hould",
    "3621": "vir",
    "3622": "viro",
    "3623": "lty",
    "3624": "nos",
    "3625": "dition",
    "3626": "ili",
    "3627": "ilib",
    "3628": "ilibr",
    "3629": "ould",
    "3630": "ier",
    "3631": "2 /su",
    "3632": " --",
    "3633": "/o",
    "3634": "/or",
    "3635": "fes",
    "3636": "fest",
    "3637": "lso",
    "3638": "ysi",
    "3639": "ysis",
    "3640": "erial",
    "3641": "mat",
    "3642": "apid",
    "3643": "betw",
    "3644": "betwe",
    "3645": "nera",
    "3646": "iu",
    "3647": "ium",
    "3648": "erms ",
    "3649": "erms o",
    "3650": "erms of",
    "3651": "erms of ",
    "3652": "mith",
    "3653": "eti",
    "3654": "isti",
    "3655": "istic",
    "3656": "bsp",
    "3657": "ego",
    "3658": "egor",
    "3659": "grap",
    "3660": "graph",
    "3661": "cara",
    "3662": "carat",
    "3663": "ary ",
    "3664": "gred",
    "3665": "gni",
    "3666": "hw",
    "3667": "lide",
    "3668": "per",
    "3669": "pera",
    "3670": "9 ",
    "3671": "hin",
    "3672": "min",
    "3673": "mine",
    "3674": "minen",
    "3675": "tie",
    "3676": "ule",
    "3677": "day",
    "3678": "cul",
    "3679": "tak",
    "3680": "Ne",
    "3681": "New",
    "3682": "end ",
    "3683": "end o",
    "3684": "end of",
    "3685": "end of ",
    "3686": "enda",
    "3687": "endar",
    "3688": "famo",
    "3689": "famou",
    "3690": "arm",
    "3691": "me Mi",
    "3692": "cit",
    "3693": "group",
    "3694": "groups",
    "3695": "BD",
    "3696": "BDS",
    "3697": "ibe",
    "3698": "iber",
    "3699": "ena",
    "3700": "ddh",
    "3701": "Im",
    "3702": "Ima",
    "3703": "Imag",
    "3704": "leu",
    "3705": "leum",
    "3706": "cin",
    "3707": "nha",
    "3708": "nhar",
    "3709": "itie",
    "3710": "ities",
    "3711": "mosp",
    "3712": "/t",
    "3713": "/td",
    "3714": "pol",
    "3715": "re ",
    "3716": "ibb",
    "3717": "ibbe",
    "3718": "ibbea",
    "3719": "geth",
    "3720": "eriv",
    "3721": "pan",
    "3722": "eap",
    "3723": "eapo",
    "3724": "eapon",
    "3725": "Wal",
    "3726": "Wale",
    "3727": "Wales",
    "3728": "dio",
    "3729": "diox",
    "3730": "ubli",
    "3731": "ball",
    "3732": "uti",
    "3733": "utio",
    "3734": "ution",
    "3735": "esi",
    "3736": "esid",
    "3737": "eside",
    "3738": "esiden",
    "3739": "0,",
    "3740": "0, ",
    "3741": "tei",
    "3742": "tein",
    "3743": "rna",
    "3744": "eb.",
    "3745": "ttp",
    "3746": "erti",
    "3747": "ertis",
    "3748": "DE",
    "3749": "Ep",
    "3750": "Epi",
    "3751": "rty",
    "3752": "rty ",
    "3753": "ower",
    "3754": " r",
    "3755": " ri",
    "3756": "real",
    "3757": "f(",
    "3758": "f(x",
    "3759": "T ",
    "3760": "bed",
    "3761": "Joh",
    "3762": "John",
    "3763": "Cha",
    "3764": "Char",
    "3765": "Charl",
    "3766": "pecia",
    "3767": "pecial",
    "3768": "Gene",
    "3769": "Genev",
    "3770": "toc",
    "3771": "toco",
    "3772": "tocol",
    "3773": "vis",
    "3774": "visi",
    "3775": "visio",
    "3776": "vision",
    "3777": "ymb",
    "3778": "ymbo",
    "3779": "ymbol",
    "3780": "Ar",
    "3781": "Ari",
    "3782": "mose",
    "3783": "mosex",
    "3784": "ndan",
    "3785": "km",
    "3786": "km ",
    "3787": "ip",
    "3788": "rme",
    "3789": "rmed",
    "3790": "ola",
    "3791": "olat",
    "3792": "his ",
    "3793": "Hu",
    "3794": "Huf",
    "3795": "Huff",
    "3796": "Huffm",
    "3797": "Huffma",
    "3798": "sider",
    "3799": "Na",
    "3800": "nter",
    "3801": "add",
    "3802": "addr",
    "3803": "addre",
    "3804": "addres",
    "3805": "address",
    "3806": "Jew",
    "3807": "fed",
    "3808": "fede",
    "3809": "feder",
    "3810": "ght",
    "3811": "ral",
    "3812": "oba",
    "3813": "obal",
    "3814": "icti",
    "3815": "umm",
    "3816": "ifo",
    "3817": "ifor",
    "3818": "iforn",
    "3819": "yss",
    "3820": "ody",
    "3821": "hio",
    "3822": "omina",
    "3823": "nut",
    "3824": "nute",
    "3825": "itor",
    "3826": "hn",
    "3827": "ligi",
    "3828": "ligio",
    "3829": "uz",
    "3830": "uze",
    "3831": "rad",
    "3832": "ford",
    "3833": "xf",
    "3834": "xfo",
    "3835": "xfor",
    "3836": "xford",
    "3837": "astl",
    "3838": "astle",
    "3839": "Gra",
    "3840": "Gran",
    "3841": "Grand",
    "3842": "land",
    "3843": "sq",
    "3844": "squ",
    "3845": "cati",
    "3846": "one ",
    "3847": "*J",
    "3848": "*Jo",
    "3849": "*Joh",
    "3850": "*John",
    "3851": "ite ",
    "3852": "2:",
    "3853": "ps",
    "3854": "lip",
    "3855": "etit",
    "3856": "rrec",
    "3857": "rrect",
    "3858": "y-",
    "3859": "thl",
    "3860": "thle",
    "3861": "thlet",
    "3862": "amp",
    "3863": "ampl",
    "3864": "liss",
    "3865": "n ",
    "3866": "eig",
    "3867": " for ",
    "3868": "yon",
    "3869": "rnat",
    "3870": "agn",
    "3871": "rst",
    "3872": "tin",
    "3873": "vers",
    "3874": "cro",
    "3875": "oft",
    "3876": "rial",
    "3877": "ideo",
    "3878": "dm",
    "3879": "dme",
    "3880": "dmen",
    "3881": "dment",
    "3882": "ider",
    "3883": "dor",
    "3884": "rya",
    "3885": "M ",
    "3886": "un ",
    "3887": "iati",
    "3888": "iatio",
    "3889": "iation",
    "3890": "tp",
    "3891": "Oh",
    "3892": "Ohr",
    "3893": "ship",
    "3894": "Afr",
    "3895": "Afri",
    "3896": "ddin",
    "3897": "dding",
    "3898": "ay ",
    "3899": "inio",
    "3900": "inion",
    "3901": "ce ",
    "3902": " as ",
    "3903": "U ",
    "3904": "7t",
    "3905": "7th",
    "3906": "sib",
    "3907": "x)",
    "3908": "x) ",
    "3909": "0.",
    "3910": "bert",
    "3911": "aps",
    "3912": "t o",
    "3913": "t of",
    "3914": "t of ",
    "3915": "dh",
    "3916": "ersia",
    "3917": "cav",
    "3918": "n,",
    "3919": "n, ",
    "3920": "sy ",
    "3921": "x}",
    "3922": "earch",
    "3923": "onth",
    "3924": "yloa",
    "3925": "yload",
    "3926": " s",
    "3927": " su",
    "3928": "rci",
    "3929": "rcis",
    "3930": "bat",
    "3931": "illi",
    "3932": "illia",
    "3933": "illiam",
    "3934": "ulg",
    "3935": "ulga",
    "3936": "ulgar",
    "3937": "otr",
    "3938": "otro",
    "3939": "gun",
    "3940": "eren",
    "3941": "S.",
    "3942": "rta",
    "3943": "rtai",
    "3944": "e t",
    "3945": "llel",
    "3946": "6)",
    "3947": "nly ",
    "3948": "ppo",
    "3949": "mate",
    "3950": "cono",
    "3951": "ges",
    "3952": "ess",
    "3953": "play",
    "3954": "C)*",
    "3955": "chem",
    "3956": "adel",
    "3957": "ngs",
    "3958": "nad",
    "3959": "olv",
    "3960": "olve",
    "3961": "olved",
    "3962": "scu",
    "3963": "scus",
    "3964": "mme",
    "3965": "mmen",
    "3966": "mmend",
    "3967": "):",
    "3968": "kel",
    "3969": "sia",
    "3970": "ssia",
    "3971": "eni",
    "3972": "enia",
    "3973": "sol",
    "3974": "nse",
    "3975": "Germ",
    "3976": "Germa",
    "3977": "Z-D",
    "3978": "Z-DN",
    "3979": "Z-DNA",
    "3980": "olly",
    "3981": "nic",
    "3982": "yer",
    "3983": "scr",
    "3984": "nsu",
    "3985": "York",
    "3986": "rem",
    "3987": "be ",
    "3988": "ism",
    "3989": "duce",
    "3990": "BC",
    "3991": "t)",
    "3992": "ege",
    "3993": "eget",
    "3994": "egeta",
    "3995": "etwe",
    "3996": "but ",
    "3997": "yd",
    "3998": "ydr",
    "3999": "ds ",
    "4000": "rmin",
    "4001": "eh",
    "4002": "TO",
    "4003": "Fai",
    "4004": "Fair",
    "4005": "eel",
    "4006": "eor",
    "4007": "ach",
    "4008": "cog",
    "4009": "cogn",
    "4010": "7;",
    "4011": "ti-",
    "4012": "ady",
    "4013": "DIV",
    "4014": "ivid",
    "4015": "ividu",
    "4016": "scop",
    "4017": "DIV ",
    "4018": "son",
    "4019": "hat ",
    "4020": "press",
    "4021": "ugus",
    "4022": "ugust",
    "4023": "ll ",
    "4024": "p y",
    "4025": "p ye",
    "4026": "p yea",
    "4027": "p year",
    "4028": "izen",
    "4029": "cio",
    "4030": "ciou",
    "4031": "asq",
    "4032": "asqu",
    "4033": "LP",
    "4034": "Qa",
    "4035": "nded",
    "4036": "UN",
    "4037": "e= ",
    "4038": " cen",
    "4039": "5t",
    "4040": "5th",
    "4041": "ovem",
    "4042": "ovemb",
    "4043": "by ",
    "4044": "aliy",
    "4045": "aliya",
    "4046": "Bed",
    "4047": "ny ",
    "4048": "f ",
    "4049": "lgae",
    "4050": "bast",
    "4051": "aic",
    "4052": "mb ",
    "4053": "denc",
    "4054": "oct",
    "4055": "octo",
    "4056": "octor",
    "4057": "gy",
    "4058": "gyp",
    "4059": "gypt",
    "4060": "lve",
    "4061": "*P",
    "4062": "nua",
    "4063": "nual",
    "4064": "mar",
    "4065": "mari",
    "4066": "maril",
    "4067": "eol",
    "4068": "eolo",
    "4069": "kem",
    "4070": "the ",
    "4071": "mbr",
    "4072": "mbro",
    "4073": "mbroi",
    "4074": "mbroid",
    "4075": "stin",
    "4076": "cri",
    "4077": "fess",
    "4078": "gent",
    "4079": "dina",
    "4080": "dinan",
    "4081": "fec",
    "4082": "fect",
    "4083": "its",
    "4084": "its ",
    "4085": "owel",
    "4086": "lik",
    "4087": "like",
    "4088": "ife",
    "4089": "lif",
    "4090": "lifo",
    "4091": "lifor",
    "4092": "liforn",
    "4093": "eta",
    "4094": "etal",
    "4095": "zer",
    "4096": "chw",
    "4097": "ya",
    "4098": "ronu",
    "4099": "ronun",
    "4100": "ronunc",
    "4101": "embe",
    "4102": "ember",
    "4103": "cces",
    "4104": "ccess",
    "4105": "nea",
    "4106": "tol",
    "4107": "tole",
    "4108": "tolem",
    "4109": "xed ",
    "4110": "was",
    "4111": " Am",
    "4112": " Ame",
    "4113": "tly",
    "4114": "ston",
    "4115": "stone",
    "4116": "ood",
    "4117": "ses",
    "4118": "posed",
    "4119": "rum",
    "4120": "Mar",
    "4121": "Marl",
    "4122": "Marlo",
    "4123": "ines",
    "4124": "iness",
    "4125": "yal",
    "4126": "ctob",
    "4127": "eak",
    "4128": "pani",
    "4129": "amm",
    "4130": "amma",
    "4131": "Sep",
    "4132": "Sept",
    "4133": "fini",
    "4134": "finit",
    "4135": "finiti",
    "4136": "ndash",
    "4137": "aut",
    "4138": " /tt",
    "4139": "sily",
    "4140": "Pri",
    "4141": "Prix",
    "4142": "ilit",
    "4143": "rpos",
    "4144": "rpose",
    "4145": "fer",
    "4146": "b ",
    "4147": "7,",
    "4148": "7, ",
    "4149": "ough",
    "4150": "haps",
    "4151": "Geneva",
    "4152": "Ev",
    "4153": "Eve",
    "4154": "Ire",
    "4155": "Irel",
    "4156": "Irela",
    "4157": "hoc",
    "4158": "hock",
    "4159": "ject",
    "4160": "rly ",
    "4161": "cor",
    "4162": "at ",
    "4163": "s /",
    "4164": "s /t",
    "4165": "east",
    "4166": "uil",
    "4167": "ama",
    "4168": "amai",
    "4169": "amaic",
    "4170": "ante",
    "4171": "anted",
    "4172": "Hus",
    "4173": "mpa",
    "4174": "tra",
    "4175": "hicl",
    "4176": "emp",
    "4177": "empt",
    "4178": "vat",
    "4179": "-f",
    "4180": "-fl",
    "4181": "num",
    "4182": "artic",
    "4183": "red",
    "4184": "red ",
    "4185": "h.",
    "4186": "h.D",
    "4187": "sess",
    "4188": "99",
    "4189": "ause",
    "4190": "lk",
    "4191": "chi",
    "4192": "chin",
    "4193": "dera",
    "4194": "n'",
    "4195": "n't",
    "4196": "500",
    "4197": "ch a",
    "4198": "ch as",
    "4199": "sted",
    "4200": "nuar",
    "4201": "Hyd",
    "4202": "Hydr",
    "4203": "math",
    "4204": "nst",
    "4205": "own",
    "4206": "nnib",
    "4207": "head",
    "4208": "xpr",
    "4209": "xpre",
    "4210": "opu",
    "4211": "opul",
    "4212": "cate",
    "4213": "cated",
    "4214": "ench",
    "4215": "ledg",
    "4216": "umer",
    "4217": "usim",
    "4218": "usima",
    "4219": "200",
    "4220": "then",
    "4221": "was ",
    "4222": "uisi",
    "4223": "uisin",
    "4224": "die",
    "4225": "diet",
    "4226": "ndo",
    "4227": "ndon",
    "4228": "dis",
    "4229": "disk",
    "4230": "itt",
    "4231": "itts",
    "4232": "ittsb",
    "4233": "Dut",
    "4234": "Dutc",
    "4235": "Dutch",
    "4236": "ustr",
    "4237": "ralt",
    "4238": "r,",
    "4239": "r, ",
    "4240": "ees",
    "4241": "sea",
    "4242": "sear",
    "4243": "searc",
    "4244": "lie",
    "4245": "pto",
    "4246": ") -",
    "4247": "rmal",
    "4248": "mbi",
    "4249": "Dal",
    "4250": "Dale",
    "4251": "Dalek",
    "4252": "read",
    "4253": "cov",
    "4254": "cove",
    "4255": "cover",
    "4256": "osed",
    "4257": "6)*",
    "4258": "tage",
    "4259": "hydr",
    "4260": "ole",
    "4261": "olet",
    "4262": "ibr",
    "4263": "ibra",
    "4264": "ibral",
    "4265": "gic",
    "4266": "oxi",
    "4267": "oxid",
    "4268": "Cos",
    "4269": "Cost",
    "4270": "fere",
    "4271": "feren",
    "4272": "r.",
    "4273": "r. ",
    "4274": "Afric",
    "4275": "Africa",
    "4276": "ged",
    "4277": "yond",
    "4278": "omen",
    "4279": "inis",
    "4280": "inist",
    "4281": "arch",
    "4282": "S ",
    "4283": "nox",
    "4284": "mas",
    "4285": "oot",
    "4286": "ootb",
    "4287": "ootba",
    "4288": "ootbal",
    "4289": "ok ",
    "4290": "nnin",
    "4291": "nning",
    "4292": "ff",
    "4293": "ffi",
    "4294": "time",
    "4295": "agg",
    "4296": "agga",
    "4297": "aggar",
    "4298": "mous",
    "4299": "De",
    "4300": "euw",
    "4301": "euwa",
    "4302": "euwar",
    "4303": "euward",
    "4304": "kil",
    "4305": "kill",
    "4306": "oups",
    "4307": "ommo",
    "4308": "ommon",
    "4309": "arge",
    "4310": "hil",
    "4311": "pen",
    "4312": "inin",
    "4313": "actl",
    "4314": "actly",
    "4315": "deq",
    "4316": "dequ",
    "4317": ",000",
    "4318": "ong",
    "4319": "cue",
    "4320": "arv",
    "4321": "arve",
    "4322": "arvel",
    "4323": "ji",
    "4324": "Ary",
    "4325": "Arya",
    "4326": "lear",
    "4327": "urf",
    "4328": "urfa",
    "4329": "urfac",
    "4330": "l ",
    "4331": "py",
    "4332": "rew",
    "4333": "ationa",
    "4334": "orn",
    "4335": "sub",
    "4336": "rve",
    "4337": "ired",
    "4338": "eno",
    "4339": "enom",
    "4340": "enome",
    "4341": "enomen",
    "4342": "icia",
    "4343": "3)",
    "4344": "S)",
    "4345": "roup",
    "4346": "Frenc",
    "4347": "French",
    "4348": "h'",
    "4349": "ME",
    "4350": "twe",
    "4351": "Univ",
    "4352": "Unive",
    "4353": "Univer",
    "4354": "Univers",
    "4355": "eatu",
    "4356": "eatur",
    "4357": "oly",
    "4358": "oly ",
    "4359": "tive Ame",
    "4360": "tive Americ",
    "4361": "Defo",
    "4362": "nie ",
    "4363": "Migue",
    "4364": "hess",
    "4365": "3 /tdtd ",
    "4366": "erred ",
    "4367": "erred to",
    "4368": "rtation",
    "4369": "usua",
    "4370": "sibly ",
    "4371": "object",
    "4372": "ematic",
    "4373": "Upto",
    "4374": "Uptown",
    "4375": "on's ",
    "4376": "milit",
    "4377": "military ",
    "4378": "opposed",
    "4379": "opposed to ",
    "4380": "ut of ",
    "4381": " time",
    "4382": "emain ",
    "4383": " success",
    "4384": "Bulgar",
    "4385": "ened ",
    "4386": "riend",
    "4387": "turbat",
    "4388": "college",
    "4389": "et /td",
    "4390": "knock",
    "4391": "tack",
    "4392": "llax",
    "4393": "nglo-",
    "4394": " Civi",
    "4395": " Civil ",
    "4396": "crosoft",
    "4397": "a**",
    "4398": "cardina",
    "4399": "Clin",
    "4400": "Clinton",
    "4401": "ble to",
    "4402": "fender",
    "4403": "so, ",
    "4404": "hilip",
    "4405": "hilippi",
    "4406": "movemen",
    "4407": "movement ",
    "4408": "ravel",
    "4409": " now ",
    "4410": "Stree",
    "4411": "Street ",
    "4412": "centage",
    "4413": "vasion",
    "4414": "Hill",
    "4415": "Hill's ",
    "4416": "Some",
    "4417": "mineral",
    "4418": " develop",
    "4419": "petro",
    "4420": "petroleum",
    "4421": "ygens",
    "4422": "Cinci",
    "4423": "Cincinn",
    "4424": "simpl",
    "4425": "simply ",
    "4426": " Ho",
    "4427": " Hong ",
    "4428": " Hong K",
    "4429": " Hong Kong",
    "4430": "battle",
    "4431": "morph",
    "4432": "rcoti",
    "4433": "played ",
    "4434": "played by ",
    "4435": "draw",
    "4436": "nds ",
    "4437": "cientis",
    "4438": "elled ",
    "4439": "prime ",
    "4440": "prime min",
    "4441": "prime minist",
    "4442": "inox",
    "4443": "k**",
    "4444": "sive ",
    "4445": "hoj",
    "4446": "tely ",
    "4447": " from ",
    "4448": "New ",
    "4449": "vier ",
    "4450": "eceived",
    "4451": "Series",
    "4452": "vented ",
    "4453": "Hori",
    "4454": "Horizon",
    "4455": "memor",
    "4456": "ritique",
    "4457": "backed",
    "4458": "vous ",
    "4459": "ven, ",
    "4460": "state ",
    "4461": "activi",
    "4462": "sumpt",
    "4463": "sumption",
    "4464": "ithic ",
    "4465": "anings",
    "4466": "Otto",
    "4467": "Ottoma",
    "4468": "Wide",
    "4469": "ducers",
    "4470": "ducers) ",
    "4471": "bag",
    "4472": "bagpi",
    "4473": "Cla",
    "4474": "Claud",
    "4475": "ichard",
    "4476": "tion of",
    "4477": "heodor",
    "4478": "migra",
    "4479": "Engine",
    "4480": "okala",
    "4481": " ent",
    "4482": " entry ",
    "4483": "cousco",
    "4484": "emingl",
    "4485": "emingly ",
    "4486": "nection",
    "4487": "idify",
    "4488": "umbrel",
    "4489": "umbrella",
    "4490": "parent",
    "4491": "as well",
    "4492": "as well as ",
    "4493": "nated ",
    "4494": "cetime",
    "4495": "copy",
    "4496": "ape ",
    "4497": "ape Ve",
    "4498": "ape Verde",
    "4499": "ising ",
    "4500": "sqrt",
    "4501": "rce ",
    "4502": "muel ",
    "4503": "ently ",
    "4504": "ed, ",
    "4505": "mered ",
    "4506": "inistrat",
    "4507": "athrow",
    "4508": "2) - ",
    "4509": "Chest",
    "4510": "readily",
    "4511": "sertin",
    "4512": "serting ",
    "4513": "t other",
    "4514": "elated",
    "4515": "lected ",
    "4516": "partment",
    "4517": "ve) ",
    "4518": "vels ",
    "4519": " sing",
    "4520": " singer",
    "4521": "xford ",
    "4522": "xford Engl",
    "4523": "xford English",
    "4524": "effect",
    "4525": "effective",
    "4526": "vulgar",
    "4527": "Bus",
    "4528": "nying",
    "4529": "templa",
    "4530": "template ",
    "4531": "Inc",
    "4532": "Prime Mi",
    "4533": "Prime Minist",
    "4534": "otanist",
    "4535": " level",
    "4536": "ecked",
    "4537": "short",
    "4538": "forcemen",
    "4539": "nected ",
    "4540": "aribb",
    "4541": "aribbean",
    "4542": "cheste",
    "4543": " /td",
    "4544": " suggest",
    "4545": " suggested ",
    "4546": "cheaper",
    "4547": "ord ",
    "4548": "eding ",
    "4549": "depen",
    "4550": "abinet",
    "4551": "carry ",
    "4552": "parallel",
    "4553": "infinit",
    "4554": "lost ",
    "4555": "Dece",
    "4556": "December",
    "4557": "Eich",
    "4558": "Eichma",
    "4559": "Eichmann",
    "4560": "anod",
    "4561": "usli",
    "4562": "that of ",
    "4563": "pared ",
    "4564": "died ",
    "4565": "scape",
    "4566": "t --",
    "4567": "ativel",
    "4568": "atively ",
    "4569": "refer",
    "4570": "tlement",
    "4571": "natura",
    "4572": "natural ",
    "4573": " numbe",
    "4574": " number of ",
    "4575": "Beng",
    "4576": "intrin",
    "4577": "intrinsic",
    "4578": "tempt",
    "4579": "camera",
    "4580": "rung ",
    "4581": "El C",
    "4582": "quart",
    "4583": "epres",
    "4584": "oding",
    "4585": "institu",
    "4586": "institution",
    "4587": "name ",
    "4588": "thus ",
    "4589": "extrem",
    "4590": "extremely",
    "4591": "Galile",
    "4592": "should",
    "4593": " hand",
    "4594": "mpionship",
    "4595": "division",
    "4596": "igital",
    "4597": "desig",
    "4598": "designed ",
    "4599": "Nazi",
    "4600": "reover",
    "4601": "twice",
    "4602": "Centra",
    "4603": "Central ",
    "4604": "the wo",
    "4605": "the worl",
    "4606": "b, ",
    "4607": "dedicat",
    "4608": "claim",
    "4609": "claimed ",
    "4610": "ntoine",
    "4611": "mation",
    "4612": "met ",
    "4613": "Mets",
    "4614": "Mets' ",
    "4615": "1, 19",
    "4616": "mounted",
    "4617": "ademy ",
    "4618": "paration",
    "4619": "Pier",
    "4620": "Poe",
    "4621": "extensi",
    "4622": "e offic",
    "4623": "cestor",
    "4624": " be ",
    "4625": "brow",
    "4626": "browser",
    "4627": "thernet",
    "4628": "village",
    "4629": "oxyg",
    "4630": "guitar",
    "4631": "execut",
    "4632": "many ",
    "4633": "establi",
    "4634": "establish",
    "4635": "return",
    "4636": "returned ",
    "4637": "May ",
    "4638": "end to",
    "4639": "synta",
    "4640": "syntax",
    "4641": "lting ",
    "4642": " data",
    "4643": "ntax",
    "4644": "re of ",
    "4645": "econom",
    "4646": "ates ",
    "4647": "at Brit",
    "4648": "dership",
    "4649": "documen",
    "4650": "documentar",
    "4651": "associa",
    "4652": "associated",
    "4653": "nesian",
    "4654": "Both",
    "4655": "Bothni",
    "4656": "emained",
    "4657": "specific",
    "4658": "neficia",
    "4659": "ddress",
    "4660": "tled ",
    "4661": "mistry",
    "4662": "hamber",
    "4663": "Play",
    "4664": "hydrog",
    "4665": "economi",
    "4666": "economic ",
    "4667": "imple ",
    "4668": "MA",
    "4669": "8*19",
    "4670": "Galli",
    "4671": "Gallium",
    "4672": "wly ",
    "4673": "wife",
    "4674": "comma",
    "4675": "avai",
    "4676": "availab",
    "4677": "Board",
    "4678": "binary ",
    "4679": "character",
    "4680": "irical",
    "4681": "poration",
    "4682": "Georg",
    "4683": "rter of ",
    "4684": "ecome ",
    "4685": "Sina",
    "4686": "Sinatra",
    "4687": "ditional ",
    "4688": "going",
    "4689": "l's ",
    "4690": "ttoma",
    "4691": "ts, ",
    "4692": "Niet",
    "4693": "entire",
    "4694": "llowed ",
    "4695": "uteur",
    "4696": "uted ",
    "4697": "typic",
    "4698": "typically",
    "4699": "xygen",
    "4700": "footbal",
    "4701": "tt, ",
    "4702": "uthor (b. ",
    "4703": "uthor (b. 19",
    "4704": "atment",
    "4705": "eople's ",
    "4706": "ending",
    "4707": "certai",
    "4708": "certain ",
    "4709": "gods ",
    "4710": "water",
    "4711": "molecu",
    "4712": "hyper",
    "4713": "i /mat",
    "4714": "i /math ",
    "4715": "congre",
    "4716": "congregat",
    "4717": "congregation",
    "4718": "Wittg",
    "4719": "Wittgens",
    "4720": "Wittgenstein",
    "4721": "Johnson",
    "4722": "gocy",
    "4723": "proach",
    "4724": "ismiss",
    "4725": "sni",
    "4726": "thua",
    "4727": "financ",
    "4728": "brothe",
    "4729": "channel",
    "4730": "Finland",
    "4731": "(born",
    "4732": "varie",
    "4733": "variety ",
    "4734": "variety of ",
    "4735": "t, ",
    "4736": "tling",
    "4737": "Rohr",
    "4738": "AL",
    "4739": "ALI",
    "4740": "ALIG",
    "4741": "ythonic",
    "4742": "rection",
    "4743": "polic",
    "4744": "dminist",
    "4745": "dministrat",
    "4746": "contra",
    "4747": "contrast",
    "4748": "contrast, ",
    "4749": "North",
    "4750": "North Ame",
    "4751": "North Americ",
    "4752": "eristic",
    "4753": "bbes ",
    "4754": "iefl",
    "4755": "iefly ",
    "4756": "cember",
    "4757": "Govern",
    "4758": "Government",
    "4759": "n diox",
    "4760": "n dioxide",
    "4761": "ndura",
    "4762": "ociation",
    "4763": "anada",
    "4764": "co-",
    "4765": "young ",
    "4766": "pictur",
    "4767": "arrive",
    "4768": "Fonta",
    "4769": "TM ",
    "4770": "arbit",
    "4771": "arbitrar",
    "4772": "ve year",
    "4773": "export",
    "4774": "y to",
    "4775": "ifferen",
    "4776": "mean",
    "4777": "means ",
    "4778": "Jav",
    "4779": "rsue",
    "4780": "rsued ",
    "4781": "veloped ",
    "4782": "this ",
    "4783": "withdr",
    "4784": "withdrawa",
    "4785": "lateau",
    "4786": "nd, ",
    "4787": "chemist",
    "4788": "primaril",
    "4789": "primarily ",
    "4790": "ognit",
    "4791": "ognition",
    "4792": "indu",
    "4793": "industr",
    "4794": "ue to",
    "4795": "hobi",
    "4796": "hobic ",
    "4797": "is that ",
    "4798": "glyp",
    "4799": "rapid",
    "4800": "ccount",
    "4801": "soon ",
    "4802": "s out ",
    "4803": "s out that ",
    "4804": "rovement",
    "4805": "sequent ",
    "4806": "United",
    "4807": "United ",
    "4808": "stion ",
    "4809": "mped ",
    "4810": "when ",
    "4811": "egba",
    "4812": "varph",
    "4813": "coming",
    "4814": "vich ",
    "4815": "ried to ",
    "4816": "s of Ameri",
    "4817": "trivi",
    "4818": "trivial ",
    "4819": "ypical",
    "4820": "ypically ",
    "4821": "platea",
    "4822": "comet",
    "4823": "tty ",
    "4824": "wai",
    "4825": "movies",
    "4826": "Gaff",
    "4827": "xican",
    "4828": "rse ",
    "4829": "xampl",
    "4830": "fused ",
    "4831": "fused with",
    "4832": "7 ||",
    "4833": "downto",
    "4834": "downtown",
    "4835": "os Ang",
    "4836": "os Angele",
    "4837": "in, ",
    "4838": "tinguis",
    "4839": "e as ",
    "4840": "milar",
    "4841": "bankru",
    "4842": "bankrupt",
    "4843": "prezi",
    "4844": "quire",
    "4845": "ddenly ",
    "4846": "u'",
    "4847": "dinbu",
    "4848": "dinburg",
    "4849": "ing that",
    "4850": "East A",
    "4851": "East Asia",
    "4852": "three ",
    "4853": "mode",
    "4854": "ODE",
    "4855": "ODEC",
    "4856": "sport",
    "4857": "k, ",
    "4858": "of the",
    "4859": "olid",
    "4860": " such as",
    "4861": "surround",
    "4862": "ategor",
    "4863": "is, ",
    "4864": "quali",
    "4865": "matic ",
    "4866": "as, ",
    "4867": "herent",
    "4868": "Kim ",
    "4869": " church",
    "4870": "granit",
    "4871": "ne of ",
    "4872": "4)*200",
    "4873": "peration",
    "4874": "Ironic",
    "4875": "Ironically",
    "4876": "m he ",
    "4877": "self-",
    "4878": "nt /td",
    "4879": "nt /tdtd ",
    "4880": "heavily",
    "4881": "conomic",
    "4882": "referen",
    "4883": "eceive",
    "4884": "5 ||",
    "4885": "orrow",
    "4886": "UC",
    "4887": "UCP",
    "4888": "October",
    "4889": "TV, ",
    "4890": "-size",
    "4891": "lugu",
    "4892": "Paul",
    "4893": "HM",
    "4894": ") /cent",
    "4895": ") /center",
    "4896": "catche",
    "4897": "placed ",
    "4898": "willing",
    "4899": "willing to ",
    "4900": "mission",
    "4901": "legis",
    "4902": "legislat",
    "4903": " of I",
    "4904": " of Indi",
    "4905": "a R",
    "4906": "a Rica",
    "4907": "omor",
    "4908": "omorrow",
    "4909": "xic ",
    "4910": "cise ",
    "4911": "lentin",
    "4912": "kish",
    "4913": "OE",
    "4914": "ering ",
    "4915": "rby ",
    "4916": "20, ",
    "4917": "3 Eur",
    "4918": "3 Euroc",
    "4919": "peal ",
    "4920": "on and ",
    "4921": " through",
    "4922": "sequent",
    "4923": "sequently ",
    "4924": "dest ",
    "4925": "Fellow",
    "4926": "Fellowship",
    "4927": "rwell",
    "4928": "sence ",
    "4929": "sence of ",
    "4930": "budge",
    "4931": "popto",
    "4932": "n's ",
    "4933": "either",
    "4934": "ress (b. ",
    "4935": "ress (b. 19",
    "4936": "en, ",
    "4937": "at, ",
    "4938": "7, 19",
    "4939": "makin",
    "4940": "making ",
    "4941": "notable ",
    "4942": "h and ",
    "4943": "flage",
    "4944": "back ",
    "4945": "high",
    "4946": "Riga",
    "4947": "ss --",
    "4948": "her tha",
    "4949": "her than ",
    "4950": "ication",
    "4951": "wise}",
    "4952": "reate ",
    "4953": "emn ",
    "4954": "Celtic",
    "4955": "dence ",
    "4956": "nadian",
    "4957": "ectua",
    "4958": "ary*",
    "4959": "-Arya",
    "4960": "ternationa",
    "4961": "ternational ",
    "4962": "exation",
    "4963": "ouble ",
    "4964": "-le",
    "4965": "-left",
    "4966": "longitud",
    "4967": " AL",
    "4968": " ALI",
    "4969": " ALIG",
    "4970": " ALIGN",
    "4971": " ALIGN=",
    "4972": " ALIGN=cent",
    "4973": "8th ",
    "4974": "acons",
    "4975": "patri",
    "4976": "only ",
    "4977": "80)*19",
    "4978": "holida",
    "4979": "scopic ",
    "4980": "fill ",
    "4981": "enable ",
    "4982": "Muse",
    "4983": "Museum",
    "4984": "4 ndash",
    "4985": "Democra",
    "4986": "sages",
    "4987": "urned ",
    "4988": "tify",
    "4989": "select",
    "4990": "selected ",
    "4991": " the ",
    "4992": "exander",
    "4993": "garded ",
    "4994": "egrat",
    "4995": "scene",
    "4996": "horizon",
    "4997": "Color ",
    "4998": "Color tem",
    "4999": "Color tempera",
    "5000": "Color temperatur",
    "5001": "ITV ",
    "5002": "named",
    "5003": "held ",
    "5004": "A /td",
    "5005": "A /tdtd ",
    "5006": "terms of ",
    "5007": "Left",
    "5008": " Americ",
    "5009": "ations ",
    "5010": "lihoo",
    "5011": "pression",
    "5012": "tgens",
    "5013": "tgenstein",
    "5014": "House of ",
    "5015": "Inside",
    "5016": " in ",
    "5017": "ernal ",
    "5018": "ell's ",
    "5019": "recover",
    "5020": "progra",
    "5021": "programm",
    "5022": "programming",
    "5023": "a*19",
    "5024": "owell ",
    "5025": "c of ",
    "5026": "cendan",
    "5027": "uched ",
    "5028": "psych",
    "5029": "iveness",
    "5030": "artific",
    "5031": "artificia",
    "5032": "carbo",
    "5033": "turday",
    "5034": "Lou",
    "5035": "nizati",
    "5036": "apanes",
    "5037": "Econo",
    "5038": "Economic",
    "5039": "Freedo",
    "5040": "Freedom ",
    "5041": "Chinese",
    "5042": "th, ",
    "5043": "begin",
    "5044": "beginning",
    "5045": "nd -",
    "5046": "SL ",
    "5047": "while ",
    "5048": "ational ",
    "5049": "useum",
    "5050": "*A",
    "5051": "station",
    "5052": "nzer",
    "5053": "en to",
    "5054": "fely ",
    "5055": "nmark",
    "5056": "little",
    "5057": "rix",
    "5058": "denied ",
    "5059": "party ",
    "5060": "pied ",
    "5061": "ivoca",
    "5062": "spacin",
    "5063": "spacing",
    "5064": "Ball",
    "5065": "Ballpar",
    "5066": "ited ",
    "5067": "etoa",
    "5068": "various",
    "5069": "ce act",
    "5070": "restri",
    "5071": " alp",
    "5072": " alpha",
    "5073": "/div",
    "5074": "purpose",
    "5075": "plura",
    "5076": "50% ",
    "5077": "loss",
    "5078": "ounsel",
    "5079": "group of",
    "5080": "always",
    "5081": "Cambridg",
    "5082": "eated ",
    "5083": "sthe",
    "5084": "an-",
    "5085": "collect",
    "5086": "collection",
    "5087": "collection of",
    "5088": " record",
    "5089": "frastruct",
    "5090": "frastructure",
    "5091": "recent",
    "5092": "urth ",
    "5093": "urth Ha",
    "5094": "urth Haw",
    "5095": "Guard",
    "5096": "Much ",
    "5097": "Much of ",
    "5098": "being",
    "5099": "laps",
    "5100": "ide of",
    "5101": "theme ",
    "5102": "d, ",
    "5103": "eteen ",
    "5104": "ICOM",
    "5105": "nowik",
    "5106": "Ford ",
    "5107": "l'",
    "5108": ")*200",
    "5109": "cultur",
    "5110": "lighted ",
    "5111": "gave ",
    "5112": "mited ",
    "5113": " speed",
    "5114": "yoff",
    "5115": "answer",
    "5116": "derived ",
    "5117": "derived from ",
    "5118": "angelical",
    "5119": "erences",
    "5120": "record",
    "5121": "Breast",
    "5122": "dify",
    "5123": "mitted",
    "5124": "reless",
    "5125": "lanza",
    "5126": "lanzapi",
    "5127": "went ",
    "5128": "forcing",
    "5129": "ief ",
    "5130": "HT",
    "5131": "element",
    "5132": "cuttin",
    "5133": "cutting ",
    "5134": "pines",
    "5135": "respo",
    "5136": "included ",
    "5137": "ington",
    "5138": "oncept",
    "5139": "ocumen",
    "5140": "llud",
    "5141": "clock",
    "5142": "inform",
    "5143": "exua",
    "5144": "ileps",
    "5145": "end, ",
    "5146": "ehin",
    "5147": "ortug",
    "5148": "pectati",
    "5149": "pectations",
    "5150": "Apo",
    "5151": "Apopto",
    "5152": "city ",
    "5153": "stant ",
    "5154": "ntiag",
    "5155": "Senat",
    "5156": "analog",
    "5157": "Leader",
    "5158": "oeffi",
    "5159": "oefficien",
    "5160": "eism",
    "5161": "girl",
    "5162": "World ",
    "5163": "World War",
    "5164": "World War I",
    "5165": "ilosoph",
    "5166": "oday",
    "5167": "oday, ",
    "5168": "lifornia",
    "5169": "fortu",
    "5170": "fortunat",
    "5171": "vigor",
    "5172": "vigorous",
    "5173": "ncy ",
    "5174": "ense, ",
    "5175": "bounded",
    "5176": "equiri",
    "5177": "equiring ",
    "5178": "decl",
    "5179": "declarat",
    "5180": "declaration",
    "5181": "tican ",
    "5182": "during",
    "5183": "during th",
    "5184": "ted with",
    "5185": "pecula",
    "5186": "proved ",
    "5187": "ign ",
    "5188": "apacit",
    "5189": "ttern ",
    "5190": "pted ",
    "5191": "Follow",
    "5192": "Following",
    "5193": "concent",
    "5194": "0)*200",
    "5195": "sassi",
    "5196": "ollect",
    "5197": "eigh",
    "5198": "itan ",
    "5199": "llowship",
    "5200": "election",
    "5201": " scor",
    "5202": "caval",
    "5203": "cavalry ",
    "5204": "hey ",
    "5205": "others ",
    "5206": "position",
    "5207": "gorith",
    "5208": "Houston",
    "5209": "isation",
    "5210": "Ass",
    "5211": "Assemb",
    "5212": "ed with",
    "5213": "bf",
    "5214": "bf{",
    "5215": "l De",
    "5216": "l Democra",
    "5217": "alling",
    "5218": "C=",
    "5219": "nauti",
    "5220": "tendenc",
    "5221": "tendency ",
    "5222": "offic",
    "5223": "societ",
    "5224": "oval ",
    "5225": "oval of ",
    "5226": "arry ",
    "5227": " BC",
    "5228": "ilers ",
    "5229": "theat",
    "5230": "parate ",
    "5231": "onium",
    "5232": "ccepte",
    "5233": "ccepted ",
    "5234": "lowest",
    "5235": "7. ",
    "5236": " atmosp",
    "5237": " atmospher",
    "5238": "li, ",
    "5239": "They ",
    "5240": "kerman",
    "5241": "ultimat",
    "5242": "minal ",
    "5243": "altern",
    "5244": "alternati",
    "5245": "http",
    "5246": "tertain",
    "5247": "tertainment",
    "5248": "ptation",
    "5249": "phosph",
    "5250": "s of the ",
    "5251": "archite",
    "5252": "bipol",
    "5253": "bipolar",
    "5254": "atemal",
    "5255": "rangemen",
    "5256": "tral ",
    "5257": "breedi",
    "5258": "breeding ",
    "5259": "Fount",
    "5260": "damage",
    "5261": "font",
    "5262": "AN",
    "5263": "ANS",
    "5264": "telev",
    "5265": "televisi",
    "5266": "having",
    "5267": "Don't",
    "5268": "old ",
    "5269": "enario",
    "5270": "featur",
    "5271": "vely ",
    "5272": "mly ",
    "5273": "ancia",
    "5274": "rian ",
    "5275": "ranging",
    "5276": "ranging f",
    "5277": "ranging from ",
    "5278": "ecessa",
    "5279": "ecessary ",
    "5280": "posed to ",
    "5281": "Marlins",
    "5282": "aries ",
    "5283": "mist ",
    "5284": "occas",
    "5285": "occasion",
    "5286": "haracteri",
    "5287": "might",
    "5288": "uau",
    "5289": "backg",
    "5290": "background",
    "5291": "author",
    "5292": "egated",
    "5293": "iety ",
    "5294": "iety of ",
    "5295": "member",
    "5296": "5, 1",
    "5297": "5, 18",
    "5298": "vironmen",
    "5299": "o R",
    "5300": "o River",
    "5301": "Gil",
    "5302": "Gilbert",
    "5303": "fluenced ",
    "5304": "oiling",
    "5305": "especial",
    "5306": "Prussia",
    "5307": "ranked",
    "5308": "pply ",
    "5309": " common",
    "5310": "i.e.",
    "5311": "knew ",
    "5312": "rkney",
    "5313": "erest ",
    "5314": "Funct",
    "5315": "Function",
    "5316": "Zap",
    "5317": "Zappa",
    "5318": "receive",
    "5319": "Many ",
    "5320": "importanc",
    "5321": "sophis",
    "5322": "sophistic",
    "5323": "Roman ",
    "5324": "mount of ",
    "5325": "hether",
    "5326": " group",
    "5327": " rela",
    "5328": " relativ",
    "5329": "imidat",
    "5330": "eiz",
    "5331": "eizure",
    "5332": "Wel",
    "5333": "Welsh",
    "5334": "tes that",
    "5335": "employ",
    "5336": "should b",
    "5337": "should be ",
    "5338": "tres ",
    "5339": " sig",
    "5340": " signal",
    "5341": "uch of ",
    "5342": "pedition",
    "5343": "visited",
    "5344": "unded ",
    "5345": "aging",
    "5346": " resu",
    "5347": " result",
    "5348": "ccused ",
    "5349": "ccused of ",
    "5350": "an of ",
    "5351": "cciden",
    "5352": "ccidental",
    "5353": "formal ",
    "5354": "planation",
    "5355": "ogy ",
    "5356": "testan",
    "5357": "udwi",
    "5358": "w's ",
    "5359": "hedule",
    "5360": "000 d",
    "5361": "000 drac",
    "5362": "000 drachma",
    "5363": " camp",
    "5364": "Vien",
    "5365": "Vienna",
    "5366": "Mexi",
    "5367": "virtual",
    "5368": "onstra",
    "5369": "erse ",
    "5370": "announc",
    "5371": "announced ",
    "5372": "part of",
    "5373": "nyl ",
    "5374": "eigned ",
    "5375": "s on ",
    "5376": "physi",
    "5377": "physici",
    "5378": "smalle",
    "5379": "ertising",
    "5380": "5 Eur",
    "5381": "5 Euroc",
    "5382": " or ",
    "5383": "DS",
    "5384": "llize",
    "5385": "University ",
    "5386": "University of ",
    "5387": "ia*",
    "5388": "buried",
    "5389": "500 ",
    "5390": "500 BC",
    "5391": "ail",
    "5392": "ailway",
    "5393": "ying ",
    "5394": "*200",
    "5395": "identi",
    "5396": "itled ",
    "5397": "raid",
    "5398": "nised ",
    "5399": "born ",
    "5400": "Baltic",
    "5401": "oche",
    "5402": "ntua",
    "5403": "ntually",
    "5404": "Saxo",
    "5405": "allow",
    "5406": "allowing",
    "5407": "-based ",
    "5408": "Commo",
    "5409": "Commodor",
    "5410": "blical",
    "5411": "rline",
    "5412": "GN",
    "5413": "GN=",
    "5414": "GN=cent",
    "5415": "Instea",
    "5416": "div s",
    "5417": "div styl",
    "5418": "sible ",
    "5419": "aster",
    "5420": "Justic",
    "5421": "t-",
    "5422": "owing",
    "5423": "gained ",
    "5424": "Quee",
    "5425": "ooklyn",
    "5426": "R ",
    "5427": "behavio",
    "5428": "half ",
    "5429": "fundamen",
    "5430": "elber",
    "5431": "icopt",
    "5432": "rapolat",
    "5433": "orchest",
    "5434": "etrate",
    "5435": "By ",
    "5436": "wrote",
    "5437": "aturing",
    "5438": "cht ",
    "5439": "kers ",
    "5440": " own",
    "5441": "opol",
    "5442": "rnard ",
    "5443": "nishm",
    "5444": "paddin",
    "5445": "rary ",
    "5446": "irection",
    "5447": "icipa",
    "5448": "hilic ",
    "5449": "ze of",
    "5450": "tex",
    "5451": "hemi",
    "5452": "Cimbr",
    "5453": "mega",
    "5454": "ler (",
    "5455": "bably ",
    "5456": "Light",
    "5457": " gra",
    "5458": " granit",
    "5459": "divorc",
    "5460": "door ",
    "5461": " novel",
    "5462": "bove ",
    "5463": "uffal",
    "5464": "uffalo ",
    "5465": " trial",
    "5466": "gregat",
    "5467": "ntinel",
    "5468": "pages",
    "5469": "company",
    "5470": " counc",
    "5471": " council",
    "5472": "Standard",
    "5473": "rophage",
    "5474": "style= ",
    "5475": "ncello",
    "5476": "atom",
    "5477": "M. ",
    "5478": "acro",
    "5479": "across",
    "5480": "ck of ",
    "5481": "won ",
    "5482": "sum ",
    "5483": "sum of ",
    "5484": "leader",
    "5485": "got ",
    "5486": "defeat",
    "5487": "defeated ",
    "5488": "4 ||",
    "5489": "t's ",
    "5490": "Japa",
    "5491": " AT",
    "5492": "vises ",
    "5493": "became",
    "5494": "ffice ",
    "5495": "val of",
    "5496": "best ",
    "5497": "best known",
    "5498": "cores ",
    "5499": "ipt ",
    "5500": "sibilit",
    "5501": "pound",
    "5502": "oftware",
    "5503": "an be ",
    "5504": "example ",
    "5505": "Hipp",
    "5506": "Hipparch",
    "5507": "fferen",
    "5508": "republi",
    "5509": "wood",
    "5510": "l' ",
    "5511": "bg",
    "5512": "bgcol",
    "5513": "zsc",
    "5514": "discre",
    "5515": "provide",
    "5516": "ommerc",
    "5517": "ommercia",
    "5518": "ky**",
    "5519": "imposed ",
    "5520": "d of ",
    "5521": "eldest",
    "5522": "rier ",
    "5523": "erved ",
    "5524": "bviou",
    "5525": "ebec",
    "5526": "France",
    "5527": "mathema",
    "5528": "ift ",
    "5529": "aturday",
    "5530": "nciple",
    "5531": "oncil",
    "5532": "ontolo",
    "5533": "eping",
    "5534": "erpret",
    "5535": "erpretation",
    "5536": "nserv",
    "5537": "pported",
    "5538": "gly ",
    "5539": " notabl",
    "5540": "Mumb",
    "5541": "Mumbai",
    "5542": "ls /t",
    "5543": "ls /tdtd ",
    "5544": "esist ",
    "5545": "anothe",
    "5546": "another ",
    "5547": "Bots",
    "5548": "Botswan",
    "5549": "tvi",
    "5550": "parts of ",
    "5551": "ejo",
    "5552": "situa",
    "5553": "tial ",
    "5554": "div style= ",
    "5555": "severa",
    "5556": "several ",
    "5557": "orough",
    "5558": "vation",
    "5559": "Lock",
    "5560": "Lockhar",
    "5561": "Salier",
    "5562": "Gett",
    "5563": "Gettys",
    "5564": "Gettysbu",
    "5565": "produce",
    "5566": "2, ",
    "5567": "2, 19",
    "5568": "mitic ",
    "5569": " bring",
    "5570": "weddin",
    "5571": "wedding ",
    "5572": "tribut",
    "5573": " Uni",
    "5574": "y's ",
    "5575": " bee",
    "5576": "entia",
    "5577": "urious",
    "5578": "treaty",
    "5579": "elba",
    "5580": "mary ",
    "5581": "s at ",
    "5582": "initial ",
    "5583": "response",
    "5584": "BBC",
    "5585": "tection",
    "5586": "tinguished ",
    "5587": "caused ",
    "5588": "radiation",
    "5589": "vul",
    "5590": "s of America",
    "5591": "team ",
    "5592": "verly ",
    "5593": "Fontaine",
    "5594": "proton",
    "5595": "thamph",
    "5596": "thampheta",
    "5597": "thamphetamine",
    "5598": "asuremen",
    "5599": "kground",
    "5600": "covered ",
    "5601": "cked ",
    "5602": "l num",
    "5603": "l number",
    "5604": "victor",
    "5605": "Warner",
    "5606": "sodium",
    "5607": "ngst ",
    "5608": "al with",
    "5609": "states",
    "5610": "ldhoo",
    "5611": "CI",
    "5612": "CIA ",
    "5613": "fought",
    "5614": "pitch ",
    "5615": "away ",
    "5616": "kans",
    "5617": "xture of",
    "5618": "ppeara",
    "5619": "wenty",
    "5620": "itioned ",
    "5621": "-Din",
    "5622": "oil ",
    "5623": "6, 1",
    "5624": "6, 18",
    "5625": "remote",
    "5626": "Cambria",
    "5627": "scar",
    "5628": "pporte",
    "5629": "pporters ",
    "5630": "slashe",
    "5631": "largel",
    "5632": "largely ",
    "5633": "MR",
    "5634": "MRS",
    "5635": "MRSI ",
    "5636": "nomina",
    "5637": "much ",
    "5638": "raise",
    "5639": "raised ",
    "5640": "teau",
    "5641": "eraction",
    "5642": "Corpor",
    "5643": "Corporation",
    "5644": "Channe",
    "5645": "r-",
    "5646": " Franc",
    "5647": "Oxe",
    "5648": "UF",
    "5649": "edly ",
    "5650": "unt ",
    "5651": "entation",
    "5652": "ted that",
    "5653": "rivati",
    "5654": " find ",
    "5655": "lecting",
    "5656": "aided ",
    "5657": "eral ",
    "5658": "obtain",
    "5659": "obtained ",
    "5660": "kara",
    "5661": " only ",
    "5662": "give ",
    "5663": "suggest",
    "5664": "suggested ",
    "5665": "list ",
    "5666": "alleged",
    "5667": "ry, ",
    "5668": "opted ",
    "5669": "seen ",
    "5670": "Israel*",
    "5671": "tholog",
    "5672": "minist",
    "5673": "Sing",
    "5674": "mply ",
    "5675": "cost of ",
    "5676": "tism ",
    "5677": "viding",
    "5678": "icide",
    "5679": "posite ",
    "5680": "genre ",
    "5681": "wiss ",
    "5682": "4,000",
    "5683": "curren",
    "5684": "currently",
    "5685": "France ",
    "5686": "Howard",
    "5687": "of God",
    "5688": "remain ",
    "5689": "TP",
    "5690": "ated ",
    "5691": "Ital",
    "5692": "Italy, ",
    "5693": "Hemisph",
    "5694": "nima",
    "5695": "nimani",
    "5696": "cism",
    "5697": "d/t",
    "5698": " offen",
    "5699": " offender",
    "5700": "ors of ",
    "5701": "2 /td",
    "5702": "choo",
    "5703": "atta",
    "5704": "ecution",
    "5705": "atmosp",
    "5706": "atmospher",
    "5707": "declare",
    "5708": "declared ",
    "5709": "tific",
    "5710": "al to",
    "5711": "ector",
    "5712": ".Sina",
    "5713": ".Sinatra",
    "5714": "rusalem",
    "5715": "bination",
    "5716": "camps",
    "5717": "ilosophe",
    "5718": "langua",
    "5719": "usement",
    "5720": "xembo",
    "5721": "xembour",
    "5722": " took ",
    "5723": "vallo",
    "5724": "alyst ",
    "5725": "extend",
    "5726": "extended ",
    "5727": "scien",
    "5728": "Teut",
    "5729": "sworn",
    "5730": "made",
    "5731": "dTD ",
    "5732": "dTD A",
    "5733": "dTD AL",
    "5734": "dTD ALI",
    "5735": "dTD ALIG",
    "5736": "dTD ALIGN",
    "5737": "s to",
    "5738": "trol ",
    "5739": "up to",
    "5740": "Award",
    "5741": "philoso",
    "5742": "philosoph",
    "5743": "t dow",
    "5744": "t down ",
    "5745": "cadem",
    "5746": "Franken",
    "5747": "Frankenste",
    "5748": "bilized",
    "5749": "rttem",
    "5750": "rttember",
    "5751": "cluding",
    "5752": "major",
    "5753": "s after",
    "5754": "whose ",
    "5755": "tinue",
    "5756": "ntasy ",
    "5757": "ptive ",
    "5758": "traight",
    "5759": "n*19",
    "5760": "crysta",
    "5761": "lete ",
    "5762": "sociated",
    "5763": "gment",
    "5764": "Bulgarian",
    "5765": "atis",
    "5766": "atisfy",
    "5767": "e**",
    "5768": "inue",
    "5769": "lways",
    "5770": " cor",
    "5771": " correct",
    "5772": "79",
    "5773": "plicat",
    "5774": "gravit",
    "5775": "eroke",
    "5776": "bseque",
    "5777": " Salvado",
    "5778": "tended ",
    "5779": "tended to",
    "5780": "color ",
    "5781": "color tem",
    "5782": "color tempera",
    "5783": "color temperatur",
    "5784": "series",
    "5785": "legend",
    "5786": "deac",
    "5787": "deacons",
    "5788": "goal ",
    "5789": "nufact",
    "5790": "theory ",
    "5791": "vector",
    "5792": "me Minist",
    "5793": "sight",
    "5794": "rganiz",
    "5795": "childre",
    "5796": "children ",
    "5797": "quare ",
    "5798": "8. ",
    "5799": "India",
    "5800": "Januar",
    "5801": "January ",
    "5802": "annexa",
    "5803": "annexation",
    "5804": "vary ",
    "5805": "nager",
    "5806": "marily ",
    "5807": "vade",
    "5808": "uwa",
    "5809": "9. ",
    "5810": "the Fe",
    "5811": "wegi",
    "5812": "those ",
    "5813": "leadin",
    "5814": "leading ",
    "5815": "ancell",
    "5816": "taking",
    "5817": "roduct",
    "5818": "roduction",
    "5819": "umerous",
    "5820": "Wilso",
    "5821": "tropol",
    "5822": "00 ",
    "5823": "nux",
    "5824": "aintan",
    "5825": "therland",
    "5826": "Image:",
    "5827": "ropract",
    "5828": "hierar",
    "5829": "stable ",
    "5830": "out th",
    "5831": "pless",
    "5832": "trovers",
    "5833": "lack ",
    "5834": "keys",
    "5835": "uction",
    "5836": "home ",
    "5837": "home to",
    "5838": "Dra",
    "5839": "Dragon",
    "5840": "bile ",
    "5841": "length ",
    "5842": "thought ",
    "5843": "thought to",
    "5844": "ebber",
    "5845": "istanc",
    "5846": "species ",
    "5847": "H. /t",
    "5848": "H. /tdtd ",
    "5849": "except",
    "5850": "exception",
    "5851": "erup",
    "5852": " Call",
    "5853": " Calling",
    "5854": "sts ",
    "5855": "Stoi",
    "5856": "Stoiber",
    "5857": "ent to ",
    "5858": "naged",
    "5859": "cosm",
    "5860": "isput",
    "5861": "Pett",
    "5862": "ximate",
    "5863": "rinsic",
    "5864": " (due ",
    "5865": " (due to",
    "5866": "hurric",
    "5867": "hurricane",
    "5868": "i, ",
    "5869": "Columb",
    "5870": "mocked",
    "5871": "(d. 1",
    "5872": "learned ",
    "5873": "includes ",
    "5874": "atter",
    "5875": "iously ",
    "5876": "ly, ",
    "5877": "reque",
    "5878": "vi-",
    "5879": " 17",
    "5880": "Chicago",
    "5881": "PC ",
    "5882": " chil",
    "5883": " childre",
    "5884": "finest",
    "5885": "ircuit",
    "5886": "mention",
    "5887": "-lar",
    "5888": "-larges",
    "5889": "eder",
    "5890": "puter",
    "5891": "riented",
    "5892": "Texas",
    "5893": "roversi",
    "5894": "adapt",
    "5895": "adaptation",
    "5896": "migration",
    "5897": "captur",
    "5898": "xing ",
    "5899": "tend ",
    "5900": "tend to",
    "5901": "valuable",
    "5902": "rating",
    "5903": "course",
    "5904": " states",
    "5905": "inu",
    "5906": "inuous",
    "5907": "square ",
    "5908": " choo",
    "5909": " choose ",
    "5910": "ated to",
    "5911": "ountries",
    "5912": "ampa ",
    "5913": "their ",
    "5914": "leneuv",
    "5915": "roving",
    "5916": "8), ",
    "5917": "er**",
    "5918": "stopi",
    "5919": "R. ",
    "5920": "Kore",
    "5921": " ances",
    "5922": "breast",
    "5923": "so-c",
    "5924": "so-called",
    "5925": "-Se",
    "5926": "-Semit",
    "5927": "composer",
    "5928": "emperor",
    "5929": " name",
    "5930": " named ",
    "5931": "2;",
    "5932": "ulcan",
    "5933": "Plai",
    "5934": " down",
    "5935": "90% ",
    "5936": "90% of ",
    "5937": "media",
    "5938": "Some ",
    "5939": "distan",
    "5940": " wrote",
    "5941": "rific",
    "5942": "Gass",
    "5943": "Gassma",
    "5944": "Gassmann",
    "5945": "follow",
    "5946": "fourth",
    "5947": " cho",
    "5948": " choice",
    "5949": "tury ",
    "5950": "margin",
    "5951": "reaction",
    "5952": "Pliss",
    "5953": "Plissken",
    "5954": "before",
    "5955": "0's ",
    "5956": "hown ",
    "5957": "aling ",
    "5958": "ow, ",
    "5959": "velength",
    "5960": "ir of ",
    "5961": "st, ",
    "5962": "ted to ",
    "5963": "tout ",
    "5964": "ogeth",
    "5965": "ogether",
    "5966": "emed ",
    "5967": "ckete",
    "5968": "bb{",
    "5969": "becaus",
    "5970": "south",
    "5971": "arily ",
    "5972": "software",
    "5973": "established",
    "5974": "rman ",
    "5975": "rsue ",
    "5976": "reduc",
    "5977": "ssed ",
    "5978": "thy ",
    "5979": "patter",
    "5980": "journ",
    "5981": "pendin",
    "5982": "pending ",
    "5983": "jacent",
    "5984": "aving",
    "5985": "vasta",
    "5986": "happy",
    "5987": "artist",
    "5988": "league",
    "5989": "contro",
    "5990": "control ",
    "5991": "m, ",
    "5992": "chigan",
    "5993": "domin",
    "5994": "dominat",
    "5995": "chy ",
    "5996": "Four",
    "5997": "btain",
    "5998": "centrat",
    "5999": "centration",
    "6000": "parlia",
    "6001": "parliament",
    "6002": "ometri",
    "6003": "rible ",
    "6004": "pel ",
    "6005": "hydrop",
    "6006": "begin{",
    "6007": "polyn",
    "6008": "polynomi",
    "6009": "ailand",
    "6010": "ministrat",
    "6011": " state",
    "6012": "evement",
    "6013": "ancien",
    "6014": "inya",
    "6015": "takes ",
    "6016": "niment",
    "6017": "cale ",
    "6018": "mension",
    "6019": "unction",
    "6020": "0,000",
    "6021": "4, nbsp",
    "6022": "national ",
    "6023": "lding ",
    "6024": "structive",
    "6025": "ement ",
    "6026": "ble, ",
    "6027": "Federa",
    "6028": "culine",
    "6029": " note t",
    "6030": " note that ",
    "6031": " Cape",
    "6032": " Cape ",
    "6033": " Cape Ve",
    "6034": "um /t",
    "6035": "um /tdtd ",
    "6036": "igious ",
    "6037": "stitution",
    "6038": "entere",
    "6039": "entered ",
    "6040": "oosin",
    "6041": "oosing ",
    "6042": "cyclop",
    "6043": "velopment",
    "6044": "velopment of",
    "6045": "quite ",
    "6046": "Este",
    "6047": "futur",
    "6048": "rived ",
    "6049": "fringe",
    "6050": "fringement",
    "6051": "March ",
    "6052": "load ",
    "6053": "bellio",
    "6054": " lar",
    "6055": " larges",
    "6056": " one of ",
    "6057": " one of the ",
    "6058": "hing ",
    "6059": "americ",
    "6060": "mory ",
    "6061": "oldes",
    "6062": "oldest ",
    "6063": "tallest",
    "6064": "nned ",
    "6065": "uddh",
    "6066": "ds, ",
    "6067": "vited ",
    "6068": "adelph",
    "6069": "research",
    "6070": "monly ",
    "6071": "Fanta",
    "6072": "horror",
    "6073": "resenta",
    "6074": "tempera",
    "6075": "widely",
    "6076": "dupl",
    "6077": "duplicat",
    "6078": "cumentar",
    "6079": "IG",
    "6080": "IGN",
    "6081": "IGN=",
    "6082": "IGN=cent",
    "6083": "through",
    "6084": "scrip",
    "6085": "inut",
    "6086": "ibraltar",
    "6087": "or=",
    "6088": "ization",
    "6089": "ll, ",
    "6090": "bstan",
    "6091": "o, ",
    "6092": "ceedi",
    "6093": "tlanti",
    "6094": "uck ",
    "6095": "essay ",
    "6096": "scina",
    "6097": "r/t",
    "6098": "r/table",
    "6099": " toward",
    "6100": "journali",
    "6101": " right",
    "6102": "eturn",
    "6103": "riump",
    "6104": "mentioned ",
    "6105": " /tdtd ",
    "6106": " /tdtd align",
    "6107": " /tdtd align=",
    "6108": "credit",
    "6109": "nsibili",
    "6110": " Ages",
    "6111": "licen",
    "6112": "license ",
    "6113": "direct",
    "6114": "CTU",
    "6115": "CTUR",
    "6116": "-Bo",
    "6117": "ordered ",
    "6118": "Tower",
    "6119": "andina",
    "6120": "andinavi",
    "6121": "ivorc",
    "6122": "mum ",
    "6123": "vinced ",
    "6124": "moirs",
    "6125": "mathb",
    "6126": "eriod",
    "6127": "ambi",
    "6128": "ambigu",
    "6129": "ambiguous",
    "6130": " among",
    "6131": "e off ",
    "6132": "dited ",
    "6133": "or '",
    "6134": "Greek ",
    "6135": "device",
    "6136": "Lasc",
    "6137": "Lascari",
    "6138": "Brazil",
    "6139": "4, 200",
    "6140": "raced ",
    "6141": " withdr",
    "6142": " withdraw",
    "6143": "ommodor",
    "6144": "hropolo",
    "6145": "hropologi",
    "6146": "Twin",
    "6147": "led to ",
    "6148": "Tai",
    "6149": "Taiwan",
    "6150": "minate",
    "6151": "ecepto",
    "6152": "ique ",
    "6153": "stifica",
    "6154": "stification",
    "6155": "aptur",
    "6156": "8, 200",
    "6157": "Spi",
    "6158": "Spirit",
    "6159": "h-bo",
    "6160": "h-born",
    "6161": "rrican",
    "6162": "Metal",
    "6163": "modu",
    "6164": "macro",
    "6165": "lgebr",
    "6166": "iscussion",
    "6167": "aged ",
    "6168": "hoose ",
    "6169": "sidiar",
    "6170": "ting ",
    "6171": "fing ",
    "6172": "known as ",
    "6173": "hood ",
    "6174": "astic ",
    "6175": "Republi",
    "6176": "orption",
    "6177": "ancient ",
    "6178": " Februar",
    "6179": " February ",
    "6180": "Alex",
    "6181": "Alexiu",
    "6182": "pagan",
    "6183": "paganda",
    "6184": "Palm",
    "6185": "ettled",
    "6186": "baptis",
    "6187": "Bald",
    "6188": "Old ",
    "6189": "portuni",
    "6190": "Becaus",
    "6191": "most of",
    "6192": "After",
    "6193": "toration",
    "6194": "lyric",
    "6195": "panded ",
    "6196": "flation",
    "6197": "tric ",
    "6198": "redite",
    "6199": "mountain",
    "6200": "cil ",
    "6201": "perien",
    "6202": "cored ",
    "6203": "-or",
    "6204": "-orien",
    "6205": "oughly ",
    "6206": "3rd ",
    "6207": "ught to ",
    "6208": "ktion",
    "6209": "pended ",
    "6210": "ruled",
    "6211": "ruman ",
    "6212": "way of",
    "6213": "opera",
    "6214": "operator",
    "6215": "millions",
    "6216": "M-",
    "6217": "cross",
    "6218": "that, ",
    "6219": "local ",
    "6220": "hold ",
    "6221": " domin",
    "6222": " dominoes",
    "6223": "ual ",
    "6224": " music",
    "6225": "gentina",
    "6226": "urrently",
    "6227": " will ",
    "6228": "egetical",
    "6229": "roach",
    "6230": "celera",
    "6231": "trying",
    "6232": "trying to ",
    "6233": "eight",
    "6234": "definition",
    "6235": "orporation",
    "6236": "Music",
    "6237": "afterward",
    "6238": "quid",
    "6239": "hence ",
    "6240": "an*",
    "6241": "rise t",
    "6242": "rise to ",
    "6243": "ximu",
    "6244": "ximum ",
    "6245": " F-1",
    "6246": " F-15",
    "6247": "g to",
    "6248": "relati",
    "6249": "eign ",
    "6250": "shvill",
    "6251": "ource of",
    "6252": "ransla",
    "6253": "ranslation",
    "6254": "Dede",
    "6255": "Dedekin",
    "6256": "thur",
    "6257": "termined",
    "6258": "rplus",
    "6259": "netwo",
    "6260": "outhern",
    "6261": "le that ",
    "6262": "sensu",
    "6263": "ture of ",
    "6264": "naged to ",
    "6265": "ivitie",
    "6266": "errup",
    "6267": "K. ",
    "6268": "assi",
    "6269": "assified",
    "6270": "aspect",
    "6271": "seball",
    "6272": "3rd per",
    "6273": "3rd person",
    "6274": "Medit",
    "6275": "Mediterr",
    "6276": "Mediterrane",
    "6277": "ndbac",
    "6278": "hy**",
    "6279": "fully ",
    "6280": "launch",
    "6281": " Chris",
    "6282": " Christia",
    "6283": "ating ",
    "6284": " fram",
    "6285": "apan*",
    "6286": "engine",
    "6287": "abilit",
    "6288": " any ",
    "6289": "Living",
    "6290": "I, ",
    "6291": "ppro",
    "6292": "pproach",
    "6293": "ainst ",
    "6294": "among ",
    "6295": "ease of ",
    "6296": "Denis",
    "6297": "www",
    "6298": "Star*",
    "6299": "carried",
    "6300": "erestin",
    "6301": "eresting ",
    "6302": "e cl",
    "6303": "e clas",
    "6304": "Galileo ",
    "6305": "family",
    "6306": "bendi",
    "6307": "corres",
    "6308": "correspo",
    "6309": "alendar",
    "6310": "princi",
    "6311": "me min",
    "6312": "me minist",
    "6313": "night",
    "6314": "weight",
    "6315": "alone",
    "6316": "scree",
    "6317": "inde",
    "6318": "indepen",
    "6319": "independent",
    "6320": ")In ",
    "6321": "wenti",
    "6322": "wentieth",
    "6323": "piction",
    "6324": "div}",
    "6325": "egula",
    "6326": "edition",
    "6327": "whom ",
    "6328": "or mor",
    "6329": " branch",
    "6330": "18",
    "6331": "Gaza",
    "6332": "opular",
    "6333": "ows ",
    "6334": " line",
    "6335": "civil",
    "6336": "sware ",
    "6337": "http://",
    "6338": "chel ",
    "6339": "literar",
    "6340": "literary ",
    "6341": " occu",
    "6342": "hail",
    "6343": "Drac",
    "6344": "Drachma",
    "6345": " Aber",
    "6346": " Aberde",
    "6347": "categor",
    "6348": "sexua",
    "6349": "sexual ",
    "6350": " son ",
    "6351": " son of ",
    "6352": "hardware",
    "6353": "td align",
    "6354": "td align=",
    "6355": "Aristot",
    "6356": "2.",
    "6357": "9 to",
    "6358": "9 to 1",
    "6359": "9 to 19",
    "6360": "is abo",
    "6361": "optima",
    "6362": "optimal ",
    "6363": "due t",
    "6364": "due to ",
    "6365": "ssociat",
    "6366": "ssociation",
    "6367": "altere",
    "6368": "sque ",
    "6369": "Amiga",
    "6370": "puttin",
    "6371": "putting ",
    "6372": "egarde",
    "6373": "mping ",
    "6374": "urity ",
    "6375": "ipien",
    "6376": "governed ",
    "6377": "4, 19",
    "6378": "eded ",
    "6379": "rting ",
    "6380": "tonate",
    "6381": "isting ",
    "6382": "pled ",
    "6383": "Jersey",
    "6384": "Kaspar",
    "6385": "Kasparov",
    "6386": "icism",
    "6387": "resource",
    "6388": "provo",
    "6389": "provoked",
    "6390": "location",
    "6391": "olution",
    "6392": "moted ",
    "6393": " Hy",
    "6394": " Hyena",
    "6395": " finit",
    "6396": "tinent",
    "6397": "rt of",
    "6398": "althou",
    "6399": "although",
    "6400": "aking",
    "6401": " Canad",
    "6402": "yet to ",
    "6403": " Car",
    "6404": " Carol",
    "6405": "sistent",
    "6406": "broad",
    "6407": "broadcast",
    "6408": "-year",
    "6409": "father",
    "6410": "lity ",
    "6411": "lity to",
    "6412": "e /td",
    "6413": "e /tdtd ",
    "6414": "ommuni",
    "6415": "19th ",
    "6416": "head of",
    "6417": " bon",
    "6418": "rying",
    "6419": "latter",
    "6420": "Johann",
    "6421": "glac",
    "6422": "seems ",
    "6423": "food",
    "6424": "overall",
    "6425": "Doc",
    "6426": "nds to",
    "6427": "omobil",
    "6428": "freque",
    "6429": "hanges ",
    "6430": " 200",
    "6431": "Gord",
    "6432": "Lipi",
    "6433": "ly used",
    "6434": "ld mon",
    "6435": "ld monke",
    "6436": "tell ",
    "6437": " fre",
    "6438": " freque",
    "6439": "general",
    "6440": "generally ",
    "6441": "Bata",
    "6442": "Batasu",
    "6443": "Batasuna",
    "6444": "onable",
    "6445": "commit",
    "6446": "committee",
    "6447": "ecurit",
    "6448": "gest ",
    "6449": "4th ",
    "6450": "nza",
    "6451": "sfer",
    "6452": "or her",
    "6453": "sense",
    "6454": "Protes",
    "6455": "Protestan",
    "6456": "nguish",
    "6457": "Centur",
    "6458": "lder",
    "6459": "pread ",
    "6460": "half of ",
    "6461": "lief ",
    "6462": "digit",
    "6463": "chron",
    "6464": "Kha",
    "6465": "Khay",
    "6466": "Khayya",
    "6467": "erarc",
    "6468": "ergo ",
    "6469": "nior ",
    "6470": "ilding",
    "6471": "omical",
    "6472": "settle",
    "6473": "vendor",
    "6474": "weapo",
    "6475": "guard",
    "6476": "viders ",
    "6477": "ership",
    "6478": "ope ",
    "6479": "2 /sup ",
    "6480": "uschw",
    "6481": "uschwitz",
    "6482": "City ",
    "6483": "it's ",
    "6484": "umption",
    "6485": "piece",
    "6486": "egative",
    "6487": "199",
    "6488": "leep",
    "6489": "each ",
    "6490": "ycot",
    "6491": " found",
    "6492": "ilation",
    "6493": "/small",
    "6494": "ch 200",
    "6495": "correct",
    "6496": "region",
    "6497": "lism ",
    "6498": "6th ",
    "6499": "lshe",
    "6500": "marks ",
    "6501": "pronounc",
    "6502": "pronounced ",
    "6503": "does not",
    "6504": "Jewish",
    "6505": "werful",
    "6506": "secution",
    "6507": "photo",
    "6508": "photograph",
    "6509": "Port",
    "6510": "istrict",
    "6511": "theref",
    "6512": "therefore ",
    "6513": "placin",
    "6514": "placing ",
    "6515": "directly ",
    "6516": "braha",
    "6517": "braham ",
    "6518": "ype of",
    "6519": "orious",
    "6520": "nalled ",
    "6521": "formation",
    "6522": "lawed ",
    "6523": "Decl",
    "6524": "Declarat",
    "6525": "multan",
    "6526": "multaneou",
    "6527": "folk",
    "6528": " wife",
    "6529": "sly ",
    "6530": "quenc",
    "6531": "again",
    "6532": "against ",
    "6533": " Fran",
    "6534": "English",
    "6535": "hannel",
    "6536": "cussion",
    "6537": "themat",
    "6538": "aneous",
    "6539": "bility ",
    "6540": "changes",
    "6541": "exist",
    "6542": "pensi",
    "6543": "rantee ",
    "6544": "enviro",
    "6545": "environmen",
    "6546": "ority ",
    "6547": "rsy ",
    "6548": "umbai",
    "6549": "Faroese ",
    "6550": "s in ",
    "6551": "nefact",
    "6552": "singl",
    "6553": "singly ",
    "6554": "ch 1",
    "6555": "ch 17",
    "6556": " (b. 19",
    "6557": "z --",
    "6558": " Germa",
    "6559": "reference ",
    "6560": "ptain ",
    "6561": "W. ",
    "6562": "W. B",
    "6563": "W. Bus",
    "6564": "Ocean",
    "6565": "hyth",
    "6566": "told ",
    "6567": "ittee ",
    "6568": "will ",
    "6569": "repre",
    "6570": "reprene",
    "6571": "f, ",
    "6572": "ovation",
    "6573": "thni",
    "6574": "phenomen",
    "6575": "9, 19",
    "6576": "British ",
    "6577": "bleau",
    "6578": "r's ",
    "6579": "also ",
    "6580": "ce, ",
    "6581": "rested",
    "6582": "regard",
    "6583": "perform",
    "6584": "fering",
    "6585": "tionship",
    "6586": "coerc",
    "6587": "Asia",
    "6588": "member of",
    "6589": "enzymes ",
    "6590": "court",
    "6591": "henge",
    "6592": "create",
    "6593": "pelling",
    "6594": "nding ",
    "6595": "*The ",
    "6596": "theore",
    "6597": "that time",
    "6598": "omedia",
    "6599": "ures ",
    "6600": "asparov",
    "6601": "asparov**",
    "6602": " apo",
    "6603": " apopto",
    "6604": "pe ",
    "6605": "descri",
    "6606": "describe ",
    "6607": "served ",
    "6608": "finger",
    "6609": "common",
    "6610": "ecomin",
    "6611": "hree ",
    "6612": "rs' ",
    "6613": "etween ",
    "6614": ") and ",
    "6615": "epile",
    "6616": "epileps",
    "6617": "isiana",
    "6618": "sampl",
    "6619": "arn - ",
    "6620": "freedo",
    "6621": "thx",
    "6622": "proport",
    "6623": "proportion",
    "6624": "issue",
    "6625": "famous ",
    "6626": "witzer",
    "6627": "witzerland",
    "6628": "tition",
    "6629": "FA",
    "6630": "se in ",
    "6631": "including",
    "6632": "fact, ",
    "6633": "h, ",
    "6634": "earlie",
    "6635": "earliest ",
    "6636": "rded ",
    "6637": "pears ",
    "6638": "Europ",
    "6639": "counted ",
    "6640": "pensa",
    "6641": "pensate ",
    "6642": "foreig",
    "6643": "guilty",
    "6644": "overeig",
    "6645": "milari",
    "6646": "milaritie",
    "6647": "elect",
    "6648": "nages",
    "6649": "lt**",
    "6650": "lt***",
    "6651": "lt***A",
    "6652": "film ",
    "6653": "orum",
    "6654": "1)*",
    "6655": "1)*200",
    "6656": "ctive ",
    "6657": "person",
    "6658": "balanc",
    "6659": "ntifa",
    "6660": "ntifada",
    "6661": "herents",
    "6662": "expan",
    "6663": "expansion",
    "6664": "Germany",
    "6665": "ported ",
    "6666": "sorp",
    "6667": "sorption",
    "6668": "hasis ",
    "6669": "onze",
    "6670": "tribe",
    "6671": "d Hy",
    "6672": "d Hyena",
    "6673": "sycholo",
    "6674": "7 /td",
    "6675": "7 /tdtd ",
    "6676": "pract",
    "6677": " calend",
    "6678": "an (b. ",
    "6679": "an (b. 19",
    "6680": "Micro",
    "6681": "Microsoft",
    "6682": "nounced ",
    "6683": "ured ",
    "6684": "theolo",
    "6685": "theologi",
    "6686": "quarter",
    "6687": "quarterbac",
    "6688": "d's ",
    "6689": "varia",
    "6690": "variabl",
    "6691": "ulgaria",
    "6692": "r on ",
    "6693": "apart",
    "6694": "uy ",
    "6695": "identit",
    "6696": "maxi",
    "6697": "maximu",
    "6698": "racy ",
    "6699": "ivision",
    "6700": "code",
    "6701": "ancial ",
    "6702": "nonym",
    "6703": "eviden",
    "6704": " W",
    "6705": " West",
    "6706": "trans",
    "6707": "cripti",
    "6708": "ied to",
    "6709": "methan",
    "6710": "Empire",
    "6711": "avera",
    "6712": "ilchar",
    "6713": "coercion",
    "6714": "rehen",
    "6715": "fall ",
    "6716": "arrat",
    "6717": "Formall",
    "6718": "eudo",
    "6719": "pulso",
    "6720": " diso",
    "6721": " disorder",
    "6722": "storm",
    "6723": "istingu",
    "6724": "istinguish",
    "6725": "opyright",
    "6726": "fection",
    "6727": "characters",
    "6728": "Daniel ",
    "6729": "g' ",
    "6730": "one of ",
    "6731": "Pacifi",
    "6732": "redit ",
    "6733": "hesi",
    "6734": "hesive ",
    "6735": "greater",
    "6736": "mainly ",
    "6737": "atisfie",
    "6738": "d --",
    "6739": "length",
    "6740": "7)*",
    "6741": "7)*200",
    "6742": "De ",
    "6743": "De Pa",
    "6744": "De Palm",
    "6745": "described",
    "6746": "ussina",
    "6747": "campa",
    "6748": "campaig",
    "6749": "99 - ",
    "6750": "geogra",
    "6751": "geograph",
    "6752": "harles ",
    "6753": "of the ",
    "6754": "km awa",
    "6755": "Prize",
    "6756": "rected ",
    "6757": "gianc",
    "6758": "ingleton",
    "6759": "ster, ",
    "6760": "Guate",
    "6761": "Guatemal",
    "6762": "ijing",
    "6763": "clear",
    "6764": " film",
    "6765": "gether",
    "6766": "mmodor",
    "6767": "employed ",
    "6768": "critic",
    "6769": "titution",
    "6770": "Christia",
    "6771": "Christian ",
    "6772": "well as ",
    "6773": "Bank",
    "6774": " carbo",
    "6775": " carbony",
    "6776": "7,000",
    "6777": "PR",
    "6778": "argeted",
    "6779": "rised ",
    "6780": "rised of ",
    "6781": "Russian ",
    "6782": "taught",
    "6783": "deral ",
    "6784": "Ninten",
    "6785": "nstitu",
    "6786": "address, ",
    "6787": "ulated",
    "6788": "eeing",
    "6789": "enough",
    "6790": "refused",
    "6791": "refused to ",
    "6792": "pulat",
    "6793": "pulation",
    "6794": "alchem",
    "6795": "en**",
    "6796": " was ",
    "6797": "census",
    "6798": "on -",
    "6799": "eparat",
    "6800": "t*",
    "6801": "e one ",
    "6802": "e one of ",
    "6803": "tianit",
    "6804": "Henr",
    "6805": "Henry ",
    "6806": "live ",
    "6807": "ather",
    "6808": "hird ",
    "6809": "hird Ha",
    "6810": "hird Haw",
    "6811": "cking",
    "6812": "mother",
    "6813": "Encycl",
    "6814": "Encyclop",
    "6815": "drag",
    "6816": "dragon ",
    "6817": "seph",
    "6818": " --|",
    "6819": "Boy ",
    "6820": "nberg",
    "6821": "nline",
    "6822": "nlinear",
    "6823": "ghty ",
    "6824": "Brook",
    "6825": "Brooklyn",
    "6826": "yroll",
    "6827": "Unix",
    "6828": "alpha",
    "6829": "alphabet",
    "6830": "iced ",
    "6831": "Pete",
    "6832": "ually",
    "6833": "ining ",
    "6834": "Hoover",
    "6835": "perly ",
    "6836": "Dubli",
    "6837": "holar",
    "6838": "vant ",
    "6839": "items ",
    "6840": "plication",
    "6841": " cell",
    "6842": "titute ",
    "6843": "wan - ",
    "6844": "instead",
    "6845": "dum ",
    "6846": "ples of ",
    "6847": "lthou",
    "6848": "lthough",
    "6849": "yclo",
    "6850": "ycloped",
    "6851": "rvatur",
    "6852": "WC",
    "6853": "iking",
    "6854": "tation ",
    "6855": "gems",
    "6856": "signifi",
    "6857": "significant",
    "6858": "oerci",
    "6859": "central",
    "6860": "aiders",
    "6861": "compound",
    "6862": "tional ",
    "6863": "eaction",
    "6864": " also",
    "6865": "/trtr",
    "6866": "women",
    "6867": "questi",
    "6868": "question ",
    "6869": "facilit",
    "6870": "test ",
    "6871": "Creat",
    "6872": "tempte",
    "6873": "tempted ",
    "6874": " Asia",
    "6875": "Chatha",
    "6876": "amil",
    "6877": "island",
    "6878": "7 Eur",
    "6879": "7 Euroc",
    "6880": "Squ",
    "6881": "Square ",
    "6882": "nifica",
    "6883": " being",
    "6884": "pered ",
    "6885": "5)*200",
    "6886": "e in ",
    "6887": "omple",
    "6888": "identified",
    "6889": "ality ",
    "6890": "lestia",
    "6891": " famous",
    "6892": "ful of",
    "6893": "rolog",
    "6894": " Hous",
    "6895": " Houston",
    "6896": " cult",
    "6897": " culture",
    "6898": "mmorta",
    "6899": "limit",
    "6900": "appoint",
    "6901": "appointed ",
    "6902": "trol of ",
    "6903": "edera",
    "6904": "ferred ",
    "6905": "Council",
    "6906": "Scri",
    "6907": "mpheta",
    "6908": "mphetamine",
    "6909": "TML",
    "6910": "astron",
    "6911": "ympho",
    "6912": "ymphony ",
    "6913": "proxi",
    "6914": "proximate",
    "6915": "full ",
    "6916": "attle",
    "6917": "ends ",
    "6918": "hortly",
    "6919": "te that ",
    "6920": "plomatic ",
    "6921": "junction",
    "6922": "chief",
    "6923": "Parlia",
    "6924": "Parliament",
    "6925": "nest ",
    "6926": "gger tha",
    "6927": "gger than ",
    "6928": "Brae",
    "6929": " of th",
    "6930": "ubber",
    "6931": "Yank",
    "6932": "normal",
    "6933": "x ",
    "6934": "econd ",
    "6935": "econd Ha",
    "6936": "econd Haw",
    "6937": "uter",
    "6938": "ically ",
    "6939": "Alge",
    "6940": "Algebr",
    "6941": "rite ",
    "6942": " aside",
    "6943": "izure",
    "6944": "hutan",
    "6945": "faun",
    "6946": "les ",
    "6947": "linton",
    "6948": "dings ",
    "6949": "ntation",
    "6950": "atch ",
    "6951": "igni",
    "6952": "ignifica",
    "6953": "system",
    "6954": "Break",
    "6955": "t one ",
    "6956": "0 \\",
    "6957": "sides ",
    "6958": "option",
    "6959": "event",
    "6960": "eventua",
    "6961": "eventually",
    "6962": "ficult",
    "6963": "volunt",
    "6964": "volunteer",
    "6965": "3, nbsp",
    "6966": "block",
    "6967": "blockqu",
    "6968": "blockquote",
    "6969": "ngless",
    "6970": "ipment",
    "6971": " Assa",
    "6972": " Assam",
    "6973": "ability ",
    "6974": "ability to",
    "6975": "in article",
    "6976": "rage",
    "6977": "Charles ",
    "6978": "udio ",
    "6979": "ctly ",
    "6980": "exact",
    "6981": "exactly ",
    "6982": "e oil",
    "6983": "complis",
    "6984": "times ",
    "6985": "ICJ",
    "6986": "tower",
    "6987": "rnet",
    "6988": "rnet**",
    "6989": "pack",
    "6990": "sical ",
    "6991": "esting ",
    "6992": "82",
    "6993": " are ",
    "6994": "November",
    "6995": "dal ",
    "6996": "chirop",
    "6997": "chiropract",
    "6998": "larmed",
    "6999": "e'",
    "7000": "crow",
    "7001": "ngress",
    "7002": " lang",
    "7003": " langua",
    "7004": "rity, ",
    "7005": "-rele",
    "7006": "-released ",
    "7007": "sifica",
    "7008": "sification",
    "7009": "emble ",
    "7010": "E align",
    "7011": "E align=",
    "7012": " theor",
    "7013": "and, ",
    "7014": "ca. ",
    "7015": "s or ",
    "7016": "lkins",
    "7017": "embas",
    "7018": "ook, ",
    "7019": "erapy",
    "7020": "countries",
    "7021": "ultimately",
    "7022": "Febru",
    "7023": "erexa",
    "7024": "erexampl",
    "7025": "furthe",
    "7026": "further ",
    "7027": "termine",
    "7028": "appa",
    "7029": "range ",
    "7030": "3), ",
    "7031": "cm ",
    "7032": "ch, ",
    "7033": "Robert",
    "7034": "sing ",
    "7035": "olumn",
    "7036": "capac",
    "7037": "capacity ",
    "7038": "nake ",
    "7039": "mber of",
    "7040": "mber of th",
    "7041": "tandar",
    "7042": "e to ",
    "7043": "gely ",
    "7044": "believ",
    "7045": "1}",
    "7046": "greed ",
    "7047": "temperatur",
    "7048": "verall ",
    "7049": "nects ",
    "7050": "aeolo",
    "7051": "drop",
    "7052": " term",
    "7053": "s (",
    "7054": "ether",
    "7055": "rgini",
    "7056": "ettigr",
    "7057": "ettigrew",
    "7058": "Intern",
    "7059": "likely ",
    "7060": "audio",
    "7061": "stantly",
    "7062": " St",
    "7063": "growing",
    "7064": " day",
    "7065": "tinues ",
    "7066": " agenc",
    "7067": " FM",
    "7068": " FM-",
    "7069": " FM-20",
    "7070": "m and ",
    "7071": "uildin",
    "7072": "lieut",
    "7073": "lieutena",
    "7074": "attem",
    "7075": "attempte",
    "7076": "attempted ",
    "7077": "vocant",
    "7078": " Min",
    "7079": "this rea",
    "7080": "this reason",
    "7081": "Boxi",
    "7082": "Boxing ",
    "7083": "Thoma",
    "7084": "urred ",
    "7085": "giers",
    "7086": "Sun ",
    "7087": "reasin",
    "7088": "Netan",
    "7089": "Netanya",
    "7090": "erstan",
    "7091": "erstandin",
    "7092": "dward",
    "7093": "centric",
    "7094": "-amph",
    "7095": "-ampheta",
    "7096": "-amphetamine",
    "7097": "clare",
    "7098": "clared ",
    "7099": "gated ",
    "7100": "19 - ",
    "7101": "floa",
    "7102": "pronoun",
    "7103": "scat",
    "7104": "scatteri",
    "7105": "ogni",
    "7106": "ognized",
    "7107": "huma",
    "7108": "human ",
    "7109": "aylor",
    "7110": "capit",
    "7111": "e he ",
    "7112": "ationship",
    "7113": "ogical ",
    "7114": "European",
    "7115": "country ",
    "7116": "ailor",
    "7117": "nry ",
    "7118": "raq",
    "7119": "-famous",
    "7120": "recog",
    "7121": "recognit",
    "7122": "recognition",
    "7123": "flect",
    "7124": " tran",
    "7125": "mbox",
    "7126": "mbox{",
    "7127": "2 ||",
    "7128": "jority ",
    "7129": "jority of ",
    "7130": "ece*",
    "7131": "eligio",
    "7132": "eligious ",
    "7133": "iling ",
    "7134": "-seas",
    "7135": "hosted",
    "7136": "ity, ",
    "7137": " 18",
    "7138": "band ",
    "7139": "smissi",
    "7140": "ttoman ",
    "7141": "mptom",
    "7142": "ensive ",
    "7143": "Fountain ",
    "7144": "Fountain S",
    "7145": "Fountain Squ",
    "7146": " winner",
    "7147": "ic ac",
    "7148": "films ",
    "7149": " Ve",
    "7150": " Verde",
    "7151": "the Marl",
    "7152": "the Marlins",
    "7153": "seppe",
    "7154": "tson ",
    "7155": "lhel",
    "7156": "orese ",
    "7157": "banian",
    "7158": "gical ",
    "7159": "equation",
    "7160": "erration",
    "7161": "gulf ",
    "7162": " styl",
    "7163": " var",
    "7164": " varie",
    "7165": " variety ",
    "7166": "Rosa",
    "7167": "Rosalind",
    "7168": "tructure",
    "7169": "There ",
    "7170": "Cyri",
    "7171": "given ",
    "7172": "putation",
    "7173": "gradu",
    "7174": "agement",
    "7175": "other ",
    "7176": "other hand",
    "7177": "fteen ",
    "7178": "solved ",
    "7179": "roiled",
    "7180": "Californ",
    "7181": "California",
    "7182": "nite ",
    "7183": "artoon",
    "7184": "artoonist",
    "7185": "EE",
    "7186": "olar ",
    "7187": "nis ",
    "7188": "9 -",
    "7189": "quick",
    "7190": "quickly ",
    "7191": "negal",
    "7192": "alty ",
    "7193": "quent ",
    "7194": "usines",
    "7195": "reated ",
    "7196": "finite ",
    "7197": "nada",
    "7198": "nada, ",
    "7199": "r other",
    "7200": "abiliti",
    "7201": "elimin",
    "7202": "eliminate",
    "7203": "same ",
    "7204": "ybo",
    "7205": "yboard",
    "7206": "iry ",
    "7207": "coloni",
    "7208": "monster",
    "7209": "necess",
    "7210": "es. ",
    "7211": "Weg",
    "7212": "Wegba",
    "7213": "Show",
    "7214": "terres",
    "7215": "terrestri",
    "7216": "escap",
    "7217": "odium",
    "7218": "culmin",
    "7219": "culminati",
    "7220": "culminating ",
    "7221": "thumb",
    "7222": "taken ",
    "7223": "Olympic",
    "7224": "Duke ",
    "7225": "appear",
    "7226": "inted ",
    "7227": "achiev",
    "7228": "ross",
    "7229": " world",
    "7230": "ow Co",
    "7231": "ow Countr",
    "7232": "radition",
    "7233": "ademic",
    "7234": "9 ||",
    "7235": "nitoba",
    "7236": "ssert",
    "7237": "harps",
    "7238": "owners",
    "7239": "pport",
    "7240": "said",
    "7241": "enber",
    "7242": "galax",
    "7243": "galaxies",
    "7244": "Knut",
    "7245": "oteric ",
    "7246": "andidat",
    "7247": "urban",
    "7248": "contin",
    "7249": "nt, ",
    "7250": "mechani",
    "7251": "celled ",
    "7252": "rfolk",
    "7253": "olice",
    "7254": "Euroc",
    "7255": "email",
    "7256": "fined ",
    "7257": "crisis",
    "7258": "based ",
    "7259": "based on ",
    "7260": "cumenical",
    "7261": "minish",
    "7262": "jected ",
    "7263": "rists ",
    "7264": "plain ",
    "7265": " ref",
    "7266": "llowing",
    "7267": "dicate",
    "7268": "ermedi",
    "7269": "ermediate",
    "7270": "server",
    "7271": "rld",
    "7272": "iod of",
    "7273": "bbed ",
    "7274": " cur",
    "7275": " curvat",
    "7276": " curvature",
    "7277": " dise",
    "7278": " disease",
    "7279": "e Se",
    "7280": "d't",
    "7281": "Arka",
    "7282": "rising",
    "7283": "Her",
    "7284": "Herze",
    "7285": "Herzegov",
    "7286": "wrec",
    "7287": "stages",
    "7288": " Franken",
    "7289": " Frankenste",
    "7290": "1 vol",
    "7291": "1 volume",
    "7292": "genome",
    "7293": "embles",
    "7294": "ello ",
    "7295": " X",
    "7296": "appearanc",
    "7297": "number",
    "7298": "TD A",
    "7299": "TD AL",
    "7300": "TD ALI",
    "7301": "TD ALIG",
    "7302": "TD ALIGN",
    "7303": "most ",
    "7304": "calcul",
    "7305": "calculate",
    "7306": "calculated ",
    "7307": "links",
    "7308": "dyna",
    "7309": "emerge",
    "7310": "rule ",
    "7311": "video ",
    "7312": " rate",
    "7313": "mplify",
    "7314": "minated ",
    "7315": "board",
    "7316": "pertie",
    "7317": "to ",
    "7318": "appl",
    "7319": "applicat",
    "7320": "application",
    "7321": "important ",
    "7322": "llywo",
    "7323": "al --",
    "7324": "Arra",
    "7325": "lliams, ",
    "7326": "ixed ",
    "7327": "irth ",
    "7328": "stocra",
    "7329": "Hale",
    "7330": "stands ",
    "7331": "00)*",
    "7332": "00)*200",
    "7333": "tact ",
    "7334": "tact with",
    "7335": "hypo",
    "7336": "NFL",
    "7337": "poet",
    "7338": "warded ",
    "7339": "monstra",
    "7340": "fted ",
    "7341": "Will ",
    "7342": "Will Be",
    "7343": "ered ",
    "7344": "m su",
    "7345": "m sup",
    "7346": "timula",
    "7347": "minently",
    "7348": "ttista",
    "7349": "standar",
    "7350": "uation",
    "7351": "pal ",
    "7352": "Earl",
    "7353": "vest",
    "7354": "vestment",
    "7355": "ssil ",
    "7356": "album",
    "7357": "velocit",
    "7358": "htmoc",
    "7359": "causes ",
    "7360": "chanism",
    "7361": "intern",
    "7362": "Austr",
    "7363": "Australia",
    "7364": "unera",
    "7365": "uneral ",
    "7366": "antly",
    "7367": "antly, ",
    "7368": "tract ",
    "7369": " agencies",
    "7370": "using ",
    "7371": "lamyd",
    "7372": "carrie",
    "7373": "arter",
    "7374": "arterbac",
    "7375": "William",
    "7376": "ritical ",
    "7377": "around",
    "7378": "-suit",
    "7379": "-suited ",
    "7380": "ath of",
    "7381": "ES",
    "7382": "ESP",
    "7383": "stacle",
    "7384": "Historic",
    "7385": "lexander",
    "7386": "otland",
    "7387": "oupled",
    "7388": "enact",
    "7389": "enacted ",
    "7390": "height",
    "7391": "height of",
    "7392": "treat",
    "7393": "treatment",
    "7394": " Fai",
    "7395": "Recor",
    "7396": "veral ",
    "7397": "elevat",
    "7398": "studi",
    "7399": "geome",
    "7400": "centuri",
    "7401": "France, ",
    "7402": "rather",
    "7403": "rather tha",
    "7404": "rather than ",
    "7405": "tridge",
    "7406": "plateau",
    "7407": " centur",
    "7408": " centuries",
    "7409": "friend of ",
    "7410": "tombs",
    "7411": "influen",
    "7412": "amily",
    "7413": "quain",
    "7414": "quaintan",
    "7415": "h's ",
    "7416": "sseng",
    "7417": "pyrig",
    "7418": "pyright",
    "7419": "upper",
    "7420": "pella",
    "7421": "Powel",
    "7422": "influenced ",
    "7423": "influenced by ",
    "7424": "rail",
    "7425": "better",
    "7426": "respec",
    "7427": "nnipe",
    "7428": "ctor (b. ",
    "7429": "ctor (b. 19",
    "7430": "t to",
    "7431": "hose ",
    "7432": "withdraw",
    "7433": "sert ",
    "7434": "marked",
    "7435": "semb",
    "7436": "digen",
    "7437": "digenous",
    "7438": " sub",
    "7439": "lack of ",
    "7440": "= ",
    "7441": " takes ",
    "7442": "cceed",
    "7443": "cceeded ",
    "7444": "ntiment",
    "7445": "Stadium",
    "7446": "AR",
    "7447": "-born",
    "7448": "Elect",
    "7449": "al, ",
    "7450": "strong ",
    "7451": " rival",
    "7452": "metime",
    "7453": "Golf ",
    "7454": "ories",
    "7455": "/tdtd ",
    "7456": "ural ",
    "7457": "estimate",
    "7458": "ontain",
    "7459": "ny's ",
    "7460": "icularl",
    "7461": "icularly ",
    "7462": "ssica",
    "7463": "People",
    "7464": "People's ",
    "7465": "friction",
    "7466": "daught",
    "7467": "daughter",
    "7468": "f0",
    "7469": " Eur",
    "7470": " Europ",
    "7471": "efore ",
    "7472": "they ",
    "7473": "ought ",
    "7474": "us, ",
    "7475": "essent",
    "7476": "essentia",
    "7477": "comes ",
    "7478": "Palest",
    "7479": "sidered ",
    "7480": "ennsylv",
    "7481": "ennsylvani",
    "7482": "der of",
    "7483": "El ",
    "7484": "El Salvado",
    "7485": "called ",
    "7486": "zing ",
    "7487": "ection",
    "7488": "non-",
    "7489": "finally",
    "7490": "siest",
    "7491": "politi",
    "7492": "market",
    "7493": "etz",
    "7494": "incom",
    "7495": "incomple",
    "7496": " touch",
    "7497": "9 Eur",
    "7498": "River",
    "7499": "3 200",
    "7500": "guel ",
    "7501": "losin",
    "7502": "losing ",
    "7503": "al do",
    "7504": "al domin",
    "7505": "6,000",
    "7506": " year",
    "7507": " center",
    "7508": " he ",
    "7509": "every ",
    "7510": "iving ",
    "7511": "nova",
    "7512": "ce to",
    "7513": "toward",
    "7514": "liked ",
    "7515": "undation",
    "7516": "eautif",
    "7517": "eautiful",
    "7518": "dvantage",
    "7519": "me her",
    "7520": "ong, ",
    "7521": "nage",
    "7522": "nagement",
    "7523": "s ago",
    "7524": "omposer",
    "7525": "drew ",
    "7526": "clarat",
    "7527": "claration",
    "7528": "field, ",
    "7529": "bunal",
    "7530": "Holly",
    "7531": "Hollywo",
    "7532": "Hollywood",
    "7533": "ig ",
    "7534": "accor",
    "7535": "accordin",
    "7536": "lph ",
    "7537": "working",
    "7538": "manent",
    "7539": "power",
    "7540": "ercing",
    "7541": "ay, ",
    "7542": "diff",
    "7543": "differen",
    "7544": "ipped",
    "7545": " form ",
    "7546": "BA",
    "7547": "BAS",
    "7548": "BASE ",
    "7549": "cation ",
    "7550": "iege",
    "7551": "ppear",
    "7552": "6)*200",
    "7553": "io -",
    "7554": "coast",
    "7555": "-runn",
    "7556": "-running",
    "7557": "vocal",
    "7558": " French",
    "7559": "last ",
    "7560": "mash ",
    "7561": "in's ",
    "7562": "function",
    "7563": "Earth",
    "7564": "'re ",
    "7565": "editar",
    "7566": "want ",
    "7567": "Britons",
    "7568": "trolled ",
    "7569": "voice ",
    "7570": "pping",
    "7571": "ded from ",
    "7572": "Presiden",
    "7573": " Cent",
    "7574": " Central",
    "7575": "Turke",
    "7576": "aby ",
    "7577": "20 - ",
    "7578": "ible ",
    "7579": "FI",
    "7580": "FIDE",
    "7581": "h-",
    "7582": "Bag",
    "7583": "Bagpi",
    "7584": "Bagpipe",
    "7585": "scorb",
    "7586": "reot",
    "7587": "fluence ",
    "7588": "s late",
    "7589": "ernationa",
    "7590": "ocial ",
    "7591": "nama",
    "7592": "ional ",
    "7593": "incin",
    "7594": "incinnati",
    "7595": "tention",
    "7596": "fragm",
    "7597": "liament",
    "7598": "until",
    "7599": "emoved",
    "7600": "popu",
    "7601": "populat",
    "7602": "population",
    "7603": "games ",
    "7604": "ory of ",
    "7605": "phone ",
    "7606": "Democr",
    "7607": "Democritu",
    "7608": "mander",
    "7609": "tenber",
    "7610": "comput",
    "7611": "computer",
    "7612": "acted ",
    "7613": "relativel",
    "7614": "relatively ",
    "7615": "Bols",
    "7616": "Bolshe",
    "7617": "homosex",
    "7618": "homosexua",
    "7619": "David ",
    "7620": "rving ",
    "7621": "al of ",
    "7622": "ometry",
    "7623": "presiden",
    "7624": "Kingdo",
    "7625": "llywood",
    "7626": "aque",
    "7627": "For exampl",
    "7628": "For example, ",
    "7629": "curate",
    "7630": "gular",
    "7631": "sold ",
    "7632": "chool",
    "7633": "linguis",
    "7634": "Trude",
    "7635": "Trudeau",
    "7636": "radic ",
    "7637": "kages",
    "7638": "comet ",
    "7639": "al-",
    "7640": "Emine",
    "7641": "enown",
    "7642": "enowned ",
    "7643": "tands ",
    "7644": "dden ",
    "7645": "echnic",
    "7646": "echnically",
    "7647": "ociet",
    "7648": "miles",
    "7649": "fusion",
    "7650": "botto",
    "7651": "ial ",
    "7652": "50 - ",
    "7653": "4, 1",
    "7654": "caragua",
    "7655": "empera",
    "7656": "nature",
    "7657": "emark",
    "7658": "caea",
    "7659": "portion",
    "7660": "normall",
    "7661": "normally ",
    "7662": "applied ",
    "7663": "4th N",
    "7664": "source",
    "7665": "adequ",
    "7666": "adequate",
    "7667": "Yet ",
    "7668": "studied",
    "7669": "On ",
    "7670": "stroyed",
    "7671": "nd to",
    "7672": "ceived",
    "7673": "makes ",
    "7674": "moon ",
    "7675": "etary ",
    "7676": " belo",
    "7677": " below",
    "7678": " Carolina",
    "7679": "*194",
    "7680": "Balder",
    "7681": " ret",
    "7682": " ret}",
    "7683": "ischer",
    "7684": "OEC",
    "7685": "haust",
    "7686": "new ",
    "7687": "termina",
    "7688": "terminal ",
    "7689": "solete",
    "7690": "do not",
    "7691": " aber",
    "7692": " aberrat",
    "7693": " aberration",
    "7694": "r than ",
    "7695": "orship",
    "7696": "death",
    "7697": "dulu",
    "7698": "cation of ",
    "7699": "volved ",
    "7700": "sheet ",
    "7701": "roduc",
    "7702": "mally ",
    "7703": "ideolog",
    "7704": "ideological",
    "7705": "educat",
    "7706": "tte ",
    "7707": " out ",
    "7708": "along",
    "7709": "along with",
    "7710": "mmy ",
    "7711": "ult of",
    "7712": "re-",
    "7713": "lose ",
    "7714": ";\\",
    "7715": "late 19",
    "7716": "etic ",
    "7717": "pecific",
    "7718": "gged ",
    "7719": "adding",
    "7720": "rnitu",
    "7721": "eyon",
    "7722": "ingap",
    "7723": "equival",
    "7724": "equivalenc",
    "7725": "mulate ",
    "7726": "access",
    "7727": "acid",
    "7728": "veale",
    "7729": "enic ",
    "7730": "itional ",
    "7731": "d/trtr",
    "7732": "d/trtrtd ",
    "7733": "lcoh",
    "7734": "allowed",
    "7735": "F-1",
    "7736": "egotia",
    "7737": "government",
    "7738": "-dime",
    "7739": "-dimension",
    "7740": "Treat",
    "7741": "Treaty of ",
    "7742": "3)*19",
    "7743": "AT",
    "7744": "le, ",
    "7745": "densit",
    "7746": "cision",
    "7747": "ximit",
    "7748": "Termin",
    "7749": "Cuba",
    "7750": "athol",
    "7751": "udyin",
    "7752": "ording",
    "7753": "1 /tdtd ",
    "7754": "cabin",
    "7755": " of 1",
    "7756": " is ",
    "7757": "IA ",
    "7758": "voked",
    "7759": "lope",
    "7760": "peciation",
    "7761": "Protocol",
    "7762": "ming ",
    "7763": "succe",
    "7764": "succeed",
    "7765": "elieved ",
    "7766": "ccept",
    "7767": "commu",
    "7768": "commutati",
    "7769": "dictat",
    "7770": "neisen",
    "7771": " On",
    "7772": " \\",
    "7773": "al De",
    "7774": "al Democra",
    "7775": "end{",
    "7776": "rplan",
    "7777": "Dr. ",
    "7778": "bit/s",
    "7779": "ologic",
    "7780": "ological ",
    "7781": "recur",
    "7782": "recursi",
    "7783": "recursive ",
    "7784": "home of ",
    "7785": "subseque",
    "7786": "hicag",
    "7787": "Walden",
    "7788": "atural ",
    "7789": "otball ",
    "7790": "initially",
    "7791": "0 ||",
    "7792": "wave ",
    "7793": "troyer",
    "7794": "possib",
    "7795": "spring",
    "7796": "elders",
    "7797": "ttle of ",
    "7798": "orded ",
    "7799": "ierre ",
    "7800": "owned ",
    "7801": "jump",
    "7802": " alg",
    "7803": " algor",
    "7804": " algorith",
    "7805": "9.",
    "7806": "rling",
    "7807": "releas",
    "7808": "need ",
    "7809": "eace ",
    "7810": "Johnson, ",
    "7811": "ggestion",
    "7812": " Inde",
    "7813": " Indepen",
    "7814": "kin to ",
    "7815": "S. ",
    "7816": "atured ",
    "7817": "ony A",
    "7818": "ony Award",
    "7819": "mestic ",
    "7820": " centra",
    "7821": "rround",
    "7822": "pernic",
    "7823": "nishment",
    "7824": "Diction",
    "7825": " H",
    "7826": " HT",
    "7827": "ndepen",
    "7828": "remely",
    "7829": "mbers of ",
    "7830": "petit",
    "7831": "petitive",
    "7832": "protein",
    "7833": " weapon",
    "7834": "council",
    "7835": "onstan",
    "7836": "onstantin",
    "7837": "itical",
    "7838": "ceptanc",
    "7839": "relation",
    "7840": "profess",
    "7841": "profession",
    "7842": "ns, ",
    "7843": "pointed ",
    "7844": "stified",
    "7845": "copyrig",
    "7846": "copyright",
    "7847": "rth, ",
    "7848": "never",
    "7849": "ble for",
    "7850": "two vol",
    "7851": "two volume",
    "7852": "ecent ",
    "7853": "life ",
    "7854": "ment of",
    "7855": "aymond",
    "7856": "Pettigr",
    "7857": "dustr",
    "7858": "cedure",
    "7859": "sister",
    "7860": "on to",
    "7861": "-south",
    "7862": "ifiable",
    "7863": "probab",
    "7864": "probably ",
    "7865": "ate ",
    "7866": "clas",
    "7867": "Ireland",
    "7868": "itive ",
    "7869": "dimen",
    "7870": "dimension",
    "7871": "wards ",
    "7872": "Dupl",
    "7873": "Duplicat",
    "7874": "kinds ",
    "7875": "kinds of ",
    "7876": "eligion",
    "7877": "Semit",
    "7878": "ngola",
    "7879": "ngola*",
    "7880": "northern",
    "7881": "MS ",
    "7882": "gainst ",
    "7883": "nts ",
    "7884": "ilbert",
    "7885": "saw ",
    "7886": "pendent",
    "7887": "taph",
    "7888": "taphysi",
    "7889": "ET",
    "7890": "o-call",
    "7891": "emperatur",
    "7892": "mston",
    "7893": "7 and ",
    "7894": "type",
    "7895": "cher ",
    "7896": "verely ",
    "7897": "ary 19",
    "7898": "etamine",
    "7899": "sma ",
    "7900": "illustr",
    "7901": "illustrate",
    "7902": "ingly ",
    "7903": "arket ",
    "7904": "few ",
    "7905": "ferent ",
    "7906": "drug",
    "7907": "ative ",
    "7908": "Metro",
    "7909": " atom",
    "7910": "trument",
    "7911": "rest ",
    "7912": "orgia",
    "7913": "x of",
    "7914": "upgra",
    "7915": "ground",
    "7916": "nish ",
    "7917": "million ",
    "7918": "million year",
    "7919": "Jose",
    "7920": "Joseph",
    "7921": "tian ",
    "7922": "BS",
    "7923": "cognition",
    "7924": "Vatic",
    "7925": "diode",
    "7926": " betwe",
    "7927": "pparch",
    "7928": "plained",
    "7929": "aq",
    "7930": "anuel ",
    "7931": "aight",
    "7932": "'m ",
    "7933": " divi",
    "7934": " division",
    "7935": "cus of",
    "7936": "graphic",
    "7937": "ration",
    "7938": "tained ",
    "7939": "l play",
    "7940": "l player",
    "7941": "biogra",
    "7942": "biograph",
    "7943": "schedule",
    "7944": "scheduled ",
    "7945": "rallie",
    "7946": "ques ",
    "7947": "0 br",
    "7948": "-Gene",
    "7949": "-General",
    "7950": "r., ",
    "7951": "Brian ",
    "7952": "ly|",
    "7953": "xternal ",
    "7954": "amid",
    "7955": "Ionic",
    "7956": "evelo",
    "7957": "nt and ",
    "7958": "And ",
    "7959": " clear",
    "7960": "heavy",
    "7961": "raction",
    "7962": "killing",
    "7963": "itable",
    "7964": "itable for ",
    "7965": "fication",
    "7966": "Australian ",
    "7967": "ds to ",
    "7968": "mense ",
    "7969": " gradu",
    "7970": "nutriti",
    "7971": "heated ",
    "7972": "ny and ",
    "7973": "ting syst",
    "7974": "break",
    "7975": "esbyt",
    "7976": "esbyteria",
    "7977": " behin",
    "7978": " behind ",
    "7979": "times, ",
    "7980": "milarity ",
    "7981": "argue ",
    "7982": "argue that ",
    "7983": "foil",
    "7984": " com",
    "7985": " computer",
    "7986": "thanasi",
    "7987": ") Li",
    "7988": ") Linc",
    "7989": ") Lincol",
    "7990": "ccording",
    "7991": "behin",
    "7992": "ltimor",
    "7993": "angered ",
    "7994": "ully ",
    "7995": "plici",
    "7996": "Ellen",
    "7997": "early ",
    "7998": "esight",
    "7999": "religious ",
    "8000": "accept",
    "8001": "reading",
    "8002": "complished ",
    "8003": " back",
    "8004": "physical",
    "8005": "royal ",
    "8006": "reserv",
    "8007": "reservoi",
    "8008": "portunity ",
    "8009": "nickn",
    "8010": "nickname",
    "8011": "nicknamed ",
    "8012": "juris",
    "8013": "primary ",
    "8014": "erver",
    "8015": ")(",
    "8016": "Despite",
    "8017": "ets ",
    "8018": "recording",
    "8019": "Const",
    "8020": "Constant",
    "8021": "laborate",
    "8022": "laborated ",
    "8023": "sertion",
    "8024": "uding ",
    "8025": "ference ",
    "8026": "matic",
    "8027": "matic) ",
    "8028": "ummer",
    "8029": "compani",
    "8030": "companied ",
    "8031": "ister",
    "8032": "pressed ",
    "8033": "poured ",
    "8034": "2), ",
    "8035": "course ",
    "8036": " war",
    "8037": "mean ",
    "8038": "place",
    "8039": "placement",
    "8040": " support",
    "8041": "sky, ",
    "8042": "lived ",
    "8043": "riting ",
    "8044": "Donate",
    "8045": "Donatello",
    "8046": "bolla",
    "8047": "#red",
    "8048": "#redirect",
    "8049": "Great Brit",
    "8050": "t#",
    "8051": "t#Mi",
    "8052": "instan",
    "8053": "neutr",
    "8054": "carious",
    "8055": " athe",
    "8056": "mailing",
    "8057": "partly ",
    "8058": "tually ",
    "8059": "irected ",
    "8060": "an*Ca",
    "8061": "arative",
    "8062": "gather",
    "8063": "ulliva",
    "8064": "author (d. ",
    "8065": "Finally",
    "8066": "Finally, ",
    "8067": "Cth",
    "8068": "Cthulhu",
    "8069": "rolled",
    "8070": "pace ",
    "8071": "Amph",
    "8072": "lace ",
    "8073": "secret",
    "8074": "romant",
    "8075": "Linc",
    "8076": "Lincol",
    "8077": "education",
    "8078": "198",
    "8079": "teor",
    "8080": " rap",
    "8081": "dicat",
    "8082": "dicator",
    "8083": "Baptis",
    "8084": "rgin ",
    "8085": "b)",
    "8086": "lance ",
    "8087": "creat",
    "8088": "War)*",
    "8089": "troop",
    "8090": "eedback ",
    "8091": "unani",
    "8092": "unanimous",
    "8093": "Court",
    "8094": "additional ",
    "8095": "erfac",
    "8096": "longer",
    "8097": "-Pacifi",
    "8098": "-Pacific ",
    "8099": "st of Ba",
    "8100": "st of Bahr",
    "8101": "Luth",
    "8102": "Luther",
    "8103": " Alt",
    "8104": "garris",
    "8105": "aron ",
    "8106": "ry to ",
    "8107": "andom",
    "8108": "andomnes",
    "8109": "methin",
    "8110": "mething ",
    "8111": "vaded ",
    "8112": "4:",
    "8113": " been ",
    "8114": "sebi",
    "8115": "him to ",
    "8116": "again ",
    "8117": "aurants",
    "8118": "U.S. and ",
    "8119": "Imper",
    "8120": " school",
    "8121": "tack, ",
    "8122": " result, ",
    "8123": "estingl",
    "8124": " resumed",
    "8125": "e of the ",
    "8126": "Gen. ",
    "8127": "welve ",
    "8128": "egral",
    "8129": "on (",
    "8130": "residen",
    "8131": "estone ",
    "8132": "belie",
    "8133": "belief",
    "8134": "Drui",
    "8135": "eg. ",
    "8136": "Lord",
    "8137": "firm ",
    "8138": "onial ",
    "8139": "pne",
    "8140": "pyram",
    "8141": "pyramid",
    "8142": "ctually",
    "8143": "foundation",
    "8144": "ducts ",
    "8145": "allace",
    "8146": "proportionate ",
    "8147": "2 dot",
    "8148": "likely to ",
    "8149": "enefi",
    "8150": " Hindu",
    "8151": "Cath",
    "8152": "Cathba",
    "8153": "primarily by ",
    "8154": "2, 18",
    "8155": "stud",
    "8156": "eneath",
    "8157": "itan",
    "8158": "Association",
    "8159": "ivered ",
    "8160": "npower",
    "8161": "lution",
    "8162": "subsequent",
    "8163": "subsequently ",
    "8164": "find ",
    "8165": "video gam",
    "8166": "pends ",
    "8167": "athei",
    "8168": "oliti",
    "8169": "olitic",
    "8170": "ce-",
    "8171": "stance ",
    "8172": "hibited ",
    "8173": "Greek",
    "8174": "serious",
    "8175": "discussion",
    "8176": "Mail",
    "8177": "sz",
    "8178": "k br",
    "8179": "ottish",
    "8180": "gdo",
    "8181": "p su",
    "8182": "p sup ",
    "8183": "e /su",
    "8184": "Roman Ca",
    "8185": "Roman Catholi",
    "8186": "Demon",
    "8187": "sector",
    "8188": "lack Se",
    "8189": "High",
    "8190": "record ",
    "8191": "three law",
    "8192": "senet",
    "8193": "8 BC",
    "8194": "Diesel",
    "8195": "examined",
    "8196": "emsel",
    "8197": "emselve",
    "8198": "hardly ",
    "8199": "thing ",
    "8200": "thogen",
    "8201": "University",
    "8202": "erfect",
    "8203": "Kppen",
    "8204": "III ",
    "8205": ")*199",
    "8206": "produced ",
    "8207": "down ",
    "8208": "KB ",
    "8209": "f(x) ",
    "8210": "danger",
    "8211": "dangerous",
    "8212": ", 200",
    "8213": "by, ",
    "8214": "rvive ",
    "8215": "of these ",
    "8216": "naiss",
    "8217": "naissanc",
    "8218": " entering ",
    "8219": "nting ",
    "8220": "support",
    "8221": "small",
    "8222": "lity)",
    "8223": "paint",
    "8224": "painting",
    "8225": "edback ",
    "8226": "engineered ",
    "8227": "Ben",
    "8228": " treat",
    "8229": "markedly ",
    "8230": "lead ",
    "8231": "cientific",
    "8232": "Nobel ",
    "8233": "pp. ",
    "8234": " includ",
    "8235": "iscover",
    "8236": "Department",
    "8237": " survi",
    "8238": "speculated",
    "8239": "alism",
    "8240": "tried ",
    "8241": "divided ",
    "8242": "ontine",
    "8243": "poetic ",
    "8244": "example, ",
    "8245": "Colom",
    "8246": "Colombi",
    "8247": "bivo",
    "8248": "bivores",
    "8249": "player",
    "8250": "rbian",
    "8251": "leads ",
    "8252": "way from ",
    "8253": "4)*18",
    "8254": "educational ",
    "8255": "Sunda",
    "8256": "Athlet",
    "8257": "Several ",
    "8258": "mselve",
    "8259": "throne ",
    "8260": "pecify",
    "8261": "egotiation",
    "8262": "o Par",
    "8263": "highland",
    "8264": "umbers ",
    "8265": " substan",
    "8266": " substances",
    "8267": "e system",
    "8268": "rpath",
    "8269": "rpathian",
    "8270": "written",
    "8271": " Categor",
    "8272": "pherd",
    "8273": "bundan",
    "8274": "Football ",
    "8275": "Kingdom, ",
    "8276": "ruments",
    "8277": "lausi",
    "8278": "gesic ",
    "8279": "ervoi",
    "8280": "Cold ",
    "8281": "Cold War",
    "8282": "de ",
    "8283": " up ",
    "8284": "Islam",
    "8285": "deci",
    "8286": "1 sea",
    "8287": "1 season",
    "8288": "First",
    "8289": "First-",
    "8290": "African ",
    "8291": "long as ",
    "8292": "-she",
    "8293": "-shek ",
    "8294": "exact ",
    "8295": "Soft",
    "8296": "color char",
    "8297": "Caym",
    "8298": "ownership",
    "8299": "covering",
    "8300": "Chop",
    "8301": " coroll",
    "8302": "internal ",
    "8303": "pped ",
    "8304": "ationary ",
    "8305": " Bo",
    "8306": " Boli",
    "8307": " Bolivi",
    "8308": "Washingto",
    "8309": "Cornwall",
    "8310": "ne, ",
    "8311": "ctrin",
    "8312": "annic ",
    "8313": "remain",
    "8314": "centur",
    "8315": "rgument",
    "8316": ") or ",
    "8317": "otter",
    "8318": "index ",
    "8319": "eking",
    "8320": "most notabl",
    "8321": "most notably ",
    "8322": "kraine",
    "8323": "to 1",
    "8324": "President ",
    "8325": "eral",
    "8326": "filiat",
    "8327": "Ministry ",
    "8328": "Ministry of ",
    "8329": "repres",
    "8330": "represent",
    "8331": "FO",
    "8332": "y to ",
    "8333": "Alexand",
    "8334": "Alexandria",
    "8335": "h -",
    "8336": "me and ",
    "8337": "hemat",
    "8338": "hematite ",
    "8339": "Love",
    "8340": "linked",
    "8341": "finished",
    "8342": "otide",
    "8343": "dates ",
    "8344": " they ",
    "8345": "pomme",
    "8346": "g;",
    "8347": "sm, ",
    "8348": "tend to ",
    "8349": "Medic",
    "8350": "tigu",
    "8351": "Cret",
    "8352": "A(",
    "8353": "oyage",
    "8354": "Hala",
    "8355": "Columbus ",
    "8356": "binson",
    "8357": "rs, ",
    "8358": " Canada",
    "8359": "Vince",
    "8360": "area ",
    "8361": "income",
    "8362": "rose",
    "8363": "maintain",
    "8364": "tations",
    "8365": "Bruc",
    "8366": "gs, ",
    "8367": "pared to ",
    "8368": "Nicaragua",
    "8369": "start",
    "8370": "fall of ",
    "8371": "3:",
    "8372": "es = ",
    "8373": "attack ",
    "8374": "employees",
    "8375": "Gauss",
    "8376": "taged ",
    "8377": "basis ",
    "8378": "Life",
    "8379": "ashe",
    "8380": "2th ",
    "8381": "Tan",
    "8382": "Tank ",
    "8383": "n, (",
    "8384": "n, ( ",
    "8385": "hiloso",
    "8386": "hilosoph",
    "8387": "have been",
    "8388": "absence of ",
    "8389": "idered ",
    "8390": "6, Cost",
    "8391": "tested",
    "8392": "Miss",
    "8393": "psycholo",
    "8394": "Bonds ",
    "8395": "black",
    "8396": "linguistic",
    "8397": "linguistically",
    "8398": "rity ",
    "8399": " Chin",
    "8400": "family of",
    "8401": "timulated",
    "8402": "influential ",
    "8403": "professor ",
    "8404": "voices",
    "8405": "mmon - ",
    "8406": "ering",
    "8407": "or br",
    "8408": "fried ",
    "8409": "ces to ",
    "8410": "Mexican",
    "8411": "4 - ",
    "8412": "it, ",
    "8413": "could ",
    "8414": "-14",
    "8415": "engines",
    "8416": "4%",
    "8417": "4%, ",
    "8418": "gration",
    "8419": "Brazil (d. ",
    "8420": "espread ",
    "8421": "rationali",
    "8422": "ce*",
    "8423": "hind ",
    "8424": "arinet",
    "8425": "size of",
    "8426": "athle",
    "8427": "lateral",
    "8428": "loyal ",
    "8429": "Milit",
    "8430": "Military ",
    "8431": "t br",
    "8432": "Gaiu",
    "8433": "knowledg",
    "8434": "episo",
    "8435": "episodes",
    "8436": "majority ",
    "8437": "City",
    "8438": "mese ",
    "8439": "quarters",
    "8440": "lighten",
    "8441": "lightenment",
    "8442": " Asian ",
    "8443": "cial ",
    "8444": "iberiu",
    "8445": "d'",
    "8446": "nship",
    "8447": "ichard ",
    "8448": "Hung",
    "8449": "emitted",
    "8450": "tool ",
    "8451": "ained ",
    "8452": "users ",
    "8453": " if ",
    "8454": "randa",
    "8455": "nsic ",
    "8456": "usseau",
    "8457": "usseau, ",
    "8458": "vived ",
    "8459": "UP",
    "8460": "3-0",
    "8461": "sub ",
    "8462": "animous",
    "8463": "4). ",
    "8464": "tress",
    "8465": "SI",
    "8466": "SID",
    "8467": "Bulgaria",
    "8468": " were ",
    "8469": " state and ",
    "8470": "spent ",
    "8471": "ification of ",
    "8472": "scend",
    "8473": "scendenta",
    "8474": "dinburgh ",
    "8475": "sixt",
    "8476": "llowed by ",
    "8477": "classification",
    "8478": "Dyl",
    "8479": "becomes ",
    "8480": "corresponds ",
    "8481": "corresponds to ",
    "8482": "allian",
    "8483": "alliance ",
    "8484": "Table",
    "8485": " (200",
    "8486": "head of state",
    "8487": "ffect",
    "8488": "-of-",
    "8489": "tunne",
    "8490": "soil",
    "8491": "mised ",
    "8492": "oting ",
    "8493": "under",
    "8494": "hasis on ",
    "8495": "lake ",
    "8496": "ging ",
    "8497": "inclusion",
    "8498": "lfonso",
    "8499": "asing",
    "8500": "captured ",
    "8501": "ressive",
    "8502": "exerc",
    "8503": "exercise",
    "8504": " Centa",
    "8505": "ugees",
    "8506": "L) ",
    "8507": "9). ",
    "8508": "critically",
    "8509": "Christianit",
    "8510": "tandard ",
    "8511": " World",
    "8512": " World W",
    "8513": " World War",
    "8514": "acers ",
    "8515": "tailed ",
    "8516": "mani",
    "8517": "e.)",
    "8518": "banana",
    "8519": "treated ",
    "8520": "eterna",
    "8521": "immuni",
    "8522": "Second W",
    "8523": "Second World",
    "8524": "Second World W",
    "8525": "ated by ",
    "8526": "of which",
    "8527": "ighbor",
    "8528": "ce of ",
    "8529": "talls",
    "8530": "Fu",
    "8531": "annual ",
    "8532": "slan ",
    "8533": "uxi",
    "8534": "uxilia",
    "8535": "4 k",
    "8536": "4 kbit",
    "8537": "zmi",
    "8538": "ontology",
    "8539": "le nor",
    "8540": "ois ",
    "8541": "Richard",
    "8542": "invasion",
    "8543": "Salce",
    "8544": "ned, ",
    "8545": "inople ",
    "8546": "tizen",
    "8547": "philosophe",
    "8548": "attack",
    "8549": "wear ",
    "8550": "odies",
    "8551": "Menl",
    "8552": "l war",
    "8553": "period",
    "8554": "translate",
    "8555": "translated ",
    "8556": "Jordan",
    "8557": "emergen",
    "8558": " publi",
    "8559": "parkin",
    "8560": "econdary ",
    "8561": "tinct ",
    "8562": "tinct from ",
    "8563": "ce betwe",
    "8564": "ce between ",
    "8565": "changed",
    "8566": "argue",
    "8567": "argued ",
    "8568": "tma",
    "8569": "7),",
    "8570": "Granada",
    "8571": "lementar",
    "8572": "lementary ",
    "8573": "nomination",
    "8574": "ommissi",
    "8575": "ommission ",
    "8576": "display",
    "8577": "Information",
    "8578": "scape ",
    "8579": "limited ",
    "8580": "d-",
    "8581": "livi",
    "8582": "lower",
    "8583": "aused ",
    "8584": "highly ",
    "8585": "blade",
    "8586": "White ",
    "8587": "White Hous",
    "8588": "ature of ",
    "8589": "the world",
    "8590": "amili",
    "8591": "heard ",
    "8592": "Johnston",
    "8593": "orestation",
    "8594": "Arthur",
    "8595": "suit",
    "8596": "Revol",
    "8597": "Revolution",
    "8598": " Win",
    "8599": " Window",
    "8600": "romoso",
    "8601": "romosomes",
    "8602": "cers ",
    "8603": "the world's ",
    "8604": "rifl",
    "8605": " than ",
    "8606": "belix",
    "8607": "rked ",
    "8608": "naturally",
    "8609": "*North",
    "8610": "classic",
    "8611": "iseries",
    "8612": "AP",
    "8613": "cused ",
    "8614": "nfeder",
    "8615": "reating",
    "8616": "tradition",
    "8617": "ordain",
    "8618": "endoca",
    "8619": "endocard",
    "8620": "onishing",
    "8621": "Certai",
    "8622": "Certain ",
    "8623": "Luc",
    "8624": "Louisiana",
    "8625": "Danes ",
    "8626": "request ",
    "8627": "Quark",
    "8628": "Fight",
    "8629": "1), ",
    "8630": "learning",
    "8631": "ifferent ",
    "8632": "a -",
    "8633": "usual ",
    "8634": " brM",
    "8635": ", se",
    "8636": "otheistic",
    "8637": " refer",
    "8638": "serrat",
    "8639": "4, Cost",
    "8640": "4, Costas ",
    "8641": "fficia",
    "8642": "inland",
    "8643": "rest of ",
    "8644": "border",
    "8645": "silver",
    "8646": "nagin",
    "8647": "naging ",
    "8648": "nstitute ",
    "8649": "herit",
    "8650": "heritanc",
    "8651": "ither ",
    "8652": "peninsu",
    "8653": "says ",
    "8654": "EO",
    "8655": "bic ",
    "8656": "roughly ",
    "8657": "selling",
    "8658": "players",
    "8659": "medici",
    "8660": "gestan",
    "8661": "rdotal",
    "8662": "criticized",
    "8663": "follows ",
    "8664": "grip",
    "8665": "Op",
    "8666": "miles) ",
    "8667": "spur",
    "8668": "e with",
    "8669": "o*200",
    "8670": "1-",
    "8671": "thological ",
    "8672": "hizo",
    "8673": "hizophr",
    "8674": "hizophrenia",
    "8675": " think ",
    "8676": "r to ",
    "8677": "vince ",
    "8678": "perhaps",
    "8679": "other hand, ",
    "8680": "rthern",
    "8681": "sent ",
    "8682": "evant ",
    "8683": "emeter",
    "8684": "ecessaril",
    "8685": "ecessarily ",
    "8686": "operated",
    "8687": "screen ",
    "8688": "Trial",
    "8689": "humans ",
    "8690": "oted ",
    "8691": "Amend",
    "8692": "Amendment",
    "8693": "follow ",
    "8694": "Japan ",
    "8695": "Japan (d. 1",
    "8696": "some ",
    "8697": " way ",
    "8698": " School",
    "8699": " power",
    "8700": "recent year",
    "8701": "quant",
    "8702": "minent ",
    "8703": "table ",
    "8704": "Ackerman",
    "8705": "Ackermann ",
    "8706": "voluntary ",
    "8707": "rivale",
    "8708": "rivaled ",
    "8709": "-purpose",
    "8710": "IDS",
    "8711": " new ",
    "8712": "189",
    "8713": "fanit",
    "8714": "rthur",
    "8715": "fication of",
    "8716": "observ",
    "8717": "sume ",
    "8718": "together",
    "8719": "together with",
    "8720": " engine",
    "8721": "nulf ",
    "8722": "itivis",
    "8723": "panel",
    "8724": "literat",
    "8725": "literature",
    "8726": "moa ",
    "8727": "teams ",
    "8728": "-communi",
    "8729": "e that ",
    "8730": "award ",
    "8731": "avail",
    "8732": "available",
    "8733": "yaho",
    "8734": "Quebec",
    "8735": "AL, ",
    "8736": "ne to ",
    "8737": "more ",
    "8738": "statu",
    "8739": "greater tha",
    "8740": "greater than ",
    "8741": "Holy ",
    "8742": "onsole ",
    "8743": "vered ",
    "8744": "ermaste",
    "8745": "mendo",
    "8746": "order to ",
    "8747": "approximate",
    "8748": "becoming",
    "8749": "tody",
    "8750": "erly ",
    "8751": "Japanes",
    "8752": "portray",
    "8753": "gically",
    "8754": "folk music",
    "8755": "parated",
    "8756": "tellite",
    "8757": "simov",
    "8758": "_{",
    "8759": " varies",
    "8760": "o-called ",
    "8761": "Soviet",
    "8762": "loveni",
    "8763": "Minister",
    "8764": "igions, ",
    "8765": "erling",
    "8766": "ciety ",
    "8767": "coustic",
    "8768": "linear",
    "8769": " German ",
    "8770": "roductory ",
    "8771": "slee",
    "8772": "isk ",
    "8773": "gyptian",
    "8774": "ursion",
    "8775": "painter",
    "8776": " brail",
    "8777": "acknow",
    "8778": "acknowledg",
    "8779": "bottom ",
    "8780": " over",
    "8781": "BO",
    "8782": "iler ",
    "8783": "domestic ",
    "8784": "nglo-Saxo",
    "8785": "lster",
    "8786": "emovi",
    "8787": "emoving ",
    "8788": "ialect",
    "8789": "caine",
    "8790": "hable ",
    "8791": "etc",
    "8792": "elud",
    "8793": "ugar",
    "8794": "nday ",
    "8795": "hundred",
    "8796": "hundreds of ",
    "8797": "nique",
    "8798": "teachin",
    "8799": "ends to ",
    "8800": "seldo",
    "8801": "seldom ",
    "8802": " occurri",
    "8803": " occurring ",
    "8804": "umami",
    "8805": "minister",
    "8806": "e and ",
    "8807": "tight",
    "8808": "idential ",
    "8809": " other",
    "8810": "separate ",
    "8811": "serl ",
    "8812": "fight",
    "8813": "1),",
    "8814": "mulat",
    "8815": "yber",
    "8816": "biolo",
    "8817": "biology",
    "8818": "had) ",
    "8819": "fer of",
    "8820": "joint ",
    "8821": "B-5",
    "8822": "iac ",
    "8823": "Finland's ",
    "8824": "ismuth",
    "8825": "society ",
    "8826": "grew ",
    "8827": "tistic",
    "8828": "introduc",
    "8829": "speaking",
    "8830": "dmund",
    "8831": "monitor",
    "8832": "an, ",
    "8833": " Hick",
    "8834": "1. ",
    "8835": "Magel",
    "8836": "Magellan",
    "8837": "Nintendo",
    "8838": "informal ",
    "8839": "dolla",
    "8840": "unning",
    "8841": "unningham",
    "8842": "Hondura",
    "8843": "help of ",
    "8844": "upon ",
    "8845": "partite ",
    "8846": "logistic",
    "8847": "logistical ",
    "8848": "iature",
    "8849": "larinet",
    "8850": "inting",
    "8851": " who ",
    "8852": "release of ",
    "8853": "vailable",
    "8854": "caused by ",
    "8855": "Claudi",
    "8856": "other wo",
    "8857": "other word",
    "8858": "ficia",
    "8859": "ficially",
    "8860": " cham",
    "8861": " champio",
    "8862": "larger",
    "8863": "week",
    "8864": "stract",
    "8865": "i)#",
    "8866": "i)#Mi",
    "8867": "esemb",
    "8868": "esemble ",
    "8869": "ootball ",
    "8870": "final ",
    "8871": "thyl",
    "8872": "sometime",
    "8873": "in agr",
    "8874": "in agricult",
    "8875": "ing, ",
    "8876": "buil",
    "8877": "built ",
    "8878": "e.g.",
    "8879": "dj",
    "8880": "eliminate ",
    "8881": "ilure",
    "8882": "mpted ",
    "8883": "gundia",
    "8884": "osely ",
    "8885": "Gulf ",
    "8886": "ravi",
    "8887": "operating ",
    "8888": "pursue ",
    "8889": "lbour",
    "8890": "between ",
    "8891": "ducation",
    "8892": "plural ",
    "8893": "8)*200",
    "8894": " scien",
    "8895": "locaust",
    "8896": "Taito",
    "8897": "Taito|",
    "8898": "ranean",
    "8899": "an pe",
    "8900": "an people",
    "8901": "antider",
    "8902": "antideriva",
    "8903": "s T",
    "8904": "8)*1",
    "8905": "8)*18",
    "8906": "king ",
    "8907": "spontan",
    "8908": "spontaneou",
    "8909": "oO, ",
    "8910": "Federal ",
    "8911": "ash ",
    "8912": "Catha",
    "8913": "arbari",
    "8914": "Civil",
    "8915": "lack",
    "8916": "elieved that ",
    "8917": " the wo",
    "8918": " the world",
    "8919": "ecular",
    "8920": "Brah",
    "8921": " and women",
    "8922": "failed",
    "8923": "ismissed ",
    "8924": "dez",
    "8925": "general, ",
    "8926": "omagn",
    "8927": "interpretation",
    "8928": "titudes",
    "8929": "els ",
    "8930": "Netherland",
    "8931": "behaviou",
    "8932": "iries ",
    "8933": "Yuss",
    "8934": "Yussuf",
    "8935": "cided ",
    "8936": "damaging",
    "8937": "houses",
    "8938": "Third ",
    "8939": "Third La",
    "8940": "iderabl",
    "8941": "chain ",
    "8942": "Brail",
    "8943": "engineer",
    "8944": "lmost",
    "8945": " four",
    "8946": "language",
    "8947": "omestic",
    "8948": "granted",
    "8949": "programming langua",
    "8950": "programming language",
    "8951": "France to ",
    "8952": "standard ",
    "8953": "development",
    "8954": "opinion",
    "8955": ")#",
    "8956": "F br",
    "8957": "senic",
    "8958": "Instead, ",
    "8959": "laid ",
    "8960": "launched ",
    "8961": "gamem",
    "8962": "constitution",
    "8963": " Sa",
    "8964": " Saint",
    "8965": "jured ",
    "8966": "etwork ",
    "8967": "rshav",
    "8968": "in (19",
    "8969": "xport",
    "8970": "mann",
    "8971": "fictional ",
    "8972": "struction",
    "8973": "interaction",
    "8974": "icate ",
    "8975": "hium",
    "8976": "omes ",
    "8977": "Cott",
    "8978": "Cottage",
    "8979": "rway",
    "8980": "trong ",
    "8981": "ibioti",
    "8982": "speake",
    "8983": "speakers ",
    "8984": "Baseball",
    "8985": "dals",
    "8986": "Inter",
    "8987": "Intercol",
    "8988": "Intercolleg",
    "8989": "Intercollegiat",
    "8990": "S br",
    "8991": "eable ",
    "8992": "lifrey",
    "8993": "angerou",
    "8994": "nufacture",
    "8995": "estimated ",
    "8996": "cations",
    "8997": "master",
    "8998": "aptures ",
    "8999": "roops",
    "9000": "inche",
    "9001": "ever ",
    "9002": "definite ",
    "9003": "ramic ",
    "9004": "parties",
    "9005": "affil",
    "9006": "affiliat",
    "9007": " referen",
    "9008": "marry ",
    "9009": " the 19",
    "9010": "erpreted ",
    "9011": "aming",
    "9012": "arison",
    "9013": "expectations",
    "9014": "veloping",
    "9015": "s*200",
    "9016": "guard ",
    "9017": "arm (",
    "9018": "arm (200",
    "9019": "Sup",
    "9020": "poken",
    "9021": "iginally",
    "9022": "othermal",
    "9023": "use of ",
    "9024": "requested",
    "9025": "-post",
    "9026": "istribut",
    "9027": "mercia",
    "9028": "asset",
    "9029": "strict",
    "9030": "notion",
    "9031": "trateg",
    "9032": "antife",
    "9033": "antiferr",
    "9034": "antiferroma",
    "9035": "antiferromagn",
    "9036": "cludes ",
    "9037": " min",
    "9038": "death of",
    "9039": "death of ",
    "9040": "ensitive",
    "9041": "founder",
    "9042": "expen",
    "9043": "bellion ",
    "9044": "Encyclopdie",
    "9045": "extent",
    "9046": "ddie ",
    "9047": " le",
    "9048": " letter",
    "9049": "Eastern",
    "9050": "state",
    "9051": " rivers",
    "9052": "ystone ",
    "9053": " death",
    "9054": "lied ",
    "9055": "istinguished ",
    "9056": " cultural ",
    "9057": "Ess",
    "9058": "Hubb",
    "9059": "Hubbard",
    "9060": "five year",
    "9061": "reased ",
    "9062": "spoken",
    "9063": "rchas",
    "9064": "ptana",
    "9065": "ptanaly",
    "9066": "try to ",
    "9067": "Edition",
    "9068": "them ",
    "9069": "greement",
    "9070": "ke, ",
    "9071": "C br",
    "9072": "uous",
    "9073": "v. ",
    "9074": "cars ",
    "9075": "titude",
    "9076": "atypic",
    "9077": "nciation",
    "9078": "unchange",
    "9079": "such as ",
    "9080": "es) ",
    "9081": " me",
    "9082": " metres ",
    "9083": "Queen ",
    "9084": "tempor",
    "9085": "Wilson",
    "9086": "ranks ",
    "9087": "nderson",
    "9088": " has ",
    "9089": "custom",
    "9090": "planet",
    "9091": "et al",
    "9092": "vention",
    "9093": "gestur",
    "9094": "destroyer",
    "9095": "coroll",
    "9096": "corollary ",
    "9097": "ranteed",
    "9098": "comes from ",
    "9099": "r and ",
    "9100": "involv",
    "9101": "attended ",
    "9102": "associated with",
    "9103": "rd-",
    "9104": "partner",
    "9105": "bined with",
    "9106": "next",
    "9107": "ds of ",
    "9108": "ocarbon",
    "9109": "g to ",
    "9110": " age",
    "9111": "economy ",
    "9112": "a.k",
    "9113": "covers ",
    "9114": "MHz",
    "9115": "defined ",
    "9116": "municipa",
    "9117": "3, 200",
    "9118": "/tt ",
    "9119": "and 200",
    "9120": "help ",
    "9121": "ntuc",
    "9122": "ntucky",
    "9123": "dish ",
    "9124": "Berke",
    "9125": "Berkeley",
    "9126": "viable",
    "9127": " brMi",
    "9128": "distin",
    "9129": "distinction",
    "9130": "blood",
    "9131": ", Ameri",
    "9132": ", American",
    "9133": "illy ",
    "9134": "mperial",
    "9135": "fundamental",
    "9136": "aising",
    "9137": "pecialist",
    "9138": "extinct",
    "9139": "jaz",
    "9140": "ff, ",
    "9141": " depression",
    "9142": "guest ",
    "9143": "guest ho",
    "9144": "OF",
    "9145": "OFH",
    "9146": "pretty ",
    "9147": "nadoes",
    "9148": "uity ",
    "9149": "utonom",
    "9150": "experien",
    "9151": "experience ",
    "9152": "ffer",
    "9153": "tremo",
    "9154": "tremolo",
    "9155": "utside",
    "9156": "Press",
    "9157": "long bee",
    "9158": "long been ",
    "9159": "8 % ",
    "9160": "igrap",
    "9161": "sorti",
    "9162": "sortium",
    "9163": "ited from ",
    "9164": "labor ",
    "9165": "quired",
    "9166": "amongst ",
    "9167": "tlantic ",
    "9168": "life, ",
    "9169": "juana",
    "9170": "icial ",
    "9171": "militia",
    "9172": "Bernard ",
    "9173": "moved ",
    "9174": "astrou",
    "9175": "st be ",
    "9176": "Iow",
    "9177": "mixed ",
    "9178": "Trad",
    "9179": "Khafre",
    "9180": "ollege",
    "9181": "isolate",
    "9182": "isolated ",
    "9183": " atmospheric ",
    "9184": "cusing",
    "9185": "tallat",
    "9186": "tallation",
    "9187": "monsters, ",
    "9188": "iatric",
    "9189": "iderable",
    "9190": "atalyst",
    "9191": "196",
    "9192": "1)*18",
    "9193": "achieved ",
    "9194": "ounter",
    "9195": "Middle",
    "9196": "Middle Ages",
    "9197": "present",
    "9198": "presented ",
    "9199": "atively, ",
    "9200": "uce ",
    "9201": "zz",
    "9202": "tiqu",
    "9203": "lean ",
    "9204": "onstitu",
    "9205": "haz",
    "9206": "fallen",
    "9207": "ilater",
    "9208": "ilateral ",
    "9209": "fact that",
    "9210": "solve ",
    "9211": "Division",
    "9212": "Civil W",
    "9213": "Civil War",
    "9214": "retrie",
    "9215": "cept for ",
    "9216": "rring ",
    "9217": "fiction",
    "9218": "strogo",
    "9219": "miles ",
    "9220": "estions",
    "9221": "differences",
    "9222": "e -",
    "9223": "8 dot",
    "9224": "cline of ",
    "9225": "50)*1",
    "9226": "50)*18",
    "9227": "chite",
    "9228": "chitectu",
    "9229": "programme",
    "9230": "Lockhart, ",
    "9231": "instrument",
    "9232": "Daily",
    "9233": "turmo",
    "9234": "turmoil",
    "9235": "surrounded ",
    "9236": "surrounded by ",
    "9237": "Louis ",
    "9238": "generation",
    "9239": "ctoria",
    "9240": "*Mo",
    "9241": "*Model",
    "9242": "uture ",
    "9243": "ecomes",
    "9244": "s. ",
    "9245": "IM-",
    "9246": " point",
    "9247": "berso",
    "9248": "y on ",
    "9249": "output",
    "9250": "e took ",
    "9251": "mercial ",
    "9252": "efect",
    "9253": "efecture",
    "9254": "Earle",
    "9255": "Con",
    "9256": "Conferen",
    "9257": "Nor",
    "9258": "Norway",
    "9259": "icipan",
    "9260": "Labor",
    "9261": "Laborat",
    "9262": "dopted",
    "9263": "ented ",
    "9264": "the Nobel",
    "9265": "Diego",
    "9266": "statutor",
    "9267": "six ",
    "9268": "lects ",
    "9269": "Congress",
    "9270": "Red ",
    "9271": "Red Sox",
    "9272": "ology",
    "9273": " mon",
    "9274": " month",
    "9275": "Keny",
    "9276": "mitive",
    "9277": "thropolo",
    "9278": "thropology",
    "9279": "Region",
    "9280": "Lithua",
    "9281": "Lithuani",
    "9282": "rcely",
    "9283": "documentary ",
    "9284": "Hgg",
    "9285": "ble to ",
    "9286": "mytholog",
    "9287": "suggest that",
    "9288": " after",
    "9289": "SBN ",
    "9290": "frequent",
    "9291": "ite Sox",
    "9292": "ination",
    "9293": "egarded ",
    "9294": "/blockquote",
    "9295": "analy",
    "9296": "vious ",
    "9297": "Prime Minister",
    "9298": "overed ",
    "9299": "wheel",
    "9300": "onsider",
    "9301": "ogically",
    "9302": "Vampi",
    "9303": "endanger",
    "9304": "Ironically, ",
    "9305": "talian ",
    "9306": " 18, ",
    "9307": "soner",
    "9308": "performed ",
    "9309": "urnament",
    "9310": "weather",
    "9311": "Scotland",
    "9312": "vii",
    "9313": "Pacific ",
    "9314": "usually",
    "9315": "smith",
    "9316": "sting ",
    "9317": "lection",
    "9318": "rontie",
    "9319": "rushed ",
    "9320": " desc",
    "9321": " descent",
    "9322": "executive",
    "9323": "featuring",
    "9324": "wanted to ",
    "9325": "e-seas",
    "9326": "concept",
    "9327": "stadium",
    "9328": "tari ",
    "9329": "arith",
    "9330": "minism",
    "9331": "ertion ",
    "9332": "agricult",
    "9333": "tinguishing ",
    "9334": "tudy of ",
    "9335": "Roman",
    "9336": "oco ",
    "9337": "kira",
    "9338": "crimin",
    "9339": "BCDI",
    "9340": "chess",
    "9341": "ellip",
    "9342": "valid",
    "9343": "morial ",
    "9344": "a*199",
    "9345": " cell ",
    "9346": "capital ",
    "9347": "Native Americ",
    "9348": "El Ni",
    "9349": "concentrate",
    "9350": "ncol",
    "9351": "Basqu",
    "9352": "discip",
    "9353": "discipline",
    "9354": "Canada, ",
    "9355": "choose ",
    "9356": "phocle",
    "9357": "Teutonic",
    "9358": "said to ",
    "9359": "intege",
    "9360": "enry ",
    "9361": "enry Ki",
    "9362": "enry Kissi",
    "9363": "enry Kissinger",
    "9364": " Army",
    "9365": "er - ",
    "9366": "etical",
    "9367": "anctua",
    "9368": "hypothe",
    "9369": " Family",
    "9370": "es.*",
    "9371": "es.*18",
    "9372": "gative",
    "9373": "ty Colleg",
    "9374": "this, ",
    "9375": "lists ",
    "9376": "-oriented",
    "9377": "other than ",
    "9378": " occurs ",
    "9379": "Vander",
    "9380": "Vanderbil",
    "9381": "4 /sub",
    "9382": "laure",
    "9383": "ez",
    "9384": "ezbo",
    "9385": "ezbolla",
    "9386": " denomina",
    "9387": "ivier",
    "9388": "6)*18",
    "9389": "00,000",
    "9390": "nnis ",
    "9391": "-air ",
    "9392": " normal",
    "9393": "poptotic ",
    "9394": "vast ",
    "9395": "brief ",
    "9396": "enforcemen",
    "9397": "children's ",
    "9398": "Brazil, ",
    "9399": "tells",
    "9400": "oday ",
    "9401": "peakers",
    "9402": "rcra",
    "9403": "rcraft",
    "9404": "-hand",
    "9405": "Bangl",
    "9406": "e's ",
    "9407": "ief",
    "9408": "aling with",
    "9409": "Athen",
    "9410": "task",
    "9411": "s), ",
    "9412": "placed by ",
    "9413": "staining ",
    "9414": "adio ",
    "9415": "icular",
    "9416": "February ",
    "9417": "February 200",
    "9418": "heim",
    "9419": "Henry Ford ",
    "9420": "Bur",
    "9421": "Burgo",
    "9422": "Burgoyn",
    "9423": "pproximate",
    "9424": "cancelled ",
    "9425": "alph",
    "9426": "spectromet",
    "9427": "rnard",
    "9428": "r.*1",
    "9429": "nifac",
    "9430": "tributed ",
    "9431": "tributed to ",
    "9432": "half of the ",
    "9433": "billio",
    "9434": "(d. 19",
    "9435": "dividual ",
    "9436": "long time",
    "9437": "8). ",
    "9438": "attempted to ",
    "9439": "esearch",
    "9440": "the first",
    "9441": "commander",
    "9442": "urgenc",
    "9443": "olume ",
    "9444": " charact",
    "9445": "Philippi",
    "9446": "Philippines",
    "9447": " relative",
    "9448": " relatively ",
    "9449": "standin",
    "9450": "standing ",
    "9451": "kidn",
    "9452": "kidnap",
    "9453": "lwa",
    "9454": "lwauk",
    "9455": "C. ",
    "9456": "ioneer",
    "9457": "ooth ",
    "9458": "ignation",
    "9459": "ves ",
    "9460": "nav",
    "9461": "West",
    "9462": "Western",
    "9463": "opened ",
    "9464": "/her",
    "9465": " coll",
    "9466": " college",
    "9467": "asured ",
    "9468": "5 /sub",
    "9469": "#The ",
    "9470": "quest of ",
    "9471": "theories",
    "9472": "dviso",
    "9473": " would",
    "9474": "GT",
    "9475": "ocard",
    "9476": "nald ",
    "9477": " Clark",
    "9478": " Clarke'",
    "9479": " Clarke's ",
    "9480": "drama",
    "9481": ".*18",
    "9482": "mechanically",
    "9483": "believe t",
    "9484": "believe that ",
    "9485": "percent",
    "9486": "Hill, ",
    "9487": "a's ",
    "9488": "miership",
    "9489": "nt or ",
    "9490": "NATO",
    "9491": "Kissi",
    "9492": "rginia ",
    "9493": "expandin",
    "9494": "alumn",
    "9495": "rning",
    "9496": "nervous ",
    "9497": "nervous system",
    "9498": "Statut",
    "9499": "Statute of ",
    "9500": "rarely",
    "9501": "showing",
    "9502": "drew from ",
    "9503": "continu",
    "9504": "continuous",
    "9505": "20,000",
    "9506": "aldic ",
    "9507": "formed ",
    "9508": "bassy ",
    "9509": "byteria",
    "9510": " direct",
    "9511": "post-",
    "9512": "variously ",
    "9513": " known",
    "9514": " Footbal",
    "9515": " Football ",
    "9516": "Chile ",
    "9517": "e#",
    "9518": "Aste",
    "9519": "Asterix",
    "9520": "current ",
    "9521": "ly. ",
    "9522": "no long",
    "9523": "means of ",
    "9524": "North Carolina",
    "9525": "speak",
    "9526": "riters",
    "9527": "backed by ",
    "9528": "elligi",
    "9529": "chaft",
    "9530": "fghanist",
    "9531": "diagnos",
    "9532": "powerful",
    "9533": "utting ",
    "9534": "wedish",
    "9535": "nglade",
    "9536": "s 1",
    "9537": "University#",
    "9538": "meani",
    "9539": "20th ",
    "9540": "Thessa",
    "9541": "rupti",
    "9542": "actic ",
    "9543": "edited",
    "9544": "borrow",
    "9545": "alternate ",
    "9546": "nxi",
    "9547": "adopted ",
    "9548": " Yea",
    "9549": " at bat",
    "9550": "unemploy",
    "9551": "unemployment",
    "9552": "uper",
    "9553": "yroid",
    "9554": "erfere",
    "9555": "Costas ",
    "9556": "jurisdict",
    "9557": "jurisdiction",
    "9558": "egions",
    "9559": "0 BC",
    "9560": " in",
    "9561": "create ",
    "9562": "overthro",
    "9563": "overthrown",
    "9564": "switch",
    "9565": "boiling ",
    "9566": "boiling point",
    "9567": "children, ",
    "9568": "Spa",
    "9569": "space ",
    "9570": "pop ",
    "9571": "lica",
    "9572": "added ",
    "9573": "IM",
    "9574": "IMP",
    "9575": "undamenta",
    "9576": "UPA",
    "9577": "PO, ",
    "9578": "Later",
    "9579": "modern",
    "9580": "bishop",
    "9581": "Davis",
    "9582": "scar ",
    "9583": "part in ",
    "9584": "Incomple",
    "9585": "less tha",
    "9586": "less than ",
    "9587": "acetyl",
    "9588": "acetylene",
    "9589": "al. ",
    "9590": "ogene",
    "9591": "ogenesis",
    "9592": "result",
    "9593": "821",
    "9594": "Franci",
    "9595": "Francisco",
    "9596": "pieces of ",
    "9597": "winner",
    "9598": "destro",
    "9599": "destroyed",
    "9600": "riteria",
    "9601": "nuing",
    "9602": "pini",
    "9603": "onstruct",
    "9604": "mibi",
    "9605": "rural",
    "9606": "ar I",
    "9607": "heism",
    "9608": "tabili",
    "9609": "enland",
    "9610": "linical",
[...]
