{
  "id2token": {
    "0": "\n",
    "1": " ",
    "2": "!",
    "3": "#",
    "4": "$",
    "5": "%",
    "6": "'",
    "7": "(",
    "8": ")",
    "9": "*",
    "10": "+",
    "11": ",",
    "12": "-",
    "13": ".",
    "14": "/",
    "15": "0",
    "16": "1",
    "17": "2",
    "18": "3",
    "19": "4",
    "20": "5",
    "21": "6",
    "22": "7",
    "23": "8",
    "24": "9",
    "25": ":",
    "26": ";",
    "27": "=",
    "28": "?",
    "29": "@",
    "30": "A",
    "31": "B",
    "32": "C",
    "33": "D",
    "34": "E",
    "35": "F",
    "36": "G",
    "37": "H",
    "38": "I",
    "39": "J",
    "40": "K",
    "41": "L",
    "42": "M",
    "43": "N",
    "44": "O",
    "45": "P",
    "46": "Q",
    "47": "R",
    "48": "S",
    "49": "T",
    "50": "U",
    "51": "V",
    "52": "W",
    "53": "X",
    "54": "Y",
    "55": "Z",
    "56": "\\",
    "57": "^",
    "58": "_",
    "59": "`",
    "60": "a",
    "61": "b",
    "62": "c",
    "63": "d",
    "64": "e",
    "65": "f",
    "66": "g",
    "67": "h",
    "68": "i",
    "69": "j",
    "70": "k",
    "71": "l",
    "72": "m",
    "73": "n",
    "74": "o",
    "75": "p",
    "76": "q",
    "77": "r",
    "78": "s",
    "79": "t",
    "80": "u",
    "81": "v",
    "82": "w",
    "83": "x",
    "84": "y",
    "85": "z",
    "86": "{",
    "87": "|",
    "88": "}",
    "89": "~",
    "90": "<|endoftext|>",
    "91": "<pad>",
    "92": "ly",
    "93": "lyr",
    "94": "5 ",
    "95": "5 y",
    "96": "5 ye",
    "97": "5 yea",
    "98": "em",
    "99": "emo",
    "100": "emoc",
    "101": "emocr",
    "102": "cd",
    "103": "cdo",
    "104": "cdot",
    "105": "es",
    "106": "est",
    "107": "ip",
    "108": "ipt",
    "109": "yl",
    "110": "yli",
    "111": "ylin",
    "112": "ylind",
    "113": "lyn",
    "114": "lyno",
    "115": "lynom",
    "116": "CV",
    "117": "CVD",
    "118": "us",
    "119": "use",
    "120": "useu",
    "121": "useum",
    "122": "ie",
    "123": "ier",
    "124": "rr",
    "125": "rri",
    "126": "rrie",
    "127": "rried",
    "128": "be",
    "129": "bec",
    "130": "Ze",
    "131": "Zea",
    "132": "um",
    "133": "umm",
    "134": "pe",
    "135": "ped",
    "136": "ro",
    "137": "rop",
    "138": "or",
    "139": "orn",
    "140": "ornh",
    "141": "ornho",
    "142": "ornhol",
    "143": "xa",
    "144": "sp",
    "145": "pp",
    "146": "ppe",
    "147": "pped",
    "148": "br",
    "149": "bra",
    "150": "bran",
    "151": "Pa",
    "152": "Par",
    "153": "mb",
    "154": "mbr",
    "155": "mbri",
    "156": "fs",
    "157": "on",
    "158": "oni",
    "159": "lo",
    "160": "loo",
    "161": "lood",
    "162": "ma",
    "163": "may",
    "164": "may ",
    "165": "Ag",
    "166": "Aga",
    "167": "Agav",
    "168": "Agave",
    "169": "el",
    "170": "ag",
    "171": "aga",
    "172": "agaz",
    "173": " a",
    "174": " an",
    "175": "au",
    "176": "aux",
    "177": "sa",
    "178": "sat",
    "179": "an",
    "180": "and",
    "181": "and ",
    "182": "ol",
    "183": "oll",
    "184": "olle",
    "185": "olleg",
    "186": "pl",
    "187": "plo",
    "188": "plom",
    "189": "ploma",
    "190": "un",
    "191": "uni",
    "192": "univ",
    "193": "unive",
    "194": "univer",
    "195": "nt",
    "196": "nti",
    "197": "ntio",
    "198": "li",
    "199": "lib",
    "200": "as",
    "201": "ast",
    "202": "ou",
    "203": "oug",
    "204": "ough",
    "205": "usl",
    "206": "usli",
    "207": "er",
    "208": "ers",
    "209": "erso",
    "210": "erson",
    "211": "io",
    "212": "ion",
    "213": "rn",
    "214": "rne",
    "215": "rner",
    "216": "B*",
    "217": "B**",
    "218": "sk",
    "219": "ska",
    "220": "th",
    "221": "thi",
    "222": "thin",
    "223": "ok",
    "224": "oku",
    "225": "S$",
    "226": "no",
    "227": "nor",
    "228": "nort",
    "229": "north",
    "230": "tw",
    "231": "two",
    "232": "twor",
    "233": "do",
    "234": "dom",
    "235": "og",
    "236": "ogl",
    "237": "ogle",
    "238": "un ",
    "239": "ho",
    "240": "hod",
    "241": "om",
    "242": "omp",
    "243": "ompu",
    "244": "omput",
    "245": "d ",
    "246": "d o",
    "247": "d of",
    "248": "d of ",
    "249": "ni",
    "250": "nis",
    "251": "ti",
    "252": "tit",
    "253": "ba",
    "254": "bat",
    "255": "bate",
    "256": "ad",
    "257": "ort",
    "258": "orta",
    "259": "of",
    "260": "of ",
    "261": "0 ",
    "262": "gg",
    "263": "ggl",
    "264": "C ",
    "265": "mbe",
    "266": "co",
    "267": "cor",
    "268": "rm",
    "269": "rms",
    "270": "lk",
    "271": "lk ",
    "272": "ll",
    "273": "lly",
    "274": "lly ",
    "275": "fo",
    "276": "foo",
    "277": "foot",
    "278": "ki",
    "279": "kin",
    "280": "king",
    "281": "ome",
    "282": "omed",
    "283": "hi",
    "284": "hip",
    "285": "ul",
    "286": "ult",
    "287": "ultu",
    "288": "ultur",
    "289": "Ba",
    "290": "Bas",
    "291": "Basq",
    "292": "so",
    "293": "sop",
    "294": "bag",
    "295": "ct",
    "296": "ct ",
    "297": "a*",
    "298": "a*A",
    "299": "a*Ag",
    "300": "a*Aga",
    "301": "a*Agav",
    "302": "a*Agave",
    "303": "Ib",
    "304": "Iba",
    "305": "Ibad",
    "306": "ee",
    "307": "ee ",
    "308": "en",
    "309": "end",
    "310": "at",
    "311": "ga",
    "312": "gav",
    "313": "gave",
    "314": "rb",
    "315": "rbi",
    "316": "in",
    "317": "int",
    "318": "Ri",
    "319": "if",
    "320": "iff",
    "321": "pa",
    "322": "lli",
    "323": "llin",
    "324": "llino",
    "325": "llinoi",
    "326": "llinois",
    "327": "me",
    "328": "med",
    "329": "medi",
    "330": "ir",
    "331": "irc",
    "332": "::",
    "333": "la",
    "334": "lac",
    "335": "uc",
    "336": "uch",
    "337": "uch ",
    "338": "CT",
    "339": "ia",
    "340": "iam",
    "341": "ar",
    "342": "ara",
    "343": "ci",
    "344": "cip",
    "345": "bo",
    "346": "bon",
    "347": "bone",
    "348": "Ir",
    "349": "Ire",
    "350": "Irel",
    "351": "od",
    "352": "ody",
    "353": "erm",
    "354": "erma",
    "355": "erman",
    "356": "ge",
    "357": "get",
    "358": "geta",
    "359": "se",
    "360": "see",
    "361": "see ",
    "362": "ers ",
    "363": "30",
    "364": "30s",
    "365": "ory",
    "366": "et",
    "367": "ett",
    "368": "ettl",
    "369": "hom",
    "370": "home",
    "371": " y",
    "372": " ye",
    "373": " yea",
    "374": " year",
    "375": "pi",
    "376": "pir",
    "377": "pire",
    "378": " o",
    "379": "eme",
    "380": "emen",
    "381": "ea",
    "382": "ead",
    "383": "Ge",
    "384": "oke",
    "385": "**",
    "386": "ch",
    "387": "chi",
    "388": "chin",
    "389": "vi",
    "390": "vic",
    "391": "vice",
    "392": "mo",
    "393": "mon",
    "394": "mont",
    "395": "month",
    "396": "lig",
    "397": "ligi",
    "398": "cl",
    "399": "50",
    "400": "lar",
    "401": "lare",
    "402": "atr",
    "403": "atro",
    "404": "Ha",
    "405": "Hal",
    "406": "Hall",
    "407": "/t",
    "408": "qu",
    "409": "rv",
    "410": "rve",
    "411": "rvey",
    "412": "ph",
    "413": "phe",
    "414": "phel",
    "415": "ne",
    "416": "new",
    "417": "gr",
    "418": "gra",
    "419": "te",
    "420": "ter",
    "421": "tera",
    "422": "tr",
    "423": "tro",
    "424": "troy",
    "425": "tri",
    "426": "ov",
    "427": "ove",
    "428": "over",
    "429": " l",
    "430": " la",
    "431": "be ",
    "432": "bu",
    "433": "but",
    "434": "lb",
    "435": "lbo",
    "436": "lbou",
    "437": "dv",
    "438": "dor",
    "439": "com",
    "440": "up",
    "441": "upi",
    "442": "upit",
    "443": "upite",
    "444": "eel",
    "445": "eel ",
    "446": "pik",
    "447": "pike",
    "448": "lia",
    "449": "liam",
    "450": "are",
    "451": "are ",
    "452": "it",
    "453": "iti",
    "454": "itio",
    "455": "ug",
    "456": "ugh",
    "457": "ig",
    "458": "Ni",
    "459": "Nic",
    "460": "ft",
    "461": "fte",
    "462": "ften",
    "463": "ed",
    "464": "ede",
    "465": "eder",
    "466": "twe",
    "467": "nr",
    "468": "gn",
    "469": "gni",
    "470": "for",
    "471": "form",
    "472": "Ac",
    "473": "ua",
    "474": "uab",
    "475": "uabl",
    "476": "st",
    "477": "sta",
    "478": "stan",
    "479": "stand",
    "480": "olo",
    "481": "olog",
    "482": "ass",
    "483": "ean",
    "484": "eani",
    "485": "va",
    "486": "vag",
    "487": "pec",
    "488": "peci",
    "489": "dn",
    "490": "vat",
    "491": "vate",
    "492": "P.",
    "493": "ont",
    "494": "ontr",
    "495": "ontra",
    "496": "rma",
    "497": "rman",
    "498": "wa",
    "499": "wal",
    "500": "wall",
    "501": "wi",
    "502": "wik",
    "503": "wiki",
    "504": "mi",
    "505": "mig",
    "506": "migr",
    "507": "migra",
    "508": "ror",
    "509": "mp",
    "510": "mpo",
    "511": "mpor",
    "512": "mport",
    "513": "mporta",
    "514": "uar",
    "515": "ra",
    "516": "rar",
    "517": "fol",
    "518": "foll",
    "519": "follo",
    "520": "follow",
    "521": "follows",
    "522": "co-",
    "523": "fi",
    "524": "fir",
    "525": "firs",
    "526": "eas",
    "527": "easu",
    "528": "easur",
    "529": "lym",
    "530": "lymp",
    "531": "aum",
    "532": "ban",
    "533": "band",
    "534": "nl",
    "535": "nly",
    "536": "nly ",
    "537": "le",
    "538": "lea",
    "539": "ate",
    "540": "eth",
    "541": "ethe",
    "542": "aul",
    "543": "ault",
    "544": "ared",
    "545": "ow",
    "546": "owe",
    "547": "owev",
    "548": "oweve",
    "549": "ap",
    "550": "app",
    "551": "ert",
    "552": "ab",
    "553": "abi",
    "554": "abil",
    "555": "ade",
    "556": "ader",
    "557": "iou",
    "558": "ious",
    "559": "is",
    "560": "ish",
    "561": "lae",
    "562": "laeo",
    "563": "bi",
    "564": "bin",
    "565": "ted",
    "566": "ac",
    "567": "ack",
    "568": "acks",
    "569": "ackso",
    "570": "ackson",
    "571": "to",
    "572": "tob",
    "573": "ark",
    "574": "kind",
    "575": "bou",
    "576": "bout",
    "577": "bout ",
    "578": "inc",
    "579": "inci",
    "580": "BI",
    "581": "ur",
    "582": "urg",
    "583": "ri",
    "584": "rig",
    "585": "ep",
    "586": "epa",
    "587": "epar",
    "588": "epara",
    "589": "iv",
    "590": "ivi",
    "591": "ivin",
    "592": "Geo",
    "593": "Geor",
    "594": "Georg",
    "595": "rs",
    "596": "rse",
    "597": "ene",
    "598": "ener",
    "599": "ford",
    "600": "iga",
    "601": "igan",
    "602": "lev",
    "603": "leve",
    "604": "mbi",
    "605": "mbie",
    "606": "teg",
    "607": "tego",
    "608": "tegor",
    "609": "al",
    "610": "ali",
    "611": "alio",
    "612": "we",
    "613": "wes",
    "614": "west",
    "615": "now",
    "616": "now ",
    "617": "gl",
    "618": "gle",
    "619": "pr",
    "620": "pri",
    "621": "pris",
    "622": "fe",
    "623": "fes",
    "624": "fest",
    "625": "m ",
    "626": "En",
    "627": "Eng",
    "628": "sd",
    "629": "rbit",
    "630": "hw",
    "631": "unn",
    "632": "unne",
    "633": "unnel",
    "634": "ugl",
    "635": "ugla",
    "636": "im",
    "637": "imp",
    "638": "impo",
    "639": "impor",
    "640": "import",
    "641": "importa",
    "642": "uce",
    "643": "ersi",
    "644": "ersio",
    "645": "-b",
    "646": "-bo",
    "647": "-bor",
    "648": "ust",
    "649": "gen",
    "650": "gent",
    "651": "ati",
    "652": "atin",
    "653": "rsi",
    "654": "rsio",
    "655": "rsion",
    "656": "acl",
    "657": "tha",
    "658": "than",
    "659": "than ",
    "660": "So",
    "661": "Sou",
    "662": "Sout",
    "663": "South",
    "664": "Mi",
    "665": "vo",
    "666": "von",
    "667": "ylo",
    "668": "ylor",
    "669": "eri",
    "670": "cu",
    "671": "aded",
    "672": "nn",
    "673": "nn)",
    "674": "ex",
    "675": "exi",
    "676": "exic",
    "677": "dox",
    "678": "rt",
    "679": "rte",
    "680": "Co",
    "681": "Con",
    "682": "Conf",
    "683": "Confe",
    "684": "Confed",
    "685": "Confede",
    "686": "odu",
    "687": "oduc",
    "688": "ec",
    "689": "eca",
    "690": "ecam",
    "691": " on",
    "692": " on ",
    "693": "Em",
    "694": "Emp",
    "695": "lf",
    "696": "lf-",
    "697": "ersion",
    "698": "lit",
    "699": "liti",
    "700": "litic",
    "701": "ntion",
    "702": "bia",
    "703": "ic",
    "704": "ict",
    "705": "tow",
    "706": "hu",
    "707": "hur",
    "708": "(b",
    "709": "(b.",
    "710": "(b. ",
    "711": "(b. 1",
    "712": "-c",
    "713": "-ca",
    "714": "-cal",
    "715": "Ca",
    "716": "Cay",
    "717": "Caym",
    "718": "Je",
    "719": "Jew",
    "720": "hu ",
    "721": "nh",
    "722": "nho",
    "723": "nhol",
    "724": "Nig",
    "725": "Nige",
    "726": "Niger",
    "727": "ctr",
    "728": "ito",
    "729": "itor",
    "730": "hir",
    "731": "Ira",
    "732": "ppo",
    "733": "e ",
    "734": "e 1",
    "735": "e 19",
    "736": "gh",
    "737": "ght",
    "738": "rol",
    "739": "ce",
    "740": "cel",
    "741": "cela",
    "742": "Wh",
    "743": "lu",
    "744": "lut",
    "745": "luti",
    "746": "lutio",
    "747": "Fr",
    "748": "Fre",
    "749": "Fren",
    "750": "Frenc",
    "751": "6*",
    "752": "6*1",
    "753": "6*19",
    "754": "lan",
    "755": "cord",
    "756": "ear",
    "757": "earl",
    "758": "easo",
    "759": "eason",
    "760": "pho",
    "761": "vie",
    "762": "n ",
    "763": "nk",
    "764": "sy",
    "765": "sy ",
    "766": "kn",
    "767": "kno",
    "768": "know",
    "769": "knowl",
    "770": "knowle",
    "771": "ice",
    "772": "n'",
    "773": "n't",
    "774": "da",
    "775": "das",
    "776": "dash",
    "777": "Or",
    "778": "Ord",
    "779": "ugu",
    "780": "ugua",
    "781": "uguay",
    "782": "gd",
    "783": "ntr",
    "784": "ntra",
    "785": "xas",
    "786": "ete",
    "787": "not",
    "788": "note",
    "789": "Engl",
    "790": "Engli",
    "791": "Englis",
    "792": "war",
    "793": "ward",
    "794": "du",
    "795": "lad",
    "796": "rc",
    "797": "rce",
    "798": "ite",
    "799": "ata",
    "800": "wer",
    "801": "were",
    "802": "were ",
    "803": "mbo",
    "804": "mbol",
    "805": ".S",
    "806": ".S.",
    "807": "ut",
    "808": "uto",
    "809": "ima",
    "810": "cho",
    "811": "No",
    "812": "Nor",
    "813": "his",
    "814": "oli",
    "815": "olic",
    "816": "nd",
    "817": "ndl",
    "818": "ins",
    "819": "Sp",
    "820": "Spa",
    "821": "pin",
    "822": "/f",
    "823": "/fe",
    "824": "ino",
    "825": " -",
    "826": " - ",
    "827": "emed",
    "828": "xi",
    "829": "pt",
    "830": "pte",
    "831": "ptem",
    "832": "ptemb",
    "833": "ipm",
    "834": "ipme",
    "835": "wh",
    "836": "who",
    "837": "who ",
    "838": "eli",
    "839": "elie",
    "840": "wo",
    "841": "wor",
    "842": "worl",
    "843": "world",
    "844": "onl",
    "845": "only",
    "846": "cr",
    "847": "cri",
    "848": "crim",
    "849": "crimm",
    "850": "fic",
    "851": "fict",
    "852": "ficti",
    "853": "il",
    "854": "ili",
    "855": "ilit",
    "856": "rti",
    "857": "rtic",
    "858": "our",
    "859": "ourc",
    "860": " p",
    "861": " po",
    "862": "ds",
    "863": "(1",
    "864": "(19",
    "865": "yle",
    "866": "nc",
    "867": "nce",
    "868": "cro",
    "869": "rin",
    "870": "ring",
    "871": "Yo",
    "872": "Yor",
    "873": "spo",
    "874": "iu",
    "875": "ius",
    "876": "sto",
    "877": "ston",
    "878": "stoni",
    "879": "stonia",
    "880": "Dj",
    "881": "Dji",
    "882": "Djib",
    "883": "xit",
    "884": "xite",
    "885": "hin",
    "886": "ss",
    "887": "ssi",
    "888": "ssis",
    "889": "tec",
    "890": "ing",
    "891": "ingh",
    "892": " (",
    "893": "ord",
    "894": "orde",
    "895": "ve",
    "896": "ven",
    "897": "vent",
    "898": "wel",
    "899": "well",
    "900": "ps",
    "901": "alo",
    "902": "isl",
    "903": "isla",
    "904": "mil",
    "905": "eco",
    "906": "econ",
    "907": "econo",
    "908": "econom",
    "909": "Is",
    "910": "Isr",
    "911": "Isra",
    "912": "e=",
    "913": "e= ",
    "914": "Ru",
    "915": "Rus",
    "916": "Russ",
    "917": "per",
    "918": "perc",
    "919": "perce",
    "920": "ept",
    "921": "epte",
    "922": "eptem",
    "923": "eptemb",
    "924": "Br",
    "925": "Go",
    "926": "n=",
    "927": "rvi",
    "928": "rvic",
    "929": "luc",
    "930": "een",
    "931": "een ",
    "932": "le ",
    "933": "De",
    "934": "Dea",
    "935": "mit",
    "936": "mith",
    "937": "utt",
    "938": "uttl",
    "939": "uttle",
    "940": "une",
    "941": "ime",
    "942": "lie",
    "943": "ovi",
    "944": "ovie",
    "945": "or ",
    "946": "eng",
    "947": "engi",
    "948": "engin",
    "949": "he",
    "950": "heo",
    "951": "heor",
    "952": "arc",
    "953": "arct",
    "954": "arcti",
    "955": "xe",
    "956": "xed",
    "957": "xam",
    "958": "xamp",
    "959": "An",
    "960": "Ans",
    "961": "Anse",
    "962": "Ansel",
    "963": "Anselm",
    "964": "ela",
    "965": "elat",
    "966": "rio",
    "967": "riod",
    "968": "eb",
    "969": "ary",
    "970": "ary ",
    "971": "tt",
    "972": "tty",
    "973": "ttys",
    "974": "ttysb",
    "975": "gram",
    "976": ", ",
    "977": "orb",
    "978": "lp",
    "979": "lph",
    "980": "lpha",
    "981": "igi",
    "982": "igin",
    "983": "ff",
    "984": "ffi",
    "985": "ffic",
    "986": "00",
    "987": "000",
    "988": "4*",
    "989": "4*1",
    "990": "4*19",
    "991": "Ho",
    "992": "How",
    "993": "Howe",
    "994": "Howev",
    "995": "fr",
    "996": "fre",
    "997": "fred",
    "998": "(d",
    "999": "(d.",
    "1000": "(d. ",
    "1001": "ys",
    "1002": "ysi",
    "1003": "iev",
    "1004": "ji",
    "1005": "jib",
    "1006": "jibo",
    "1007": " w",
    "1008": " wi",
    "1009": " wit",
    "1010": "eo",
    "1011": "gi",
    "1012": "gid",
    "1013": "gida",
    "1014": "bru",
    "1015": "brua",
    "1016": "itiv",
    "1017": "tl",
    "1018": "OC",
    "1019": "OC_",
    "1020": "OC__",
    "1021": "ity",
    "1022": "K ",
    "1023": "bit",
    "1024": "bitr",
    "1025": "bitra",
    "1026": "60",
    "1027": "3 ",
    "1028": "3 |",
    "1029": "3 ||",
    "1030": "3 || ",
    "1031": "y ",
    "1032": "La",
    "1033": "!-",
    "1034": "!--",
    "1035": "DO",
    "1036": "DOS",
    "1037": "ucl",
    "1038": "lle",
    "1039": "llel",
    "1040": "00 ",
    "1041": "all",
    "1042": "all ",
    "1043": " b",
    "1044": " bi",
    "1045": " bir",
    "1046": " birt",
    "1047": " birth",
    "1048": "yo",
    "1049": "yon",
    "1050": "yond",
    "1051": "dl",
    "1052": "dla",
    "1053": "rcen",
    "1054": "rcent",
    "1055": "U.",
    "1056": "U.S",
    "1057": "ye",
    "1058": "ha",
    "1059": "has",
    "1060": "has ",
    "1061": "aci",
    "1062": "acif",
    "1063": "acifi",
    "1064": "oe",
    "1065": "oet",
    "1066": "Tr",
    "1067": "Tru",
    "1068": "Trus",
    "1069": "san",
    "1070": "bl",
    "1071": "bli",
    "1072": "blin",
    "1073": "ian",
    "1074": "ianc",
    "1075": "F ",
    "1076": "po",
    "1077": "pon",
    "1078": "lt",
    "1079": "lti",
    "1080": "k,",
    "1081": "k, ",
    "1082": "CP",
    "1083": "CPU",
    "1084": "Ro",
    "1085": "Rom",
    "1086": "tor",
    "1087": "dat",
    "1088": "iph",
    "1089": "su",
    "1090": "sul",
    "1091": "wid",
    "1092": "4%",
    "1093": "pu",
    "1094": "pub",
    "1095": "publ",
    "1096": "publi",
    "1097": " /",
    "1098": " /t",
    "1099": "ann",
    "1100": "anne",
    "1101": "yst",
    "1102": "yste",
    "1103": "rd",
    "1104": "mor",
    "1105": "more",
    "1106": "more ",
    "1107": "nta",
    "1108": "ntar",
    "1109": "ntarc",
    "1110": "ntarct",
    "1111": "ndo",
    "1112": "ndon",
    "1113": "By",
    "1114": "Byz",
    "1115": "Byza",
    "1116": "Byzan",
    "1117": "Byzant",
    "1118": "oft",
    "1119": "In",
    "1120": "Ind",
    "1121": "ien",
    "1122": "ient",
    "1123": "mis",
    "1124": "miss",
    "1125": "az",
    "1126": "azz",
    "1127": "si",
    "1128": "sis",
    "1129": "eek",
    "1130": "re",
    "1131": "rec",
    "1132": "reci",
    "1133": "recip",
    "1134": " be",
    "1135": " bet",
    "1136": " betw",
    "1137": " betwe",
    "1138": "pria",
    "1139": "Am",
    "1140": "Fo",
    "1141": "For",
    "1142": "Da",
    "1143": "Dal",
    "1144": "Dale",
    "1145": "Dalek",
    "1146": "van",
    "1147": "hic",
    "1148": "lta",
    "1149": "eph",
    "1150": "hr",
    "1151": "hri",
    "1152": "hris",
    "1153": "hrist",
    "1154": "Wo",
    "1155": "Wor",
    "1156": "Worl",
    "1157": "av",
    "1158": "avi",
    "1159": "avin",
    "1160": "ind",
    "1161": "indo",
    "1162": "ele",
    "1163": "elep",
    "1164": "eleph",
    "1165": "thio",
    "1166": "Jo",
    "1167": "ney",
    "1168": "bral",
    "1169": "de",
    "1170": "de ",
    "1171": "Id",
    "1172": "enera",
    "1173": " pl",
    "1174": " pla",
    "1175": "ogn",
    "1176": "PA",
    "1177": "sid",
    "1178": "side",
    "1179": "ves",
    "1180": "mat",
    "1181": "mate",
    "1182": "mater",
    "1183": "materi",
    "1184": "materia",
    "1185": "rch",
    "1186": "loc",
    "1187": "loca",
    "1188": "was",
    "1189": "was ",
    "1190": "EL",
    "1191": "ELF",
    "1192": "R ",
    "1193": "Du",
    "1194": "Dub",
    "1195": "lbour",
    "1196": "ollo",
    "1197": "ollow",
    "1198": "5%",
    "1199": "5% ",
    "1200": "ik",
    "1201": "ike",
    "1202": "con",
    "1203": "cons",
    "1204": "nor ",
    "1205": "sea",
    "1206": "seas",
    "1207": "ica",
    "1208": "icar",
    "1209": "icara",
    "1210": "icarag",
    "1211": "l ",
    "1212": "Pau",
    "1213": "Paul",
    "1214": "gli",
    "1215": "glis",
    "1216": "isa",
    "1217": "isan",
    "1218": "abl",
    "1219": "able",
    "1220": "able ",
    "1221": " V",
    "1222": " Ve",
    "1223": " Veg",
    "1224": "sin",
    "1225": "sinc",
    "1226": "hel",
    "1227": "helm",
    "1228": "enn",
    "1229": "enns",
    "1230": "ennsy",
    "1231": "ennsyl",
    "1232": "itia",
    "1233": " A",
    "1234": "spa",
    "1235": "spap",
    "1236": "iz",
    "1237": "ize",
    "1238": "yd",
    "1239": "ydr",
    "1240": "va ",
    "1241": "va S",
    "1242": "va Sc",
    "1243": "terr",
    "1244": "terra",
    "1245": "ev",
    "1246": "inth",
    "1247": "ach",
    "1248": "bro",
    "1249": "brot",
    "1250": "broth",
    "1251": "brothe",
    "1252": "op",
    "1253": "opu",
    "1254": "opul",
    "1255": "Pr",
    "1256": "Pri",
    "1257": "cra",
    "1258": "craf",
    "1259": "craft",
    "1260": "St",
    "1261": "Sta",
    "1262": "Stat",
    "1263": "State",
    "1264": "bol",
    "1265": "na",
    "1266": "nat",
    "1267": "nati",
    "1268": "pol",
    "1269": "ges",
    "1270": "gest",
    "1271": "ot",
    "1272": "oth",
    "1273": "ras",
    "1274": "rash",
    "1275": "cy",
    "1276": "cy ",
    "1277": "icat",
    "1278": "icati",
    "1279": "les",
    "1280": "lest",
    "1281": "lesti",
    "1282": "lestin",
    "1283": "pine",
    "1284": "nni",
    "1285": "nnin",
    "1286": "har",
    "1287": "hart",
    "1288": "oc",
    "1289": "oci",
    "1290": "ocid",
    "1291": "s)",
    "1292": "aso",
    "1293": "lue",
    "1294": ". ",
    "1295": ". F",
    "1296": "ke",
    "1297": "kes",
    "1298": "ns",
    "1299": "nsa",
    "1300": "nsas",
    "1301": "ca",
    "1302": "car",
    "1303": "card",
    "1304": "rw",
    "1305": "rwi",
    "1306": "rwik",
    "1307": "rwiki",
    "1308": "2:",
    "1309": "ei",
    "1310": "eiv",
    "1311": "eive",
    "1312": "sr",
    "1313": "sra",
    "1314": "HB",
    "1315": "3)",
    "1316": "niv",
    "1317": "nive",
    "1318": "niver",
    "1319": "evi",
    "1320": "evid",
    "1321": "evide",
    "1322": "eviden",
    "1323": "4:",
    "1324": "sor",
    "1325": "ere",
    "1326": "ere ",
    "1327": "ates",
    "1328": "y o",
    "1329": "y of",
    "1330": "mar",
    "1331": "mary",
    "1332": "ya",
    "1333": "yar",
    "1334": "yard",
    "1335": "vil",
    "1336": "vill",
    "1337": "ng",
    "1338": "ngt",
    "1339": "ngth",
    "1340": "pha",
    "1341": "phal",
    "1342": "phalt",
    "1343": "hem",
    "1344": "str",
    "1345": "stri",
    "1346": "stric",
    "1347": "strict",
    "1348": "di",
    "1349": "dig",
    "1350": "dige",
    "1351": "digen",
    "1352": "digeno",
    "1353": "Li",
    "1354": "clu",
    "1355": "noz",
    "1356": "ina",
    "1357": "lif",
    "1358": "##",
    "1359": "Po",
    "1360": "noth",
    "1361": "nothe",
    "1362": "tn",
    "1363": "tne",
    "1364": "tnes",
    "1365": "tness",
    "1366": "4,",
    "1367": "4, ",
    "1368": "oun",
    "1369": "ount",
    "1370": "yc",
    "1371": "my",
    "1372": "my ",
    "1373": "Su",
    "1374": "Sun",
    "1375": "Sund",
    "1376": "lc",
    "1377": "lcu",
    "1378": "lcul",
    "1379": "Lo",
    "1380": "Lon",
    "1381": "Lond",
    "1382": "Londo",
    "1383": "London",
    "1384": "tu",
    "1385": "tub",
    "1386": "tube",
    "1387": "las",
    "1388": "lass",
    "1389": "fin",
    "1390": "s ",
    "1391": "s V",
    "1392": "s Ve",
    "1393": "s Veg",
    "1394": "RI",
    "1395": "RIS",
    "1396": "pli",
    "1397": "syc",
    "1398": "fro",
    "1399": "from",
    "1400": "Ci",
    "1401": "Cit",
    "1402": "chig",
    "1403": "chiga",
    "1404": "duc",
    "1405": "zz",
    "1406": "islat",
    "1407": "tho",
    "1408": "pb",
    "1409": "pbe",
    "1410": "pbel",
    "1411": "aj",
    "1412": "ajo",
    "1413": "hol",
    "1414": "eda",
    "1415": "8 ",
    "1416": "oes",
    "1417": "rl",
    "1418": "rly",
    "1419": "ted ",
    "1420": "int ",
    "1421": "sel",
    "1422": "sely",
    "1423": "tin",
    "1424": "bet",
    "1425": "res",
    "1426": "resc",
    "1427": "resce",
    "1428": "rescen",
    "1429": "e m",
    "1430": "e mi",
    "1431": "e min",
    "1432": "e mini",
    "1433": "e minis",
    "1434": "anu",
    "1435": "anua",
    "1436": "anuar",
    "1437": "set",
    "1438": "sc",
    "1439": "scr",
    "1440": "scri",
    "1441": "scrim",
    "1442": "scrimm",
    "1443": "X ",
    "1444": "cal",
    "1445": "call",
    "1446": " E",
    "1447": " Em",
    "1448": " Emp",
    "1449": "gu",
    "1450": "gur",
    "1451": " f",
    "1452": " fr",
    "1453": " fro",
    "1454": "40",
    "1455": "nda",
    "1456": "ndas",
    "1457": "ndash",
    "1458": "id",
    "1459": "ide",
    "1460": "iden",
    "1461": "ib",
    "1462": "ist",
    "1463": "isto",
    "1464": "bre",
    "1465": "brev",
    "1466": "Ga",
    "1467": "Gal",
    "1468": "bac",
    "1469": "back",
    "1470": "dan",
    "1471": "rip",
    "1472": "ript",
    "1473": "soe",
    "1474": "soev",
    "1475": "'a",
    "1476": "pen",
    "1477": "pens",
    "1478": "pensi",
    "1479": "pensiv",
    "1480": "nef",
    "1481": "Com",
    "1482": "ea ",
    "1483": "A ",
    "1484": "rli",
    "1485": "rlia",
    "1486": "rliam",
    "1487": "Ot",
    "1488": "Ott",
    "1489": "Otto",
    "1490": "ae",
    "1491": "aeo",
    "1492": "aeol",
    "1493": "aeolo",
    "1494": "aeolog",
    "1495": "w ",
    "1496": "w a",
    "1497": "w as",
    "1498": "w as ",
    "1499": "her",
    "1500": "her ",
    "1501": "tot",
    "1502": "from ",
    "1503": "n,",
    "1504": "n, ",
    "1505": "bs",
    "1506": "bsi",
    "1507": "bsit",
    "1508": "IS",
    "1509": "ISC",
    "1510": "ton",
    "1511": "err",
    "1512": "lep",
    "1513": "leph",
    "1514": "lepha",
    "1515": "lephan",
    "1516": "s b",
    "1517": "s by",
    "1518": "s by ",
    "1519": "ppor",
    "1520": "pport",
    "1521": "eg",
    "1522": "ega",
    "1523": "egal",
    "1524": "umb",
    "1525": "umbe",
    "1526": "coa",
    "1527": "coas",
    "1528": "coast",
    "1529": "alig",
    "1530": "align",
    "1531": "1 ",
    "1532": "ls",
    "1533": "lsh",
    "1534": "sig",
    "1535": "usi",
    "1536": "usic",
    "1537": "vai",
    "1538": "vail",
    "1539": "cos",
    "1540": "cose",
    "1541": "ux",
    "1542": "dog",
    "1543": "h ",
    "1544": "cin",
    "1545": "eou",
    "1546": "/r",
    "1547": "/re",
    "1548": "/ref",
    "1549": " J",
    "1550": "ane",
    "1551": "aneu",
    "1552": "vel",
    "1553": "velo",
    "1554": "velop",
    "1555": "ob",
    "1556": "obi",
    "1557": "obio",
    "1558": "t ",
    "1559": "t o",
    "1560": "t of",
    "1561": "sh",
    "1562": "sha",
    "1563": "shal",
    "1564": "AT",
    "1565": "ATM",
    "1566": "Th",
    "1567": "The",
    "1568": "Thea",
    "1569": "Theat",
    "1570": "ka",
    "1571": "kat",
    "1572": "+\\",
    "1573": "7)",
    "1574": "xid",
    "1575": "oup",
    "1576": "lon",
    "1577": "long",
    "1578": "ree",
    "1579": "urc",
    "1580": "urce",
    "1581": "ak",
    "1582": "ake",
    "1583": "aken",
    "1584": "ova",
    "1585": "ovan",
    "1586": "rem",
    "1587": "ant",
    "1588": "anth",
    "1589": "by",
    "1590": "by ",
    "1591": "kl",
    "1592": "kli",
    "1593": "spac",
    "1594": "pm",
    "1595": "acu",
    "1596": "Se",
    "1597": "Sem",
    "1598": "Semi",
    "1599": "Semit",
    "1600": "leas",
    "1601": "lease",
    "1602": "leased",
    "1603": "s o",
    "1604": "s of",
    "1605": "s of ",
    "1606": "eem",
    "1607": "eems",
    "1608": "eems ",
    "1609": "llis",
    "1610": "Bat",
    "1611": "Batt",
    "1612": "Battl",
    "1613": "Battle",
    "1614": "2*",
    "1615": "2*1",
    "1616": "2*19",
    "1617": "gri",
    "1618": "gric",
    "1619": "kt",
    "1620": "c ",
    "1621": "gre",
    "1622": "gree",
    "1623": ") ",
    "1624": "oo",
    "1625": "ood",
    "1626": "rst",
    "1627": "rst ",
    "1628": "tur",
    "1629": "turn",
    "1630": " U",
    "1631": " Un",
    "1632": "omi",
    "1633": "uro",
    "1634": "urop",
    "1635": "LI",
    "1636": "ploy",
    "1637": "ses",
    "1638": "ler",
    "1639": "Bj",
    "1640": "Bjr",
    "1641": "Bjrk",
    "1642": "elo",
    "1643": "xt",
    "1644": "lbu",
    "1645": "lbum",
    "1646": "oor",
    "1647": "gs",
    "1648": "oul",
    "1649": "ols",
    "1650": "In ",
    "1651": "used",
    "1652": "used ",
    "1653": "fore",
    "1654": "irl",
    "1655": "orm",
    "1656": "nad",
    "1657": "ys ",
    "1658": "nal",
    "1659": "nal ",
    "1660": "der",
    "1661": "dern",
    "1662": "oub",
    "1663": "oubt",
    "1664": "dun",
    "1665": "dune",
    "1666": "Dy",
    "1667": "Dys",
    "1668": "Dyso",
    "1669": "Dyson",
    "1670": "thor",
    "1671": "ono",
    "1672": "onom",
    "1673": "ulti",
    "1674": "-B",
    "1675": "-Be",
    "1676": "nth",
    "1677": "nthe",
    "1678": "sus",
    "1679": "val",
    "1680": "valu",
    "1681": "value",
    "1682": "nsi",
    "1683": "nsid",
    "1684": "nside",
    "1685": "se ",
    "1686": "abe",
    "1687": "abet",
    "1688": "ocr",
    "1689": "ocra",
    "1690": "rif",
    "1691": "rifl",
    "1692": "mati",
    "1693": "matia",
    "1694": "whi",
    "1695": "whic",
    "1696": "which",
    "1697": "which ",
    "1698": "ns ",
    "1699": "morp",
    "1700": "morph",
    "1701": "var",
    "1702": "vard",
    "1703": "ho ",
    "1704": "1-",
    "1705": "lui",
    "1706": "luid",
    "1707": "urch",
    "1708": "siden",
    "1709": "NO",
    "1710": "NOT",
    "1711": "cen",
    "1712": "cent",
    "1713": "centu",
    "1714": "act",
    "1715": "nct",
    "1716": "shi",
    "1717": "mal",
    "1718": "mall",
    "1719": "cs",
    "1720": "Na",
    "1721": "Nat",
    "1722": "Nati",
    "1723": "oa",
    "1724": "oat",
    "1725": "leg",
    "1726": "legs",
    "1727": "dy",
    "1728": "dy ",
    "1729": "ged",
    "1730": "gedd",
    "1731": "hm",
    "1732": "hma",
    "1733": "rov",
    "1734": "rovi",
    "1735": "rovin",
    "1736": "rovinc",
    "1737": "za",
    "1738": "zan",
    "1739": "zani",
    "1740": "s;",
    "1741": "tz",
    "1742": "chn",
    "1743": "ke ",
    "1744": "unc",
    "1745": "-o",
    "1746": "-or",
    "1747": "-ori",
    "1748": "gm",
    "1749": "gme",
    "1750": "ngu",
    "1751": "- ",
    "1752": "ste",
    "1753": "stem",
    "1754": "dsw",
    "1755": "dswo",
    "1756": "roo",
    "1757": "lps",
    "1758": "lps ",
    "1759": "cam",
    "1760": "came",
    "1761": "sci",
    "1762": "scil",
    "1763": "scill",
    "1764": "led",
    "1765": "att",
    "1766": "earc",
    "1767": " m",
    "1768": "rry",
    "1769": "GH",
    "1770": "GHB",
    "1771": "pso",
    "1772": "pson",
    "1773": "ent",
    "1774": "enti",
    "1775": "its",
    "1776": "nou",
    "1777": "noun",
    "1778": "nounc",
    "1779": "gai",
    "1780": "cep",
    "1781": "cept",
    "1782": "i ",
    "1783": "nne",
    "1784": "yn",
    "1785": "yna",
    "1786": "ynam",
    "1787": "ynami",
    "1788": "ider",
    "1789": "mer",
    "1790": "meri",
    "1791": "nen",
    "1792": "nent",
    "1793": "mou",
    "1794": "moun",
    "1795": "mount",
    "1796": "ww",
    "1797": "nas",
    "1798": "naso",
    "1799": "nasof",
    "1800": "org",
    "1801": "orga",
    "1802": "ten",
    "1803": "tena",
    "1804": "pic",
    "1805": "pict",
    "1806": "SC",
    "1807": "put",
    "1808": "sio",
    "1809": "lt ",
    "1810": "isk",
    "1811": "aug",
    "1812": "augh",
    "1813": "aught",
    "1814": "aughte",
    "1815": "gla",
    "1816": "Ja",
    "1817": "Jam",
    "1818": "Jame",
    "1819": "James",
    "1820": "rint",
    "1821": "rinth",
    "1822": "erd",
    "1823": "erdi",
    "1824": "erdin",
    "1825": "erdina",
    "1826": "erdinan",
    "1827": "erdinand",
    "1828": "nan",
    "1829": "nanc",
    "1830": "mu",
    "1831": "mus",
    "1832": "musi",
    "1833": "music",
    "1834": "sed",
    "1835": "sed ",
    "1836": "dec",
    "1837": "eid",
    "1838": "dd",
    "1839": "ddi",
    "1840": "ddit",
    "1841": "dditi",
    "1842": "dditio",
    "1843": "tiz",
    "1844": "tize",
    "1845": "tizen",
    "1846": "thou",
    "1847": "thoug",
    "1848": "eep",
    "1849": "igh",
    "1850": "nnis",
    "1851": "4 ",
    "1852": "4 (",
    "1853": "cab",
    "1854": "ial",
    "1855": "inct",
    "1856": "k/",
    "1857": "fl",
    "1858": "fle",
    "1859": "pan",
    "1860": "pani",
    "1861": "vit",
    "1862": "Can",
    "1863": "Cana",
    "1864": "Canad",
    "1865": "e o",
    "1866": "e of",
    "1867": "e of ",
    "1868": "AL",
    "1869": "ALI",
    "1870": "Oc",
    "1871": "Oct",
    "1872": "Octo",
    "1873": "Octob",
    "1874": "ycl",
    "1875": "ork",
    "1876": "roa",
    "1877": "roat",
    "1878": "aa",
    "1879": "aar",
    "1880": "tua",
    "1881": "tuat",
    "1882": "wis",
    "1883": "por",
    "1884": "data",
    "1885": "st ",
    "1886": "st o",
    "1887": "lio",
    "1888": "ld",
    "1889": "ld ",
    "1890": "ani",
    "1891": "anis",
    "1892": "anish",
    "1893": " r",
    "1894": "km",
    "1895": "obe",
    "1896": "ober",
    "1897": "arm",
    "1898": "vis",
    "1899": "ta",
    "1900": "tab",
    "1901": "tabl",
    "1902": "table",
    "1903": "fu",
    "1904": "fun",
    "1905": "func",
    "1906": "bil",
    "1907": "flu",
    "1908": "ym",
    "1909": "yma",
    "1910": "yman",
    "1911": "Gala",
    "1912": "ay",
    "1913": "ay ",
    "1914": "wide",
    "1915": "unct",
    "1916": "itim",
    "1917": "ank",
    "1918": "G ",
    "1919": "nst",
    "1920": "nsta",
    "1921": "nu",
    "1922": "nut",
    "1923": "9)",
    "1924": "alle",
    "1925": "alled",
    "1926": "aur",
    "1927": "nsk",
    "1928": "nskr",
    "1929": "rg",
    "1930": "own",
    "1931": "owne",
    "1932": "owned",
    "1933": "os",
    "1934": "ose",
    "1935": "fen",
    "1936": "usin",
    "1937": "usine",
    "1938": "ced",
    "1939": "fa",
    "1940": "fac",
    "1941": "fact",
    "1942": "act ",
    "1943": "xu",
    "1944": "xua",
    "1945": "ser",
    "1946": "serv",
    "1947": "anna",
    "1948": "lek",
    "1949": " (d",
    "1950": " (d.",
    "1951": " (d. ",
    "1952": " (d. 1",
    "1953": "ise",
    "1954": "othe",
    "1955": "ater",
    "1956": "owd",
    "1957": "owde",
    "1958": "owder",
    "1959": "ould",
    "1960": "AS",
    "1961": "ASI",
    "1962": "ASIC",
    "1963": "anner",
    "1964": "ngl",
    "1965": "ngla",
    "1966": "tis",
    "1967": "tist",
    "1968": "hio",
    "1969": "nim",
    "1970": "that",
    "1971": "that ",
    "1972": "igio",
    "1973": "ster",
    "1974": "oge",
    "1975": "ogen",
    "1976": "lace",
    "1977": "tat",
    "1978": "nia",
    "1979": "mpl",
    "1980": "mple",
    "1981": "eer",
    "1982": "sen",
    "1983": "umber",
    "1984": "dem",
    "1985": "demo",
    "1986": "democ",
    "1987": "democr",
    "1988": "democra",
    "1989": "0,",
    "1990": "0,0",
    "1991": "0,00",
    "1992": "0,000",
    "1993": "ein",
    "1994": "olit",
    "1995": "oliti",
    "1996": "ale",
    "1997": "Ki",
    "1998": "Kin",
    "1999": "rme",
    "2000": "rmer",
    "2001": "tla",
    "2002": "esu",
    "2003": "Nov",
    "2004": "Nove",
    "2005": "Novem",
    "2006": "Novemb",
    "2007": "aw",
    "2008": "alled ",
    "2009": "nec",
    "2010": "nece",
    "2011": "neces",
    "2012": "ax",
    "2013": "cti",
    "2014": "ctiv",
    "2015": "poi",
    "2016": "poin",
    "2017": "point",
    "2018": "ral",
    "2019": "min",
    "2020": "ming",
    "2021": "attr",
    "2022": "icl",
    "2023": "icle",
    "2024": "uma",
    "2025": "uman",
    "2026": "umann",
    "2027": "ber",
    "2028": "rh",
    "2029": "wr",
    "2030": "wri",
    "2031": "writ",
    "2032": "write",
    "2033": "dm",
    "2034": "dmi",
    "2035": "ja",
    "2036": "jad",
    "2037": "tag",
    "2038": "tage",
    "2039": "Bu",
    "2040": "Bur",
    "2041": "Burg",
    "2042": "mpa",
    "2043": "mpat",
    "2044": "ey",
    "2045": "ey ",
    "2046": "Bul",
    "2047": "Bulg",
    "2048": "Bulga",
    "2049": "Bulgar",
    "2050": "the",
    "2051": "mag",
    "2052": "magn",
    "2053": "ode",
    "2054": "ond",
    "2055": "AM",
    "2056": "men",
    "2057": "zi",
    "2058": "zil",
    "2059": "zill",
    "2060": "Ar",
    "2061": "Ari",
    "2062": "Aris",
    "2063": "Arist",
    "2064": "ts",
    "2065": "Inn",
    "2066": "mali",
    "2067": "owi",
    "2068": "owin",
    "2069": "ndi",
    "2070": "Isl",
    "2071": "Isla",
    "2072": "Islan",
    "2073": "stab",
    "2074": "stabl",
    "2075": "edi",
    "2076": "sia",
    "2077": "-t",
    "2078": "-to",
    "2079": "0 a",
    "2080": "0 an",
    "2081": "pre",
    "2082": "pres",
    "2083": "sch",
    "2084": "v.",
    "2085": "v. ",
    "2086": "ori",
    "2087": "orid",
    "2088": "orida",
    "2089": "ith",
    "2090": "ithe",
    "2091": "hor",
    "2092": "hort",
    "2093": "6 ",
    "2094": "6 -",
    "2095": "6 - ",
    "2096": "yne",
    "2097": "etw",
    "2098": "etwo",
    "2099": "urn",
    "2100": "ngua",
    "2101": "nguag",
    "2102": ":/",
    "2103": "://",
    "2104": "ern",
    "2105": "erne",
    "2106": "ernet",
    "2107": "wil",
    "2108": "will",
    "2109": "sco",
    "2110": "scow",
    "2111": "dif",
    "2112": "diff",
    "2113": "79",
    "2114": "eac",
    "2115": "mm",
    "2116": "vid",
    "2117": "o-",
    "2118": "Do",
    "2119": "Dol",
    "2120": "Doll",
    "2121": "uld",
    "2122": "uld ",
    "2123": "fed",
    "2124": "fede",
    "2125": "feder",
    "2126": "federa",
    "2127": "matr",
    "2128": "matri",
    "2129": "mera",
    "2130": "t of ",
    "2131": "ai",
    "2132": "ail",
    "2133": "aily",
    "2134": "OT",
    "2135": "onth",
    "2136": "onths",
    "2137": "aly",
    "2138": "ordi",
    "2139": "ordin",
    "2140": "s t",
    "2141": "s to",
    "2142": "tim",
    "2143": "time",
    "2144": "eci",
    "2145": "ecia",
    "2146": "ppen",
    "2147": "itic",
    "2148": "ot ",
    "2149": "pai",
    "2150": "pain",
    "2151": "||",
    "2152": "|| ",
    "2153": "rast",
    "2154": "rastr",
    "2155": "rastru",
    "2156": "mally",
    "2157": "unci",
    "2158": "Be",
    "2159": "uta",
    "2160": "utan",
    "2161": "3r",
    "2162": "3rd",
    "2163": "pal",
    "2164": "rou",
    "2165": "roup",
    "2166": "mes",
    "2167": "2 ",
    "2168": "istor",
    "2169": "vem",
    "2170": "veme",
    "2171": "vemen",
    "2172": "gua",
    "2173": "ims",
    "2174": "imse",
    "2175": "imsel",
    "2176": "imself",
    "2177": "ze",
    "2178": "oad",
    "2179": "ry",
    "2180": "rat",
    "2181": "rate",
    "2182": "Tl",
    "2183": "sign",
    "2184": "SR",
    "2185": "gul",
    "2186": "uct",
    "2187": "uctu",
    "2188": "uctur",
    "2189": "Dam",
    "2190": "al ",
    "2191": "0*",
    "2192": "0*1",
    "2193": "0*19",
    "2194": "6:",
    "2195": "eb ",
    "2196": "etwe",
    "2197": "etwee",
    "2198": ".)",
    "2199": "noi",
    "2200": "noir",
    "2201": "eeps",
    "2202": " and",
    "2203": "enc",
    "2204": "ndid",
    "2205": "eu",
    "2206": "eud",
    "2207": "rrym",
    "2208": "ovel",
    "2209": "W)",
    "2210": "et ",
    "2211": "emb",
    "2212": "embe",
    "2213": "L ",
    "2214": " ra",
    "2215": "yz",
    "2216": "yza",
    "2217": "yzan",
    "2218": "yzant",
    "2219": "eliu",
    "2220": "elium",
    "2221": "ous",
    "2222": "ouse",
    "2223": "wn",
    "2224": "You",
    "2225": "r*",
    "2226": "rrit",
    "2227": "rrito",
    "2228": "lav",
    "2229": "lave",
    "2230": "gy",
    "2231": "gyp",
    "2232": "ver",
    "2233": "very",
    "2234": "very ",
    "2235": "pee",
    "2236": "peed",
    "2237": "rmi",
    "2238": "rmin",
    "2239": "rmio",
    "2240": "rmion",
    "2241": "isti",
    "2242": "4)",
    "2243": "zy",
    "2244": "zym",
    "2245": "ule",
    "2246": "ules",
    "2247": "VI",
    "2248": "VII",
    "2249": "pend",
    "2250": "eve",
    "2251": "evel",
    "2252": "evelo",
    "2253": "evelop",
    "2254": "ck",
    "2255": "Bru",
    "2256": "jo",
    "2257": "ard",
    "2258": "Ara",
    "2259": "uge",
    "2260": "tte",
    "2261": "ts ",
    "2262": "ase",
    "2263": "pea",
    "2264": "pean",
    "2265": "Wi",
    "2266": "Win",
    "2267": "Wint",
    "2268": "Winte",
    "2269": "Winter",
    "2270": " S",
    "2271": " Sc",
    "2272": " Sco",
    "2273": "9%",
    "2274": "eq",
    "2275": "equ",
    "2276": ",0",
    "2277": ",00",
    "2278": "apt",
    "2279": "rot",
    "2280": "bros",
    "2281": "SB",
    "2282": "SBN",
    "2283": "gs ",
    "2284": "rp",
    "2285": "riol",
    "2286": "riole",
    "2287": "bill",
    "2288": "billi",
    "2289": "ever",
    "2290": "cus",
    "2291": "yme",
    "2292": "ymen",
    "2293": "yment",
    "2294": "iat",
    "2295": "whe",
    "2296": "whel",
    "2297": "lin",
    "2298": "Bak",
    "2299": "Bake",
    "2300": "Bakel",
    "2301": "erta",
    "2302": "ertai",
    "2303": "egi",
    "2304": "egis",
    "2305": "te ",
    "2306": "tern",
    "2307": "oi",
    "2308": "oid",
    "2309": "9 ",
    "2310": "sent",
    "2311": "senti",
    "2312": "sentia",
    "2313": "P)",
    "2314": "iri",
    "2315": "irit",
    "2316": "cou",
    "2317": "cour",
    "2318": "so ",
    "2319": "erte",
    "2320": "erted",
    "2321": "sear",
    "2322": "searc",
    "2323": "sks",
    "2324": "sks ",
    "2325": "lled",
    "2326": "on ",
    "2327": "bee",
    "2328": "been",
    "2329": "Sy",
    "2330": "Syr",
    "2331": "led ",
    "2332": "Basqu",
    "2333": "von ",
    "2334": "tai",
    "2335": "tain",
    "2336": "ower",
    "2337": "5*",
    "2338": "5*1",
    "2339": "5*19",
    "2340": "gat",
    "2341": "how",
    "2342": "howe",
    "2343": "howev",
    "2344": "howeve",
    "2345": "ligio",
    "2346": "ref",
    "2347": "ref ",
    "2348": "cie",
    "2349": "cies",
    "2350": "cas",
    "2351": "ner",
    "2352": "nera",
    "2353": "Nob",
    "2354": "Nobe",
    "2355": "Nobel",
    "2356": "i-",
    "2357": "i-s",
    "2358": "i-sh",
    "2359": "uti",
    "2360": "spe",
    "2361": "spec",
    "2362": "speci",
    "2363": "specia",
    "2364": " (b",
    "2365": " (b.",
    "2366": "oca",
    "2367": "ior",
    "2368": "8 -",
    "2369": "8 - ",
    "2370": "eor",
    "2371": "eorg",
    "2372": "nit",
    "2373": "adem",
    "2374": "cto",
    "2375": "ctor",
    "2376": " e",
    "2377": "asc",
    "2378": "ato",
    "2379": "atol",
    "2380": "atoli",
    "2381": "atolia",
    "2382": "req",
    "2383": "requ",
    "2384": " |",
    "2385": " ||",
    "2386": " || ",
    "2387": "que",
    "2388": "quen",
    "2389": "imm",
    "2390": "Wik",
    "2391": "byt",
    "2392": "byte",
    "2393": "co ",
    "2394": "++",
    "2395": "Ya",
    "2396": "Yan",
    "2397": "Yank",
    "2398": "Yanke",
    "2399": "Yankee",
    "2400": "grap",
    "2401": "an ",
    "2402": "venn",
    "2403": "ment",
    "2404": "sis*",
    "2405": "sis*A",
    "2406": "sis*Ag",
    "2407": "sis*Aga",
    "2408": "sis*Agav",
    "2409": "sis*Agave",
    "2410": "erms",
    "2411": "erms ",
    "2412": "He",
    "2413": "Hea",
    "2414": "Hear",
    "2415": "Hears",
    "2416": "Hearst",
    "2417": "ogr",
    "2418": "ogra",
    "2419": "kee",
    "2420": "keep",
    "2421": " c",
    "2422": " ce",
    "2423": "ake ",
    "2424": "us ",
    "2425": "dva",
    "2426": "dvan",
    "2427": "ibl",
    "2428": "ible",
    "2429": "unt",
    "2430": "gaz",
    "2431": "gazi",
    "2432": "gazin",
    "2433": "rew",
    "2434": "Af",
    "2435": "Afr",
    "2436": "Afri",
    "2437": "bb",
    "2438": "bb{",
    "2439": "iss",
    "2440": "oved",
    "2441": "n /",
    "2442": "n /s",
    "2443": "n /su",
    "2444": "tes",
    "2445": "test",
    "2446": "Ema",
    "2447": "Emac",
    "2448": "Emacs",
    "2449": "day",
    "2450": "We",
    "2451": "Wes",
    "2452": "West",
    "2453": "tan",
    "2454": "mof",
    "2455": "atio",
    "2456": "ation",
    "2457": "guag",
    "2458": "lab",
    "2459": " Am",
    "2460": " Ame",
    "2461": " Amer",
    "2462": "tic",
    "2463": "tick",
    "2464": "Bee",
    "2465": "Beer",
    "2466": "orf",
    "2467": "box",
    "2468": "Mk",
    "2469": "med ",
    "2470": "nge",
    "2471": "-to-",
    "2472": "-to-o",
    "2473": "-to-on",
    "2474": "-to-one",
    "2475": "llo",
    "2476": "llow",
    "2477": "ron",
    "2478": "cien",
    "2479": "poll",
    "2480": "Ori",
    "2481": "Orio",
    "2482": "pret",
    "2483": "cyc",
    "2484": "cycl",
    "2485": "eni",
    "2486": "H.",
    "2487": "thr",
    "2488": "sys",
    "2489": "syst",
    "2490": "syste",
    "2491": "system",
    "2492": "nect",
    "2493": "ain",
    "2494": "aint",
    "2495": "xec",
    "2496": "xecu",
    "2497": "sty",
    "2498": "rod",
    "2499": "rodu",
    "2500": "roduc",
    "2501": "ud",
    "2502": "alit",
    "2503": "lex",
    "2504": "rect",
    "2505": "los",
    "2506": "lose",
    "2507": "ttl",
    "2508": "ttle",
    "2509": "n-",
    "2510": "iva",
    "2511": "ivat",
    "2512": "--",
    "2513": "-- ",
    "2514": "tol",
    "2515": "tolo",
    "2516": "tolog",
    "2517": "ibi",
    "2518": "ibit",
    "2519": "aig",
    "2520": "ker",
    "2521": "nny",
    "2522": "Un",
    "2523": "Uni",
    "2524": "Univ",
    "2525": "rtin",
    "2526": "bri",
    "2527": "brig",
    "2528": "brigh",
    "2529": "ek",
    "2530": "),",
    "2531": "), ",
    "2532": "TO",
    "2533": "se o",
    "2534": "se of",
    "2535": "se of ",
    "2536": " =",
    "2537": "iel",
    "2538": "ve ",
    "2539": "yno",
    "2540": "ynol",
    "2541": "ynold",
    "2542": "brai",
    "2543": "brain",
    "2544": "ham",
    "2545": "hamp",
    "2546": "hampi",
    "2547": "hampio",
    "2548": "ws",
    "2549": "mai",
    "2550": "main",
    "2551": "hou",
    "2552": "houn",
    "2553": "hound",
    "2554": "at ",
    "2555": "ris",
    "2556": "rish",
    "2557": "mi)",
    "2558": "aba",
    "2559": "tate",
    "2560": "tates",
    "2561": "tatesm",
    "2562": "tatesma",
    "2563": "uch a",
    "2564": "ru",
    "2565": "rus",
    "2566": "ebr",
    "2567": "ebru",
    "2568": "ebrua",
    "2569": "doe",
    "2570": "does",
    "2571": "af",
    "2572": "aft",
    "2573": "afte",
    "2574": "ryn",
    "2575": "pap",
    "2576": "one",
    "2577": "onee",
    "2578": "x)",
    "2579": "imar",
    "2580": "hl",
    "2581": "forc",
    "2582": "1:",
    "2583": "Car",
    "2584": "Cart",
    "2585": "Carth",
    "2586": "Cartha",
    "2587": "Carthag",
    "2588": "FL",
    "2589": "FL ",
    "2590": "din",
    "2591": "ding",
    "2592": "eps",
    "2593": "rth",
    "2594": "rthe",
    "2595": "ong",
    "2596": "hed",
    "2597": "estr",
    "2598": "-k",
    "2599": "-kn",
    "2600": "-kno",
    "2601": "-know",
    "2602": "anc",
    "2603": "tzs",
    "2604": "tzsc",
    "2605": "tzsch",
    "2606": "oly",
    "2607": "olyn",
    "2608": "olyno",
    "2609": "olynom",
    "2610": "sce",
    "2611": "scen",
    "2612": "arg",
    "2613": " g",
    "2614": "ind ",
    "2615": "ind o",
    "2616": "ind of",
    "2617": "ind of ",
    "2618": "lm",
    "2619": "yed",
    "2620": "zeb",
    "2621": "tae",
    "2622": "yi",
    "2623": "yin",
    "2624": "0)",
    "2625": "0)*",
    "2626": "0)*1",
    "2627": "ola",
    "2628": "lik",
    "2629": "nger",
    "2630": "ars",
    "2631": "mest",
    "2632": "ix",
    "2633": "ty",
    "2634": "ty ",
    "2635": "am",
    "2636": "amp",
    "2637": "funct",
    "2638": "ibe",
    "2639": "iber",
    "2640": "AD",
    "2641": "tine",
    "2642": "tinen",
    "2643": "tinent",
    "2644": ":W",
    "2645": ":Wi",
    "2646": ":Wik",
    "2647": "lap",
    "2648": "cono",
    "2649": "conom",
    "2650": "pac",
    "2651": "o-o",
    "2652": "o-on",
    "2653": "o-one",
    "2654": "8,",
    "2655": "8,0",
    "2656": "8,00",
    "2657": "8,000",
    "2658": "natu",
    "2659": "natur",
    "2660": "tau",
    "2661": "x(",
    "2662": "inst",
    "2663": "inste",
    "2664": "instei",
    "2665": "instein",
    "2666": "comm",
    "2667": "commo",
    "2668": "common",
    "2669": "uca",
    "2670": "ucas",
    "2671": "roop",
    "2672": "Gol",
    "2673": "Gold",
    "2674": "Den",
    "2675": "Deng",
    "2676": "19",
    "2677": "199",
    "2678": "Ea",
    "2679": " (s",
    "2680": " (sh",
    "2681": " (sho",
    "2682": "/h",
    "2683": "ival",
    "2684": "ivale",
    "2685": "je",
    "2686": "tar",
    "2687": "sas",
    "2688": "dia",
    "2689": "azi",
    "2690": "azin",
    "2691": "b ",
    "2692": "20",
    "2693": "Unive",
    "2694": "Univer",
    "2695": "als",
    "2696": "also",
    "2697": "also ",
    "2698": "rna",
    "2699": "rnat",
    "2700": "rnati",
    "2701": "rnatio",
    "2702": "Bo",
    "2703": "Bot",
    "2704": "Bots",
    "2705": "Botsw",
    "2706": "Botswa",
    "2707": "in ",
    "2708": "(l",
    "2709": "(ly",
    "2710": "(lyr",
    "2711": "(lyri",
    "2712": "(lyric",
    "2713": "coac",
    "2714": "coach",
    "2715": "ence",
    "2716": "lec",
    "2717": "lect",
    "2718": "4 |",
    "2719": "4 ||",
    "2720": "4 || ",
    "2721": "brid",
    "2722": "bridg",
    "2723": "y)",
    "2724": "-d",
    "2725": "-da",
    "2726": "ope",
    "2727": "ute",
    "2728": "hich",
    "2729": "T ",
    "2730": "riz",
    "2731": "rize",
    "2732": "Denm",
    "2733": "Denma",
    "2734": "Carn",
    "2735": "Carne",
    "2736": "Carneg",
    "2737": "ici",
    "2738": "icio",
    "2739": "iciou",
    "2740": "ilm",
    "2741": "gt",
    "2742": "ir ",
    "2743": "art",
    "2744": "cht",
    "2745": "udd",
    "2746": "uddh",
    "2747": "ula",
    "2748": "#D",
    "2749": "#De",
    "2750": "ndom",
    "2751": "nua",
    "2752": "nual",
    "2753": "uri",
    "2754": "urin",
    "2755": "* ",
    "2756": "sic",
    "2757": "avo",
    "2758": "ini",
    "2759": "init",
    "2760": "ight",
    "2761": "dap",
    "2762": "dapt",
    "2763": "Ne",
    "2764": "New",
    "2765": "News",
    "2766": "ric",
    "2767": "rict",
    "2768": "if ",
    "2769": "den",
    "2770": "gag",
    "2771": "mong",
    "2772": "Fa",
    "2773": "Fat",
    "2774": "Fath",
    "2775": "Fathe",
    "2776": "Father",
    "2777": "inv",
    "2778": "inva",
    "2779": "one ",
    "2780": "tee",
    "2781": "lead",
    "2782": "nci",
    "2783": "aus",
    "2784": "uss",
    "2785": "them",
    "2786": "thema",
    "2787": "themat",
    "2788": "pie",
    "2789": "sse",
    "2790": "ssem",
    "2791": "ssemb",
    "2792": "ssembl",
    "2793": "sua",
    "2794": "sual",
    "2795": "nd ",
    "2796": "rece",
    "2797": "recen",
    "2798": "nste",
    "2799": "oop",
    "2800": "mem",
    "2801": "memb",
    "2802": "membe",
    "2803": "Fl",
    "2804": "Flo",
    "2805": "Flor",
    "2806": "ife",
    "2807": " C",
    "2808": " Co",
    "2809": "pag",
    "2810": "page",
    "2811": "ray",
    "2812": "acr",
    "2813": "acre",
    "2814": "nso",
    "2815": "nsor",
    "2816": "2-",
    "2817": "onn",
    "2818": "onni",
    "2819": "ame",
    "2820": "amen",
    "2821": "ave",
    "2822": "cio",
    "2823": "ciou",
    "2824": "cious",
    "2825": "hy",
    "2826": "ile",
    "2827": "ile ",
    "2828": "icr",
    "2829": "icro",
    "2830": "eig",
    "2831": "pid",
    "2832": "ght ",
    "2833": "cedo",
    "2834": "ive",
    "2835": "cc",
    "2836": "api",
    "2837": "apit",
    "2838": "ran",
    "2839": "ors",
    "2840": "orse",
    "2841": "4 y",
    "2842": "4 ye",
    "2843": "4 yea",
    "2844": "graph",
    "2845": "vol",
    "2846": "volv",
    "2847": "port",
    "2848": "V ",
    "2849": "ren",
    "2850": "reng",
    "2851": "rengt",
    "2852": "Te",
    "2853": "Tel",
    "2854": "Tele",
    "2855": "been ",
    "2856": "igr",
    "2857": "ost",
    "2858": "ost ",
    "2859": "lco",
    "2860": "ms",
    "2861": "ss ",
    "2862": "8)",
    "2863": "8)*",
    "2864": "dua",
    "2865": "mine",
    "2866": "minen",
    "2867": "sf",
    "2868": "sfe",
    "2869": "twork",
    "2870": "Heb",
    "2871": "Hebr",
    "2872": "hea",
    "2873": "cid",
    "2874": "'s",
    "2875": "go",
    "2876": "gov",
    "2877": "gove",
    "2878": "gover",
    "2879": "govern",
    "2880": "ks",
    "2881": "Ang",
    "2882": "Ange",
    "2883": "ield",
    "2884": "lat",
    "2885": "late",
    "2886": "later",
    "2887": "cle",
    "2888": "icil",
    "2889": "url",
    "2890": "urli",
    "2891": "urlin",
    "2892": "up ",
    "2893": "oust",
    "2894": "1%",
    "2895": "1% ",
    "2896": "The ",
    "2897": "rtu",
    "2898": "bur",
    "2899": "beer",
    "2900": "Vr",
    "2901": "opl",
    "2902": "I)",
    "2903": "V.",
    "2904": "nin",
    "2905": "not ",
    "2906": "as ",
    "2907": "uru",
    "2908": "urus",
    "2909": "elow",
    "2910": "lled ",
    "2911": "ida",
    "2912": "pedi",
    "2913": "Gov",
    "2914": "Gove",
    "2915": "Gover",
    "2916": "bor",
    "2917": "bord",
    "2918": "borde",
    "2919": "'s ",
    "2920": "Dec",
    "2921": "Dece",
    "2922": "Decem",
    "2923": "Decemb",
    "2924": "des",
    "2925": "flui",
    "2926": "fluid",
    "2927": "NC",
    "2928": "rge",
    "2929": "ago",
    "2930": "agon",
    "2931": "2,",
    "2932": "2, ",
    "2933": "Confu",
    "2934": "Wil",
    "2935": "Dem",
    "2936": "Demo",
    "2937": "2)",
    "2938": "low",
    "2939": "low ",
    "2940": "Ger",
    "2941": "Germ",
    "2942": "Germa",
    "2943": "ated",
    "2944": "1.",
    "2945": "Cl",
    "2946": "itl",
    "2947": "itle",
    "2948": " /m",
    "2949": " le",
    "2950": " lea",
    "2951": " leas",
    "2952": " least",
    "2953": "eneral",
    "2954": "Mic",
    "2955": "Micr",
    "2956": "Micro",
    "2957": "itin",
    "2958": "iting",
    "2959": "rie",
    "2960": "ries",
    "2961": "usto",
    "2962": "geno",
    "2963": "gis",
    "2964": "gisl",
    "2965": "gisla",
    "2966": "Hou",
    "2967": "Hous",
    "2968": "spee",
    "2969": "sl",
    "2970": "sla",
    "2971": "slan",
    "2972": "cte",
    "2973": "Arm",
    "2974": "cha",
    "2975": "chan",
    "2976": "chang",
    "2977": "gib",
    "2978": "z ",
    "2979": "ze ",
    "2980": "ndam",
    "2981": "rced",
    "2982": "rced ",
    "2983": "Ph",
    "2984": "Phy",
    "2985": "Phys",
    "2986": "Physi",
    "2987": "ays",
    "2988": "dit",
    "2989": "diti",
    "2990": "ditio",
    "2991": "dition",
    "2992": "ntu",
    "2993": "ntur",
    "2994": "awa",
    "2995": "Lif",
    "2996": "Life",
    "2997": "sod",
    "2998": "wk",
    "2999": "ces",
    "3000": "cess",
    "3001": "mn",
    "3002": "mna",
    "3003": "mnas",
    "3004": "iste",
    "3005": "ister",
    "3006": "kH",
    "3007": "kHz",
    "3008": "States",
    "3009": "ical",
    "3010": "stea",
    "3011": "stead",
    "3012": "fica",
    "3013": "ndr",
    "3014": "line",
    "3015": "ced ",
    "3016": "tter",
    "3017": "UI",
    "3018": "icu",
    "3019": "icul",
    "3020": "icula",
    "3021": "hlo",
    "3022": "olu",
    "3023": "olut",
    "3024": "mov",
    "3025": "deo",
    "3026": "th ",
    "3027": "msf",
    "3028": "arti",
    "3029": "artic",
    "3030": "phan",
    "3031": "phant",
    "3032": "ju",
    "3033": "jus",
    "3034": "just",
    "3035": "Ame",
    "3036": "Amer",
    "3037": "Ameri",
    "3038": "ub",
    "3039": "ubi",
    "3040": "ubic",
    "3041": "way",
    "3042": "och",
    "3043": "uli",
    "3044": "s -",
    "3045": "s - ",
    "3046": "bis",
    "3047": "bish",
    "3048": "bisho",
    "3049": "roth",
    "3050": "70",
    "3051": "nie",
    "3052": "nies",
    "3053": "asi",
    "3054": "asil",
    "3055": "asily",
    "3056": "cov",
    "3057": "cove",
    "3058": "oei",
    "3059": "Org",
    "3060": "Orga",
    "3061": "Organ",
    "3062": "old",
    "3063": "And",
    "3064": "Andr",
    "3065": "Andre",
    "3066": "Wov",
    "3067": "Wove",
    "3068": "Woven",
    "3069": "hag",
    "3070": "esi",
    "3071": "lecu",
    "3072": "igm",
    "3073": "mme",
    "3074": "gypt",
    "3075": "larg",
    "3076": "large",
    "3077": "a-",
    "3078": "aw ",
    "3079": "el ",
    "3080": "Q ",
    "3081": "sur",
    "3082": "ic ",
    "3083": "ha ",
    "3084": "Pl",
    "3085": "Ple",
    "3086": "Plea",
    "3087": "Pleas",
    "3088": "vin",
    "3089": "ving",
    "3090": "lack",
    "3091": "ang",
    "3092": "yal",
    "3093": "ern ",
    "3094": "c.",
    "3095": "}}",
    "3096": "Ch",
    "3097": "Che",
    "3098": "Chee",
    "3099": "Cheer",
    "3100": "9t",
    "3101": "9th",
    "3102": "beca",
    "3103": "becam",
    "3104": "became",
    "3105": "exa",
    "3106": "exam",
    "3107": "examp",
    "3108": "exampl",
    "3109": "xp",
    "3110": "ebe",
    "3111": "aran",
    "3112": "had",
    "3113": "6,",
    "3114": "6, ",
    "3115": "mill",
    "3116": "rag",
    "3117": "Ear",
    "3118": "Earl",
    "3119": "eous",
    "3120": "bj",
    "3121": "bje",
    "3122": "bjec",
    "3123": "bject",
    "3124": "mba",
    "3125": "mbab",
    "3126": "mbabw",
    "3127": "ine",
    "3128": "ines",
    "3129": "esul",
    "3130": "esult",
    "3131": "1,",
    "3132": "1, ",
    "3133": "nam",
    "3134": "name",
    "3135": "bse",
    "3136": "bsen",
    "3137": "8, ",
    "3138": "ora",
    "3139": "par",
    "3140": "para",
    "3141": "gend",
    "3142": "part",
    "3143": "elop",
    "3144": "sib",
    "3145": "DP",
    "3146": "yr",
    "3147": "3 /",
    "3148": "3 /s",
    "3149": "3 /su",
    "3150": "Vry",
    "3151": "ire",
    "3152": "irec",
    "3153": "trin",
    "3154": "ved",
    "3155": "*1",
    "3156": "*19",
    "3157": "mic",
    "3158": "4 /",
    "3159": "4 /s",
    "3160": "eru",
    "3161": "erus",
    "3162": "erusa",
    "3163": "erusal",
    "3164": "n*",
    "3165": "let",
    "3166": "lete",
    "3167": "he ",
    "3168": "ech",
    "3169": "echa",
    "3170": "ird",
    "3171": "ded",
    "3172": "bed",
    "3173": "iot",
    "3174": "Tle",
    "3175": "Tlei",
    "3176": "Tleil",
    "3177": "Tleila",
    "3178": "Tleilax",
    "3179": "rm ",
    "3180": "erv",
    "3181": "dvi",
    "3182": "dvic",
    "3183": "dvice",
    "3184": "nag",
    "3185": "a ",
    "3186": "isi",
    "3187": "isis",
    "3188": "(d. 1",
    "3189": "s*",
    "3190": "me ",
    "3191": "ry ",
    "3192": "log",
    "3193": "BC",
    "3194": "shw",
    "3195": "nefi",
    "3196": "gula",
    "3197": "hav",
    "3198": "vio",
    "3199": "viou",
    "3200": "IQ",
    "3201": "azil",
    "3202": "tyl",
    "3203": "ame ",
    "3204": "e.",
    "3205": "e.g",
    "3206": "itt",
    "3207": "imen",
    "3208": "cre",
    "3209": "ront",
    "3210": "3 (",
    "3211": "zen",
    "3212": "rld",
    "3213": "cce",
    "3214": "cces",
    "3215": "ccess",
    "3216": "imat",
    "3217": "fie",
    "3218": "fiel",
    "3219": "insta",
    "3220": "instan",
    "3221": " by",
    "3222": " by ",
    "3223": " s",
    "3224": " st",
    "3225": "hal",
    "3226": "half",
    "3227": "iven",
    "3228": "Tes",
    "3229": "Test",
    "3230": "ess",
    "3231": "ccep",
    "3232": "ccept",
    "3233": "fuc",
    "3234": "fuci",
    "3235": " 1",
    "3236": "ause",
    "3237": "ck ",
    "3238": "ck o",
    "3239": "ck of",
    "3240": "ck of ",
    "3241": "voi",
    "3242": "void",
    "3243": "aila",
    "3244": "ailab",
    "3245": "cil",
    "3246": "rit",
    "3247": "rita",
    "3248": "ritag",
    "3249": "here",
    "3250": "ure",
    "3251": "und",
    "3252": "Russi",
    "3253": "Russia",
    "3254": "ibu",
    "3255": "ibut",
    "3256": "dal",
    "3257": "iza",
    "3258": "incl",
    "3259": "inclu",
    "3260": "lom",
    "3261": "lomb",
    "3262": "orti",
    "3263": "icag",
    "3264": "icago",
    "3265": "Gr",
    "3266": "Gra",
    "3267": "Gram",
    "3268": "ch ",
    "3269": "ona",
    "3270": "onan",
    "3271": "vir",
    "3272": "viro",
    "3273": "wit",
    "3274": "with",
    "3275": "hil",
    "3276": "hild",
    "3277": "rch ",
    "3278": "mae",
    "3279": "mael",
    "3280": "cis",
    "3281": "cisi",
    "3282": "iance",
    "3283": "rea",
    "3284": "reat",
    "3285": "Re",
    "3286": "Rep",
    "3287": "Repu",
    "3288": "Repub",
    "3289": "tati",
    "3290": "tal",
    "3291": "rom",
    "3292": "rom ",
    "3293": "eop",
    "3294": "owa",
    "3295": "hra",
    "3296": "spi",
    "3297": "spic",
    "3298": "ally",
    "3299": "5,",
    "3300": "5, ",
    "3301": "nsin",
    "3302": "\\c",
    "3303": "\\cd",
    "3304": "\\cdo",
    "3305": "lso",
    "3306": "lso ",
    "3307": "Et",
    "3308": "Ett",
    "3309": "Etti",
    "3310": "Ettin",
    "3311": "Etting",
    "3312": "ume",
    "3313": "opea",
    "3314": "opean",
    "3315": "Wa",
    "3316": "War",
    "3317": "--|",
    "3318": "embl",
    "3319": "iona",
    "3320": "rta",
    "3321": "rtai",
    "3322": "rtain",
    "3323": "lid",
    "3324": "lida",
    "3325": "liday",
    "3326": ")*",
    "3327": ")*1",
    "3328": ")*19",
    "3329": "jec",
    "3330": "hema",
    "3331": "gam",
    "3332": "game",
    "3333": "pab",
    "3334": "pabl",
    "3335": "urt",
    "3336": "nsiv",
    "3337": "peri",
    "3338": "math",
    "3339": "mmi",
    "3340": "mmig",
    "3341": "mmigr",
    "3342": "iry",
    "3343": "til",
    "3344": "ther",
    "3345": "eet",
    "3346": "mse",
    "3347": "msel",
    "3348": " lo",
    "3349": " lon",
    "3350": " long",
    "3351": " longe",
    "3352": "lla",
    "3353": "g ",
    "3354": "ape",
    "3355": "ash",
    "3356": "yri",
    "3357": "yric",
    "3358": "joi",
    "3359": "join",
    "3360": "flue",
    "3361": "fluen",
    "3362": "bel",
    "3363": "beli",
    "3364": "belie",
    "3365": "Za",
    "3366": "nb",
    "3367": "nbs",
    "3368": "nbsp",
    "3369": "arth",
    "3370": "-f",
    "3371": "-fi",
    "3372": "ime ",
    "3373": "ime m",
    "3374": "ime mi",
    "3375": "ime min",
    "3376": "ifi",
    "3377": "ifie",
    "3378": "rote",
    "3379": "known",
    "3380": "cill",
    "3381": "icia",
    "3382": "hat",
    "3383": "hat ",
    "3384": "rang",
    "3385": "ince",
    "3386": "sigm",
    "3387": "wher",
    "3388": "Ges",
    "3389": "Gest",
    "3390": "Gesta",
    "3391": "ku",
    "3392": "osa",
    "3393": "ject",
    "3394": "che",
    "3395": "ched",
    "3396": "ched ",
    "3397": "ath",
    "3398": "atho",
    "3399": "athol",
    "3400": "op ",
    "3401": "ill",
    "3402": "illi",
    "3403": "illia",
    "3404": "illiam",
    "3405": "dic",
    "3406": "dica",
    "3407": "ette",
    "3408": "etter",
    "3409": "pip",
    "3410": "pipe",
    "3411": "om ",
    "3412": "ersh",
    "3413": "ershw",
    "3414": "pola",
    "3415": "SD",
    "3416": "CI",
    "3417": "CIS",
    "3418": "lum",
    "3419": "vide",
    "3420": "vided",
    "3421": "ald",
    "3422": "hab",
    "3423": "habi",
    "3424": "pro",
    "3425": "proc",
    "3426": "proce",
    "3427": "ena",
    "3428": "enat",
    "3429": "wai",
    "3430": "waii",
    "3431": "alt",
    "3432": "alth",
    "3433": "ystem",
    "3434": "rs ",
    "3435": "Eth",
    "3436": "Ethe",
    "3437": "erc",
    "3438": "refe",
    "3439": "eal",
    "3440": "mpi",
    "3441": "mpio",
    "3442": ".g",
    "3443": ".g.",
    "3444": "a R",
    "3445": "a Ri",
    "3446": "tia",
    "3447": "Sa",
    "3448": "Sak",
    "3449": "Sakh",
    "3450": " --",
    "3451": "coc",
    "3452": "nes",
    "3453": "lud",
    "3454": "oull",
    "3455": "cap",
    "3456": "rticu",
    "3457": "rticul",
    "3458": "ussi",
    "3459": "ussia",
    "3460": "tre",
    "3461": "tree",
    "3462": "ros",
    "3463": "ross",
    "3464": "lared",
    "3465": "egali",
    "3466": "egalit",
    "3467": "prem",
    "3468": "righ",
    "3469": "right",
    "3470": "Han",
    "3471": "Hank",
    "3472": "owt",
    "3473": "owth",
    "3474": "hap",
    "3475": "hape",
    "3476": "its ",
    "3477": "izi",
    "3478": "izin",
    "3479": "ly ",
    "3480": "zat",
    "3481": "zati",
    "3482": "zatio",
    "3483": "ppos",
    "3484": "nke",
    "3485": "nked",
    "3486": "inta",
    "3487": "intai",
    "3488": "intain",
    "3489": "DE",
    "3490": "vin ",
    "3491": "ana",
    "3492": "anad",
    "3493": "order",
    "3494": "God",
    "3495": "mma",
    "3496": "mmal",
    "3497": "rup",
    "3498": "rupt",
    "3499": "eigh",
    "3500": "lai",
    "3501": "laim",
    "3502": "/d",
    "3503": "/di",
    "3504": "/div",
    "3505": "sm",
    "3506": "sms",
    "3507": "sms ",
    "3508": "mas",
    "3509": "masc",
    "3510": "mascu",
    "3511": "mascus",
    "3512": "ans",
    "3513": "ko",
    "3514": "ific",
    "3515": "-1",
    "3516": "liv",
    "3517": "live",
    "3518": "liver",
    "3519": "anke",
    "3520": "ankee",
    "3521": "3*",
    "3522": "3*1",
    "3523": "3*19",
    "3524": "reas",
    "3525": "reaso",
    "3526": "ilo",
    "3527": "eat",
    "3528": "eaty",
    "3529": "ifl",
    "3530": "ifle",
    "3531": "rac",
    "3532": "ract",
    "3533": "1)",
    "3534": "ried",
    "3535": "Vi",
    "3536": "dus",
    "3537": "dust",
    "3538": "tore",
    "3539": "igu",
    "3540": "igul",
    "3541": ".*",
    "3542": "ds ",
    "3543": "scho",
    "3544": "ign",
    "3545": "adi",
    "3546": "It",
    "3547": "Ita",
    "3548": "Ital",
    "3549": "pe ",
    "3550": "esid",
    "3551": "ateg",
    "3552": "ing ",
    "3553": "vest",
    "3554": "nos",
    "3555": "nosa",
    "3556": "nosau",
    "3557": "M ",
    "3558": "nov",
    "3559": "nova",
    "3560": "novat",
    "3561": "YS",
    "3562": "YSI",
    "3563": "ught",
    "3564": "ughte",
    "3565": "lic",
    "3566": "lict",
    "3567": " mg",
    "3568": " mg/",
    "3569": "ote",
    "3570": "eepi",
    "3571": "eepin",
    "3572": "dow",
    "3573": "gro",
    "3574": "grow",
    "3575": "growt",
    "3576": "growth",
    "3577": "styl",
    "3578": "r ",
    "3579": "r l",
    "3580": "ad ",
    "3581": "ad o",
    "3582": "ad of",
    "3583": "ad of ",
    "3584": "ied",
    "3585": "pto",
    "3586": "5 /",
    "3587": "5 /t",
    "3588": "gar",
    "3589": "zed",
    "3590": "ness",
    "3591": " /r",
    "3592": " /re",
    "3593": " /ref",
    "3594": "for ",
    "3595": "lur",
    "3596": "= ",
    "3597": "Priz",
    "3598": "Prize",
    "3599": "nar",
    "3600": "nar ",
    "3601": "nto",
    "3602": "div",
    "3603": "divi",
    "3604": "divid",
    "3605": " as",
    "3606": " as ",
    "3607": "ri ",
    "3608": "oba",
    "3609": "obal",
    "3610": " sy",
    "3611": " sys",
    "3612": " syst",
    "3613": " syste",
    "3614": "ebra",
    "3615": "uth",
    "3616": "utho",
    "3617": "uthor",
    "3618": " t",
    "3619": " th",
    "3620": " tha",
    "3621": " than",
    "3622": " than ",
    "3623": "ret",
    "3624": "owed",
    "3625": "ilt",
    "3626": "ync",
    "3627": "ynch",
    "3628": "esti",
    "3629": "estio",
    "3630": "tech",
    "3631": "abo",
    "3632": "abol",
    "3633": "sho",
    "3634": "glo",
    "3635": "glob",
    "3636": "globa",
    "3637": "global",
    "3638": "abou",
    "3639": "die",
    "3640": "die ",
    "3641": "k ",
    "3642": "k I",
    "3643": "18",
    "3644": "obert",
    "3645": "anadi",
    "3646": "oph",
    "3647": "mos",
    "3648": "most",
    "3649": "yt",
    "3650": "yte",
    "3651": "tual",
    "3652": "er ",
    "3653": "ue",
    "3654": "ue ",
    "3655": "oma",
    "3656": "ari",
    "3657": "aria",
    "3658": " su",
    "3659": "inr",
    "3660": "inri",
    "3661": "inric",
    "3662": "inrich",
    "3663": "inrich ",
    "3664": "hon",
    "3665": "age",
    "3666": "vah",
    "3667": "ER",
    "3668": "fire",
    "3669": "cta",
    "3670": "ctat",
    "3671": "ctato",
    "3672": "ubl",
    "3673": "BB",
    "3674": "BBC",
    "3675": "rab",
    "3676": "raba",
    "3677": "ow ",
    "3678": "term",
    "3679": "termi",
    "3680": "ipe",
    "3681": "eak",
    "3682": "f ",
    "3683": "isho",
    "3684": "ligh",
    "3685": "word",
    "3686": "sw",
    "3687": "swa",
    "3688": "trol",
    "3689": "SE",
    "3690": "SEM",
    "3691": "SEM)",
    "3692": " i",
    "3693": " in",
    "3694": "nod",
    "3695": "vy",
    "3696": "vyw",
    "3697": "vywe",
    "3698": "vywei",
    "3699": "cca",
    "3700": "ighb",
    "3701": "ighbo",
    "3702": "ven ",
    "3703": "oco",
    "3704": "ocol",
    "3705": "ocola",
    "3706": "itiz",
    "3707": "itize",
    "3708": "itizen",
    "3709": "yea",
    "3710": "lth",
    "3711": "wne",
    "3712": "ved ",
    "3713": "o ",
    "3714": "o n",
    "3715": "o no",
    "3716": "edis",
    "3717": "Her",
    "3718": "Hera",
    "3719": "Herat",
    "3720": "irly",
    "3721": "irly ",
    "3722": "rist",
    "3723": "dg",
    "3724": " to",
    "3725": "when",
    "3726": "to ",
    "3727": "fg",
    "3728": "fgh",
    "3729": "fgha",
    "3730": "udi",
    "3731": "rpo",
    "3732": "goi",
    "3733": "goin",
    "3734": "going",
    "3735": "vemb",
    "3736": "en ",
    "3737": "rack",
    "3738": "scop",
    "3739": "essu",
    "3740": "essur",
    "3741": "ssel",
    "3742": "__",
    "3743": "B ",
    "3744": "iend",
    "3745": "dera",
    "3746": "ngw",
    "3747": "ngwr",
    "3748": "ngwri",
    "3749": "eba",
    "3750": "LP",
    "3751": "voc",
    "3752": "voca",
    "3753": "osi",
    "3754": "osin",
    "3755": "leu",
    "3756": "arka",
    "3757": "PU",
    "3758": "ngs",
    "3759": "vari",
    "3760": "cog",
    "3761": "cogn",
    "3762": "cogni",
    "3763": "lob",
    "3764": "loba",
    "3765": "lobal",
    "3766": "ange",
    "3767": "loy",
    "3768": "riou",
    "3769": "IA",
    "3770": "polo",
    "3771": "Eas",
    "3772": "East",
    "3773": "road",
    "3774": "got",
    "3775": "goti",
    "3776": "gotia",
    "3777": "ngi",
    "3778": "-s",
    "3779": "-sh",
    "3780": "ymo",
    "3781": "70s",
    "3782": "hes",
    "3783": "hess",
    "3784": "dot",
    "3785": "zar",
    "3786": "liz",
    "3787": "lize",
    "3788": "cat",
    "3789": "rde",
    "3790": "rder",
    "3791": "sou",
    "3792": "sout",
    "3793": "anen",
    "3794": "ally ",
    "3795": "Syd",
    "3796": "bbi",
    "3797": "-y",
    "3798": "-ye",
    "3799": "-yea",
    "3800": "wee",
    "3801": "week",
    "3802": "dne",
    "3803": "dney",
    "3804": "elan",
    "3805": "eland",
    "3806": "sth",
    "3807": "sthe",
    "3808": "dw",
    "3809": "dwi",
    "3810": "rib",
    "3811": "ribu",
    "3812": "1s",
    "3813": "1st",
    "3814": "pop",
    "3815": "popu",
    "3816": "popul",
    "3817": "ley",
    "3818": "ut ",
    "3819": "moud",
    "3820": "rel",
    "3821": "' ",
    "3822": "eam",
    "3823": " (1",
    "3824": " (19",
    "3825": "eopl",
    "3826": "gmen",
    "3827": "fri",
    "3828": "cks",
    "3829": "ckso",
    "3830": "ckson",
    "3831": ") -",
    "3832": ") - ",
    "3833": "Ma",
    "3834": "ril",
    "3835": "neu",
    "3836": "adin",
    "3837": "uble",
    "3838": " /ma",
    "3839": "ero",
    "3840": "sist",
    "3841": "Testa",
    "3842": "bla",
    "3843": "Al",
    "3844": "Roma",
    "3845": "ned",
    "3846": "dt",
    "3847": "ui",
    "3848": "uis",
    "3849": "ef",
    "3850": "eff",
    "3851": "rpor",
    "3852": "hous",
    "3853": "rro",
    "3854": "rrou",
    "3855": "rroun",
    "3856": "media",
    "3857": "mediat",
    "3858": "ng ",
    "3859": "www",
    "3860": "fig",
    "3861": "figu",
    "3862": "figur",
    "3863": "eh",
    "3864": "eha",
    "3865": "enr",
    "3866": "onic",
    "3867": "bert",
    "3868": "ral ",
    "3869": "had ",
    "3870": "sorb",
    "3871": "yth",
    "3872": "olly",
    "3873": "ollyw",
    "3874": "ollywo",
    "3875": "ollywoo",
    "3876": "clud",
    "3877": "bal",
    "3878": "ball",
    "3879": "balla",
    "3880": "ballad",
    "3881": "!)",
    "3882": "mpe",
    "3883": "mper",
    "3884": "mpero",
    "3885": "end{",
    "3886": "Prin",
    "3887": "Princ",
    "3888": "pent",
    "3889": "Le",
    "3890": "Leo",
    "3891": "Leon",
    "3892": "egr",
    "3893": "dr",
    "3894": "/dl",
    "3895": "+ ",
    "3896": "ego",
    "3897": "egon",
    "3898": "Civ",
    "3899": "Civi",
    "3900": "hwi",
    "3901": "I ",
    "3902": "-19",
    "3903": "atu",
    "3904": "atur",
    "3905": "ll ",
    "3906": "bad",
    "3907": "nima",
    "3908": "hog",
    "3909": "hoga",
    "3910": "hogan",
    "3911": "organ",
    "3912": "cit",
    "3913": "nte",
    "3914": "nted",
    "3915": "inar",
    "3916": "rans",
    "3917": "M)",
    "3918": "num",
    "3919": "numb",
    "3920": "numbe",
    "3921": "number",
    "3922": "*B",
    "3923": "lde",
    "3924": "lden",
    "3925": "uil",
    "3926": "ott",
    "3927": "90",
    "3928": "90s",
    "3929": "ecame",
    "3930": "e,",
    "3931": "e, ",
    "3932": " Ar",
    "3933": "ille",
    "3934": "ads",
    "3935": "ads ",
    "3936": "orl",
    "3937": "orld",
    "3938": "cree",
    "3939": "creen",
    "3940": "3-",
    "3941": "elig",
    "3942": "eligi",
    "3943": "eligio",
    "3944": "year",
    "3945": "y of ",
    "3946": "tiv",
    "3947": "sibl",
    "3948": "qr",
    "3949": "aret",
    "3950": "in a",
    "3951": "in ar",
    "3952": "ook",
    "3953": "ondo",
    "3954": "ondon",
    "3955": "cuu",
    "3956": "cuum",
    "3957": "twee",
    "3958": "orr",
    "3959": "orro",
    "3960": "orrow",
    "3961": "nuc",
    "3962": "nucl",
    "3963": "ky",
    "3964": "pect",
    "3965": "ria",
    "3966": "area",
    "3967": "erg",
    "3968": "rdi",
    "3969": "row",
    "3970": "Sh",
    "3971": "She",
    "3972": "hie",
    "3973": "hiev",
    "3974": "e*",
    "3975": "ped ",
    "3976": "ew",
    "3977": "lain",
    "3978": "edit",
    "3979": "ect",
    "3980": "es ",
    "3981": "uel",
    "3982": " v",
    "3983": " vo",
    "3984": " vow",
    "3985": " vowe",
    "3986": " vowel",
    "3987": "shou",
    "3988": "shoul",
    "3989": "ent ",
    "3990": "apo",
    "3991": "apor",
    "3992": "ench",
    "3993": "Unio",
    "3994": "mak",
    "3995": "ose ",
    "3996": "Tra",
    "3997": "nt ",
    "3998": "issi",
    "3999": "arl",
    "4000": "itu",
    "4001": "itud",
    "4002": "p ",
    "4003": "bas",
    "4004": "dri",
    "4005": "driv",
    "4006": "gha",
    "4007": "ghal",
    "4008": "8)*1",
    "4009": "smu",
    "4010": "giv",
    "4011": "rci",
    "4012": "rcis",
    "4013": "tisf",
    "4014": "anned",
    "4015": "gio",
    "4016": "gion",
    "4017": "U ",
    "4018": "ies",
    "4019": "o,",
    "4020": "o, ",
    "4021": "lang",
    "4022": "langu",
    "4023": "rad",
    "4024": "rad ",
    "4025": "git",
    "4026": "exil",
    "4027": "amo",
    "4028": "amon",
    "4029": "among",
    "4030": "llen",
    "4031": "lleng",
    "4032": "terb",
    "4033": "terbu",
    "4034": "Mo",
    "4035": "Mon",
    "4036": "Mont",
    "4037": "ext",
    "4038": "tive",
    "4039": "siu",
    "4040": "sius",
    "4041": "evem",
    "4042": "eveme",
    "4043": "evemen",
    "4044": "evement",
    "4045": "aren",
    "4046": "arent",
    "4047": "nd o",
    "4048": "nd of",
    "4049": "nd of ",
    "4050": "tra",
    "4051": "trac",
    "4052": "ots",
    "4053": "otsw",
    "4054": "otswa",
    "4055": "Roman",
    "4056": "rget",
    "4057": "til ",
    "4058": "Of",
    "4059": "Off",
    "4060": "Offi",
    "4061": "Offic",
    "4062": "thod",
    "4063": "ssib",
    "4064": "ada",
    "4065": "id ",
    "4066": " /s",
    "4067": " /su",
    "4068": "Hz",
    "4069": "Dyl",
    "4070": "Dyla",
    "4071": "Dylan",
    "4072": "ustr",
    "4073": " (b. ",
    "4074": " (b. 1",
    "4075": "fess",
    "4076": "riso",
    "4077": "rison",
    "4078": "mplo",
    "4079": "mploy",
    "4080": "opi",
    "4081": "opic",
    "4082": "cul",
    "4083": "tru",
    "4084": "truc",
    "4085": "truct",
    "4086": "pter",
    "4087": "hig",
    "4088": "high",
    "4089": "mber",
    "4090": "nry",
    "4091": "e p",
    "4092": "e po",
    "4093": "re ",
    "4094": "Fe",
    "4095": "Feb",
    "4096": "edr",
    "4097": "edri",
    "4098": "3 -",
    "4099": "3 - ",
    "4100": "son",
    "4101": "ecau",
    "4102": "ecaus",
    "4103": "dge",
    "4104": "dget",
    "4105": "mari",
    "4106": "maril",
    "4107": "riest",
    "4108": ") b",
    "4109": ") br",
    "4110": "gma",
    "4111": " St",
    "4112": " Sta",
    "4113": "omin",
    "4114": "ista",
    "4115": "eir",
    "4116": "eirc",
    "4117": "han",
    "4118": "his ",
    "4119": "aph",
    "4120": "sq",
    "4121": "squ",
    "4122": "SBN ",
    "4123": "W ",
    "4124": "wat",
    "4125": "wate",
    "4126": "water",
    "4127": "iba",
    "4128": "ronto",
    "4129": "pare",
    "4130": "paren",
    "4131": "parent",
    "4132": "dre",
    "4133": "bn",
    "4134": "bni",
    "4135": "bniz",
    "4136": "era",
    "4137": "nun",
    "4138": "like",
    "4139": "rn ",
    "4140": "rik",
    "4141": "rike",
    "4142": "oy",
    "4143": "oya",
    "4144": "oyal",
    "4145": "mot",
    "4146": "..",
    "4147": "Q}",
    "4148": "ook ",
    "4149": "Min",
    "4150": "Mini",
    "4151": "Minis",
    "4152": "Minist",
    "4153": "thiop",
    "4154": "swi",
    "4155": "ady",
    "4156": "-sp",
    "4157": "-spe",
    "4158": "-spee",
    "4159": "nom",
    "4160": "nomi",
    "4161": "mmo",
    "4162": "mmod",
    "4163": "mmoda",
    "4164": "sess",
    "4165": "tect",
    "4166": "thol",
    "4167": "tholi",
    "4168": "Hau",
    "4169": "Haus",
    "4170": "soc",
    "4171": "soci",
    "4172": "cau",
    "4173": "caus",
    "4174": "ruz",
    "4175": "gue",
    "4176": "cide",
    "4177": "ciden",
    "4178": "oso",
    "4179": "osop",
    "4180": "td",
    "4181": "ony",
    "4182": "cop",
    "4183": "tle",
    "4184": "Pol",
    "4185": "tex",
    "4186": "cia",
    "4187": "RC",
    "4188": "Islam",
    "4189": "roun",
    "4190": "oq",
    "4191": "oqu",
    "4192": "irs",
    "4193": "irst",
    "4194": "tio",
    "4195": "lind",
    "4196": "Nigh",
    "4197": "Night",
    "4198": "arge",
    "4199": "it ",
    "4200": "adio",
    "4201": "cad",
    "4202": "cade",
    "4203": "g/",
    "4204": "g/d",
    "4205": "g/dl",
    "4206": "/s",
    "4207": "f w",
    "4208": "f wh",
    "4209": " F",
    "4210": " Fi",
    "4211": "footb",
    "4212": "footba",
    "4213": "footbal",
    "4214": "nde",
    "4215": "nder",
    "4216": " T",
    "4217": " Te",
    "4218": " Tes",
    "4219": " Test",
    "4220": "le t",
    "4221": "le to",
    "4222": "rove",
    "4223": "ger",
    "4224": "cente",
    "4225": "nins",
    "4226": "ninsu",
    "4227": "witc",
    "4228": "witch",
    "4229": "moc",
    "4230": "mocr",
    "4231": "mocra",
    "4232": "7,",
    "4233": "7, ",
    "4234": "cher",
    "4235": "ura",
    "4236": "uran",
    "4237": "urang",
    "4238": "have",
    "4239": "ortal",
    "4240": "nned",
    "4241": "il ",
    "4242": "Fra",
    "4243": "Fran",
    "4244": "Confeder",
    "4245": "Confedera",
    "4246": "any",
    "4247": "any ",
    "4248": "Angl",
    "4249": "5}",
    "4250": "gene",
    "4251": "gener",
    "4252": "athe",
    "4253": "rnal",
    "4254": "dustr",
    "4255": "Geog",
    "4256": "Geogr",
    "4257": "Geogra",
    "4258": "Geograp",
    "4259": "hy ",
    "4260": "Arb",
    "4261": "Arbo",
    "4262": "wort",
    "4263": "worth",
    "4264": "WW",
    "4265": "s'",
    "4266": "ich",
    "4267": "uit",
    "4268": "nded",
    "4269": "lana",
    "4270": "lanat",
    "4271": "sam",
    "4272": "same",
    "4273": "same ",
    "4274": "oin",
    "4275": "oint",
    "4276": "osp",
    "4277": "osph",
    "4278": "osphe",
    "4279": "ospher",
    "4280": "orth",
    "4281": "tib",
    "4282": "Bri",
    "4283": "Brit",
    "4284": "hew",
    "4285": "rim",
    "4286": "rime",
    "4287": "rimen",
    "4288": "Boa",
    "4289": "Boar",
    "4290": "articl",
    "4291": "fictio",
    "4292": "fiction",
    "4293": "ucat",
    "4294": "CS",
    "4295": "betw",
    "4296": "betwe",
    "4297": "tea",
    "4298": "ix ",
    "4299": " I",
    "4300": "tic ",
    "4301": "agi",
    "4302": "agin",
    "4303": "yer",
    "4304": "out",
    "4305": "out ",
    "4306": "lor",
    "4307": "rothe",
    "4308": "coun",
    "4309": "count",
    "4310": "adel",
    "4311": "renc",
    "4312": "uk",
    "4313": "uke",
    "4314": "-|",
    "4315": "ace",
    "4316": "Irela",
    "4317": "NF",
    "4318": "hro",
    "4319": "hrou",
    "4320": "hroug",
    "4321": "cine",
    "4322": "widt",
    "4323": "aii",
    "4324": "ecto",
    "4325": "ector",
    "4326": "amer",
    "4327": "amera",
    "4328": "del",
    "4329": "ual",
    "4330": "ita",
    "4331": "itar",
    "4332": "viv",
    "4333": "ief",
    "4334": "oon",
    "4335": "rvice",
    "4336": "sider",
    "4337": "Get",
    "4338": "oh",
    "4339": "RA",
    "4340": "RAM",
    "4341": "ila",
    "4342": "ilag",
    "4343": "culp",
    "4344": "culpt",
    "4345": "she",
    "4346": "7.",
    "4347": " and ",
    "4348": "D ",
    "4349": "D A",
    "4350": "untr",
    "4351": "uf",
    "4352": "ufa",
    "4353": "ufac",
    "4354": "y*",
    "4355": "boo",
    "4356": "book",
    "4357": "rench",
    "4358": "batt",
    "4359": "don",
    "4360": "0, ",
    "4361": "r.",
    "4362": "iq",
    "4363": "iqu",
    "4364": "opt",
    "4365": "-si",
    "4366": "-siz",
    "4367": "-size",
    "4368": "rter",
    "4369": "IN",
    "4370": "ING",
    "4371": "ski",
    "4372": "Hausd",
    "4373": "Hausdo",
    "4374": "Hausdor",
    "4375": "agan",
    "4376": "elai",
    "4377": "elaid",
    "4378": "egin",
    "4379": "hist",
    "4380": "histo",
    "4381": "Fi",
    "4382": " of",
    "4383": " of ",
    "4384": "Bus",
    "4385": "Bush",
    "4386": "roc",
    "4387": "rock",
    "4388": "team",
    "4389": "ario",
    "4390": "ariou",
    "4391": "ery",
    "4392": "ery ",
    "4393": "x ",
    "4394": "genera",
    "4395": "general",
    "4396": "brar",
    "4397": "esa",
    "4398": "esar",
    "4399": "Cal",
    "4400": "Cali",
    "4401": "Calif",
    "4402": "Califo",
    "4403": "Califor",
    "4404": "hurc",
    "4405": "irt",
    "4406": "irth",
    "4407": "mbl",
    "4408": "la ",
    "4409": "ampl",
    "4410": " fi",
    "4411": " fic",
    "4412": " fict",
    "4413": " ficti",
    "4414": "wo ",
    "4415": "% ",
    "4416": "Me",
    "4417": "dim",
    "4418": "dime",
    "4419": "harl",
    "4420": "nic",
    "4421": "erio",
    "4422": "eriod",
    "4423": "ribut",
    "4424": "ny",
    "4425": "ny ",
    "4426": "lop",
    "4427": "tion",
    "4428": "man",
    "4429": "many",
    "4430": "many ",
    "4431": "tric",
    "4432": "trict",
    "4433": "nsu",
    "4434": "vad",
    "4435": "vada",
    "4436": "nici",
    "4437": "nicip",
    "4438": "kil",
    "4439": "kill",
    "4440": "irect",
    "4441": "rk",
    "4442": "rke",
    "4443": "rket",
    "4444": "9,",
    "4445": "9, ",
    "4446": "cei",
    "4447": "ceiv",
    "4448": "ceive",
    "4449": "ple",
    "4450": "hib",
    "4451": "hibi",
    "4452": "sine",
    "4453": "sines",
    "4454": "siness",
    "4455": "iver",
    "4456": "2n",
    "4457": "2nd",
    "4458": "pera",
    "4459": " D",
    "4460": " De",
    "4461": " Dem",
    "4462": " Demo",
    "4463": "6)",
    "4464": "try",
    "4465": "ble",
    "4466": "F-",
    "4467": "1 /",
    "4468": "1 /s",
    "4469": "Joh",
    "4470": "John",
    "4471": "John ",
    "4472": "zes",
    "4473": "rba",
    "4474": "lf ",
    "4475": "fou",
    "4476": "siv",
    "4477": ".e",
    "4478": ".e.",
    "4479": "Hi",
    "4480": "Hit",
    "4481": "olv",
    "4482": "yll",
    "4483": "eum",
    "4484": "ne ",
    "4485": "sti",
    "4486": "stic",
    "4487": "35",
    "4488": "opp",
    "4489": "dur",
    "4490": "ngs ",
    "4491": "obj",
    "4492": "obje",
    "4493": "objec",
    "4494": "object",
    "4495": "King",
    "4496": "teb",
    "4497": "tebr",
    "4498": "seq",
    "4499": "sequ",
    "4500": "nks",
    "4501": " is",
    "4502": " is ",
    "4503": "range",
    "4504": "tom",
    "4505": "toma",
    "4506": "tomat",
    "4507": "Sea",
    "4508": "urr",
    "4509": "urre",
    "4510": "urren",
    "4511": "ased",
    "4512": "ust ",
    "4513": "TP",
    "4514": "TP ",
    "4515": "und ",
    "4516": "aim",
    "4517": "9)*",
    "4518": "9)*1",
    "4519": "spit",
    "4520": "spite",
    "4521": "tud",
    "4522": "len",
    "4523": "leng",
    "4524": "lengt",
    "4525": "length",
    "4526": "jah",
    "4527": "fied",
    "4528": "rati",
    "4529": "ung",
    "4530": "unga",
    "4531": "ungar",
    "4532": "oss",
    "4533": "oot",
    "4534": "ootb",
    "4535": "ainl",
    "4536": "mons",
    "4537": "monst",
    "4538": "monstr",
    "4539": "monstra",
    "4540": "mman",
    "4541": "inds",
    "4542": "kne",
    "4543": "Ort",
    "4544": "obel",
    "4545": "ntim",
    "4546": "ntime",
    "4547": "ntimen",
    "4548": "ntiment",
    "4549": "weg",
    "4550": "wegi",
    "4551": "wegia",
    "4552": "llec",
    "4553": "llect",
    "4554": "rf",
    "4555": "ymb",
    "4556": "ymbo",
    "4557": "ymbol",
    "4558": "believ",
    "4559": "a,",
    "4560": "a, ",
    "4561": "use ",
    "4562": "ingl",
    "4563": " pe",
    "4564": " per",
    "4565": "sew",
    "4566": "sewh",
    "4567": "sewhe",
    "4568": "sewher",
    "4569": "atis",
    "4570": "atisf",
    "4571": "Fro",
    "4572": "From",
    "4573": "air",
    "4574": "wav",
    "4575": "ssf",
    "4576": "ssfu",
    "4577": "t-",
    "4578": "t-c",
    "4579": "ctio",
    "4580": "ction",
    "4581": " fu",
    "4582": " fue",
    "4583": " fuel",
    "4584": "bid",
    "4585": "gdo",
    "4586": "ps ",
    "4587": "flo",
    "4588": "floo",
    "4589": "floor",
    "4590": "riv",
    "4591": "tly",
    "4592": "tly ",
    "4593": "hoo",
    "4594": "hool",
    "4595": "oar",
    "4596": "oard",
    "4597": "nomin",
    "4598": "habit",
    "4599": "lis",
    "4600": "list",
    "4601": "gard",
    "4602": "choo",
    "4603": "chool",
    "4604": "idi",
    "4605": "idia",
    "4606": "idian",
    "4607": "node",
    "4608": "sso",
    "4609": "ssoc",
    "4610": "rso",
    "4611": "rson",
    "4612": "cla",
    "4613": "goo",
    "4614": "good",
    "4615": "how ",
    "4616": "writer",
    "4617": "stru",
    "4618": "IG",
    "4619": "IGF",
    "4620": "ske",
    "4621": "sket",
    "4622": "Rea",
    "4623": "Reag",
    "4624": "Reaga",
    "4625": " mi",
    "4626": "ofte",
    "4627": "icen",
    "4628": "mee",
    "4629": "meet",
    "4630": "engt",
    "4631": "ength",
    "4632": "nove",
    "4633": "novel",
    "4634": "nthr",
    "4635": "Cap",
    "4636": "deca",
    "4637": "decad",
    "4638": "xampl",
    "4639": "civ",
    "4640": "civi",
    "4641": "elp",
    "4642": "acc",
    "4643": "accu",
    "4644": "accur",
    "4645": "accura",
    "4646": "ats",
    "4647": "Di",
    "4648": "Dir",
    "4649": "Dire",
    "4650": "Direc",
    "4651": " Is",
    "4652": " Isl",
    "4653": "ocia",
    "4654": "rmal",
    "4655": "rmo",
    "4656": "rmou",
    "4657": "rmour",
    "4658": "ox",
    "4659": "oxi",
    "4660": "oxim",
    "4661": "oxima",
    "4662": "hai",
    "4663": "leuz",
    "4664": "leuze",
    "4665": "lv",
    "4666": "lva",
    "4667": "lvat",
    "4668": "lvati",
    "4669": "lvatio",
    "4670": "held",
    "4671": "eon",
    "4672": "As",
    "4673": "Ass",
    "4674": "Asse",
    "4675": "lant",
    "4676": "Son",
    "4677": "Song",
    "4678": "lyt",
    "4679": "chip",
    "4680": "iun",
    "4681": "iung",
    "4682": "non",
    "4683": "sca",
    "4684": "scal",
    "4685": "ophe",
    "4686": "AB",
    "4687": "eake",
    "4688": "eaker",
    "4689": "Mar",
    "4690": "Mari",
    "4691": "Maria",
    "4692": "sma",
    "4693": "smal",
    "4694": "sie",
    "4695": "upr",
    "4696": "upre",
    "4697": "uprem",
    "4698": "ih",
    "4699": "ihi",
    "4700": "ihil",
    "4701": "ihila",
    "4702": "Sc",
    "4703": "Sci",
    "4704": "narr",
    "4705": "suc",
    "4706": "such",
    "4707": "For ",
    "4708": "wis ",
    "4709": "uita",
    "4710": "uitar",
    "4711": "Cu",
    "4712": "Cup",
    "4713": "-Bo",
    "4714": "-Bop",
    "4715": "-Bopp",
    "4716": "hare",
    "4717": "arb",
    "4718": "arba",
    "4719": "lee",
    "4720": "leep",
    "4721": "iem",
    "4722": "iema",
    "4723": "ieman",
    "4724": "rned",
    "4725": "atholi",
    "4726": "FA",
    "4727": "FA ",
    "4728": "Ol",
    "4729": "Old",
    "4730": "emi",
    "4731": "calle",
    "4732": "pel",
    "4733": "pell",
    "4734": "such ",
    "4735": "such a",
    "4736": " ti",
    "4737": " tim",
    "4738": "longe",
    "4739": "decade",
    "4740": "Febr",
    "4741": "Febru",
    "4742": "Februa",
    "4743": "aki",
    "4744": "akin",
    "4745": "rla",
    "4746": "German",
    "4747": "eyn",
    "4748": "eynm",
    "4749": "eynma",
    "4750": "sof",
    "4751": "esto",
    "4752": "fem",
    "4753": "shes",
    "4754": "hak",
    "4755": "hake",
    "4756": "hakes",
    "4757": "hakesp",
    "4758": "hakespe",
    "4759": "micu",
    "4760": "etho",
    "4761": "ethod",
    "4762": "ar ",
    "4763": "r t",
    "4764": "r th",
    "4765": "r the",
    "4766": " ri",
    "4767": " rig",
    "4768": " righ",
    "4769": "emis",
    "4770": "emiss",
    "4771": "too",
    "4772": "ease",
    "4773": "lau",
    "4774": "laug",
    "4775": "ky,",
    "4776": "ky, ",
    "4777": "Col",
    "4778": "Colo",
    "4779": "Color",
    "4780": "ht",
    "4781": "hta",
    "4782": "htar",
    "4783": "gan",
    "4784": "gani",
    "4785": "root",
    "4786": "Div",
    "4787": "Divi",
    "4788": "Divis",
    "4789": "Divisi",
    "4790": "(A",
    "4791": "(AN",
    "4792": "p o",
    "4793": "p of",
    "4794": "aps",
    "4795": "ppl",
    "4796": "upo",
    "4797": "upon",
    "4798": "rrow",
    "4799": "deg",
    "4800": "ppea",
    "4801": "Jer",
    "4802": "Jeru",
    "4803": "Jerus",
    "4804": "emon",
    "4805": "lr",
    "4806": "trod",
    "4807": "trodu",
    "4808": "troduc",
    "4809": "pecie",
    "4810": "pecies",
    "4811": "adu",
    "4812": "adua",
    "4813": "harm",
    "4814": "harma",
    "4815": "ndin",
    "4816": "hesi",
    "4817": "ees",
    "4818": "eese",
    "4819": "ling",
    "4820": "Chi",
    "4821": "m M",
    "4822": "met",
    "4823": "metr",
    "4824": "ltho",
    "4825": "lthou",
    "4826": "lthoug",
    "4827": "Hin",
    "4828": "Hind",
    "4829": "hortl",
    "4830": "hortly",
    "4831": "utis",
    "4832": "entr",
    "4833": " sp",
    "4834": "rela",
    "4835": "relan",
    "4836": "pla",
    "4837": "plac",
    "4838": "place",
    "4839": "placed",
    "4840": "hb",
    "4841": "ore",
    "4842": "ore ",
    "4843": "rdt",
    "4844": "four",
    "4845": "vars",
    "4846": "lecul",
    "4847": "ruc",
    "4848": "ruct",
    "4849": "nli",
    "4850": "Lea",
    "4851": "Leag",
    "4852": "Leagu",
    "4853": "bot",
    "4854": "bun",
    "4855": "bund",
    "4856": "bunda",
    "4857": "iso",
    "4858": "olds",
    "4859": ".C",
    "4860": "p t",
    "4861": "p to",
    "4862": "p to ",
    "4863": "If",
    "4864": "If ",
    "4865": "boy",
    "4866": "ick",
    "4867": "instanc",
    "4868": "yw",
    "4869": "ywe",
    "4870": "ywei",
    "4871": "clea",
    "4872": " Ci",
    "4873": " Cit",
    "4874": "blem",
    "4875": "isio",
    "4876": "ob ",
    "4877": "house",
    "4878": "viru",
    "4879": "virus",
    "4880": "eno",
    "4881": "Naz",
    "4882": "Nazi",
    "4883": "energ",
    "4884": "nex",
    "4885": "next",
    "4886": "vy ",
    "4887": "thu",
    "4888": "thur",
    "4889": "ores",
    "4890": "Nir",
    "4891": "Niro",
    "4892": "nue",
    "4893": "xf",
    "4894": "xfo",
    "4895": "7*",
    "4896": "ersia",
    "4897": "ersian",
    "4898": "pace",
    "4899": "-bi",
    "4900": "Ju",
    "4901": "hyl",
    "4902": "Howeve",
    "4903": "alley",
    "4904": "DES",
    "4905": "zo",
    "4906": "oce",
    "4907": "oces",
    "4908": "shir",
    "4909": "red",
    "4910": "redi",
    "4911": "redit",
    "4912": "ssoci",
    "4913": "ssocia",
    "4914": "yp",
    "4915": "ew ",
    "4916": "hase",
    "4917": " B",
    "4918": " Br",
    "4919": ".D",
    "4920": ".D.",
    "4921": "ndit",
    "4922": "nditi",
    "4923": "nditio",
    "4924": "ghb",
    "4925": "sion",
    "4926": "ce ",
    "4927": "ionag",
    "4928": "ls ",
    "4929": "rien",
    "4930": "riend",
    "4931": "urth",
    "4932": "asg",
    "4933": "asgo",
    "4934": "asgow",
    "4935": "c i",
    "4936": "c is",
    "4937": "c is ",
    "4938": "tus",
    "4939": "mpt",
    "4940": "vict",
    "4941": "victo",
    "4942": "victor",
    "4943": "fel",
    "4944": "efu",
    "4945": "gin",
    "4946": "haik",
    "4947": "ouc",
    "4948": "ouce",
    "4949": "ouces",
    "4950": "Stu",
    "4951": "Stud",
    "4952": "rfa",
    "4953": "rfac",
    "4954": "view",
    "4955": "Z ",
    "4956": "Z /",
    "4957": "Z /m",
    "4958": "Z /ma",
    "4959": "ops",
    "4960": "xim",
    "4961": "xima",
    "4962": "ubs",
    "4963": "ubst",
    "4964": "omen",
    "4965": "cate",
    "4966": "cut",
    "4967": "bishop",
    "4968": "fan",
    "4969": "eva",
    "4970": "rmy",
    "4971": "dru",
    "4972": "drub",
    "4973": "ij",
    "4974": "iji",
    "4975": "sb",
    "4976": "sba",
    "4977": "sban",
    "4978": "dev",
    "4979": "deve",
    "4980": "devel",
    "4981": "develo",
    "4982": "AP",
    "4983": "gui",
    "4984": "guis",
    "4985": "alu",
    "4986": "alue",
    "4987": "amed",
    "4988": "inin",
    "4989": "fil",
    "4990": "OS",
    "4991": "OS ",
    "4992": "ge ",
    "4993": "dek",
    "4994": "deki",
    "4995": " Af",
    "4996": " Afr",
    "4997": "xh",
    "4998": "xhi",
    "4999": "xhib",
    "5000": "hc",
    "5001": "hcp",
    "5002": "lg",
    "5003": "sly",
    "5004": "ssy",
    "5005": "ssyr",
    "5006": "rotes",
    "5007": "rotest",
    "5008": "idu",
    "5009": "idus",
    "5010": "Hai",
    "5011": "Hait",
    "5012": "Haiti",
    "5013": "true",
    "5014": "coul",
    "5015": "could",
    "5016": "succ",
    "5017": "rof",
    "5018": "rofe",
    "5019": "rofes",
    "5020": "rofess",
    "5021": "lifo",
    "5022": "bbl",
    "5023": "mog",
    "5024": "first",
    "5025": "first ",
    "5026": "pple",
    "5027": "rtan",
    "5028": "oz",
    "5029": "oze",
    "5030": "vaila",
    "5031": "vailab",
    "5032": "lp ",
    "5033": "lp o",
    "5034": "lp of",
    "5035": "lp of ",
    "5036": "star",
    "5037": "eror",
    "5038": "cost",
    "5039": "resu",
    "5040": "resul",
    "5041": "result",
    "5042": "Jap",
    "5043": "Japa",
    "5044": "remb",
    "5045": "plai",
    "5046": "plain",
    "5047": "digi",
    "5048": "net",
    "5049": "tas",
    "5050": "MP",
    "5051": "rva",
    "5052": "rvar",
    "5053": "guar",
    "5054": "iec",
    "5055": "iece",
    "5056": "ieces",
    "5057": "racti",
    "5058": "aber",
    "5059": "acti",
    "5060": "reet",
    "5061": "xth",
    "5062": "ues",
    "5063": "Comi",
    "5064": "Comic",
    "5065": "ach ",
    "5066": "ith ",
    "5067": "tf",
    "5068": "tfo",
    "5069": "tfor",
    "5070": "xen",
    "5071": "xene",
    "5072": "Orig",
    "5073": "mpet",
    "5074": "ercu",
    "5075": "ercul",
    "5076": "ntras",
    "5077": "ntrast",
    "5078": "Tw",
    "5079": "W.",
    "5080": "penw",
    "5081": "ewi",
    "5082": "ewis",
    "5083": "imi",
    "5084": "imin",
    "5085": "imina",
    "5086": "lock",
    "5087": "ghte",
    "5088": "-se",
    "5089": "-ser",
    "5090": "-seri",
    "5091": "wd",
    "5092": "wdy",
    "5093": "ales",
    "5094": "alest",
    "5095": "m)",
    "5096": "m):",
    "5097": "Def",
    "5098": "Defe",
    "5099": "Defen",
    "5100": "eav",
    "5101": "seri",
    "5102": "syn",
    "5103": "synt",
    "5104": "mete",
    "5105": "meter",
    "5106": "eld",
    "5107": "eld ",
    "5108": "come",
    "5109": "gus",
    "5110": "nage",
    "5111": "Chr",
    "5112": "Chri",
    "5113": "Chris",
    "5114": "5)",
    "5115": "housa",
    "5116": "zec",
    "5117": "nob",
    "5118": "nobi",
    "5119": "ctive",
    "5120": "stop",
    "5121": "Ali",
    "5122": "Alig",
    "5123": "fam",
    "5124": "famo",
    "5125": "famou",
    "5126": "Yar",
    "5127": "Cat",
    "5128": "Cath",
    "5129": "tak",
    "5130": "Lad",
    "5131": "Lado",
    "5132": "Bra",
    "5133": "Braz",
    "5134": "Brazi",
    "5135": "si-",
    "5136": "yx",
    "5137": "yxi",
    "5138": "yxia",
    "5139": "presi",
    "5140": "presid",
    "5141": "rigi",
    "5142": "rigin",
    "5143": "tsh",
    "5144": "tap",
    "5145": "tant",
    "5146": "atm",
    "5147": "atmo",
    "5148": "atmos",
    "5149": "ranc",
    "5150": "alin",
    "5151": "alina",
    "5152": "udie",
    "5153": "7 ",
    "5154": "7 /",
    "5155": "7 /s",
    "5156": "7 /su",
    "5157": "dis",
    "5158": "pick",
    "5159": "erti",
    "5160": "ertil",
    "5161": "is ",
    "5162": "bov",
    "5163": "bove",
    "5164": "ppr",
    "5165": "base",
    "5166": "based",
    "5167": "lick",
    "5168": "meo",
    "5169": "remo",
    "5170": "remon",
    "5171": "stat",
    "5172": "ggi",
    "5173": "ggin",
    "5174": "nuf",
    "5175": "nufa",
    "5176": "ota",
    "5177": "otal",
    "5178": "radu",
    "5179": "radua",
    "5180": "onap",
    "5181": "onapa",
    "5182": "onapar",
    "5183": "rdin",
    "5184": "rdina",
    "5185": "dots",
    "5186": "-ol",
    "5187": "-old",
    "5188": "ilot",
    "5189": "spor",
    "5190": "duri",
    "5191": "durin",
    "5192": "e)",
    "5193": "igit",
    "5194": "ove ",
    "5195": "ounta",
    "5196": "ountai",
    "5197": "iw",
    "5198": "iwa",
    "5199": "iwan",
    "5200": "'t",
    "5201": "izen",
    "5202": "aimi",
    "5203": "aimin",
    "5204": "zer",
    "5205": "zero",
    "5206": "H ",
    "5207": "H s",
    "5208": "H su",
    "5209": "iew",
    "5210": "wt",
    "5211": "wth",
    "5212": "onte",
    "5213": "ontex",
    "5214": "ontext",
    "5215": "gth",
    "5216": "phag",
    "5217": "hood",
    "5218": "som",
    "5219": "some",
    "5220": "gioc",
    "5221": "giocl",
    "5222": "hbo",
    "5223": "mea",
    "5224": "aea",
    "5225": "agr",
    "5226": "agra",
    "5227": "ppel",
    "5228": "bble",
    "5229": "nsti",
    "5230": "nstit",
    "5231": "nstitu",
    "5232": "Fu",
    "5233": "ngin",
    "5234": "W. ",
    "5235": "ctu",
    "5236": "inde",
    "5237": "indep",
    "5238": "indepe",
    "5239": "auc",
    "5240": "vall",
    "5241": "few",
    "5242": "Tri",
    "5243": "Tria",
    "5244": "seu",
    "5245": "jik",
    "5246": "2 /",
    "5247": "2 /s",
    "5248": "2 /su",
    "5249": "eatr",
    "5250": "eatro",
    "5251": "eatro ",
    "5252": "ISB",
    "5253": "Ep",
    "5254": "Epi",
    "5255": "forn",
    "5256": "of t",
    "5257": "of th",
    "5258": "N,",
    "5259": "N, ",
    "5260": "acce",
    "5261": "acces",
    "5262": "access",
    "5263": "omm",
    "5264": "ommo",
    "5265": "holi",
    "5266": "echn",
    "5267": "eef",
    "5268": "ress",
    "5269": "ewa",
    "5270": "akis",
    "5271": "mosp",
    "5272": "mosph",
    "5273": "imes",
    "5274": "ceo",
    "5275": "ceou",
    "5276": "carb",
    "5277": "mes ",
    "5278": "pta",
    "5279": "ptai",
    "5280": "ptain",
    "5281": "pow",
    "5282": "powe",
    "5283": "fec",
    "5284": "fect",
    "5285": "stin",
    "5286": "sting",
    "5287": "i)",
    "5288": "atro ",
    "5289": "mac",
    "5290": "mach",
    "5291": "machu",
    "5292": "machus",
    "5293": "Lu",
    "5294": "Luk",
    "5295": "Luke",
    "5296": "inn",
    "5297": "rid",
    "5298": "ride",
    "5299": "tel",
    "5300": "tele",
    "5301": "tta",
    "5302": "ttac",
    "5303": "viron",
    "5304": "xx",
    "5305": "agn",
    "5306": "ntral",
    "5307": "Ta",
    "5308": "least",
    "5309": "bd",
    "5310": "oper",
    "5311": "opera",
    "5312": "Is ",
    "5313": " Du",
    "5314": "seum",
    "5315": "lyw",
    "5316": "lywo",
    "5317": "lywoo",
    "5318": "lywood",
    "5319": "usa",
    "5320": "usad",
    "5321": "omic",
    "5322": "-e",
    "5323": "-eg",
    "5324": "ymp",
    "5325": "ymph",
    "5326": "ympho",
    "5327": "ymphon",
    "5328": "ID",
    "5329": "etc",
    "5330": "Fed",
    "5331": "Fede",
    "5332": "Feder",
    "5333": "Federa",
    "5334": "tial",
    "5335": "8),",
    "5336": "8), ",
    "5337": "Tec",
    "5338": "Tech",
    "5339": "lan ",
    "5340": "bio",
    "5341": "biog",
    "5342": "0s",
    "5343": "**m",
    "5344": "**mo",
    "5345": "**mod",
    "5346": "**mode",
    "5347": "othi",
    "5348": "othin",
    "5349": "cke",
    "5350": "cket",
    "5351": "ami",
    "5352": "rica",
    "5353": "Gat",
    "5354": "Gate",
    "5355": "only ",
    "5356": "enom",
    "5357": "enome",
    "5358": "enomen",
    "5359": "hibit",
    "5360": "sult",
    "5361": "yl ",
    "5362": "nox",
    "5363": "noxi",
    "5364": " m ",
    "5365": "tsi",
    "5366": "rho",
    "5367": "ngr",
    "5368": "ngre",
    "5369": "urv",
    "5370": "mana",
    "5371": "manag",
    "5372": "Nap",
    "5373": "Napo",
    "5374": "Napol",
    "5375": "ittl",
    "5376": "amor",
    "5377": "ees ",
    "5378": "sum",
    "5379": "sumd",
    "5380": "lanc",
    "5381": "asti",
    "5382": "astia",
    "5383": "astiat",
    "5384": "md",
    "5385": "mda",
    "5386": "mdas",
    "5387": "lens",
    "5388": "rae",
    "5389": "rael",
    "5390": "olsp",
    "5391": "olspa",
    "5392": "tif",
    "5393": "tifi",
    "5394": "arr",
    "5395": "arbi",
    "5396": "arbid",
    "5397": "arbide",
    "5398": "egg",
    "5399": "bani",
    "5400": "bania",
    "5401": "ben",
    "5402": "benc",
    "5403": "ctim",
    "5404": "Pal",
    "5405": "Pala",
    "5406": "Palac",
    "5407": "Palace",
    "5408": "Cla",
    "5409": "Clai",
    "5410": "Clair",
    "5411": "urthe",
    "5412": "ltic",
    "5413": "into",
    "5414": "into ",
    "5415": "fra",
    "5416": "frac",
    "5417": "ison",
    "5418": "Sax",
    "5419": "Saxo",
    "5420": "or n",
    "5421": "or no",
    "5422": "4t",
    "5423": "4th",
    "5424": "logi",
    "5425": "logic",
    "5426": "s,",
    "5427": "s, ",
    "5428": " n",
    "5429": " no",
    "5430": "senc",
    "5431": "sence",
    "5432": "O(",
    "5433": "otto",
    "5434": "ottom",
    "5435": "Qu",
    "5436": "ppro",
    "5437": " Bri",
    "5438": "ateu",
    "5439": "aro",
    "5440": "aroq",
    "5441": "aroqu",
    "5442": "aroque",
    "5443": "US",
    "5444": "USA",
    "5445": "zab",
    "5446": "zabe",
    "5447": "zabet",
    "5448": "Ec",
    "5449": "Eco",
    "5450": "Econ",
    "5451": "tse",
    "5452": "tsel",
    "5453": "wic",
    "5454": "wick",
    "5455": "dos",
    "5456": "ig ",
    "5457": "}} ",
    "5458": "ave ",
    "5459": "sych",
    "5460": "pane",
    "5461": "panes",
    "5462": "sag",
    "5463": "sage",
    "5464": "hief",
    "5465": "LU",
    "5466": "f-",
    "5467": "rope",
    "5468": "ddl",
    "5469": "tima",
    "5470": "real",
    "5471": "capi",
    "5472": "capit",
    "5473": "Qi",
    "5474": "Bal",
    "5475": "Balk",
    "5476": "Balka",
    "5477": "Balkan",
    "5478": "ell",
    "5479": "ello",
    "5480": "Eu",
    "5481": "Eur",
    "5482": "eck",
    "5483": "ecke",
    "5484": "eckel",
    "5485": "s A",
    "5486": "s An",
    "5487": "s Ang",
    "5488": "s (",
    "5489": "atta",
    "5490": "attac",
    "5491": "wen",
    "5492": "went",
    "5493": "omes",
    "5494": "L/",
    "5495": "L/L",
    "5496": "tc",
    "5497": "sert",
    "5498": "woo",
    "5499": "cite",
    "5500": "ble ",
    "5501": "(2",
    "5502": "(20",
    "5503": "(200",
    "5504": "rlin",
    "5505": "ihilat",
    "5506": "Sub",
    "5507": "Subs",
    "5508": "Subst",
    "5509": "wom",
    "5510": "omb",
    "5511": "Mc",
    "5512": "ckl",
    "5513": "ckle",
    "5514": "wned",
    "5515": " )",
    "5516": "ased ",
    "5517": "Det",
    "5518": "Detr",
    "5519": "Detro",
    "5520": "thy",
    "5521": "rito",
    "5522": "ritor",
    "5523": "/th",
    "5524": "emp",
    "5525": "empe",
    "5526": "emper",
    "5527": "(x",
    "5528": "ccu",
    "5529": "tem",
    "5530": "temp",
    "5531": "e}",
    "5532": "less",
    "5533": "ames",
    "5534": "owded",
    "5535": "igg",
    "5536": "+y",
    "5537": "wei",
    "5538": "weig",
    "5539": "idg",
    "5540": "idge",
    "5541": "upp",
    "5542": "uppl",
    "5543": "upple",
    "5544": "upplem",
    "5545": "uppleme",
    "5546": "upplemen",
    "5547": " bil",
    "5548": "cco",
    "5549": "ccor",
    "5550": "ccord",
    "5551": "ccordi",
    "5552": "ccordin",
    "5553": "nsio",
    "5554": "nsion",
    "5555": "Goo",
    "5556": "cun",
    "5557": "Gam",
    "5558": "e.g.",
    "5559": "sec",
    "5560": "Ve",
    "5561": "Ver",
    "5562": "GA",
    "5563": "izat",
    "5564": "izati",
    "5565": "izatio",
    "5566": "duca",
    "5567": "olde",
    "5568": "oldes",
    "5569": "oldest",
    "5570": "ugus",
    "5571": "ng,",
    "5572": "ng, ",
    "5573": "exte",
    "5574": "exten",
    "5575": "extent",
    "5576": "tsw",
    "5577": "tswo",
    "5578": "ksa",
    "5579": "ksan",
    "5580": "Ti",
    "5581": "stre",
    "5582": "strea",
    "5583": "atte",
    "5584": "atter",
    "5585": "d n",
    "5586": "d no",
    "5587": "thn",
    "5588": "ody ",
    "5589": "rni",
    "5590": "meni",
    "5591": "menid",
    "5592": "menide",
    "5593": "menides",
    "5594": "ild",
    "5595": "nch",
    "5596": "nchi",
    "5597": "nchis",
    "5598": " no ",
    "5599": "mud",
    "5600": "jac",
    "5601": "D)",
    "5602": "nv",
    "5603": "nve",
    "5604": "no ",
    "5605": "aper",
    "5606": "crip",
    "5607": "cript",
    "5608": "owns",
    "5609": "ink",
    "5610": "utu",
    "5611": "utur",
    "5612": "al (",
    "5613": "biq",
    "5614": "biqu",
    "5615": "ano",
    "5616": " d",
    "5617": " da",
    "5618": "oque",
    "5619": "Man",
    "5620": " Ce",
    "5621": "cros",
    "5622": "cond",
    "5623": "ety",
    "5624": "ety ",
    "5625": " fo",
    "5626": " fol",
    "5627": "inu",
    "5628": "etr",
    "5629": "pos",
    "5630": "nj",
    "5631": "nju",
    "5632": "sex",
    "5633": " P",
    "5634": " Pr",
    "5635": " Pri",
    "5636": "sme",
    "5637": "Scie",
    "5638": "Scien",
    "5639": "ais",
    "5640": "aism",
    "5641": "lude",
    "5642": "eti",
    "5643": "ntag",
    "5644": "beri",
    "5645": "beria",
    "5646": "psy",
    "5647": "psyc",
    "5648": "psych",
    "5649": "/m",
    "5650": "/ma",
    "5651": "/mat",
    "5652": "umer",
    "5653": "ivis",
    "5654": "lub",
    "5655": "gor",
    "5656": "viol",
    "5657": "anf",
    "5658": "anfo",
    "5659": "20t",
    "5660": "20th",
    "5661": "efe",
    "5662": "efel",
    "5663": "efell",
    "5664": "ube",
    "5665": "loi",
    "5666": "loid",
    "5667": "Comm",
    "5668": "Comma",
    "5669": "Comman",
    "5670": "Command",
    "5671": "XI",
    "5672": "ecu",
    "5673": "hre",
    "5674": "hree",
    "5675": "Bel",
    "5676": "Bela",
    "5677": "Belar",
    "5678": "Belaru",
    "5679": "Au",
    "5680": "Aus",
    "5681": "Aust",
    "5682": "Austr",
    "5683": "6-",
    "5684": "El",
    "5685": "ship",
    "5686": "foun",
    "5687": "found",
    "5688": "pul",
    "5689": "pula",
    "5690": "French",
    "5691": "ogni",
    "5692": "ommu",
    "5693": "ommun",
    "5694": "Joe",
    "5695": "ynt",
    "5696": "ynth",
    "5697": "yse",
    "5698": "yser",
    "5699": "rys",
    "5700": "Dav",
    "5701": "ando",
    "5702": "andon",
    "5703": "Briti",
    "5704": "Britis",
    "5705": "dict",
    "5706": "ram",
    "5707": "ramm",
    "5708": "ramma",
    "5709": "da ",
    "5710": "awn",
    "5711": "gal",
    "5712": "gala",
    "5713": "oto",
    "5714": "Nu",
    "5715": "narc",
    "5716": "erce",
    "5717": "cki",
    "5718": "ckin",
    "5719": "cking",
    "5720": "ckingh",
    "5721": "FD",
    "5722": "FDA",
    "5723": "hrop",
    "5724": "well ",
    "5725": "well a",
    "5726": "isc",
    "5727": "isco",
    "5728": "lun",
    "5729": "lung",
    "5730": "llu",
    "5731": "llut",
    "5732": "icie",
    "5733": "hara",
    "5734": "harac",
    "5735": "ium",
    "5736": "geth",
    "5737": "vali",
    "5738": "valid",
    "5739": "GD",
    "5740": "GDP",
    "5741": "zb",
    "5742": "zbe",
    "5743": "zbek",
    "5744": "usu",
    "5745": "usua",
    "5746": "usual",
    "5747": "doma",
    "5748": "k o",
    "5749": "k of",
    "5750": "k of ",
    "5751": "rey",
    "5752": "mib",
    "5753": "nol",
    "5754": "nolo",
    "5755": "nolog",
    "5756": "voic",
    "5757": "ardi",
    "5758": "ardin",
    "5759": "ardina",
    "5760": "ardinal",
    "5761": "lord",
    "5762": "mi ",
    "5763": "Tre",
    "5764": "Trea",
    "5765": "move",
    "5766": "rgu",
    "5767": "uns",
    "5768": "uns ",
    "5769": "jecti",
    "5770": "lim",
    "5771": "utte",
    "5772": "case",
    "5773": "ache",
    "5774": "rmon",
    "5775": "inal",
    "5776": "doo",
    "5777": "door",
    "5778": "Ji",
    "5779": "belo",
    "5780": "dess",
    "5781": "ucli",
    "5782": "uclid",
    "5783": "rick",
    "5784": "ricke",
    "5785": "ricket",
    "5786": "worn",
    "5787": "green",
    "5788": "stu",
    "5789": "stud",
    "5790": "re (",
    "5791": "re (1",
    "5792": "re (19",
    "5793": "kh",
    "5794": "kha",
    "5795": "khai",
    "5796": "swim",
    "5797": "xpe",
    "5798": "xpen",
    "5799": "xpens",
    "5800": "xpense",
    "5801": "gir",
    "5802": "bab",
    "5803": "cute",
    "5804": "matc",
    "5805": "match",
    "5806": "till",
    "5807": "till ",
    "5808": "Engi",
    "5809": "Engin",
    "5810": "soun",
    "5811": "sound",
    "5812": "eak ",
    "5813": "x,",
    "5814": "x,y",
    "5815": "x,y)",
    "5816": "omo",
    "5817": "omor",
    "5818": "omorp",
    "5819": "omorph",
    "5820": "osed",
    "5821": "away",
    "5822": "cli",
    "5823": "clin",
    "5824": "thew",
    "5825": "cred",
    "5826": "credi",
    "5827": "credit",
    "5828": "credite",
    "5829": "ondu",
    "5830": "ondur",
    "5831": "ondura",
    "5832": "lot",
    "5833": "loth",
    "5834": "Sl",
    "5835": "Sla",
    "5836": "Slav",
    "5837": "visi",
    "5838": "visio",
    "5839": "rarr",
    "5840": "stor",
    "5841": "7)*",
    "5842": "7)*1",
    "5843": "cot",
    "5844": "cott",
    "5845": "hn",
    "5846": "math ",
    "5847": "kla",
    "5848": "leb",
    "5849": "lebr",
    "5850": "lebra",
    "5851": "rval",
    "5852": "rcha",
    "5853": "rchan",
    "5854": "ckla",
    "5855": "cklan",
    "5856": "ckland",
    "5857": "kel",
    "5858": "kele",
    "5859": "tir",
    "5860": "tire",
    "5861": "xtr",
    "5862": "diat",
    "5863": "ncr",
    "5864": "ncre",
    "5865": " me",
    "5866": "utio",
    "5867": "Op",
    "5868": "Ope",
    "5869": "trib",
    "5870": "fas",
    "5871": "fasc",
    "5872": "about",
    "5873": "about ",
    "5874": " folk",
    "5875": "pat",
    "5876": "nist",
    "5877": "enf",
    "5878": "enfo",
    "5879": "enfor",
    "5880": "enforc",
    "5881": "volc",
    "5882": "volca",
    "5883": " Al",
    "5884": " Alt",
    "5885": "K /",
    "5886": "K /m",
    "5887": "K /ma",
    "5888": "col",
    "5889": "usso",
    "5890": "ussol",
    "5891": "ussoli",
    "5892": "nak",
    "5893": "cult",
    "5894": "alg",
    "5895": "alge",
    "5896": "algeb",
    "5897": "algebr",
    "5898": "plu",
    "5899": "aid",
    "5900": "ige",
    "5901": "iger",
    "5902": "esw",
    "5903": "odo",
    "5904": "odor",
    "5905": "uag",
    "5906": "+ /",
    "5907": "+ /s",
    "5908": "+ /su",
    "5909": "RT",
    "5910": "os ",
    "5911": "wha",
    "5912": "what",
    "5913": ")#",
    "5914": "amil",
    "5915": " yo",
    "5916": " you",
    "5917": "oki",
    "5918": "okin",
    "5919": "igna",
    "5920": "ignat",
    "5921": "the ",
    "5922": "ways",
    "5923": "osoph",
    "5924": "ingi",
    "5925": "ingin",
    "5926": "Zeu",
    "5927": "Zeus",
    "5928": "rhoo",
    "5929": "LC",
    "5930": "LCD",
    "5931": "wed",
    "5932": "spia",
    "5933": "spian",
    "5934": "sil",
    "5935": "ens",
    "5936": "Rh",
    "5937": "Rhi",
    "5938": "Rhin",
    "5939": "-F",
    "5940": "-Fi",
    "5941": "eeme",
    "5942": "eemen",
    "5943": "Lat",
    "5944": "CP ",
    "5945": "tiat",
    "5946": "aru",
    "5947": "4**",
    "5948": "4**m",
    "5949": "4**mo",
    "5950": "Bro",
    "5951": "Broo",
    "5952": "TM",
    "5953": "TML",
    "5954": " ar",
    "5955": "/ ",
    "5956": "ed ",
    "5957": "Net",
    "5958": "Neth",
    "5959": "Nethe",
    "5960": "Nether",
    "5961": "Netherl",
    "5962": "Netherla",
    "5963": "edic",
    "5964": "edica",
    "5965": "edical",
    "5966": "pis",
    "5967": "R)",
    "5968": "id=",
    "5969": "anni",
    "5970": "non-",
    "5971": "ill ",
    "5972": "alp",
    "5973": "89",
    "5974": "lem",
    "5975": "ned ",
    "5976": "unit",
    "5977": "ypi",
    "5978": "Hip",
    "5979": "Hipp",
    "5980": "spr",
    "5981": "spri",
    "5982": "sprin",
    "5983": "ossi",
    "5984": "ossib",
    "5985": "zyg",
    "5986": "zygo",
    "5987": "3.",
    "5988": "ckn",
    "5989": "ckna",
    "5990": "x_",
    "5991": "Tai",
    "5992": "Taiw",
    "5993": "Taiwa",
    "5994": "Taiwan",
    "5995": "Chin",
    "5996": "0t",
    "5997": "0th",
    "5998": "0th ",
    "5999": "Capc",
    "6000": "Capco",
    "6001": "Ibs",
    "6002": "Ibse",
    "6003": "Ibsen",
    "6004": "olve",
    "6005": "duct",
    "6006": "axy",
    "6007": "3**",
    "6008": "3**m",
    "6009": "3**mo",
    "6010": "3**mod",
    "6011": "3**mode",
    "6012": "Act",
    "6013": "Ye",
    "6014": "ama",
    "6015": "amag",
    "6016": "Sco",
    "6017": "Scot",
    "6018": "ply",
    "6019": "ply ",
    "6020": "5-",
    "6021": ":::",
    "6022": "iter",
    "6023": "itera",
    "6024": "lga",
    "6025": "lgar",
    "6026": "9 -",
    "6027": "9 - ",
    "6028": "hrea",
    "6029": "hreat",
    "6030": "t.",
    "6031": "t. ",
    "6032": "udio",
    "6033": "n e",
    "6034": "oluti",
    "6035": "olutio",
    "6036": "bea",
    "6037": "pj",
    "6038": "pent ",
    "6039": "ifu",
    "6040": "iful",
    "6041": "uten",
    "6042": "riti",
    "6043": "ritis",
    "6044": "hry",
    "6045": "hrys",
    "6046": "4-",
    "6047": "rpr",
    "6048": "rpre",
    "6049": "rpret",
    "6050": "aw m",
    "6051": "aw ma",
    "6052": "aw mat",
    "6053": "aw mate",
    "6054": "aw mater",
    "6055": "pist",
    "6056": "gia",
    "6057": "gian",
    "6058": "Hu",
    "6059": "Hun",
    "6060": "rts",
    "6061": "prof",
    "6062": "nya",
    "6063": "hole",
    "6064": "oth ",
    "6065": "mmon",
    "6066": "inus",
    "6067": "idd",
    "6068": "iddl",
    "6069": "nz",
    "6070": "nza",
    "6071": ",000",
    "6072": "ssia",
    "6073": "h'",
    "6074": "rhood",
    "6075": "dien",
    "6076": "rine",
    "6077": "eut",
    "6078": "eute",
    "6079": "euter",
    "6080": "M.",
    "6081": " (di",
    "6082": "rei",
    "6083": "reig",
    "6084": " el",
    "6085": "1}",
    "6086": "1}{",
    "6087": "ught ",
    "6088": "4),",
    "6089": "4), ",
    "6090": "erro",
    "6091": "erroe",
    "6092": "erroel",
    "6093": "erroele",
    "6094": "erroelec",
    "6095": "erroelect",
    "6096": "erroelectr",
    "6097": "sar",
    "6098": "e i",
    "6099": "tsu",
    "6100": "ti-",
    "6101": "rco",
    "6102": "rog",
    "6103": "rogr",
    "6104": "condu",
    "6105": "conduc",
    "6106": "conduct",
    "6107": "losi",
    "6108": "otb",
    "6109": "otba",
    "6110": "He ",
    "6111": "CD",
    "6112": "Agai",
    "6113": "ttem",
    "6114": "ttemp",
    "6115": "Aw",
    "6116": "Awa",
    "6117": "you",
    "6118": "1 s",
    "6119": "1 st",
    "6120": "wst",
    "6121": "Ra",
    "6122": "ang ",
    "6123": "ang (",
    "6124": "Des",
    "6125": "Desk",
    "6126": "Spac",
    "6127": "rul",
    "6128": "rule",
    "6129": "sky",
    "6130": "nts",
    "6131": "rant",
    "6132": "rante",
    "6133": "eely",
    "6134": "mut",
    "6135": "ocat",
    "6136": "ocate",
    "6137": "ovem",
    "6138": "oveme",
    "6139": "ovemen",
    "6140": "on-",
    "6141": "on-y",
    "6142": "on-ye",
    "6143": "chel",
    "6144": "ribe",
    "6145": "xc",
    "6146": "xcl",
    "6147": "xclu",
    "6148": "ibil",
    "6149": "ewo",
    "6150": "amm",
    "6151": "amma",
    "6152": "eter",
    "6153": "- l",
    "6154": "- li",
    "6155": "- lis",
    "6156": "- list",
    "6157": "spon",
    "6158": "hurch",
    "6159": "dio",
    "6160": "dios",
    "6161": "nnib",
    "6162": "nniba",
    "6163": "eatu",
    "6164": "cob",
    "6165": "peak",
    "6166": "tota",
    "6167": "chinl",
    "6168": "py",
    "6169": "uter",
    "6170": "osit",
    "6171": "hamb",
    "6172": "hambe",
    "6173": "d.",
    "6174": "d. ",
    "6175": "Sau",
    "6176": "Saul",
    "6177": "iddle",
    "6178": "ga ",
    "6179": "days",
    "6180": "eys",
    "6181": "eyse",
    "6182": "eyser",
    "6183": "uror",
    "6184": "urora",
    "6185": "ncry",
    "6186": "ncryp",
    "6187": "ncrypt",
    "6188": "eriv",
    "6189": "Int",
    "6190": "Inte",
    "6191": "eadi",
    "6192": "eadin",
    "6193": "denc",
    "6194": "dency",
    "6195": "ensi",
    "6196": "ensiv",
    "6197": " or",
    "6198": " or ",
    "6199": "ons",
    "6200": "off",
    "6201": "off ",
    "6202": "B)",
    "6203": "0:",
    "6204": "0:1",
    "6205": "olf",
    "6206": "Zap",
    "6207": "Zapp",
    "6208": "attem",
    "6209": "attemp",
    "6210": "ait",
    "6211": "aith",
    "6212": "lson",
    "6213": "read",
    "6214": "eden",
    "6215": "owl",
    "6216": "nstr",
    "6217": "nstra",
    "6218": "lati",
    "6219": "ingu",
    "6220": "ingui",
    "6221": "hemi",
    "6222": "Str",
    "6223": "Stri",
    "6224": "ville",
    "6225": "aiw",
    "6226": "aiwa",
    "6227": "yi-",
    "6228": "tner",
    "6229": "clo",
    "6230": "cloc",
    "6231": "clock",
    "6232": "uton",
    "6233": "missi",
    "6234": "d)",
    "6235": "vac",
    "6236": "vacu",
    "6237": "epto",
    "6238": "dee",
    "6239": "deed",
    "6240": "onat",
    "6241": "VB",
    "6242": "bser",
    "6243": "bserv",
    "6244": "usal",
    "6245": "ieve",
    "6246": "rgen",
    "6247": "rgent",
    "6248": "tago",
    "6249": "tagon",
    "6250": "Hung",
    "6251": " gu",
    "6252": " gui",
    "6253": " guit",
    "6254": "ey a",
    "6255": "ey an",
    "6256": "ey and",
    "6257": "ey and ",
    "6258": "deno",
    "6259": "denom",
    "6260": "figh",
    "6261": "fight",
    "6262": "HI",
    "6263": "HIV",
    "6264": "wl",
    "6265": "wle",
    "6266": "ppear",
    "6267": "-A",
    "6268": "danc",
    "6269": "rmane",
    "6270": "rmanen",
    "6271": "n)",
    "6272": "hen",
    "6273": "hen ",
    "6274": "Non",
    "6275": "gto",
    "6276": "gton",
    "6277": "livi",
    "6278": "livin",
    "6279": "porta",
    "6280": "y w",
    "6281": "y wi",
    "6282": "y wit",
    "6283": "beh",
    "6284": "beha",
    "6285": "behav",
    "6286": "ropo",
    "6287": "nna",
    "6288": "nnat",
    "6289": "gau",
    "6290": "gaug",
    "6291": "eq ",
    "6292": "rai",
    "6293": "rail",
    "6294": "adl",
    "6295": "adly",
    "6296": "/su",
    "6297": "nys",
    "6298": "scar",
    "6299": "erse",
    "6300": "oftw",
    "6301": "utc",
    "6302": "utch",
    "6303": "-2",
    "6304": "-2 ",
    "6305": "reh",
    "6306": "rehe",
    "6307": "rehen",
    "6308": "US ",
    "6309": "name}",
    "6310": "Cold",
    "6311": "epu",
    "6312": "epub",
    "6313": "Cot",
    "6314": "Cots",
    "6315": "Cotsw",
    "6316": "Cotswo",
    "6317": "tled",
    "6318": "partm",
    "6319": "partme",
    "6320": "sup",
    "6321": "sup ",
    "6322": "ok ",
    "6323": "ok o",
    "6324": "ok of",
    "6325": "ok of ",
    "6326": "ML",
    "6327": "oughl",
    "6328": "alec",
    "6329": "alect",
    "6330": "nald",
    "6331": "fix",
    "6332": "tza",
    "6333": "ifica",
    "6334": "ificat",
    "6335": "ecul",
    "6336": "-i",
    "6337": "-in",
    "6338": "sau",
    "6339": "sauc",
    "6340": "sauce",
    "6341": "ritic",
    "6342": "sol",
    "6343": "ecta",
    "6344": "aff",
    "6345": "/b",
    "6346": "ava",
    "6347": "aval",
    "6348": "hyt",
    "6349": "hyth",
    "6350": "hythm",
    "6351": "mam",
    "6352": "mami",
    "6353": "u,",
    "6354": "u, ",
    "6355": "mesto",
    "6356": "meston",
    "6357": "vise",
    "6358": "vised",
    "6359": "anat",
    "6360": "Sov",
    "6361": "Sovi",
    "6362": "Sovie",
    "6363": "i /",
    "6364": "i /s",
    "6365": "urope",
    "6366": "sle",
    "6367": "slee",
    "6368": "basi",
    "6369": "diox",
    "6370": "dioxi",
    "6371": "ecom",
    "6372": "nefit",
    "6373": ". 1",
    "6374": "dah",
    "6375": " ov",
    "6376": "wer ",
    "6377": "ise ",
    "6378": "80",
    "6379": "adr",
    "6380": "Pak",
    "6381": "Paki",
    "6382": "shio",
    "6383": "unde",
    "6384": "izz",
    "6385": "Forc",
    "6386": "onti",
    "6387": "ontin",
    "6388": "vity",
    "6389": "vity ",
    "6390": "cum",
    "6391": "lip",
    "6392": "per ",
    "6393": "suli",
    "6394": "sulin",
    "6395": "tirel",
    "6396": "wev",
    "6397": "son ",
    "6398": "mpr",
    "6399": "mpre",
    "6400": "mpres",
    "6401": "berr",
    "6402": "berra",
    "6403": "maj",
    "6404": "majo",
    "6405": "tev",
    "6406": "teve",
    "6407": "stra",
    "6408": "gad",
    "6409": "cif",
    "6410": "cifi",
    "6411": "0:19",
    "6412": "tribu",
    "6413": "doc",
    "6414": "goa",
    "6415": "Dun",
    "6416": "hapt",
    "6417": "hapte",
    "6418": "tted",
    "6419": "Syn",
    "6420": "ppi",
    "6421": "ppin",
    "6422": "onse",
    "6423": "onser",
    "6424": "onserv",
    "6425": "merc",
    "6426": "clas",
    "6427": "class",
    "6428": "Mov",
    "6429": "Move",
    "6430": "Movem",
    "6431": "Moveme",
    "6432": "Movemen",
    "6433": "od ",
    "6434": "pit",
    "6435": "deli",
    "6436": "delit",
    "6437": "mail",
    "6438": "esus",
    "6439": "-G",
    "6440": "-Ge",
    "6441": "-Gen",
    "6442": "1 /su",
    "6443": "prog",
    "6444": "progr",
    "6445": "wea",
    "6446": "weal",
    "6447": "wealt",
    "6448": "S.",
    "6449": "boom",
    "6450": "iled",
    "6451": "tch",
    "6452": "whil",
    "6453": "while",
    "6454": "'m",
    "6455": "'m ",
    "6456": "rre",
    "6457": "unis",
    "6458": "unish",
    "6459": "rty",
    "6460": "rtyr",
    "6461": "Riv",
    "6462": "act t",
    "6463": "act th",
    "6464": "ipl",
    "6465": "hang",
    "6466": "hange",
    "6467": "rue",
    "6468": "dir",
    "6469": "dire",
    "6470": "direc",
    "6471": "direct",
    "6472": "sis ",
    "6473": "nse",
    "6474": "nsea",
    "6475": "nseat",
    "6476": "kar",
    "6477": "fami",
    "6478": "uo",
    "6479": "core",
    "6480": "cored",
    "6481": "pose",
    "6482": "aire",
    "6483": "rief",
    "6484": "riefl",
    "6485": "riefly",
    "6486": "eta",
    "6487": "ctri",
    "6488": "ctrin",
    "6489": "cur",
    "6490": "cura",
    "6491": "bus",
    "6492": "busi",
    "6493": "busin",
    "6494": "tail",
    "6495": "auce",
    "6496": " H",
    "6497": "(I",
    "6498": "yto",
    "6499": "amet",
    "6500": "ath ",
    "6501": "pth",
    "6502": "aq",
    "6503": "aq)",
    "6504": "angu",
    "6505": "angua",
    "6506": "anguag",
    "6507": "vies",
    "6508": "dest",
    "6509": "isea",
    "6510": "ias",
    "6511": "yet",
    "6512": "yet ",
    "6513": "mand",
    "6514": "him",
    "6515": "hims",
    "6516": "roac",
    "6517": "did",
    "6518": "ala",
    "6519": "biv",
    "6520": "bive",
    "6521": "xis",
    "6522": "rtav",
    "6523": "tto",
    "6524": "otes",
    "6525": "otest",
    "6526": "inut",
    "6527": "tici",
    "6528": "ticip",
    "6529": "ticipa",
    "6530": "ticipat",
    "6531": "ought",
    "6532": " sto",
    "6533": " stor",
    "6534": "fort",
    "6535": "dian",
    "6536": "pti",
    "6537": "ucc",
    "6538": "ucce",
    "6539": "ucces",
    "6540": "cD",
    "6541": "cDo",
    "6542": "ieg",
    "6543": "iege",
    "6544": "'l",
    "6545": "diu",
    "6546": "dium",
    "6547": "hd",
    "6548": "hda",
    "6549": "Mil",
    "6550": "Mili",
    "6551": "Milit",
    "6552": "ulz",
    "6553": "peo",
    "6554": "peop",
    "6555": "merg",
    "6556": "Ev",
    "6557": "Eve",
    "6558": "Kit",
    "6559": "Kite",
    "6560": "ctivi",
    "6561": "ctivit",
    "6562": "ine ",
    "6563": "untri",
    "6564": "untrie",
    "6565": "Afric",
    "6566": "Africa",
    "6567": ";1",
    "6568": "BA",
    "6569": "tou",
    "6570": "touc",
    "6571": "touch",
    "6572": "died",
    "6573": "nsider",
    "6574": "red ",
    "6575": "fal",
    "6576": "r h",
    "6577": "carr",
    "6578": "law",
    "6579": "uber",
    "6580": "uberc",
    "6581": "ubercu",
    "6582": "ct t",
    "6583": "ct th",
    "6584": ".A",
    "6585": "ES",
    "6586": "FT",
    "6587": "FT ",
    "6588": "TR",
    "6589": "TRI",
    "6590": "give",
    "6591": "Gi",
    "6592": "Gia",
    "6593": "Gian",
    "6594": "Giant",
    "6595": "etic",
    "6596": "fter",
    "6597": "troo",
    "6598": "eres",
    "6599": "roll",
    "6600": "dioxid",
    "6601": "oom",
    "6602": "acid",
    "6603": "agu",
    "6604": "0.",
    "6605": "resi",
    "6606": "resid",
    "6607": "Gh",
    "6608": "Ghe",
    "6609": "prop",
    "6610": "prope",
    "6611": "proper",
    "6612": "hla",
    "6613": "hlam",
    "6614": "elf",
    "6615": "oro",
    "6616": "orou",
    "6617": "pert",
    "6618": "oct",
    "6619": "octo",
    "6620": "octor",
    "6621": "ymn",
    "6622": "Lati",
    "6623": "Latin",
    "6624": "-r",
    "6625": "-ru",
    "6626": "-run",
    "6627": "erb",
    "6628": "eur",
    "6629": "bst",
    "6630": "bsta",
    "6631": "bstan",
    "6632": "folk",
    "6633": "coh",
    "6634": "coho",
    "6635": "cohol",
    "6636": "rtr",
    "6637": "rtra",
    "6638": " ca",
    "6639": "eace",
    "6640": "lliv",
    "6641": "lay",
    "6642": "ensu",
    "6643": "rds",
    "6644": "7%",
    "6645": "7% ",
    "6646": "nei",
    "6647": "neig",
    "6648": "zs",
    "6649": "zsc",
    "6650": "zsch",
    "6651": "IM",
    "6652": "IM-",
    "6653": "inni",
    "6654": "innin",
    "6655": "can",
    "6656": "can ",
    "6657": "wome",
    "6658": "TD",
    "6659": "Spi",
    "6660": "Spir",
    "6661": "Spiri",
    "6662": "Spirit",
    "6663": "boa",
    "6664": "onen",
    "6665": "bond",
    "6666": "xte",
    "6667": "rep",
    "6668": "lil",
    "6669": " Ara",
    "6670": "lien",
    "6671": "won",
    "6672": "noug",
    "6673": "fer",
    "6674": "fere",
    "6675": "etro",
    "6676": "IR",
    "6677": "IRA",
    "6678": "desi",
    "6679": "desig",
    "6680": "design",
    "6681": "ulen",
    "6682": "ulent",
    "6683": "spar",
    "6684": "rca",
    "6685": "rcad",
    "6686": "unti",
    "6687": "until",
    "6688": "Ai",
    "6689": "Box",
    "6690": "nto ",
    "6691": "eto",
    "6692": "etor",
    "6693": "male",
    "6694": " ge",
    "6695": " gen",
    "6696": " gene",
    "6697": " gener",
    "6698": "3)*",
    "6699": "eano",
    "6700": "eanor",
    "6701": "broo",
    "6702": "brook",
    "6703": ":1",
    "6704": "agni",
    "6705": "habe",
    "6706": "stel",
    "6707": "stell",
    "6708": "Gran",
    "6709": "Poli",
    "6710": "Polit",
    "6711": "Politi",
    "6712": "pur",
    "6713": "purp",
    "6714": "purpo",
    "6715": "qui",
    "6716": "quit",
    "6717": "quita",
    "6718": "zarr",
    "6719": "zarre",
    "6720": "dov",
    "6721": "ece",
    "6722": "ngel",
    "6723": "ncil",
    "6724": "Vic",
    "6725": "TU",
    "6726": "hn,",
    "6727": "hn, ",
    "6728": "elev",
    "6729": "erri",
    "6730": "errit",
    "6731": "errito",
    "6732": "erritor",
    "6733": "ined",
    "6734": "ined ",
    "6735": "efa",
    "6736": "efax",
    "6737": " wa",
    "6738": " was",
    "6739": "udy",
    "6740": "hanc",
    "6741": "M-",
    "6742": "4)*",
    "6743": "zza",
    "6744": "char",
    "6745": "stal",
    "6746": ").",
    "6747": "arum",
    "6748": "idt",
    "6749": "idth",
    "6750": "A.",
    "6751": "ilia",
    "6752": "iliat",
    "6753": "eral",
    "6754": "aqu",
    "6755": "volu",
    "6756": "volut",
    "6757": "Pe",
    "6758": "Per",
    "6759": "Pers",
    "6760": "appi",
    "6761": "appin",
    "6762": "oks",
    "6763": "h r",
    "6764": "h ra",
    "6765": "lvi",
    "6766": "lvic",
    "6767": "sui",
    "6768": "suin",
    "6769": "g.",
    "6770": "othy",
    "6771": "othy ",
    "6772": "3,",
    "6773": "3, ",
    "6774": "Don",
    "6775": "Kn",
    "6776": "ompo",
    "6777": "ompos",
    "6778": "ntir",
    "6779": " M",
    "6780": "ncl",
    "6781": "nclu",
    "6782": "ssu",
    "6783": "ssur",
    "6784": "kg",
    "6785": "end ",
    "6786": "Chec",
    "6787": "Chech",
    "6788": "ooke",
    "6789": "ooked",
    "6790": "asq",
    "6791": "asqu",
    "6792": "cross",
    "6793": "hus",
    "6794": "husi",
    "6795": "ilib",
    "6796": "ilibr",
    "6797": "Pro",
    "6798": "BS",
    "6799": "Gl",
    "6800": " se",
    "6801": " set",
    "6802": "beck",
    "6803": "estl",
    "6804": "lunt",
    "6805": "ters",
    "6806": "edia",
    "6807": ".u",
    "6808": ".uk",
    "6809": "cem",
    "6810": "cemb",
    "6811": "omina",
    "6812": "unda",
    "6813": "undat",
    "6814": "apa",
    "6815": "apan",
    "6816": "apane",
    "6817": "apanes",
    "6818": "dam",
    "6819": "scip",
    "6820": "age ",
    "6821": "age o",
    "6822": "tep",
    "6823": " u",
    "6824": " us",
    "6825": "bui",
    "6826": "buil",
    "6827": "ssen",
    "6828": "Natio",
    "6829": "Nation",
    "6830": "ided",
    "6831": "lica",
    "6832": "tm",
    "6833": "tmo",
    "6834": "tmos",
    "6835": "tmosp",
    "6836": "tmosph",
    "6837": "tmosphe",
    "6838": "aiwan",
    "6839": "stori",
    "6840": "Age",
    "6841": "uh",
    "6842": "uha",
    "6843": "sbu",
    "6844": "sbur",
    "6845": "nzy",
    "6846": "nzym",
    "6847": "-I",
    "6848": "nf",
    "6849": "nfi",
    "6850": "nfig",
    "6851": "nfigu",
    "6852": "nfigur",
    "6853": "Gen",
    "6854": "2**",
    "6855": "2**m",
    "6856": "2**mo",
    "6857": "2**mod",
    "6858": "2**mode",
    "6859": "user",
    "6860": "RISC",
    "6861": "top",
    "6862": "88",
    "6863": "scrip",
    "6864": "script",
    "6865": "bast",
    "6866": "baste",
    "6867": "baster",
    "6868": "arri",
    "6869": "arris",
    "6870": "arriso",
    "6871": "wood",
    "6872": "neral",
    "6873": "ite ",
    "6874": "ohn",
    "6875": "ies ",
    "6876": "Mas",
    "6877": "zes ",
    "6878": "Cha",
    "6879": "5:",
    "6880": "5:1",
    "6881": "5:19",
    "6882": "SA",
    "6883": "rug",
    "6884": "rugs",
    "6885": "icha",
    "6886": "ichar",
    "6887": "59",
    "6888": "59 ",
    "6889": "59 /",
    "6890": "59 /s",
    "6891": "59 /su",
    "6892": "dso",
    "6893": "dsor",
    "6894": "eatur",
    "6895": "(R",
    "6896": " Di",
    "6897": " Div",
    "6898": " Divi",
    "6899": " Divis",
    "6900": " Divisi",
    "6901": "200",
    "6902": "Pan",
    "6903": "Pand",
    "6904": "Panda",
    "6905": "ggie",
    "6906": "rriv",
    "6907": "rrive",
    "6908": " co",
    "6909": "afe",
    "6910": "iol",
    "6911": "reb",
    "6912": "rebi",
    "6913": "d ov",
    "6914": "clid",
    "6915": "bili",
    "6916": "bilit",
    "6917": "pn",
    "6918": "pne",
    "6919": "alf",
    "6920": "ely",
    "6921": "ely ",
    "6922": "atic",
    "6923": "urp",
    "6924": "urpo",
    "6925": "Uz",
    "6926": "Uzz",
    "6927": "Uzzi",
    "6928": "Uzzia",
    "6929": "Uzziah",
    "6930": "Yam",
    "6931": "Yama",
    "6932": "9.",
    "6933": "SS",
    "6934": "SSS",
    "6935": "theo",
    "6936": "theor",
    "6937": "aud",
    "6938": "ded ",
    "6939": "ense",
    "6940": "0%",
    "6941": "iod",
    "6942": "-20",
    "6943": "nfl",
    "6944": "nfli",
    "6945": "nflic",
    "6946": "nflict",
    "6947": "tone",
    "6948": "ptio",
    "6949": "ngli",
    "6950": "nglis",
    "6951": "dol",
    "6952": "lo ",
    "6953": " to ",
    "6954": "self",
    "6955": "alat",
    "6956": "minu",
    "6957": "obab",
    "6958": "obabl",
    "6959": "opo",
    "6960": "cous",
    "6961": "ason",
    "6962": "1)*",
    "6963": "rlu",
    "6964": "rlus",
    "6965": "rlusc",
    "6966": "hut",
    "6967": "ivisi",
    "6968": "dde",
    "6969": "veo",
    "6970": "sot",
    "6971": "rest",
    "6972": "restr",
    "6973": "tand",
    "6974": "irst ",
    "6975": "tude",
    "6976": "tuden",
    "6977": "efer",
    "6978": "roi",
    "6979": "uat",
    "6980": "ked",
    "6981": "ameo",
    "6982": "urd",
    "6983": "urdo",
    "6984": "urdoc",
    "6985": "dicat",
    "6986": "mpion",
    "6987": "Bi",
    "6988": "Bil",
    "6989": "Bill",
    "6990": "bage",
    "6991": "sit",
    "6992": "0x",
    "6993": "rida",
    "6994": "8-",
    "6995": "ying",
    "6996": "gna",
    "6997": "gnan",
    "6998": "aven",
    "6999": "unch",
    "7000": ", U",
    "7001": "fras",
    "7002": "frast",
    "7003": "frastr",
    "7004": "pil",
    "7005": "usp",
    "7006": "uspi",
    "7007": "uspic",
    "7008": "Pos",
    "7009": "Post",
    "7010": "ADs",
    "7011": "atib",
    "7012": "but ",
    "7013": "hop",
    "7014": "nm",
    "7015": "nme",
    "7016": "nmen",
    "7017": "nment",
    "7018": "oer",
    "7019": "counc",
    "7020": "counci",
    "7021": "oia",
    "7022": "istan",
    "7023": "IB",
    "7024": "IBM",
    "7025": "utat",
    "7026": "utati",
    "7027": "utatio",
    "7028": "-p",
    "7029": "utter",
    "7030": "Space",
    "7031": "s m",
    "7032": "s ma",
    "7033": "s mat",
    "7034": "AA",
    "7035": "mend",
    "7036": "EC",
    "7037": "ree ",
    "7038": "inen",
    "7039": "rian",
    "7040": "mpu",
    "7041": "mput",
    "7042": "cadi",
    "7043": "cadia",
    "7044": "ism",
    "7045": "ah",
    "7046": "ah'",
    "7047": "oic",
    "7048": "oice",
    "7049": "mmu",
    "7050": "mmun",
    "7051": "occ",
    "7052": "gas",
    "7053": "/T",
    "7054": "rox",
    "7055": "AS)",
    "7056": "appa",
    "7057": "appar",
    "7058": "SC ",
    "7059": "butt",
    "7060": "butto",
    "7061": "plet",
    "7062": "ncip",
    "7063": "titu",
    "7064": "sim",
    "7065": " fa",
    "7066": " fam",
    "7067": "perio",
    "7068": "hing",
    "7069": "scap",
    "7070": "bsp",
    "7071": "nkee",
    "7072": "reek",
    "7073": " W",
    "7074": " Wa",
    "7075": "isu",
    "7076": "isua",
    "7077": "cks ",
    "7078": "ered",
    "7079": "rO",
    "7080": "vi-",
    "7081": "gge",
    "7082": "gger",
    "7083": "50s",
    "7084": "ontro",
    "7085": "ontrov",
    "7086": "ontrove",
    "7087": "hep",
    "7088": "heph",
    "7089": "hephe",
    "7090": "b.",
    "7091": "b. ",
    "7092": "sing",
    "7093": "a (",
    "7094": "ywo",
    "7095": "ywoo",
    "7096": "life",
    "7097": "ttr",
    "7098": "ttri",
    "7099": "ttrib",
    "7100": "/o",
    "7101": "cann",
    "7102": "canno",
    "7103": "cannon",
    "7104": "scie",
    "7105": "scien",
    "7106": "vot",
    "7107": "whol",
    "7108": "yam",
    "7109": "uba",
    "7110": "rgi",
    "7111": "rgin",
    "7112": "bul",
    "7113": "inge",
    "7114": "alph",
    "7115": "alpha",
    "7116": "n (",
    "7117": "aced",
    "7118": "const",
    "7119": "constr",
    "7120": "constru",
    "7121": "neo",
    "7122": "ntai",
    "7123": "tell",
    "7124": "anot",
    "7125": "anoth",
    "7126": "Dona",
    "7127": "inch",
    "7128": "she ",
    "7129": "Fes",
    "7130": "Fest",
    "7131": "Sec",
    "7132": "ting",
    "7133": "ement",
    "7134": "nco",
    "7135": "ncol",
    "7136": "CB",
    "7137": "CBM",
    "7138": "y-",
    "7139": "O-",
    "7140": "food",
    "7141": "add",
    "7142": "addi",
    "7143": "socia",
    "7144": "sociat",
    "7145": "acte",
    "7146": "ghl",
    "7147": "ructu",
    "7148": "rtl",
    "7149": "atego",
    "7150": "ategor",
    "7151": "2 /m",
    "7152": "2 /ma",
    "7153": "muta",
    "7154": "mutat",
    "7155": "mutati",
    "7156": "mutatio",
    "7157": "ufm",
    "7158": "ufma",
    "7159": "ufman",
    "7160": "lse",
    "7161": "lsew",
    "7162": "lsewh",
    "7163": "st of",
    "7164": "st of ",
    "7165": "_x",
    "7166": "xpa",
    "7167": "xpan",
    "7168": "ducat",
    "7169": "kie",
    "7170": "vid ",
    "7171": "prec",
    "7172": " BC",
    "7173": "epti",
    "7174": "Iri",
    "7175": "Iris",
    "7176": "nav",
    "7177": "arac",
    "7178": "ersu",
    "7179": "ersus",
    "7180": "s) ",
    "7181": "O,",
    "7182": "O, ",
    "7183": "bour",
    "7184": "bourn",
    "7185": "bourne",
    "7186": "y,",
    "7187": "y, ",
    "7188": "sby",
    "7189": "sbyt",
    "7190": "On",
    "7191": "7-",
    "7192": "7-1",
    "7193": "ctru",
    "7194": "ctrum",
    "7195": "ins ",
    "7196": "sele",
    "7197": "ateri",
    "7198": "ateria",
    "7199": "Heav",
    "7200": "Heave",
    "7201": "Heaven",
    "7202": "cati",
    "7203": "catio",
    "7204": "iki",
    "7205": "level",
    "7206": "chani",
    "7207": "nard",
    "7208": "t)",
    "7209": "t),",
    "7210": "t), ",
    "7211": "eol",
    "7212": "eole",
    "7213": "wre",
    "7214": "wres",
    "7215": "ndar",
    "7216": "ois",
    "7217": "uxu",
    "7218": "uxur",
    "7219": "oly ",
    "7220": "sal",
    "7221": "oppe",
    "7222": "opper",
    "7223": "CM",
    "7224": "CMT",
    "7225": "On ",
    "7226": "nts ",
    "7227": "y 1",
    "7228": "weap",
    "7229": "weapo",
    "7230": "bm",
    "7231": "bmi",
    "7232": "bmit",
    "7233": "bmitt",
    "7234": "r)",
    "7235": "lemm",
    "7236": " Cod",
    "7237": " Code",
    "7238": "ethor",
    "7239": "Dex",
    "7240": "Dext",
    "7241": "Dexte",
    "7242": "eft",
    "7243": "muc",
    "7244": "arke",
    "7245": "ady ",
    "7246": "obo",
    "7247": "obot",
    "7248": "cci",
    "7249": "ccin",
    "7250": "satu",
    "7251": "evo",
    "7252": "xes",
    "7253": "epe",
    "7254": "ohn ",
    "7255": "ED",
    "7256": "eath",
    "7257": "ingha",
    "7258": "ingham",
    "7259": "alk",
    "7260": "alkl",
    "7261": "alkla",
    "7262": "alklan",
    "7263": "prea",
    "7264": "ole",
    "7265": " ex",
    "7266": " exa",
    "7267": " exam",
    "7268": "ncom",
    "7269": "ncome",
    "7270": ".*1",
    "7271": "light",
    "7272": "ayi",
    "7273": "ayin",
    "7274": "cag",
    "7275": "cago",
    "7276": "alb",
    "7277": "albu",
    "7278": "album",
    "7279": "xist",
    "7280": "UN",
    "7281": "Bap",
    "7282": "Bapt",
    "7283": "Bapti",
    "7284": "owu",
    "7285": "owul",
    "7286": "ful",
    "7287": "aptu",
    "7288": "aptur",
    "7289": "omas",
    "7290": "irem",
    "7291": "ireme",
    "7292": "iremen",
    "7293": "nnel",
    "7294": "AI",
    "7295": "MI",
    "7296": "tum",
    "7297": "aem",
    "7298": "risi",
    "7299": "risin",
    "7300": "grou",
    "7301": "Hem",
    "7302": "Hemi",
    "7303": "Hemis",
    "7304": "lod",
    "7305": "uz",
    "7306": "uzz",
    "7307": "tabli",
    "7308": "abb",
    "7309": "abbi",
    "7310": "oret",
    "7311": "o t",
    "7312": "o th",
    "7313": "Aid",
    "7314": "fer ",
    "7315": "onto",
    "7316": "caly",
    "7317": "calyp",
    "7318": "ows",
    "7319": "ator",
    "7320": "baseb",
    "7321": "baseba",
    "7322": "Inde",
    "7323": "Indep",
    "7324": "Indepe",
    "7325": "C,",
    "7326": "C, ",
    "7327": "D,",
    "7328": "D, ",
    "7329": "Met",
    "7330": "eed",
    "7331": "god",
    "7332": "godl",
    "7333": "u'",
    "7334": "u'l",
    "7335": "u'll",
    "7336": "u'llh",
    "7337": "enb",
    "7338": "enbu",
    "7339": "atc",
    "7340": "atch",
    "7341": "lus",
    "7342": "lusi",
    "7343": "aract",
    "7344": "oget",
    "7345": "NA",
    "7346": "amb",
    "7347": "ambl",
    "7348": "bg",
    "7349": "bgr",
    "7350": "bgro",
    "7351": " h",
    "7352": " ha",
    "7353": "eanin",
    "7354": "6.",
    "7355": "ych",
    "7356": "vas",
    "7357": "vasi",
    "7358": "xin",
    "7359": "lleg",
    "7360": "esp",
    "7361": "espo",
    "7362": "nty",
    "7363": " pa",
    "7364": "WI",
    "7365": "a h",
    "7366": "a ha",
    "7367": "a hal",
    "7368": "tma",
    "7369": "tti",
    "7370": "ttin",
    "7371": "tting",
    "7372": "ateur",
    "7373": "bbe",
    "7374": "bbes",
    "7375": "0 /",
    "7376": "U,",
    "7377": "U, ",
    "7378": "ily",
    "7379": "-l",
    "7380": "-la",
    "7381": "-lar",
    "7382": "-larg",
    "7383": "-large",
    "7384": "nra",
    "7385": "nral",
    "7386": "ahm",
    "7387": "sfi",
    "7388": "shin",
    "7389": "ticl",
    "7390": "ssa",
    "7391": "ssay",
    "7392": "Sal",
    "7393": "E ",
    "7394": "E b",
    "7395": "E br",
    "7396": "ics",
    "7397": "`A",
    "7398": "HO",
    "7399": "Run",
    "7400": "Foo",
    "7401": "Foot",
    "7402": "Footb",
    "7403": "fy",
    "7404": "Nup",
    "7405": "Nupe",
    "7406": "Nuped",
    "7407": "orin",
    "7408": "both",
    "7409": "both ",
    "7410": "7, 1",
    "7411": "klo",
    "7412": "klon",
    "7413": "reak",
    "7414": "east",
    "7415": "rsa",
    "7416": "text",
    "7417": "we ",
    "7418": "Ed",
    "7419": "Edi",
    "7420": "Edit",
    "7421": "Editi",
    "7422": "Editio",
    "7423": "0 d",
    "7424": "0 de",
    "7425": "0 deg",
    "7426": "saw",
    "7427": "Americ",
    "7428": "otat",
    "7429": "Sch",
    "7430": "axu",
    "7431": "sked",
    "7432": "um ",
    "7433": "menc",
    "7434": "rdo",
    "7435": "rdon",
    "7436": "otom",
    "7437": "otoma",
    "7438": "lya",
    "7439": "mselv",
    "7440": "ypt",
    "7441": "poss",
    "7442": "anniv",
    "7443": "rviv",
    "7444": "spoo",
    "7445": "eroi",
    "7446": "eroid",
    "7447": "-pl",
    "7448": "-pla",
    "7449": "uck",
    "7450": "d,",
    "7451": "d, ",
    "7452": "rtil",
    "7453": "-re",
    "7454": "tead",
    "7455": "islan",
    "7456": "mad",
    "7457": "made",
    "7458": "eau",
    "7459": "IC",
    "7460": "Lin",
    "7461": "Linc",
    "7462": "er,",
    "7463": "er, ",
    "7464": "ricu",
    "7465": "ricul",
    "7466": "ricult",
    "7467": "pita",
    "7468": "pital",
    "7469": "edra",
    "7470": "omia",
    "7471": "omial",
    "7472": "liev",
    "7473": "ovann",
    "7474": "ovanni",
    "7475": "Gre",
    "7476": "Gree",
    "7477": "evio",
    "7478": "eviou",
    "7479": "dunes",
    "7480": "Res",
    "7481": "Reso",
    "7482": "sts",
    "7483": " (2",
    "7484": " (20",
    "7485": " (200",
    "7486": "Dor",
    "7487": "Dort",
    "7488": "tari",
    "7489": "ounc",
    "7490": "ounci",
    "7491": "via",
    "7492": "Semin",
    "7493": "hoe",
    "7494": "hoen",
    "7495": "loni",
    "7496": "warm",
    "7497": "iphe",
    "7498": "ipher",
    "7499": " poi",
    "7500": " poin",
    "7501": "Cin",
    "7502": "xual",
    "7503": "Free",
    "7504": "ermi",
    "7505": "ermin",
    "7506": "then",
    "7507": "thenb",
    "7508": "thenbu",
    "7509": "oldm",
    "7510": "oldma",
    "7511": "oldman",
    "7512": "osom",
    "7513": " for",
    "7514": "lfe",
    "7515": "lfer",
    "7516": "agai",
    "7517": "cea",
    "7518": "cean",
    "7519": "ulf",
    "7520": "ulf ",
    "7521": "tie",
    "7522": "tien",
    "7523": "when ",
    "7524": "Doo",
    "7525": "Doom",
    "7526": "fea",
    "7527": "feat",
    "7528": "featu",
    "7529": "incip",
    "7530": "miga",
    "7531": "nk ",
    "7532": "bei",
    "7533": "bein",
    "7534": "eren",
    "7535": "Pale",
    "7536": "Pales",
    "7537": "run",
    "7538": "ks ",
    "7539": "insti",
    "7540": "instit",
    "7541": "institu",
    "7542": "Sm",
    "7543": "Smi",
    "7544": "Bea",
    "7545": "Bead",
    "7546": "amou",
    "7547": " Ba",
    "7548": " Bas",
    "7549": " Base",
    "7550": "Sto",
    "7551": "pite",
    "7552": "pite ",
    "7553": "800",
    "7554": ";-",
    "7555": ";- ",
    "7556": "98",
    "7557": "vern",
    "7558": "cm",
    "7559": "cmi",
    "7560": "cmin",
    "7561": "chr",
    "7562": "chro",
    "7563": "chrom",
    "7564": "iro",
    "7565": "One",
    "7566": "One ",
    "7567": " br",
    "7568": "AC",
    "7569": "e#",
    "7570": "movem",
    "7571": "moveme",
    "7572": "movemen",
    "7573": "slav",
    "7574": "ienc",
    "7575": "ntro",
    "7576": "ound",
    "7577": "A,",
    "7578": "A, ",
    "7579": "ECT",
    "7580": "countr",
    "7581": "rum",
    "7582": "pas",
    "7583": "past",
    "7584": "5)*",
    "7585": "rmen",
    "7586": "igra",
    "7587": "stabli",
    "7588": "edera",
    "7589": ") a",
    "7590": ") an",
    "7591": ") and",
    "7592": ") and ",
    "7593": "enou",
    "7594": "enoug",
    "7595": "Gar",
    "7596": "Garr",
    "7597": "kr",
    "7598": "kra",
    "7599": "kras",
    "7600": "ents",
    "7601": "AD ",
    "7602": "xce",
    "7603": "xcep",
    "7604": "xcept",
    "7605": "hyd",
    "7606": "sly ",
    "7607": "ock",
    "7608": "b. 1",
    "7609": "outh",
    "7610": "ember",
    "7611": "Art",
    "7612": "Arts",
    "7613": "etyp",
    "7614": "aris",
    "7615": "Phi",
    "7616": "yro",
    "7617": "yron",
    "7618": "ocu",
    "7619": "ocus",
    "7620": "chil",
    "7621": "child",
    "7622": "yla",
    "7623": "gax",
    "7624": "Gu",
    "7625": "Gui",
    "7626": "Guid",
    "7627": "Guide",
    "7628": " Ch",
    "7629": " Chr",
    "7630": "jor",
    "7631": "idl",
    "7632": "saw ",
    "7633": "Gri",
    "7634": "Grin",
    "7635": "ograp",
    "7636": "ograph",
    "7637": "PC",
    "7638": "Nin",
    "7639": "oac",
    "7640": "oact",
    "7641": "oacti",
    "7642": "oactiv",
    "7643": "dece",
    "7644": "ugust",
    "7645": "FTU",
    "7646": "b)",
    "7647": "itc",
    "7648": " Arb",
    "7649": "cee",
    "7650": "ceed",
    "7651": " So",
    "7652": " Sou",
    "7653": "Fav",
    "7654": "Favo",
    "7655": "fus",
    "7656": "fuse",
    "7657": "ctur",
    "7658": "ema",
    "7659": "nds",
    "7660": "han ",
    "7661": "LD",
    "7662": "LDS",
    "7663": "ogs",
    "7664": "oked",
    "7665": "mory",
    "7666": "s.",
    "7667": "s. ",
    "7668": "pars",
    "7669": "parse",
    "7670": "mens",
    "7671": "Cou",
    "7672": "Coun",
    "7673": "Counc",
    "7674": "Counci",
    "7675": "ans ",
    "7676": "reco",
    "7677": "ayn",
    "7678": "5 d",
    "7679": "rap",
    "7680": "IP",
    "7681": "34",
    "7682": "ited",
    "7683": "See",
    "7684": "See ",
    "7685": "incid",
    "7686": "X-",
    "7687": "). ",
    "7688": "lw",
    "7689": "lwa",
    "7690": "PS",
    "7691": "AF",
    "7692": "Cai",
    "7693": "Cain",
    "7694": " not",
    "7695": ". Fo",
    "7696": "tze",
    "7697": "tzer",
    "7698": "crea",
    "7699": "peli",
    "7700": "F)",
    "7701": "nw",
    "7702": "nwe",
    "7703": "Rese",
    "7704": "Resea",
    "7705": "Resear",
    "7706": "kti",
    "7707": "ktio",
    "7708": "fla",
    "7709": "flak",
    "7710": " nd",
    "7711": " nda",
    "7712": "Orc",
    "7713": "Orch",
    "7714": "lling",
    "7715": "oed",
    "7716": "ESC",
    "7717": "o;",
    "7718": "Pari",
    "7719": "Paris",
    "7720": "issio",
    "7721": "pelli",
    "7722": "pellin",
    "7723": "upt",
    "7724": "Lab",
    "7725": "Labo",
    "7726": " in ",
    "7727": "Bib",
    "7728": "Bibl",
    "7729": "hydr",
    "7730": " we",
    "7731": "proph",
    "7732": "prophe",
    "7733": "Sab",
    "7734": "bset",
    "7735": "ucta",
    "7736": "ak ",
    "7737": "g t",
    "7738": "T (",
    "7739": "T (U",
    "7740": "-ir",
    "7741": "-iro",
    "7742": "-iron",
    "7743": "comp",
    "7744": "emes",
    "7745": "s s",
    "7746": "adat",
    "7747": "Ap",
    "7748": "Apo",
    "7749": "Apol",
    "7750": "Apoll",
    "7751": "Apollo",
    "7752": "ixt",
    "7753": "cally",
    "7754": "Cle",
    "7755": "Clev",
    "7756": "klah",
    "7757": "klaho",
    "7758": "anti",
    "7759": " 2",
    "7760": " 2 ",
    "7761": "-boo",
    "7762": "inco",
    "7763": "incom",
    "7764": "ain ",
    "7765": "trick",
    "7766": "trick ",
    "7767": "ebruar",
    "7768": "uisi",
    "7769": "uisin",
    "7770": "20%",
    "7771": "des ",
    "7772": "emoi",
    "7773": "emoir",
    "7774": "Call",
    "7775": "lve",
    "7776": "-ra",
    "7777": "kilo",
    "7778": "iscr",
    "7779": "8 d",
    "7780": "8 de",
    "7781": "8 deg",
    "7782": "gic",
    "7783": "urag",
    "7784": "Del",
    "7785": "Delp",
    "7786": "Delph",
    "7787": "south",
    "7788": "x-",
    "7789": "elt",
    "7790": " Ban",
    "7791": " Band",
    "7792": "io ",
    "7793": "Democ",
    "7794": "phon",
    "7795": "ecut",
    "7796": "Gue",
    "7797": "Guel",
    "7798": " nb",
    "7799": " nbs",
    "7800": " nbsp",
    "7801": "ulic",
    "7802": "Hel",
    "7803": "itz",
    "7804": "itze",
    "7805": "Bos",
    "7806": "Bosn",
    "7807": "Bosni",
    "7808": "oppl",
    "7809": "opple",
    "7810": "ovin",
    "7811": "ovinc",
    "7812": "ousa",
    "7813": "/T ",
    "7814": "/T /",
    "7815": "/T /m",
    "7816": "/T /ma",
    "7817": "Emm",
    "7818": "Emma",
    "7819": "Mu",
    "7820": "Mus",
    "7821": "Musl",
    "7822": " wh",
    "7823": " whi",
    "7824": " whic",
    "7825": "arch",
    "7826": "OC,",
    "7827": "OC, ",
    "7828": "n C",
    "7829": "n Co",
    "7830": "n Com",
    "7831": "eivi",
    "7832": "eivin",
    "7833": "Ka",
    "7834": "Kaf",
    "7835": "Kafk",
    "7836": "r (",
    "7837": "under",
    "7838": "unders",
    "7839": " mo",
    "7840": " mod",
    "7841": " modi",
    "7842": " modif",
    "7843": "jua",
    "7844": " Fo",
    "7845": "oO",
    "7846": "Ox",
    "7847": "r=",
    "7848": "MA",
    "7849": "nesse",
    "7850": "nessee",
    "7851": "onso",
    "7852": "Air",
    "7853": " if",
    "7854": "howed",
    "7855": "unse",
    "7856": "laud",
    "7857": "19 ",
    "7858": "ph ",
    "7859": "rsq",
    "7860": "rsqu",
    "7861": "New ",
    "7862": "g /",
    "7863": "g /s",
    "7864": "g /su",
    "7865": "forma",
    "7866": "lte",
    "7867": "lter",
    "7868": "cai",
    "7869": "cain",
    "7870": "-ti",
    "7871": "-tim",
    "7872": "arn",
    "7873": "arne",
    "7874": "arned",
    "7875": "llowi",
    "7876": "ante",
    "7877": "bir",
    "7878": "bird",
    "7879": "unei",
    "7880": "tov",
    "7881": "vs",
    "7882": "vs.",
    "7883": "vs. ",
    "7884": "hrom",
    "7885": "n' ",
    "7886": "bda",
    "7887": "biou",
    "7888": "bead",
    "7889": "typ",
    "7890": "UT",
    "7891": "UTC",
    "7892": "play",
    "7893": "dred",
    "7894": " the",
    "7895": " the ",
    "7896": "ngo",
    "7897": "ngoi",
    "7898": "Prot",
    "7899": "Prote",
    "7900": "Protes",
    "7901": "Protest",
    "7902": "CC",
    "7903": "MO",
    "7904": "IT",
    "7905": "Lis",
    "7906": "List",
    "7907": "-g",
    "7908": "-ga",
    "7909": "-gam",
    "7910": "Lan",
    "7911": "nnu",
    "7912": "nnua",
    "7913": "nnual",
    "7914": "ivers",
    "7915": "gust",
    "7916": "mark",
    "7917": "LO",
    "7918": "goog",
    "7919": "olec",
    "7920": "olecu",
    "7921": "nous",
    "7922": " O",
    "7923": " Os",
    "7924": "y /",
    "7925": "y /s",
    "7926": "y /su",
    "7927": "uy",
    "7928": "uyp",
    "7929": " (18",
    "7930": "Bb",
    "7931": " top",
    "7932": "g)",
    "7933": "plin",
    "7934": "rfo",
    "7935": "lfu",
    "7936": "WT",
    "7937": ";C",
    "7938": "iron",
    "7939": "tudi",
    "7940": "mila",
    "7941": "impl",
    "7942": "Ce",
    "7943": "Cen",
    "7944": "Cent",
    "7945": "etu",
    "7946": "etus",
    "7947": "ning",
    "7948": "seb",
    "7949": "seba",
    "7950": "sebal",
    "7951": "mmut",
    "7952": "PM",
    "7953": "PM)",
    "7954": "ehav",
    "7955": "ehavi",
    "7956": "asis",
    "7957": "asis ",
    "7958": "DN",
    "7959": "DNA",
    "7960": "nx",
    "7961": "uci",
    "7962": "Kap",
    "7963": "Kapi",
    "7964": "dent",
    "7965": "chu",
    "7966": "chur",
    "7967": "churc",
    "7968": "ntil",
    "7969": "Cons",
    "7970": "diev",
    "7971": "cer",
    "7972": "eal ",
    "7973": "Cos",
    "7974": "Cost",
    "7975": "Coste",
    "7976": "Costel",
    "7977": "Costell",
    "7978": "compa",
    "7979": "compan",
    "7980": "n w",
    "7981": "n wh",
    "7982": "n whi",
    "7983": "n whic",
    "7984": "-| ",
    "7985": "Sep",
    "7986": "Sept",
    "7987": "|-",
    "7988": "rnet",
    "7989": "rnet ",
    "7990": " Sa",
    "7991": " Sai",
    "7992": "aco",
    "7993": "ulat",
    "7994": "langua",
    "7995": "languag",
    "7996": "Lisp",
    "7997": "mun",
    "7998": "inem",
    "7999": "inema",
    "8000": "with ",
    "8001": "Wal",
    "8002": "Wale",
    "8003": "Wales",
    "8004": "bes",
    "8005": "best",
    "8006": "rance",
    "8007": "iru",
    "8008": "irus",
    "8009": "free",
    "8010": "ol ",
    "8011": "chie",
    "8012": "Ou",
    "8013": "Out",
    "8014": "dea",
    "8015": "deat",
    "8016": "ia ",
    "8017": "f L",
    "8018": "radi",
    "8019": "lsea",
    "8020": "Hon",
    "8021": "Hono",
    "8022": "Honor",
    "8023": "siti",
    "8024": "uring",
    "8025": "few ",
    "8026": "stanc",
    "8027": "stance",
    "8028": "nton",
    "8029": "dop",
    "8030": "dopt",
    "8031": "Ob",
    "8032": "Sag",
    "8033": "Saga",
    "8034": " Ter",
    "8035": "ebel",
    "8036": "oubl",
    "8037": "r,",
    "8038": "r, ",
    "8039": "nio",
    "8040": "nior",
    "8041": "pilo",
    "8042": "pilot",
    "8043": "Force",
    "8044": "mpir",
    "8045": "grip",
    "8046": "gripp",
    "8047": "tac",
    "8048": "tack",
    "8049": "lact",
    "8050": "Ei",
    "8051": "Ein",
    "8052": "Eins",
    "8053": "Dao",
    "8054": "Daou",
    "8055": "blo",
    "8056": "bloc",
    "8057": "mitt",
    "8058": "mitte",
    "8059": "arket",
    "8060": "Tim",
    "8061": "Time",
    "8062": "ulp",
    "8063": "ozo",
    "8064": "yeas",
    "8065": "yeast",
    "8066": " R",
    "8067": " Ri",
    "8068": " Riv",
    "8069": "Oba",
    "8070": "Obad",
    "8071": "nym",
    "8072": "opti",
    "8073": "Ut",
    "8074": "Utt",
    "8075": ") w",
    "8076": ") wa",
    "8077": "RE",
    "8078": "RED",
    "8079": "REDI",
    "8080": "REDIR",
    "8081": "cked",
    "8082": "acon",
    "8083": "land",
    "8084": "round",
    "8085": "abic",
    "8086": "abic ",
    "8087": "fue",
    "8088": "fuel",
    "8089": "tica",
    "8090": "vario",
    "8091": "variou",
    "8092": "sub",
    "8093": "Ant",
    "8094": "ivan",
    "8095": " Y",
    "8096": " Yo",
    "8097": " Yor",
    "8098": "istic",
    "8099": "ppli",
    "8100": "nche",
    "8101": "nches",
    "8102": "nchest",
    "8103": "ncheste",
    "8104": "rtly",
    "8105": "otam",
    "8106": "-ce",
    "8107": "-cen",
    "8108": "RP",
    "8109": "r'",
    "8110": "r's",
    "8111": "form ",
    "8112": "ylan",
    "8113": "dro",
    "8114": "below",
    "8115": "Kh",
    "8116": "Kho",
    "8117": "Khoi",
    "8118": "mensi",
    "8119": "udies",
    "8120": "press",
    "8121": "pressu",
    "8122": "pressur",
    "8123": "MF",
    "8124": "MF,",
    "8125": "MF, ",
    "8126": "erenc",
    "8127": "spok",
    "8128": "spoke",
    "8129": "vant",
    "8130": "Ter",
    "8131": "Terr",
    "8132": "Terri",
    "8133": "Territ",
    "8134": "Territo",
    "8135": "iny",
    "8136": "rru",
    "8137": "rrup",
    "8138": "rrupt",
    "8139": "make",
    "8140": "ughter",
    "8141": "oti",
    "8142": "Scho",
    "8143": "sub ",
    "8144": "raw",
    "8145": "raw ",
    "8146": " k",
    "8147": " kr",
    "8148": " kra",
    "8149": " kras",
    "8150": "ese",
    "8151": "unit ",
    "8152": "main ",
    "8153": "myt",
    "8154": "myth",
    "8155": "lifor",
    "8156": "liforn",
    "8157": "iag",
    "8158": "iage",
    "8159": "fon",
    "8160": "font",
    "8161": "ox ",
    "8162": "ishe",
    "8163": "ishes",
    "8164": "mul",
    "8165": "y'",
    "8166": "y's",
    "8167": "y's ",
    "8168": "illu",
    "8169": "lky",
    "8170": "city",
    "8171": "ip ",
    "8172": " IS",
    "8173": " ISB",
    "8174": "tely",
    "8175": "mpan",
    "8176": " For",
    "8177": "O ",
    "8178": "O s",
    "8179": "O su",
    "8180": "pper",
    "8181": "xpl",
    "8182": "xpla",
    "8183": "xplan",
    "8184": "xplana",
    "8185": "xplanat",
    "8186": "Hol",
    "8187": "Holo",
    "8188": "Holoc",
    "8189": "ropp",
    "8190": "-li",
    "8191": "-lin",
    "8192": "-link",
    "8193": "lla ",
    "8194": "Lak",
    "8195": "am ",
    "8196": "seco",
    "8197": "secon",
    "8198": "ymon",
    "8199": "rive",
    "8200": "orig",
    "8201": "origi",
    "8202": "up t",
    "8203": "up to",
    "8204": "tun",
    "8205": "met ",
    "8206": "tswa",
    "8207": "6t",
    "8208": "6th",
    "8209": "esl",
    "8210": "esle",
    "8211": "esley",
    "8212": "hn ",
    "8213": "Aq",
    "8214": "Aqu",
    "8215": "Pre",
    "8216": "Pres",
    "8217": "Presl",
    "8218": "Presle",
    "8219": "lling ",
    "8220": "stiv",
    "8221": "akes",
    "8222": "luen",
    "8223": "jou",
    "8224": "jour",
    "8225": "journ",
    "8226": "rely",
    "8227": "epi",
    "8228": "nd B",
    "8229": "ull",
    "8230": "V_",
    "8231": "m) ",
    "8232": "fk",
    "8233": "fka",
    "8234": "me z",
    "8235": "me zo",
    "8236": "imit",
    "8237": "uring ",
    "8238": "Vis",
    "8239": "Visu",
    "8240": "Visua",
    "8241": "ylon",
    "8242": "5t",
    "8243": "5th",
    "8244": "onal",
    "8245": "eyo",
    "8246": "eyon",
    "8247": "z-",
    "8248": "dul",
    "8249": "ngle",
    "8250": "eria",
    "8251": "Ash",
    "8252": "neb",
    "8253": "nebu",
    "8254": "nebul",
    "8255": "akh",
    "8256": " art",
    "8257": "tron",
    "8258": "trong",
    "8259": "nai",
    "8260": "nais",
    "8261": "naiss",
    "8262": "naissa",
    "8263": "C.",
    "8264": "OM",
    "8265": "egre",
    "8266": "roug",
    "8267": "ubli",
    "8268": "ntec",
    "8269": "mane",
    "8270": "manen",
    "8271": "ich ",
    "8272": "aic",
    "8273": "laced",
    "8274": "laced ",
    "8275": "win",
    "8276": "ssio",
    "8277": "cula",
    "8278": " com",
    "8279": " comp",
    "8280": " An",
    "8281": " Ang",
    "8282": "cham",
    "8283": "chamb",
    "8284": "chambe",
    "8285": "chamber",
    "8286": "orw",
    "8287": "orwa",
    "8288": "orway",
    "8289": "boar",
    "8290": "board",
    "8291": "cly",
    "8292": "cly ",
    "8293": "compo",
    "8294": "compos",
    "8295": "oog",
    "8296": "oogl",
    "8297": "oogle",
    "8298": "jl",
    "8299": "aut",
    "8300": "hoc",
    "8301": "hoco",
    "8302": "hocol",
    "8303": "eolo",
    "8304": "eolog",
    "8305": "eologu",
    "8306": "too ",
    "8307": "wise",
    "8308": "Cr",
    "8309": "Cry",
    "8310": "Cryp",
    "8311": "Crypt",
    "8312": "lder",
    "8313": "His",
    "8314": "Hist",
    "8315": "Histo",
    "8316": "vers",
    "8317": "lew",
    "8318": "rok",
    "8319": "roke",
    "8320": "pecia",
    "8321": "cent ",
    "8322": "TC",
    "8323": "T)",
    "8324": "T) ",
    "8325": "* (",
    "8326": "rd ",
    "8327": "ope ",
    "8328": "evan",
    "8329": "pini",
    "8330": "pinio",
    "8331": "y /m",
    "8332": "y /ma",
    "8333": "Rive",
    "8334": "River",
    "8335": "group",
    "8336": "ccup",
    "8337": "stit",
    "8338": "stitu",
    "8339": "Cre",
    "8340": "loq",
    "8341": "loqu",
    "8342": " /sup",
    "8343": "asio",
    "8344": "EP",
    "8345": "qi",
    "8346": "qi ",
    "8347": "wed ",
    "8348": "puta",
    "8349": " Way",
    "8350": "blic",
    "8351": "sand",
    "8352": "obs",
    "8353": "ortio",
    "8354": "Que",
    "8355": "Quee",
    "8356": "Queen",
    "8357": "ximi",
    "8358": "r to",
    "8359": "r to ",
    "8360": "itua",
    "8361": "ituat",
    "8362": "pio",
    "8363": "pion",
    "8364": "ripp",
    "8365": "nown",
    "8366": "Part",
    "8367": "affe",
    "8368": "affec",
    "8369": "Mun",
    "8370": "Muni",
    "8371": "minus",
    "8372": "SO",
    "8373": " li",
    "8374": "ddr",
    "8375": "ddre",
    "8376": "dth",
    "8377": "awi",
    "8378": "awin",
    "8379": "-R",
    "8380": "kq",
    "8381": "kqu",
    "8382": "kquo",
    "8383": "work",
    "8384": "Chu",
    "8385": "Chur",
    "8386": "Churc",
    "8387": "rry ",
    "8388": "erbu",
    "8389": "erbur",
    "8390": "orn ",
    "8391": "voida",
    "8392": "cond ",
    "8393": "uslim",
    "8394": "hoi",
    "8395": "teau",
    "8396": "opos",
    "8397": "opose",
    "8398": "ndard",
    "8399": "rua",
    "8400": "ruar",
    "8401": "P ",
    "8402": "()",
    "8403": "y t",
    "8404": "y to",
    "8405": "y to ",
    "8406": "assa",
    "8407": "assal",
    "8408": "medic",
    "8409": "otio",
    "8410": "say",
    "8411": "sayi",
    "8412": "sayin",
    "8413": "60s",
    "8414": "osea",
    "8415": "gain",
    "8416": "yes",
    "8417": " from",
    "8418": " from ",
    "8419": "angel",
    "8420": "angeli",
    "8421": "ric ",
    "8422": "oga",
    "8423": "ogar",
    "8424": "ogari",
    "8425": "egan",
    "8426": "nthro",
    "8427": "nthrop",
    "8428": "A)",
    "8429": "-gat",
    "8430": "apita",
    "8431": "lier",
    "8432": "ende",
    "8433": "ended",
    "8434": "orp",
    "8435": "#G",
    "8436": "pult",
    "8437": "genr",
    "8438": "genre",
    "8439": "hand",
    "8440": "ses ",
    "8441": "abli",
    "8442": "Wr",
    "8443": "Wri",
    "8444": "egree",
    "8445": "oud",
    "8446": "refer",
    "8447": "inger",
    "8448": "Hy",
    "8449": "Hyd",
    "8450": "Hydr",
    "8451": "uls",
    "8452": "death",
    "8453": "nning",
    "8454": "liam ",
    "8455": "itie",
    "8456": "ities",
    "8457": "r'a",
    "8458": "x /",
    "8459": "x /s",
    "8460": "x /su",
    "8461": "BM",
    "8462": "uric",
    "8463": "urice",
    "8464": "urice ",
    "8465": "dra",
    "8466": "| ",
    "8467": "addit",
    "8468": "additi",
    "8469": "additio",
    "8470": "4) ",
    "8471": "4) w",
    "8472": "4) wa",
    "8473": "4) was",
    "8474": "4) was ",
    "8475": "tems",
    "8476": "yg",
    "8477": "ygo",
    "8478": "ygon",
    "8479": "ael",
    "8480": " md",
    "8481": " mda",
    "8482": "fini",
    "8483": "uou",
    "8484": "haract",
    "8485": "haracte",
    "8486": "ucu",
    "8487": "ucus",
    "8488": "isin",
    "8489": "nerg",
    "8490": "visit",
    "8491": "ised",
    "8492": "ised ",
    "8493": "gart",
    "8494": "MT",
    "8495": "s i",
    "8496": "s in",
    "8497": "argu",
    "8498": " at",
    "8499": " ath",
    "8500": " athe",
    "8501": "nges",
    "8502": "Ah",
    "8503": "Aha",
    "8504": "neg",
    "8505": "itler",
    "8506": "tsd",
    "8507": "tsda",
    "8508": "nied",
    "8509": "CR",
    "8510": "CR)",
    "8511": "rav",
    "8512": "rave",
    "8513": " bo",
    "8514": " boy",
    "8515": "orma",
    "8516": " di",
    "8517": " dio",
    "8518": " diox",
    "8519": "ttra",
    "8520": "ttrac",
    "8521": "ttract",
    "8522": "erie",
    "8523": "eries",
    "8524": "pers",
    "8525": "glas",
    "8526": "glass",
    "8527": " Cl",
    "8528": " Clu",
    "8529": "Star",
    "8530": "cali",
    "8531": "calib",
    "8532": "lifi",
    "8533": "mant",
    "8534": "mantl",
    "8535": "nki",
    "8536": "nkin",
    "8537": "aws",
    "8538": "aws ",
    "8539": "d t",
    "8540": "kesp",
    "8541": "posi",
    "8542": "posit",
    "8543": "positi",
    "8544": "positio",
    "8545": "troop",
    "8546": "emal",
    "8547": "ogan",
    "8548": "ndn",
    "8549": "ndne",
    "8550": "ndnes",
    "8551": "eles",
    "8552": "cub",
    "8553": " 5",
    "8554": "dalu",
    "8555": "clar",
    "8556": "swe",
    "8557": "srae",
    "8558": "srael",
    "8559": "weve",
    "8560": "struc",
    "8561": "rete",
    "8562": "feren",
    "8563": " Afri",
    "8564": "again",
    "8565": "nver",
    "8566": "i:",
    "8567": "Bow",
    "8568": "ndle",
    "8569": "ndled",
    "8570": "eriou",
    "8571": "e B",
    "8572": "nglic",
    "8573": "new ",
    "8574": "algo",
    "8575": "algor",
    "8576": "Ber",
    "8577": "dina",
    "8578": "dinan",
    "8579": "sour",
    "8580": "sourc",
    "8581": "source",
    "8582": "nner",
    "8583": "tingu",
    "8584": "iness",
    "8585": "Lut",
    "8586": "Luth",
    "8587": "rt ",
    "8588": "nds ",
    "8589": "idan",
    "8590": "Cor",
    "8591": "Corn",
    "8592": "conso",
    "8593": "conson",
    "8594": "i|",
    "8595": "i| ",
    "8596": "adit",
    "8597": "aditi",
    "8598": "aditio",
    "8599": "Footba",
    "8600": "Footbal",
    "8601": "hwa",
    "8602": "hwar",
    "8603": "Alp",
    "8604": "yroc",
    "8605": "arra",
    "8606": "arran",
    "8607": "gera",
    "8608": "geral",
    "8609": "ella",
    "8610": "ellar",
    "8611": "lles",
    "8612": "llest",
    "8613": "Rin",
    "8614": "Ring",
    "8615": "7;",
    "8616": "vision",
    "8617": "ulg",
    "8618": "ulga",
    "8619": "vatu",
    "8620": "vatur",
    "8621": "una",
    "8622": "unar",
    "8623": "Dev",
    "8624": "lish",
    "8625": "ipli",
    "8626": "iplin",
    "8627": "wto",
    "8628": "wton",
    "8629": "---",
    "8630": " \\",
    "8631": " \\}",
    "8632": "-C",
    "8633": "-Ce",
    "8634": "-Cel",
    "8635": "-Celt",
    "8636": "cara",
    "8637": "carag",
    "8638": "lve ",
    "8639": "CO",
    "8640": "cup",
    "8641": "rusa",
    "8642": "guit",
    "8643": "state",
    "8644": "ibun",
    "8645": "ibuna",
    "8646": "ibunal",
    "8647": "mie",
    "8648": "mier",
    "8649": "elec",
    "8650": "loci",
    "8651": "locit",
    "8652": "echan",
    "8653": "eo-",
    "8654": "Catho",
    "8655": "Cathol",
    "8656": "ndia",
    "8657": "BN",
    "8658": "imo",
    "8659": "comet",
    "8660": "oui",
    "8661": "bandw",
    "8662": "bandwi",
    "8663": "m o",
    "8664": "m of",
    "8665": "m of ",
    "8666": "ii",
    "8667": "ubj",
    "8668": "ubje",
    "8669": "ubjec",
    "8670": "ubject",
    "8671": "Rac",
    "8672": "Rach",
    "8673": "a^",
    "8674": "dden",
    "8675": "roph",
    "8676": "rophe",
    "8677": "frin",
    "8678": "fring",
    "8679": "uin",
    "8680": "espe",
    "8681": "espec",
    "8682": "especi",
    "8683": "especia",
    "8684": "especial",
    "8685": "nea",
    "8686": "ryi",
    "8687": "ryin",
    "8688": "shap",
    "8689": "shape",
    "8690": "Ls",
    "8691": "sity",
    "8692": "rgo",
    "8693": "wy",
    "8694": "beg",
    "8695": "begi",
    "8696": "Shel",
    "8697": "Shell",
    "8698": "8:",
    "8699": "dly",
    "8700": "cols",
    "8701": "fur",
    "8702": "ion ",
    "8703": "pau",
    "8704": "heno",
    "8705": "cts",
    "8706": "flake",
    "8707": "itis",
    "8708": "husb",
    "8709": "husba",
    "8710": "FB",
    "8711": "FBI",
    "8712": "rrec",
    "8713": "rrect",
    "8714": "World",
    "8715": " -- ",
    "8716": "grat",
    "8717": "eap",
    "8718": "eapo",
    "8719": "eapon",
    "8720": "aye",
    "8721": "ayed",
    "8722": "Colu",
    "8723": "Colum",
    "8724": "mateu",
    "8725": "mateur",
    "8726": "lativ",
    "8727": "lativi",
    "8728": "lativit",
    "8729": "beit",
    "8730": "jan",
    "8731": "jang",
    "8732": "includ",
    "8733": "piso",
    "8734": "Amb",
    "8735": "Ambl",
    "8736": "Ambly",
    "8737": "Rig",
    "8738": "Righ",
    "8739": "p.",
    "8740": "p.m",
    "8741": "obt",
    "8742": "plan",
    "8743": "plana",
    "8744": "planat",
    "8745": "laun",
    "8746": "galo",
    "8747": "ll)",
    "8748": "toot",
    "8749": "tooth",
    "8750": "d W",
    "8751": "d Wa",
    "8752": "d War",
    "8753": "onc",
    "8754": "e) ",
    "8755": "a half",
    "8756": "inis",
    "8757": "inisc",
    "8758": "riu",
    "8759": "rius",
    "8760": "ogi",
    "8761": "ogic",
    "8762": "ed f",
    "8763": "ed fr",
    "8764": "ed fro",
    "8765": "r m",
    "8766": "enm",
    "8767": "ver ",
    "8768": "pot",
    "8769": "poth",
    "8770": "bgc",
    "8771": "Pet",
    "8772": "Pete",
    "8773": "unni",
    "8774": "unnin",
    "8775": "culi",
    "8776": "UR",
    "8777": "URL",
    "8778": "Berl",
    "8779": "Berli",
    "8780": "latio",
    "8781": " al",
    "8782": " ali",
    "8783": " alig",
    "8784": "n o",
    "8785": "Emi",
    "8786": "Emin",
    "8787": "Emine",
    "8788": "Eminem",
    "8789": "alm",
    "8790": "efi",
    "8791": "efin",
    "8792": "Ur",
    "8793": "Urs",
    "8794": "yso",
    "8795": "ysor",
    "8796": "ysore",
    "8797": "enh",
    "8798": "enho",
    "8799": "possi",
    "8800": "possib",
    "8801": "uty",
    "8802": "cene",
    "8803": "vea",
    "8804": "veal",
    "8805": "ft ",
    "8806": "o d",
    "8807": "pk",
    "8808": "pki",
    "8809": "pkin",
    "8810": "nufac",
    "8811": "gon",
    "8812": "mily",
    "8813": "rtun",
    "8814": "rtuna",
    "8815": "sqr",
    "8816": "sqrt",
    "8817": "p. ",
    "8818": "Assem",
    "8819": "Assemb",
    "8820": "gb",
    "8821": "gby",
    "8822": "duce",
    "8823": "duced",
    "8824": "dame",
    "8825": "damen",
    "8826": "babl",
    "8827": "bably",
    "8828": "d #",
    "8829": "d #3",
    "8830": "mpire",
    "8831": "lowe",
    "8832": "lowed",
    "8833": "Arg",
    "8834": "Arge",
    "8835": "Argen",
    "8836": "cir",
    "8837": "circ",
    "8838": "erna",
    "8839": "ernal",
    "8840": " ab",
    "8841": " abo",
    "8842": "nven",
    "8843": "nvent",
    "8844": "nventi",
    "8845": "nventio",
    "8846": "g|",
    "8847": "rsia",
    "8848": "chae",
    "8849": "made ",
    "8850": "eleb",
    "8851": "standa",
    "8852": "lys",
    "8853": "Muse",
    "8854": "sai",
    "8855": "said",
    "8856": "Jup",
    "8857": "Jupi",
    "8858": "Day",
    "8859": "ommon",
    "8860": " Ta",
    "8861": "2.",
    "8862": "labe",
    "8863": "label",
    "8864": "bak",
    "8865": "bake",
    "8866": "avel",
    "8867": "morr",
    "8868": "morrh",
    "8869": "stro",
    "8870": "stroy",
    "8871": "FI",
    "8872": "FIF",
    "8873": "FIFA",
    "8874": "ubay",
    "8875": "ubayd",
    "8876": "ubayda",
    "8877": "ubaydah",
    "8878": "rno",
    "8879": "rnoo",
    "8880": "rnoon",
    "8881": "ff ",
    "8882": "ierr",
    "8883": "ierre",
    "8884": "copi",
    "8885": "copie",
    "8886": "copies",
    "8887": "e|",
    "8888": "e| ",
    "8889": "ases",
    "8890": "eat ",
    "8891": "amed ",
    "8892": "-1}",
    "8893": "s h",
    "8894": "s ha",
    "8895": "uic",
    "8896": "uici",
    "8897": "xo",
    "8898": "xop",
    "8899": "xopl",
    "8900": "xopla",
    "8901": "Her ",
    "8902": "jur",
    "8903": "flec",
    "8904": "flect",
    "8905": "Zo",
    "8906": "Zoo",
    "8907": "plete",
    "8908": "KW",
    "8909": "rilo",
    "8910": "havi",
    "8911": "arou",
    "8912": "teri",
    "8913": "teria",
    "8914": "groun",
    "8915": "nsy",
    "8916": "ia)",
    "8917": "o=",
    "8918": " Mi",
    "8919": " Min",
    "8920": "Russe",
    "8921": "Russel",
    "8922": "y d",
    "8923": "ucle",
    "8924": "dq",
    "8925": "dqu",
    "8926": "ket",
    "8927": "Septe",
    "8928": "Septem",
    "8929": "Septemb",
    "8930": "onne",
    "8931": "onnec",
    "8932": "onnect",
    "8933": " Ho",
    "8934": "nami",
    "8935": "overn",
    "8936": "vinc",
    "8937": "bano",
    "8938": "banon",
    "8939": "gang",
    "8940": "/u",
    "8941": "/u ",
    "8942": "cont",
    "8943": "contr",
    "8944": "roy",
    "8945": "havin",
    "8946": "milli",
    "8947": "e t",
    "8948": "e ti",
    "8949": "e tim",
    "8950": "ndal",
    "8951": "ty-",
    "8952": "hit",
    "8953": "zl",
    "8954": "zle",
    "8955": "mw",
    "8956": "amoun",
    "8957": "amount",
    "8958": "ilab",
    "8959": "! ",
    "8960": "nter",
    "8961": "cka",
    "8962": "ckag",
    "8963": "cest",
    "8964": "imot",
    "8965": "imoth",
    "8966": "ssal",
    "8967": "Const",
    "8968": "Consta",
    "8969": "sev",
    "8970": "seve",
    "8971": "enni",
    "8972": "ller",
    "8973": "enz",
    "8974": "nem",
    "8975": "enk",
    "8976": "levi",
    "8977": "igad",
    "8978": "hili",
    "8979": "hili ",
    "8980": "machi",
    "8981": "machin",
    "8982": " im",
    "8983": " ima",
    "8984": "Sli",
    "8985": "cosm",
    "8986": ".j",
    "8987": ".jp",
    "8988": "F-Z",
    "8989": "F-Ze",
    "8990": "F-Zer",
    "8991": "F-Zero",
    "8992": "go ",
    "8993": "esse",
    "8994": "esser",
    "8995": "essert",
    "8996": "aten",
    "8997": "thm",
    "8998": "thme",
    "8999": "thmet",
    "9000": "thmeti",
    "9001": "ets",
    "9002": "fram",
    "9003": "ncy",
    "9004": "hte",
    "9005": "hter",
    "9006": "7t",
    "9007": "7th",
    "9008": "Denv",
    "9009": "Denve",
    "9010": "Denver",
    "9011": "eg ",
    "9012": "veg",
    "9013": "vege",
    "9014": "Eli",
    "9015": "once",
    "9016": " cel",
    "9017": "eont",
    "9018": "bgco",
    "9019": "bgcol",
    "9020": "sab",
    "9021": "0 -",
    "9022": "0 - ",
    "9023": "Mast",
    "9024": "Maste",
    "9025": "Master",
    "9026": "minem",
    "9027": "have ",
    "9028": "neck",
    "9029": "odi",
    "9030": "odif",
    "9031": "edicat",
    "9032": "Bl",
    "9033": "Blo",
    "9034": "Blow",
    "9035": "Blowf",
    "9036": "ping",
    "9037": "small",
    "9038": "tiona",
    "9039": "tional",
    "9040": ", 1",
    "9041": "lef",
    "9042": "olice",
    "9043": "logu",
    "9044": "logue",
    "9045": "lett",
    "9046": "lette",
    "9047": "vu",
    "9048": "vue",
    "9049": "sef",
    "9050": "sefu",
    "9051": "'r",
    "9052": "'re",
    "9053": "/or",
    "9054": "ng K",
    "9055": "ng Ko",
    "9056": "bso",
    "9057": "bsol",
    "9058": "bsolu",
    "9059": "l-",
    "9060": "k a",
    "9061": "k an",
    "9062": "k and",
    "9063": "k and ",
    "9064": "nca",
    "9065": " L",
    "9066": " Le",
    "9067": "ecor",
    "9068": "ecord",
    "9069": " dis",
    "9070": "devi",
    "9071": "devic",
    "9072": "device",
    "9073": "etics",
    "9074": "bar",
    "9075": "SU",
    "9076": "auth",
    "9077": "autho",
    "9078": "author",
    "9079": "chit",
    "9080": "ique",
    "9081": " OS",
    "9082": "unk",
    "9083": "eran",
    "9084": "Euro",
    "9085": "Asi",
    "9086": "Asia",
    "9087": "VM",
    "9088": "VME",
    "9089": "'I",
    "9090": "'Iv",
    "9091": "'Ivo",
    "9092": "'Ivoi",
    "9093": "dh",
    "9094": "hec",
    "9095": "hecu",
    "9096": "EO",
    "9097": " War",
    "9098": "eek ",
    "9099": "Centu",
    "9100": "rover",
    "9101": "launc",
    "9102": "w)",
    "9103": "uny",
    "9104": "unya",
    "9105": "in,",
    "9106": "in, ",
    "9107": "It ",
    "9108": "pear",
    "9109": "aked",
    "9110": "ountr",
    "9111": "ike ",
    "9112": "entio",
    "9113": "ention",
    "9114": "Bar",
    "9115": "Anda",
    "9116": "Andal",
    "9117": "Andalu",
    "9118": "2)}",
    "9119": "gges",
    "9120": "ggest",
    "9121": "Gene",
    "9122": "Gener",
    "9123": "ups",
    "9124": "sh ",
    "9125": "sh /",
    "9126": "sh /u",
    "9127": "ltu",
    "9128": "ltur",
    "9129": "tz)",
    "9130": "freq",
    "9131": "frequ",
    "9132": "o W",
    "9133": "o Wa",
    "9134": "o War",
    "9135": "els",
    "9136": "else",
    "9137": " cen",
    "9138": "D.",
    "9139": "ayer",
    "9140": "lobi",
    "9141": "creas",
    "9142": "ging",
    "9143": "-Q",
    "9144": "-Qa",
    "9145": "mod",
    "9146": "modi",
    "9147": "modit",
    "9148": "igne",
    "9149": "igner",
    "9150": "AMD",
    "9151": "zech",
    "9152": "nobl",
    "9153": "noble",
    "9154": "ubb",
    "9155": "ubbe",
    "9156": "ubber",
    "9157": " Li",
    "9158": " Liv",
    "9159": " Livi",
    "9160": "cue",
    "9161": "Jia",
    "9162": "upa",
    "9163": "eim",
    "9164": "bef",
    "9165": "befo",
    "9166": "rda",
    "9167": "rdam",
    "9168": "IN ",
    "9169": "hud",
    "9170": "ude",
    "9171": "uden",
    "9172": "y v",
    "9173": "ecis",
    "9174": "FF",
    "9175": "OH",
    "9176": "OH)",
    "9177": "deri",
    "9178": "bbc",
    "9179": "? ",
    "9180": "20s",
    "9181": "millio",
    "9182": "colsp",
    "9183": "colspa",
    "9184": "ived",
    "9185": "ived ",
    "9186": "kom",
    "9187": "member",
    "9188": "rill",
    "9189": "lace ",
    "9190": "anov",
    "9191": "anove",
    "9192": "tig",
    "9193": "ied ",
    "9194": "yton",
    "9195": "oua",
    "9196": "prese",
    "9197": "Union",
    "9198": "t*",
    "9199": "eot",
    "9200": "gno",
    "9201": "Wol",
    "9202": "acto",
    "9203": "actor",
    "9204": "ms ",
    "9205": "imon",
    "9206": "xplai",
    "9207": "xplain",
    "9208": "bsenc",
    "9209": "mal ",
    "9210": "spu",
    "9211": "sput",
    "9212": " sty",
    "9213": " styl",
    "9214": "vacc",
    "9215": "attl",
    "9216": "attle",
    "9217": "f.",
    "9218": "f. ",
    "9219": "rmes",
    "9220": "redic",
    "9221": "redica",
    "9222": "df",
    "9223": "dfo",
    "9224": "dfor",
    "9225": "dford",
    "9226": "mbin",
    "9227": "otte",
    "9228": "rly ",
    "9229": "itch",
    "9230": "Heg",
    "9231": "Hege",
    "9232": "Hegel",
    "9233": "ootba",
    "9234": "pix",
    "9235": "pixe",
    "9236": "pixel",
    "9237": "tyr",
    "9238": "Lou",
    "9239": "Loui",
    "9240": "Irv",
    "9241": "Irvi",
    "9242": "Irvin",
    "9243": " /u",
    "9244": "Ast",
    "9245": "Astr",
    "9246": "mpos",
    "9247": " kn",
    "9248": " kno",
    "9249": " know",
    "9250": "unday",
    "9251": "nflu",
    "9252": "nflue",
    "9253": "nfluen",
    "9254": "ance",
    "9255": "ancer",
    "9256": "lege",
    "9257": "rcu",
    "9258": "tiar",
    "9259": "tend",
    "9260": "ione",
    "9261": "rbac",
    "9262": "Ell",
    "9263": "Elle",
    "9264": "Ellen",
    "9265": "ocit",
    "9266": "nivers",
    "9267": "chis",
    "9268": "hiel",
    "9269": "each",
    "9270": "herm",
    "9271": "hermo",
    "9272": "hour",
    "9273": "rusad",
    "9274": "zek",
    "9275": "ryg",
    "9276": "oking",
    "9277": "ndy",
    "9278": "ndy ",
    "9279": "pril",
    "9280": "CA",
    "9281": "cial",
    "9282": "eted",
    "9283": "ege",
    "9284": "egel",
    "9285": " G",
    "9286": " Ge",
    "9287": " Ger",
    "9288": " Germ",
    "9289": " Germa",
    "9290": "rtes",
    "9291": "LA",
    "9292": "ambr",
    "9293": "colo",
    "9294": "ecem",
    "9295": "ecemb",
    "9296": "xw",
    "9297": "xwe",
    "9298": "xwel",
    "9299": "sfu",
    "9300": "Mond",
    "9301": "Monda",
    "9302": "ptis",
    "9303": " re",
    "9304": " rem",
    "9305": "r le",
    "9306": "r les",
    "9307": "oka",
    "9308": "ngul",
    "9309": "ngula",
    "9310": "amin",
    "9311": "vela",
    "9312": "velan",
    "9313": "veland",
    "9314": "Cav",
    "9315": "Cave",
    "9316": "initi",
    "9317": "ira",
    "9318": "homa",
    "9319": "inel",
    "9320": "ision",
    "9321": "dical",
    "9322": "dical ",
    "9323": "ygi",
    "9324": "role",
    "9325": "o*",
    "9326": "RPG",
    "9327": "own ",
    "9328": "anda",
    "9329": "andar",
    "9330": "andard",
    "9331": "y i",
    "9332": "Ale",
    "9333": "Alex",
    "9334": "Alexa",
    "9335": "Alexan",
    "9336": "uen",
    "9337": "Poi",
    "9338": "Poin",
    "9339": "Point",
    "9340": " log",
    "9341": "dep",
    "9342": "depe",
    "9343": "bidd",
    "9344": "Dar",
    "9345": "ckq",
    "9346": "80s",
    "9347": "keley",
    "9348": "dyn",
    "9349": "nday",
    "9350": "ntrol",
    "9351": "abor",
    "9352": "3D",
    "9353": "trem",
    "9354": "rsto",
    "9355": "Wig",
    "9356": "Wign",
    "9357": "Wigne",
    "9358": "Wigner",
    "9359": "maga",
    "9360": "magaz",
    "9361": ":f",
    "9362": ":fo",
    "9363": "rror",
    "9364": "izer",
    "9365": "mbly",
    "9366": "believe",
    "9367": "ethn",
    "9368": "ysc",
    "9369": "yscr",
    "9370": "rga",
    "9371": "rgan",
    "9372": "sap",
    "9373": "ipo",
    "9374": "t-i",
    "9375": "t-in",
    "9376": "of s",
    "9377": "of sc",
    "9378": "lign",
    "9379": "rath",
    "9380": "rathe",
    "9381": "px",
    "9382": "12",
    "9383": "onym",
    "9384": "rticl",
    "9385": "glac",
    "9386": "usag",
    "9387": "Ret",
    "9388": "Retr",
    "9389": "ON",
    "9390": "ONE",
    "9391": "njo",
    "9392": "nel",
    "9393": "4 /su",
    "9394": "4 /sub",
    "9395": "llet",
    "9396": "hni",
    "9397": "hnic",
    "9398": "rain",
    "9399": "chol",
    "9400": "chola",
    "9401": "cholar",
    "9402": "face",
    "9403": "NS",
    "9404": "ohe",
    "9405": "ohem",
    "9406": "ohemi",
    "9407": "lel",
    "9408": "Rut",
    "9409": "Ruth",
    "9410": "Gas",
    "9411": "llowe",
    "9412": "uly",
    "9413": "succe",
    "9414": "b^",
    "9415": "Sen",
    "9416": "Sent",
    "9417": "Senti",
    "9418": "Sentin",
    "9419": "EA",
    "9420": "hae",
    "9421": "vann",
    "9422": "rstoo",
    "9423": "aude",
    "9424": "ecus",
    "9425": "troll",
    "9426": "GN",
    "9427": "GNU",
    "9428": "birt",
    "9429": "hoic",
    "9430": "hoice",
    "9431": "greem",
    "9432": "greeme",
    "9433": "greemen",
    "9434": "ania",
    "9435": "m}",
    "9436": "2) ",
    "9437": "Triu",
    "9438": "Trium",
    "9439": "x, ",
    "9440": "rova",
    "9441": "roval",
    "9442": "onm",
    "9443": "onme",
    "9444": "onmen",
    "9445": "rift",
    "9446": "le to ",
    "9447": "ordina",
    "9448": "-P",
    "9449": "-Pa",
    "9450": "-Pal",
    "9451": "apon",
    "9452": "fric",
    "9453": "frica",
    "9454": "depen",
    "9455": "n's",
    "9456": "----",
    "9457": "-----",
    "9458": "------",
    "9459": "-------",
    "9460": "rcel",
    "9461": "moni",
    "9462": "zoo",
    "9463": " Se",
    "9464": "xten",
    "9465": "xtens",
    "9466": "xtensi",
    "9467": "k*",
    "9468": "urb",
    "9469": "kes ",
    "9470": "ya ",
    "9471": "ya T",
    "9472": "mp ",
    "9473": "o =",
    "9474": "o = ",
    "9475": "cert",
    "9476": " ndas",
    "9477": "otbal",
    "9478": "scov",
    "9479": "scove",
    "9480": "unw",
    "9481": "unwa",
    "9482": "unway",
    "9483": "ermis",
    "9484": "ermiss",
    "9485": "xy",
    "9486": "wn ",
    "9487": "uke ",
    "9488": "wren",
    "9489": "tul",
    "9490": "tula",
    "9491": "em ",
    "9492": "rew ",
    "9493": "5.",
    "9494": "f A",
    "9495": "f Am",
    "9496": "f Ame",
    "9497": "f Amer",
    "9498": "news",
    "9499": "2 s",
    "9500": "2 su",
    "9501": "vare",
    "9502": "Greek",
    "9503": "finis",
    "9504": "finish",
    "9505": "ity ",
    "9506": "mbu",
    "9507": "mbud",
    "9508": "mbuds",
    "9509": "Newt",
    "9510": "mingw",
    "9511": "mingwa",
    "9512": "mingway",
    "9513": "d'",
    "9514": "piter",
    "9515": "Sunda",
    "9516": "ditu",
    "9517": "reer",
    "9518": "Ex",
    "9519": "cili",
    "9520": "meti",
    "9521": "id o",
    "9522": "ousan",
    "9523": "ords",
    "9524": "uad",
    "9525": "uade",
    "9526": "ilar",
    "9527": "ump",
    "9528": "umph",
    "9529": "Ez",
    "9530": "Eze",
    "9531": "Ezek",
    "9532": "pero",
    "9533": "peror",
    "9534": "ur ",
    "9535": "ideo",
    "9536": "sde",
    "9537": "sdel",
    "9538": "ttack",
    "9539": "rrh",
    "9540": "berg",
    "9541": ". /",
    "9542": "Ke",
    "9543": "upat",
    "9544": "upati",
    "9545": "ND",
    "9546": "to-",
    "9547": "usan",
    "9548": "paga",
    "9549": "w m",
    "9550": "w ma",
    "9551": "on'",
    "9552": "on't",
    "9553": "A. ",
    "9554": " Rig",
    "9555": " Righ",
    "9556": " Right",
    "9557": " Rights",
    "9558": "roe",
    "9559": "roes",
    "9560": "(t",
    "9561": "(to",
    "9562": "(to ",
    "9563": "Hum",
    "9564": "Huma",
    "9565": "Human",
    "9566": "onsor",
    "9567": "dd ",
    "9568": "ogat",
    "9569": "ogato",
    "9570": "ogator",
    "9571": "Ext",
    "9572": "Exte",
    "9573": "Exten",
    "9574": "7 -",
    "9575": "7 - ",
    "9576": "avit",
    "9577": "thel",
    "9578": "LE",
    "9579": "II",
    "9580": "esc",
    "9581": "esco",
    "9582": "escop",
    "9583": "uso",
    "9584": "usoi",
    "9585": "tos",
    "9586": "tosh",
    "9587": "domi",
    "9588": "-M",
    "9589": "-Mo",
    "9590": "-Mor",
    "9591": "aken ",
    "9592": "irm",
    "9593": "m S",
    "9594": "m Sh",
    "9595": "zon",
    "9596": "intr",
    "9597": "intro",
    "9598": "introd",
    "9599": "introdu",
    "9600": "ositi",
    "9601": "lyc",
    "9602": "nstan",
    "9603": "ound ",
    "9604": "asu",
    "9605": "asur",
    "9606": "e-",
    "9607": "/1",
    "9608": "S ",
    "9609": "posed",
    "9610": "(D",
    "9611": "facto",
    "9612": "factor",
    "9613": "cise",
    "9614": "E)",
    "9615": "Ly",
    "9616": "Lyn",
    "9617": "Lynx",
    "9618": "ited ",
    "9619": "ibr",
    "9620": "ibra",
    "9621": "ibral",
    "9622": "-tie",
    "9623": "athed",
    "9624": "athedr",
    "9625": "gel",
    "9626": "rym",
    "9627": "ryma",
    "9628": "ryman",
    "9629": "rymand",
    "9630": "rban",
    "9631": "jr",
    "9632": "ldi",
    "9633": "ldie",
    "9634": " de",
    "9635": "52",
    "9636": "NU",
    "9637": "n}",
    "9638": "5 -",
    "9639": "5 - ",
    "9640": "women",
    "9641": "zst",
    "9642": "zsta",
    "9643": "oos",
    "9644": "hei",
    "9645": "heir",
    "9646": "T,",
    "9647": "T, ",
    "9648": "imil",
    "9649": "odel",
    "9650": "(r",
    "9651": "(re",
    "9652": "(ren",
    "9653": "(rena",
    "9654": "agen",
    "9655": "Luthe",
    "9656": "Cli",
    "9657": "Polis",
    "9658": "ntere",
    "9659": "nteres",
    "9660": "urea",
    "9661": "eX",
    "9662": "eX ",
    "9663": "osu",
    "9664": "Dou",
    "9665": "Doug",
    "9666": "irr",
    "9667": "irro",
    "9668": "9*",
    "9669": "tin ",
    "9670": "0 \\",
    "9671": "0 \\r",
    "9672": " rea",
    "9673": " reas",
    "9674": " reaso",
    "9675": "terin",
    "9676": "vap",
    "9677": "vapo",
    "9678": "hum",
    "9679": "mia",
    "9680": "mial",
    "9681": "mini",
    "9682": "ift",
    "9683": "nif",
    "9684": "nifo",
    "9685": "nifor",
    "9686": "rbo",
    "9687": "oldi",
    "9688": "oldie",
    "9689": "recor",
    "9690": "record",
    "9691": "matin",
    "9692": "bort",
    "9693": "Oce",
    "9694": "Ocea",
    "9695": "ufact",
    "9696": "supp",
    "9697": "mean",
    "9698": "DV",
    "9699": "DVD",
    "9700": "Qa",
    "9701": "GB",
    "9702": " ho",
    "9703": " hol",
    "9704": "ERA",
    "9705": "chite",
    "9706": "chitec",
    "9707": "chitect",
    "9708": "Gn",
    "9709": "Gno",
    "9710": "Gnos",
    "9711": "pc",
    "9712": "pco",
    "9713": "ructur",
    "9714": "End",
    "9715": "def",
    "9716": "defe",
    "9717": "defen",
    "9718": "thro",
    "9719": "yco",
    "9720": "ycot",
    "9721": "asa",
    "9722": "asan",
    "9723": "lci",
    "9724": "s:",
    "9725": " Def",
    "9726": "nitr",
    "9727": "Israe",
    "9728": "Israel",
    "9729": "llm",
    "9730": "frie",
    "9731": "frien",
    "9732": "squa",
    "9733": "squar",
    "9734": "ESA",
    "9735": ".c",
    "9736": ".co",
    "9737": "iho",
    "9738": "ihoo",
    "9739": "l o",
    "9740": "l of",
    "9741": "l of ",
    "9742": "C)",
    "9743": "C)*",
    "9744": "C)*1",
    "9745": "C)*19",
    "9746": "succes",
    "9747": "Lor",
    "9748": "Lord",
    "9749": "enah",
    "9750": "enahe",
    "9751": "litt",
    "9752": "littl",
    "9753": "little",
    "9754": "little ",
    "9755": "Halle",
    "9756": "Halley",
    "9757": "ilos",
    "9758": "iloso",
    "9759": "ilosop",
    "9760": "ilosoph",
    "9761": "anin",
    "9762": "care",
    "9763": "caree",
    "9764": "career",
    "9765": "ruze",
    "9766": "o-S",
    "9767": "o-Sa",
    "9768": "o-Sax",
    "9769": "d) ",
    "9770": "K)",
    "9771": "reo",
    "9772": "td ",
    "9773": "me C",
    "9774": "300",
    "9775": "rven",
    "9776": "construc",
    "9777": "bic",
    "9778": ")**",
    "9779": "b'",
    "9780": "b's",
    "9781": "racte",
    "9782": "racter",
    "9783": "ariso",
    "9784": "arison",
    "9785": " Con",
    "9786": " Conv",
    "9787": "gny",
    "9788": "ao",
    "9789": "meo ",
    "9790": "bum",
    "9791": "f t",
    "9792": "f th",
    "9793": "ctic",
    "9794": "choc",
    "9795": "choco",
    "9796": "gc",
    "9797": "gco",
    "9798": "weet",
    "9799": "xtre",
    "9800": "xtrem",
    "9801": "osc",
    "9802": "tav",
    "9803": "mps",
    "9804": "mpso",
    "9805": "mpson",
    "9806": "IDS",
    "9807": "rese",
    "9808": "resea",
    "9809": "y ve",
    "9810": "y ver",
    "9811": "y vers",
    "9812": "tria",
    "9813": "trial",
    "9814": "umen",
    "9815": "ring ",
    "9816": "spea",
    "9817": "speak",
    "9818": "lug",
    "9819": "eati",
    "9820": "eatin",
    "9821": "eating",
    "9822": "wing",
    "9823": "aby",
    "9824": "igni",
    "9825": " ba",
    "9826": "Mod",
    "9827": "Cho",
    "9828": "Chop",
    "9829": "izo",
    "9830": "(N",
    "9831": "(NF",
    "9832": "(NFL",
    "9833": "mid",
    "9834": "xclus",
    "9835": "xclusi",
    "9836": "xclusiv",
    "9837": "efec",
    "9838": "efect",
    "9839": "adst",
    "9840": "adsto",
    "9841": "adston",
    "9842": "itut",
    "9843": "mpai",
    "9844": "mpaig",
    "9845": "mpaign",
    "9846": "UG",
    "9847": "6 /",
    "9848": "6 /s",
    "9849": "6 /su",
    "9850": "6 /sup",
    "9851": "BIN",
    "9852": "BIND",
    "9853": "mr",
    "9854": "Prie",
    "9855": "Pries",
    "9856": "Priest",
    "9857": "pena",
    "9858": "penal",
    "9859": "odels",
    "9860": "sac",
    "9861": " Stat",
    "9862": "ird ",
    "9863": "F -",
    "9864": "F --",
    "9865": "F -- ",
    "9866": "lici",
    "9867": "crat",
    "9868": "crati",
    "9869": "crativ",
    "9870": "O'",
    "9871": "crit",
    "9872": "criti",
    "9873": "-born",
    "9874": "opla",
    "9875": "EE",
    "9876": "EEE",
    "9877": "dry",
    "9878": "dry ",
    "9879": "dry s",
    "9880": "Mac",
    "9881": "Lod",
    "9882": "Lodg",
    "9883": "Lodge",
    "9884": " sc",
    "9885": " sch",
    "9886": " scho",
    "9887": "e c",
    "9888": "e ch",
    "9889": "e cha",
    "9890": "xter",
    "9891": "xtern",
    "9892": "xterna",
    "9893": "ifa",
    "9894": "ifad",
    "9895": "phr",
    "9896": "phro",
    "9897": "orm ",
    "9898": "reg",
    "9899": "regi",
    "9900": "zyb",
    "9901": "-th",
    "9902": "-thi",
    "9903": "-thir",
    "9904": "rama",
    "9905": "Indi",
    "9906": "India",
    "9907": "Indian",
    "9908": "otid",
    "9909": "eper",
    "9910": "heav",
    "9911": "i*",
    "9912": "neso",
    "9913": "nesot",
    "9914": "aste",
    "9915": "ivid",
    "9916": "arche",
    "9917": "archer",
    "9918": "sport",
    "9919": "-liv",
    "9920": "rgy",
    "9921": "mno",
    "9922": "-of",
    "9923": "sue",
    "9924": "Prof",
    "9925": "Profe",
    "9926": "Profes",
    "9927": "eyd",
    "9928": "iar",
    "9929": "-bit",
    "9930": "rgue",
    "9931": " cent",
    "9932": "k-",
    "9933": "k-2",
    "9934": "IF",
    "9935": "IFA",
    "9936": "sland",
    "9937": "arna",
    "9938": "arnat",
    "9939": "alua",
    "9940": "ask",
    "9941": "89 ",
    "9942": "rimi",
    "9943": "rimin",
    "9944": "rmoi",
    "9945": "soph",
    "9946": "FE",
    "9947": "erdo",
    "9948": " Lo",
    "9949": "emy",
    "9950": "I,",
    "9951": "I, ",
    "9952": "2 g",
    "9953": "heis",
    "9954": "1)*1",
    "9955": "icto",
    "9956": "ictor",
    "9957": "wf",
    "9958": "end o",
    "9959": "end of",
    "9960": "end of ",
    "9961": "ai-",
    "9962": "abyl",
    "9963": "abylo",
    "9964": "abylon",
    "9965": "ivide",
    "9966": "eput",
    "9967": "ociat",
    "9968": "Mou",
    "9969": "Moun",
    "9970": "3;",
    "9971": "8.",
    "9972": "xan",
    "9973": "...",
    "9974": "ecen",
    "9975": "ecent",
    "9976": "Smit",
    "9977": "Smith",
    "9978": "ramo",
    "9979": "ramou",
    "9980": "ramoun",
    "9981": "ramount",
    "9982": "ibn",
    "9983": "ibni",
    "9984": "ource",
    "9985": "ily ",
    "9986": "3) ",
    "9987": "ute ",
    "9988": "emin",
    "9989": "emine",
    "9990": "moso",
    "9991": "ascu",
    "9992": "ascul",
    "9993": "Mad",
    "9994": "Madd",
    "9995": "Maddo",
    "9996": "Maddox",
    "9997": "hs",
    "9998": "pad",
    "9999": "padd",
    "10000": "xyg",
    "10001": "xyge",
    "10002": "ays ",
    "10003": "op o",
    "10004": "op of",
    "10005": "betwee",
    "10006": "2 K",
    "10007": "2 Ki",
    "10008": "500",
    "10009": "500 ",
    "10010": "500 B",
    "10011": "24",
    "10012": "Boas",
    "10013": "cted",
    "10014": "inte",
    "10015": " DO",
    "10016": " DON",
    "10017": "nla",
    "10018": "nlan",
    "10019": "ffa",
    "10020": "ffal",
    "10021": "ffalo",
    "10022": "ips",
    "10023": "ips ",
    "10024": "bine",
    "10025": "ower ",
    "10026": "rked",
    "10027": "HE",
    "10028": "HEO",
    "10029": "HEOR",
    "10030": "HEORE",
    "10031": "HEOREM",
    "10032": "onsi",
    "10033": "onsid",
    "10034": "onside",
    "10035": "wdy ",
    "10036": "Dan",
    "10037": "ken",
    "10038": "viat",
    "10039": "km ",
    "10040": "happ",
    "10041": "TV",
    "10042": "47",
    "10043": "NeX",
    "10044": "dimen",
    "10045": "ffici",
    "10046": "do ",
    "10047": "bod",
    "10048": "shu",
    "10049": "shua",
    "10050": "guil",
    "10051": "guilt",
    "10052": "struct",
    "10053": "Dut",
    "10054": "tatio",
    "10055": "tation",
    "10056": "pable",
    "10057": "ingle",
    "10058": "Nort",
    "10059": "North",
    "10060": "-ed",
    "10061": "-edu",
    "10062": "-educ",
    "10063": "-educa",
    "10064": "scrib",
    "10065": "vert",
    "10066": "verte",
    "10067": "itte",
    "10068": "ittee",
    "10069": "edu",
    "10070": "ulli",
    "10071": "Tels",
    "10072": "Telst",
    "10073": "nnec",
    "10074": "Agr",
    "10075": "Agri",
    "10076": "onv",
    "10077": "onve",
    "10078": "onven",
    "10079": "2 k",
    "10080": "avalo",
    "10081": "avalos",
    "10082": "1*",
    "10083": "tart",
    "10084": "tarte",
    "10085": "utto",
    "10086": "utton",
    "10087": "ipi",
    "10088": "ipio",
    "10089": "Game",
    "10090": "grav",
    "10091": "gravi",
    "10092": "Wiki",
    "10093": " Ru",
    "10094": "tself",
    "10095": "INT",
    "10096": "enge",
    "10097": "(n",
    "10098": "(no",
    "10099": "(now",
    "10100": "urri",
    "10101": "ltd",
    "10102": "ltdo",
    "10103": "ltdow",
    "10104": "ltdown",
    "10105": "ocal",
    "10106": "gly",
    "10107": "glyc",
    "10108": "ulo",
    "10109": "ulou",
    "10110": "ulous",
    "10111": " Hol",
    "10112": "hys",
    "10113": "hysi",
    "10114": "vote",
    "10115": " Er",
    "10116": " Era",
    "10117": "awk",
    "10118": "way ",
    "10119": "ediat",
    "10120": "tinu",
    "10121": "osh",
    "10122": "Tal",
    "10123": "Tali",
    "10124": "Talib",
    "10125": "Taliba",
    "10126": "onou",
    "10127": "onoun",
    "10128": "2 Kin",
    "10129": "2 King",
    "10130": "Lake",
    "10131": "sph",
    "10132": "amid",
    "10133": " N",
    "10134": "ez",
    "10135": "lassi",
    "10136": "lassic",
    "10137": "ado",
    "10138": "gues",
    "10139": "}{",
    "10140": "tna",
    "10141": "tp",
    "10142": "yf",
    "10143": "Polish",
    "10144": "dar",
    "10145": "|c",
    "10146": "|cl",
    "10147": "|cli",
    "10148": "|clim",
    "10149": "To",
    "10150": "Tou",
    "10151": "Tour",
    "10152": "y f",
    "10153": "82",
    "10154": "ttp",
    "10155": "osev",
    "10156": "oseve",
    "10157": "enu",
    "10158": "enus",
    "10159": "orc",
    "10160": "ngeo",
    "10161": "ngeon",
    "10162": "ico",
    "10163": "icoe",
    "10164": "enerall",
    "10165": "neti",
    "10166": "rold",
    "10167": "rego",
    "10168": "regon",
    "10169": "PP",
    "10170": "harte",
    "10171": "Spo",
    "10172": "Sys",
    "10173": "Syst",
    "10174": "Lar",
    "10175": "Larg",
    "10176": "lmu",
    "10177": "lmud",
    "10178": "Rei",
    "10179": "Rein",
    "10180": "Reinh",
    "10181": "ares",
    "10182": "ares ",
    "10183": "NT",
    "10184": "wif",
    "10185": "wife",
    "10186": "ush",
    "10187": "ade ",
    "10188": "7 B",
    "10189": "7 BC",
    "10190": "7 BCE",
    "10191": "next ",
    "10192": "lax",
    "10193": "DON",
    "10194": "DONE",
    "10195": "rtex",
    "10196": "0))",
    "10197": "0)))",
    "10198": "0))))",
    "10199": "0)))))",
    "10200": ") (",
    "10201": "emat",
    "10202": " /c",
    "10203": "rbe",
    "10204": "contro",
    "10205": "control",
    "10206": "*J",
    "10207": "egu",
    "10208": "egul",
    "10209": " = ",
    "10210": "ewh",
[...]
