{
  "id2token": {
    "0": "\n",
    "1": " ",
    "2": "!",
    "3": "#",
    "4": "$",
    "5": "%",
    "6": "'",
    "7": "(",
    "8": ")",
    "9": "*",
    "10": "+",
    "11": ",",
    "12": "-",
    "13": ".",
    "14": "/",
    "15": "0",
    "16": "1",
    "17": "2",
    "18": "3",
    "19": "4",
    "20": "5",
    "21": "6",
    "22": "7",
    "23": "8",
    "24": "9",
    "25": ":",
    "26": ";",
    "27": "=",
    "28": "?",
    "29": "@",
    "30": "A",
    "31": "B",
    "32": "C",
    "33": "D",
    "34": "E",
    "35": "F",
    "36": "G",
    "37": "H",
    "38": "I",
    "39": "J",
    "40": "K",
    "41": "L",
    "42": "M",
    "43": "N",
    "44": "O",
    "45": "P",
    "46": "Q",
    "47": "R",
    "48": "S",
    "49": "T",
    "50": "U",
    "51": "V",
    "52": "W",
    "53": "X",
    "54": "Y",
    "55": "Z",
    "56": "\\",
    "57": "^",
    "58": "_",
    "59": "`",
    "60": "a",
    "61": "b",
    "62": "c",
    "63": "d",
    "64": "e",
    "65": "f",
    "66": "g",
    "67": "h",
    "68": "i",
    "69": "j",
    "70": "k",
    "71": "l",
    "72": "m",
    "73": "n",
    "74": "o",
    "75": "p",
    "76": "q",
    "77": "r",
    "78": "s",
    "79": "t",
    "80": "u",
    "81": "v",
    "82": "w",
    "83": "x",
    "84": "y",
    "85": "z",
    "86": "{",
    "87": "|",
    "88": "}",
    "89": "~",
    "90": "<|endoftext|>",
    "91": "<pad>",
    "92": "li",
    "93": "lie",
    "94": "ik",
    "95": "ike",
    "96": "Ro",
    "97": "Rom",
    "98": "us",
    "99": "usc",
    "100": "uscu",
    "101": "uscul",
    "102": "pa",
    "103": "pai",
    "104": "pain",
    "105": "id",
    "106": "ida",
    "107": "iday",
    "108": ".*",
    "109": "ol",
    "110": "olu",
    "111": "olut",
    "112": "ue",
    "113": "ue ",
    "114": "ge",
    "115": "get",
    "116": "geta",
    "117": "me",
    "118": "op",
    "119": "opp",
    "120": "oppe",
    "121": "opped",
    "122": "OG",
    "123": "OGI",
    "124": "st",
    "125": "sto",
    "126": "ta",
    "127": "tai",
    "128": "ve",
    "129": "vel",
    "130": "9,",
    "131": "ow",
    "132": "owe",
    "133": "owev",
    "134": "9 ",
    "135": "ca",
    "136": "can",
    "137": "ym",
    "138": "ymp",
    "139": "ry",
    "140": "ry ",
    "141": "gl",
    "142": "ur",
    "143": "uri",
    "144": "urin",
    "145": "r.",
    "146": "r. ",
    "147": "va",
    "148": "kn",
    "149": "kno",
    "150": "know",
    "151": "un",
    "152": "und",
    "153": "ec",
    "154": "eco",
    "155": "no",
    "156": "not",
    "157": "au",
    "158": "aul",
    "159": "ek",
    "160": ";1",
    "161": "ys",
    "162": "ysi",
    "163": "ysis",
    "164": "ha",
    "165": "han",
    "166": "han ",
    "167": "uc",
    "168": "Ho",
    "169": "Hon",
    "170": "Hong",
    "171": "il",
    "172": "ily",
    "173": "usa",
    "174": "usad",
    "175": "by",
    "176": "gg",
    "177": "gge",
    "178": "gges",
    "179": "ggest",
    "180": "re",
    "181": "red",
    "182": "we",
    "183": "wes",
    "184": "west",
    "185": "da",
    "186": "day",
    "187": " t",
    "188": " th",
    "189": " tha",
    "190": " that",
    "191": "sy",
    "192": "sys",
    "193": "syst",
    "194": "ic",
    "195": "ica",
    "196": "ican",
    "197": "on",
    "198": "oni",
    "199": "onia",
    "200": "mi",
    "201": "min",
    "202": "ig",
    "203": "igr",
    "204": "de",
    "205": "der",
    "206": "deri",
    "207": "tat",
    "208": "tati",
    "209": "gs",
    "210": "eg",
    "211": "ego",
    "212": "egon",
    "213": " o",
    "214": " of",
    "215": " of ",
    "216": "D ",
    "217": "D -",
    "218": "D --",
    "219": "ti",
    "220": "til",
    "221": "till",
    "222": "al",
    "223": "alo",
    "224": "ree",
    "225": "ree ",
    "226": "ga",
    "227": "gam",
    "228": "lo",
    "229": "loc",
    "230": "loci",
    "231": "th",
    "232": "tha",
    "233": "than",
    "234": "1 ",
    "235": "ea",
    "236": "ean",
    "237": "eans",
    "238": "eans ",
    "239": "uch",
    "240": "uch ",
    "241": "uch a",
    "242": "uch as",
    "243": "use",
    "244": "pu",
    "245": "pub",
    "246": "vo",
    "247": "thi",
    "248": "thin",
    "249": "am",
    "250": "amm",
    "251": "rem",
    "252": "tab",
    "253": "tabl",
    "254": "table",
    "255": "it",
    "256": "itu",
    "257": "ch",
    "258": "vi",
    "259": "vis",
    "260": "visi",
    "261": "re ",
    "262": "ed",
    "263": "ed ",
    "264": "wr",
    "265": "Co",
    "266": "Cor",
    "267": "Cort",
    "268": "Sp",
    "269": "Spa",
    "270": "be",
    "271": "bel",
    "272": "beli",
    "273": "belie",
    "274": "ower",
    "275": "er",
    "276": "eri",
    "277": "erio",
    "278": "eriod",
    "279": "vil",
    "280": "vily",
    "281": "hh",
    "282": "hhh",
    "283": "is",
    "284": "isa",
    "285": "isam",
    "286": "isamb",
    "287": "nn",
    "288": "nni",
    "289": "nnis",
    "290": "wo",
    "291": "yi",
    "292": "yin",
    "293": "el",
    "294": "eld",
    "295": "an",
    "296": "anc",
    "297": "opo",
    "298": "bu",
    "299": "na",
    "300": "nat",
    "301": "era",
    "302": "sk",
    "303": "skr",
    "304": "skri",
    "305": "ma",
    "306": "mag",
    "307": "ra",
    "308": "ras",
    "309": "ke",
    "310": "ker",
    "311": "ne",
    "312": "neg",
    "313": "negi",
    "314": "6,",
    "315": "6, ",
    "316": "if",
    "317": "ifi",
    "318": "ific",
    "319": "ot",
    "320": "otb",
    "321": "otba",
    "322": "otbal",
    "323": "otball",
    "324": "Bo",
    "325": "Bow",
    "326": "Bowl",
    "327": "wa",
    "328": "as",
    "329": "as ",
    "330": "cha",
    "331": "chan",
    "332": "chani",
    "333": "ad",
    "334": "add",
    "335": "tic",
    "336": "oo",
    "337": "oop",
    "338": "sh",
    "339": "to",
    "340": "tok",
    "341": "toku",
    "342": "tr",
    "343": "tra",
    "344": "tras",
    "345": "trast",
    "346": "ont",
    "347": "onth",
    "348": "tt",
    "349": "tte",
    "350": "tter",
    "351": "Th",
    "352": "e ",
    "353": "om",
    "354": "oma",
    "355": "oman",
    "356": "rt",
    "357": "rte",
    "358": "ov",
    "359": "ove",
    "360": "ovem",
    "361": "oveme",
    "362": "ovemen",
    "363": "ild",
    "364": "or",
    "365": "ork",
    "366": "thm",
    "367": "omp",
    "368": "pi",
    "369": "pir",
    "370": "ela",
    "371": "elan",
    "372": "om ",
    "373": "pe",
    "374": "per",
    "375": "peri",
    "376": "iv",
    "377": "ive",
    "378": "wi",
    "379": "wit",
    "380": "with",
    "381": "dr",
    "382": "rr",
    "383": "rre",
    "384": "rren",
    "385": "ang",
    "386": "su",
    "387": "suc",
    "388": "such",
    "389": "'s",
    "390": "'s ",
    "391": "tc",
    "392": "tch",
    "393": "eland",
    "394": "ty",
    "395": "ty ",
    "396": "do",
    "397": "dow",
    "398": "down",
    "399": "and",
    "400": "and ",
    "401": "rv",
    "402": "rve",
    "403": "ite",
    "404": "ited",
    "405": "so",
    "406": "tu",
    "407": "tua",
    "408": "ri",
    "409": "rie",
    "410": "ries",
    "411": "nea",
    "412": "ei",
    "413": "ein",
    "414": "eing",
    "415": "ce",
    "416": "ce ",
    "417": "ps",
    "418": "si",
    "419": "sib",
    "420": "sibl",
    "421": "ped",
    "422": "pedi",
    "423": "pedia",
    "424": "aq",
    "425": "Go",
    "426": "Gos",
    "427": "Gosp",
    "428": "ro",
    "429": "rom",
    "430": "3 ",
    "431": "3 /",
    "432": "3 /s",
    "433": "3 /su",
    "434": "po",
    "435": "por",
    "436": "port",
    "437": "mb",
    "438": "mbi",
    "439": "mbig",
    "440": "mbigu",
    "441": "Sy",
    "442": "Sys",
    "443": "Syst",
    "444": "igi",
    "445": "igin",
    "446": "ves",
    "447": "NO",
    "448": "ba",
    "449": "bal",
    "450": "Me",
    "451": "Mex",
    "452": "Mexi",
    "453": "Mexic",
    "454": "ju",
    "455": "jur",
    "456": "A,",
    "457": "A, ",
    "458": "sta",
    "459": "go",
    "460": "gol",
    "461": "ast",
    "462": "asta",
    "463": "um",
    "464": "ume",
    "465": "urc",
    "466": "urce",
    "467": " I",
    "468": "nd",
    "469": "ndo",
    "470": "rou",
    "471": "roug",
    "472": "lt",
    "473": "aug",
    "474": "pos",
    "475": "ka",
    "476": "onl",
    "477": "only",
    "478": "nu",
    "479": "num",
    "480": "numb",
    "481": "numbe",
    "482": "ir",
    "483": "ir ",
    "484": "rit",
    "485": "ar",
    "486": "ng",
    "487": "nge",
    "488": "Ma",
    "489": "Mar",
    "490": "Ir",
    "491": "Ira",
    "492": "FM",
    "493": "FMD",
    "494": "NE",
    "495": "orr",
    "496": "orro",
    "497": "orror",
    "498": "eo",
    "499": "ct",
    "500": "cto",
    "501": "ctob",
    "502": "z ",
    "503": "st ",
    "504": "st o",
    "505": "st of",
    "506": "st of ",
    "507": "fo",
    "508": "for",
    "509": "for ",
    "510": "fi",
    "511": "fin",
    "512": "( ",
    "513": "rito",
    "514": "ritor",
    "515": "/t",
    "516": "gag",
    "517": "pan",
    "518": "ven",
    "519": "rd",
    "520": "ie",
    "521": "ck",
    "522": "sul",
    "523": "sult",
    "524": "ob",
    "525": "obj",
    "526": "obje",
    "527": "objec",
    "528": "co",
    "529": "con",
    "530": "cons",
    "531": "const",
    "532": "Te",
    "533": "Ten",
    "534": "Tenn",
    "535": "low",
    "536": "lowa",
    "537": "lowan",
    "538": "lowanc",
    "539": "Am",
    "540": "Ame",
    "541": "Amer",
    "542": "Ameri",
    "543": "that",
    "544": "iew",
    "545": "up",
    "546": "gi",
    "547": "git",
    "548": "le",
    "549": "let",
    "550": "za",
    "551": "zat",
    "552": "rc",
    "553": "rce",
    "554": "ho",
    "555": "hou",
    "556": "hour",
    "557": "hours",
    "558": "ust",
    "559": "ust ",
    "560": "ip",
    "561": "orl",
    "562": "orld",
    "563": "Bor",
    "564": "hab",
    "565": "habi",
    "566": "habit",
    "567": "ag",
    "568": "age",
    "569": "cu",
    "570": "cut",
    "571": "mo",
    "572": "mor",
    "573": "more",
    "574": "more ",
    "575": "He",
    "576": "Hei",
    "577": "Heig",
    "578": "Heigh",
    "579": "ai",
    "580": "ain",
    "581": "DP",
    "582": "in",
    "583": "ine",
    "584": "rci",
    "585": "rcis",
    "586": "isi",
    "587": "Ge",
    "588": "Ger",
    "589": "Germ",
    "590": "Germa",
    "591": "os",
    "592": "ost",
    "593": "ost ",
    "594": "yr",
    "595": "yri",
    "596": "yria",
    "597": "res",
    "598": "or ",
    "599": "ul",
    "600": "uld",
    "601": "la",
    "602": "lat",
    "603": "late",
    "604": "late ",
    "605": "fl",
    "606": "flu",
    "607": "flue",
    "608": "fluen",
    "609": "(1",
    "610": "(19",
    "611": "ll",
    "612": "lle",
    "613": "lley",
    "614": "hous",
    "615": "ttl",
    "616": "pp",
    "617": "RI",
    "618": "RIS",
    "619": "owed",
    "620": "sp",
    "621": "spe",
    "622": "spel",
    "623": "wel",
    "624": "80",
    "625": "oi",
    "626": "oid",
    "627": "ina",
    "628": "bo",
    "629": "Ch",
    "630": "Cha",
    "631": "Chap",
    "632": "Chapl",
    "633": "Height",
    "634": "dam",
    "635": "dame",
    "636": "oin",
    "637": "rti",
    "638": "yo",
    "639": "you",
    "640": "60",
    "641": "urit",
    "642": "ex",
    "643": "exa",
    "644": "exan",
    "645": "exand",
    "646": "olv",
    "647": "olve",
    "648": "q ",
    "649": "q l",
    "650": "q la",
    "651": "q lan",
    "652": "q lang",
    "653": "q langu",
    "654": "cc",
    "655": "ccu",
    "656": "ccum",
    "657": "ccumu",
    "658": "igh",
    "659": "ighb",
    "660": "lan",
    "661": "lang",
    "662": "langu",
    "663": "% ",
    "664": "boo",
    "665": "book",
    "666": "oth",
    "667": "oth ",
    "668": "rth",
    "669": "eu",
    "670": "eut",
    "671": "ar ",
    "672": "di",
    "673": "diu",
    "674": "Ta",
    "675": "Tam",
    "676": "Tama",
    "677": "ki",
    "678": "ut",
    "679": "je",
    "680": " to",
    "681": "ely",
    "682": "has",
    "683": "hod",
    "684": "nt",
    "685": "ntr",
    "686": "ntry",
    "687": "urt",
    "688": "urth",
    "689": "urthe",
    "690": "en",
    "691": "ene",
    "692": "amo",
    "693": "amon",
    "694": "amond",
    "695": "5t",
    "696": "5th",
    "697": "r,",
    "698": "r, ",
    "699": " -",
    "700": "im",
    "701": "ime",
    "702": "imen",
    "703": "mp",
    "704": "mpt",
    "705": "em",
    "706": "eme",
    "707": "emen",
    "708": "av",
    "709": "ave",
    "710": "lis",
    "711": "lish",
    "712": "dit",
    "713": "diti",
    "714": "ap",
    "715": "apa",
    "716": "ni",
    "717": "nim",
    "718": "orn",
    "719": "emp",
    "720": "mbl",
    "721": "ren",
    "722": "renc",
    "723": "rench",
    "724": "tc.",
    "725": "ons",
    "726": "onst",
    "727": "onsta",
    "728": "onstan",
    "729": "ko",
    "730": "nen",
    "731": "ud",
    "732": "oint",
    "733": "iver",
    "734": "tho",
    "735": "thou",
    "736": "thoug",
    "737": "1 /",
    "738": "1 /s",
    "739": "1 /su",
    "740": "ups",
    "741": "du",
    "742": "dur",
    "743": "duri",
    "744": "durin",
    "745": "during",
    "746": "uca",
    "747": "ext",
    "748": "te",
    "749": "ter",
    "750": "cag",
    "751": "cago",
    "752": "es",
    "753": "gr",
    "754": "ac",
    "755": "moc",
    "756": "mocr",
    "757": "wb",
    "758": "wbo",
    "759": "wboy",
    "760": "at",
    "761": "ati",
    "762": "atio",
    "763": "ation",
    "764": "cl",
    "765": "cli",
    "766": "clid",
    "767": "N ",
    "768": "N b",
    "769": "N br",
    "770": "on ",
    "771": "amb",
    "772": "opt",
    "773": "--",
    "774": "eiv",
    "775": "00",
    "776": "00 ",
    "777": "ami",
    "778": "amil",
    "779": "ev",
    "780": "eve",
    "781": "riti",
    "782": "ritis",
    "783": "cov",
    "784": "cove",
    "785": "cover",
    "786": "rch",
    "787": "dy",
    "788": "dy ",
    "789": "Re",
    "790": "Rep",
    "791": "Repu",
    "792": "Repub",
    "793": ".S",
    "794": "rl",
    "795": "rle",
    "796": "rles",
    "797": "rles ",
    "798": "an ",
    "799": "ase",
    "800": "ased",
    "801": "ased ",
    "802": "Gol",
    "803": "Gola",
    "804": "Golan",
    "805": "fic",
    "806": "rg",
    "807": "rga",
    "808": "rgan",
    "809": "wor",
    "810": "word",
    "811": "eq",
    "812": "equ",
    "813": "eque",
    "814": "equen",
    "815": "eci",
    "816": "!-",
    "817": "ew",
    "818": "hu",
    "819": "hur",
    "820": "hurc",
    "821": "hurch",
    "822": "ss",
    "823": "i ",
    "824": "ach",
    "825": "ep",
    "826": "ept",
    "827": "epte",
    "828": "eptem",
    "829": "eptemb",
    "830": "ith",
    "831": "11",
    "832": "ili",
    "833": "ilit",
    "834": "Tec",
    "835": "Tech",
    "836": "Wo",
    "837": "Wor",
    "838": "cr",
    "839": "cre",
    "840": "ya",
    "841": "yal",
    "842": "velo",
    "843": "4,",
    "844": "4, ",
    "845": "mpe",
    "846": "mper",
    "847": "ong",
    "848": " /",
    "849": "nad",
    "850": "sid",
    "851": "side",
    "852": "len",
    "853": "lend",
    "854": "lenda",
    "855": "lendar",
    "856": "ist",
    "857": "Br",
    "858": "Bri",
    "859": "Brit",
    "860": "Briti",
    "861": "Britis",
    "862": "may",
    "863": "may ",
    "864": "ery",
    "865": "ery ",
    "866": "lor",
    "867": "jeo",
    "868": "art",
    "869": "arti",
    "870": "artic",
    "871": "articu",
    "872": "articul",
    "873": "articula",
    "874": "rap",
    "875": "che",
    "876": "ched",
    "877": "exam",
    "878": "har",
    "879": "sus",
    "880": "reek",
    "881": "ifica",
    "882": "ifican",
    "883": "forc",
    "884": "At",
    "885": "Ata",
    "886": "Atar",
    "887": "lly",
    "888": " td",
    "889": "nd ",
    "890": "nd t",
    "891": "nd to",
    "892": "nd to ",
    "893": "ort",
    "894": "mal",
    "895": "mall",
    "896": "sin",
    "897": "ne ",
    "898": "est",
    "899": "hi",
    "900": "hie",
    "901": "hiev",
    "902": "w ",
    "903": " l",
    "904": " la",
    "905": " lan",
    "906": " lang",
    "907": " langu",
    "908": "vig",
    "909": "viga",
    "910": "lec",
    "911": "lect",
    "912": "how",
    "913": "how ",
    "914": "/ ",
    "915": "pt",
    "916": "pt ",
    "917": "he",
    "918": "her",
    "919": "io",
    "920": "ior",
    "921": "eb",
    "922": "mil",
    "923": "mila",
    "924": "milar",
    "925": "ngt",
    "926": "ngth",
    "927": "/s",
    "928": "/su",
    "929": "vol",
    "930": "volv",
    "931": "volve",
    "932": "oc",
    "933": "ocu",
    "934": "ocum",
    "935": "leb",
    "936": "lebr",
    "937": "nan",
    "938": "MD",
    "939": "cru",
    "940": "crui",
    "941": "cruis",
    "942": "cruise",
    "943": "We",
    "944": "Web",
    "945": "#8",
    "946": "uth",
    "947": "ide",
    "948": "iti",
    "949": "itio",
    "950": "form",
    "951": "hic",
    "952": "hica",
    "953": "hicag",
    "954": "mos",
    "955": "most",
    "956": "tob",
    "957": "ctu",
    "958": "ito",
    "959": "vat",
    "960": "fe",
    "961": "6 ",
    "962": "6 -",
    "963": "6 - ",
    "964": "iz",
    "965": "anch",
    "966": "din",
    "967": "ding",
    "968": "uh",
    "969": "uha",
    "970": "uham",
    "971": "jec",
    "972": "ject",
    "973": "ame",
    "974": "BC",
    "975": "ile",
    "976": "ile ",
    "977": "ilt",
    "978": "ilto",
    "979": "ilton",
    "980": "pol",
    "981": "tan",
    "982": "ult",
    "983": "tri",
    "984": "gen",
    "985": "gent",
    "986": "uci",
    "987": "ucin",
    "988": "ulu",
    "989": "The",
    "990": "The ",
    "991": "Eu",
    "992": "Eur",
    "993": "Euro",
    "994": "Europ",
    "995": "Europe",
    "996": "rom ",
    "997": "-1",
    "998": "be ",
    "999": "5,",
    "1000": "5, ",
    "1001": "gre",
    "1002": "hio",
    "1003": "aint",
    "1004": "Con",
    "1005": "lli",
    "1006": "llia",
    "1007": "lliam",
    "1008": "icu",
    "1009": "icul",
    "1010": "icula",
    "1011": "ell",
    "1012": "Mi",
    "1013": "Min",
    "1014": "Mini",
    "1015": "Minis",
    "1016": "nj",
    "1017": "njo",
    "1018": "njou",
    "1019": "njour",
    "1020": "ia",
    "1021": "ack",
    "1022": "ack ",
    "1023": "mie",
    "1024": "mies",
    "1025": "Gr",
    "1026": "Gre",
    "1027": "uti",
    "1028": "ure",
    "1029": "urea",
    "1030": "ureat",
    "1031": "zi",
    "1032": "rov",
    "1033": "lu",
    "1034": "err",
    "1035": "erre",
    "1036": "cono",
    "1037": "lah",
    "1038": "Ca",
    "1039": "Can",
    "1040": "Cana",
    "1041": "dn",
    "1042": "dne",
    "1043": "ism",
    "1044": "TA",
    "1045": "RT",
    "1046": "ial",
    "1047": "int",
    "1048": "wn",
    "1049": "ere",
    "1050": "vai",
    "1051": "vail",
    "1052": "bed",
    "1053": "ld",
    "1054": "ld ",
    "1055": "td",
    "1056": "but",
    "1057": "but ",
    "1058": "lif",
    "1059": "lifo",
    "1060": "a ",
    "1061": "my",
    "1062": "ou",
    "1063": "out",
    "1064": "in ",
    "1065": "In",
    "1066": "wri",
    "1067": "writ",
    "1068": "ak",
    "1069": "aka",
    "1070": "akan",
    "1071": "hoo",
    "1072": "hood",
    "1073": "dv",
    "1074": "oa",
    "1075": "oad",
    "1076": "lea",
    "1077": "leas",
    "1078": "yp",
    "1079": "ypt",
    "1080": "ch ",
    "1081": "rough",
    "1082": "ok",
    "1083": "et",
    "1084": "ete",
    "1085": "8 ",
    "1086": "8 -",
    "1087": " (",
    "1088": " (d",
    "1089": " (d.",
    "1090": " (d. ",
    "1091": "Cy",
    "1092": "Cyt",
    "1093": "Cyto",
    "1094": "mpu",
    "1095": "mput",
    "1096": "arl",
    "1097": "bl",
    "1098": "bli",
    "1099": "blis",
    "1100": "ever",
    "1101": "ball",
    "1102": "(b",
    "1103": "(bo",
    "1104": "(bor",
    "1105": "(born",
    "1106": "eus",
    "1107": "tie",
    "1108": "tio",
    "1109": "tion",
    "1110": "4 ",
    "1111": "4 -",
    "1112": "4 - ",
    "1113": "Cal",
    "1114": "Cali",
    "1115": "Calif",
    "1116": "Califo",
    "1117": "ote",
    "1118": "oter",
    "1119": "c ",
    "1120": "9)",
    "1121": "es ",
    "1122": "ortu",
    "1123": "ortun",
    "1124": "ovel",
    "1125": "roc",
    "1126": "nom",
    "1127": "ze",
    "1128": "zed",
    "1129": "zed ",
    "1130": "udi",
    "1131": "ticl",
    "1132": "ticle",
    "1133": "of",
    "1134": "of ",
    "1135": "nth",
    "1136": "his",
    "1137": "erb",
    "1138": "iki",
    "1139": "ver",
    "1140": "vere",
    "1141": "verei",
    "1142": "vereig",
    "1143": "was",
    "1144": "p ",
    "1145": "Pa",
    "1146": "Pag",
    "1147": "Page",
    "1148": "Gu",
    "1149": "Gui",
    "1150": "Guid",
    "1151": "Guide",
    "1152": "ill",
    "1153": "illi",
    "1154": "illia",
    "1155": "illiam",
    "1156": "ome",
    "1157": "Ya",
    "1158": "Yan",
    "1159": "Yank",
    "1160": "Yanke",
    "1161": "Yankee",
    "1162": "Fr",
    "1163": "Fre",
    "1164": "Fren",
    "1165": "af",
    "1166": "hist",
    "1167": "by ",
    "1168": "tag",
    "1169": "tage",
    "1170": "nc",
    "1171": "sl",
    "1172": "cau",
    "1173": "caus",
    "1174": "),",
    "1175": "), ",
    "1176": "tz",
    "1177": "Yo",
    "1178": "Yor",
    "1179": "York",
    "1180": "ric",
    "1181": "rica",
    "1182": "rical",
    "1183": "thio",
    "1184": "thiop",
    "1185": "ger",
    "1186": "xa",
    "1187": "ny",
    "1188": "fr",
    "1189": "itis",
    "1190": "ct ",
    "1191": "lit",
    "1192": "liti",
    "1193": "litic",
    "1194": "60s",
    "1195": "aft",
    "1196": "afte",
    "1197": "arg",
    "1198": "arge",
    "1199": "s*",
    "1200": "hang",
    "1201": "Guin",
    "1202": "ub",
    "1203": "ubl",
    "1204": "ubli",
    "1205": "c.",
    "1206": "urg",
    "1207": "urge",
    "1208": "urges",
    "1209": "Dj",
    "1210": "Dji",
    "1211": "Djib",
    "1212": "Djibo",
    "1213": "Djibou",
    "1214": "fa",
    "1215": "fam",
    "1216": "famo",
    "1217": "famou",
    "1218": "famous",
    "1219": "gt",
    "1220": "gto",
    "1221": "unt",
    "1222": "amou",
    "1223": "amous",
    "1224": "ied",
    "1225": " s",
    "1226": "hown",
    "1227": "rm",
    "1228": "rma",
    "1229": "ns",
    "1230": "nse",
    "1231": "foo",
    "1232": "food",
    "1233": "iter",
    "1234": "Da",
    "1235": "Dan",
    "1236": "Dani",
    "1237": "Danis",
    "1238": "Danish",
    "1239": "anu",
    "1240": "anua",
    "1241": "anuar",
    "1242": "she",
    "1243": "*1",
    "1244": "dd",
    "1245": "km",
    "1246": "km)",
    "1247": "izo",
    "1248": "urn",
    "1249": "Ba",
    "1250": "Ban",
    "1251": "Bang",
    "1252": "Bangl",
    "1253": "mm",
    "1254": "Ha",
    "1255": "Ham",
    "1256": "Hami",
    "1257": "Hamil",
    "1258": "Tea",
    "1259": "Teac",
    "1260": "Teach",
    "1261": "oic",
    "1262": "oice",
    "1263": "lde",
    "1264": "lden",
    "1265": "rda",
    "1266": "rdan",
    "1267": "med",
    "1268": "*Y",
    "1269": "sia",
    "1270": "och",
    "1271": "Ar",
    "1272": "Art",
    "1273": "Arti",
    "1274": "Artic",
    "1275": "Articl",
    "1276": "iga",
    "1277": " n",
    "1278": " no",
    "1279": " not",
    "1280": "til ",
    "1281": "God",
    "1282": "so ",
    "1283": "vers",
    "1284": "ris",
    "1285": "icat",
    "1286": "our",
    "1287": "le ",
    "1288": "se",
    "1289": "ser",
    "1290": "serv",
    "1291": "Ti",
    "1292": "Tig",
    "1293": "Tigr",
    "1294": "gor",
    "1295": "gn",
    "1296": "cem",
    "1297": "cemb",
    "1298": "the",
    "1299": "ther",
    "1300": "tow",
    "1301": "town",
    "1302": "ber",
    "1303": "bert",
    "1304": "evel",
    "1305": "gy",
    "1306": "gyp",
    "1307": "gypt",
    "1308": "vy",
    "1309": "sur",
    "1310": "ity",
    "1311": "ity ",
    "1312": "gat",
    "1313": "oved",
    "1314": "cri",
    "1315": "Ja",
    "1316": "Jac",
    "1317": "Jack",
    "1318": "L ",
    "1319": "L b",
    "1320": "L br",
    "1321": "icl",
    "1322": "icle",
    "1323": "lla",
    "1324": "rot",
    "1325": "roth",
    "1326": "ifo",
    "1327": "ifor",
    "1328": "iforn",
    "1329": "dg",
    "1330": "dge",
    "1331": "oug",
    "1332": "ough",
    "1333": "bs",
    "1334": "fy",
    "1335": "= ",
    "1336": "chi",
    "1337": "chin",
    "1338": "ical",
    "1339": "ing",
    "1340": "ingl",
    "1341": "ingle",
    "1342": "cum",
    "1343": "cume",
    "1344": "cumen",
    "1345": "nis",
    "1346": "crip",
    "1347": "cript",
    "1348": "mer",
    "1349": "meri",
    "1350": "sic",
    "1351": "cco",
    "1352": "ccor",
    "1353": "ccord",
    "1354": "lm",
    "1355": "rio",
    "1356": "rior",
    "1357": "r ",
    "1358": "r /",
    "1359": "r /s",
    "1360": "r /su",
    "1361": "lip",
    "1362": "Sc",
    "1363": "Sco",
    "1364": "Scot",
    "1365": "eren",
    "1366": "ird",
    "1367": "lue",
    "1368": "luen",
    "1369": "ab",
    "1370": "abl",
    "1371": "cen",
    "1372": "ici",
    "1373": "icia",
    "1374": "hop",
    "1375": "ener",
    "1376": "enera",
    "1377": "ider",
    "1378": "cra",
    "1379": "enc",
    "1380": "ench",
    "1381": "gra",
    "1382": "DO",
    "1383": "DON",
    "1384": "DONE",
    "1385": "ci",
    "1386": "cie",
    "1387": "cien",
    "1388": "0,",
    "1389": "are",
    "1390": "are ",
    "1391": "erag",
    "1392": "hanc",
    "1393": "las",
    "1394": "lass",
    "1395": "elt",
    "1396": "gic",
    "1397": "U ",
    "1398": "ses",
    "1399": "sess",
    "1400": "Al",
    "1401": "Ale",
    "1402": "Alex",
    "1403": "n ",
    "1404": "n b",
    "1405": "n br",
    "1406": " - ",
    "1407": "rvi",
    "1408": "rvic",
    "1409": "rvice",
    "1410": "Chi",
    "1411": "Chin",
    "1412": "og",
    "1413": "tw",
    "1414": "twe",
    "1415": "twee",
    "1416": "omes",
    "1417": "omest",
    "1418": "lled",
    "1419": "ru",
    "1420": "ruc",
    "1421": "ruct",
    "1422": "ors",
    "1423": "orse",
    "1424": "loy",
    "1425": "fore",
    "1426": "Na",
    "1427": "Nak",
    "1428": "Naka",
    "1429": "Nakan",
    "1430": "e,",
    "1431": "e, ",
    "1432": "ona",
    "1433": "onat",
    "1434": "cin",
    "1435": "g)",
    "1436": ".*1",
    "1437": ".*19",
    "1438": "5 ",
    "1439": "5 a",
    "1440": "5 an",
    "1441": "5 and",
    "1442": "5 and ",
    "1443": "ali",
    "1444": "oci",
    "1445": " A",
    "1446": "van",
    "1447": "arr",
    "1448": "lti",
    "1449": "over",
    "1450": "overn",
    "1451": "ui",
    "1452": "Hor",
    "1453": "Hora",
    "1454": "Horac",
    "1455": "ale",
    "1456": "alen",
    "1457": "aus",
    "1458": "shi",
    "1459": "ship",
    "1460": "oe",
    "1461": "oe ",
    "1462": "net",
    "1463": "able",
    "1464": "lin",
    "1465": "tur",
    "1466": "voi",
    "1467": "void",
    "1468": "ate",
    "1469": "ateg",
    "1470": "atego",
    "1471": "ategor",
    "1472": "6t",
    "1473": "6th",
    "1474": "hat",
    "1475": "cci",
    "1476": "ccin",
    "1477": "ngu",
    "1478": "lio",
    "1479": "lion",
    "1480": "ye",
    "1481": "opl",
    "1482": "one",
    "1483": "ones",
    "1484": "outh",
    "1485": "ttle",
    "1486": "now",
    "1487": "d.",
    "1488": "xi",
    "1489": "xic",
    "1490": "llo",
    "1491": "llow",
    "1492": "ron",
    "1493": "rin",
    "1494": "ring",
    "1495": "mar",
    "1496": "Ci",
    "1497": "Cin",
    "1498": "Cinc",
    "1499": "Gi",
    "1500": "Gia",
    "1501": "Gian",
    "1502": "Giant",
    "1503": "ket",
    "1504": "rig",
    "1505": "righ",
    "1506": "right",
    "1507": "oun",
    "1508": "ounc",
    "1509": "S ",
    "1510": "ltic",
    "1511": "spec",
    "1512": "inat",
    "1513": "ug",
    "1514": "ugh",
    "1515": "ught",
    "1516": "hol",
    "1517": "tar",
    "1518": "hem",
    "1519": "hema",
    "1520": "rm{",
    "1521": "aly",
    "1522": "alys",
    "1523": "alysi",
    "1524": "alysis",
    "1525": "uct",
    "1526": "uctu",
    "1527": "uctur",
    "1528": "7,",
    "1529": "7, ",
    "1530": "6 a",
    "1531": "6 an",
    "1532": "6 and",
    "1533": "ula",
    "1534": "cam",
    "1535": "came",
    "1536": "has ",
    "1537": "Ju",
    "1538": "lum",
    "1539": "hir",
    "1540": "hiro",
    "1541": "hirop",
    "1542": "hiropr",
    "1543": "En",
    "1544": "Eng",
    "1545": "Engl",
    "1546": "nin",
    "1547": "ning",
    "1548": "nes",
    "1549": "ness",
    "1550": "ovi",
    "1551": "ovie",
    "1552": "oviet",
    "1553": "umen",
    "1554": "ass",
    "1555": "cro",
    "1556": "tal",
    "1557": "WI",
    "1558": "upe",
    "1559": "uper",
    "1560": "CN",
    "1561": "CNS",
    "1562": "CNS ",
    "1563": "ope",
    "1564": "hat ",
    "1565": "ctor",
    "1566": "hos",
    "1567": "host",
    "1568": "s ",
    "1569": "s o",
    "1570": "s of",
    "1571": "s of ",
    "1572": "ari",
    "1573": "ic ",
    "1574": " nd",
    "1575": " nda",
    "1576": " ndas",
    "1577": "cq",
    "1578": "cqu",
    "1579": "sla",
    "1580": "bol",
    "1581": " /t",
    "1582": "nct",
    "1583": " K",
    "1584": " Ko",
    "1585": " Kon",
    "1586": " Kong",
    "1587": "Gro",
    "1588": "Grou",
    "1589": "8 b",
    "1590": "8 br",
    "1591": "De",
    "1592": "ee",
    "1593": "eed",
    "1594": "ife",
    "1595": "iou",
    "1596": "ious",
    "1597": "2,",
    "1598": "vio",
    "1599": "viou",
    "1600": "par",
    "1601": "para",
    "1602": "ore",
    "1603": "ore ",
    "1604": "hee",
    "1605": "hees",
    "1606": "heese",
    "1607": "ond",
    "1608": "ryp",
    "1609": "rypt",
    "1610": "cor",
    "1611": "cord",
    "1612": "trie",
    "1613": "cat",
    "1614": "he ",
    "1615": "yl",
    "1616": "yle",
    "1617": "das",
    "1618": "wl",
    "1619": "ked",
    "1620": "2 ",
    "1621": "\\m",
    "1622": "\\ma",
    "1623": "\\mat",
    "1624": "cil",
    "1625": "pr",
    "1626": "pri",
    "1627": ") ",
    "1628": "(d",
    "1629": "(d.",
    "1630": "(d. ",
    "1631": "gar",
    "1632": "gard",
    "1633": "I.",
    "1634": "Vi",
    "1635": "uring",
    "1636": "hav",
    "1637": "have",
    "1638": "wh",
    "1639": "whi",
    "1640": "whic",
    "1641": "which",
    "1642": "cel",
    "1643": "cell",
    "1644": "esi",
    "1645": "esid",
    "1646": "az",
    "1647": "azi",
    "1648": "NO ",
    "1649": "NO I",
    "1650": "ilo",
    "1651": "ilot",
    "1652": "ts",
    "1653": "hed",
    "1654": "velop",
    "1655": "oso",
    "1656": "dor",
    "1657": "Fa",
    "1658": "Far",
    "1659": "Faro",
    "1660": "Faroe",
    "1661": "nst",
    "1662": "l ",
    "1663": "E ",
    "1664": "E -",
    "1665": "olo",
    "1666": "rar",
    "1667": "nr",
    "1668": "ede",
    "1669": "eder",
    "1670": "fri",
    "1671": "all",
    "1672": "alle",
    "1673": "alled",
    "1674": "urch",
    "1675": "cle",
    "1676": "ua",
    "1677": "ana",
    "1678": "anad",
    "1679": "isto",
    "1680": "Wi",
    "1681": "Wit",
    "1682": "With",
    "1683": "redi",
    "1684": "redie",
    "1685": "redien",
    "1686": ".p",
    "1687": ".pn",
    "1688": ".png",
    "1689": "tit",
    "1690": "titu",
    "1691": "Jap",
    "1692": "Japa",
    "1693": "Japan",
    "1694": " a",
    "1695": " as",
    "1696": " as ",
    "1697": "lk",
    "1698": "ord",
    "1699": "orda",
    "1700": "ordan",
    "1701": "Em",
    "1702": "ight",
    "1703": "uss",
    "1704": "ngl",
    "1705": "mat",
    "1706": "mate",
    "1707": "acy",
    "1708": "od",
    "1709": "amp",
    "1710": "ampl",
    "1711": "8)",
    "1712": "umer",
    "1713": "ib",
    "1714": "sel",
    "1715": "ini",
    "1716": "Pau",
    "1717": "Paul",
    "1718": "ht",
    "1719": "ws",
    "1720": "rea",
    "1721": "reas",
    "1722": "lb",
    "1723": "lbe",
    "1724": "lber",
    "1725": "org",
    "1726": "onn",
    "1727": "onne",
    "1728": "onnec",
    "1729": "onnect",
    "1730": "ape",
    "1731": "apes",
    "1732": "yea",
    "1733": "year",
    "1734": "liv",
    "1735": "ve ",
    "1736": "erg",
    "1737": " b",
    "1738": " br",
    "1739": "Wim",
    "1740": "Wimb",
    "1741": "Wimbl",
    "1742": "hil",
    "1743": "teg",
    "1744": "well",
    "1745": "xt",
    "1746": "eas",
    "1747": "hap",
    "1748": "hapl",
    "1749": "So",
    "1750": "Sof",
    "1751": "Soft",
    "1752": "Softw",
    "1753": "Softwa",
    "1754": "Softwar",
    "1755": "astat",
    "1756": "een",
    "1757": "pl",
    "1758": "pla",
    "1759": "fai",
    "1760": "8,",
    "1761": "8, ",
    "1762": "ake",
    "1763": "VI",
    "1764": "ying",
    "1765": "at ",
    "1766": "W.",
    "1767": "ear",
    "1768": "earc",
    "1769": "isk",
    "1770": ",0",
    "1771": ",00",
    "1772": ",000",
    "1773": "nou",
    "1774": "noun",
    "1775": "xe",
    "1776": "xer",
    "1777": "Ki",
    "1778": "KiB",
    "1779": "gai",
    "1780": "gain",
    "1781": "ston",
    "1782": "ual",
    "1783": "ino",
    "1784": "inoc",
    "1785": "inocu",
    "1786": "inocul",
    "1787": "2 n",
    "1788": "2 nd",
    "1789": "2 nda",
    "1790": "2 ndas",
    "1791": "oss",
    "1792": "ossi",
    "1793": "ossib",
    "1794": "tin",
    "1795": "ting",
    "1796": "8 - ",
    "1797": "men",
    "1798": "able ",
    "1799": "ly",
    "1800": "a,",
    "1801": "a, ",
    "1802": "upt",
    "1803": "hib",
    "1804": "hibi",
    "1805": "hibit",
    "1806": "lly ",
    "1807": "mig",
    "1808": "migr",
    "1809": "migra",
    "1810": "en ",
    "1811": "erie",
    "1812": "dera",
    "1813": "hor",
    "1814": "wo ",
    "1815": "gin",
    "1816": "gine",
    "1817": "-c",
    "1818": "-ca",
    "1819": "-cal",
    "1820": "fric",
    "1821": "frica",
    "1822": "gal",
    "1823": "ef",
    "1824": "eft",
    "1825": " B",
    "1826": " BC",
    "1827": "Pr",
    "1828": "hool",
    "1829": "cif",
    "1830": "eat",
    "1831": "eat ",
    "1832": "br",
    "1833": "sho",
    "1834": "shop",
    "1835": "iden",
    "1836": "eop",
    "1837": "eopl",
    "1838": "ft",
    "1839": "fte",
    "1840": "ronz",
    "1841": "ronze",
    "1842": "ipe",
    "1843": "vic",
    "1844": "vice",
    "1845": ")*",
    "1846": "nounc",
    "1847": "sti",
    "1848": "stit",
    "1849": "stitu",
    "1850": "write",
    "1851": "writer",
    "1852": "arc",
    "1853": "inis",
    "1854": "inist",
    "1855": "nw",
    "1856": "nwa",
    "1857": "BM",
    "1858": "urb",
    "1859": "ich",
    "1860": "nk",
    "1861": "nke",
    "1862": "nkee",
    "1863": "1%",
    "1864": "mpa",
    "1865": "mpas",
    "1866": "mpass",
    "1867": "met",
    "1868": "his ",
    "1869": "fro",
    "1870": "from",
    "1871": "P ",
    "1872": "Ri",
    "1873": "Riv",
    "1874": "Rive",
    "1875": "River",
    "1876": "82",
    "1877": "821",
    "1878": "edr",
    "1879": "uni",
    "1880": "5 -",
    "1881": "5 - ",
    "1882": "igu",
    "1883": "oul",
    "1884": "b ",
    "1885": "itec",
    "1886": "itect",
    "1887": "o ",
    "1888": "aw",
    "1889": "aw ",
    "1890": "Kis",
    "1891": "Kiss",
    "1892": "amen",
    "1893": "Ve",
    "1894": "Ven",
    "1895": "rs",
    "1896": "rsi",
    "1897": "rsio",
    "1898": "rsion",
    "1899": "Le",
    "1900": "Lei",
    "1901": "rde",
    "1902": "rder",
    "1903": "Sh",
    "1904": "ook",
    "1905": "orm",
    "1906": "led",
    "1907": "ress",
    "1908": "VD",
    "1909": "eib",
    "1910": "eibn",
    "1911": "fir",
    "1912": "firs",
    "1913": "first",
    "1914": "fer",
    "1915": "*19",
    "1916": "O ",
    "1917": "emb",
    "1918": "*Yo",
    "1919": "ddh",
    "1920": "ad ",
    "1921": "aid",
    "1922": "hin",
    "1923": "ryo",
    "1924": "bru",
    "1925": "brua",
    "1926": "bruar",
    "1927": "bi",
    "1928": "ece",
    "1929": "bit",
    "1930": "eig",
    "1931": "2, ",
    "1932": "Ind",
    "1933": "ect",
    "1934": "pm",
    "1935": "pme",
    "1936": "pmen",
    "1937": "Cyp",
    "1938": "Cypr",
    "1939": "fac",
    "1940": "face",
    "1941": "ge ",
    "1942": "iner",
    "1943": "inera",
    "1944": "ineral",
    "1945": "Ad",
    "1946": "Ado",
    "1947": "Adop",
    "1948": "Adopt",
    "1949": "eria",
    "1950": "ard",
    "1951": "3,",
    "1952": "3, ",
    "1953": "lac",
    "1954": "sig",
    "1955": "sign",
    "1956": "gis",
    "1957": "gisl",
    "1958": "wil",
    "1959": "will",
    "1960": "lur",
    "1961": "str",
    "1962": "me ",
    "1963": "me M",
    "1964": "me Mi",
    "1965": "70",
    "1966": "iel",
    "1967": "ield",
    "1968": "ria",
    "1969": "700",
    "1970": "ice",
    "1971": "known",
    "1972": "spi",
    "1973": "spit",
    "1974": "spite",
    "1975": "les",
    "1976": "lest",
    "1977": "R ",
    "1978": "rmi",
    "1979": "ngr",
    "1980": "ngre",
    "1981": "ror",
    "1982": "nic",
    "1983": "dus",
    "1984": "rgi",
    "1985": "nua",
    "1986": "nual",
    "1987": "ssu",
    "1988": "mai",
    "1989": "main",
    "1990": "-b",
    "1991": "-bi",
    "1992": "-bit",
    "1993": "cy",
    "1994": "ae",
    "1995": "ael",
    "1996": "iot",
    "1997": "rthe",
    "1998": "oph",
    "1999": "19",
    "2000": "used",
    "2001": "used ",
    "2002": "mu",
    "2003": "mus",
    "2004": "o-",
    "2005": "tim",
    "2006": "mit",
    "2007": "Fe",
    "2008": "Fed",
    "2009": "Fede",
    "2010": "Feder",
    "2011": "ole",
    "2012": "oca",
    "2013": "ocat",
    "2014": "ee ",
    "2015": "milt",
    "2016": "gh",
    "2017": "gha",
    "2018": "sio",
    "2019": "sb",
    "2020": "sba",
    "2021": "000",
    "2022": "IA",
    "2023": "geth",
    "2024": "ke ",
    "2025": "hich",
    "2026": "**",
    "2027": "eap",
    "2028": "eap ",
    "2029": "eap y",
    "2030": "eap ye",
    "2031": "eap yea",
    "2032": "rst",
    "2033": "lete",
    "2034": "ems",
    "2035": "arth",
    "2036": "iq",
    "2037": "iqu",
    "2038": ".C",
    "2039": ".C.",
    "2040": "haps",
    "2041": "heb",
    "2042": "heba",
    "2043": "Wik",
    "2044": "Wiki",
    "2045": "pment",
    "2046": "eil",
    "2047": "cti",
    "2048": "ctio",
    "2049": "nec",
    "2050": "nect",
    "2051": " f",
    "2052": " fr",
    "2053": " fro",
    "2054": " from",
    "2055": "pit",
    "2056": "ltim",
    "2057": "ltima",
    "2058": "ian",
    "2059": "iant",
    "2060": "nl",
    "2061": "nly",
    "2062": "nly ",
    "2063": "ymo",
    "2064": "ymol",
    "2065": "T-",
    "2066": " to ",
    "2067": "imp",
    "2068": "impo",
    "2069": "impor",
    "2070": "import",
    "2071": "g}",
    "2072": "sider",
    "2073": "h ",
    "2074": "is ",
    "2075": "Sa",
    "2076": "San",
    "2077": "Ga",
    "2078": "Gal",
    "2079": "Gale",
    "2080": "Galen",
    "2081": "ply",
    "2082": "eep",
    "2083": "way",
    "2084": "ways",
    "2085": "Je",
    "2086": "Jeo",
    "2087": "m ",
    "2088": "bin",
    "2089": "bino",
    "2090": "mas",
    "2091": "thel",
    "2092": "ral",
    "2093": "ule",
    "2094": "bor",
    "2095": "born",
    "2096": "ced",
    "2097": "fed",
    "2098": "fede",
    "2099": "feder",
    "2100": "ara",
    "2101": "eti",
    "2102": "umn",
    "2103": "bou",
    "2104": "bout",
    "2105": "nch",
    "2106": "jo",
    "2107": "joy",
    "2108": "7 ",
    "2109": "7 -",
    "2110": "ay",
    "2111": "nged",
    "2112": "4)",
    "2113": "byt",
    "2114": "nla",
    "2115": "nlan",
    "2116": "nland",
    "2117": "mon",
    "2118": "ton",
    "2119": "Is",
    "2120": "Isr",
    "2121": "Isra",
    "2122": "Israe",
    "2123": "Israel",
    "2124": "ted",
    "2125": "er ",
    "2126": " P",
    "2127": " Pa",
    "2128": " Pag",
    "2129": " Page",
    "2130": "was ",
    "2131": "umb",
    "2132": "umbe",
    "2133": "umber",
    "2134": "rge",
    "2135": "rgen",
    "2136": "Po",
    "2137": "Poe",
    "2138": "orp",
    "2139": "orpo",
    "2140": "orpor",
    "2141": "Emp",
    "2142": "P b",
    "2143": "P br",
    "2144": "ph",
    "2145": "pho",
    "2146": "phon",
    "2147": "cul",
    "2148": ".)",
    "2149": "hn",
    "2150": "hn ",
    "2151": "1 /t",
    "2152": "lg",
    "2153": "fter",
    "2154": "olog",
    "2155": "nna",
    "2156": "gree",
    "2157": "ndon",
    "2158": "ten",
    "2159": "x ",
    "2160": "tas",
    "2161": "rae",
    "2162": "utho",
    "2163": "uthor",
    "2164": "ced ",
    "2165": "bov",
    "2166": "bove",
    "2167": "ut ",
    "2168": "vie",
    "2169": "view",
    "2170": "nar",
    "2171": "ety",
    "2172": "rote",
    "2173": "d. ",
    "2174": "dan",
    "2175": "ner",
    "2176": "de ",
    "2177": "80s",
    "2178": "erba",
    "2179": "/m",
    "2180": "/ma",
    "2181": "St",
    "2182": "sa",
    "2183": "tl",
    "2184": "g ",
    "2185": "g K",
    "2186": "ddl",
    "2187": "rk",
    "2188": "rke",
    "2189": "50",
    "2190": "500",
    "2191": "rsia",
    "2192": "rsian",
    "2193": "omas",
    "2194": "here",
    "2195": "yru",
    "2196": "yrus",
    "2197": "nuar",
    "2198": "gm",
    "2199": "ngi",
    "2200": "ngin",
    "2201": "nati",
    "2202": "sed",
    "2203": "hel",
    "2204": "helm",
    "2205": " 1",
    "2206": "ood",
    "2207": "esti",
    "2208": "estic",
    "2209": "Us",
    "2210": "Com",
    "2211": "Comp",
    "2212": "nce",
    "2213": "oke",
    "2214": "wee",
    "2215": "ecu",
    "2216": "ecut",
    "2217": "t)",
    "2218": "sey",
    "2219": "ire",
    "2220": "vent",
    "2221": " (1",
    "2222": " (19",
    "2223": "pha",
    "2224": "6)",
    "2225": "yer",
    "2226": "ogi",
    "2227": "ogic",
    "2228": "Un",
    "2229": "ict",
    "2230": "icti",
    "2231": "sw",
    "2232": "swe",
    "2233": "swer",
    "2234": "ox",
    "2235": "ele",
    "2236": "ose",
    "2237": "osed",
    "2238": "urr",
    "2239": "urre",
    "2240": "urren",
    "2241": "-ce",
    "2242": "-cen",
    "2243": "even",
    "2244": "rh",
    "2245": "rha",
    "2246": "ant",
    "2247": "#S",
    "2248": "ald",
    "2249": "18",
    "2250": "anadi",
    "2251": "anadia",
    "2252": "anadian",
    "2253": "rro",
    "2254": "lf",
    "2255": "rp",
    "2256": "ey",
    "2257": "ddi",
    "2258": "ega",
    "2259": "yric",
    "2260": "dot",
    "2261": "orne",
    "2262": "erv",
    "2263": "hase",
    "2264": "time",
    "2265": "pero",
    "2266": "peror",
    "2267": "nda",
    "2268": "ky",
    "2269": "zab",
    "2270": "zabe",
    "2271": "ane",
    "2272": "anel",
    "2273": "kin",
    "2274": "sli",
    "2275": "slim",
    "2276": "ucat",
    "2277": "ante",
    "2278": "Kin",
    "2279": "King",
    "2280": "land",
    "2281": "gov",
    "2282": "gove",
    "2283": "riv",
    "2284": "hm",
    "2285": "aph",
    "2286": "ls",
    "2287": "lso",
    "2288": "lso ",
    "2289": "edi",
    "2290": "osl",
    "2291": "nde",
    "2292": "nder",
    "2293": "ings",
    "2294": "thod",
    "2295": "ken",
    "2296": "ins",
    "2297": "insu",
    "2298": "insub",
    "2299": "ot ",
    "2300": "end",
    "2301": "d ",
    "2302": "pre",
    "2303": "pret",
    "2304": "pul",
    "2305": "lson",
    "2306": "ado",
    "2307": "line",
    "2308": "yst",
    "2309": "? ",
    "2310": "stru",
    "2311": "ibu",
    "2312": "ibut",
    "2313": "rta",
    "2314": "rtai",
    "2315": "nota",
    "2316": "notab",
    "2317": "notabl",
    "2318": "!--",
    "2319": "20",
    "2320": "ise",
    "2321": "nut",
    "2322": "rui",
    "2323": "ruis",
    "2324": " =",
    "2325": " = ",
    "2326": "ros",
    "2327": "ross",
    "2328": "Born",
    "2329": "sion",
    "2330": "T ",
    "2331": "bum",
    "2332": "wer",
    "2333": "mun",
    "2334": "sc",
    "2335": "3-",
    "2336": "3-1",
    "2337": "bre",
    "2338": "ay ",
    "2339": "dal",
    "2340": "5)",
    "2341": "lc",
    "2342": "lch",
    "2343": "lche",
    "2344": "lchem",
    "2345": "gan",
    "2346": "tro",
    "2347": "oh",
    "2348": "ohe",
    "2349": "ohem",
    "2350": "nwh",
    "2351": "ly ",
    "2352": "gli",
    "2353": "glis",
    "2354": "ndi",
    "2355": "sco",
    "2356": "aig",
    "2357": "roa",
    "2358": "cep",
    "2359": "cept",
    "2360": "aim",
    "2361": "epe",
    "2362": "epen",
    "2363": "epend",
    "2364": "com",
    "2365": "hen",
    "2366": "iod",
    "2367": "zz",
    "2368": "gla",
    "2369": "rn",
    "2370": "rna",
    "2371": "rnal",
    "2372": "who",
    "2373": "Cl",
    "2374": "Cle",
    "2375": "Clev",
    "2376": "Cleve",
    "2377": "se ",
    "2378": "fu",
    "2379": "ful",
    "2380": "pg",
    "2381": "pgr",
    "2382": "ussi",
    "2383": "ussia",
    "2384": "Cat",
    "2385": "Cath",
    "2386": "I ",
    "2387": "us ",
    "2388": "cus",
    "2389": "als",
    "2390": "90",
    "2391": "90s",
    "2392": "ght",
    "2393": "Ze",
    "2394": "Zen",
    "2395": "Zena",
    "2396": "riz",
    "2397": "rize",
    "2398": "cal",
    "2399": "roup",
    "2400": "duc",
    "2401": "king",
    "2402": "ern",
    "2403": "mob",
    "2404": "mobi",
    "2405": "mobil",
    "2406": "vid",
    "2407": "vid ",
    "2408": "0_",
    "2409": "ple",
    "2410": ".S.",
    "2411": "ame ",
    "2412": "How",
    "2413": "Howe",
    "2414": "Howev",
    "2415": "rad",
    "2416": "slan",
    "2417": "sland",
    "2418": "lia",
    "2419": "liam",
    "2420": "stal",
    "2421": "val",
    "2422": "vale",
    "2423": "valen",
    "2424": "gu",
    "2425": "mpl",
    "2426": "ero",
    "2427": "r o",
    "2428": "r of",
    "2429": "r of ",
    "2430": "ngle",
    "2431": "scop",
    "2432": "MP",
    "2433": "MPO",
    "2434": "lleg",
    "2435": "it ",
    "2436": "F.",
    "2437": "In ",
    "2438": "yz",
    "2439": "md",
    "2440": "mda",
    "2441": "mdas",
    "2442": "sm",
    "2443": "ous",
    "2444": "sse",
    "2445": "ien",
    "2446": "iend",
    "2447": "Pre",
    "2448": "Pres",
    "2449": "Presi",
    "2450": "Presid",
    "2451": "pen",
    "2452": "pend",
    "2453": "py",
    "2454": "ace",
    "2455": "m}",
    "2456": "vir",
    "2457": "viro",
    "2458": "t ",
    "2459": "Bru",
    "2460": "Brun",
    "2461": "sis",
    "2462": "egor",
    "2463": "ble",
    "2464": "blem",
    "2465": "nb",
    "2466": "nbs",
    "2467": "nbsp",
    "2468": "70s",
    "2469": "ade",
    "2470": " p",
    "2471": " pl",
    "2472": " pla",
    "2473": "M ",
    "2474": "rcu",
    "2475": "rac",
    "2476": "ract",
    "2477": "ion",
    "2478": "roun",
    "2479": "round",
    "2480": " an",
    "2481": " and",
    "2482": " and ",
    "2483": "el ",
    "2484": "2)",
    "2485": "sof",
    "2486": "soft",
    "2487": "were",
    "2488": "rict",
    "2489": "typ",
    "2490": "Oc",
    "2491": "rat",
    "2492": "A.",
    "2493": "dium",
    "2494": "1)",
    "2495": "ng ",
    "2496": "mes",
    "2497": "y ",
    "2498": "ies",
    "2499": "angu",
    "2500": "wt",
    "2501": "wth",
    "2502": "uis",
    "2503": "-W",
    "2504": "-Wi",
    "2505": "1 -",
    "2506": "rtic",
    "2507": "rticl",
    "2508": "rticle",
    "2509": "Qu",
    "2510": "ller",
    "2511": "them",
    "2512": "thema",
    "2513": "rtu",
    "2514": "tol",
    "2515": "tole",
    "2516": "tolem",
    "2517": "etw",
    "2518": "etwe",
    "2519": "etwee",
    "2520": "rael",
    "2521": "1,",
    "2522": "1, ",
    "2523": "Fo",
    "2524": "For",
    "2525": "Forc",
    "2526": "Force",
    "2527": "viv",
    "2528": "inc",
    "2529": "lic",
    "2530": "lict",
    "2531": "tern",
    "2532": "ize",
    "2533": "lv",
    "2534": "lva",
    "2535": "lvad",
    "2536": "lvado",
    "2537": "lvador",
    "2538": "woo",
    "2539": "wood",
    "2540": "cop",
    "2541": "any",
    "2542": "any ",
    "2543": "Jer",
    "2544": "clu",
    "2545": "clud",
    "2546": "cond",
    "2547": "0 ",
    "2548": "0 -",
    "2549": "dic",
    "2550": "dica",
    "2551": "dicat",
    "2552": "uil",
    "2553": "nish",
    "2554": "ath",
    "2555": "tem",
    "2556": "eive",
    "2557": "euti",
    "2558": "uro",
    "2559": "urop",
    "2560": "urope",
    "2561": "bab",
    "2562": "E b",
    "2563": "E br",
    "2564": "bn",
    "2565": "ll ",
    "2566": "ny ",
    "2567": "ish",
    "2568": "pie",
    "2569": "mong",
    "2570": "US",
    "2571": "7 - ",
    "2572": "Uni",
    "2573": "Univ",
    "2574": "Unive",
    "2575": "Univer",
    "2576": "Univers",
    "2577": "up ",
    "2578": "magn",
    "2579": "rec",
    "2580": "rect",
    "2581": "Le ",
    "2582": "gue",
    "2583": "den",
    "2584": "son",
    "2585": "onee",
    "2586": "oneer",
    "2587": "ks",
    "2588": "ks ",
    "2589": "zec",
    "2590": "zech",
    "2591": "uel",
    "2592": "rial",
    "2593": "ock",
    "2594": "ocke",
    "2595": "ockey",
    "2596": "ogr",
    "2597": "ogra",
    "2598": "ng|",
    "2599": "ff",
    "2600": "air",
    "2601": "had",
    "2602": "had ",
    "2603": "' ",
    "2604": "sub",
    "2605": "sub ",
    "2606": "part",
    "2607": "llec",
    "2608": "llect",
    "2609": "et ",
    "2610": "embe",
    "2611": "ember",
    "2612": "plo",
    "2613": "plom",
    "2614": "ploma",
    "2615": "stan",
    "2616": "qu",
    "2617": "ipt",
    "2618": "f-",
    "2619": "vela",
    "2620": "velan",
    "2621": "eror",
    "2622": "ctur",
    "2623": "usi",
    "2624": "usic",
    "2625": "usan",
    "2626": "harl",
    "2627": "shin",
    "2628": "jor",
    "2629": "tn",
    "2630": "tna",
    "2631": "tnam",
    "2632": " \\",
    "2633": "Im",
    "2634": "Ima",
    "2635": "Imag",
    "2636": "wis",
    "2637": "uat",
    "2638": "war",
    "2639": "igat",
    "2640": "d o",
    "2641": "d of",
    "2642": "d of ",
    "2643": "Ag",
    "2644": "Age",
    "2645": "le t",
    "2646": "hen ",
    "2647": "s}",
    "2648": "row",
    "2649": "gover",
    "2650": "govern",
    "2651": "yste",
    "2652": "ystem",
    "2653": " --",
    "2654": "ign",
    "2655": "9,0",
    "2656": "9,00",
    "2657": "ory",
    "2658": "ory ",
    "2659": "V ",
    "2660": "gel",
    "2661": "Ins",
    "2662": "Inst",
    "2663": "Insti",
    "2664": "Instit",
    "2665": "leg",
    "2666": "lege",
    "2667": "tria",
    "2668": "yc",
    "2669": "ycl",
    "2670": "reat",
    "2671": "ora",
    "2672": "vate",
    "2673": "llel",
    "2674": "man",
    "2675": "many",
    "2676": "many ",
    "2677": "fen",
    "2678": "ji",
    "2679": "elp",
    "2680": "nt ",
    "2681": "Wes",
    "2682": "West",
    "2683": "chn",
    "2684": "vin",
    "2685": "ving",
    "2686": "ppy",
    "2687": "bour",
    "2688": "irs",
    "2689": "irst",
    "2690": "n'",
    "2691": "n't",
    "2692": "Wa",
    "2693": "War",
    "2694": "not ",
    "2695": "emn",
    "2696": "urs",
    "2697": "hd",
    "2698": "hda",
    "2699": "thing",
    "2700": "Se",
    "2701": "Sec",
    "2702": "Secr",
    "2703": "Secre",
    "2704": "ssi",
    "2705": "ssio",
    "2706": "ssion",
    "2707": "ow)",
    "2708": "orth",
    "2709": "vern",
    "2710": "bsi",
    "2711": "bsit",
    "2712": "irc",
    "2713": "PO",
    "2714": "Cz",
    "2715": "Cze",
    "2716": "Czec",
    "2717": "Czech",
    "2718": "unc",
    "2719": "unct",
    "2720": "neo",
    "2721": "neol",
    "2722": "fax",
    "2723": "rn ",
    "2724": "publ",
    "2725": "publi",
    "2726": "isl",
    "2727": "pea",
    "2728": "peak",
    "2729": "vem",
    "2730": "veme",
    "2731": "vemen",
    "2732": "iu",
    "2733": "th ",
    "2734": "rket",
    "2735": "Yar",
    "2736": "bat",
    "2737": "ded",
    "2738": "s A",
    "2739": "lie ",
    "2740": "ovemb",
    "2741": "ovembe",
    "2742": "read",
    "2743": "Conn",
    "2744": "Conne",
    "2745": "Connec",
    "2746": "Connect",
    "2747": "kf",
    "2748": "kfl",
    "2749": "kflo",
    "2750": "kflow",
    "2751": "ts ",
    "2752": "lim",
    "2753": "0)",
    "2754": "ata",
    "2755": "ound",
    "2756": "cas",
    "2757": "erial",
    "2758": " h",
    "2759": "also",
    "2760": "also ",
    "2761": "spir",
    "2762": "ndas",
    "2763": "nici",
    "2764": "nicip",
    "2765": "ama",
    "2766": "amas",
    "2767": "vide",
    "2768": "vided",
    "2769": "itic",
    "2770": "tec",
    "2771": "tech",
    "2772": "ave ",
    "2773": "nz",
    "2774": "nze",
    "2775": "mou",
    "2776": "mous",
    "2777": "lai",
    "2778": "laim",
    "2779": "iss",
    "2780": "zen",
    "2781": "Ai",
    "2782": "Air",
    "2783": "ima",
    "2784": "Mara",
    "2785": "Marat",
    "2786": "Marath",
    "2787": "tis",
    "2788": "ary",
    "2789": "Zea",
    "2790": "Zeal",
    "2791": "s t",
    "2792": "s to",
    "2793": "0s",
    "2794": "0s ",
    "2795": "the ",
    "2796": "ent",
    "2797": " F",
    "2798": " Fo",
    "2799": " For",
    "2800": " Forc",
    "2801": " Force",
    "2802": "dat",
    "2803": "tto",
    "2804": "dney",
    "2805": "imi",
    "2806": "imit",
    "2807": "fict",
    "2808": "hew",
    "2809": "que",
    "2810": "ram",
    "2811": "rame",
    "2812": "ubj",
    "2813": "ubje",
    "2814": "ubjec",
    "2815": "tle",
    "2816": "amilt",
    "2817": "200",
    "2818": "k ",
    "2819": "tia",
    "2820": "bort",
    "2821": "ome ",
    "2822": "2 -",
    "2823": "2 - ",
    "2824": "m)",
    "2825": "m) ",
    "2826": "dict",
    "2827": "llen",
    "2828": "#82",
    "2829": "gro",
    "2830": "east",
    "2831": ", ",
    "2832": "eda",
    "2833": "ho ",
    "2834": "*C",
    "2835": "*Cy",
    "2836": "*Cyt",
    "2837": "*Cyto",
    "2838": "mosp",
    "2839": "mosph",
    "2840": "ssel",
    "2841": "e m",
    "2842": "e mi",
    "2843": "e min",
    "2844": "e mini",
    "2845": "R,",
    "2846": "R, ",
    "2847": "ware",
    "2848": "f ",
    "2849": "oy",
    "2850": ". ",
    "2851": "gio",
    "2852": "gion",
    "2853": "ers",
    "2854": "own",
    "2855": "ousa",
    "2856": "ousan",
    "2857": "ew ",
    "2858": "te ",
    "2859": "log",
    "2860": "morp",
    "2861": "morph",
    "2862": "amed",
    "2863": "itiz",
    "2864": "itize",
    "2865": "itizen",
    "2866": "ustr",
    "2867": "zo",
    "2868": "hip",
    "2869": "udy",
    "2870": "articl",
    "2871": "article",
    "2872": "ince",
    "2873": "0, ",
    "2874": "to ",
    "2875": "ste",
    "2876": "stem",
    "2877": "tect",
    "2878": "inst",
    "2879": "insta",
    "2880": "plac",
    "2881": "place",
    "2882": "urd",
    "2883": "lut",
    "2884": "n-",
    "2885": "zabet",
    "2886": "bj",
    "2887": "bje",
    "2888": "bjec",
    "2889": "bject",
    "2890": "odu",
    "2891": "d f",
    "2892": "d fr",
    "2893": "d fro",
    "2894": "d from",
    "2895": "ould",
    "2896": "wed",
    "2897": "dve",
    "2898": "dver",
    "2899": "nue",
    "2900": "nsen",
    "2901": "nsens",
    "2902": "nsensu",
    "2903": "atu",
    "2904": "atur",
    "2905": "Har",
    "2906": "Harr",
    "2907": "Harri",
    "2908": "Harris",
    "2909": "Harriso",
    "2910": "Harrison",
    "2911": "German",
    "2912": "sit",
    "2913": "3 -",
    "2914": "3 - ",
    "2915": "lth",
    "2916": "valu",
    "2917": "value",
    "2918": "ek ",
    "2919": "dua",
    "2920": "Ne",
    "2921": "New",
    "2922": "ment",
    "2923": "eog",
    "2924": "eogr",
    "2925": "lifor",
    "2926": "liforn",
    "2927": "ften",
    "2928": "td ",
    "2929": "nit",
    "2930": "- ",
    "2931": "xp",
    "2932": "bsp",
    "2933": "Li",
    "2934": "Lis",
    "2935": "List",
    "2936": "Balm",
    "2937": "Balmora",
    "2938": "ferenc",
    "2939": "ference ",
    "2940": "Reside",
    "2941": "Residence",
    "2942": "Popul",
    "2943": "a fr",
    "2944": "a frequen",
    "2945": "ysic",
    "2946": "William",
    "2947": "symb",
    "2948": "symbol",
    "2949": "notion",
    "2950": "f' ",
    "2951": "so, ",
    "2952": "na, ",
    "2953": "Prote",
    "2954": "Protestan",
    "2955": "name ",
    "2956": "30",
    "2957": "usual",
    "2958": "lywood",
    "2959": "still ",
    "2960": "AF",
    "2961": "histor",
    "2962": "historian",
    "2963": "sease",
    "2964": "Nazi",
    "2965": "ne and ",
    "2966": "named",
    "2967": "ce br",
    "2968": "div",
    "2969": " two ",
    "2970": "ed to ",
    "2971": "kill",
    "2972": "rapid",
    "2973": "emerge",
    "2974": "t of ",
    "2975": "x (",
    "2976": "onement",
    "2977": "aria ",
    "2978": "d co",
    "2979": "comman",
    "2980": "t's ",
    "2981": " Africa",
    "2982": "theref",
    "2983": "therefore ",
    "2984": "Canada",
    "2985": "omsk",
    "2986": " own",
    "2987": "ick",
    "2988": "ickly ",
    "2989": "z, ",
    "2990": "ticket",
    "2991": "Heec",
    "2992": "Heechee",
    "2993": "(1.",
    "2994": "pular ",
    "2995": "iled ",
    "2996": "rise ",
    "2997": "holiday",
    "2998": "ois ",
    "2999": "ticus ",
    "3000": "romine",
    "3001": "rominent ",
    "3002": "memb",
    "3003": "members",
    "3004": "out, ",
    "3005": "dy, ",
    "3006": "zeros",
    "3007": "prehen",
    "3008": "tinue ",
    "3009": "the wor",
    "3010": "publishe",
    "3011": "off ",
    "3012": "issue ",
    "3013": "egan ",
    "3014": "ouglas",
    "3015": "dece",
    "3016": "decess",
    "3017": "placed ",
    "3018": "Dia",
    "3019": "team",
    "3020": "teams ",
    "3021": "ulated",
    "3022": "spera",
    "3023": "sperant",
    "3024": "father",
    "3025": "ugust ",
    "3026": "ugust 19",
    "3027": "umerous",
    "3028": "where",
    "3029": "von ",
    "3030": "war, ",
    "3031": "through",
    "3032": "15 ",
    "3033": "15 year",
    "3034": "updat",
    "3035": "eby ",
    "3036": "site ",
    "3037": "sembl",
    "3038": "your ",
    "3039": "Some ",
    "3040": "typical",
    "3041": "eel ",
    "3042": "ursive",
    "3043": "game ",
    "3044": "High",
    "3045": "entiti",
    "3046": "enever",
    "3047": "ing to ",
    "3048": "sence",
    "3049": "sence of ",
    "3050": "quid",
    "3051": "geons",
    "3052": "lju",
    "3053": "rarely",
    "3054": "nally ",
    "3055": "-cont",
    "3056": "-contine",
    "3057": "puted",
    "3058": "appo",
    "3059": "appoint",
    "3060": "inth ",
    "3061": "Merci",
    "3062": "epis",
    "3063": "episod",
    "3064": "ysian ",
    "3065": "neva",
    "3066": "women",
    "3067": "favo",
    "3068": "Club",
    "3069": "ciful",
    "3070": "rovemen",
    "3071": "tenes",
    "3072": "metric",
    "3073": "equili",
    "3074": "equilibr",
    "3075": "equilibriu",
    "3076": "photo",
    "3077": "ancien",
    "3078": "quite",
    "3079": "disco",
    "3080": "discovere",
    "3081": "least ",
    "3082": "oftw",
    "3083": "5:",
    "3084": "pture",
    "3085": "d out ",
    "3086": "oldi",
    "3087": "oldiers",
    "3088": "actic",
    "3089": "pini",
    "3090": "Bud",
    "3091": "ieve",
    "3092": "ieved ",
    "3093": "es*",
    "3094": "es*Ga",
    "3095": "es*Gamm",
    "3096": "y of ",
    "3097": "ymmet",
    "3098": "onal ",
    "3099": "FF",
    "3100": "sport",
    "3101": "the syst",
    "3102": "the system",
    "3103": "ended ",
    "3104": "growth",
    "3105": "st, ",
    "3106": "piscop",
    "3107": "piscopal",
    "3108": "rotect ",
    "3109": "roop",
    "3110": "joini",
    "3111": "joining ",
    "3112": "ecess",
    "3113": "ecessary",
    "3114": "via ",
    "3115": "Space ",
    "3116": "es res",
    "3117": "norar",
    "3118": "norary ",
    "3119": "tay ",
    "3120": "dormit",
    "3121": " sup",
    "3122": " sup2",
    "3123": "-add",
    "3124": "el of ",
    "3125": "I, ",
    "3126": "sever",
    "3127": "Book",
    "3128": "T 19",
    "3129": "ch, ",
    "3130": "perienc",
    "3131": "perienced ",
    "3132": "urban ",
    "3133": "won ",
    "3134": "gradua",
    "3135": "intell",
    "3136": "intellig",
    "3137": "old ",
    "3138": "old ci",
    "3139": "ssible",
    "3140": "gether ",
    "3141": "ectual",
    "3142": "venes",
    "3143": "little",
    "3144": " wor",
    "3145": " world ",
    "3146": " world pr",
    "3147": " world progra",
    "3148": "Henr",
    "3149": "Henry ",
    "3150": "night",
    "3151": "mura",
    "3152": "onscript",
    "3153": "turgy",
    "3154": "denied",
    "3155": "traff",
    "3156": "traffic ",
    "3157": "elie",
    "3158": "Washin",
    "3159": "Washingto",
    "3160": "eader",
    "3161": "oted ",
    "3162": "creatur",
    "3163": "ocuses",
    "3164": "provi",
    "3165": "province",
    "3166": "osely ",
    "3167": "imagin",
    "3168": "dyna",
    "3169": "example",
    "3170": "etween ",
    "3171": "ellig",
    "3172": "ogram",
    "3173": "ogram*19",
    "3174": "vention",
    "3175": "FC",
    "3176": "elytra",
    "3177": "World ",
    "3178": "World War",
    "3179": "rather",
    "3180": "large",
    "3181": "Tans",
    "3182": "Tansle",
    "3183": "Argent",
    "3184": "oduct ",
    "3185": "cross",
    "3186": "away ",
    "3187": "away from",
    "3188": "arlik",
    "3189": "SA",
    "3190": "nderson",
    "3191": "nderson, ",
    "3192": "grow ",
    "3193": "does ",
    "3194": "story ",
    "3195": "grown",
    "3196": "oxima",
    "3197": "peopl",
    "3198": "succe",
    "3199": "success",
    "3200": "Jews",
    "3201": "Milit",
    "3202": "Military",
    "3203": "Whi",
    "3204": "gation",
    "3205": "near ",
    "3206": "manusc",
    "3207": "trole",
    "3208": "troleum",
    "3209": "numbers",
    "3210": "stack",
    "3211": "atism",
    "3212": "/di",
    "3213": "/div",
    "3214": " Ca",
    "3215": " Caro",
    "3216": " Carolin",
    "3217": "xy",
    "3218": "xygen",
    "3219": "emsel",
    "3220": "emselves",
    "3221": "Turing",
    "3222": "ss of ",
    "3223": "ically ",
    "3224": "orgia",
    "3225": "issue of ",
    "3226": "serious",
    "3227": "auder",
    "3228": "auderdal",
    "3229": "scip",
    "3230": "NEF",
    "3231": " Psy",
    "3232": "s often",
    "3233": "agile ",
    "3234": "researc",
    "3235": "ignation",
    "3236": "acce",
    "3237": "access",
    "3238": "tmas",
    "3239": "umerian",
    "3240": "civil",
    "3241": "civiliz",
    "3242": "civilization",
    "3243": "wide",
    "3244": "widely ",
    "3245": "ducted",
    "3246": "tentia",
    "3247": "realis",
    "3248": "micro",
    "3249": " buil",
    "3250": "graph",
    "3251": "ng-",
    "3252": "structur",
    "3253": " AF",
    "3254": " AFC",
    "3255": "effe",
    "3256": "er, ",
    "3257": ".Cond",
    "3258": ".Conditio",
    "3259": ".Conditiona",
    "3260": "isol",
    "3261": "autho",
    "3262": "acti",
    "3263": "Chris",
    "3264": "merge",
    "3265": "mplifi",
    "3266": "ycling",
    "3267": "rticula",
    "3268": "gianc",
    "3269": " can",
    "3270": "up, ",
    "3271": "h edi",
    "3272": "h edition",
    "3273": "e /ma",
    "3274": "e /math ",
    "3275": "ration",
    "3276": "lity ",
    "3277": "centri",
    "3278": "cynic",
    "3279": "Text",
    "3280": "atisti",
    "3281": "pth ",
    "3282": "pth of ",
    "3283": "missi",
    "3284": "mes of ",
    "3285": "arting ",
    "3286": "tinu",
    "3287": "tinuous",
    "3288": "tta ",
    "3289": "bilit",
    "3290": "ecomes",
    "3291": "range",
    "3292": "Ab",
    "3293": "starte",
    "3294": "started ",
    "3295": " al",
    "3296": " always",
    "3297": "rning",
    "3298": " Ameri",
    "3299": "ved ",
    "3300": "utral",
    "3301": "ssation",
    "3302": "broth",
    "3303": "s and ",
    "3304": "s and over",
    "3305": "Contro",
    "3306": "yers ",
    "3307": " America",
    "3308": "rington",
    "3309": "gional",
    "3310": "ed of ",
    "3311": "keted ",
    "3312": "naval",
    "3313": "Unso",
    "3314": "Unsource",
    "3315": "ickn",
    "3316": "fined ",
    "3317": "mission",
    "3318": "xles",
    "3319": " line",
    "3320": "species",
    "3321": "nant ",
    "3322": "depend",
    "3323": "dependent",
    "3324": "Gibs",
    "3325": "amount ",
    "3326": "amount of ",
    "3327": "res*",
    "3328": "otect",
    "3329": "otected ",
    "3330": "move",
    "3331": "breedi",
    "3332": "breeding ",
    "3333": "rusa",
    "3334": "broa",
    "3335": "tour",
    "3336": "and 1",
    "3337": "Damas",
    "3338": "Damascus",
    "3339": "doct",
    "3340": "doctrin",
    "3341": "Iow",
    "3342": "when ",
    "3343": "ifically ",
    "3344": "dtd ",
    "3345": "canoni",
    "3346": "canonical",
    "3347": "ebr ",
    "3348": "MR",
    "3349": "MRS",
    "3350": "MRSA",
    "3351": "ership",
    "3352": "traditi",
    "3353": "traditiona",
    "3354": "traditional ",
    "3355": "t and ",
    "3356": "uppos",
    "3357": "raterre",
    "3358": "raterrestr",
    "3359": "raterrestrial",
    "3360": "drib",
    "3361": "or nea",
    "3362": "rans",
    "3363": "Jewis",
    "3364": "Jewish ",
    "3365": "avy ",
    "3366": "fferen",
    "3367": "fference",
    "3368": "copy ",
    "3369": "copy of ",
    "3370": "ed by ",
    "3371": "idemi",
    "3372": "cathed",
    "3373": "cathedral",
    "3374": "Oh",
    "3375": "Ohri",
    "3376": " took",
    "3377": "errupt",
    "3378": " T",
    "3379": " Tower",
    "3380": "orth A",
    "3381": "2. ",
    "3382": "leren",
    "3383": "Canter",
    "3384": "Canterbu",
    "3385": "Eucha",
    "3386": "Eucharis",
    "3387": "ozo",
    "3388": " towar",
    "3389": "orien",
    "3390": "oriented",
    "3391": "ograph",
    "3392": "celesti",
    "3393": "rence ",
    "3394": " Bru",
    "3395": "ities ",
    "3396": "radical",
    "3397": "footn",
    "3398": "ching ",
    "3399": "imals",
    "3400": "5 and 1",
    "3401": "lwa",
    "3402": "lwau",
    "3403": "Koo",
    "3404": "zer",
    "3405": "zerba",
    "3406": "als, ",
    "3407": "analy",
    "3408": "bandon",
    "3409": " total",
    "3410": "nition",
    "3411": "uici",
    "3412": "ad of ",
    "3413": "elow",
    "3414": "name",
    "3415": "spot",
    "3416": "nward",
    "3417": "charia",
    "3418": "quence",
    "3419": "ention",
    "3420": "fering",
    "3421": "azak",
    "3422": "wear ",
    "3423": "dense ",
    "3424": "5% ",
    "3425": "5% /t",
    "3426": "5% /td",
    "3427": "le of ",
    "3428": "4-",
    "3429": "ally ",
    "3430": "natur",
    "3431": "natural",
    "3432": "Tot",
    "3433": "Total",
    "3434": "rument",
    "3435": "ID",
    "3436": "mstan",
    "3437": "mstance",
    "3438": "insuff",
    "3439": "insuffici",
    "3440": "insufficient",
    "3441": "kingdo",
    "3442": "stantin",
    "3443": "B-1",
    "3444": "uff",
    "3445": "stic",
    "3446": "either",
    "3447": "cium",
    "3448": "my, ",
    "3449": "of Fa",
    "3450": "meters",
    "3451": "esoter",
    "3452": "radar",
    "3453": "refer",
    "3454": "arket",
    "3455": "massi",
    "3456": "massive ",
    "3457": "archi",
    "3458": "architect",
    "3459": "documen",
    "3460": "documentar",
    "3461": "guess",
    "3462": "ghters",
    "3463": " pro",
    "3464": " probab",
    "3465": " probabilit",
    "3466": "ecaus",
    "3467": "ecause ",
    "3468": "every ",
    "3469": "xed ",
    "3470": "r td ",
    "3471": "stantia",
    "3472": "task ",
    "3473": "Scien",
    "3474": "ongoin",
    "3475": "There ",
    "3476": "ce F",
    "3477": "ce Ficti",
    "3478": " known",
    "3479": "al p",
    "3480": "al psy",
    "3481": "n re",
    "3482": "n relat",
    "3483": "aa",
    "3484": "pansion",
    "3485": "reasona",
    "3486": "rectly ",
    "3487": "relat",
    "3488": "relative",
    "3489": "sional",
    "3490": "olution",
    "3491": " had ",
    "3492": "huge ",
    "3493": "pressu",
    "3494": "end of ",
    "3495": "pilat",
    "3496": "pilation",
    "3497": "ormed ",
    "3498": "throw",
    "3499": "minus",
    "3500": "from 1",
    "3501": "from 19",
    "3502": "diff",
    "3503": "difficul",
    "3504": "difficult ",
    "3505": "difficult to ",
    "3506": "rs. ",
    "3507": "istanc",
    "3508": "uous",
    "3509": "eter ",
    "3510": "entral",
    "3511": "derdal",
    "3512": "shones",
    "3513": "ping ",
    "3514": "cours",
    "3515": "Control ",
    "3516": "jor ",
    "3517": "jor Le",
    "3518": "jor Leag",
    "3519": "Tra",
    "3520": "Trans",
    "3521": "ason",
    "3522": "ason, ",
    "3523": "t sign",
    "3524": "t signal",
    "3525": "corres",
    "3526": "correspo",
    "3527": "et al",
    "3528": "tarted",
    "3529": "device",
    "3530": "itions",
    "3531": "scure",
    "3532": "ined ",
    "3533": "empire",
    "3534": "pkin",
    "3535": "erci",
    "3536": "x, ",
    "3537": "6 to ",
    "3538": "6 to 19",
    "3539": "nned ",
    "3540": "passe",
    "3541": "top ",
    "3542": "fall ",
    "3543": "Orth",
    "3544": "Orthod",
    "3545": "Orthodox",
    "3546": "fect ",
    "3547": "nistan",
    "3548": "held ",
    "3549": " aspe",
    "3550": "trans",
    "3551": "phase ",
    "3552": "vanced ",
    "3553": "remain",
    "3554": "chael ",
    "3555": "arpa",
    "3556": "align",
    "3557": " ca",
    "3558": " card",
    "3559": "urely ",
    "3560": "ised ",
    "3561": "Her",
    "3562": "ustrali",
    "3563": "ustralian ",
    "3564": "rganize",
    "3565": "Parl",
    "3566": "rotectio",
    "3567": "rtiona",
    "3568": "itable ",
    "3569": "itable for ",
    "3570": "made ",
    "3571": "D, ",
    "3572": "ipment",
    "3573": "spin ",
    "3574": "occus",
    "3575": "aspe",
    "3576": "5 /t",
    "3577": "ating ",
    "3578": "ences ",
    "3579": "nection",
    "3580": "dres",
    "3581": "dressed",
    "3582": "usion ",
    "3583": "identi",
    "3584": "identify",
    "3585": "progra",
    "3586": "viet ",
    "3587": "city",
    "3588": "kles",
    "3589": "bet ",
    "3590": "2) A",
    "3591": "Parlia",
    "3592": "Parliament",
    "3593": "aller ",
    "3594": "anaga",
    "3595": "anagawa",
    "3596": "feat ",
    "3597": "is ab",
    "3598": "dated ",
    "3599": "ssoo",
    "3600": "Yet ",
    "3601": "origin",
    "3602": "original",
    "3603": "Democr",
    "3604": "take ",
    "3605": "moder",
    "3606": "rant ",
    "3607": "ravel",
    "3608": "raveling",
    "3609": "month",
    "3610": "ghting",
    "3611": "unched",
    "3612": "rring",
    "3613": "ilm",
    "3614": "specif",
    "3615": "specifying",
    "3616": "ntas",
    "3617": "tt ",
    "3618": "ueno",
    "3619": "uenos A",
    "3620": "uenos Aire",
    "3621": "constell",
    "3622": "reaty ",
    "3623": "ellation",
    "3624": "Lake",
    "3625": "Lake ",
    "3626": "show ",
    "3627": "Card",
    "3628": "vasion",
    "3629": "uncil",
    "3630": "obtai",
    "3631": "obtain ",
    "3632": "-air",
    "3633": "vereignt",
    "3634": "vereignty ",
    "3635": "Charles ",
    "3636": "or more ",
    "3637": " of the ",
    "3638": "ademi",
    "3639": "border",
    "3640": "hrma",
    "3641": "hrmach",
    "3642": "ished ",
    "3643": "singl",
    "3644": "board",
    "3645": "well as ",
    "3646": "consider",
    "3647": "considerable ",
    "3648": "certai",
    "3649": "Sab",
    "3650": "Sabbat",
    "3651": "(s",
    "3652": "white ",
    "3653": "assed ",
    "3654": "tension",
    "3655": "anni",
    "3656": "annihil",
    "3657": "othei",
    "3658": "iscop",
    "3659": "Geogra",
    "3660": "Geograph",
    "3661": "whole",
    "3662": "flict",
    "3663": "eiving",
    "3664": "sures ",
    "3665": "aiss",
    "3666": "aissanc",
    "3667": "uslim",
    "3668": "North",
    "3669": "noff",
    "3670": "cision",
    "3671": "rca ",
    "3672": "leased ",
    "3673": "NF",
    "3674": "k br",
    "3675": "lves ",
    "3676": "went ",
    "3677": "guilt",
    "3678": " Pit",
    "3679": "web ",
    "3680": "web serv",
    "3681": "eace ",
    "3682": "eavily",
    "3683": " cam",
    "3684": "ffers",
    "3685": "ffers from",
    "3686": "inves",
    "3687": " notable ",
    "3688": "appea",
    "3689": "turns",
    "3690": "umbent ",
    "3691": "frast",
    "3692": "frastruct",
    "3693": "recurs",
    "3694": "recursive",
    "3695": "ufac",
    "3696": "ufactur",
    "3697": "him",
    "3698": "himsel",
    "3699": "gulate",
    "3700": "clare",
    "3701": "clared ",
    "3702": "migod",
    "3703": "having",
    "3704": "rthur",
    "3705": "areas ",
    "3706": "acult",
    "3707": "ward ",
    "3708": "omewh",
    "3709": "omewhat ",
    "3710": "became",
    "3711": "ditiona",
    "3712": "orhood",
    "3713": "0 or ",
    "3714": "around",
    "3715": "6 ali",
    "3716": "6 align",
    "3717": "follow",
    "3718": "sary ",
    "3719": "posit",
    "3720": "td b",
    "3721": "td bg",
    "3722": "td bgco",
    "3723": "td bgcolor",
    "3724": "turne",
    "3725": "subject",
    "3726": "istance ",
    "3727": "fift",
    "3728": "contro",
    "3729": "gado",
    "3730": "gadolin",
    "3731": "rganism",
    "3732": "make",
    "3733": "eractio",
    "3734": "think ",
    "3735": "trong ",
    "3736": "planati",
    "3737": "planation ",
    "3738": "and mat",
    "3739": "and math ",
    "3740": "New ",
    "3741": "lutely",
    "3742": "loni",
    "3743": "centage",
    "3744": "bine ",
    "3745": "abama",
    "3746": "4, p",
    "3747": "Martha",
    "3748": "havior",
    "3749": "9 /t",
    "3750": "orbit",
    "3751": "i*",
    "3752": "specifica",
    "3753": "self ",
    "3754": "pation",
    "3755": "risk ",
    "3756": "risk of ",
    "3757": "e.",
    "3758": "e.g",
    "3759": "correct",
    "3760": "ggle ",
    "3761": "agree",
    "3762": "agreement",
    "3763": "HE",
    "3764": ")|",
    "3765": "pletion",
    "3766": " assis",
    "3767": " assistan",
    "3768": "ncy ",
    "3769": "phili",
    "3770": "20th ",
    "3771": "geogra",
    "3772": "geograph",
    "3773": "-contro",
    "3774": "ydr",
    "3775": "eric ",
    "3776": " Inst",
    "3777": " Institu",
    "3778": "non-",
    "3779": "uppen",
    "3780": "army",
    "3781": "slang ",
    "3782": "aded ",
    "3783": "media",
    "3784": "urney",
    "3785": "nique",
    "3786": "effic",
    "3787": "efficien",
    "3788": "true ",
    "3789": "version",
    "3790": "th (",
    "3791": "on sp",
    "3792": "on sphere",
    "3793": "inclu",
    "3794": "including",
    "3795": "dedicat",
    "3796": "never",
    "3797": "verthel",
    "3798": "vertheles",
    "3799": "etent ",
    "3800": " sty",
    "3801": "visco",
    "3802": " is",
    "3803": " is, ",
    "3804": "aymon",
    "3805": "aymond ",
    "3806": "clare ",
    "3807": "ympto",
    "3808": "specify ",
    "3809": "movemen",
    "3810": "(D",
    "3811": "ponen",
    "3812": "bond",
    "3813": " you",
    "3814": "umpe",
    "3815": "ubse",
    "3816": "imal ",
    "3817": "conduct",
    "3818": "squ",
    "3819": "Intern",
    "3820": "Internation",
    "3821": "International",
    "3822": "Socie",
    "3823": "adequ",
    "3824": "adequate",
    "3825": "ension",
    "3826": "anne",
    "3827": "ormous",
    "3828": "untain",
    "3829": "is now",
    "3830": "fferent ",
    "3831": "result",
    "3832": "resulted ",
    "3833": "emeter",
    "3834": "parallel",
    "3835": "ffere",
    "3836": "mply ",
    "3837": "atable",
    "3838": "ondon",
    "3839": "derive ",
    "3840": "dth",
    "3841": "Cru",
    "3842": "Crusa",
    "3843": "br to",
    "3844": "br total",
    "3845": "moment",
    "3846": "toph",
    "3847": "etc.",
    "3848": "posoph",
    "3849": " bud",
    "3850": " budget",
    "3851": "ubate",
    "3852": "rnoo",
    "3853": "venue",
    "3854": "venues ",
    "3855": "bey ",
    "3856": "ruction",
    "3857": "pable",
    "3858": "Prussia",
    "3859": "oglo",
    "3860": "ality",
    "3861": "Britan",
    "3862": "Britannic",
    "3863": "Bio",
    "3864": "Bioche",
    "3865": "Biochemi",
    "3866": "strip",
    "3867": "aaa",
    "3868": "formed ",
    "3869": "laye",
    "3870": "Gore ",
    "3871": "alge",
    "3872": "algebr",
    "3873": "memor",
    "3874": "tade",
    "3875": "Euras",
    "3876": "Eurasia",
    "3877": "record",
    "3878": "lized ",
    "3879": "Vari",
    "3880": "imsel",
    "3881": "attem",
    "3882": "attempt ",
    "3883": "pension",
    "3884": "possess",
    "3885": "prac",
    "3886": "practic",
    "3887": "bidd",
    "3888": "ibiot",
    "3889": "ndows",
    "3890": "bined ",
    "3891": "connect",
    "3892": "connection",
    "3893": "three ",
    "3894": "knowled",
    "3895": "ccompa",
    "3896": "ccompani",
    "3897": "ohn ",
    "3898": "versal",
    "3899": "force ",
    "3900": "ybo",
    "3901": "yboard",
    "3902": "oling",
    "3903": "uch of ",
    "3904": "yone ",
    "3905": "trictio",
    "3906": "reer ",
    "3907": "sister",
    "3908": "sive ",
    "3909": "parts of ",
    "3910": "EF",
    "3911": "ue li",
    "3912": "ue light",
    "3913": "N /ma",
    "3914": "N /math ",
    "3915": "ted ",
    "3916": "ted St",
    "3917": "ted State",
    "3918": "rgini",
    "3919": "Cent",
    "3920": "Centur",
    "3921": "western",
    "3922": "le for ",
    "3923": "zing ",
    "3924": "a-",
    "3925": "collect",
    "3926": "mension",
    "3927": "isot",
    "3928": "isotope",
    "3929": "dj",
    "3930": "djace",
    "3931": "canic ",
    "3932": "urnass",
    "3933": "Mud",
    "3934": "based",
    "3935": "based o",
    "3936": "based on ",
    "3937": "HI",
    "3938": "tless",
    "3939": "lar ",
    "3940": "babilit",
    "3941": "name of ",
    "3942": "nd pre",
    "3943": "althoug",
    "3944": "although ",
    "3945": "mental",
    "3946": "rgely ",
    "3947": "urpos",
    "3948": "added ",
    "3949": "ffic ",
    "3950": "Thai",
    "3951": "70s, ",
    "3952": "Guinness",
    "3953": "member ",
    "3954": "instea",
    "3955": "ontro",
    "3956": "ontrolled",
    "3957": "size",
    "3958": "ntenc",
    "3959": "ntence ",
    "3960": " Sa",
    "3961": " Saint",
    "3962": "genera",
    "3963": "generally ",
    "3964": "levisi",
    "3965": "does not ",
    "3966": "dept",
    "3967": "depth ",
    "3968": "depth of ",
    "3969": "grew ",
    "3970": "onical",
    "3971": "award",
    "3972": "awarded ",
    "3973": "transport",
    "3974": "Many ",
    "3975": "h I",
    "3976": "oval",
    "3977": "las ",
    "3978": "Bod",
    "3979": "Bodhis",
    "3980": "Bodhisat",
    "3981": "stone ",
    "3982": "Eli",
    "3983": "Elizabet",
    "3984": "Life",
    "3985": "ying to ",
    "3986": "ginning",
    "3987": "levision ",
    "3988": "Line",
    "3989": "Lineba",
    "3990": "perform",
    "3991": "sts ",
    "3992": " by ",
    "3993": "0 |",
    "3994": "ssoci",
    "3995": "rode",
    "3996": "rodes ",
    "3997": "phen",
    "3998": "phenome",
    "3999": "phenomeno",
    "4000": "ind ",
    "4001": "lthough",
    "4002": "to be ",
    "4003": "ened ",
    "4004": "rted ",
    "4005": "arant",
    "4006": "outpu",
    "4007": "wing",
    "4008": "Caro",
    "4009": "Cycli",
    "4010": "hard",
    "4011": "hardware",
    "4012": "compan",
    "4013": "companied",
    "4014": "/write",
    "4015": "termin",
    "4016": "termine ",
    "4017": "positio",
    "4018": "position ",
    "4019": "legisl",
    "4020": "finitio",
    "4021": "sell ",
    "4022": "esign",
    "4023": "Second",
    "4024": "smolog",
    "4025": "enment",
    "4026": "ick ",
    "4027": " that t",
    "4028": " that time",
    "4029": "7 |",
    "4030": "7 ||",
    "4031": "third",
    "4032": "ue to ",
    "4033": "ommi",
    "4034": "gital",
    "4035": "Germany",
    "4036": "Germany, ",
    "4037": "ucive ",
    "4038": "ww",
    "4039": "60 ndas",
    "4040": "60 ndash",
    "4041": "human",
    "4042": "root ",
    "4043": "rock ",
    "4044": "etermi",
    "4045": "raise",
    "4046": " for ",
    "4047": "zegov",
    "4048": "cohol",
    "4049": "Tg",
    "4050": "cises",
    "4051": "yed ",
    "4052": "signal",
    "4053": "nnect",
    "4054": "ddle ",
    "4055": "Leibn",
    "4056": "Leibniz",
    "4057": "n of ",
    "4058": "etwork",
    "4059": "uine ",
    "4060": "t al",
    "4061": "t alco",
    "4062": "t alcohol",
    "4063": "tetra",
    "4064": "Secretar",
    "4065": "ried ",
    "4066": "philo",
    "4067": "philoso",
    "4068": "philosoph",
    "4069": "8)*",
    "4070": "constant",
    "4071": "smond",
    "4072": "ynar",
    "4073": "sket",
    "4074": "sketball",
    "4075": "possibl",
    "4076": "pioneer",
    "4077": "peration",
    "4078": "rib",
    "4079": "ribbe",
    "4080": "systems",
    "4081": "Tali",
    "4082": "Taliba",
    "4083": "mmet",
    "4084": "Sovie",
    "4085": "fly ",
    "4086": "gamma",
    "4087": "k, ",
    "4088": "tice ",
    "4089": "the Europe",
    "4090": "the European ",
    "4091": " note",
    "4092": "owship",
    "4093": "thul",
    "4094": "Termi",
    "4095": "Terminu",
    "4096": "rrang",
    "4097": "formanc",
    "4098": "rcast",
    "4099": "among ",
    "4100": "situat",
    "4101": "w, ",
    "4102": "fluenced ",
    "4103": "cces",
    "4104": "ural",
    "4105": " front",
    "4106": " frontie",
    "4107": "thical",
    "4108": "d that",
    "4109": "ndle",
    "4110": "DD",
    "4111": "DDC",
    "4112": "gas ",
    "4113": "gas mas",
    "4114": "timber",
    "4115": "traini",
    "4116": "icycl",
    "4117": "particula",
    "4118": "commun",
    "4119": "communicat",
    "4120": "lecom",
    "4121": "lecommun",
    "4122": "lecommunicat",
    "4123": "tchell",
    "4124": "es, ",
    "4125": "k of ",
    "4126": "ctave",
    "4127": "Georg",
    "4128": "mpering",
    "4129": " was ",
    "4130": "as of ",
    "4131": " is ",
    "4132": "trovers",
    "4133": "ecture",
    "4134": "merchan",
    "4135": "Alco",
    "4136": "Alcohol",
    "4137": "colleg",
    "4138": "ory of ",
    "4139": "1 |",
    "4140": "oductio",
    "4141": "orced ",
    "4142": "orced to ",
    "4143": "estial",
    "4144": "deal",
    "4145": "propo",
    "4146": "proporti",
    "4147": "ttp",
    "4148": "ttp:",
    "4149": "ttp:/",
    "4150": "Software ",
    "4151": "7br",
    "4152": " are ",
    "4153": "implie",
    "4154": "bano",
    "4155": "otechn",
    "4156": "5 /td",
    "4157": "respe",
    "4158": "ators",
    "4159": "pure ",
    "4160": "ssure ",
    "4161": "k /t",
    "4162": "becom",
    "4163": "become ",
    "4164": "oont",
    "4165": " Fac",
    "4166": " Facult",
    "4167": "rage ",
    "4168": "Saint",
    "4169": "build",
    "4170": "math ",
    "4171": "famously ",
    "4172": "ch (",
    "4173": "lizat",
    "4174": "lization",
    "4175": "ng, ",
    "4176": "rose ",
    "4177": "ficial",
    "4178": "N, ",
    "4179": "0% ",
    "4180": " ma",
    "4181": " machin",
    "4182": "icular ",
    "4183": "Hawa",
    "4184": "urned ",
    "4185": "consist",
    "4186": "consists of ",
    "4187": "tual ",
    "4188": "circ",
    "4189": "could",
    "4190": "been ",
    "4191": "cache",
    "4192": " since",
    "4193": "wis ",
    "4194": "tgu",
    "4195": "ene*",
    "4196": "lated ",
    "4197": "lated to ",
    "4198": "AI",
    "4199": "AID",
    "4200": "gree of ",
    "4201": " area",
    "4202": " area of ",
    "4203": "neorea",
    "4204": "neorealis",
    "4205": "lten ",
    "4206": "atest ",
    "4207": "ensi",
    "4208": "ensive ",
    "4209": "film",
    "4210": "knes",
    "4211": "00 and ",
    "4212": "series",
    "4213": "series of ",
    "4214": "Ital",
    "4215": "rab ",
    "4216": "60-",
    "4217": "concen",
    "4218": "concentra",
    "4219": ")*a",
    "4220": ")*aa",
    "4221": "antum",
    "4222": "uxe",
    "4223": "uxemb",
    "4224": "ninete",
    "4225": "nineteent",
    "4226": "tereo",
    "4227": "Visa",
    "4228": "tacle",
    "4229": "ocar",
    "4230": "ocarbo",
    "4231": "ulous",
    "4232": "Pit",
    "4233": "idence ",
    "4234": "reduc",
    "4235": "reduces ",
    "4236": "rtific",
    "4237": "sted ",
    "4238": "rrie",
    "4239": "s tend",
    "4240": "cepted ",
    "4241": "elloc",
    "4242": "visions",
    "4243": "ntz ",
    "4244": " bat",
    "4245": " battle",
    "4246": "Ireland",
    "4247": "May ",
    "4248": "May 200",
    "4249": "Tai",
    "4250": "Taiwa",
    "4251": "imula",
    "4252": "imulate ",
    "4253": "detai",
    "4254": "detaine",
    "4255": "% ab",
    "4256": "% abv",
    "4257": "to-",
    "4258": "fication",
    "4259": "ugust",
    "4260": "antage",
    "4261": "antenna",
    "4262": "cotic",
    "4263": "saw ",
    "4264": "lude ",
    "4265": "World War I",
    "4266": "17",
    "4267": "eature",
    "4268": ". For",
    "4269": "However",
    "4270": "However, ",
    "4271": "xture",
    "4272": "fied ",
    "4273": "ladi",
    "4274": "ladimi",
    "4275": " point",
    "4276": " Ch",
    "4277": " Chris",
    "4278": "ybr",
    "4279": "ybrid",
    "4280": "Gamm",
    "4281": "cient ",
    "4282": "influen",
    "4283": "nized ",
    "4284": "lusion",
    "4285": "n the ",
    "4286": "letter",
    "4287": "ly Rom",
    "4288": "ly Roman ",
    "4289": "oice of ",
    "4290": "everal",
    "4291": "ciety ",
    "4292": "constellation",
    "4293": "scinat",
    "4294": "prom",
    "4295": "candi",
    "4296": "candidat",
    "4297": "tempor",
    "4298": "temporari",
    "4299": "temporarily ",
    "4300": "tinely",
    "4301": "wishe",
    "4302": "litera",
    "4303": "n's ",
    "4304": "His ",
    "4305": "things ",
    "4306": "hot ",
    "4307": "pecie",
    "4308": "dicating",
    "4309": "once ",
    "4310": "mdash",
    "4311": "ussian ",
    "4312": "ained ",
    "4313": "importanc",
    "4314": "importance ",
    "4315": "importance of ",
    "4316": "justi",
    "4317": "justify",
    "4318": "slaught",
    "4319": "pel ",
    "4320": "e 19",
    "4321": "ethic",
    "4322": "earne",
    "4323": "earned ",
    "4324": "amplifi",
    "4325": "tables ",
    "4326": "assifi",
    "4327": "assified ",
    "4328": "arithm",
    "4329": "eventua",
    "4330": "eventually ",
    "4331": "edure",
    "4332": "piness",
    "4333": "cts ",
    "4334": "earlie",
    "4335": "ctive ",
    "4336": "lfred",
    "4337": "minate",
    "4338": "minated ",
    "4339": "slo ",
    "4340": "6 year",
    "4341": "6 yearsb",
    "4342": "6 yearsbr ",
    "4343": "mination",
    "4344": "Otto",
    "4345": "Ottoman",
    "4346": " of Je",
    "4347": " of Jesus",
    "4348": "produ",
    "4349": "operti",
    "4350": "nbsp;",
    "4351": " liv",
    "4352": " living",
    "4353": "ties ",
    "4354": "Britain",
    "4355": "endenc",
    "4356": "level",
    "4357": "dvant",
    "4358": "dvantage",
    "4359": " mal",
    "4360": " maleb",
    "4361": " malebr ",
    "4362": "Californ",
    "4363": "tached",
    "4364": "ission",
    "4365": "aluat",
    "4366": "xtract",
    "4367": "lerat",
    "4368": "coming",
    "4369": "ruled",
    "4370": "llins",
    "4371": "t-",
    "4372": "Western",
    "4373": "4 met",
    "4374": "4 metres",
    "4375": "pril ",
    "4376": "deva",
    "4377": "ouis ",
    "4378": "ficien",
    "4379": "ntime",
    "4380": "scopic ",
    "4381": "belief ",
    "4382": "ternation",
    "4383": "(15",
    "4384": "Melch",
    "4385": "Melchart",
    "4386": "juris",
    "4387": "jurisdict",
    "4388": "jurisdiction",
    "4389": "9 - ",
    "4390": "numero",
    "4391": "numerous ",
    "4392": "64 ",
    "4393": "64 year",
    "4394": "y-",
    "4395": "easib",
    "4396": "astron",
    "4397": "space",
    "4398": "atic ",
    "4399": "opath",
    "4400": "roval",
    "4401": "During",
    "4402": "During th",
    "4403": "ready ",
    "4404": "i-",
    "4405": "tva",
    "4406": "risen ",
    "4407": "orly ",
    "4408": "tinue",
    "4409": "then ",
    "4410": "resent",
    "4411": "oral ",
    "4412": "served ",
    "4413": "sack",
    "4414": "immun",
    "4415": "immunog",
    "4416": "immunoglo",
    "4417": "ground",
    "4418": "crosoft",
    "4419": "ality ",
    "4420": "zarre",
    "4421": "manent",
    "4422": "differen",
    "4423": "p, ",
    "4424": "naly",
    "4425": "yzant",
    "4426": "ming ",
    "4427": "four",
    "4428": "ir Force",
    "4429": "urround",
    "4430": "annual",
    "4431": "deal of ",
    "4432": "llment",
    "4433": "standa",
    "4434": "standard",
    "4435": "frey",
    "4436": "ce, ",
    "4437": "center",
    "4438": "up to ",
    "4439": "gebr",
    "4440": "2 year",
    "4441": "wiki",
    "4442": "legal",
    "4443": "happen",
    "4444": "dian ",
    "4445": "pedition",
    "4446": "s the ",
    "4447": "loyal",
    "4448": "Spanish",
    "4449": "folk",
    "4450": "Hun",
    "4451": "hind ",
    "4452": "edly ",
    "4453": "Treat",
    "4454": "Franc",
    "4455": "naba",
    "4456": "nabapt",
    "4457": "Japanes",
    "4458": "egin",
    "4459": "eginning",
    "4460": "olate",
    "4461": "endant",
    "4462": " -|",
    "4463": "bsites ",
    "4464": "pound",
    "4465": "scept",
    "4466": "volves ",
    "4467": "institu",
    "4468": "es not ",
    "4469": "ppel",
    "4470": "emingl",
    "4471": "jace",
    "4472": "eatment",
    "4473": "hy",
    "4474": "hydr",
    "4475": "portion",
    "4476": "carr",
    "4477": "family",
    "4478": " hea",
    "4479": "cancel",
    "4480": "7:",
    "4481": "flect",
    "4482": "garet ",
    "4483": "dolla",
    "4484": "ionship",
    "4485": "selves",
    "4486": "Base",
    "4487": "Baseball",
    "4488": "frequen",
    "4489": "WO",
    "4490": "WOR",
    "4491": "vertis",
    "4492": "a's ",
    "4493": "works ",
    "4494": "item",
    "4495": "mean",
    "4496": "rcles",
    "4497": "rpose",
    "4498": "-2",
    "4499": "metime",
    "4500": "1% /t",
    "4501": "1% /td",
    "4502": "sense",
    "4503": "University ",
    "4504": "University of ",
    "4505": " Te",
    "4506": "include",
    "4507": "alco",
    "4508": "alcohol",
    "4509": " abu",
    "4510": "Cotto",
    "4511": "apt ",
    "4512": "aning",
    "4513": "ttom ",
    "4514": "icaea",
    "4515": "dinbu",
    "4516": "dinburg",
    "4517": "Charl",
    "4518": "Charlton",
    "4519": "ntly ",
    "4520": "4 fam",
    "4521": "4 famili",
    "4522": "advan",
    "4523": "She ",
    "4524": "my ",
    "4525": "pharma",
    "4526": "marrie",
    "4527": "rupt",
    "4528": "ruptcy",
    "4529": "aspect",
    "4530": "Rai",
    "4531": "Rail",
    "4532": "ories",
    "4533": "Doc",
    "4534": "Doctri",
    "4535": "augment",
    "4536": "erpret",
    "4537": "erpretation",
    "4538": "aila",
    "4539": "living",
    "4540": " and 19",
    "4541": "dard",
    "4542": "Canada /t",
    "4543": "3-Eu",
    "4544": " speak",
    "4545": " speakers",
    "4546": "victo",
    "4547": "ne of ",
    "4548": "much ",
    "4549": "de.*19",
    "4550": "te, ",
    "4551": " home",
    "4552": " homeles",
    "4553": "mewh",
    "4554": "mewhat ",
    "4555": "pogra",
    "4556": "pograph",
    "4557": "ttle of ",
    "4558": "itle",
    "4559": "zens of ",
    "4560": "taining",
    "4561": "vision ",
    "4562": "MS ",
    "4563": "ypes ",
    "4564": "less of ",
    "4565": "ritrea",
    "4566": "inoza",
    "4567": "scipline",
    "4568": "fession",
    "4569": "efore ",
    "4570": "Natur",
    "4571": "xity ",
    "4572": "jective",
    "4573": "m, ",
    "4574": "5 |",
    "4575": "5 ||",
    "4576": "logist",
    "4577": "peak of ",
    "4578": "= 6 a",
    "4579": "= 6 ali",
    "4580": "= 6 align",
    "4581": "Criti",
    "4582": "Critical",
    "4583": "gulat",
    "4584": "Alexand",
    "4585": "ture ",
    "4586": "re to ",
    "4587": "Middl",
    "4588": "Middle ",
    "4589": "ce be",
    "4590": "ce betwee",
    "4591": "onito",
    "4592": "abase",
    "4593": " other",
    "4594": "pace ",
    "4595": "Costa",
    "4596": "love ",
    "4597": "ierm",
    "4598": "ierment",
    "4599": "eart ",
    "4600": "West ",
    "4601": "West |",
    "4602": "itati",
    "4603": "rol ",
    "4604": "Central",
    "4605": "rocket",
    "4606": "sis f",
    "4607": "sis for ",
    "4608": "male ",
    "4609": "itive ",
    "4610": "ustrian",
    "4611": "render",
    "4612": "P add",
    "4613": "P address",
    "4614": "werful",
    "4615": "ble of ",
    "4616": " his ",
    "4617": "swit",
    "4618": "switchin",
    "4619": "switching ",
    "4620": "nberg",
    "4621": "nefi",
    "4622": "locate",
    "4623": "ising ",
    "4624": "reduced ",
    "4625": "petit",
    "4626": "la ",
    "4627": "t/",
    "4628": " occu",
    "4629": " occurs",
    "4630": "s than ",
    "4631": "icipa",
    "4632": "minist",
    "4633": "atta",
    "4634": "attack",
    "4635": "ponent ",
    "4636": "hasis ",
    "4637": "stored",
    "4638": "primar",
    "4639": "primarily",
    "4640": "stinati",
    "4641": "stination ",
    "4642": "QB",
    "4643": "wing ",
    "4644": " has ",
    "4645": "documentary ",
    "4646": "ining ",
    "4647": "important",
    "4648": "cryst",
    "4649": "en, ",
    "4650": "virtua",
    "4651": "virtually ",
    "4652": "vided ",
    "4653": "vided int",
    "4654": "vided into ",
    "4655": "0 ||",
    "4656": "stand ",
    "4657": "h cen",
    "4658": "h centur",
    "4659": "Sex ",
    "4660": "Sex rat",
    "4661": "ging ",
    "4662": "50 /t",
    "4663": "50 /td",
    "4664": "Juda",
    "4665": " sea",
    "4666": "Byz",
    "4667": "Byzant",
    "4668": "plus ",
    "4669": "ffs ",
    "4670": "arily ",
    "4671": "oxid",
    "4672": "Demo",
    "4673": "Demogra",
    "4674": "Demograph",
    "4675": "vary ",
    "4676": "icate "
  },
  "merges": {
    "71,68": 92,
    "92,64": 93,
    "68,70": 94,
    "94,64": 95,
    "47,74": 96,
    "96,72": 97,
    "80,78": 98,
    "98,62": 99,
    "99,80": 100,
    "100,71": 101,
    "75,60": 102,
    "102,68": 103,
    "103,73": 104,
    "68,63": 105,
    "105,60": 106,
    "106,84": 107,
    "13,9": 108,
    "74,71": 109,
    "109,80": 110,
    "110,79": 111,
    "80,64": 112,
    "112,1": 113,
    "66,64": 114,
    "114,79": 115,
    "115,60": 116,
    "72,64": 117,
    "74,75": 118,
    "118,75": 119,
    "119,64": 120,
    "120,63": 121,
    "44,36": 122,
    "122,38": 123,
    "78,79": 124,
    "124,74": 125,
    "79,60": 126,
    "126,68": 127,
    "81,64": 128,
    "128,71": 129,
    "24,11": 130,
    "74,82": 131,
    "131,64": 132,
    "132,81": 133,
    "24,1": 134,
    "62,60": 135,
    "135,73": 136,
    "84,72": 137,
    "137,75": 138,
    "77,84": 139,
    "139,1": 140,
    "66,71": 141,
    "80,77": 142,
    "142,68": 143,
    "143,73": 144,
    "77,13": 145,
    "145,1": 146,
    "81,60": 147,
    "70,73": 148,
    "148,74": 149,
    "149,82": 150,
    "80,73": 151,
    "151,63": 152,
    "64,62": 153,
    "153,74": 154,
    "73,74": 155,
    "155,79": 156,
    "60,80": 157,
    "157,71": 158,
    "64,70": 159,
    "26,16": 160,
    "84,78": 161,
    "161,68": 162,
    "162,78": 163,
    "67,60": 164,
    "164,73": 165,
    "165,1": 166,
    "80,62": 167,
    "37,74": 168,
    "168,73": 169,
    "169,66": 170,
    "68,71": 171,
    "171,84": 172,
    "98,60": 173,
    "173,63": 174,
    "61,84": 175,
    "66,66": 176,
    "176,64": 177,
    "177,78": 178,
    "178,79": 179,
    "77,64": 180,
    "180,63": 181,
    "82,64": 182,
    "182,78": 183,
    "183,79": 184,
    "63,60": 185,
    "185,84": 186,
    "1,79": 187,
    "187,67": 188,
    "188,60": 189,
    "189,79": 190,
    "78,84": 191,
    "191,78": 192,
    "192,79": 193,
    "68,62": 194,
    "194,60": 195,
    "195,73": 196,
    "74,73": 197,
    "197,68": 198,
    "198,60": 199,
    "72,68": 200,
    "200,73": 201,
    "68,66": 202,
    "202,77": 203,
    "63,64": 204,
    "204,77": 205,
    "205,68": 206,
    "126,79": 207,
    "207,68": 208,
    "66,78": 209,
    "64,66": 210,
    "210,74": 211,
    "211,73": 212,
    "1,74": 213,
    "213,65": 214,
    "214,1": 215,
    "33,1": 216,
    "216,12": 217,
    "217,12": 218,
    "79,68": 219,
    "219,71": 220,
    "220,71": 221,
    "60,71": 222,
    "222,74": 223,
    "180,64": 224,
    "224,1": 225,
    "66,60": 226,
    "226,72": 227,
    "71,74": 228,
    "228,62": 229,
    "229,68": 230,
    "79,67": 231,
    "231,60": 232,
    "232,73": 233,
    "16,1": 234,
    "64,60": 235,
    "235,73": 236,
    "236,78": 237,
    "237,1": 238,
    "167,67": 239,
    "239,1": 240,
    "240,60": 241,
    "241,78": 242,
    "98,64": 243,
    "75,80": 244,
    "244,61": 245,
    "81,74": 246,
    "231,68": 247,
    "247,73": 248,
    "60,72": 249,
    "249,72": 250,
    "180,72": 251,
    "126,61": 252,
    "252,71": 253,
    "253,64": 254,
    "68,79": 255,
    "255,80": 256,
    "62,67": 257,
    "81,68": 258,
    "258,78": 259,
    "259,68": 260,
    "180,1": 261,
    "64,63": 262,
    "262,1": 263,
    "82,77": 264,
    "32,74": 265,
    "265,77": 266,
    "266,79": 267,
    "48,75": 268,
    "268,60": 269,
    "61,64": 270,
    "270,71": 271,
    "271,68": 272,
    "272,64": 273,
    "132,77": 274,
    "64,77": 275,
    "275,68": 276,
    "276,74": 277,
    "277,63": 278,
    "258,71": 279,
    "279,84": 280,
    "67,67": 281,
    "281,67": 282,
    "68,78": 283,
    "283,60": 284,
    "284,72": 285,
    "285,61": 286,
    "73,73": 287,
    "287,68": 288,
    "288,78": 289,
    "82,74": 290,
    "84,68": 291,
    "291,73": 292,
    "64,71": 293,
    "293,63": 294,
    "60,73": 295,
    "295,62": 296,
    "118,74": 297,
    "61,80": 298,
    "73,60": 299,
    "299,79": 300,
    "275,60": 301,
    "78,70": 302,
    "302,77": 303,
    "303,68": 304,
    "72,60": 305,
    "305,66": 306,
    "77,60": 307,
    "307,78": 308,
    "70,64": 309,
    "309,77": 310,
    "73,64": 311,
    "311,66": 312,
    "312,68": 313,
    "21,11": 314,
    "314,1": 315,
    "68,65": 316,
    "316,68": 317,
    "317,62": 318,
    "74,79": 319,
    "319,61": 320,
    "320,60": 321,
    "321,71": 322,
    "322,71": 323,
    "31,74": 324,
    "324,82": 325,
    "325,71": 326,
    "82,60": 327,
    "60,78": 328,
    "328,1": 329,
    "257,60": 330,
    "330,73": 331,
    "331,68": 332,
    "60,63": 333,
    "333,63": 334,
    "219,62": 335,
    "74,74": 336,
    "336,75": 337,
    "78,67": 338,
    "79,74": 339,
    "339,70": 340,
    "340,80": 341,
    "79,77": 342,
    "342,60": 343,
    "343,78": 344,
    "344,79": 345,
    "197,79": 346,
    "346,67": 347,
    "79,79": 348,
    "348,64": 349,
    "349,77": 350,
    "49,67": 351,
    "64,1": 352,
    "74,72": 353,
    "353,60": 354,
    "354,73": 355,
    "77,79": 356,
    "356,64": 357,
    "74,81": 358,
    "358,64": 359,
    "359,72": 360,
    "360,64": 361,
    "361,73": 362,
    "171,63": 363,
    "74,77": 364,
    "364,70": 365,
    "231,72": 366,
    "353,75": 367,
    "75,68": 368,
    "368,77": 369,
    "293,60": 370,
    "370,73": 371,
    "353,1": 372,
    "75,64": 373,
    "373,77": 374,
    "374,68": 375,
    "68,81": 376,
    "376,64": 377,
    "82,68": 378,
    "378,79": 379,
    "379,67": 380,
    "63,77": 381,
    "77,77": 382,
    "382,64": 383,
    "383,73": 384,
    "295,66": 385,
    "78,80": 386,
    "386,62": 387,
    "387,67": 388,
    "6,78": 389,
    "389,1": 390,
    "79,62": 391,
    "391,67": 392,
    "371,63": 393,
    "79,84": 394,
    "394,1": 395,
    "63,74": 396,
    "396,82": 397,
    "397,73": 398,
    "295,63": 399,
    "399,1": 400,
    "77,81": 401,
    "401,64": 402,
    "255,64": 403,
    "403,63": 404,
    "78,74": 405,
    "79,80": 406,
    "406,60": 407,
    "77,68": 408,
    "408,64": 409,
    "409,78": 410,
    "311,60": 411,
    "64,68": 412,
    "412,73": 413,
    "413,66": 414,
    "62,64": 415,
    "415,1": 416,
    "75,78": 417,
    "78,68": 418,
    "418,61": 419,
    "419,71": 420,
    "373,63": 421,
    "421,68": 422,
    "422,60": 423,
    "60,76": 424,
    "36,74": 425,
    "425,78": 426,
    "426,75": 427,
    "77,74": 428,
    "428,72": 429,
    "18,1": 430,
    "430,14": 431,
    "431,78": 432,
    "432,80": 433,
    "75,74": 434,
    "434,77": 435,
    "435,79": 436,
    "72,61": 437,
    "437,68": 438,
    "438,66": 439,
    "439,80": 440,
    "48,84": 441,
    "441,78": 442,
    "442,79": 443,
    "202,68": 444,
    "444,73": 445,
    "128,78": 446,
    "43,44": 447,
    "61,60": 448,
    "448,71": 449,
    "42,64": 450,
    "450,83": 451,
    "451,68": 452,
    "452,62": 453,
    "69,80": 454,
    "454,77": 455,
    "30,11": 456,
    "456,1": 457,
    "124,60": 458,
    "66,74": 459,
    "459,71": 460,
    "328,79": 461,
    "461,60": 462,
    "80,72": 463,
    "463,64": 464,
    "142,62": 465,
    "465,64": 466,
    "1,38": 467,
    "73,63": 468,
    "468,74": 469,
    "428,80": 470,
    "470,66": 471,
    "71,79": 472,
    "157,66": 473,
    "434,78": 474,
    "70,60": 475,
    "197,71": 476,
    "476,84": 477,
    "73,80": 478,
    "478,72": 479,
    "479,61": 480,
    "480,64": 481,
    "68,77": 482,
    "482,1": 483,
    "408,79": 484,
    "60,77": 485,
    "73,66": 486,
    "486,64": 487,
    "42,60": 488,
    "488,77": 489,
    "38,77": 490,
    "490,60": 491,
    "35,42": 492,
    "492,33": 493,
    "43,34": 494,
    "364,77": 495,
    "495,74": 496,
    "496,77": 497,
    "64,74": 498,
    "62,79": 499,
    "499,74": 500,
    "500,61": 501,
    "85,1": 502,
    "124,1": 503,
    "503,74": 504,
    "504,65": 505,
    "505,1": 506,
    "65,74": 507,
    "507,77": 508,
    "508,1": 509,
    "65,68": 510,
    "510,73": 511,
    "7,1": 512,
    "484,74": 513,
    "513,77": 514,
    "14,79": 515,
    "226,66": 516,
    "102,73": 517,
    "128,73": 518,
    "77,63": 519,
    "68,64": 520,
    "62,70": 521,
    "386,71": 522,
    "522,79": 523,
    "74,61": 524,
    "524,69": 525,
    "525,64": 526,
    "526,62": 527,
    "62,74": 528,
    "528,73": 529,
    "529,78": 530,
    "530,79": 531,
    "49,64": 532,
    "532,73": 533,
    "533,73": 534,
    "228,82": 535,
    "535,60": 536,
    "536,73": 537,
    "537,62": 538,
    "30,72": 539,
    "539,64": 540,
    "540,77": 541,
    "541,68": 542,
    "232,79": 543,
    "520,82": 544,
    "80,75": 545,
    "66,68": 546,
    "546,79": 547,
    "71,64": 548,
    "548,79": 549,
    "85,60": 550,
    "550,79": 551,
    "77,62": 552,
    "552,64": 553,
    "67,74": 554,
    "554,80": 555,
    "555,77": 556,
    "556,78": 557,
    "98,79": 558,
    "558,1": 559,
    "68,75": 560,
    "364,71": 561,
    "561,63": 562,
    "324,77": 563,
    "164,61": 564,
    "564,68": 565,
    "565,79": 566,
    "60,66": 567,
    "567,64": 568,
    "62,80": 569,
    "569,79": 570,
    "72,74": 571,
    "571,77": 572,
    "572,64": 573,
    "573,1": 574,
    "37,64": 575,
    "575,68": 576,
    "576,66": 577,
    "577,67": 578,
    "60,68": 579,
    "579,73": 580,
    "33,45": 581,
    "68,73": 582,
    "582,64": 583,
    "552,68": 584,
    "584,78": 585,
    "283,68": 586,
    "36,64": 587,
    "587,77": 588,
    "588,72": 589,
    "589,60": 590,
    "74,78": 591,
    "591,79": 592,
    "592,1": 593,
    "84,77": 594,
    "594,68": 595,
    "595,60": 596,
    "180,78": 597,
    "364,1": 598,
    "80,71": 599,
    "599,63": 600,
    "71,60": 601,
    "601,79": 602,
    "602,64": 603,
    "603,1": 604,
    "65,71": 605,
    "605,80": 606,
    "606,64": 607,
    "607,73": 608,
    "7,16": 609,
    "609,24": 610,
    "71,71": 611,
    "611,64": 612,
    "612,84": 613,
    "555,78": 614,
    "348,71": 615,
    "75,75": 616,
    "47,38": 617,
    "617,48": 618,
    "132,63": 619,
    "78,75": 620,
    "620,64": 621,
    "621,71": 622,
    "182,71": 623,
    "23,15": 624,
    "74,68": 625,
    "625,63": 626,
    "582,60": 627,
    "61,74": 628,
    "32,67": 629,
    "629,60": 630,
    "630,75": 631,
    "631,71": 632,
    "578,79": 633,
    "185,72": 634,
    "634,64": 635,
    "625,73": 636,
    "356,68": 637,
    "84,74": 638,
    "638,80": 639,
    "21,15": 640,
    "143,79": 641,
    "64,83": 642,
    "642,60": 643,
    "643,73": 644,
    "644,63": 645,
    "109,81": 646,
    "646,64": 647,
    "76,1": 648,
    "648,71": 649,
    "649,60": 650,
    "650,73": 651,
    "651,66": 652,
    "652,80": 653,
    "62,62": 654,
    "654,80": 655,
    "655,72": 656,
    "656,80": 657,
    "202,67": 658,
    "658,61": 659,
    "601,73": 660,
    "660,66": 661,
    "661,80": 662,
    "5,1": 663,
    "628,74": 664,
    "664,70": 665,
    "319,67": 666,
    "666,1": 667,
    "356,67": 668,
    "64,80": 669,
    "669,79": 670,
    "485,1": 671,
    "63,68": 672,
    "672,80": 673,
    "49,60": 674,
    "674,72": 675,
    "675,60": 676,
    "70,68": 677,
    "80,79": 678,
    "69,64": 679,
    "187,74": 680,
    "293,84": 681,
    "164,78": 682,
    "554,63": 683,
    "73,79": 684,
    "684,77": 685,
    "685,84": 686,
    "142,79": 687,
    "687,67": 688,
    "688,64": 689,
    "64,73": 690,
    "690,64": 691,
    "249,74": 692,
    "692,73": 693,
    "693,63": 694,
    "20,79": 695,
    "695,67": 696,
    "77,11": 697,
    "697,1": 698,
    "1,12": 699,
    "68,72": 700,
    "700,64": 701,
    "701,73": 702,
    "72,75": 703,
    "703,79": 704,
    "64,72": 705,
    "705,64": 706,
    "706,73": 707,
    "60,81": 708,
    "708,64": 709,
    "92,78": 710,
    "710,67": 711,
    "672,79": 712,
    "712,68": 713,
    "60,75": 714,
    "714,60": 715,
    "73,68": 716,
    "716,72": 717,
    "364,73": 718,
    "705,75": 719,
    "437,71": 720,
    "180,73": 721,
    "721,62": 722,
    "722,67": 723,
    "391,13": 724,
    "197,78": 725,
    "725,79": 726,
    "726,60": 727,
    "727,73": 728,
    "70,74": 729,
    "311,73": 730,
    "80,63": 731,
    "636,79": 732,
    "377,77": 733,
    "231,74": 734,
    "734,80": 735,
    "735,66": 736,
    "234,14": 737,
    "737,78": 738,
    "738,80": 739,
    "545,78": 740,
    "63,80": 741,
    "741,77": 742,
    "742,68": 743,
    "743,73": 744,
    "744,66": 745,
    "167,60": 746,
    "642,79": 747,
    "79,64": 748,
    "748,77": 749,
    "135,66": 750,
    "750,74": 751,
    "64,78": 752,
    "66,77": 753,
    "60,62": 754,
    "571,62": 755,
    "755,77": 756,
    "82,61": 757,
    "757,74": 758,
    "758,84": 759,
    "60,79": 760,
    "760,68": 761,
    "761,74": 762,
    "762,73": 763,
    "62,71": 764,
    "764,68": 765,
    "765,63": 766,
    "43,1": 767,
    "767,61": 768,
    "768,77": 769,
    "197,1": 770,
    "249,61": 771,
    "118,79": 772,
    "12,12": 773,
    "412,81": 774,
    "15,15": 775,
    "775,1": 776,
    "249,68": 777,
    "777,71": 778,
    "64,81": 779,
    "779,64": 780,
    "484,68": 781,
    "781,78": 782,
    "528,81": 783,
    "783,64": 784,
    "784,77": 785,
    "552,67": 786,
    "63,84": 787,
    "787,1": 788,
    "47,64": 789,
    "789,75": 790,
    "790,80": 791,
    "791,61": 792,
    "13,48": 793,
    "77,71": 794,
    "794,64": 795,
    "795,78": 796,
    "796,1": 797,
    "295,1": 798,
    "328,64": 799,
    "799,63": 800,
    "800,1": 801,
    "425,71": 802,
    "802,60": 803,
    "803,73": 804,
    "510,62": 805,
    "77,66": 806,
    "806,60": 807,
    "807,73": 808,
    "290,77": 809,
    "809,63": 810,
    "64,76": 811,
    "811,80": 812,
    "812,64": 813,
    "813,73": 814,
    "153,68": 815,
    "2,12": 816,
    "64,82": 817,
    "67,80": 818,
    "818,77": 819,
    "819,62": 820,
    "820,67": 821,
    "78,78": 822,
    "68,1": 823,
    "754,67": 824,
    "64,75": 825,
    "825,79": 826,
    "826,64": 827,
    "827,72": 828,
    "828,61": 829,
    "255,67": 830,
    "16,16": 831,
    "171,68": 832,
    "832,79": 833,
    "532,62": 834,
    "834,67": 835,
    "52,74": 836,
    "836,77": 837,
    "62,77": 838,
    "838,64": 839,
    "84,60": 840,
    "840,71": 841,
    "129,74": 842,
    "19,11": 843,
    "843,1": 844,
    "703,64": 845,
    "845,77": 846,
    "197,66": 847,
    "1,14": 848,
    "299,63": 849,
    "418,63": 850,
    "850,64": 851,
    "548,73": 852,
    "852,63": 853,
    "853,60": 854,
    "854,77": 855,
    "283,79": 856,
    "31,77": 857,
    "857,68": 858,
    "858,79": 859,
    "859,68": 860,
    "860,78": 861,
    "305,84": 862,
    "862,1": 863,
    "275,84": 864,
    "864,1": 865,
    "228,77": 866,
    "679,74": 867,
    "485,79": 868,
    "868,68": 869,
    "869,62": 870,
    "870,80": 871,
    "871,71": 872,
    "872,60": 873,
    "307,75": 874,
    "257,64": 875,
    "875,63": 876,
    "643,72": 877,
    "164,77": 878,
    "386,78": 879,
    "224,70": 880,
    "318,60": 881,
    "881,73": 882,
    "508,62": 883,
    "30,79": 884,
    "884,60": 885,
    "885,77": 886,
    "611,84": 887,
    "187,63": 888,
    "468,1": 889,
    "889,79": 890,
    "890,74": 891,
    "891,1": 892,
    "364,79": 893,
    "305,71": 894,
    "894,71": 895,
    "418,73": 896,
    "311,1": 897,
    "752,79": 898,
    "67,68": 899,
    "899,64": 900,
    "900,81": 901,
    "82,1": 902,
    "1,71": 903,
    "903,60": 904,
    "904,73": 905,
    "905,66": 906,
    "906,80": 907,
    "258,66": 908,
    "908,60": 909,
    "548,62": 910,
    "910,79": 911,
    "554,82": 912,
    "912,1": 913,
    "14,1": 914,
    "75,79": 915,
    "915,1": 916,
    "67,64": 917,
    "917,77": 918,
    "68,74": 919,
    "919,77": 920,
    "64,61": 921,
    "200,71": 922,
    "922,60": 923,
    "923,77": 924,
    "486,79": 925,
    "925,67": 926,
    "14,78": 927,
    "927,80": 928,
    "246,71": 929,
    "929,81": 930,
    "930,64": 931,
    "74,62": 932,
    "932,80": 933,
    "933,72": 934,
    "548,61": 935,
    "935,77": 936,
    "299,73": 937,
    "42,33": 938,
    "838,80": 939,
    "939,68": 940,
    "940,78": 941,
    "941,64": 942,
    "52,64": 943,
    "943,61": 944,
    "3,23": 945,
    "678,67": 946,
    "105,64": 947,
    "255,68": 948,
    "948,74": 949,
    "508,72": 950,
    "899,62": 951,
    "951,60": 952,
    "952,66": 953,
    "571,78": 954,
    "954,79": 955,
    "339,61": 956,
    "499,80": 957,
    "255,74": 958,
    "147,79": 959,
    "65,64": 960,
    "21,1": 961,
    "961,12": 962,
    "962,1": 963,
    "68,85": 964,
    "296,67": 965,
    "672,73": 966,
    "966,66": 967,
    "80,67": 968,
    "968,60": 969,
    "969,72": 970,
    "679,62": 971,
    "971,79": 972,
    "249,64": 973,
    "31,32": 974,
    "171,64": 975,
    "975,1": 976,
    "171,79": 977,
    "977,74": 978,
    "978,73": 979,
    "434,71": 980,
    "126,73": 981,
    "599,79": 982,
    "342,68": 983,
    "114,73": 984,
    "984,79": 985,
    "167,68": 986,
    "986,73": 987,
    "599,80": 988,
    "351,64": 989,
    "989,1": 990,
    "34,80": 991,
    "991,77": 992,
    "992,74": 993,
    "993,75": 994,
    "994,64": 995,
    "429,1": 996,
    "12,16": 997,
    "270,1": 998,
    "20,11": 999,
    "999,1": 1000,
    "753,64": 1001,
    "899,74": 1002,
    "580,79": 1003,
    "265,73": 1004,
    "611,68": 1005,
    "1005,60": 1006,
    "1006,72": 1007,
    "194,80": 1008,
    "1008,71": 1009,
    "1009,60": 1010,
    "293,71": 1011,
    "42,68": 1012,
    "1012,73": 1013,
    "1013,68": 1014,
    "1014,78": 1015,
    "73,69": 1016,
    "1016,74": 1017,
    "1017,80": 1018,
    "1018,77": 1019,
    "68,60": 1020,
    "754,70": 1021,
    "1021,1": 1022,
    "200,64": 1023,
    "1023,78": 1024,
    "36,77": 1025,
    "1025,64": 1026,
    "678,68": 1027,
    "142,64": 1028,
    "1028,60": 1029,
    "1029,79": 1030,
    "85,68": 1031,
    "428,81": 1032,
    "71,80": 1033,
    "275,77": 1034,
    "1034,64": 1035,
    "529,74": 1036,
    "601,67": 1037,
    "32,60": 1038,
    "1038,73": 1039,
    "1039,60": 1040,
    "63,73": 1041,
    "1041,64": 1042,
    "283,72": 1043,
    "49,30": 1044,
    "47,49": 1045,
    "1020,71": 1046,
    "582,79": 1047,
    "82,73": 1048,
    "275,64": 1049,
    "147,68": 1050,
    "1050,71": 1051,
    "270,63": 1052,
    "71,63": 1053,
    "1053,1": 1054,
    "79,63": 1055,
    "298,79": 1056,
    "1056,1": 1057,
    "92,65": 1058,
    "1058,74": 1059,
    "60,1": 1060,
    "72,84": 1061,
    "74,80": 1062,
    "1062,79": 1063,
    "582,1": 1064,
    "38,73": 1065,
    "264,68": 1066,
    "1066,79": 1067,
    "60,70": 1068,
    "1068,60": 1069,
    "1069,73": 1070,
    "554,74": 1071,
    "1071,63": 1072,
    "63,81": 1073,
    "74,60": 1074,
    "1074,63": 1075,
    "548,60": 1076,
    "1076,78": 1077,
    "84,75": 1078,
    "1078,79": 1079,
    "257,1": 1080,
    "471,67": 1081,
    "74,70": 1082,
    "64,79": 1083,
    "1083,64": 1084,
    "23,1": 1085,
    "1085,12": 1086,
    "1,7": 1087,
    "1087,63": 1088,
    "1088,13": 1089,
    "1089,1": 1090,
    "32,84": 1091,
    "1091,79": 1092,
    "1092,74": 1093,
    "703,80": 1094,
    "1094,79": 1095,
    "485,71": 1096,
    "61,71": 1097,
    "1097,68": 1098,
    "1098,78": 1099,
    "780,77": 1100,
    "449,71": 1101,
    "7,61": 1102,
    "1102,74": 1103,
    "1103,77": 1104,
    "1104,73": 1105,
    "669,78": 1106,
    "219,64": 1107,
    "219,74": 1108,
    "1108,73": 1109,
    "19,1": 1110,
    "1110,12": 1111,
    "1111,1": 1112,
    "1038,71": 1113,
    "1113,68": 1114,
    "1114,65": 1115,
    "1115,74": 1116,
    "319,64": 1117,
    "1117,77": 1118,
    "62,1": 1119,
    "24,8": 1120,
    "752,1": 1121,
    "893,80": 1122,
    "1122,73": 1123,
    "359,71": 1124,
    "428,62": 1125,
    "155,72": 1126,
    "85,64": 1127,
    "1127,63": 1128,
    "1128,1": 1129,
    "731,68": 1130,
    "335,71": 1131,
    "1131,64": 1132,
    "74,65": 1133,
    "1133,1": 1134,
    "684,67": 1135,
    "899,78": 1136,
    "275,61": 1137,
    "94,68": 1138,
    "128,77": 1139,
    "1139,64": 1140,
    "1140,68": 1141,
    "1141,66": 1142,
    "327,78": 1143,
    "75,1": 1144,
    "45,60": 1145,
    "1145,66": 1146,
    "1146,64": 1147,
    "36,80": 1148,
    "1148,68": 1149,
    "1149,63": 1150,
    "1150,64": 1151,
    "171,71": 1152,
    "1152,68": 1153,
    "1153,60": 1154,
    "1154,72": 1155,
    "353,64": 1156,
    "54,60": 1157,
    "1157,73": 1158,
    "1158,70": 1159,
    "1159,64": 1160,
    "1160,64": 1161,
    "35,77": 1162,
    "1162,64": 1163,
    "1163,73": 1164,
    "60,65": 1165,
    "1136,79": 1166,
    "175,1": 1167,
    "126,66": 1168,
    "1168,64": 1169,
    "73,62": 1170,
    "78,71": 1171,
    "135,80": 1172,
    "1172,78": 1173,
    "8,11": 1174,
    "1174,1": 1175,
    "79,85": 1176,
    "54,74": 1177,
    "1177,77": 1178,
    "1178,70": 1179,
    "408,62": 1180,
    "1180,60": 1181,
    "1181,71": 1182,
    "247,74": 1183,
    "1183,75": 1184,
    "114,77": 1185,
    "83,60": 1186,
    "73,84": 1187,
    "65,77": 1188,
    "948,78": 1189,
    "499,1": 1190,
    "92,79": 1191,
    "1191,68": 1192,
    "1192,62": 1193,
    "640,78": 1194,
    "1165,79": 1195,
    "1195,64": 1196,
    "485,66": 1197,
    "1197,64": 1198,
    "78,9": 1199,
    "165,66": 1200,
    "1149,73": 1201,
    "80,61": 1202,
    "1202,71": 1203,
    "1203,68": 1204,
    "62,13": 1205,
    "142,66": 1206,
    "1206,64": 1207,
    "1207,78": 1208,
    "33,69": 1209,
    "1209,68": 1210,
    "1210,61": 1211,
    "1211,74": 1212,
    "1212,80": 1213,
    "65,60": 1214,
    "1214,72": 1215,
    "1215,74": 1216,
    "1216,80": 1217,
    "1217,78": 1218,
    "66,79": 1219,
    "1219,74": 1220,
    "151,79": 1221,
    "692,80": 1222,
    "1222,78": 1223,
    "520,63": 1224,
    "1,78": 1225,
    "912,73": 1226,
    "77,72": 1227,
    "1227,60": 1228,
    "73,78": 1229,
    "1229,64": 1230,
    "507,74": 1231,
    "1231,63": 1232,
    "403,77": 1233,
    "33,60": 1234,
    "1234,73": 1235,
    "1235,68": 1236,
    "1236,78": 1237,
    "1237,67": 1238,
    "295,80": 1239,
    "1239,60": 1240,
    "1240,77": 1241,
    "338,64": 1242,
    "9,16": 1243,
    "63,63": 1244,
    "70,72": 1245,
    "1245,8": 1246,
    "964,74": 1247,
    "142,73": 1248,
    "31,60": 1249,
    "1249,73": 1250,
    "1250,66": 1251,
    "1251,71": 1252,
    "72,72": 1253,
    "37,60": 1254,
    "1254,72": 1255,
    "1255,68": 1256,
    "1256,71": 1257,
    "532,60": 1258,
    "1258,62": 1259,
    "1259,67": 1260,
    "625,62": 1261,
    "1261,64": 1262,
    "1053,64": 1263,
    "1263,73": 1264,
    "519,60": 1265,
    "1265,73": 1266,
    "117,63": 1267,
    "9,54": 1268,
    "418,60": 1269,
    "932,67": 1270,
    "30,77": 1271,
    "1271,79": 1272,
    "1272,68": 1273,
    "1273,62": 1274,
    "1274,71": 1275,
    "202,60": 1276,
    "1,73": 1277,
    "1277,74": 1278,
    "1278,79": 1279,
    "220,1": 1280,
    "425,63": 1281,
    "405,1": 1282,
    "1139,78": 1283,
    "408,78": 1284,
    "195,79": 1285,
    "1062,77": 1286,
    "548,1": 1287,
    "78,64": 1288,
    "1288,77": 1289,
    "1289,81": 1290,
    "49,68": 1291,
    "1291,66": 1292,
    "1292,77": 1293,
    "459,77": 1294,
    "66,73": 1295,
    "415,72": 1296,
    "1296,61": 1297,
    "231,64": 1298,
    "1298,77": 1299,
    "339,82": 1300,
    "1300,73": 1301,
    "270,77": 1302,
    "1302,79": 1303,
    "780,71": 1304,
    "66,84": 1305,
    "1305,75": 1306,
    "1306,79": 1307,
    "81,84": 1308,
    "386,77": 1309,
    "255,84": 1310,
    "1310,1": 1311,
    "226,79": 1312,
    "359,63": 1313,
    "838,68": 1314,
    "39,60": 1315,
    "1315,62": 1316,
    "1316,70": 1317,
    "41,1": 1318,
    "1318,61": 1319,
    "1319,77": 1320,
    "194,71": 1321,
    "1321,64": 1322,
    "611,60": 1323,
    "428,79": 1324,
    "1324,67": 1325,
    "316,74": 1326,
    "1326,77": 1327,
    "1327,73": 1328,
    "63,66": 1329,
    "1329,64": 1330,
    "1062,66": 1331,
    "1331,67": 1332,
    "61,78": 1333,
    "65,84": 1334,
    "27,1": 1335,
    "257,68": 1336,
    "1336,73": 1337,
    "195,71": 1338,
    "582,66": 1339,
    "1339,71": 1340,
    "1340,64": 1341,
    "569,72": 1342,
    "1342,64": 1343,
    "1343,73": 1344,
    "716,78": 1345,
    "1314,75": 1346,
    "1346,79": 1347,
    "117,77": 1348,
    "1348,68": 1349,
    "418,62": 1350,
    "654,74": 1351,
    "1351,77": 1352,
    "1352,63": 1353,
    "71,72": 1354,
    "408,74": 1355,
    "1355,77": 1356,
    "77,1": 1357,
    "1357,14": 1358,
    "1358,78": 1359,
    "1359,80": 1360,
    "92,75": 1361,
    "48,62": 1362,
    "1362,74": 1363,
    "1363,79": 1364,
    "1049,73": 1365,
    "482,63": 1366,
    "1033,64": 1367,
    "1367,73": 1368,
    "60,61": 1369,
    "1369,71": 1370,
    "415,73": 1371,
    "194,68": 1372,
    "1372,60": 1373,
    "554,75": 1374,
    "691,77": 1375,
    "1375,60": 1376,
    "947,77": 1377,
    "838,60": 1378,
    "690,62": 1379,
    "1379,67": 1380,
    "753,60": 1381,
    "33,44": 1382,
    "1382,43": 1383,
    "1383,34": 1384,
    "62,68": 1385,
    "1385,64": 1386,
    "1386,73": 1387,
    "15,11": 1388,
    "485,64": 1389,
    "1389,1": 1390,
    "301,66": 1391,
    "165,62": 1392,
    "601,78": 1393,
    "1393,78": 1394,
    "293,79": 1395,
    "546,62": 1396,
    "50,1": 1397,
    "1288,78": 1398,
    "1398,78": 1399,
    "30,71": 1400,
    "1400,64": 1401,
    "1401,83": 1402,
    "73,1": 1403,
    "1403,61": 1404,
    "1404,77": 1405,
    "699,1": 1406,
    "401,68": 1407,
    "1407,62": 1408,
    "1408,64": 1409,
    "629,68": 1410,
    "1410,73": 1411,
    "74,66": 1412,
    "79,82": 1413,
    "1413,64": 1414,
    "1414,64": 1415,
    "1156,78": 1416,
    "1416,79": 1417,
    "612,63": 1418,
    "77,80": 1419,
    "1419,62": 1420,
    "1420,79": 1421,
    "364,78": 1422,
    "1422,64": 1423,
    "228,84": 1424,
    "508,64": 1425,
    "43,60": 1426,
    "1426,70": 1427,
    "1427,60": 1428,
    "1428,73": 1429,
    "64,11": 1430,
    "1430,1": 1431,
    "197,60": 1432,
    "1432,79": 1433,
    "1385,73": 1434,
    "66,8": 1435,
    "108,16": 1436,
    "1436,24": 1437,
    "20,1": 1438,
    "1438,60": 1439,
    "1439,73": 1440,
    "1440,63": 1441,
    "1441,1": 1442,
    "222,68": 1443,
    "932,68": 1444,
    "1,30": 1445,
    "147,73": 1446,
    "485,77": 1447,
    "472,68": 1448,
    "359,77": 1449,
    "1449,73": 1450,
    "80,68": 1451,
    "168,77": 1452,
    "1452,60": 1453,
    "1453,62": 1454,
    "222,64": 1455,
    "1455,73": 1456,
    "157,78": 1457,
    "338,68": 1458,
    "1458,75": 1459,
    "74,64": 1460,
    "1460,1": 1461,
    "311,79": 1462,
    "1370,64": 1463,
    "92,73": 1464,
    "406,77": 1465,
    "246,68": 1466,
    "1466,63": 1467,
    "760,64": 1468,
    "1468,66": 1469,
    "1469,74": 1470,
    "1470,77": 1471,
    "21,79": 1472,
    "1472,67": 1473,
    "164,79": 1474,
    "654,68": 1475,
    "1475,73": 1476,
    "486,80": 1477,
    "92,74": 1478,
    "1478,73": 1479,
    "84,64": 1480,
    "118,71": 1481,
    "197,64": 1482,
    "1482,78": 1483,
    "1063,67": 1484,
    "615,64": 1485,
    "155,82": 1486,
    "63,13": 1487,
    "83,68": 1488,
    "1488,62": 1489,
    "611,74": 1490,
    "1490,82": 1491,
    "428,73": 1492,
    "408,73": 1493,
    "1493,66": 1494,
    "305,77": 1495,
    "32,68": 1496,
    "1496,73": 1497,
    "1497,62": 1498,
    "36,68": 1499,
    "1499,60": 1500,
    "1500,73": 1501,
    "1501,79": 1502,
    "309,79": 1503,
    "408,66": 1504,
    "1504,67": 1505,
    "1505,79": 1506,
    "1062,73": 1507,
    "1507,62": 1508,
    "48,1": 1509,
    "1448,62": 1510,
    "621,62": 1511,
    "627,79": 1512,
    "80,66": 1513,
    "1513,67": 1514,
    "1514,79": 1515,
    "554,71": 1516,
    "126,77": 1517,
    "917,72": 1518,
    "1518,60": 1519,
    "1227,86": 1520,
    "222,84": 1521,
    "1521,78": 1522,
    "1522,68": 1523,
    "1523,78": 1524,
    "167,79": 1525,
    "1525,80": 1526,
    "1526,77": 1527,
    "22,11": 1528,
    "1528,1": 1529,
    "961,60": 1530,
    "1530,73": 1531,
    "1531,63": 1532,
    "599,60": 1533,
    "135,72": 1534,
    "1534,64": 1535,
    "682,1": 1536,
    "39,80": 1537,
    "1033,72": 1538,
    "899,77": 1539,
    "1539,74": 1540,
    "1540,75": 1541,
    "1541,77": 1542,
    "34,73": 1543,
    "1543,66": 1544,
    "1544,71": 1545,
    "716,73": 1546,
    "1546,66": 1547,
    "311,78": 1548,
    "1548,78": 1549,
    "358,68": 1550,
    "1550,64": 1551,
    "1551,79": 1552,
    "464,73": 1553,
    "328,78": 1554,
    "838,74": 1555,
    "126,71": 1556,
    "52,38": 1557,
    "545,64": 1558,
    "1558,77": 1559,
    "32,43": 1560,
    "1560,48": 1561,
    "1561,1": 1562,
    "118,64": 1563,
    "1474,1": 1564,
    "500,77": 1565,
    "554,78": 1566,
    "1566,79": 1567,
    "78,1": 1568,
    "1568,74": 1569,
    "1569,65": 1570,
    "1570,1": 1571,
    "485,68": 1572,
    "194,1": 1573,
    "1277,63": 1574,
    "1574,60": 1575,
    "1575,78": 1576,
    "62,76": 1577,
    "1577,80": 1578,
    "1171,60": 1579,
    "628,71": 1580,
    "848,79": 1581,
    "1170,79": 1582,
    "1,40": 1583,
    "1583,74": 1584,
    "1584,73": 1585,
    "1585,66": 1586,
    "1025,74": 1587,
    "1587,80": 1588,
    "1085,61": 1589,
    "1589,77": 1590,
    "33,64": 1591,
    "64,64": 1592,
    "1592,63": 1593,
    "316,64": 1594,
    "919,80": 1595,
    "1595,78": 1596,
    "17,11": 1597,
    "258,74": 1598,
    "1598,80": 1599,
    "102,77": 1600,
    "1600,60": 1601,
    "364,64": 1602,
    "1602,1": 1603,
    "917,64": 1604,
    "1604,78": 1605,
    "1605,64": 1606,
    "197,63": 1607,
    "139,75": 1608,
    "1608,79": 1609,
    "528,77": 1610,
    "1610,63": 1611,
    "983,64": 1612,
    "135,79": 1613,
    "917,1": 1614,
    "84,71": 1615,
    "1615,64": 1616,
    "185,78": 1617,
    "82,71": 1618,
    "309,63": 1619,
    "17,1": 1620,
    "56,72": 1621,
    "1621,60": 1622,
    "1622,79": 1623,
    "1385,71": 1624,
    "75,77": 1625,
    "1625,68": 1626,
    "8,1": 1627,
    "7,63": 1628,
    "1628,13": 1629,
    "1629,1": 1630,
    "226,77": 1631,
    "1631,63": 1632,
    "38,13": 1633,
    "51,68": 1634,
    "144,66": 1635,
    "164,81": 1636,
    "1636,64": 1637,
    "82,67": 1638,
    "1638,68": 1639,
    "1639,62": 1640,
    "1640,67": 1641,
    "415,71": 1642,
    "1642,71": 1643,
    "752,68": 1644,
    "1644,63": 1645,
    "60,85": 1646,
    "1646,68": 1647,
    "447,1": 1648,
    "1648,38": 1649,
    "171,74": 1650,
    "1650,79": 1651,
    "79,78": 1652,
    "917,63": 1653,
    "842,75": 1654,
    "591,74": 1655,
    "396,77": 1656,
    "35,60": 1657,
    "1657,77": 1658,
    "1658,74": 1659,
    "1659,64": 1660,
    "1229,79": 1661,
    "71,1": 1662,
    "34,1": 1663,
    "1663,12": 1664,
    "109,74": 1665,
    "307,77": 1666,
    "73,77": 1667,
    "262,64": 1668,
    "1668,77": 1669,
    "1188,68": 1670,
    "222,71": 1671,
    "1671,64": 1672,
    "1672,63": 1673,
    "465,67": 1674,
    "764,64": 1675,
    "80,60": 1676,
    "295,60": 1677,
    "1677,63": 1678,
    "856,74": 1679,
    "52,68": 1680,
    "1680,79": 1681,
    "1681,67": 1682,
    "181,68": 1683,
    "1683,64": 1684,
    "1684,73": 1685,
    "13,75": 1686,
    "1686,73": 1687,
    "1687,66": 1688,
    "219,79": 1689,
    "1689,80": 1690,
    "1315,75": 1691,
    "1691,60": 1692,
    "1692,73": 1693,
    "1,60": 1694,
    "1694,78": 1695,
    "1695,1": 1696,
    "71,70": 1697,
    "364,63": 1698,
    "1698,60": 1699,
    "1699,73": 1700,
    "34,72": 1701,
    "658,79": 1702,
    "98,78": 1703,
    "486,71": 1704,
    "305,79": 1705,
    "1705,64": 1706,
    "754,84": 1707,
    "74,63": 1708,
    "249,75": 1709,
    "1709,71": 1710,
    "23,8": 1711,
    "464,77": 1712,
    "68,61": 1713,
    "1288,71": 1714,
    "582,68": 1715,
    "1145,80": 1716,
    "1716,71": 1717,
    "67,79": 1718,
    "82,78": 1719,
    "180,60": 1720,
    "1720,78": 1721,
    "71,61": 1722,
    "1722,64": 1723,
    "1723,77": 1724,
    "364,66": 1725,
    "197,73": 1726,
    "1726,64": 1727,
    "1727,62": 1728,
    "1728,79": 1729,
    "714,64": 1730,
    "1730,78": 1731,
    "1480,60": 1732,
    "1732,77": 1733,
    "92,81": 1734,
    "128,1": 1735,
    "275,66": 1736,
    "1,61": 1737,
    "1737,77": 1738,
    "1680,72": 1739,
    "1739,61": 1740,
    "1740,71": 1741,
    "899,71": 1742,
    "748,66": 1743,
    "623,71": 1744,
    "83,79": 1745,
    "235,78": 1746,
    "164,75": 1747,
    "1747,71": 1748,
    "48,74": 1749,
    "1749,65": 1750,
    "1750,79": 1751,
    "1751,82": 1752,
    "1752,60": 1753,
    "1753,77": 1754,
    "462,79": 1755,
    "1592,73": 1756,
    "75,71": 1757,
    "1757,60": 1758,
    "1214,68": 1759,
    "23,11": 1760,
    "1760,1": 1761,
    "1068,64": 1762,
    "51,38": 1763,
    "292,66": 1764,
    "760,1": 1765,
    "52,13": 1766,
    "235,77": 1767,
    "1767,62": 1768,
    "283,70": 1769,
    "11,15": 1770,
    "1770,15": 1771,
    "1771,15": 1772,
    "155,80": 1773,
    "1773,73": 1774,
    "83,64": 1775,
    "1775,77": 1776,
    "40,68": 1777,
    "1777,31": 1778,
    "226,68": 1779,
    "1779,73": 1780,
    "125,73": 1781,
    "1676,71": 1782,
    "582,74": 1783,
    "1783,62": 1784,
    "1784,80": 1785,
    "1785,71": 1786,
    "1620,73": 1787,
    "1787,63": 1788,
    "1788,60": 1789,
    "1789,78": 1790,
    "591,78": 1791,
    "1791,68": 1792,
    "1792,61": 1793,
    "219,73": 1794,
    "1794,66": 1795,
    "1086,1": 1796,
    "117,73": 1797,
    "1463,1": 1798,
    "71,84": 1799,
    "60,11": 1800,
    "1800,1": 1801,
    "545,79": 1802,
    "899,61": 1803,
    "1803,68": 1804,
    "1804,79": 1805,
    "887,1": 1806,
    "200,66": 1807,
    "1807,77": 1808,
    "1808,60": 1809,
    "690,1": 1810,
    "276,64": 1811,
    "205,60": 1812,
    "554,77": 1813,
    "290,1": 1814,
    "546,73": 1815,
    "1815,64": 1816,
    "12,62": 1817,
    "1817,60": 1818,
    "1818,71": 1819,
    "1670,62": 1820,
    "1820,60": 1821,
    "226,71": 1822,
    "64,65": 1823,
    "1823,79": 1824,
    "1,31": 1825,
    "1825,32": 1826,
    "45,77": 1827,
    "1071,71": 1828,
    "1385,65": 1829,
    "235,79": 1830,
    "1830,1": 1831,
    "61,77": 1832,
    "338,74": 1833,
    "1833,75": 1834,
    "947,73": 1835,
    "498,75": 1836,
    "1836,71": 1837,
    "65,79": 1838,
    "1838,64": 1839,
    "1492,85": 1840,
    "1840,64": 1841,
    "560,64": 1842,
    "258,62": 1843,
    "1843,64": 1844,
    "8,9": 1845,
    "1774,62": 1846,
    "124,68": 1847,
    "1847,79": 1848,
    "1848,80": 1849,
    "1067,64": 1850,
    "1850,77": 1851,
    "485,62": 1852,
    "1715,78": 1853,
    "1853,79": 1854,
    "73,82": 1855,
    "1855,60": 1856,
    "31,42": 1857,
    "142,61": 1858,
    "194,67": 1859,
    "73,70": 1860,
    "1860,64": 1861,
    "1861,64": 1862,
    "16,5": 1863,
    "703,60": 1864,
    "1864,78": 1865,
    "1865,78": 1866,
    "117,79": 1867,
    "1136,1": 1868,
    "1188,74": 1869,
    "1869,72": 1870,
    "45,1": 1871,
    "47,68": 1872,
    "1872,81": 1873,
    "1873,64": 1874,
    "1874,77": 1875,
    "23,17": 1876,
    "1876,16": 1877,
    "262,77": 1878,
    "151,68": 1879,
    "1438,12": 1880,
    "1880,1": 1881,
    "202,80": 1882,
    "1062,71": 1883,
    "61,1": 1884,
    "403,62": 1885,
    "1885,79": 1886,
    "74,1": 1887,
    "60,82": 1888,
    "1888,1": 1889,
    "1777,78": 1890,
    "1890,78": 1891,
    "973,73": 1892,
    "51,64": 1893,
    "1893,73": 1894,
    "77,78": 1895,
    "1895,68": 1896,
    "1896,74": 1897,
    "1897,73": 1898,
    "41,64": 1899,
    "1899,68": 1900,
    "519,64": 1901,
    "1901,77": 1902,
    "48,67": 1903,
    "336,70": 1904,
    "364,72": 1905,
    "548,63": 1906,
    "597,78": 1907,
    "51,33": 1908,
    "412,61": 1909,
    "1909,73": 1910,
    "510,77": 1911,
    "1911,78": 1912,
    "1912,79": 1913,
    "960,77": 1914,
    "1243,24": 1915,
    "44,1": 1916,
    "705,61": 1917,
    "1268,74": 1918,
    "1244,67": 1919,
    "333,1": 1920,
    "579,63": 1921,
    "899,73": 1922,
    "139,74": 1923,
    "1832,80": 1924,
    "1924,60": 1925,
    "1925,77": 1926,
    "61,68": 1927,
    "153,64": 1928,
    "1927,79": 1929,
    "412,66": 1930,
    "1597,1": 1931,
    "1065,63": 1932,
    "153,79": 1933,
    "75,72": 1934,
    "1934,64": 1935,
    "1935,73": 1936,
    "1091,75": 1937,
    "1937,77": 1938,
    "1214,62": 1939,
    "1939,64": 1940,
    "114,1": 1941,
    "583,77": 1942,
    "1942,60": 1943,
    "1943,71": 1944,
    "30,63": 1945,
    "1945,74": 1946,
    "1946,75": 1947,
    "1947,79": 1948,
    "276,60": 1949,
    "485,63": 1950,
    "18,11": 1951,
    "1951,1": 1952,
    "601,62": 1953,
    "418,66": 1954,
    "1954,73": 1955,
    "546,78": 1956,
    "1956,71": 1957,
    "378,71": 1958,
    "1958,71": 1959,
    "1033,77": 1960,
    "124,77": 1961,
    "117,1": 1962,
    "1962,42": 1963,
    "1963,68": 1964,
    "22,15": 1965,
    "520,71": 1966,
    "1966,63": 1967,
    "408,60": 1968,
    "1965,15": 1969,
    "194,64": 1970,
    "150,73": 1971,
    "620,68": 1972,
    "1972,79": 1973,
    "1973,64": 1974,
    "548,78": 1975,
    "1975,79": 1976,
    "47,1": 1977,
    "1227,68": 1978,
    "486,77": 1979,
    "1979,64": 1980,
    "428,77": 1981,
    "716,62": 1982,
    "741,78": 1983,
    "806,68": 1984,
    "478,60": 1985,
    "1985,71": 1986,
    "822,80": 1987,
    "305,68": 1988,
    "1988,73": 1989,
    "12,61": 1990,
    "1990,68": 1991,
    "1991,79": 1992,
    "62,84": 1993,
    "60,64": 1994,
    "1994,71": 1995,
    "919,79": 1996,
    "668,64": 1997,
    "118,67": 1998,
    "16,24": 1999,
    "243,63": 2000,
    "2000,1": 2001,
    "72,80": 2002,
    "2002,78": 2003,
    "74,12": 2004,
    "219,72": 2005,
    "200,79": 2006,
    "35,64": 2007,
    "2007,63": 2008,
    "2008,64": 2009,
    "2009,77": 2010,
    "109,64": 2011,
    "932,60": 2012,
    "2012,79": 2013,
    "1592,1": 2014,
    "922,79": 2015,
    "66,67": 2016,
    "2016,60": 2017,
    "418,74": 2018,
    "78,61": 2019,
    "2019,60": 2020,
    "775,15": 2021,
    "38,30": 2022,
    "115,67": 2023,
    "309,1": 2024,
    "951,67": 2025,
    "9,9": 2026,
    "235,75": 2027,
    "2027,1": 2028,
    "2028,84": 2029,
    "2029,64": 2030,
    "2030,60": 2031,
    "1895,79": 2032,
    "549,64": 2033,
    "705,78": 2034,
    "868,67": 2035,
    "68,76": 2036,
    "2036,80": 2037,
    "13,32": 2038,
    "2038,13": 2039,
    "1747,78": 2040,
    "917,61": 2041,
    "2041,60": 2042,
    "1680,70": 2043,
    "2043,68": 2044,
    "1936,79": 2045,
    "412,71": 2046,
    "499,68": 2047,
    "2047,74": 2048,
    "311,62": 2049,
    "2049,79": 2050,
    "1,65": 2051,
    "2051,77": 2052,
    "2052,74": 2053,
    "2053,72": 2054,
    "368,79": 2055,
    "1448,72": 2056,
    "2056,60": 2057,
    "1020,73": 2058,
    "2058,79": 2059,
    "73,71": 2060,
    "2060,84": 2061,
    "2061,1": 2062,
    "137,74": 2063,
    "2063,71": 2064,
    "49,12": 2065,
    "680,1": 2066,
    "700,75": 2067,
    "2067,74": 2068,
    "2068,77": 2069,
    "2069,79": 2070,
    "66,88": 2071,
    "851,77": 2072,
    "67,1": 2073,
    "283,1": 2074,
    "48,60": 2075,
    "2075,73": 2076,
    "36,60": 2077,
    "2077,71": 2078,
    "2078,64": 2079,
    "2079,73": 2080,
    "1757,84": 2081,
    "1592,75": 2082,
    "327,84": 2083,
    "2083,78": 2084,
    "39,64": 2085,
    "2085,74": 2086,
    "72,1": 2087,
    "1927,73": 2088,
    "2088,74": 2089,
    "305,78": 2090,
    "1298,71": 2091,
    "307,71": 2092,
    "599,64": 2093,
    "628,77": 2094,
    "2094,73": 2095,
    "415,63": 2096,
    "960,63": 2097,
    "2097,64": 2098,
    "2098,77": 2099,
    "485,60": 2100,
    "1083,68": 2101,
    "463,73": 2102,
    "628,80": 2103,
    "2103,79": 2104,
    "1170,67": 2105,
    "69,74": 2106,
    "2106,84": 2107,
    "22,1": 2108,
    "2108,12": 2109,
    "60,84": 2110,
    "487,63": 2111,
    "19,8": 2112,
    "175,79": 2113,
    "2060,60": 2114,
    "2114,73": 2115,
    "2115,63": 2116,
    "571,73": 2117,
    "339,73": 2118,
    "38,78": 2119,
    "2119,77": 2120,
    "2120,60": 2121,
    "2121,64": 2122,
    "2122,71": 2123,
    "748,63": 2124,
    "275,1": 2125,
    "1,45": 2126,
    "2126,60": 2127,
    "2127,66": 2128,
    "2128,64": 2129,
    "1143,1": 2130,
    "463,61": 2131,
    "2131,64": 2132,
    "2132,77": 2133,
    "806,64": 2134,
    "2134,73": 2135,
    "45,74": 2136,
    "2136,64": 2137,
    "364,75": 2138,
    "2138,74": 2139,
    "2139,77": 2140,
    "1701,75": 2141,
    "1871,61": 2142,
    "2142,77": 2143,
    "75,67": 2144,
    "2144,74": 2145,
    "2145,73": 2146,
    "569,71": 2147,
    "13,8": 2148,
    "67,73": 2149,
    "2149,1": 2150,
    "737,79": 2151,
    "71,66": 2152,
    "1839,77": 2153,
    "1665,66": 2154,
    "287,60": 2155,
    "1001,64": 2156,
    "469,73": 2157,
    "748,73": 2158,
    "83,1": 2159,
    "126,78": 2160,
    "307,64": 2161,
    "946,74": 2162,
    "2162,77": 2163,
    "2096,1": 2164,
    "628,81": 2165,
    "2165,64": 2166,
    "678,1": 2167,
    "258,64": 2168,
    "2168,82": 2169,
    "299,77": 2170,
    "1083,84": 2171,
    "1324,64": 2172,
    "1487,1": 2173,
    "185,73": 2174,
    "311,77": 2175,
    "204,1": 2176,
    "624,78": 2177,
    "1137,60": 2178,
    "14,72": 2179,
    "2179,60": 2180,
    "48,79": 2181,
    "78,60": 2182,
    "79,71": 2183,
    "66,1": 2184,
    "2184,40": 2185,
    "1244,71": 2186,
    "77,70": 2187,
    "2187,64": 2188,
    "20,15": 2189,
    "2189,15": 2190,
    "1896,60": 2191,
    "2191,73": 2192,
    "354,78": 2193,
    "918,64": 2194,
    "594,80": 2195,
    "2195,78": 2196,
    "1985,77": 2197,
    "66,72": 2198,
    "486,68": 2199,
    "2199,73": 2200,
    "300,68": 2201,
    "1288,63": 2202,
    "917,71": 2203,
    "2203,72": 2204,
    "1,16": 2205,
    "336,63": 2206,
    "898,68": 2207,
    "2207,62": 2208,
    "50,78": 2209,
    "265,72": 2210,
    "2210,75": 2211,
    "1170,64": 2212,
    "1082,64": 2213,
    "182,64": 2214,
    "153,80": 2215,
    "2215,79": 2216,
    "79,8": 2217,
    "1288,84": 2218,
    "482,64": 2219,
    "518,79": 2220,
    "1087,16": 2221,
    "2221,24": 2222,
    "2144,60": 2223,
    "21,8": 2224,
    "1480,77": 2225,
    "1412,68": 2226,
    "2226,62": 2227,
    "50,73": 2228,
    "194,79": 2229,
    "2229,68": 2230,
    "78,82": 2231,
    "2231,64": 2232,
    "2232,77": 2233,
    "74,83": 2234,
    "293,64": 2235,
    "591,64": 2236,
    "2236,63": 2237,
    "142,77": 2238,
    "2238,64": 2239,
    "2239,73": 2240,
    "1817,64": 2241,
    "2241,73": 2242,
    "780,73": 2243,
    "77,67": 2244,
    "2244,60": 2245,
    "295,79": 2246,
    "3,48": 2247,
    "222,63": 2248,
    "16,23": 2249,
    "1678,68": 2250,
    "2250,60": 2251,
    "2251,73": 2252,
    "382,74": 2253,
    "71,65": 2254,
    "77,75": 2255,
    "64,84": 2256,
    "1244,68": 2257,
    "210,60": 2258,
    "595,62": 2259,
    "396,79": 2260,
    "718,64": 2261,
    "275,81": 2262,
    "682,64": 2263,
    "2005,64": 2264,
    "374,74": 2265,
    "2265,77": 2266,
    "468,60": 2267,
    "70,84": 2268,
    "550,61": 2269,
    "2269,64": 2270,
    "295,64": 2271,
    "2271,71": 2272,
    "677,73": 2273,
    "1171,68": 2274,
    "2274,72": 2275,
    "746,79": 2276,
    "2246,64": 2277,
    "1777,73": 2278,
    "2278,66": 2279,
    "660,63": 2280,
    "459,81": 2281,
    "2281,64": 2282,
    "408,81": 2283,
    "67,72": 2284,
    "714,67": 2285,
    "71,78": 2286,
    "2286,74": 2287,
    "2287,1": 2288,
    "262,68": 2289,
    "591,71": 2290,
    "468,64": 2291,
    "2291,77": 2292,
    "1339,78": 2293,
    "734,63": 2294,
    "309,73": 2295,
    "582,78": 2296,
    "2296,80": 2297,
    "2297,61": 2298,
    "319,1": 2299,
    "690,63": 2300,
    "63,1": 2301,
    "1625,64": 2302,
    "2302,79": 2303,
    "244,71": 2304,
    "2287,73": 2305,
    "333,74": 2306,
    "1464,64": 2307,
    "161,79": 2308,
    "28,1": 2309,
    "1961,80": 2310,
    "1713,80": 2311,
    "2311,79": 2312,
    "356,60": 2313,
    "2313,68": 2314,
    "156,60": 2315,
    "2315,61": 2316,
    "2316,71": 2317,
    "816,12": 2318,
    "17,15": 2319,
    "283,64": 2320,
    "478,79": 2321,
    "1419,68": 2322,
    "2322,78": 2323,
    "1,27": 2324,
    "2324,1": 2325,
    "428,78": 2326,
    "2326,78": 2327,
    "563,73": 2328,
    "2018,73": 2329,
    "49,1": 2330,
    "298,72": 2331,
    "182,77": 2332,
    "2002,73": 2333,
    "78,62": 2334,
    "18,12": 2335,
    "2335,16": 2336,
    "1832,64": 2337,
    "2110,1": 2338,
    "185,71": 2339,
    "20,8": 2340,
    "71,62": 2341,
    "2341,67": 2342,
    "2342,64": 2343,
    "2343,72": 2344,
    "226,73": 2345,
    "342,74": 2346,
    "74,67": 2347,
    "2347,64": 2348,
    "2348,72": 2349,
    "1855,67": 2350,
    "1799,1": 2351,
    "141,68": 2352,
    "2352,78": 2353,
    "468,68": 2354,
    "2334,74": 2355,
    "579,66": 2356,
    "428,60": 2357,
    "415,75": 2358,
    "2358,79": 2359,
    "579,72": 2360,
    "825,64": 2361,
    "2361,73": 2362,
    "2362,63": 2363,
    "528,72": 2364,
    "917,73": 2365,
    "919,63": 2366,
    "85,85": 2367,
    "141,60": 2368,
    "77,73": 2369,
    "2369,60": 2370,
    "2370,71": 2371,
    "1638,74": 2372,
    "32,71": 2373,
    "2373,64": 2374,
    "2374,81": 2375,
    "2375,64": 2376,
    "1288,1": 2377,
    "65,80": 2378,
    "2378,71": 2379,
    "75,66": 2380,
    "2380,77": 2381,
    "1703,68": 2382,
    "2382,60": 2383,
    "1038,79": 2384,
    "2384,67": 2385,
    "38,1": 2386,
    "98,1": 2387,
    "569,78": 2388,
    "222,78": 2389,
    "24,15": 2390,
    "2390,78": 2391,
    "2016,79": 2392,
    "55,64": 2393,
    "2393,73": 2394,
    "2394,60": 2395,
    "408,85": 2396,
    "2396,64": 2397,
    "135,71": 2398,
    "470,75": 2399,
    "741,62": 2400,
    "2273,66": 2401,
    "275,73": 2402,
    "571,61": 2403,
    "2403,68": 2404,
    "2404,71": 2405,
    "258,63": 2406,
    "2406,1": 2407,
    "15,58": 2408,
    "1757,64": 2409,
    "793,13": 2410,
    "973,1": 2411,
    "168,82": 2412,
    "2412,64": 2413,
    "2413,81": 2414,
    "307,63": 2415,
    "1579,73": 2416,
    "2416,63": 2417,
    "92,60": 2418,
    "2418,72": 2419,
    "458,71": 2420,
    "147,71": 2421,
    "2421,64": 2422,
    "2422,73": 2423,
    "66,80": 2424,
    "703,71": 2425,
    "275,74": 2426,
    "1357,74": 2427,
    "2427,65": 2428,
    "2428,1": 2429,
    "1704,64": 2430,
    "2355,75": 2431,
    "42,45": 2432,
    "2432,44": 2433,
    "612,66": 2434,
    "255,1": 2435,
    "35,13": 2436,
    "1065,1": 2437,
    "84,85": 2438,
    "72,63": 2439,
    "2439,60": 2440,
    "2440,78": 2441,
    "78,72": 2442,
    "1062,78": 2443,
    "822,64": 2444,
    "520,73": 2445,
    "2445,63": 2446,
    "1827,64": 2447,
    "2447,78": 2448,
    "2448,68": 2449,
    "2449,63": 2450,
    "373,73": 2451,
    "2451,63": 2452,
    "75,84": 2453,
    "754,64": 2454,
    "72,88": 2455,
    "258,77": 2456,
    "2456,74": 2457,
    "79,1": 2458,
    "857,80": 2459,
    "2459,73": 2460,
    "418,78": 2461,
    "211,77": 2462,
    "1097,64": 2463,
    "2463,72": 2464,
    "73,61": 2465,
    "2465,78": 2466,
    "2466,75": 2467,
    "1965,78": 2468,
    "333,64": 2469,
    "1,75": 2470,
    "2470,71": 2471,
    "2471,60": 2472,
    "42,1": 2473,
    "552,80": 2474,
    "307,62": 2475,
    "2475,79": 2476,
    "919,73": 2477,
    "470,73": 2478,
    "2478,63": 2479,
    "1694,73": 2480,
    "2480,63": 2481,
    "2481,1": 2482,
    "293,1": 2483,
    "17,8": 2484,
    "405,65": 2485,
    "2485,79": 2486,
    "2332,64": 2487,
    "1180,79": 2488,
    "394,75": 2489,
    "44,62": 2490,
    "307,79": 2491,
    "30,13": 2492,
    "673,72": 2493,
    "16,8": 2494,
    "486,1": 2495,
    "117,78": 2496,
    "84,1": 2497,
    "520,78": 2498,
    "385,80": 2499,
    "82,79": 2500,
    "2500,67": 2501,
    "1451,78": 2502,
    "12,52": 2503,
    "2503,68": 2504,
    "234,12": 2505,
    "637,62": 2506,
    "2506,71": 2507,
    "2507,64": 2508,
    "46,80": 2509,
    "612,77": 2510,
    "1298,72": 2511,
    "2511,60": 2512,
    "356,80": 2513,
    "339,71": 2514,
    "2514,64": 2515,
    "2515,72": 2516,
    "1083,82": 2517,
    "2517,64": 2518,
    "2518,64": 2519,
    "2161,71": 2520,
    "16,11": 2521,
    "2521,1": 2522,
    "35,74": 2523,
    "2523,77": 2524,
    "2524,62": 2525,
    "2525,64": 2526,
    "258,81": 2527,
    "582,62": 2528,
    "92,62": 2529,
    "2529,79": 2530,
    "749,73": 2531,
    "964,64": 2532,
    "71,81": 2533,
    "2533,60": 2534,
    "2534,63": 2535,
    "2535,74": 2536,
    "2536,77": 2537,
    "290,74": 2538,
    "2538,63": 2539,
    "528,75": 2540,
    "295,84": 2541,
    "2541,1": 2542,
    "2085,77": 2543,
    "764,80": 2544,
    "2544,63": 2545,
    "529,63": 2546,
    "15,1": 2547,
    "2547,12": 2548,
    "672,62": 2549,
    "2549,60": 2550,
    "2550,79": 2551,
    "1451,71": 2552,
    "1345,67": 2553,
    "760,67": 2554,
    "748,72": 2555,
    "774,64": 2556,
    "670,68": 2557,
    "142,74": 2558,
    "2558,75": 2559,
    "2559,64": 2560,
    "448,61": 2561,
    "1663,61": 2562,
    "2562,77": 2563,
    "61,73": 2564,
    "611,1": 2565,
    "1187,1": 2566,
    "283,67": 2567,
    "368,64": 2568,
    "2117,66": 2569,
    "50,48": 2570,
    "2109,1": 2571,
    "2228,68": 2572,
    "2572,81": 2573,
    "2573,64": 2574,
    "2574,77": 2575,
    "2575,78": 2576,
    "545,1": 2577,
    "306,73": 2578,
    "180,62": 2579,
    "2579,79": 2580,
    "1899,1": 2581,
    "2424,64": 2582,
    "204,73": 2583,
    "405,73": 2584,
    "1482,64": 2585,
    "2585,77": 2586,
    "70,78": 2587,
    "2587,1": 2588,
    "1127,62": 2589,
    "2589,67": 2590,
    "112,71": 2591,
    "1968,71": 2592,
    "932,70": 2593,
    "2593,64": 2594,
    "2594,84": 2595,
    "1412,77": 2596,
    "2596,60": 2597,
    "486,87": 2598,
    "65,65": 2599,
    "579,77": 2600,
    "164,63": 2601,
    "2601,1": 2602,
    "6,1": 2603,
    "386,61": 2604,
    "2604,1": 2605,
    "1600,79": 2606,
    "612,62": 2607,
    "2607,79": 2608,
    "1083,1": 2609,
    "1917,64": 2610,
    "2610,77": 2611,
    "1757,74": 2612,
    "2612,72": 2613,
    "2613,60": 2614,
    "458,73": 2615,
    "76,80": 2616,
    "560,79": 2617,
    "65,12": 2618,
    "129,60": 2619,
    "2619,73": 2620,
    "2426,77": 2621,
    "957,77": 2622,
    "98,68": 2623,
    "2623,62": 2624,
    "173,73": 2625,
    "878,71": 2626,
    "1458,73": 2627,
    "2106,77": 2628,
    "79,73": 2629,
    "2629,60": 2630,
    "2630,72": 2631,
    "1,56": 2632,
    "38,72": 2633,
    "2633,60": 2634,
    "2634,66": 2635,
    "378,78": 2636,
    "1676,79": 2637,
    "327,77": 2638,
    "1276,79": 2639,
    "2301,74": 2640,
    "2640,65": 2641,
    "2641,1": 2642,
    "30,66": 2643,
    "2643,64": 2644,
    "1287,79": 2645,
    "2365,1": 2646,
    "78,88": 2647,
    "428,82": 2648,
    "2282,77": 2649,
    "2649,73": 2650,
    "2308,64": 2651,
    "2651,72": 2652,
    "699,12": 2653,
    "202,73": 2654,
    "130,15": 2655,
    "2655,15": 2656,
    "364,84": 2657,
    "2657,1": 2658,
    "51,1": 2659,
    "114,71": 2660,
    "1065,78": 2661,
    "2661,79": 2662,
    "2662,68": 2663,
    "2663,79": 2664,
    "548,66": 2665,
    "2665,64": 2666,
    "983,60": 2667,
    "84,62": 2668,
    "2668,71": 2669,
    "1720,79": 2670,
    "364,60": 2671,
    "959,64": 2672,
    "612,71": 2673,
    "305,73": 2674,
    "2674,84": 2675,
    "2675,1": 2676,
    "960,73": 2677,
    "69,68": 2678,
    "293,75": 2679,
    "684,1": 2680,
    "943,78": 2681,
    "2681,79": 2682,
    "257,73": 2683,
    "258,73": 2684,
    "2684,66": 2685,
    "616,84": 2686,
    "2103,77": 2687,
    "482,78": 2688,
    "2688,79": 2689,
    "73,6": 2690,
    "2690,79": 2691,
    "52,60": 2692,
    "2692,77": 2693,
    "156,1": 2694,
    "705,73": 2695,
    "142,78": 2696,
    "67,63": 2697,
    "2697,60": 2698,
    "248,66": 2699,
    "48,64": 2700,
    "2700,62": 2701,
    "2701,77": 2702,
    "2702,64": 2703,
    "822,68": 2704,
    "2704,74": 2705,
    "2705,73": 2706,
    "131,8": 2707,
    "893,67": 2708,
    "1139,73": 2709,
    "1333,68": 2710,
    "2710,79": 2711,
    "482,62": 2712,
    "45,44": 2713,
    "32,85": 2714,
    "2714,64": 2715,
    "2715,62": 2716,
    "2716,67": 2717,
    "151,62": 2718,
    "2718,79": 2719,
    "311,74": 2720,
    "2720,71": 2721,
    "1214,83": 2722,
    "2369,1": 2723,
    "245,71": 2724,
    "2724,68": 2725,
    "283,71": 2726,
    "373,60": 2727,
    "2727,70": 2728,
    "128,72": 2729,
    "2729,64": 2730,
    "2730,73": 2731,
    "68,80": 2732,
    "231,1": 2733,
    "2188,79": 2734,
    "1157,77": 2735,
    "448,79": 2736,
    "204,63": 2737,
    "1568,30": 2738,
    "93,1": 2739,
    "360,61": 2740,
    "2740,64": 2741,
    "1720,63": 2742,
    "1004,73": 2743,
    "2743,64": 2744,
    "2744,62": 2745,
    "2745,79": 2746,
    "70,65": 2747,
    "2747,71": 2748,
    "2748,74": 2749,
    "2749,82": 2750,
    "1652,1": 2751,
    "92,72": 2752,
    "15,8": 2753,
    "760,60": 2754,
    "1507,63": 2755,
    "135,78": 2756,
    "1949,71": 2757,
    "1,67": 2758,
    "2389,74": 2759,
    "2759,1": 2760,
    "1972,77": 2761,
    "2267,78": 2762,
    "1982,68": 2763,
    "2763,75": 2764,
    "249,60": 2765,
    "2765,78": 2766,
    "2406,64": 2767,
    "2767,63": 2768,
    "948,62": 2769,
    "748,62": 2770,
    "2770,67": 2771,
    "709,1": 2772,
    "73,85": 2773,
    "2773,64": 2774,
    "571,80": 2775,
    "2775,78": 2776,
    "601,68": 2777,
    "2777,72": 2778,
    "283,78": 2779,
    "1127,73": 2780,
    "30,68": 2781,
    "2781,77": 2782,
    "700,60": 2783,
    "489,60": 2784,
    "2784,79": 2785,
    "2785,67": 2786,
    "219,78": 2787,
    "485,84": 2788,
    "2393,60": 2789,
    "2789,71": 2790,
    "1568,79": 2791,
    "2791,74": 2792,
    "15,78": 2793,
    "2793,1": 2794,
    "1298,1": 2795,
    "690,79": 2796,
    "1,35": 2797,
    "2797,74": 2798,
    "2798,77": 2799,
    "2799,62": 2800,
    "2800,64": 2801,
    "185,79": 2802,
    "348,74": 2803,
    "1042,84": 2804,
    "700,68": 2805,
    "2805,79": 2806,
    "805,79": 2807,
    "917,82": 2808,
    "2616,64": 2809,
    "307,72": 2810,
    "2810,64": 2811,
    "1202,69": 2812,
    "2812,64": 2813,
    "2813,62": 2814,
    "2183,64": 2815,
    "778,79": 2816,
    "2319,15": 2817,
    "70,1": 2818,
    "219,60": 2819,
    "2094,79": 2820,
    "1156,1": 2821,
    "1620,12": 2822,
    "2822,1": 2823,
    "72,8": 2824,
    "2824,1": 2825,
    "2549,79": 2826,
    "612,73": 2827,
    "945,17": 2828,
    "753,74": 2829,
    "1746,79": 2830,
    "11,1": 2831,
    "262,60": 2832,
    "554,1": 2833,
    "9,32": 2834,
    "2834,84": 2835,
    "2835,79": 2836,
    "2836,74": 2837,
    "954,75": 2838,
    "2838,67": 2839,
    "2444,71": 2840,
    "352,72": 2841,
    "2841,68": 2842,
    "2842,73": 2843,
    "2843,68": 2844,
    "47,11": 2845,
    "2845,1": 2846,
    "2638,64": 2847,
    "65,1": 2848,
    "74,84": 2849,
    "13,1": 2850,
    "546,74": 2851,
    "2851,73": 2852,
    "275,78": 2853,
    "131,73": 2854,
    "2443,60": 2855,
    "2855,73": 2856,
    "817,1": 2857,
    "748,1": 2858,
    "228,66": 2859,
    "572,75": 2860,
    "2860,67": 2861,
    "973,63": 2862,
    "948,85": 2863,
    "2863,64": 2864,
    "2864,73": 2865,
    "558,77": 2866,
    "85,74": 2867,
    "899,75": 2868,
    "731,84": 2869,
    "870,71": 2870,
    "2870,64": 2871,
    "2528,64": 2872,
    "1388,1": 2873,
    "339,1": 2874,
    "124,64": 2875,
    "2875,72": 2876,
    "2770,79": 2877,
    "2296,79": 2878,
    "2878,60": 2879,
    "1758,62": 2880,
    "2880,64": 2881,
    "142,63": 2882,
    "1033,79": 2883,
    "73,12": 2884,
    "2270,79": 2885,
    "61,69": 2886,
    "2886,64": 2887,
    "2887,62": 2888,
    "2888,79": 2889,
    "1708,80": 2890,
    "2301,65": 2891,
    "2891,77": 2892,
    "2892,74": 2893,
    "2893,72": 2894,
    "1883,63": 2895,
    "182,63": 2896,
    "1073,64": 2897,
    "2897,77": 2898,
    "478,64": 2899,
    "1230,73": 2900,
    "2900,78": 2901,
    "2901,80": 2902,
    "760,80": 2903,
    "2903,77": 2904,
    "1254,77": 2905,
    "2905,77": 2906,
    "2906,68": 2907,
    "2907,78": 2908,
    "2908,74": 2909,
    "2909,73": 2910,
    "590,73": 2911,
    "418,79": 2912,
    "430,12": 2913,
    "2913,1": 2914,
    "472,67": 2915,
    "2421,80": 2916,
    "2916,64": 2917,
    "159,1": 2918,
    "741,60": 2919,
    "43,64": 2920,
    "2920,82": 2921,
    "1797,79": 2922,
    "498,66": 2923,
    "2923,77": 2924,
    "1059,77": 2925,
    "2925,73": 2926,
    "1839,73": 2927,
    "1055,1": 2928,
    "716,79": 2929,
    "12,1": 2930,
    "83,75": 2931,
    "1333,75": 2932,
    "41,68": 2933,
    "2933,78": 2934,
    "2934,79": 2935,
    "1249,1354": 2936,
    "2936,2671": 2937,
    "1914,1379": 2938,
    "2938,352": 2939,
    "789,851": 2940,
    "2940,2212": 2941,
    "2136,2304": 2942,
    "1060,1188": 2943,
    "2943,814": 2944,
    "162,62": 2945,
    "1680,1007": 2946,
    "191,437": 2947,
    "2947,109": 2948,
    "156,2477": 2949,
    "65,2603": 2950,
    "405,2831": 2951,
    "299,2831": 2952,
    "1827,1117": 2953,
    "2953,2615": 2954,
    "299,1962": 2955,
    "18,15": 2956,
    "98,1782": 2957,
    "1799,2539": 2958,
    "1847,2565": 2959,
    "30,35": 2960,
    "1166,364": 2961,
    "2961,2058": 2962,
    "1288,799": 2963,
    "1426,1031": 2964,
    "897,400": 2965,
    "299,1267": 2966,
    "416,1832": 2967,
    "672,81": 2968,
    "187,1814": 2969,
    "263,2874": 2970,
    "677,611": 2971,
    "874,105": 2972,
    "706,2134": 2973,
    "2458,1134": 2974,
    "2159,7": 2975,
    "1482,2922": 2976,
    "1572,1060": 2977,
    "2301,528": 2978,
    "2364,2674": 2979,
    "79,390": 2980,
    "1445,1821": 2981,
    "1299,1823": 2982,
    "2982,1603": 2983,
    "1040,185": 2984,
    "353,302": 2985,
    "213,1048": 2986,
    "194,70": 2987,
    "2987,2351": 2988,
    "85,2831": 2989,
    "335,1503": 2990,
    "575,153": 2991,
    "2991,1604": 2992,
    "609,13": 2993,
    "2304,671": 2994,
    "975,2301": 2995,
    "1284,352": 2996,
    "1516,107": 2997,
    "625,1568": 2998,
    "335,2387": 2999,
    "429,583": 3000,
    "3000,2680": 3001,
    "117,437": 3002,
    "3002,2853": 3003,
    "1063,2831": 3004,
    "787,2831": 3005,
    "1127,2326": 3006,
    "2302,2365": 3007,
    "1794,113": 3008,
    "2795,809": 3009,
    "2725,1242": 3010,
    "1133,2848": 3011,
    "2779,113": 3012,
    "2258,1403": 3013,
    "1331,1393": 3014,
    "204,415": 3015,
    "3015,822": 3016,
    "2881,2301": 3017,
    "33,1020": 3018,
    "748,249": 3019,
    "3019,1568": 3020,
    "1533,2124": 3021,
    "621,307": 3022,
    "3022,684": 3023,
    "1214,1299": 3024,
    "1513,559": 3025,
    "3025,1999": 3026,
    "1712,2443": 3027,
    "1638,1049": 3028,
    "246,1403": 3029,
    "2638,2831": 3030,
    "231,1081": 3031,
    "16,1438": 3032,
    "3032,1733": 3033,
    "545,2802": 3034,
    "921,2497": 3035,
    "2912,352": 3036,
    "1288,720": 3037,
    "639,1357": 3038,
    "1749,1962": 3039,
    "2489,1338": 3040,
    "1592,1662": 3041,
    "2696,377": 3042,
    "227,352": 3043,
    "37,658": 3044,
    "2796,948": 3045,
    "691,1139": 3046,
    "1339,2066": 3047,
    "1288,2212": 3048,
    "3048,215": 3049,
    "2616,105": 3050,
    "114,725": 3051,
    "71,454": 3052,
    "1666,681": 3053,
    "299,1806": 3054,
    "1817,346": 3055,
    "3055,583": 3056,
    "244,2124": 3057,
    "714,434": 3058,
    "3058,1047": 3059,
    "1047,2073": 3060,
    "450,584": 3061,
    "825,283": 3062,
    "3062,1708": 3063,
    "162,798": 3064,
    "311,147": 3065,
    "290,1797": 3066,
    "1214,246": 3067,
    "2373,1202": 3068,
    "1829,599": 3069,
    "1032,707": 3070,
    "2158,752": 3071,
    "1867,1180": 3072,
    "812,832": 3073,
    "3073,1832": 3074,
    "3074,2732": 3075,
    "2145,339": 3076,
    "296,2445": 3077,
    "2616,403": 3078,
    "672,2355": 3079,
    "3079,1140": 3080,
    "1077,2458": 3081,
    "1133,1413": 3082,
    "20,25": 3083,
    "915,1028": 3084,
    "2640,2167": 3085,
    "109,672": 3086,
    "3086,2853": 3087,
    "754,335": 3088,
    "368,716": 3089,
    "31,731": 3090,
    "520,128": 3091,
    "3091,2301": 3092,
    "752,9": 3093,
    "3093,2077": 3094,
    "3094,1253": 3095,
    "2497,1134": 3096,
    "137,1867": 3097,
    "1432,1662": 3098,
    "35,35": 3099,
    "620,893": 3100,
    "2795,193": 3101,
    "3101,705": 3102,
    "2300,263": 3103,
    "2829,2501": 3104,
    "124,2831": 3105,
    "368,2431": 3106,
    "3106,222": 3107,
    "2172,1190": 3108,
    "428,118": 3109,
    "2106,1715": 3110,
    "3110,2495": 3111,
    "1928,822": 3112,
    "3112,2788": 3113,
    "258,1060": 3114,
    "269,416": 3115,
    "1121,597": 3116,
    "155,1666": 3117,
    "3117,2497": 3118,
    "126,2497": 3119,
    "1656,2006": 3120,
    "1225,545": 3121,
    "3121,17": 3122,
    "12,334": 3123,
    "2483,1134": 3124,
    "38,2831": 3125,
    "1288,1139": 3126,
    "324,1082": 3127,
    "2330,1999": 3128,
    "257,2831": 3129,
    "375,1379": 3130,
    "3130,263": 3131,
    "1858,798": 3132,
    "290,1403": 3133,
    "1381,2919": 3134,
    "1047,1011": 3135,
    "3135,202": 3136,
    "109,2301": 3137,
    "3137,1385": 3138,
    "2704,2463": 3139,
    "2023,2125": 3140,
    "1933,1782": 3141,
    "518,752": 3142,
    "1191,2815": 3143,
    "1,809": 3144,
    "3144,1054": 3145,
    "3145,1625": 3146,
    "3146,2597": 3147,
    "575,1667": 3148,
    "3148,2497": 3149,
    "716,2392": 3150,
    "2002,307": 3151,
    "725,1347": 3152,
    "1465,1305": 3153,
    "2583,1224": 3154,
    "343,2599": 3155,
    "3155,1573": 3156,
    "293,520": 3157,
    "2692,2627": 3158,
    "3158,1220": 3159,
    "235,205": 3160,
    "1117,2301": 3161,
    "839,2904": 3162,
    "933,1398": 3163,
    "1625,1550": 3164,
    "3164,2212": 3165,
    "2236,2351": 3166,
    "2783,1815": 3167,
    "787,299": 3168,
    "877,2409": 3169,
    "2519,1403": 3170,
    "1011,202": 3171,
    "2597,72": 3172,
    "3172,1915": 3173,
    "2220,2477": 3174,
    "35,32": 3175,
    "681,343": 3176,
    "837,1054": 3177,
    "3177,2693": 3178,
    "2491,918": 3179,
    "601,2134": 3180,
    "674,1229": 3181,
    "3181,548": 3182,
    "1271,985": 3183,
    "2890,1190": 3184,
    "1555,822": 3185,
    "1888,2338": 3186,
    "3186,1870": 3187,
    "1096,94": 3188,
    "48,30": 3189,
    "2292,2584": 3190,
    "3190,2831": 3191,
    "2829,902": 3192,
    "396,1121": 3193,
    "125,140": 3194,
    "2829,1048": 3195,
    "2234,2783": 3196,
    "373,1481": 3197,
    "387,415": 3198,
    "3198,822": 3199,
    "2085,1719": 3200,
    "1012,1191": 3201,
    "3201,2788": 3202,
    "52,899": 3203,
    "1312,2477": 3204,
    "411,1357": 3205,
    "2674,99": 3206,
    "2346,548": 3207,
    "3207,463": 3208,
    "481,1895": 3209,
    "458,521": 3210,
    "761,2442": 3211,
    "14,672": 3212,
    "3212,81": 3213,
    "1,1038": 3214,
    "3214,428": 3215,
    "3215,1464": 3216,
    "83,84": 3217,
    "3217,984": 3218,
    "2034,293": 3219,
    "3219,446": 3220,
    "49,1635": 3221,
    "822,215": 3222,
    "1338,2351": 3223,
    "1725,1020": 3224,
    "3012,1134": 3225,
    "1289,1596": 3226,
    "157,205": 3227,
    "3227,2339": 3228,
    "2334,560": 3229,
    "494,35": 3230,
    "2126,191": 3231,
    "1570,2158": 3232,
    "567,976": 3233,
    "597,1768": 3234,
    "2654,763": 3235,
    "754,415": 3236,
    "3236,822": 3237,
    "79,2090": 3238,
    "1712,2058": 3239,
    "1385,279": 3240,
    "3240,964": 3241,
    "3241,763": 3242,
    "378,204": 3243,
    "3243,2351": 3244,
    "2400,2124": 3245,
    "2158,2819": 3246,
    "1720,710": 3247,
    "200,1555": 3248,
    "1737,2552": 3249,
    "1381,2144": 3250,
    "486,12": 3251,
    "2310,2622": 3252,
    "1445,35": 3253,
    "3253,32": 3254,
    "1823,960": 3255,
    "275,2831": 3256,
    "2038,1607": 3257,
    "3257,949": 3258,
    "3258,299": 3259,
    "283,109": 3260,
    "157,734": 3261,
    "754,219": 3262,
    "629,1284": 3263,
    "1348,114": 3264,
    "2425,317": 3265,
    "2669,1339": 3266,
    "2506,1533": 3267,
    "546,296": 3268,
    "1,136": 3269,
    "545,2831": 3270,
    "2073,2289": 3271,
    "3271,1109": 3272,
    "352,2180": 3273,
    "3273,2733": 3274,
    "2491,2477": 3275,
    "1191,2497": 3276,
    "1371,983": 3277,
    "1993,1982": 3278,
    "532,1745": 3279,
    "761,1847": 3280,
    "915,2073": 3281,
    "3281,1134": 3282,
    "200,2704": 3283,
    "2496,215": 3284,
    "869,2495": 3285,
    "1794,80": 3286,
    "3286,2443": 3287,
    "348,1060": 3288,
    "1927,1191": 3289,
    "154,2496": 3290,
    "307,487": 3291,
    "30,61": 3292,
    "458,357": 3293,
    "3293,2301": 3294,
    "1694,71": 3295,
    "3295,2084": 3296,
    "2369,1339": 3297,
    "1445,1349": 3298,
    "128,2301": 3299,
    "678,2092": 3300,
    "822,763": 3301,
    "1832,666": 3302,
    "1568,400": 3303,
    "3303,1449": 3304,
    "1004,2346": 3305,
    "2225,1568": 3306,
    "3298,135": 3307,
    "1494,2118": 3308,
    "2852,222": 3309,
    "263,1134": 3310,
    "1503,263": 3311,
    "299,2421": 3312,
    "2228,405": 3313,
    "3313,466": 3314,
    "194,148": 3315,
    "511,263": 3316,
    "200,2706": 3317,
    "83,1975": 3318,
    "903,583": 3319,
    "1511,2498": 3320,
    "937,2458": 3321,
    "204,2452": 3322,
    "3322,2796": 3323,
    "1499,1333": 3324,
    "1222,2680": 3325,
    "3325,1134": 3326,
    "597,9": 3327,
    "1117,499": 3328,
    "3328,263": 3329,
    "571,128": 3330,
    "2337,2289": 3331,
    "3331,2495": 3332,
    "1419,2182": 3333,
    "1832,1074": 3334,
    "339,142": 3335,
    "400,16": 3336,
    "1234,2090": 3337,
    "3337,2388": 3338,
    "396,499": 3339,
    "3339,1493": 3340,
    "38,131": 3341,
    "1638,1810": 3342,
    "881,1806": 3343,
    "63,2928": 3344,
    "136,198": 3345,
    "3345,2398": 3346,
    "921,1357": 3347,
    "42,47": 3348,
    "3348,48": 3349,
    "3349,30": 3350,
    "2853,2868": 3351,
    "343,713": 3352,
    "3352,1432": 3353,
    "3353,1662": 3354,
    "2458,400": 3355,
    "545,474": 3356,
    "2491,1035": 3357,
    "3357,1961": 3358,
    "3358,1046": 3359,
    "381,1713": 3360,
    "598,411": 3361,
    "307,1229": 3362,
    "2085,2636": 3363,
    "3363,2073": 3364,
    "708,2497": 3365,
    "2599,1365": 3366,
    "3366,415": 3367,
    "2540,2497": 3368,
    "3368,1134": 3369,
    "263,1167": 3370,
    "947,200": 3371,
    "1613,1653": 3372,
    "3372,2092": 3373,
    "44,67": 3374,
    "3374,408": 3375,
    "680,1082": 3376,
    "1034,1802": 3377,
    "1,49": 3378,
    "3378,274": 3379,
    "2708,1445": 3380,
    "17,2850": 3381,
    "548,721": 3382,
    "1039,749": 3383,
    "3383,298": 3384,
    "991,330": 3385,
    "3385,1284": 3386,
    "74,2867": 3387,
    "680,2638": 3388,
    "364,2445": 3389,
    "3389,2124": 3390,
    "2597,2144": 3391,
    "1642,2207": 3392,
    "722,352": 3393,
    "1825,1419": 3394,
    "948,1121": 3395,
    "2415,1338": 3396,
    "1231,2629": 3397,
    "1337,2184": 3398,
    "2783,2286": 3399,
    "1442,16": 3400,
    "71,327": 3401,
    "3401,80": 3402,
    "40,336": 3403,
    "1127,77": 3404,
    "3404,448": 3405,
    "2389,2831": 3406,
    "1677,1799": 3407,
    "448,2157": 3408,
    "680,1556": 3409,
    "2929,2477": 3410,
    "1451,1385": 3411,
    "1920,1134": 3412,
    "293,131": 3413,
    "299,117": 3414,
    "620,319": 3415,
    "1856,519": 3416,
    "330,1968": 3417,
    "2809,2212": 3418,
    "2796,2477": 3419,
    "1914,1339": 3420,
    "1646,1068": 3421,
    "182,671": 3422,
    "2583,2377": 3423,
    "20,663": 3424,
    "3424,515": 3425,
    "3425,63": 3426,
    "1287,1134": 3427,
    "19,12": 3428,
    "1671,2497": 3429,
    "300,142": 3430,
    "3430,222": 3431,
    "49,319": 3432,
    "3432,222": 3433,
    "1419,2922": 3434,
    "38,33": 3435,
    "72,2615": 3436,
    "3436,415": 3437,
    "2297,2599": 3438,
    "3438,1372": 3439,
    "3439,2796": 3440,
    "2401,396": 3441,
    "2615,1794": 3442,
    "31,997": 3443,
    "80,2599": 3444,
    "1847,62": 3445,
    "412,1299": 3446,
    "1385,463": 3447,
    "1061,2831": 3448,
    "1134,1657": 3449,
    "1867,2853": 3450,
    "752,1118": 3451,
    "2415,485": 3452,
    "180,1914": 3453,
    "485,1503": 3454,
    "2090,418": 3455,
    "3455,1735": 3456,
    "1852,899": 3457,
    "3457,2877": 3458,
    "396,1344": 3459,
    "3459,1517": 3460,
    "2582,822": 3461,
    "2392,2853": 3462,
    "2470,428": 3463,
    "3463,2561": 3464,
    "3464,833": 3465,
    "153,1457": 3466,
    "3466,352": 3467,
    "1100,2497": 3468,
    "1775,2301": 3469,
    "1357,2928": 3470,
    "2615,2819": 3471,
    "2160,2818": 3472,
    "1362,2445": 3473,
    "847,636": 3474,
    "989,261": 3475,
    "416,35": 3476,
    "3476,2230": 3477,
    "1,1971": 3478,
    "222,2470": 3479,
    "3479,191": 3480,
    "1403,180": 3481,
    "3481,602": 3482,
    "60,60": 3483,
    "517,2329": 3484,
    "1721,1432": 3485,
    "2580,2351": 3486,
    "180,602": 3487,
    "3487,377": 3488,
    "2329,222": 3489,
    "111,2477": 3490,
    "2758,1920": 3491,
    "818,1941": 3492,
    "2302,1987": 3493,
    "2300,215": 3494,
    "368,602": 3495,
    "3495,2477": 3496,
    "1905,263": 3497,
    "231,2648": 3498,
    "201,98": 3499,
    "1870,2205": 3500,
    "3500,24": 3501,
    "672,2599": 3502,
    "3502,1009": 3503,
    "3503,2458": 3504,
    "3504,2874": 3505,
    "1895,2850": 3506,
    "856,296": 3507,
    "80,2443": 3508,
    "1084,1357": 3509,
    "2796,2092": 3510,
    "205,2339": 3511,
    "1833,1548": 3512,
    "368,2495": 3513,
    "528,2696": 3514,
    "3305,1662": 3515,
    "2628,1": 3516,
    "3516,1899": 3517,
    "3517,567": 3518,
    "49,307": 3519,
    "3519,1229": 3520,
    "328,197": 3521,
    "3521,2831": 3522,
    "2458,1955": 3523,
    "3523,222": 3524,
    "1610,597": 3525,
    "3525,434": 3526,
    "2609,222": 3527,
    "1517,2124": 3528,
    "204,1844": 3529,
    "949,1229": 3530,
    "2334,1028": 3531,
    "583,2301": 3532,
    "719,2219": 3533,
    "75,2273": 3534,
    "275,1385": 3535,
    "83,2831": 3536,
    "961,2874": 3537,
    "3537,1999": 3538,
    "287,263": 3539,
    "102,2444": 3540,
    "339,1144": 3541,
    "1214,2565": 3542,
    "44,668": 3543,
    "3543,1708": 3544,
    "3544,2234": 3545,
    "960,1190": 3546,
    "1345,981": 3547,
    "2203,2301": 3548,
    "1695,373": 3549,
    "343,1229": 3550,
    "2223,2377": 3551,
    "1446,2164": 3552,
    "251,580": 3553,
    "330,2483": 3554,
    "485,102": 3555,
    "1443,1295": 3556,
    "1,135": 3557,
    "3557,519": 3558,
    "1028,2351": 3559,
    "2320,2301": 3560,
    "575,77": 3561,
    "2866,1443": 3562,
    "3562,798": 3563,
    "808,2532": 3564,
    "1145,794": 3565,
    "2172,2048": 3566,
    "637,1432": 3567,
    "255,1798": 3568,
    "3568,509": 3569,
    "305,2176": 3570,
    "33,2831": 3571,
    "560,2922": 3572,
    "1972,1403": 3573,
    "932,2388": 3574,
    "328,373": 3575,
    "1438,515": 3576,
    "761,2495": 3577,
    "1379,1121": 3578,
    "2050,2477": 3579,
    "381,752": 3580,
    "3580,2202": 3581,
    "2623,770": 3582,
    "1835,219": 3583,
    "3583,1334": 3584,
    "1625,2597": 3585,
    "2168,2458": 3586,
    "1385,394": 3587,
    "70,1975": 3588,
    "270,2458": 3589,
    "2484,1445": 3590,
    "3565,1020": 3591,
    "3591,2922": 3592,
    "1672,1357": 3593,
    "1677,226": 3594,
    "3594,327": 3595,
    "960,1765": 3596,
    "2074,1369": 3597,
    "2802,263": 3598,
    "822,336": 3599,
    "54,2609": 3600,
    "364,445": 3601,
    "3601,222": 3602,
    "1591,756": 3603,
    "126,2024": 3604,
    "571,205": 3605,
    "307,2680": 3606,
    "307,129": 3607,
    "3607,1339": 3608,
    "2117,231": 3609,
    "2392,1339": 3610,
    "2718,1653": 3611,
    "382,1339": 3612,
    "171,72": 3613,
    "1511,316": 3614,
    "3614,1764": 3615,
    "684,328": 3616,
    "348,1": 3617,
    "112,155": 3618,
    "3618,2738": 3619,
    "3619,2219": 3620,
    "531,1011": 3621,
    "2670,2497": 3622,
    "1011,763": 3623,
    "41,1762": 3624,
    "3624,1": 3625,
    "1833,902": 3626,
    "1038,519": 3627,
    "147,2329": 3628,
    "2718,171": 3629,
    "524,127": 3630,
    "3630,1403": 3631,
    "12,2600": 3632,
    "1142,684": 3633,
    "3633,2497": 3634,
    "630,797": 3635,
    "598,574": 3636,
    "215,2795": 3637,
    "2469,200": 3638,
    "2094,205": 3639,
    "67,1228": 3640,
    "3640,257": 3641,
    "2567,263": 3642,
    "896,141": 3643,
    "628,1950": 3644,
    "1744,1696": 3645,
    "530,1377": 3646,
    "3646,1798": 3647,
    "415,2314": 3648,
    "2075,61": 3649,
    "3649,2736": 3650,
    "7,78": 3651,
    "1639,2858": 3652,
    "1554,263": 3653,
    "2158,2329": 3654,
    "295,716": 3655,
    "3655,1742": 3656,
    "666,412": 3657,
    "283,2540": 3658,
    "587,2597": 3659,
    "3659,2144": 3660,
    "2372,548": 3661,
    "605,2229": 3662,
    "774,1339": 3663,
    "1309,1121": 3664,
    "579,822": 3665,
    "3665,296": 3666,
    "98,2752": 3667,
    "43,2708": 3668,
    "155,2599": 3669,
    "1385,2329": 3670,
    "552,1060": 3671,
    "1077,263": 3672,
    "43,35": 3673,
    "2818,1832": 3674,
    "2533,1121": 3675,
    "182,2680": 3676,
    "2424,977": 3677,
    "2126,255": 3678,
    "182,1884": 3679,
    "3679,1290": 3680,
    "235,416": 3681,
    "235,280": 3682,
    "1,1534": 3683,
    "2599,2853": 3684,
    "3684,2054": 3685,
    "582,446": 3686,
    "1279,1798": 3687,
    "714,2727": 3688,
    "1465,1229": 3689,
    "2132,2680": 3690,
    "1188,461": 3691,
    "3691,1421": 3692,
    "2579,2696": 3693,
    "3693,377": 3694,
    "80,1939": 3695,
    "3695,1465": 3696,
    "899,72": 3697,
    "3697,1714": 3698,
    "2424,603": 3699,
    "764,1389": 3700,
    "3700,2301": 3701,
    "1807,1708": 3702,
    "1636,1339": 3703,
    "668,142": 3704,
    "1389,329": 3705,
    "754,982": 3706,
    "2638,2301": 3707,
    "1156,1638": 3708,
    "3708,1765": 3709,
    "270,1535": 3710,
    "713,1432": 3711,
    "364,1072": 3712,
    "2547,598": 3713,
    "485,2755": 3714,
    "1530,92": 3715,
    "3715,1295": 3716,
    "507,1491": 3717,
    "2182,140": 3718,
    "474,255": 3719,
    "2928,61": 3720,
    "3720,66": 3721,
    "3721,528": 3722,
    "3722,866": 3723,
    "1465,311": 3724,
    "2604,972": 3725,
    "3507,352": 3726,
    "510,1838": 3727,
    "529,2346": 3728,
    "226,396": 3729,
    "3729,1464": 3730,
    "808,1043": 3731,
    "305,309": 3732,
    "301,2048": 3733,
    "248,2818": 3734,
    "2346,2495": 3735,
    "1758,2201": 3736,
    "3736,770": 3737,
    "400,1705": 3738,
    "3738,2073": 3739,
    "2921,1": 3740,
    "2883,681": 3741,
    "228,716": 3742,
    "1371,1169": 3743,
    "2088,352": 3744,
    "1369,2765": 3745,
    "844,75": 3746,
    "489,232": 3747,
    "1636,920": 3748,
    "134,515": 3749,
    "364,1929": 3750,
    "68,9": 3751,
    "1511,881": 3752,
    "1714,2848": 3753,
    "102,1109": 3754,
    "1284,2818": 3755,
    "3755,1134": 3756,
    "64,13": 3757,
    "3757,66": 3758,
    "1610,2580": 3759,
    "176,1287": 3760,
    "567,224": 3761,
    "3761,2922": 3762,
    "37,34": 3763,
    "8,87": 3764,
    "2409,1109": 3765,
    "1695,2461": 3766,
    "3766,981": 3767,
    "1170,2497": 3768,
    "2144,832": 3769,
    "2319,2733": 3770,
    "114,2597": 3771,
    "3771,2144": 3772,
    "3055,428": 3773,
    "84,381": 3774,
    "276,1119": 3775,
    "467,1661": 3776,
    "3776,256": 3777,
    "155,2884": 3778,
    "545,2451": 3779,
    "485,1061": 3780,
    "2416,2184": 3781,
    "2469,2301": 3782,
    "1267,1020": 3783,
    "1248,2256": 3784,
    "716,2809": 3785,
    "1823,805": 3786,
    "3786,2445": 3787,
    "342,113": 3788,
    "1283,2477": 3789,
    "2733,7": 3790,
    "770,620": 3791,
    "3791,2194": 3792,
    "2528,1033": 3793,
    "3793,967": 3794,
    "2737,1285": 3795,
    "311,1139": 3796,
    "1139,2091": 3797,
    "3797,752": 3798,
    "1084,2680": 3799,
    "1225,394": 3800,
    "259,528": 3801,
    "1,283": 3802,
    "3802,2831": 3803,
    "2110,2117": 3804,
    "3804,2301": 3805,
    "764,1390": 3806,
    "138,339": 3807,
    "3614,2497": 3808,
    "571,2731": 3809,
    "7,33": 3810,
    "434,730": 3811,
    "628,468": 3812,
    "1,639": 3813,
    "463,373": 3814,
    "1202,1288": 3815,
    "2783,1662": 3816,
    "2546,1525": 3817,
    "78,2616": 3818,
    "1065,2531": 3819,
    "3819,763": 3820,
    "3820,222": 3821,
    "1749,1386": 3822,
    "2469,2616": 3823,
    "3823,1468": 3824,
    "690,2329": 3825,
    "295,311": 3826,
    "1905,2443": 3827,
    "1221,580": 3828,
    "2074,1486": 3829,
    "3366,2458": 3830,
    "597,982": 3831,
    "3831,263": 3832,
    "706,749": 3833,
    "1601,2673": 3834,
    "2599,1049": 3835,
    "2425,2497": 3836,
    "2754,2463": 3837,
    "1607,197": 3838,
    "206,1735": 3839,
    "63,231": 3840,
    "32,1419": 3841,
    "3841,2182": 3842,
    "1832,680": 3843,
    "3843,1556": 3844,
    "571,2922": 3845,
    "339,2144": 3846,
    "1083,1205": 3847,
    "474,1998": 3848,
    "1737,731": 3849,
    "3849,115": 3850,
    "1202,1468": 3851,
    "2369,336": 3852,
    "518,112": 3853,
    "3853,1568": 3854,
    "270,2497": 3855,
    "1421,2477": 3856,
    "102,2463": 3857,
    "1827,2383": 3858,
    "1412,228": 3859,
    "1443,394": 3860,
    "859,295": 3861,
    "3861,1982": 3862,
    "31,919": 3863,
    "3863,875": 3864,
    "3864,200": 3865,
    "1961,560": 3866,
    "3483,60": 3867,
    "950,263": 3868,
    "601,1480": 3869,
    "425,261": 3870,
    "222,114": 3871,
    "3871,1832": 3872,
    "117,572": 3873,
    "126,204": 3874,
    "992,328": 3875,
    "3875,1020": 3876,
    "2579,1698": 3877,
    "92,1129": 3878,
    "51,1572": 3879,
    "700,1714": 3880,
    "760,2555": 3881,
    "3881,916": 3882,
    "2451,2329": 3883,
    "474,1399": 3884,
    "1625,754": 3885,
    "3885,335": 3886,
    "1927,1244": 3887,
    "1713,1996": 3888,
    "469,1719": 3889,
    "2088,263": 3890,
    "529,2050": 3891,
    "3891,2477": 3892,
    "231,225": 3893,
    "150,1906": 3894,
    "1351,1864": 3895,
    "3895,716": 3896,
    "2347,1403": 3897,
    "1283,222": 3898,
    "883,352": 3899,
    "84,628": 3900,
    "3900,1950": 3901,
    "109,1339": 3902,
    "240,1134": 3903,
    "638,897": 3904,
    "983,2048": 3905,
    "224,1357": 3906,
    "2461,749": 3907,
    "418,1735": 3908,
    "2606,1571": 3909,
    "34,35": 3910,
    "113,92": 3911,
    "3911,2392": 3912,
    "767,2180": 3913,
    "3913,2733": 3914,
    "2124,1": 3915,
    "3915,2181": 3916,
    "3916,1468": 3917,
    "1984,716": 3918,
    "32,2796": 3919,
    "3919,142": 3920,
    "184,2402": 3921,
    "1287,509": 3922,
    "1031,2495": 3923,
    "60,12": 3924,
    "528,2608": 3925,
    "1797,2329": 3926,
    "283,319": 3927,
    "3927,1563": 3928,
    "63,69": 3929,
    "3929,2454": 3930,
    "136,1573": 3931,
    "1248,1554": 3932,
    "42,731": 3933,
    "448,2202": 3934,
    "3934,213": 3935,
    "3935,1403": 3936,
    "37,38": 3937,
    "2815,822": 3938,
    "601,1357": 3939,
    "2561,833": 3940,
    "2955,1134": 3941,
    "889,2302": 3942,
    "222,736": 3943,
    "3943,2073": 3944,
    "2922,222": 3945,
    "2134,2351": 3946,
    "142,474": 3947,
    "334,263": 3948,
    "2599,1573": 3949,
    "351,579": 3950,
    "2468,2831": 3951,
    "1201,1549": 3952,
    "3002,2125": 3953,
    "2878,235": 3954,
    "346,428": 3955,
    "3955,1418": 3956,
    "418,1127": 3957,
    "684,1379": 3958,
    "3958,352": 3959,
    "1,2075": 3960,
    "3960,1047": 3961,
    "984,301": 3962,
    "3962,1806": 3963,
    "548,260": 3964,
    "3193,2694": 3965,
    "204,915": 3966,
    "3966,2073": 3967,
    "3967,1134": 3968,
    "1001,902": 3969,
    "198,2398": 3970,
    "1888,1950": 3971,
    "3971,263": 3972,
    "3550,436": 3973,
    "488,2566": 3974,
    "2073,38": 3975,
    "358,222": 3976,
    "1393,1": 3977,
    "324,63": 3978,
    "3978,1136": 3979,
    "3979,760": 3980,
    "1781,352": 3981,
    "34,92": 3982,
    "3982,2885": 3983,
    "2933,960": 3984,
    "1764,2066": 3985,
    "1815,1547": 3986,
    "3964,770": 3987,
    "2933,311": 3988,
    "3988,448": 3989,
    "374,950": 3990,
    "124,1568": 3991,
    "1737,2497": 3992,
    "2547,87": 3993,
    "822,1444": 3994,
    "428,204": 3995,
    "3995,1568": 3996,
    "2144,690": 3997,
    "3997,1156": 3998,
    "3998,155": 3999,
    "582,2301": 4000,
    "2915,1332": 4001,
    "2874,998": 4002,
    "691,2301": 4003,
    "357,2301": 4004,
    "2100,684": 4005,
    "1063,244": 4006,
    "378,486": 4007,
    "1038,428": 4008,
    "1091,765": 4009,
    "878,63": 4010,
    "4010,2847": 4011,
    "2364,517": 4012,
    "4012,1224": 4013,
    "14,1850": 4014,
    "749,201": 4015,
    "4015,352": 4016,
    "474,949": 4017,
    "4017,1403": 4018,
    "2665,2726": 4019,
    "511,949": 4020,
    "1714,1662": 4021,
    "1644,1295": 4022,
    "2701,1607": 4023,
    "2442,2154": 4024,
    "690,2922": 4025,
    "194,2818": 4026,
    "190,187": 4027,
    "4027,701": 4028,
    "2108,87": 4029,
    "4029,87": 4030,
    "247,519": 4031,
    "113,2874": 4032,
    "353,200": 4033,
    "547,222": 4034,
    "2911,84": 4035,
    "4035,2831": 4036,
    "986,1735": 4037,
    "82,82": 4038,
    "640,1576": 4039,
    "4039,67": 4040,
    "818,2674": 4041,
    "428,2299": 4042,
    "1125,2818": 4043,
    "1084,1978": 4044,
    "307,2320": 4045,
    "2051,598": 4046,
    "1127,2281": 4047,
    "528,1516": 4048,
    "49,66": 4049,
    "1385,1398": 4050,
    "1480,2301": 4051,
    "1955,222": 4052,
    "287,1933": 4053,
    "2186,352": 4054,
    "1900,2564": 4055,
    "4055,964": 4056,
    "1403,1134": 4057,
    "2517,365": 4058,
    "1451,897": 4059,
    "2458,222": 4060,
    "4060,528": 4061,
    "4061,1516": 4062,
    "748,343": 4063,
    "2703,1517": 4064,
    "409,2301": 4065,
    "2144,1650": 4066,
    "4066,405": 4067,
    "4067,2144": 4068,
    "1711,9": 4069,
    "531,2246": 4070,
    "2442,1607": 4071,
    "84,2170": 4072,
    "302,1083": 4073,
    "4073,1101": 4074,
    "474,420": 4075,
    "368,2586": 4076,
    "374,763": 4077,
    "408,61": 4078,
    "4078,270": 4079,
    "193,2034": 4080,
    "674,92": 4081,
    "4081,448": 4082,
    "1253,1083": 4083,
    "1749,2168": 4084,
    "605,2497": 4085,
    "227,305": 4086,
    "70,2831": 4087,
    "335,352": 4088,
    "2795,995": 4089,
    "4089,798": 4090,
    "1279,64": 4091,
    "131,1459": 4092,
    "231,599": 4093,
    "532,1978": 4094,
    "4094,478": 4095,
    "382,385": 4096,
    "950,296": 4097,
    "552,461": 4098,
    "693,2184": 4099,
    "2912,2637": 4100,
    "82,2831": 4101,
    "608,2164": 4102,
    "654,752": 4103,
    "142,222": 4104,
    "2053,684": 4105,
    "4105,520": 4106,
    "247,2398": 4107,
    "2301,543": 4108,
    "468,548": 4109,
    "33,33": 4110,
    "4110,32": 4111,
    "226,1568": 4112,
    "4112,2090": 4113,
    "2005,1302": 4114,
    "343,1715": 4115,
    "194,2669": 4116,
    "2606,1010": 4117,
    "2364,2333": 4118,
    "4118,1285": 4119,
    "910,353": 4120,
    "4120,2333": 4121,
    "4121,1285": 4122,
    "392,1011": 4123,
    "752,2831": 4124,
    "2818,1134": 4125,
    "499,709": 4126,
    "587,1725": 4127,
    "846,1339": 4128,
    "1,2130": 4129,
    "329,1134": 4130,
    "1,2074": 4131,
    "2346,1283": 4132,
    "1933,1028": 4133,
    "1348,331": 4134,
    "1400,528": 4135,
    "4135,1516": 4136,
    "528,2434": 4137,
    "2658,1134": 4138,
    "234,87": 4139,
    "2890,2048": 4140,
    "364,2164": 4141,
    "4141,2874": 4142,
    "2207,222": 4143,
    "204,222": 4144,
    "1625,297": 4145,
    "4145,637": 4146,
    "348,75": 4147,
    "4147,25": 4148,
    "4148,14": 4149,
    "1754,352": 4150,
    "22,1832": 4151,
    "1694,261": 4152,
    "2067,93": 4153,
    "448,155": 4154,
    "1117,2683": 4155,
    "3576,63": 4156,
    "597,373": 4157,
    "760,1422": 4158,
    "244,261": 4159,
    "1987,261": 4160,
    "2818,515": 4161,
    "270,2364": 4162,
    "4162,352": 4163,
    "336,684": 4164,
    "2797,754": 4165,
    "4165,982": 4166,
    "307,1941": 4167,
    "2075,1047": 4168,
    "298,363": 4169,
    "1705,2073": 4170,
    "1218,2351": 4171,
    "1080,7": 4172,
    "92,551": 4173,
    "4173,2477": 4174,
    "486,2831": 4175,
    "2326,352": 4176,
    "805,1046": 4177,
    "43,2831": 4178,
    "15,663": 4179,
    "1,305": 4180,
    "4180,1337": 4181,
    "1010,1357": 4182,
    "1254,327": 4183,
    "1248,263": 4184,
    "530,856": 4185,
    "4185,1571": 4186,
    "407,1662": 4187,
    "1385,552": 4188,
    "528,600": 4189,
    "270,1810": 4190,
    "135,875": 4191,
    "1225,2872": 4192,
    "2636,1": 4193,
    "79,2424": 4194,
    "691,9": 4195,
    "603,2301": 4196,
    "4196,2874": 4197,
    "30,38": 4198,
    "4198,33": 4199,
    "2156,215": 4200,
    "1694,1720": 4201,
    "4201,215": 4202,
    "2720,1720": 4203,
    "4203,710": 4204,
    "472,1810": 4205,
    "1468,503": 4206,
    "690,418": 4207,
    "4207,1735": 4208,
    "510,1354": 4209,
    "148,752": 4210,
    "776,400": 4211,
    "1289,2498": 4212,
    "4212,215": 4213,
    "38,1556": 4214,
    "307,1884": 4215,
    "640,12": 4216,
    "529,1371": 4217,
    "4217,343": 4218,
    "1845,60": 4219,
    "4219,60": 4220,
    "2246,463": 4221,
    "80,1775": 4222,
    "4222,437": 4223,
    "1546,1084": 4224,
    "4224,2796": 4225,
    "749,498": 4226,
    "1634,2182": 4227,
    "126,1675": 4228,
    "2012,77": 4229,
    "4229,628": 4230,
    "599,2443": 4231,
    "45,255": 4232,
    "1835,416": 4233,
    "181,167": 4234,
    "4234,1121": 4235,
    "637,805": 4236,
    "2875,2301": 4237,
    "382,520": 4238,
    "2791,2300": 4239,
    "2359,263": 4240,
    "1011,932": 4241,
    "260,725": 4242,
    "684,502": 4243,
    "1737,760": 4244,
    "4244,2815": 4245,
    "490,393": 4246,
    "488,2497": 4247,
    "4247,2817": 4248,
    "674,68": 4249,
    "4249,327": 4250,
    "700,1533": 4251,
    "4251,2858": 4252,
    "204,127": 4253,
    "4253,311": 4254,
    "663,1369": 4255,
    "4255,81": 4256,
    "339,12": 4257,
    "805,763": 4258,
    "1513,558": 4259,
    "2246,568": 4260,
    "2277,2155": 4261,
    "528,335": 4262,
    "2182,902": 4263,
    "1033,2176": 4264,
    "3178,467": 4265,
    "16,22": 4266,
    "1830,1028": 4267,
    "2850,2524": 4268,
    "2414,275": 4269,
    "4269,2831": 4270,
    "1745,1028": 4271,
    "510,263": 4272,
    "601,672": 4273,
    "4273,200": 4274,
    "2470,732": 4275,
    "1,629": 4276,
    "4276,1284": 4277,
    "84,1832": 4278,
    "4278,105": 4279,
    "2077,1253": 4280,
    "1387,2458": 4281,
    "582,608": 4282,
    "716,1129": 4283,
    "1033,2329": 4284,
    "1403,2795": 4285,
    "549,749": 4286,
    "2351,97": 4287,
    "4287,798": 4288,
    "1262,215": 4289,
    "1100,222": 4290,
    "1386,395": 4291,
    "3621,763": 4292,
    "2334,1512": 4293,
    "1625,353": 4294,
    "136,672": 4295,
    "4295,2802": 4296,
    "2555,435": 4297,
    "4297,1572": 4298,
    "4298,2351": 4299,
    "1794,681": 4300,
    "2636,917": 4301,
    "1191,301": 4302,
    "2690,1568": 4303,
    "37,2074": 4304,
    "2699,1568": 4305,
    "554,2458": 4306,
    "373,1386": 4307,
    "2551,1339": 4308,
    "197,416": 4309,
    "2441,67": 4310,
    "2383,1403": 4311,
    "580,263": 4312,
    "2070,296": 4313,
    "4313,352": 4314,
    "4314,1134": 4315,
    "454,1847": 4316,
    "4316,1334": 4317,
    "1579,1515": 4318,
    "373,1662": 4319,
    "352,1999": 4320,
    "1083,951": 4321,
    "1767,311": 4322,
    "4322,2301": 4323,
    "1710,317": 4324,
    "254,1568": 4325,
    "1554,317": 4326,
    "4326,263": 4327,
    "1572,366": 4328,
    "2243,407": 4329,
    "4329,1806": 4330,
    "262,1028": 4331,
    "368,1549": 4332,
    "499,1568": 4333,
    "1767,93": 4334,
    "2047,1735": 4335,
    "2254,181": 4336,
    "201,1468": 4337,
    "4337,2301": 4338,
    "1171,1887": 4339,
    "961,1733": 4340,
    "4340,2019": 4341,
    "4341,1357": 4342,
    "201,763": 4343,
    "44,2803": 4344,
    "4344,2674": 4345,
    "215,2085": 4346,
    "4346,879": 4347,
    "1625,2890": 4348,
    "1563,637": 4349,
    "2467,26": 4350,
    "903,376": 4351,
    "4351,1339": 4352,
    "1107,1568": 4353,
    "859,580": 4354,
    "2300,1379": 4355,
    "548,129": 4356,
    "1073,2246": 4357,
    "4357,568": 4358,
    "1,894": 4359,
    "4359,921": 4360,
    "4360,1357": 4361,
    "1116,2369": 4362,
    "126,876": 4363,
    "2779,2477": 4364,
    "222,2637": 4365,
    "1745,2476": 4366,
    "548,2491": 4367,
    "2364,1339": 4368,
    "1419,1906": 4369,
    "1005,1229": 4370,
    "79,12": 4371,
    "2682,2402": 4372,
    "1110,1867": 4373,
    "4373,597": 4374,
    "1626,1662": 4375,
    "204,147": 4376,
    "1062,2074": 4377,
    "805,2445": 4378,
    "684,701": 4379,
    "2431,1573": 4380,
    "273,2848": 4381,
    "2531,763": 4382,
    "609,20": 4383,
    "450,2342": 4384,
    "4384,868": 4385,
    "455,283": 4386,
    "4386,2826": 4387,
    "4387,2477": 4388,
    "134,2930": 4389,
    "479,2426": 4390,
    "4390,2387": 4391,
    "21,1110": 4392,
    "4392,1733": 4393,
    "84,12": 4394,
    "1746,1713": 4395,
    "461,1492": 4396,
    "620,2454": 4397,
    "761,1119": 4398,
    "118,2554": 4399,
    "1032,222": 4400,
    "33,1635": 4401,
    "4401,188": 4402,
    "2742,2497": 4403,
    "68,12": 4404,
    "79,147": 4405,
    "1284,1810": 4406,
    "561,2497": 4407,
    "1794,112": 4408,
    "1298,1403": 4409,
    "597,2796": 4410,
    "2671,1662": 4411,
    "1290,263": 4412,
    "2182,521": 4413,
    "700,2333": 4414,
    "4414,1412": 4415,
    "4415,228": 4416,
    "2829,152": 4417,
    "1555,2486": 4418,
    "1443,395": 4419,
    "550,383": 4420,
    "2674,2796": 4421,
    "3502,1365": 4422,
    "75,2831": 4423,
    "299,1799": 4424,
    "2438,2246": 4425,
    "201,2184": 4426,
    "507,142": 4427,
    "483,2526": 4428,
    "2238,2755": 4429,
    "295,1986": 4430,
    "4144,215": 4431,
    "611,2922": 4432,
    "2615,185": 4433,
    "4433,519": 4434,
    "1188,2256": 4435,
    "415,2831": 4436,
    "1371,749": 4437,
    "2577,2874": 4438,
    "114,1832": 4439,
    "1620,1733": 4440,
    "378,677": 4441,
    "2665,222": 4442,
    "1747,2451": 4443,
    "672,798": 4444,
    "422,1109": 4445,
    "2791,1614": 4446,
    "1424,222": 4447,
    "269,2553": 4448,
    "507,1697": 4449,
    "37,151": 4450,
    "1922,2301": 4451,
    "262,2351": 4452,
    "49,2670": 4453,
    "1162,296": 4454,
    "299,448": 4455,
    "4455,915": 4456,
    "1693,752": 4457,
    "210,582": 4458,
    "4458,1547": 4459,
    "109,1468": 4460,
    "2300,2246": 4461,
    "699,87": 4462,
    "2711,1121": 4463,
    "434,152": 4464,
    "2334,826": 4465,
    "931,1568": 4466,
    "2878,256": 4467,
    "1121,2694": 4468,
    "616,293": 4469,
    "705,1340": 4470,
    "69,2454": 4471,
    "1830,2922": 4472,
    "67,84": 4473,
    "4473,381": 4474,
    "436,2477": 4475,
    "135,382": 4476,
    "1215,172": 4477,
    "2758,235": 4478,
    "136,1642": 4479,
    "22,25": 4480,
    "605,1933": 4481,
    "1631,2609": 4482,
    "396,1323": 4483,
    "2477,1459": 4484,
    "1714,446": 4485,
    "1249,1288": 4486,
    "4486,1101": 4487,
    "1188,814": 4488,
    "52,44": 4489,
    "4489,47": 4490,
    "1139,2787": 4491,
    "60,390": 4492,
    "809,2588": 4493,
    "403,72": 4494,
    "117,295": 4495,
    "552,1975": 4496,
    "2255,2236": 4497,
    "12,17": 4498,
    "1867,701": 4499,
    "1863,1581": 4500,
    "4500,63": 4501,
    "1288,1230": 4502,
    "2576,1311": 4503,
    "4503,1134": 4504,
    "1,532": 4505,
    "3793,204": 4506,
    "222,528": 4507,
    "4507,1516": 4508,
    "1694,298": 4509,
    "265,2803": 4510,
    "714,2458": 4511,
    "295,1339": 4512,
    "2803,2087": 4513,
    "195,235": 4514,
    "966,298": 4515,
    "4515,806": 4516,
    "630,794": 4517,
    "4517,2118": 4518,
    "684,2351": 4519,
    "1110,1215": 4520,
    "4520,832": 4521,
    "333,1446": 4522,
    "1903,352": 4523,
    "1061,1": 4524,
    "2223,1228": 4525,
    "1495,409": 4526,
    "1419,915": 4527,
    "4527,1993": 4528,
    "3575,499": 4529,
    "47,579": 4530,
    "4530,71": 4531,
    "364,2498": 4532,
    "33,932": 4533,
    "4533,983": 4534,
    "473,2922": 4535,
    "275,2303": 4536,
    "4536,763": 4537,
    "579,601": 4538,
    "1734,1339": 4539,
    "2482,1999": 4540,
    "185,519": 4541,
    "2984,1581": 4542,
    "2335,991": 4543,
    "1225,2728": 4544,
    "4544,2853": 4545,
    "1843,339": 4546,
    "897,1134": 4547,
    "2002,1080": 4548,
    "204,1437": 4549,
    "748,2831": 4550,
    "2758,1156": 4551,
    "4551,1975": 4552,
    "117,1638": 4553,
    "4553,1765": 4554,
    "434,1381": 4555,
    "4555,2144": 4556,
    "1485,215": 4557,
    "255,548": 4558,
    "2780,1571": 4559,
    "127,1547": 4560,
    "260,770": 4561,
    "42,1509": 4562,
    "1078,1121": 4563,
    "1975,1571": 4564,
    "484,1720": 4565,
    "1783,550": 4566,
    "3229,2307": 4567,
    "960,2706": 4568,
    "1823,1603": 4569,
    "1426,1465": 4570,
    "1488,395": 4571,
    "972,377": 4572,
    "72,2831": 4573,
    "1438,87": 4574,
    "4574,87": 4575,
    "2859,856": 4576,
    "2728,215": 4577,
    "1335,1530": 4578,
    "4578,92": 4579,
    "4579,1295": 4580,
    "32,781": 4581,
    "4581,2398": 4582,
    "2424,602": 4583,
    "1402,399": 4584,
    "1465,352": 4585,
    "261,2874": 4586,
    "1012,2186": 4587,
    "4587,352": 4588,
    "416,270": 4589,
    "4589,1415": 4590,
    "198,339": 4591,
    "1369,799": 4592,
    "213,1299": 4593,
    "102,416": 4594,
    "265,458": 4595,
    "228,1735": 4596,
    "520,1227": 4597,
    "4597,2796": 4598,
    "1767,2458": 4599,
    "2682,1": 4600,
    "4600,87": 4601,
    "255,761": 4602,
    "428,1662": 4603,
    "3919,2092": 4604,
    "1125,1503": 4605,
    "2461,2051": 4606,
    "4606,598": 4607,
    "894,352": 4608,
    "948,1735": 4609,
    "2866,2058": 4610,
    "721,205": 4611,
    "1871,334": 4612,
    "4612,1907": 4613,
    "2332,2379": 4614,
    "2463,215": 4615,
    "2758,2074": 4616,
    "2231,255": 4617,
    "4617,1337": 4618,
    "4618,2184": 4619,
    "2465,1736": 4620,
    "311,510": 4621,
    "229,1468": 4622,
    "586,2495": 4623,
    "4234,263": 4624,
    "373,1689": 4625,
    "601,1": 4626,
    "79,14": 4627,
    "213,655": 4628,
    "4628,1895": 4629,
    "2791,166": 4630,
    "1372,102": 4631,
    "201,856": 4632,
    "760,126": 4633,
    "4633,521": 4634,
    "3811,2458": 4635,
    "682,2074": 4636,
    "125,181": 4637,
    "1626,1495": 4638,
    "4638,172": 4639,
    "1847,2201": 4640,
    "4640,770": 4641,
    "46,31": 4642,
    "378,2495": 4643,
    "2758,329": 4644,
    "3460,2497": 4645,
    "1715,2495": 4646,
    "2070,2246": 4647,
    "838,2308": 4648,
    "690,2831": 4649,
    "2456,407": 4650,
    "4650,1806": 4651,
    "2768,1": 4652,
    "4652,1047": 4653,
    "4653,1887": 4654,
    "3993,87": 4655,
    "2615,2301": 4656,
    "2073,1371": 4657,
    "4657,1465": 4658,
    "2700,2159": 4659,
    "4659,2491": 4660,
    "1815,2184": 4661,
    "2189,1581": 4662,
    "4662,63": 4663,
    "1537,185": 4664,
    "1225,235": 4665,
    "31,2438": 4666,
    "4666,2246": 4667,
    "1757,2387": 4668,
    "2599,1568": 4669,
    "1572,2351": 4670,
    "2234,105": 4671,
    "1591,571": 4672,
    "4672,1381": 4673,
    "4673,2144": 4674,
    "147,140": 4675,
    "1285,352": 4676
  },
  "next_id": 4677
}