{
  "id2token": {
    "0": "\n",
    "1": " ",
    "2": "!",
    "3": "#",
    "4": "$",
    "5": "%",
    "6": "'",
    "7": "(",
    "8": ")",
    "9": "*",
    "10": "+",
    "11": ",",
    "12": "-",
    "13": ".",
    "14": "/",
    "15": "0",
    "16": "1",
    "17": "2",
    "18": "3",
    "19": "4",
    "20": "5",
    "21": "6",
    "22": "7",
    "23": "8",
    "24": "9",
    "25": ":",
    "26": ";",
    "27": "=",
    "28": "?",
    "29": "@",
    "30": "A",
    "31": "B",
    "32": "C",
    "33": "D",
    "34": "E",
    "35": "F",
    "36": "G",
    "37": "H",
    "38": "I",
    "39": "J",
    "40": "K",
    "41": "L",
    "42": "M",
    "43": "N",
    "44": "O",
    "45": "P",
    "46": "Q",
    "47": "R",
    "48": "S",
    "49": "T",
    "50": "U",
    "51": "V",
    "52": "W",
    "53": "X",
    "54": "Y",
    "55": "Z",
    "56": "\\",
    "57": "^",
    "58": "_",
    "59": "`",
    "60": "a",
    "61": "b",
    "62": "c",
    "63": "d",
    "64": "e",
    "65": "f",
    "66": "g",
    "67": "h",
    "68": "i",
    "69": "j",
    "70": "k",
    "71": "l",
    "72": "m",
    "73": "n",
    "74": "o",
    "75": "p",
    "76": "q",
    "77": "r",
    "78": "s",
    "79": "t",
    "80": "u",
    "81": "v",
    "82": "w",
    "83": "x",
    "84": "y",
    "85": "z",
    "86": "{",
    "87": "|",
    "88": "}",
    "89": "~",
    "90": "<|endoftext|>",
    "91": "<pad>",
    "92": "li",
    "93": "lie",
    "94": "ik",
    "95": "ike",
    "96": "Ro",
    "97": "Rom",
    "98": "us",
    "99": "usc",
    "100": "uscu",
    "101": "uscul",
    "102": "pa",
    "103": "pai",
    "104": "pain",
    "105": "id",
    "106": "ida",
    "107": "iday",
    "108": ".*",
    "109": "ol",
    "110": "olu",
    "111": "olut",
    "112": "ue",
    "113": "ue ",
    "114": "ge",
    "115": "get",
    "116": "geta",
    "117": "me",
    "118": "op",
    "119": "opp",
    "120": "oppe",
    "121": "opped",
    "122": "OG",
    "123": "OGI",
    "124": "st",
    "125": "sto",
    "126": "ta",
    "127": "tai",
    "128": "ve",
    "129": "vel",
    "130": "9,",
    "131": "ow",
    "132": "owe",
    "133": "owev",
    "134": "9 ",
    "135": "ca",
    "136": "can",
    "137": "ym",
    "138": "ymp",
    "139": "ry",
    "140": "ry ",
    "141": "gl",
    "142": "ur",
    "143": "uri",
    "144": "urin",
    "145": "r.",
    "146": "r. ",
    "147": "va",
    "148": "kn",
    "149": "kno",
    "150": "know",
    "151": "un",
    "152": "und",
    "153": "ec",
    "154": "eco",
    "155": "no",
    "156": "not",
    "157": "au",
    "158": "aul",
    "159": "ek",
    "160": ";1",
    "161": "ys",
    "162": "ysi",
    "163": "ysis",
    "164": "ha",
    "165": "han",
    "166": "han ",
    "167": "uc",
    "168": "Ho",
    "169": "Hon",
    "170": "Hong",
    "171": "il",
    "172": "ily",
    "173": "usa",
    "174": "usad",
    "175": "by",
    "176": "gg",
    "177": "gge",
    "178": "gges",
    "179": "ggest",
    "180": "re",
    "181": "red",
    "182": "we",
    "183": "wes",
    "184": "west",
    "185": "da",
    "186": "day",
    "187": " t",
    "188": " th",
    "189": " tha",
    "190": " that",
    "191": "sy",
    "192": "sys",
    "193": "syst",
    "194": "ic",
    "195": "ica",
    "196": "ican",
    "197": "on",
    "198": "oni",
    "199": "onia",
    "200": "mi",
    "201": "min",
    "202": "ig",
    "203": "igr",
    "204": "de",
    "205": "der",
    "206": "deri",
    "207": "tat",
    "208": "tati",
    "209": "gs",
    "210": "eg",
    "211": "ego",
    "212": "egon",
    "213": " o",
    "214": " of",
    "215": " of ",
    "216": "D ",
    "217": "D -",
    "218": "D --",
    "219": "ti",
    "220": "til",
    "221": "till",
    "222": "al",
    "223": "alo",
    "224": "ree",
    "225": "ree ",
    "226": "ga",
    "227": "gam",
    "228": "lo",
    "229": "loc",
    "230": "loci",
    "231": "th",
    "232": "tha",
    "233": "than",
    "234": "1 ",
    "235": "ea",
    "236": "ean",
    "237": "eans",
    "238": "eans ",
    "239": "uch",
    "240": "uch ",
    "241": "uch a",
    "242": "uch as",
    "243": "use",
    "244": "pu",
    "245": "pub",
    "246": "vo",
    "247": "thi",
    "248": "thin",
    "249": "am",
    "250": "amm",
    "251": "rem",
    "252": "tab",
    "253": "tabl",
    "254": "table",
    "255": "it",
    "256": "itu",
    "257": "ch",
    "258": "vi",
    "259": "vis",
    "260": "visi",
    "261": "re ",
    "262": "ed",
    "263": "ed ",
    "264": "wr",
    "265": "Co",
    "266": "Cor",
    "267": "Cort",
    "268": "Sp",
    "269": "Spa",
    "270": "be",
    "271": "bel",
    "272": "beli",
    "273": "belie",
    "274": "ower",
    "275": "er",
    "276": "eri",
    "277": "erio",
    "278": "eriod",
    "279": "vil",
    "280": "vily",
    "281": "hh",
    "282": "hhh",
    "283": "is",
    "284": "isa",
    "285": "isam",
    "286": "isamb",
    "287": "nn",
    "288": "nni",
    "289": "nnis",
    "290": "wo",
    "291": "yi",
    "292": "yin",
    "293": "el",
    "294": "eld",
    "295": "an",
    "296": "anc",
    "297": "opo",
    "298": "bu",
    "299": "na",
    "300": "nat",
    "301": "era",
    "302": "sk",
    "303": "skr",
    "304": "skri",
    "305": "ma",
    "306": "mag",
    "307": "ra",
    "308": "ras",
    "309": "ke",
    "310": "ker",
    "311": "ne",
    "312": "neg",
    "313": "negi",
    "314": "6,",
    "315": "6, ",
    "316": "if",
    "317": "ifi",
    "318": "ific",
    "319": "ot",
    "320": "otb",
    "321": "otba",
    "322": "otbal",
    "323": "otball",
    "324": "Bo",
    "325": "Bow",
    "326": "Bowl",
    "327": "wa",
    "328": "as",
    "329": "as ",
    "330": "cha",
    "331": "chan",
    "332": "chani",
    "333": "ad",
    "334": "add",
    "335": "tic",
    "336": "oo",
    "337": "oop",
    "338": "sh",
    "339": "to",
    "340": "tok",
    "341": "toku",
    "342": "tr",
    "343": "tra",
    "344": "tras",
    "345": "trast",
    "346": "ont",
    "347": "onth",
    "348": "tt",
    "349": "tte",
    "350": "tter",
    "351": "Th",
    "352": "e ",
    "353": "om",
    "354": "oma",
    "355": "oman",
    "356": "rt",
    "357": "rte",
    "358": "ov",
    "359": "ove",
    "360": "ovem",
    "361": "oveme",
    "362": "ovemen",
    "363": "ild",
    "364": "or",
    "365": "ork",
    "366": "thm",
    "367": "omp",
    "368": "pi",
    "369": "pir",
    "370": "ela",
    "371": "elan",
    "372": "om ",
    "373": "pe",
    "374": "per",
    "375": "peri",
    "376": "iv",
    "377": "ive",
    "378": "wi",
    "379": "wit",
    "380": "with",
    "381": "dr",
    "382": "rr",
    "383": "rre",
    "384": "rren",
    "385": "ang",
    "386": "su",
    "387": "suc",
    "388": "such",
    "389": "'s",
    "390": "'s ",
    "391": "tc",
    "392": "tch",
    "393": "eland",
    "394": "ty",
    "395": "ty ",
    "396": "do",
    "397": "dow",
    "398": "down",
    "399": "and",
    "400": "and ",
    "401": "rv",
    "402": "rve",
    "403": "ite",
    "404": "ited",
    "405": "so",
    "406": "tu",
    "407": "tua",
    "408": "ri",
    "409": "rie",
    "410": "ries",
    "411": "nea",
    "412": "ei",
    "413": "ein",
    "414": "eing",
    "415": "ce",
    "416": "ce ",
    "417": "ps",
    "418": "si",
    "419": "sib",
    "420": "sibl",
    "421": "ped",
    "422": "pedi",
    "423": "pedia",
    "424": "aq",
    "425": "Go",
    "426": "Gos",
    "427": "Gosp",
    "428": "ro",
    "429": "rom",
    "430": "3 ",
    "431": "3 /",
    "432": "3 /s",
    "433": "3 /su",
    "434": "po",
    "435": "por",
    "436": "port",
    "437": "mb",
    "438": "mbi",
    "439": "mbig",
    "440": "mbigu",
    "441": "Sy",
    "442": "Sys",
    "443": "Syst",
    "444": "igi",
    "445": "igin",
    "446": "ves",
    "447": "NO",
    "448": "ba",
    "449": "bal",
    "450": "Me",
    "451": "Mex",
    "452": "Mexi",
    "453": "Mexic",
    "454": "ju",
    "455": "jur",
    "456": "A,",
    "457": "A, ",
    "458": "sta",
    "459": "go",
    "460": "gol",
    "461": "ast",
    "462": "asta",
    "463": "um",
    "464": "ume",
    "465": "urc",
    "466": "urce",
    "467": " I",
    "468": "nd",
    "469": "ndo",
    "470": "rou",
    "471": "roug",
    "472": "lt",
    "473": "aug",
    "474": "pos",
    "475": "ka",
    "476": "onl",
    "477": "only",
    "478": "nu",
    "479": "num",
    "480": "numb",
    "481": "numbe",
    "482": "ir",
    "483": "ir ",
    "484": "rit",
    "485": "ar",
    "486": "ng",
    "487": "nge",
    "488": "Ma",
    "489": "Mar",
    "490": "Ir",
    "491": "Ira",
    "492": "FM",
    "493": "FMD",
    "494": "NE",
    "495": "orr",
    "496": "orro",
    "497": "orror",
    "498": "eo",
    "499": "ct",
    "500": "cto",
    "501": "ctob",
    "502": "z ",
    "503": "st ",
    "504": "st o",
    "505": "st of",
    "506": "st of ",
    "507": "fo",
    "508": "for",
    "509": "for ",
    "510": "fi",
    "511": "fin",
    "512": "( ",
    "513": "rito",
    "514": "ritor",
    "515": "/t",
    "516": "gag",
    "517": "pan",
    "518": "ven",
    "519": "rd",
    "520": "ie",
    "521": "ck",
    "522": "sul",
    "523": "sult",
    "524": "ob",
    "525": "obj",
    "526": "obje",
    "527": "objec",
    "528": "co",
    "529": "con",
    "530": "cons",
    "531": "const",
    "532": "Te",
    "533": "Ten",
    "534": "Tenn",
    "535": "low",
    "536": "lowa",
    "537": "lowan",
    "538": "lowanc",
    "539": "Am",
    "540": "Ame",
    "541": "Amer",
    "542": "Ameri",
    "543": "that",
    "544": "iew",
    "545": "up",
    "546": "gi",
    "547": "git",
    "548": "le",
    "549": "let",
    "550": "za",
    "551": "zat",
    "552": "rc",
    "553": "rce",
    "554": "ho",
    "555": "hou",
    "556": "hour",
    "557": "hours",
    "558": "ust",
    "559": "ust ",
    "560": "ip",
    "561": "orl",
    "562": "orld",
    "563": "Bor",
    "564": "hab",
    "565": "habi",
    "566": "habit",
    "567": "ag",
    "568": "age",
    "569": "cu",
    "570": "cut",
    "571": "mo",
    "572": "mor",
    "573": "more",
    "574": "more ",
    "575": "He",
    "576": "Hei",
    "577": "Heig",
    "578": "Heigh",
    "579": "ai",
    "580": "ain",
    "581": "DP",
    "582": "in",
    "583": "ine",
    "584": "rci",
    "585": "rcis",
    "586": "isi",
    "587": "Ge",
    "588": "Ger",
    "589": "Germ",
    "590": "Germa",
    "591": "os",
    "592": "ost",
    "593": "ost ",
    "594": "yr",
    "595": "yri",
    "596": "yria",
    "597": "res",
    "598": "or ",
    "599": "ul",
    "600": "uld",
    "601": "la",
    "602": "lat",
    "603": "late",
    "604": "late ",
    "605": "fl",
    "606": "flu",
    "607": "flue",
    "608": "fluen",
    "609": "(1",
    "610": "(19",
    "611": "ll",
    "612": "lle",
    "613": "lley",
    "614": "hous",
    "615": "ttl",
    "616": "pp",
    "617": "RI",
    "618": "RIS",
    "619": "owed",
    "620": "sp",
    "621": "spe",
    "622": "spel",
    "623": "wel",
    "624": "80",
    "625": "oi",
    "626": "oid",
    "627": "ina",
    "628": "bo",
    "629": "Ch",
    "630": "Cha",
    "631": "Chap",
    "632": "Chapl",
    "633": "Height",
    "634": "dam",
    "635": "dame",
    "636": "oin",
    "637": "rti",
    "638": "yo",
    "639": "you",
    "640": "60",
    "641": "urit",
    "642": "ex",
    "643": "exa",
    "644": "exan",
    "645": "exand",
    "646": "olv",
    "647": "olve",
    "648": "q ",
    "649": "q l",
    "650": "q la",
    "651": "q lan",
    "652": "q lang",
    "653": "q langu",
    "654": "cc",
    "655": "ccu",
    "656": "ccum",
    "657": "ccumu",
    "658": "igh",
    "659": "ighb",
    "660": "lan",
    "661": "lang",
    "662": "langu",
    "663": "% ",
    "664": "boo",
    "665": "book",
    "666": "oth",
    "667": "oth ",
    "668": "rth",
    "669": "eu",
    "670": "eut",
    "671": "ar ",
    "672": "di",
    "673": "diu",
    "674": "Ta",
    "675": "Tam",
    "676": "Tama",
    "677": "ki",
    "678": "ut",
    "679": "je",
    "680": " to",
    "681": "ely",
    "682": "has",
    "683": "hod",
    "684": "nt",
    "685": "ntr",
    "686": "ntry",
    "687": "urt",
    "688": "urth",
    "689": "urthe",
    "690": "en",
    "691": "ene",
    "692": "amo",
    "693": "amon",
    "694": "amond",
    "695": "5t",
    "696": "5th",
    "697": "r,",
    "698": "r, ",
    "699": " -",
    "700": "im",
    "701": "ime",
    "702": "imen",
    "703": "mp",
    "704": "mpt",
    "705": "em",
    "706": "eme",
    "707": "emen",
    "708": "av",
    "709": "ave",
    "710": "lis",
    "711": "lish",
    "712": "dit",
    "713": "diti",
    "714": "ap",
    "715": "apa",
    "716": "ni",
    "717": "nim",
    "718": "orn",
    "719": "emp",
    "720": "mbl",
    "721": "ren",
    "722": "renc",
    "723": "rench",
    "724": "tc.",
    "725": "ons",
    "726": "onst",
    "727": "onsta",
    "728": "onstan",
    "729": "ko",
    "730": "nen",
    "731": "ud",
    "732": "oint",
    "733": "iver",
    "734": "tho",
    "735": "thou",
    "736": "thoug",
    "737": "1 /",
    "738": "1 /s",
    "739": "1 /su",
    "740": "ups",
    "741": "du",
    "742": "dur",
    "743": "duri",
    "744": "durin",
    "745": "during",
    "746": "uca",
    "747": "ext",
    "748": "te",
    "749": "ter",
    "750": "cag",
    "751": "cago",
    "752": "es",
    "753": "gr",
    "754": "ac",
    "755": "moc",
    "756": "mocr",
    "757": "wb",
    "758": "wbo",
    "759": "wboy",
    "760": "at",
    "761": "ati",
    "762": "atio",
    "763": "ation",
    "764": "cl",
    "765": "cli",
    "766": "clid",
    "767": "N ",
    "768": "N b",
    "769": "N br",
    "770": "on ",
    "771": "amb",
    "772": "opt",
    "773": "--",
    "774": "eiv",
    "775": "00",
    "776": "00 ",
    "777": "ami",
    "778": "amil",
    "779": "ev",
    "780": "eve",
    "781": "riti",
    "782": "ritis",
    "783": "cov",
    "784": "cove",
    "785": "cover",
    "786": "rch",
    "787": "dy",
    "788": "dy ",
    "789": "Re",
    "790": "Rep",
    "791": "Repu",
    "792": "Repub",
    "793": ".S",
    "794": "rl",
    "795": "rle",
    "796": "rles",
    "797": "rles ",
    "798": "an ",
    "799": "ase",
    "800": "ased",
    "801": "ased ",
    "802": "Gol",
    "803": "Gola",
    "804": "Golan",
    "805": "fic",
    "806": "rg",
    "807": "rga",
    "808": "rgan",
    "809": "wor",
    "810": "word",
    "811": "eq",
    "812": "equ",
    "813": "eque",
    "814": "equen",
    "815": "eci",
    "816": "!-",
    "817": "ew",
    "818": "hu",
    "819": "hur",
    "820": "hurc",
    "821": "hurch",
    "822": "ss",
    "823": "i ",
    "824": "ach",
    "825": "ep",
    "826": "ept",
    "827": "epte",
    "828": "eptem",
    "829": "eptemb",
    "830": "ith",
    "831": "11",
    "832": "ili",
    "833": "ilit",
    "834": "Tec",
    "835": "Tech",
    "836": "Wo",
    "837": "Wor",
    "838": "cr",
    "839": "cre",
    "840": "ya",
    "841": "yal",
    "842": "velo",
    "843": "4,",
    "844": "4, ",
    "845": "mpe",
    "846": "mper",
    "847": "ong",
    "848": " /",
    "849": "nad",
    "850": "sid",
    "851": "side",
    "852": "len",
    "853": "lend",
    "854": "lenda",
    "855": "lendar",
    "856": "ist",
    "857": "Br",
    "858": "Bri",
    "859": "Brit",
    "860": "Briti",
    "861": "Britis",
    "862": "may",
    "863": "may ",
    "864": "ery",
    "865": "ery ",
    "866": "lor",
    "867": "jeo",
    "868": "art",
    "869": "arti",
    "870": "artic",
    "871": "articu",
    "872": "articul",
    "873": "articula",
    "874": "rap",
    "875": "che",
    "876": "ched",
    "877": "exam",
    "878": "har",
    "879": "sus",
    "880": "reek",
    "881": "ifica",
    "882": "ifican",
    "883": "forc",
    "884": "At",
    "885": "Ata",
    "886": "Atar",
    "887": "lly",
    "888": " td",
    "889": "nd ",
    "890": "nd t",
    "891": "nd to",
    "892": "nd to ",
    "893": "ort",
    "894": "mal",
    "895": "mall",
    "896": "sin",
    "897": "ne ",
    "898": "est",
    "899": "hi",
    "900": "hie",
    "901": "hiev",
    "902": "w ",
    "903": " l",
    "904": " la",
    "905": " lan",
    "906": " lang",
    "907": " langu",
    "908": "vig",
    "909": "viga",
    "910": "lec",
    "911": "lect",
    "912": "how",
    "913": "how ",
    "914": "/ ",
    "915": "pt",
    "916": "pt ",
    "917": "he",
    "918": "her",
    "919": "io",
    "920": "ior",
    "921": "eb",
    "922": "mil",
    "923": "mila",
    "924": "milar",
    "925": "ngt",
    "926": "ngth",
    "927": "/s",
    "928": "/su",
    "929": "vol",
    "930": "volv",
    "931": "volve",
    "932": "oc",
    "933": "ocu",
    "934": "ocum",
    "935": "leb",
    "936": "lebr",
    "937": "nan",
    "938": "MD",
    "939": "cru",
    "940": "crui",
    "941": "cruis",
    "942": "cruise",
    "943": "We",
    "944": "Web",
    "945": "#8",
    "946": "uth",
    "947": "ide",
    "948": "iti",
    "949": "itio",
    "950": "form",
    "951": "hic",
    "952": "hica",
    "953": "hicag",
    "954": "mos",
    "955": "most",
    "956": "tob",
    "957": "ctu",
    "958": "ito",
    "959": "vat",
    "960": "fe",
    "961": "6 ",
    "962": "6 -",
    "963": "6 - ",
    "964": "iz",
    "965": "anch",
    "966": "din",
    "967": "ding",
    "968": "uh",
    "969": "uha",
    "970": "uham",
    "971": "jec",
    "972": "ject",
    "973": "ame",
    "974": "BC",
    "975": "ile",
    "976": "ile ",
    "977": "ilt",
    "978": "ilto",
    "979": "ilton",
    "980": "pol",
    "981": "tan",
    "982": "ult",
    "983": "tri",
    "984": "gen",
    "985": "gent",
    "986": "uci",
    "987": "ucin",
    "988": "ulu",
    "989": "The",
    "990": "The ",
    "991": "Eu",
    "992": "Eur",
    "993": "Euro",
    "994": "Europ",
    "995": "Europe",
    "996": "rom ",
    "997": "-1",
    "998": "be ",
    "999": "5,",
    "1000": "5, ",
    "1001": "gre",
    "1002": "hio",
    "1003": "aint",
    "1004": "Con",
    "1005": "lli",
    "1006": "llia",
    "1007": "lliam",
    "1008": "icu",
    "1009": "icul",
    "1010": "icula",
    "1011": "ell",
    "1012": "Mi",
    "1013": "Min",
    "1014": "Mini",
    "1015": "Minis",
    "1016": "nj",
    "1017": "njo",
    "1018": "njou",
    "1019": "njour",
    "1020": "ia",
    "1021": "ack",
    "1022": "ack ",
    "1023": "mie",
    "1024": "mies",
    "1025": "Gr",
    "1026": "Gre",
    "1027": "uti",
    "1028": "ure",
    "1029": "urea",
    "1030": "ureat",
    "1031": "zi",
    "1032": "rov",
    "1033": "lu",
    "1034": "err",
    "1035": "erre",
    "1036": "cono",
    "1037": "lah",
    "1038": "Ca",
    "1039": "Can",
    "1040": "Cana",
    "1041": "dn",
    "1042": "dne",
    "1043": "ism",
    "1044": "TA",
    "1045": "RT",
    "1046": "ial",
    "1047": "int",
    "1048": "wn",
    "1049": "ere",
    "1050": "vai",
    "1051": "vail",
    "1052": "bed",
    "1053": "ld",
    "1054": "ld ",
    "1055": "td",
    "1056": "but",
    "1057": "but ",
    "1058": "lif",
    "1059": "lifo",
    "1060": "a ",
    "1061": "my",
    "1062": "ou",
    "1063": "out",
    "1064": "in ",
    "1065": "In",
    "1066": "wri",
    "1067": "writ",
    "1068": "ak",
    "1069": "aka",
    "1070": "akan",
    "1071": "hoo",
    "1072": "hood",
    "1073": "dv",
    "1074": "oa",
    "1075": "oad",
    "1076": "lea",
    "1077": "leas",
    "1078": "yp",
    "1079": "ypt",
    "1080": "ch ",
    "1081": "rough",
    "1082": "ok",
    "1083": "et",
    "1084": "ete",
    "1085": "8 ",
    "1086": "8 -",
    "1087": " (",
    "1088": " (d",
    "1089": " (d.",
    "1090": " (d. ",
    "1091": "Cy",
    "1092": "Cyt",
    "1093": "Cyto",
    "1094": "mpu",
    "1095": "mput",
    "1096": "arl",
    "1097": "bl",
    "1098": "bli",
    "1099": "blis",
    "1100": "ever",
    "1101": "ball",
    "1102": "(b",
    "1103": "(bo",
    "1104": "(bor",
    "1105": "(born",
    "1106": "eus",
    "1107": "tie",
    "1108": "tio",
    "1109": "tion",
    "1110": "4 ",
    "1111": "4 -",
    "1112": "4 - ",
    "1113": "Cal",
    "1114": "Cali",
    "1115": "Calif",
    "1116": "Califo",
    "1117": "ote",
    "1118": "oter",
    "1119": "c ",
    "1120": "9)",
    "1121": "es ",
    "1122": "ortu",
    "1123": "ortun",
    "1124": "ovel",
    "1125": "roc",
    "1126": "nom",
    "1127": "ze",
    "1128": "zed",
    "1129": "zed ",
    "1130": "udi",
    "1131": "ticl",
    "1132": "ticle",
    "1133": "of",
    "1134": "of ",
    "1135": "nth",
    "1136": "his",
    "1137": "erb",
    "1138": "iki",
    "1139": "ver",
    "1140": "vere",
    "1141": "verei",
    "1142": "vereig",
    "1143": "was",
    "1144": "p ",
    "1145": "Pa",
    "1146": "Pag",
    "1147": "Page",
    "1148": "Gu",
    "1149": "Gui",
    "1150": "Guid",
    "1151": "Guide",
    "1152": "ill",
    "1153": "illi",
    "1154": "illia",
    "1155": "illiam",
    "1156": "ome",
    "1157": "Ya",
    "1158": "Yan",
    "1159": "Yank",
    "1160": "Yanke",
    "1161": "Yankee",
    "1162": "Fr",
    "1163": "Fre",
    "1164": "Fren",
    "1165": "af",
    "1166": "hist",
    "1167": "by ",
    "1168": "tag",
    "1169": "tage",
    "1170": "nc",
    "1171": "sl",
    "1172": "cau",
    "1173": "caus",
    "1174": "),",
    "1175": "), ",
    "1176": "tz",
    "1177": "Yo",
    "1178": "Yor",
    "1179": "York",
    "1180": "ric",
    "1181": "rica",
    "1182": "rical",
    "1183": "thio",
    "1184": "thiop",
    "1185": "ger",
    "1186": "xa",
    "1187": "ny",
    "1188": "fr",
    "1189": "itis",
    "1190": "ct ",
    "1191": "lit",
    "1192": "liti",
    "1193": "litic",
    "1194": "60s",
    "1195": "aft",
    "1196": "afte",
    "1197": "arg",
    "1198": "arge",
    "1199": "s*",
    "1200": "hang",
    "1201": "Guin",
    "1202": "ub",
    "1203": "ubl",
    "1204": "ubli",
    "1205": "c.",
    "1206": "urg",
    "1207": "urge",
    "1208": "urges",
    "1209": "Dj",
    "1210": "Dji",
    "1211": "Djib",
    "1212": "Djibo",
    "1213": "Djibou",
    "1214": "fa",
    "1215": "fam",
    "1216": "famo",
    "1217": "famou",
    "1218": "famous",
    "1219": "gt",
    "1220": "gto",
    "1221": "unt",
    "1222": "amou",
    "1223": "amous",
    "1224": "ied",
    "1225": " s",
    "1226": "hown",
    "1227": "rm",
    "1228": "rma",
    "1229": "ns",
    "1230": "nse",
    "1231": "foo",
    "1232": "food",
    "1233": "iter",
    "1234": "Da",
    "1235": "Dan",
    "1236": "Dani",
    "1237": "Danis",
    "1238": "Danish",
    "1239": "anu",
    "1240": "anua",
    "1241": "anuar",
    "1242": "she",
    "1243": "*1",
    "1244": "dd",
    "1245": "km",
    "1246": "km)",
    "1247": "izo",
    "1248": "urn",
    "1249": "Ba",
    "1250": "Ban",
    "1251": "Bang",
    "1252": "Bangl",
    "1253": "mm",
    "1254": "Ha",
    "1255": "Ham",
    "1256": "Hami",
    "1257": "Hamil",
    "1258": "Tea",
    "1259": "Teac",
    "1260": "Teach",
    "1261": "oic",
    "1262": "oice",
    "1263": "lde",
    "1264": "lden",
    "1265": "rda",
    "1266": "rdan",
    "1267": "med",
    "1268": "*Y",
    "1269": "sia",
    "1270": "och",
    "1271": "Ar",
    "1272": "Art",
    "1273": "Arti",
    "1274": "Artic",
    "1275": "Articl",
    "1276": "iga",
    "1277": " n",
    "1278": " no",
    "1279": " not",
    "1280": "til ",
    "1281": "God",
    "1282": "so ",
    "1283": "vers",
    "1284": "ris",
    "1285": "icat",
    "1286": "our",
    "1287": "le ",
    "1288": "se",
    "1289": "ser",
    "1290": "serv",
    "1291": "Ti",
    "1292": "Tig",
    "1293": "Tigr",
    "1294": "gor",
    "1295": "gn",
    "1296": "cem",
    "1297": "cemb",
    "1298": "the",
    "1299": "ther",
    "1300": "tow",
    "1301": "town",
    "1302": "ber",
    "1303": "bert",
    "1304": "evel",
    "1305": "gy",
    "1306": "gyp",
    "1307": "gypt",
    "1308": "vy",
    "1309": "sur",
    "1310": "ity",
    "1311": "ity ",
    "1312": "gat",
    "1313": "oved",
    "1314": "cri",
    "1315": "Ja",
    "1316": "Jac",
    "1317": "Jack",
    "1318": "L ",
    "1319": "L b",
    "1320": "L br",
    "1321": "icl",
    "1322": "icle",
    "1323": "lla",
    "1324": "rot",
    "1325": "roth",
    "1326": "ifo",
    "1327": "ifor",
    "1328": "iforn",
    "1329": "dg",
    "1330": "dge",
    "1331": "oug",
    "1332": "ough",
    "1333": "bs",
    "1334": "fy",
    "1335": "= ",
    "1336": "chi",
    "1337": "chin",
    "1338": "ical",
    "1339": "ing",
    "1340": "ingl",
    "1341": "ingle",
    "1342": "cum",
    "1343": "cume",
    "1344": "cumen",
    "1345": "nis",
    "1346": "crip",
    "1347": "cript",
    "1348": "mer",
    "1349": "meri",
    "1350": "sic",
    "1351": "cco",
    "1352": "ccor",
    "1353": "ccord",
    "1354": "lm",
    "1355": "rio",
    "1356": "rior",
    "1357": "r ",
    "1358": "r /",
    "1359": "r /s",
    "1360": "r /su",
    "1361": "lip",
    "1362": "Sc",
    "1363": "Sco",
    "1364": "Scot",
    "1365": "eren",
    "1366": "ird",
    "1367": "lue",
    "1368": "luen",
    "1369": "ab",
    "1370": "abl",
    "1371": "cen",
    "1372": "ici",
    "1373": "icia",
    "1374": "hop",
    "1375": "ener",
    "1376": "enera",
    "1377": "ider",
    "1378": "cra",
    "1379": "enc",
    "1380": "ench",
    "1381": "gra",
    "1382": "DO",
    "1383": "DON",
    "1384": "DONE",
    "1385": "ci",
    "1386": "cie",
    "1387": "cien",
    "1388": "0,",
    "1389": "are",
    "1390": "are ",
    "1391": "erag",
    "1392": "hanc",
    "1393": "las",
    "1394": "lass",
    "1395": "elt",
    "1396": "gic",
    "1397": "U ",
    "1398": "ses",
    "1399": "sess",
    "1400": "Al",
    "1401": "Ale",
    "1402": "Alex",
    "1403": "n ",
    "1404": "n b",
    "1405": "n br",
    "1406": " - ",
    "1407": "rvi",
    "1408": "rvic",
    "1409": "rvice",
    "1410": "Chi",
    "1411": "Chin",
    "1412": "og",
    "1413": "tw",
    "1414": "twe",
    "1415": "twee",
    "1416": "omes",
    "1417": "omest",
    "1418": "lled",
    "1419": "ru",
    "1420": "ruc",
    "1421": "ruct",
    "1422": "ors",
    "1423": "orse",
    "1424": "loy",
    "1425": "fore",
    "1426": "Na",
    "1427": "Nak",
    "1428": "Naka",
    "1429": "Nakan",
    "1430": "e,",
    "1431": "e, ",
    "1432": "ona",
    "1433": "onat",
    "1434": "cin",
    "1435": "g)",
    "1436": ".*1",
    "1437": ".*19",
    "1438": "5 ",
    "1439": "5 a",
    "1440": "5 an",
    "1441": "5 and",
    "1442": "5 and ",
    "1443": "ali",
    "1444": "oci",
    "1445": " A",
    "1446": "van",
    "1447": "arr",
    "1448": "lti",
    "1449": "over",
    "1450": "overn",
    "1451": "ui",
    "1452": "Hor",
    "1453": "Hora",
    "1454": "Horac",
    "1455": "ale",
    "1456": "alen",
    "1457": "aus",
    "1458": "shi",
    "1459": "ship",
    "1460": "oe",
    "1461": "oe ",
    "1462": "net",
    "1463": "able",
    "1464": "lin",
    "1465": "tur",
    "1466": "voi",
    "1467": "void",
    "1468": "ate",
    "1469": "ateg",
    "1470": "atego",
    "1471": "ategor",
    "1472": "6t",
    "1473": "6th",
    "1474": "hat",
    "1475": "cci",
    "1476": "ccin",
    "1477": "ngu",
    "1478": "lio",
    "1479": "lion",
    "1480": "ye",
    "1481": "opl",
    "1482": "one",
    "1483": "ones",
    "1484": "outh",
    "1485": "ttle",
    "1486": "now",
    "1487": "d.",
    "1488": "xi",
    "1489": "xic",
    "1490": "llo",
    "1491": "llow",
    "1492": "ron",
    "1493": "rin",
    "1494": "ring",
    "1495": "mar",
    "1496": "Ci",
    "1497": "Cin",
    "1498": "Cinc",
    "1499": "Gi",
    "1500": "Gia",
    "1501": "Gian",
    "1502": "Giant",
    "1503": "ket",
    "1504": "rig",
    "1505": "righ",
    "1506": "right",
    "1507": "oun",
    "1508": "ounc",
    "1509": "S ",
    "1510": "ltic",
    "1511": "spec",
    "1512": "inat",
    "1513": "ug",
    "1514": "ugh",
    "1515": "ught",
    "1516": "hol",
    "1517": "tar",
    "1518": "hem",
    "1519": "hema",
    "1520": "rm{",
    "1521": "aly",
    "1522": "alys",
    "1523": "alysi",
    "1524": "alysis",
    "1525": "uct",
    "1526": "uctu",
    "1527": "uctur",
    "1528": "7,",
    "1529": "7, ",
    "1530": "6 a",
    "1531": "6 an",
    "1532": "6 and",
    "1533": "ula",
    "1534": "cam",
    "1535": "came",
    "1536": "has ",
    "1537": "Ju",
    "1538": "lum",
    "1539": "hir",
    "1540": "hiro",
    "1541": "hirop",
    "1542": "hiropr",
    "1543": "En",
    "1544": "Eng",
    "1545": "Engl",
    "1546": "nin",
    "1547": "ning",
    "1548": "nes",
    "1549": "ness",
    "1550": "ovi",
    "1551": "ovie",
    "1552": "oviet",
    "1553": "umen",
    "1554": "ass",
    "1555": "cro",
    "1556": "tal",
    "1557": "WI",
    "1558": "upe",
    "1559": "uper",
    "1560": "CN",
    "1561": "CNS",
    "1562": "CNS ",
    "1563": "ope",
    "1564": "hat ",
    "1565": "ctor",
    "1566": "hos",
    "1567": "host",
    "1568": "s ",
    "1569": "s o",
    "1570": "s of",
    "1571": "s of ",
    "1572": "ari",
    "1573": "ic ",
    "1574": " nd",
    "1575": " nda",
    "1576": " ndas",
    "1577": "cq",
    "1578": "cqu",
    "1579": "sla",
    "1580": "bol",
    "1581": " /t",
    "1582": "nct",
    "1583": " K",
    "1584": " Ko",
    "1585": " Kon",
    "1586": " Kong",
    "1587": "Gro",
    "1588": "Grou",
    "1589": "8 b",
    "1590": "8 br",
    "1591": "De",
    "1592": "ee",
    "1593": "eed",
    "1594": "ife",
    "1595": "iou",
    "1596": "ious",
    "1597": "2,",
    "1598": "vio",
    "1599": "viou",
    "1600": "par",
    "1601": "para",
    "1602": "ore",
    "1603": "ore ",
    "1604": "hee",
    "1605": "hees",
    "1606": "heese",
    "1607": "ond",
    "1608": "ryp",
    "1609": "rypt",
    "1610": "cor",
    "1611": "cord",
    "1612": "trie",
    "1613": "cat",
    "1614": "he ",
    "1615": "yl",
    "1616": "yle",
    "1617": "das",
    "1618": "wl",
    "1619": "ked",
    "1620": "2 ",
    "1621": "\\m",
    "1622": "\\ma",
    "1623": "\\mat",
    "1624": "cil",
    "1625": "pr",
    "1626": "pri",
    "1627": ") ",
    "1628": "(d",
    "1629": "(d.",
    "1630": "(d. ",
    "1631": "gar",
    "1632": "gard",
    "1633": "I.",
    "1634": "Vi",
    "1635": "uring",
    "1636": "hav",
    "1637": "have",
    "1638": "wh",
    "1639": "whi",
    "1640": "whic",
    "1641": "which",
    "1642": "cel",
    "1643": "cell",
    "1644": "esi",
    "1645": "esid",
    "1646": "az",
    "1647": "azi",
    "1648": "NO ",
    "1649": "NO I",
    "1650": "ilo",
    "1651": "ilot",
    "1652": "ts",
    "1653": "hed",
    "1654": "velop",
    "1655": "oso",
    "1656": "dor",
    "1657": "Fa",
    "1658": "Far",
    "1659": "Faro",
    "1660": "Faroe",
    "1661": "nst",
    "1662": "l ",
    "1663": "E ",
    "1664": "E -",
    "1665": "olo",
    "1666": "rar",
    "1667": "nr",
    "1668": "ede",
    "1669": "eder",
    "1670": "fri",
    "1671": "all",
    "1672": "alle",
    "1673": "alled",
    "1674": "urch",
    "1675": "cle",
    "1676": "ua",
    "1677": "ana",
    "1678": "anad",
    "1679": "isto",
    "1680": "Wi",
    "1681": "Wit",
    "1682": "With",
    "1683": "redi",
    "1684": "redie",
    "1685": "redien",
    "1686": ".p",
    "1687": ".pn",
    "1688": ".png",
    "1689": "tit",
    "1690": "titu",
    "1691": "Jap",
    "1692": "Japa",
    "1693": "Japan",
    "1694": " a",
    "1695": " as",
    "1696": " as ",
    "1697": "lk",
    "1698": "ord",
    "1699": "orda",
    "1700": "ordan",
    "1701": "Em",
    "1702": "ight",
    "1703": "uss",
    "1704": "ngl",
    "1705": "mat",
    "1706": "mate",
    "1707": "acy",
    "1708": "od",
    "1709": "amp",
    "1710": "ampl",
    "1711": "8)",
    "1712": "umer",
    "1713": "ib",
    "1714": "sel",
    "1715": "ini",
    "1716": "Pau",
    "1717": "Paul",
    "1718": "ht",
    "1719": "ws",
    "1720": "rea",
    "1721": "reas",
    "1722": "lb",
    "1723": "lbe",
    "1724": "lber",
    "1725": "org",
    "1726": "onn",
    "1727": "onne",
    "1728": "onnec",
    "1729": "onnect",
    "1730": "ape",
    "1731": "apes",
    "1732": "yea",
    "1733": "year",
    "1734": "liv",
    "1735": "ve ",
    "1736": "erg",
    "1737": " b",
    "1738": " br",
    "1739": "Wim",
    "1740": "Wimb",
    "1741": "Wimbl",
    "1742": "hil",
    "1743": "teg",
    "1744": "well",
    "1745": "xt",
    "1746": "eas",
    "1747": "hap",
    "1748": "hapl",
    "1749": "So",
    "1750": "Sof",
    "1751": "Soft",
    "1752": "Softw",
    "1753": "Softwa",
    "1754": "Softwar",
    "1755": "astat",
    "1756": "een",
    "1757": "pl",
    "1758": "pla",
    "1759": "fai",
    "1760": "8,",
    "1761": "8, ",
    "1762": "ake",
    "1763": "VI",
    "1764": "ying",
    "1765": "at ",
    "1766": "W.",
    "1767": "ear",
    "1768": "earc",
    "1769": "isk",
    "1770": ",0",
    "1771": ",00",
    "1772": ",000",
    "1773": "nou",
    "1774": "noun",
    "1775": "xe",
    "1776": "xer",
    "1777": "Ki",
    "1778": "KiB",
    "1779": "gai",
    "1780": "gain",
    "1781": "ston",
    "1782": "ual",
    "1783": "ino",
    "1784": "inoc",
    "1785": "inocu",
    "1786": "inocul",
    "1787": "2 n",
    "1788": "2 nd",
    "1789": "2 nda",
    "1790": "2 ndas",
    "1791": "oss",
    "1792": "ossi",
    "1793": "ossib",
    "1794": "tin",
    "1795": "ting",
    "1796": "8 - ",
    "1797": "men",
    "1798": "able ",
    "1799": "ly",
    "1800": "a,",
    "1801": "a, ",
    "1802": "upt",
    "1803": "hib",
    "1804": "hibi",
    "1805": "hibit",
    "1806": "lly ",
    "1807": "mig",
    "1808": "migr",
    "1809": "migra",
    "1810": "en ",
    "1811": "erie",
    "1812": "dera",
    "1813": "hor",
    "1814": "wo ",
    "1815": "gin",
    "1816": "gine",
    "1817": "-c",
    "1818": "-ca",
    "1819": "-cal",
    "1820": "fric",
    "1821": "frica",
    "1822": "gal",
    "1823": "ef",
    "1824": "eft",
    "1825": " B",
    "1826": " BC",
    "1827": "Pr",
    "1828": "hool",
    "1829": "cif",
    "1830": "eat",
    "1831": "eat ",
    "1832": "br",
    "1833": "sho",
    "1834": "shop",
    "1835": "iden",
    "1836": "eop",
    "1837": "eopl",
    "1838": "ft",
    "1839": "fte",
    "1840": "ronz",
    "1841": "ronze",
    "1842": "ipe",
    "1843": "vic",
    "1844": "vice",
    "1845": ")*",
    "1846": "nounc",
    "1847": "sti",
    "1848": "stit",
    "1849": "stitu",
    "1850": "write",
    "1851": "writer",
    "1852": "arc",
    "1853": "inis",
    "1854": "inist",
    "1855": "nw",
    "1856": "nwa",
    "1857": "BM",
    "1858": "urb",
    "1859": "ich",
    "1860": "nk",
    "1861": "nke",
    "1862": "nkee",
    "1863": "1%",
    "1864": "mpa",
    "1865": "mpas",
    "1866": "mpass",
    "1867": "met",
    "1868": "his ",
    "1869": "fro",
    "1870": "from",
    "1871": "P ",
    "1872": "Ri",
    "1873": "Riv",
    "1874": "Rive",
    "1875": "River",
    "1876": "82",
    "1877": "821",
    "1878": "edr",
    "1879": "uni",
    "1880": "5 -",
    "1881": "5 - ",
    "1882": "igu",
    "1883": "oul",
    "1884": "b ",
    "1885": "itec",
    "1886": "itect",
    "1887": "o ",
    "1888": "aw",
    "1889": "aw ",
    "1890": "Kis",
    "1891": "Kiss",
    "1892": "amen",
    "1893": "Ve",
    "1894": "Ven",
    "1895": "rs",
    "1896": "rsi",
    "1897": "rsio",
    "1898": "rsion",
    "1899": "Le",
    "1900": "Lei",
    "1901": "rde",
    "1902": "rder",
    "1903": "Sh",
    "1904": "ook",
    "1905": "orm",
    "1906": "led",
    "1907": "ress",
    "1908": "VD",
    "1909": "eib",
    "1910": "eibn",
    "1911": "fir",
    "1912": "firs",
    "1913": "first",
    "1914": "fer",
    "1915": "*19",
    "1916": "O ",
    "1917": "emb",
    "1918": "*Yo",
    "1919": "ddh",
    "1920": "ad ",
    "1921": "aid",
    "1922": "hin",
    "1923": "ryo",
    "1924": "bru",
    "1925": "brua",
    "1926": "bruar",
    "1927": "bi",
    "1928": "ece",
    "1929": "bit",
    "1930": "eig",
    "1931": "2, ",
    "1932": "Ind",
    "1933": "ect",
    "1934": "pm",
    "1935": "pme",
    "1936": "pmen",
    "1937": "Cyp",
    "1938": "Cypr",
    "1939": "fac",
    "1940": "face",
    "1941": "ge ",
    "1942": "iner",
    "1943": "inera",
    "1944": "ineral",
    "1945": "Ad",
    "1946": "Ado",
    "1947": "Adop",
    "1948": "Adopt",
    "1949": "eria",
    "1950": "ard",
    "1951": "3,",
    "1952": "3, ",
    "1953": "lac",
    "1954": "sig",
    "1955": "sign",
    "1956": "gis",
    "1957": "gisl",
    "1958": "wil",
    "1959": "will",
    "1960": "lur",
    "1961": "str",
    "1962": "me ",
    "1963": "me M",
    "1964": "me Mi",
    "1965": "70",
    "1966": "iel",
    "1967": "ield",
    "1968": "ria",
    "1969": "700",
    "1970": "ice",
    "1971": "known",
    "1972": "spi",
    "1973": "spit",
    "1974": "spite",
    "1975": "les",
    "1976": "lest",
    "1977": "R ",
    "1978": "rmi",
    "1979": "ngr",
    "1980": "ngre",
    "1981": "ror",
    "1982": "nic",
    "1983": "dus",
    "1984": "rgi",
    "1985": "nua",
    "1986": "nual",
    "1987": "ssu",
    "1988": "mai",
    "1989": "main",
    "1990": "-b",
    "1991": "-bi",
    "1992": "-bit",
    "1993": "cy",
    "1994": "ae",
    "1995": "ael",
    "1996": "iot",
    "1997": "rthe",
    "1998": "oph",
    "1999": "19",
    "2000": "used",
    "2001": "used ",
    "2002": "mu",
    "2003": "mus",
    "2004": "o-",
    "2005": "tim",
    "2006": "mit",
    "2007": "Fe",
    "2008": "Fed",
    "2009": "Fede",
    "2010": "Feder",
    "2011": "ole",
    "2012": "oca",
    "2013": "ocat",
    "2014": "ee ",
    "2015": "milt",
    "2016": "gh",
    "2017": "gha",
    "2018": "sio",
    "2019": "sb",
    "2020": "sba",
    "2021": "000",
    "2022": "IA",
    "2023": "geth",
    "2024": "ke ",
    "2025": "hich",
    "2026": "**",
    "2027": "eap",
    "2028": "eap ",
    "2029": "eap y",
    "2030": "eap ye",
    "2031": "eap yea",
    "2032": "rst",
    "2033": "lete",
    "2034": "ems",
    "2035": "arth",
    "2036": "iq",
    "2037": "iqu",
    "2038": ".C",
    "2039": ".C.",
    "2040": "haps",
    "2041": "heb",
    "2042": "heba",
    "2043": "Wik",
    "2044": "Wiki",
    "2045": "pment",
    "2046": "eil",
    "2047": "cti",
    "2048": "ctio",
    "2049": "nec",
    "2050": "nect",
    "2051": " f",
    "2052": " fr",
    "2053": " fro",
    "2054": " from",
    "2055": "pit",
    "2056": "ltim",
    "2057": "ltima",
    "2058": "ian",
    "2059": "iant",
    "2060": "nl",
    "2061": "nly",
    "2062": "nly ",
    "2063": "ymo",
    "2064": "ymol",
    "2065": "T-",
    "2066": " to ",
    "2067": "imp",
    "2068": "impo",
    "2069": "impor",
    "2070": "import",
    "2071": "g}",
    "2072": "sider",
    "2073": "h ",
    "2074": "is ",
    "2075": "Sa",
    "2076": "San",
    "2077": "Ga",
    "2078": "Gal",
    "2079": "Gale",
    "2080": "Galen",
    "2081": "ply",
    "2082": "eep",
    "2083": "way",
    "2084": "ways",
    "2085": "Je",
    "2086": "Jeo",
    "2087": "m ",
    "2088": "bin",
    "2089": "bino",
    "2090": "mas",
    "2091": "thel",
    "2092": "ral",
    "2093": "ule",
    "2094": "bor",
    "2095": "born",
    "2096": "ced",
    "2097": "fed",
    "2098": "fede",
    "2099": "feder",
    "2100": "ara",
    "2101": "eti",
    "2102": "umn",
    "2103": "bou",
    "2104": "bout",
    "2105": "nch",
    "2106": "jo",
    "2107": "joy",
    "2108": "7 ",
    "2109": "7 -",
    "2110": "ay",
    "2111": "nged",
    "2112": "4)",
    "2113": "byt",
    "2114": "nla",
    "2115": "nlan",
    "2116": "nland",
    "2117": "mon",
    "2118": "ton",
    "2119": "Is",
    "2120": "Isr",
    "2121": "Isra",
    "2122": "Israe",
    "2123": "Israel",
    "2124": "ted",
    "2125": "er ",
    "2126": " P",
    "2127": " Pa",
    "2128": " Pag",
    "2129": " Page",
    "2130": "was ",
    "2131": "umb",
    "2132": "umbe",
    "2133": "umber",
    "2134": "rge",
    "2135": "rgen",
    "2136": "Po",
    "2137": "Poe",
    "2138": "orp",
    "2139": "orpo",
    "2140": "orpor",
    "2141": "Emp",
    "2142": "P b",
    "2143": "P br",
    "2144": "ph",
    "2145": "pho",
    "2146": "phon",
    "2147": "cul",
    "2148": ".)",
    "2149": "hn",
    "2150": "hn ",
    "2151": "1 /t",
    "2152": "lg",
    "2153": "fter",
    "2154": "olog",
    "2155": "nna",
    "2156": "gree",
    "2157": "ndon",
    "2158": "ten",
    "2159": "x ",
    "2160": "tas",
    "2161": "rae",
    "2162": "utho",
    "2163": "uthor",
    "2164": "ced ",
    "2165": "bov",
    "2166": "bove",
    "2167": "ut ",
    "2168": "vie",
    "2169": "view",
    "2170": "nar",
    "2171": "ety",
    "2172": "rote",
    "2173": "d. ",
    "2174": "dan",
    "2175": "ner",
    "2176": "de ",
    "2177": "80s",
    "2178": "erba",
    "2179": "/m",
    "2180": "/ma",
    "2181": "St",
    "2182": "sa",
    "2183": "tl",
    "2184": "g ",
    "2185": "g K",
    "2186": "ddl",
    "2187": "rk",
    "2188": "rke",
    "2189": "50",
    "2190": "500",
    "2191": "rsia",
    "2192": "rsian",
    "2193": "omas",
    "2194": "here",
    "2195": "yru",
    "2196": "yrus",
    "2197": "nuar",
    "2198": "gm",
    "2199": "ngi",
    "2200": "ngin",
    "2201": "nati",
    "2202": "sed",
    "2203": "hel",
    "2204": "helm",
    "2205": " 1",
    "2206": "ood",
    "2207": "esti",
    "2208": "estic",
    "2209": "Us",
    "2210": "Com",
    "2211": "Comp",
    "2212": "nce",
    "2213": "oke",
    "2214": "wee",
    "2215": "ecu",
    "2216": "ecut",
    "2217": "t)",
    "2218": "sey",
    "2219": "ire",
    "2220": "vent",
    "2221": " (1",
    "2222": " (19",
    "2223": "pha",
    "2224": "6)",
    "2225": "yer",
    "2226": "ogi",
    "2227": "ogic",
    "2228": "Un",
    "2229": "ict",
    "2230": "icti",
    "2231": "sw",
    "2232": "swe",
    "2233": "swer",
    "2234": "ox",
    "2235": "ele",
    "2236": "ose",
    "2237": "osed",
    "2238": "urr",
    "2239": "urre",
    "2240": "urren",
    "2241": "-ce",
    "2242": "-cen",
    "2243": "even",
    "2244": "rh",
    "2245": "rha",
    "2246": "ant",
    "2247": "#S",
    "2248": "ald",
    "2249": "18",
    "2250": "anadi",
    "2251": "anadia",
    "2252": "anadian",
    "2253": "rro",
    "2254": "lf",
    "2255": "rp",
    "2256": "ey",
    "2257": "ddi",
    "2258": "ega",
    "2259": "yric",
    "2260": "dot",
    "2261": "orne",
    "2262": "erv",
    "2263": "hase",
    "2264": "time",
    "2265": "pero",
    "2266": "peror",
    "2267": "nda",
    "2268": "ky",
    "2269": "zab",
    "2270": "zabe",
    "2271": "ane",
    "2272": "anel",
    "2273": "kin",
    "2274": "sli",
    "2275": "slim",
    "2276": "ucat",
    "2277": "ante",
    "2278": "Kin",
    "2279": "King",
    "2280": "land",
    "2281": "gov",
    "2282": "gove",
    "2283": "riv",
    "2284": "hm",
    "2285": "aph",
    "2286": "ls",
    "2287": "lso",
    "2288": "lso ",
    "2289": "edi",
    "2290": "osl",
    "2291": "nde",
    "2292": "nder",
    "2293": "ings",
    "2294": "thod",
    "2295": "ken",
    "2296": "ins",
    "2297": "insu",
    "2298": "insub",
    "2299": "ot ",
    "2300": "end",
    "2301": "d ",
    "2302": "pre",
    "2303": "pret",
    "2304": "pul",
    "2305": "lson",
    "2306": "ado",
    "2307": "line",
    "2308": "yst",
    "2309": "? ",
    "2310": "stru",
    "2311": "ibu",
    "2312": "ibut",
    "2313": "rta",
    "2314": "rtai",
    "2315": "nota",
    "2316": "notab",
    "2317": "notabl",
    "2318": "!--",
    "2319": "20",
    "2320": "ise",
    "2321": "nut",
    "2322": "rui",
    "2323": "ruis",
    "2324": " =",
    "2325": " = ",
    "2326": "ros",
    "2327": "ross",
    "2328": "Born",
    "2329": "sion",
    "2330": "T ",
    "2331": "bum",
    "2332": "wer",
    "2333": "mun",
    "2334": "sc",
    "2335": "3-",
    "2336": "3-1",
    "2337": "bre",
    "2338": "ay ",
    "2339": "dal",
    "2340": "5)",
    "2341": "lc",
    "2342": "lch",
    "2343": "lche",
    "2344": "lchem",
    "2345": "gan",
    "2346": "tro",
    "2347": "oh",
    "2348": "ohe",
    "2349": "ohem",
    "2350": "nwh",
    "2351": "ly ",
    "2352": "gli",
    "2353": "glis",
    "2354": "ndi",
    "2355": "sco",
    "2356": "aig",
    "2357": "roa",
    "2358": "cep",
    "2359": "cept",
    "2360": "aim",
    "2361": "epe",
    "2362": "epen",
    "2363": "epend",
    "2364": "com",
    "2365": "hen",
    "2366": "iod",
    "2367": "zz",
    "2368": "gla",
    "2369": "rn",
    "2370": "rna",
    "2371": "rnal",
    "2372": "who",
    "2373": "Cl",
    "2374": "Cle",
    "2375": "Clev",
    "2376": "Cleve",
    "2377": "se ",
    "2378": "fu",
    "2379": "ful",
    "2380": "pg",
    "2381": "pgr",
    "2382": "ussi",
    "2383": "ussia",
    "2384": "Cat",
    "2385": "Cath",
    "2386": "I ",
    "2387": "us ",
    "2388": "cus",
    "2389": "als",
    "2390": "90",
    "2391": "90s",
    "2392": "ght",
    "2393": "Ze",
    "2394": "Zen",
    "2395": "Zena",
    "2396": "riz",
    "2397": "rize",
    "2398": "cal",
    "2399": "roup",
    "2400": "duc",
    "2401": "king",
    "2402": "ern",
    "2403": "mob",
    "2404": "mobi",
    "2405": "mobil",
    "2406": "vid",
    "2407": "vid ",
    "2408": "0_",
    "2409": "ple",
    "2410": ".S.",
    "2411": "ame ",
    "2412": "How",
    "2413": "Howe",
    "2414": "Howev",
    "2415": "rad",
    "2416": "slan",
    "2417": "sland",
    "2418": "lia",
    "2419": "liam",
    "2420": "stal",
    "2421": "val",
    "2422": "vale",
    "2423": "valen",
    "2424": "gu",
    "2425": "mpl",
    "2426": "ero",
    "2427": "r o",
    "2428": "r of",
    "2429": "r of ",
    "2430": "ngle",
    "2431": "scop",
    "2432": "MP",
    "2433": "MPO",
    "2434": "lleg",
    "2435": "it ",
    "2436": "F.",
    "2437": "In ",
    "2438": "yz",
    "2439": "md",
    "2440": "mda",
    "2441": "mdas",
    "2442": "sm",
    "2443": "ous",
    "2444": "sse",
    "2445": "ien",
    "2446": "iend",
    "2447": "Pre",
    "2448": "Pres",
    "2449": "Presi",
    "2450": "Presid",
    "2451": "pen",
    "2452": "pend",
    "2453": "py",
    "2454": "ace",
    "2455": "m}",
    "2456": "vir",
    "2457": "viro",
    "2458": "t ",
    "2459": "Bru",
    "2460": "Brun",
    "2461": "sis",
    "2462": "egor",
    "2463": "ble",
    "2464": "blem",
    "2465": "nb",
    "2466": "nbs",
    "2467": "nbsp",
    "2468": "70s",
    "2469": "ade",
    "2470": " p",
    "2471": " pl",
    "2472": " pla",
    "2473": "M ",
    "2474": "rcu",
    "2475": "rac",
    "2476": "ract",
    "2477": "ion",
    "2478": "roun",
    "2479": "round",
    "2480": " an",
    "2481": " and",
    "2482": " and ",
    "2483": "el ",
    "2484": "2)",
    "2485": "sof",
    "2486": "soft",
    "2487": "were",
    "2488": "rict",
    "2489": "typ",
    "2490": "Oc",
    "2491": "rat",
    "2492": "A.",
    "2493": "dium",
    "2494": "1)",
    "2495": "ng ",
    "2496": "mes",
    "2497": "y ",
    "2498": "ies",
    "2499": "angu",
    "2500": "wt",
    "2501": "wth",
    "2502": "uis",
    "2503": "-W",
    "2504": "-Wi",
    "2505": "1 -",
    "2506": "rtic",
    "2507": "rticl",
    "2508": "rticle",
    "2509": "Qu",
    "2510": "ller",
    "2511": "them",
    "2512": "thema",
    "2513": "rtu",
    "2514": "tol",
    "2515": "tole",
    "2516": "tolem",
    "2517": "etw",
    "2518": "etwe",
    "2519": "etwee",
    "2520": "rael",
    "2521": "1,",
    "2522": "1, ",
    "2523": "Fo",
    "2524": "For",
    "2525": "Forc",
    "2526": "Force",
    "2527": "viv",
    "2528": "inc",
    "2529": "lic",
    "2530": "lict",
    "2531": "tern",
    "2532": "ize",
    "2533": "lv",
    "2534": "lva",
    "2535": "lvad",
    "2536": "lvado",
    "2537": "lvador",
    "2538": "woo",
    "2539": "wood",
    "2540": "cop",
    "2541": "any",
    "2542": "any ",
    "2543": "Jer",
    "2544": "clu",
    "2545": "clud",
    "2546": "cond",
    "2547": "0 ",
    "2548": "0 -",
    "2549": "dic",
    "2550": "dica",
    "2551": "dicat",
    "2552": "uil",
    "2553": "nish",
    "2554": "ath",
    "2555": "tem",
    "2556": "eive",
    "2557": "euti",
    "2558": "uro",
    "2559": "urop",
    "2560": "urope",
    "2561": "bab",
    "2562": "E b",
    "2563": "E br",
    "2564": "bn",
    "2565": "ll ",
    "2566": "ny ",
    "2567": "ish",
    "2568": "pie",
    "2569": "mong",
    "2570": "US",
    "2571": "7 - ",
    "2572": "Uni",
    "2573": "Univ",
    "2574": "Unive",
    "2575": "Univer",
    "2576": "Univers",
    "2577": "up ",
    "2578": "magn",
    "2579": "rec",
    "2580": "rect",
    "2581": "Le ",
    "2582": "gue",
    "2583": "den",
    "2584": "son",
    "2585": "onee",
    "2586": "oneer",
    "2587": "ks",
    "2588": "ks ",
    "2589": "zec",
    "2590": "zech",
    "2591": "uel",
    "2592": "rial",
    "2593": "ock",
    "2594": "ocke",
    "2595": "ockey",
    "2596": "ogr",
    "2597": "ogra",
    "2598": "ng|",
    "2599": "ff",
    "2600": "air",
    "2601": "had",
    "2602": "had ",
    "2603": "' ",
    "2604": "sub",
    "2605": "sub ",
    "2606": "part",
    "2607": "llec",
    "2608": "llect",
    "2609": "et ",
    "2610": "embe",
    "2611": "ember",
    "2612": "plo",
    "2613": "plom",
    "2614": "ploma",
    "2615": "stan",
    "2616": "qu",
    "2617": "ipt",
    "2618": "f-",
    "2619": "vela",
    "2620": "velan",
    "2621": "eror",
    "2622": "ctur",
    "2623": "usi",
    "2624": "usic",
    "2625": "usan",
    "2626": "harl",
    "2627": "shin",
    "2628": "jor",
    "2629": "tn",
    "2630": "tna",
    "2631": "tnam",
    "2632": " \\",
    "2633": "Im",
    "2634": "Ima",
    "2635": "Imag",
    "2636": "wis",
    "2637": "uat",
    "2638": "war",
    "2639": "igat",
    "2640": "d o",
    "2641": "d of",
    "2642": "d of ",
    "2643": "Ag",
    "2644": "Age",
    "2645": "le t",
    "2646": "hen ",
    "2647": "s}",
    "2648": "row",
    "2649": "gover",
    "2650": "govern",
    "2651": "yste",
    "2652": "ystem",
    "2653": " --",
    "2654": "ign",
    "2655": "9,0",
    "2656": "9,00",
    "2657": "ory",
    "2658": "ory ",
    "2659": "V ",
    "2660": "gel",
    "2661": "Ins",
    "2662": "Inst",
    "2663": "Insti",
    "2664": "Instit",
    "2665": "leg",
    "2666": "lege",
    "2667": "tria",
    "2668": "yc",
    "2669": "ycl",
    "2670": "reat",
    "2671": "ora",
    "2672": "vate",
    "2673": "llel",
    "2674": "man",
    "2675": "many",
    "2676": "many ",
    "2677": "fen",
    "2678": "ji",
    "2679": "elp",
    "2680": "nt ",
    "2681": "Wes",
    "2682": "West",
    "2683": "chn",
    "2684": "vin",
    "2685": "ving",
    "2686": "ppy",
    "2687": "bour",
    "2688": "irs",
    "2689": "irst",
    "2690": "n'",
    "2691": "n't",
    "2692": "Wa",
    "2693": "War",
    "2694": "not ",
    "2695": "emn",
    "2696": "urs",
    "2697": "hd",
    "2698": "hda",
    "2699": "thing",
    "2700": "Se",
    "2701": "Sec",
    "2702": "Secr",
    "2703": "Secre",
    "2704": "ssi",
    "2705": "ssio",
    "2706": "ssion",
    "2707": "ow)",
    "2708": "orth",
    "2709": "vern",
    "2710": "bsi",
    "2711": "bsit",
    "2712": "irc",
    "2713": "PO",
    "2714": "Cz",
    "2715": "Cze",
    "2716": "Czec",
    "2717": "Czech",
    "2718": "unc",
    "2719": "unct",
    "2720": "neo",
    "2721": "neol",
    "2722": "fax",
    "2723": "rn ",
    "2724": "publ",
    "2725": "publi",
    "2726": "isl",
    "2727": "pea",
    "2728": "peak",
    "2729": "vem",
    "2730": "veme",
    "2731": "vemen",
    "2732": "iu",
    "2733": "th ",
    "2734": "rket",
    "2735": "Yar",
    "2736": "bat",
    "2737": "ded",
    "2738": "s A",
    "2739": "lie ",
    "2740": "ovemb",
    "2741": "ovembe",
    "2742": "read",
    "2743": "Conn",
    "2744": "Conne",
    "2745": "Connec",
    "2746": "Connect",
    "2747": "kf",
    "2748": "kfl",
    "2749": "kflo",
    "2750": "kflow",
    "2751": "ts ",
    "2752": "lim",
    "2753": "0)",
    "2754": "ata",
    "2755": "ound",
    "2756": "cas",
    "2757": "erial",
    "2758": " h",
    "2759": "also",
    "2760": "also ",
    "2761": "spir",
    "2762": "ndas",
    "2763": "nici",
    "2764": "nicip",
    "2765": "ama",
    "2766": "amas",
    "2767": "vide",
    "2768": "vided",
    "2769": "itic",
    "2770": "tec",
    "2771": "tech",
    "2772": "ave ",
    "2773": "nz",
    "2774": "nze",
    "2775": "mou",
    "2776": "mous",
    "2777": "lai",
    "2778": "laim",
    "2779": "iss",
    "2780": "zen",
    "2781": "Ai",
    "2782": "Air",
    "2783": "ima",
    "2784": "Mara",
    "2785": "Marat",
    "2786": "Marath",
    "2787": "tis",
    "2788": "ary",
    "2789": "Zea",
    "2790": "Zeal",
    "2791": "s t",
    "2792": "s to",
    "2793": "0s",
    "2794": "0s ",
    "2795": "the ",
    "2796": "ent",
    "2797": " F",
    "2798": " Fo",
    "2799": " For",
    "2800": " Forc",
    "2801": " Force",
    "2802": "dat",
    "2803": "tto",
    "2804": "dney",
    "2805": "imi",
    "2806": "imit",
    "2807": "fict",
    "2808": "hew",
    "2809": "que",
    "2810": "ram",
    "2811": "rame",
    "2812": "ubj",
    "2813": "ubje",
    "2814": "ubjec",
    "2815": "tle",
    "2816": "amilt",
    "2817": "200",
    "2818": "k ",
    "2819": "tia",
    "2820": "bort",
    "2821": "ome ",
    "2822": "2 -",
    "2823": "2 - ",
    "2824": "m)",
    "2825": "m) ",
    "2826": "dict",
    "2827": "llen",
    "2828": "#82",
    "2829": "gro",
    "2830": "east",
    "2831": ", ",
    "2832": "eda",
    "2833": "ho ",
    "2834": "*C",
    "2835": "*Cy",
    "2836": "*Cyt",
    "2837": "*Cyto",
    "2838": "mosp",
    "2839": "mosph",
    "2840": "ssel",
    "2841": "e m",
    "2842": "e mi",
    "2843": "e min",
    "2844": "e mini",
    "2845": "R,",
    "2846": "R, ",
    "2847": "ware",
    "2848": "f ",
    "2849": "oy",
    "2850": ". ",
    "2851": "gio",
    "2852": "gion",
    "2853": "ers",
    "2854": "own",
    "2855": "ousa",
    "2856": "ousan",
    "2857": "ew ",
    "2858": "te ",
    "2859": "log",
    "2860": "morp",
    "2861": "morph",
    "2862": "amed",
    "2863": "itiz",
    "2864": "itize",
    "2865": "itizen",
    "2866": "ustr",
    "2867": "zo",
    "2868": "hip",
    "2869": "udy",
    "2870": "articl",
    "2871": "article",
    "2872": "ince",
    "2873": "0, ",
    "2874": "to ",
    "2875": "ste",
    "2876": "stem",
    "2877": "tect",
    "2878": "inst",
    "2879": "insta",
    "2880": "plac",
    "2881": "place",
    "2882": "urd",
    "2883": "lut",
    "2884": "n-",
    "2885": "zabet",
    "2886": "bj",
    "2887": "bje",
    "2888": "bjec",
    "2889": "bject",
    "2890": "odu",
    "2891": "d f",
    "2892": "d fr",
    "2893": "d fro",
    "2894": "d from",
    "2895": "ould",
    "2896": "wed",
    "2897": "dve",
    "2898": "dver",
    "2899": "nue",
    "2900": "nsen",
    "2901": "nsens",
    "2902": "nsensu",
    "2903": "atu",
    "2904": "atur",
    "2905": "Har",
    "2906": "Harr",
    "2907": "Harri",
    "2908": "Harris",
    "2909": "Harriso",
    "2910": "Harrison",
    "2911": "German",
    "2912": "sit",
    "2913": "3 -",
    "2914": "3 - ",
    "2915": "lth",
    "2916": "valu",
    "2917": "value",
    "2918": "ek ",
    "2919": "dua",
    "2920": "Ne",
    "2921": "New",
    "2922": "ment",
    "2923": "eog",
    "2924": "eogr",
    "2925": "lifor",
    "2926": "liforn",
    "2927": "ften",
    "2928": "td ",
    "2929": "nit",
    "2930": "- ",
    "2931": "xp",
    "2932": "bsp",
    "2933": "Li",
    "2934": "Lis",
    "2935": "List",
    "2936": "Balm",
    "2937": "Balmora",
    "2938": "ferenc",
    "2939": "ference ",
    "2940": "Reside",
    "2941": "Residence",
    "2942": "Popul",
    "2943": "a fr",
    "2944": "a frequen",
    "2945": "ysic",
    "2946": "William",
    "2947": "symb",
    "2948": "symbol",
    "2949": "notion",
    "2950": "f' ",
    "2951": "so, ",
    "2952": "na, ",
    "2953": "Prote",
    "2954": "Protestan",
    "2955": "name ",
    "2956": "30",
    "2957": "usual",
    "2958": "lywood",
    "2959": "still ",
    "2960": "AF",
    "2961": "histor",
    "2962": "historian",
    "2963": "sease",
    "2964": "Nazi",
    "2965": "ne and ",
    "2966": "named",
    "2967": "ce br",
    "2968": "div",
    "2969": " two ",
    "2970": "ed to ",
    "2971": "kill",
    "2972": "rapid",
    "2973": "emerge",
    "2974": "t of ",
    "2975": "x (",
    "2976": "onement",
    "2977": "aria ",
    "2978": "d co",
    "2979": "comman",
    "2980": "t's ",
    "2981": " Africa",
    "2982": "theref",
    "2983": "therefore ",
    "2984": "Canada",
    "2985": "omsk",
    "2986": " own",
    "2987": "ick",
    "2988": "ickly ",
    "2989": "z, ",
    "2990": "ticket",
    "2991": "Heec",
    "2992": "Heechee",
    "2993": "(1.",
    "2994": "pular ",
    "2995": "iled ",
    "2996": "rise ",
    "2997": "holiday",
    "2998": "ois ",
    "2999": "ticus ",
    "3000": "romine",
    "3001": "rominent ",
    "3002": "memb",
    "3003": "members",
    "3004": "out, ",
    "3005": "dy, ",
    "3006": "zeros",
    "3007": "prehen",
    "3008": "tinue ",
    "3009": "the wor",
    "3010": "publishe",
    "3011": "off ",
    "3012": "issue ",
    "3013": "egan ",
    "3014": "ouglas",
    "3015": "dece",
    "3016": "decess",
    "3017": "placed ",
    "3018": "Dia",
    "3019": "team",
    "3020": "teams ",
    "3021": "ulated",
    "3022": "spera",
    "3023": "sperant",
    "3024": "father",
    "3025": "ugust ",
    "3026": "ugust 19",
    "3027": "umerous",
    "3028": "where",
    "3029": "von ",
    "3030": "war, ",
    "3031": "through",
    "3032": "15 ",
    "3033": "15 year",
    "3034": "updat",
    "3035": "eby ",
    "3036": "site ",
    "3037": "sembl",
    "3038": "your ",
    "3039": "Some ",
    "3040": "typical",
    "3041": "eel ",
    "3042": "ursive",
    "3043": "game ",
    "3044": "High",
    "3045": "entiti",
    "3046": "enever",
    "3047": "ing to ",
    "3048": "sence",
    "3049": "sence of ",
    "3050": "quid",
    "3051": "geons",
    "3052": "lju",
    "3053": "rarely",
    "3054": "nally ",
    "3055": "-cont",
    "3056": "-contine",
    "3057": "puted",
    "3058": "appo",
    "3059": "appoint",
    "3060": "inth ",
    "3061": "Merci",
    "3062": "epis",
    "3063": "episod",
    "3064": "ysian ",
    "3065": "neva",
    "3066": "women",
    "3067": "favo",
    "3068": "Club",
    "3069": "ciful",
    "3070": "rovemen",
    "3071": "tenes",
    "3072": "metric",
    "3073": "equili",
    "3074": "equilibr",
    "3075": "equilibriu",
    "3076": "photo",
    "3077": "ancien",
    "3078": "quite",
    "3079": "disco",
    "3080": "discovere",
    "3081": "least ",
    "3082": "oftw",
    "3083": "5:",
    "3084": "pture",
    "3085": "d out ",
    "3086": "oldi",
    "3087": "oldiers",
    "3088": "actic",
    "3089": "pini",
    "3090": "Bud",
    "3091": "ieve",
    "3092": "ieved ",
    "3093": "es*",
    "3094": "es*Ga",
    "3095": "es*Gamm",
    "3096": "y of ",
    "3097": "ymmet",
    "3098": "onal ",
    "3099": "FF",
    "3100": "sport",
    "3101": "the syst",
    "3102": "the system",
    "3103": "ended ",
    "3104": "growth",
    "3105": "st, ",
    "3106": "piscop",
    "3107": "piscopal",
    "3108": "rotect ",
    "3109": "roop",
    "3110": "joini",
    "3111": "joining ",
    "3112": "ecess",
    "3113": "ecessary",
    "3114": "via ",
    "3115": "Space ",
    "3116": "es res",
    "3117": "norar",
    "3118": "norary ",
    "3119": "tay ",
    "3120": "dormit",
    "3121": " sup",
    "3122": " sup2",
    "3123": "-add",
    "3124": "el of ",
    "3125": "I, ",
    "3126": "sever",
    "3127": "Book",
    "3128": "T 19",
    "3129": "ch, ",
    "3130": "perienc",
    "3131": "perienced ",
    "3132": "urban ",
    "3133": "won ",
    "3134": "gradua",
    "3135": "intell",
    "3136": "intellig",
    "3137": "old ",
    "3138": "old ci",
    "3139": "ssible",
    "3140": "gether ",
    "3141": "ectual",
    "3142": "venes",
    "3143": "little",
    "3144": " wor",
    "3145": " world ",
    "3146": " world pr",
    "3147": " world progra",
    "3148": "Henr",
    "3149": "Henry ",
    "3150": "night",
    "3151": "mura",
    "3152": "onscript",
    "3153": "turgy",
    "3154": "denied",
    "3155": "traff",
    "3156": "traffic ",
    "3157": "elie",
    "3158": "Washin",
    "3159": "Washingto",
    "3160": "eader",
    "3161": "oted ",
    "3162": "creatur",
    "3163": "ocuses",
    "3164": "provi",
    "3165": "province",
    "3166": "osely ",
    "3167": "imagin",
    "3168": "dyna",
    "3169": "example",
    "3170": "etween ",
    "3171": "ellig",
    "3172": "ogram",
    "3173": "ogram*19",
    "3174": "vention",
    "3175": "FC",
    "3176": "elytra",
    "3177": "World ",
    "3178": "World War",
    "3179": "rather",
    "3180": "large",
    "3181": "Tans",
    "3182": "Tansle",
    "3183": "Argent",
    "3184": "oduct ",
    "3185": "cross",
    "3186": "away ",
    "3187": "away from",
    "3188": "arlik",
    "3189": "SA",
    "3190": "nderson",
    "3191": "nderson, ",
    "3192": "grow ",
    "3193": "does ",
    "3194": "story ",
    "3195": "grown",
    "3196": "oxima",
    "3197": "peopl",
    "3198": "succe",
    "3199": "success",
    "3200": "Jews",
    "3201": "Milit",
    "3202": "Military",
    "3203": "Whi",
    "3204": "gation",
    "3205": "near ",
    "3206": "manusc",
    "3207": "trole",
    "3208": "troleum",
    "3209": "numbers",
    "3210": "stack",
    "3211": "atism",
    "3212": "/di",
    "3213": "/div",
    "3214": " Ca",
    "3215": " Caro",
    "3216": " Carolin",
    "3217": "xy",
    "3218": "xygen",
    "3219": "emsel",
    "3220": "emselves",
    "3221": "Turing",
    "3222": "ss of ",
    "3223": "ically ",
    "3224": "orgia",
    "3225": "issue of ",
    "3226": "serious",
    "3227": "auder",
    "3228": "auderdal",
    "3229": "scip",
    "3230": "NEF",
    "3231": " Psy",
    "3232": "s often",
    "3233": "agile ",
    "3234": "researc",
    "3235": "ignation",
    "3236": "acce",
    "3237": "access",
    "3238": "tmas",
    "3239": "umerian",
    "3240": "civil",
    "3241": "civiliz",
    "3242": "civilization",
    "3243": "wide",
    "3244": "widely ",
    "3245": "ducted",
    "3246": "tentia",
    "3247": "realis",
    "3248": "micro",
    "3249": " buil",
    "3250": "graph",
    "3251": "ng-",
    "3252": "structur",
    "3253": " AF",
    "3254": " AFC",
    "3255": "effe",
    "3256": "er, ",
    "3257": ".Cond",
    "3258": ".Conditio",
    "3259": ".Conditiona",
    "3260": "isol",
    "3261": "autho",
    "3262": "acti",
    "3263": "Chris",
    "3264": "merge",
    "3265": "mplifi",
    "3266": "ycling",
    "3267": "rticula",
    "3268": "gianc",
    "3269": " can",
    "3270": "up, ",
    "3271": "h edi",
    "3272": "h edition",
    "3273": "e /ma",
    "3274": "e /math ",
    "3275": "ration",
    "3276": "lity ",
    "3277": "centri",
    "3278": "cynic",
    "3279": "Text",
    "3280": "atisti",
    "3281": "pth ",
    "3282": "pth of ",
    "3283": "missi",
    "3284": "mes of ",
    "3285": "arting ",
    "3286": "tinu",
    "3287": "tinuous",
    "3288": "tta ",
    "3289": "bilit",
    "3290": "ecomes",
    "3291": "range",
    "3292": "Ab",
    "3293": "starte",
    "3294": "started ",
    "3295": " al",
    "3296": " always",
    "3297": "rning",
    "3298": " Ameri",
    "3299": "ved ",
    "3300": "utral",
    "3301": "ssation",
    "3302": "broth",
    "3303": "s and ",
    "3304": "s and over",
    "3305": "Contro",
    "3306": "yers ",
    "3307": " America",
    "3308": "rington",
    "3309": "gional",
    "3310": "ed of ",
    "3311": "keted ",
    "3312": "naval",
    "3313": "Unso",
    "3314": "Unsource",
    "3315": "ickn",
    "3316": "fined ",
    "3317": "mission",
    "3318": "xles",
    "3319": " line",
    "3320": "species",
    "3321": "nant ",
    "3322": "depend",
    "3323": "dependent",
    "3324": "Gibs",
    "3325": "amount ",
    "3326": "amount of ",
    "3327": "res*",
    "3328": "otect",
    "3329": "otected ",
    "3330": "move",
    "3331": "breedi",
    "3332": "breeding ",
    "3333": "rusa",
    "3334": "broa",
    "3335": "tour",
    "3336": "and 1",
    "3337": "Damas",
    "3338": "Damascus",
    "3339": "doct",
    "3340": "doctrin",
    "3341": "Iow",
    "3342": "when ",
    "3343": "ifically ",
    "3344": "dtd ",
    "3345": "canoni",
    "3346": "canonical",
    "3347": "ebr ",
    "3348": "MR",
    "3349": "MRS",
    "3350": "MRSA",
    "3351": "ership",
    "3352": "traditi",
    "3353": "traditiona",
    "3354": "traditional ",
    "3355": "t and ",
    "3356": "uppos",
    "3357": "raterre",
    "3358": "raterrestr",
    "3359": "raterrestrial",
    "3360": "drib",
    "3361": "or nea",
    "3362": "rans",
    "3363": "Jewis",
    "3364": "Jewish ",
    "3365": "avy ",
    "3366": "fferen",
    "3367": "fference",
    "3368": "copy ",
    "3369": "copy of ",
    "3370": "ed by ",
    "3371": "idemi",
    "3372": "cathed",
    "3373": "cathedral",
    "3374": "Oh",
    "3375": "Ohri",
    "3376": " took",
    "3377": "errupt",
    "3378": " T",
    "3379": " Tower",
    "3380": "orth A",
    "3381": "2. ",
    "3382": "leren",
    "3383": "Canter",
    "3384": "Canterbu",
    "3385": "Eucha",
    "3386": "Eucharis",
    "3387": "ozo",
    "3388": " towar",
    "3389": "orien",
    "3390": "oriented",
    "3391": "ograph",
    "3392": "celesti",
    "3393": "rence ",
    "3394": " Bru",
    "3395": "ities ",
    "3396": "radical",
    "3397": "footn",
    "3398": "ching ",
    "3399": "imals",
    "3400": "5 and 1",
    "3401": "lwa",
    "3402": "lwau",
    "3403": "Koo",
    "3404": "zer",
    "3405": "zerba",
    "3406": "als, ",
    "3407": "analy",
    "3408": "bandon",
    "3409": " total",
    "3410": "nition",
    "3411": "uici",
    "3412": "ad of ",
    "3413": "elow",
    "3414": "name",
    "3415": "spot",
    "3416": "nward",
    "3417": "charia",
    "3418": "quence",
    "3419": "ention",
    "3420": "fering",
    "3421": "azak",
    "3422": "wear ",
    "3423": "dense ",
    "3424": "5% ",
    "3425": "5% /t",
    "3426": "5% /td",
    "3427": "le of ",
    "3428": "4-",
    "3429": "ally ",
    "3430": "natur",
    "3431": "natural",
    "3432": "Tot",
    "3433": "Total",
    "3434": "rument",
    "3435": "ID",
    "3436": "mstan",
    "3437": "mstance",
    "3438": "insuff",
    "3439": "insuffici",
    "3440": "insufficient",
    "3441": "kingdo",
    "3442": "stantin",
    "3443": "B-1",
    "3444": "uff",
    "3445": "stic",
    "3446": "either",
    "3447": "cium",
    "3448": "my, ",
    "3449": "of Fa",
    "3450": "meters",
    "3451": "esoter",
    "3452": "radar",
    "3453": "refer",
    "3454": "arket",
    "3455": "massi",
    "3456": "massive ",
    "3457": "archi",
    "3458": "architect",
    "3459": "documen",
    "3460": "documentar",
    "3461": "guess",
    "3462": "ghters",
    "3463": " pro",
    "3464": " probab",
    "3465": " probabilit",
    "3466": "ecaus",
    "3467": "ecause ",
    "3468": "every ",
    "3469": "xed ",
    "3470": "r td ",
    "3471": "stantia",
    "3472": "task ",
    "3473": "Scien",
    "3474": "ongoin",
    "3475": "There ",
    "3476": "ce F",
    "3477": "ce Ficti",
    "3478": " known",
    "3479": "al p",
    "3480": "al psy",
    "3481": "n re",
    "3482": "n relat",
    "3483": "aa",
    "3484": "pansion",
    "3485": "reasona",
    "3486": "rectly ",
    "3487": "relat",
    "3488": "relative",
    "3489": "sional",
    "3490": "olution",
    "3491": " had ",
    "3492": "huge ",
    "3493": "pressu",
    "3494": "end of ",
    "3495": "pilat",
    "3496": "pilation",
    "3497": "ormed ",
    "3498": "throw",
    "3499": "minus",
    "3500": "from 1",
    "3501": "from 19",
    "3502": "diff",
    "3503": "difficul",
    "3504": "difficult ",
    "3505": "difficult to ",
    "3506": "rs. ",
    "3507": "istanc",
    "3508": "uous",
    "3509": "eter ",
    "3510": "entral",
    "3511": "derdal",
    "3512": "shones",
    "3513": "ping ",
    "3514": "cours",
    "3515": "Control ",
    "3516": "jor ",
    "3517": "jor Le",
    "3518": "jor Leag",
    "3519": "Tra",
    "3520": "Trans",
    "3521": "ason",
    "3522": "ason, ",
    "3523": "t sign",
    "3524": "t signal",
    "3525": "corres",
    "3526": "correspo",
    "3527": "et al",
    "3528": "tarted",
    "3529": "device",
    "3530": "itions",
    "3531": "scure",
    "3532": "ined ",
    "3533": "empire",
    "3534": "pkin",
    "3535": "erci",
    "3536": "x, ",
    "3537": "6 to ",
    "3538": "6 to 19",
    "3539": "nned ",
    "3540": "passe",
    "3541": "top ",
    "3542": "fall ",
    "3543": "Orth",
    "3544": "Orthod",
    "3545": "Orthodox",
    "3546": "fect ",
    "3547": "nistan",
    "3548": "held ",
    "3549": " aspe",
    "3550": "trans",
    "3551": "phase ",
    "3552": "vanced ",
    "3553": "remain",
    "3554": "chael ",
    "3555": "arpa",
    "3556": "align",
    "3557": " ca",
    "3558": " card",
    "3559": "urely ",
    "3560": "ised ",
    "3561": "Her",
    "3562": "ustrali",
    "3563": "ustralian ",
    "3564": "rganize",
    "3565": "Parl",
    "3566": "rotectio",
    "3567": "rtiona",
    "3568": "itable ",
    "3569": "itable for ",
    "3570": "made ",
    "3571": "D, ",
    "3572": "ipment",
    "3573": "spin ",
    "3574": "occus",
    "3575": "aspe",
    "3576": "5 /t",
    "3577": "ating ",
    "3578": "ences ",
    "3579": "nection",
    "3580": "dres",
    "3581": "dressed",
    "3582": "usion ",
    "3583": "identi",
    "3584": "identify",
    "3585": "progra",
    "3586": "viet ",
    "3587": "city",
    "3588": "kles",
    "3589": "bet ",
    "3590": "2) A",
    "3591": "Parlia",
    "3592": "Parliament",
    "3593": "aller ",
    "3594": "anaga",
    "3595": "anagawa",
    "3596": "feat ",
    "3597": "is ab",
    "3598": "dated ",
    "3599": "ssoo",
    "3600": "Yet ",
    "3601": "origin",
    "3602": "original",
    "3603": "Democr",
    "3604": "take ",
    "3605": "moder",
    "3606": "rant ",
    "3607": "ravel",
    "3608": "raveling",
    "3609": "month",
    "3610": "ghting",
    "3611": "unched",
    "3612": "rring",
    "3613": "ilm",
    "3614": "specif",
    "3615": "specifying",
    "3616": "ntas",
    "3617": "tt ",
    "3618": "ueno",
    "3619": "uenos A",
    "3620": "uenos Aire",
    "3621": "constell",
    "3622": "reaty ",
    "3623": "ellation",
    "3624": "Lake",
    "3625": "Lake ",
    "3626": "show ",
    "3627": "Card",
    "3628": "vasion",
    "3629": "uncil",
    "3630": "obtai",
    "3631": "obtain ",
    "3632": "-air",
    "3633": "vereignt",
    "3634": "vereignty ",
    "3635": "Charles ",
    "3636": "or more ",
    "3637": " of the ",
    "3638": "ademi",
    "3639": "border",
    "3640": "hrma",
    "3641": "hrmach",
    "3642": "ished ",
    "3643": "singl",
    "3644": "board",
    "3645": "well as ",
    "3646": "consider",
    "3647": "considerable ",
    "3648": "certai",
    "3649": "Sab",
    "3650": "Sabbat",
    "3651": "(s",
    "3652": "white ",
    "3653": "assed ",
    "3654": "tension",
    "3655": "anni",
    "3656": "annihil",
    "3657": "othei",
    "3658": "iscop",
    "3659": "Geogra",
    "3660": "Geograph",
    "3661": "whole",
    "3662": "flict",
    "3663": "eiving",
    "3664": "sures ",
    "3665": "aiss",
    "3666": "aissanc",
    "3667": "uslim",
    "3668": "North",
    "3669": "noff",
    "3670": "cision",
    "3671": "rca ",
    "3672": "leased ",
    "3673": "NF",
    "3674": "k br",
    "3675": "lves ",
    "3676": "went ",
    "3677": "guilt",
    "3678": " Pit",
    "3679": "web ",
    "3680": "web serv",
    "3681": "eace ",
    "3682": "eavily",
    "3683": " cam",
    "3684": "ffers",
    "3685": "ffers from",
    "3686": "inves",
    "3687": " notable ",
    "3688": "appea",
    "3689": "turns",
    "3690": "umbent ",
    "3691": "frast",
    "3692": "frastruct",
    "3693": "recurs",
    "3694": "recursive",
    "3695": "ufac",
    "3696": "ufactur",
    "3697": "him",
    "3698": "himsel",
    "3699": "gulate",
    "3700": "clare",
    "3701": "clared ",
    "3702": "migod",
    "3703": "having",
    "3704": "rthur",
    "3705": "areas ",
    "3706": "acult",
    "3707": "ward ",
    "3708": "omewh",
    "3709": "omewhat ",
    "3710": "became",
    "3711": "ditiona",
    "3712": "orhood",
    "3713": "0 or ",
    "3714": "around",
    "3715": "6 ali",
    "3716": "6 align",
    "3717": "follow",
    "3718": "sary ",
    "3719": "posit",
    "3720": "td b",
    "3721": "td bg",
    "3722": "td bgco",
    "3723": "td bgcolor",
    "3724": "turne",
    "3725": "subject",
    "3726": "istance ",
    "3727": "fift",
    "3728": "contro",
    "3729": "gado",
    "3730": "gadolin",
    "3731": "rganism",
    "3732": "make",
    "3733": "eractio",
    "3734": "think ",
    "3735": "trong ",
    "3736": "planati",
    "3737": "planation ",
    "3738": "and mat",
    "3739": "and math ",
    "3740": "New ",
    "3741": "lutely",
    "3742": "loni",
    "3743": "centage",
    "3744": "bine ",
    "3745": "abama",
    "3746": "4, p",
    "3747": "Martha",
    "3748": "havior",
    "3749": "9 /t",
    "3750": "orbit",
    "3751": "i*",
    "3752": "specifica",
    "3753": "self ",
    "3754": "pation",
    "3755": "risk ",
    "3756": "risk of ",
    "3757": "e.",
    "3758": "e.g",
    "3759": "correct",
    "3760": "ggle ",
    "3761": "agree",
    "3762": "agreement",
    "3763": "HE",
    "3764": ")|",
    "3765": "pletion",
    "3766": " assis",
    "3767": " assistan",
    "3768": "ncy ",
    "3769": "phili",
    "3770": "20th ",
    "3771": "geogra",
    "3772": "geograph",
    "3773": "-contro",
    "3774": "ydr",
    "3775": "eric ",
    "3776": " Inst",
    "3777": " Institu",
    "3778": "non-",
    "3779": "uppen",
    "3780": "army",
    "3781": "slang ",
    "3782": "aded ",
    "3783": "media",
    "3784": "urney",
    "3785": "nique",
    "3786": "effic",
    "3787": "efficien",
    "3788": "true ",
    "3789": "version",
    "3790": "th (",
    "3791": "on sp",
    "3792": "on sphere",
    "3793": "inclu",
    "3794": "including",
    "3795": "dedicat",
    "3796": "never",
    "3797": "verthel",
    "3798": "vertheles",
    "3799": "etent ",
    "3800": " sty",
    "3801": "visco",
    "3802": " is",
    "3803": " is, ",
    "3804": "aymon",
    "3805": "aymond ",
    "3806": "clare ",
    "3807": "ympto",
    "3808": "specify ",
    "3809": "movemen",
    "3810": "(D",
    "3811": "ponen",
    "3812": "bond",
    "3813": " you",
    "3814": "umpe",
    "3815": "ubse",
    "3816": "imal ",
    "3817": "conduct",
    "3818": "squ",
    "3819": "Intern",
    "3820": "Internation",
    "3821": "International",
    "3822": "Socie",
    "3823": "adequ",
    "3824": "adequate",
    "3825": "ension",
    "3826": "anne",
    "3827": "ormous",
    "3828": "untain",
    "3829": "is now",
    "3830": "fferent ",
    "3831": "result",
    "3832": "resulted ",
    "3833": "emeter",
    "3834": "parallel",
    "3835": "ffere",
    "3836": "mply ",
    "3837": "atable",
    "3838": "ondon",
    "3839": "derive ",
    "3840": "dth",
    "3841": "Cru",
    "3842": "Crusa",
    "3843": "br to",
    "3844": "br total",
    "3845": "moment",
    "3846": "toph",
    "3847": "etc.",
    "3848": "posoph",
    "3849": " bud",
    "3850": " budget",
    "3851": "ubate",
    "3852": "rnoo",
    "3853": "venue",
    "3854": "venues ",
    "3855": "bey ",
    "3856": "ruction",
    "3857": "pable",
    "3858": "Prussia",
    "3859": "oglo",
    "3860": "ality",
    "3861": "Britan",
    "3862": "Britannic",
    "3863": "Bio",
    "3864": "Bioche",
    "3865": "Biochemi",
    "3866": "strip",
    "3867": "aaa",
    "3868": "formed ",
    "3869": "laye",
    "3870": "Gore ",
    "3871": "alge",
    "3872": "algebr",
    "3873": "memor",
    "3874": "tade",
    "3875": "Euras",
    "3876": "Eurasia",
    "3877": "record",
    "3878": "lized ",
    "3879": "Vari",
    "3880": "imsel",
    "3881": "attem",
    "3882": "attempt ",
    "3883": "pension",
    "3884": "possess",
    "3885": "prac",
    "3886": "practic",
    "3887": "bidd",
    "3888": "ibiot",
    "3889": "ndows",
    "3890": "bined ",
    "3891": "connect",
    "3892": "connection",
    "3893": "three ",
    "3894": "knowled",
    "3895": "ccompa",
    "3896": "ccompani",
    "3897": "ohn ",
    "3898": "versal",
    "3899": "force ",
    "3900": "ybo",
    "3901": "yboard",
    "3902": "oling",
    "3903": "uch of ",
    "3904": "yone ",
    "3905": "trictio",
    "3906": "reer ",
    "3907": "sister",
    "3908": "sive ",
    "3909": "parts of ",
    "3910": "EF",
    "3911": "ue li",
    "3912": "ue light",
    "3913": "N /ma",
    "3914": "N /math ",
    "3915": "ted ",
    "3916": "ted St",
    "3917": "ted State",
    "3918": "rgini",
    "3919": "Cent",
    "3920": "Centur",
    "3921": "western",
    "3922": "le for ",
    "3923": "zing ",
    "3924": "a-",
    "3925": "collect",
    "3926": "mension",
    "3927": "isot",
    "3928": "isotope",
    "3929": "dj",
    "3930": "djace",
    "3931": "canic ",
    "3932": "urnass",
    "3933": "Mud",
    "3934": "based",
    "3935": "based o",
    "3936": "based on ",
    "3937": "HI",
    "3938": "tless",
    "3939": "lar ",
    "3940": "babilit",
    "3941": "name of ",
    "3942": "nd pre",
    "3943": "althoug",
    "3944": "although ",
    "3945": "mental",
    "3946": "rgely ",
    "3947": "urpos",
    "3948": "added ",
    "3949": "ffic ",
    "3950": "Thai",
    "3951": "70s, ",
    "3952": "Guinness",
    "3953": "member ",
    "3954": "instea",
    "3955": "ontro",
    "3956": "ontrolled",
    "3957": "size",
    "3958": "ntenc",
    "3959": "ntence ",
    "3960": " Sa",
    "3961": " Saint",
    "3962": "genera",
    "3963": "generally ",
    "3964": "levisi",
    "3965": "does not ",
    "3966": "dept",
    "3967": "depth ",
    "3968": "depth of ",
    "3969": "grew ",
    "3970": "onical",
    "3971": "award",
    "3972": "awarded ",
    "3973": "transport",
    "3974": "Many ",
    "3975": "h I",
    "3976": "oval",
    "3977": "las ",
    "3978": "Bod",
    "3979": "Bodhis",
    "3980": "Bodhisat",
    "3981": "stone ",
    "3982": "Eli",
    "3983": "Elizabet",
    "3984": "Life",
    "3985": "ying to ",
    "3986": "ginning",
    "3987": "levision ",
    "3988": "Line",
    "3989": "Lineba",
    "3990": "perform",
    "3991": "sts ",
    "3992": " by ",
    "3993": "0 |",
    "3994": "ssoci",
    "3995": "rode",
    "3996": "rodes ",
    "3997": "phen",
    "3998": "phenome",
    "3999": "phenomeno",
    "4000": "ind ",
    "4001": "lthough",
    "4002": "to be ",
    "4003": "ened ",
    "4004": "rted ",
    "4005": "arant",
    "4006": "outpu",
    "4007": "wing",
    "4008": "Caro",
    "4009": "Cycli",
    "4010": "hard",
    "4011": "hardware",
    "4012": "compan",
    "4013": "companied",
    "4014": "/write",
    "4015": "termin",
    "4016": "termine ",
    "4017": "positio",
    "4018": "position ",
    "4019": "legisl",
    "4020": "finitio",
    "4021": "sell ",
    "4022": "esign",
    "4023": "Second",
    "4024": "smolog",
    "4025": "enment",
    "4026": "ick ",
    "4027": " that t",
    "4028": " that time",
    "4029": "7 |",
    "4030": "7 ||",
    "4031": "third",
    "4032": "ue to ",
    "4033": "ommi",
    "4034": "gital",
    "4035": "Germany",
    "4036": "Germany, ",
    "4037": "ucive ",
    "4038": "ww",
    "4039": "60 ndas",
    "4040": "60 ndash",
    "4041": "human",
    "4042": "root ",
    "4043": "rock ",
    "4044": "etermi",
    "4045": "raise",
    "4046": " for ",
    "4047": "zegov",
    "4048": "cohol",
    "4049": "Tg",
    "4050": "cises",
    "4051": "yed ",
    "4052": "signal",
    "4053": "nnect",
    "4054": "ddle ",
    "4055": "Leibn",
    "4056": "Leibniz",
    "4057": "n of ",
    "4058": "etwork",
    "4059": "uine ",
    "4060": "t al",
    "4061": "t alco",
    "4062": "t alcohol",
    "4063": "tetra",
    "4064": "Secretar",
    "4065": "ried ",
    "4066": "philo",
    "4067": "philoso",
    "4068": "philosoph",
    "4069": "8)*",
    "4070": "constant",
    "4071": "smond",
    "4072": "ynar",
    "4073": "sket",
    "4074": "sketball",
    "4075": "possibl",
    "4076": "pioneer",
    "4077": "peration",
    "4078": "rib",
    "4079": "ribbe",
    "4080": "systems",
    "4081": "Tali",
    "4082": "Taliba",
    "4083": "mmet",
    "4084": "Sovie",
    "4085": "fly ",
    "4086": "gamma",
    "4087": "k, ",
    "4088": "tice ",
    "4089": "the Europe",
    "4090": "the European ",
    "4091": " note",
    "4092": "owship",
    "4093": "thul",
    "4094": "Termi",
    "4095": "Terminu",
    "4096": "rrang",
    "4097": "formanc",
    "4098": "rcast",
    "4099": "among ",
    "4100": "situat",
    "4101": "w, ",
    "4102": "fluenced ",
    "4103": "cces",
    "4104": "ural",
    "4105": " front",
    "4106": " frontie",
    "4107": "thical",
    "4108": "d that",
    "4109": "ndle",
    "4110": "DD",
    "4111": "DDC",
    "4112": "gas ",
    "4113": "gas mas",
    "4114": "timber",
    "4115": "traini",
    "4116": "icycl",
    "4117": "particula",
    "4118": "commun",
    "4119": "communicat",
    "4120": "lecom",
    "4121": "lecommun",
    "4122": "lecommunicat",
    "4123": "tchell",
    "4124": "es, ",
    "4125": "k of ",
    "4126": "ctave",
    "4127": "Georg",
    "4128": "mpering",
    "4129": " was ",
    "4130": "as of ",
    "4131": " is ",
    "4132": "trovers",
    "4133": "ecture",
    "4134": "merchan",
    "4135": "Alco",
    "4136": "Alcohol",
    "4137": "colleg",
    "4138": "ory of ",
    "4139": "1 |",
    "4140": "oductio",
    "4141": "orced ",
    "4142": "orced to ",
    "4143": "estial",
    "4144": "deal",
    "4145": "propo",
    "4146": "proporti",
    "4147": "ttp",
    "4148": "ttp:",
    "4149": "ttp:/",
    "4150": "Software ",
    "4151": "7br",
    "4152": " are ",
    "4153": "implie",
    "4154": "bano",
    "4155": "otechn",
    "4156": "5 /td",
    "4157": "respe",
    "4158": "ators",
    "4159": "pure ",
    "4160": "ssure ",
    "4161": "k /t",
    "4162": "becom",
    "4163": "become ",
    "4164": "oont",
    "4165": " Fac",
    "4166": " Facult",
    "4167": "rage ",
    "4168": "Saint",
    "4169": "build",
    "4170": "math ",
    "4171": "famously ",
    "4172": "ch (",
    "4173": "lizat",
    "4174": "lization",
    "4175": "ng, ",
    "4176": "rose ",
    "4177": "ficial",
    "4178": "N, ",
    "4179": "0% ",
    "4180": " ma",
    "4181": " machin",
    "4182": "icular ",
    "4183": "Hawa",
    "4184": "urned ",
    "4185": "consist",
    "4186": "consists of ",
    "4187": "tual ",
    "4188": "circ",
    "4189": "could",
    "4190": "been ",
    "4191": "cache",
    "4192": " since",
    "4193": "wis ",
    "4194": "tgu",
    "4195": "ene*",
    "4196": "lated ",
    "4197": "lated to ",
    "4198": "AI",
    "4199": "AID",
    "4200": "gree of ",
    "4201": " area",
    "4202": " area of ",
    "4203": "neorea",
    "4204": "neorealis",
    "4205": "lten ",
    "4206": "atest ",
    "4207": "ensi",
    "4208": "ensive ",
    "4209": "film",
    "4210": "knes",
    "4211": "00 and ",
    "4212": "series",
    "4213": "series of ",
    "4214": "Ital",
    "4215": "rab ",
    "4216": "60-",
    "4217": "concen",
    "4218": "concentra",
    "4219": ")*a",
    "4220": ")*aa",
    "4221": "antum",
    "4222": "uxe",
    "4223": "uxemb",
    "4224": "ninete",
    "4225": "nineteent",
    "4226": "tereo",
    "4227": "Visa",
    "4228": "tacle",
    "4229": "ocar",
    "4230": "ocarbo",
    "4231": "ulous",
    "4232": "Pit",
    "4233": "idence ",
    "4234": "reduc",
    "4235": "reduces ",
    "4236": "rtific",
    "4237": "sted ",
    "4238": "rrie",
    "4239": "s tend",
    "4240": "cepted ",
    "4241": "elloc",
    "4242": "visions",
    "4243": "ntz ",
    "4244": " bat",
    "4245": " battle",
    "4246": "Ireland",
    "4247": "May ",
    "4248": "May 200",
    "4249": "Tai",
    "4250": "Taiwa",
    "4251": "imula",
    "4252": "imulate ",
    "4253": "detai",
    "4254": "detaine",
    "4255": "% ab",
    "4256": "% abv",
    "4257": "to-",
    "4258": "fication",
    "4259": "ugust",
    "4260": "antage",
    "4261": "antenna",
    "4262": "cotic",
    "4263": "saw ",
    "4264": "lude ",
    "4265": "World War I",
    "4266": "17",
    "4267": "eature",
    "4268": ". For",
    "4269": "However",
    "4270": "However, ",
    "4271": "xture",
    "4272": "fied ",
    "4273": "ladi",
    "4274": "ladimi",
    "4275": " point",
    "4276": " Ch",
    "4277": " Chris",
    "4278": "ybr",
    "4279": "ybrid",
    "4280": "Gamm",
    "4281": "cient ",
    "4282": "influen",
    "4283": "nized ",
    "4284": "lusion",
    "4285": "n the ",
    "4286": "letter",
    "4287": "ly Rom",
    "4288": "ly Roman ",
    "4289": "oice of ",
    "4290": "everal",
    "4291": "ciety ",
    "4292": "constellation",
    "4293": "scinat",
    "4294": "prom",
    "4295": "candi",
    "4296": "candidat",
    "4297": "tempor",
    "4298": "temporari",
    "4299": "temporarily ",
    "4300": "tinely",
    "4301": "wishe",
    "4302": "litera",
    "4303": "n's ",
    "4304": "His ",
    "4305": "things ",
    "4306": "hot ",
    "4307": "pecie",
    "4308": "dicating",
    "4309": "once ",
    "4310": "mdash",
    "4311": "ussian ",
    "4312": "ained ",
    "4313": "importanc",
    "4314": "importance ",
    "4315": "importance of ",
    "4316": "justi",
    "4317": "justify",
    "4318": "slaught",
    "4319": "pel ",
    "4320": "e 19",
    "4321": "ethic",
    "4322": "earne",
    "4323": "earned ",
    "4324": "amplifi",
    "4325": "tables ",
    "4326": "assifi",
    "4327": "assified ",
    "4328": "arithm",
    "4329": "eventua",
    "4330": "eventually ",
    "4331": "edure",
    "4332": "piness",
    "4333": "cts ",
    "4334": "earlie",
    "4335": "ctive ",
    "4336": "lfred",
    "4337": "minate",
    "4338": "minated ",
    "4339": "slo ",
    "4340": "6 year",
    "4341": "6 yearsb",
    "4342": "6 yearsbr ",
    "4343": "mination",
    "4344": "Otto",
    "4345": "Ottoman",
    "4346": " of Je",
    "4347": " of Jesus",
    "4348": "produ",
    "4349": "operti",
    "4350": "nbsp;",
    "4351": " liv",
    "4352": " living",
    "4353": "ties ",
    "4354": "Britain",
    "4355": "endenc",
    "4356": "level",
    "4357": "dvant",
    "4358": "dvantage",
    "4359": " mal",
    "4360": " maleb",
    "4361": " malebr ",
    "4362": "Californ",
    "4363": "tached",
    "4364": "ission",
    "4365": "aluat",
    "4366": "xtract",
    "4367": "lerat",
    "4368": "coming",
    "4369": "ruled",
    "4370": "llins",
    "4371": "t-",
    "4372": "Western",
    "4373": "4 met",
    "4374": "4 metres",
    "4375": "pril ",
    "4376": "deva",
    "4377": "ouis ",
    "4378": "ficien",
    "4379": "ntime",
    "4380": "scopic ",
    "4381": "belief ",
    "4382": "ternation",
    "4383": "(15",
    "4384": "Melch",
    "4385": "Melchart",
    "4386": "juris",
    "4387": "jurisdict",
    "4388": "jurisdiction",
    "4389": "9 - ",
    "4390": "numero",
    "4391": "numerous ",
    "4392": "64 ",
    "4393": "64 year",
    "4394": "y-",
    "4395": "easib",
    "4396": "astron",
    "4397": "space",
    "4398": "atic ",
    "4399": "opath",
    "4400": "roval",
    "4401": "During",
    "4402": "During th",
    "4403": "ready ",
    "4404": "i-",
    "4405": "tva",
    "4406": "risen ",
    "4407": "orly ",
    "4408": "tinue",
    "4409": "then ",
    "4410": "resent",
    "4411": "oral ",
    "4412": "served ",
    "4413": "sack",
    "4414": "immun",
    "4415": "immunog",
    "4416": "immunoglo",
    "4417": "ground",
    "4418": "crosoft",
    "4419": "ality ",
    "4420": "zarre",
    "4421": "manent",
    "4422": "differen",
    "4423": "p, ",
    "4424": "naly",
    "4425": "yzant",
    "4426": "ming ",
    "4427": "four",
    "4428": "ir Force",
    "4429": "urround",
    "4430": "annual",
    "4431": "deal of ",
    "4432": "llment",
    "4433": "standa",
    "4434": "standard",
    "4435": "frey",
    "4436": "ce, ",
    "4437": "center",
    "4438": "up to ",
    "4439": "gebr",
    "4440": "2 year",
    "4441": "wiki",
    "4442": "legal",
    "4443": "happen",
    "4444": "dian ",
    "4445": "pedition",
    "4446": "s the ",
    "4447": "loyal",
    "4448": "Spanish",
    "4449": "folk",
    "4450": "Hun",
    "4451": "hind ",
    "4452": "edly ",
    "4453": "Treat",
    "4454": "Franc",
    "4455": "naba",
    "4456": "nabapt",
    "4457": "Japanes",
    "4458": "egin",
    "4459": "eginning",
    "4460": "olate",
    "4461": "endant",
    "4462": " -|",
    "4463": "bsites ",
    "4464": "pound",
    "4465": "scept",
    "4466": "volves ",
    "4467": "institu",
    "4468": "es not ",
    "4469": "ppel",
    "4470": "emingl",
    "4471": "jace",
    "4472": "eatment",
    "4473": "hy",
    "4474": "hydr",
    "4475": "portion",
    "4476": "carr",
    "4477": "family",
    "4478": " hea",
    "4479": "cancel",
    "4480": "7:",
    "4481": "flect",
    "4482": "garet ",
    "4483": "dolla",
    "4484": "ionship",
    "4485": "selves",
    "4486": "Base",
    "4487": "Baseball",
    "4488": "frequen",
    "4489": "WO",
    "4490": "WOR",
    "4491": "vertis",
    "4492": "a's ",
    "4493": "works ",
    "4494": "item",
    "4495": "mean",
    "4496": "rcles",
    "4497": "rpose",
    "4498": "-2",
    "4499": "metime",
    "4500": "1% /t",
    "4501": "1% /td",
    "4502": "sense",
    "4503": "University ",
    "4504": "University of ",
    "4505": " Te",
    "4506": "include",
    "4507": "alco",
    "4508": "alcohol",
    "4509": " abu",
    "4510": "Cotto",
    "4511": "apt ",
    "4512": "aning",
    "4513": "ttom ",
    "4514": "icaea",
    "4515": "dinbu",
    "4516": "dinburg",
    "4517": "Charl",
    "4518": "Charlton",
    "4519": "ntly ",
    "4520": "4 fam",
    "4521": "4 famili",
    "4522": "advan",
    "4523": "She ",
    "4524": "my ",
    "4525": "pharma",
    "4526": "marrie",
    "4527": "rupt",
    "4528": "ruptcy",
    "4529": "aspect",
    "4530": "Rai",
    "4531": "Rail",
    "4532": "ories",
    "4533": "Doc",
    "4534": "Doctri",
    "4535": "augment",
    "4536": "erpret",
    "4537": "erpretation",
    "4538": "aila",
    "4539": "living",
    "4540": " and 19",
    "4541": "dard",
    "4542": "Canada /t",
    "4543": "3-Eu",
    "4544": " speak",
    "4545": " speakers",
    "4546": "victo",
    "4547": "ne of ",
    "4548": "much ",
    "4549": "de.*19",
    "4550": "te, ",
    "4551": " home",
    "4552": " homeles",
    "4553": "mewh",
    "4554": "mewhat ",
    "4555": "pogra",
    "4556": "pograph",
    "4557": "ttle of ",
    "4558": "itle",
    "4559": "zens of ",
    "4560": "taining",
    "4561": "vision ",
    "4562": "MS ",
    "4563": "ypes ",
    "4564": "less of ",
    "4565": "ritrea",
    "4566": "inoza",
    "4567": "scipline",
    "4568": "fession",
    "4569": "efore ",
    "4570": "Natur",
    "4571": "xity ",
    "4572": "jective",
    "4573": "m, ",
    "4574": "5 |",
    "4575": "5 ||",
    "4576": "logist",
    "4577": "peak of ",
    "4578": "= 6 a",
    "4579": "= 6 ali",
    "4580": "= 6 align",
    "4581": "Criti",
    "4582": "Critical",
    "4583": "gulat",
    "4584": "Alexand",
    "4585": "ture ",
    "4586": "re to ",
    "4587": "Middl",
    "4588": "Middle ",
    "4589": "ce be",
    "4590": "ce betwee",
    "4591": "onito",
    "4592": "abase",
    "4593": " other",
    "4594": "pace ",
    "4595": "Costa",
    "4596": "love ",
    "4597": "ierm",
    "4598": "ierment",
    "4599": "eart ",
    "4600": "West ",
    "4601": "West |",
    "4602": "itati",
    "4603": "rol ",
    "4604": "Central",
    "4605": "rocket",
    "4606": "sis f",
    "4607": "sis for ",
    "4608": "male ",
    "4609": "itive ",
    "4610": "ustrian",
    "4611": "render",
    "4612": "P add",
    "4613": "P address",
    "4614": "werful",
    "4615": "ble of ",
    "4616": " his ",
    "4617": "swit",
    "4618": "switchin",
    "4619": "switching ",
    "4620": "nberg",
    "4621": "nefi",
    "4622": "locate",
    "4623": "ising ",
    "4624": "reduced ",
    "4625": "petit",
    "4626": "la ",
    "4627": "t/",
    "4628": " occu",
    "4629": " occurs",
    "4630": "s than ",
    "4631": "icipa",
    "4632": "minist",
    "4633": "atta",
    "4634": "attack",
    "4635": "ponent ",
    "4636": "hasis ",
    "4637": "stored",
    "4638": "primar",
    "4639": "primarily",
    "4640": "stinati",
    "4641": "stination ",
    "4642": "QB",
    "4643": "wing ",
    "4644": " has ",
    "4645": "documentary ",
    "4646": "ining ",
    "4647": "important",
    "4648": "cryst",
    "4649": "en, ",
    "4650": "virtua",
    "4651": "virtually ",
    "4652": "vided ",
    "4653": "vided int",
    "4654": "vided into ",
    "4655": "0 ||",
    "4656": "stand ",
    "4657": "h cen",
    "4658": "h centur",
    "4659": "Sex ",
    "4660": "Sex rat",
    "4661": "ging ",
    "4662": "50 /t",
    "4663": "50 /td",
    "4664": "Juda",
    "4665": " sea",
    "4666": "Byz",
    "4667": "Byzant",
    "4668": "plus ",
    "4669": "ffs ",
    "4670": "arily ",
    "4671": "oxid",
    "4672": "Demo",
    "4673": "Demogra",
    "4674": "Demograph",
    "4675": "vary ",
    "4676": "icate ",
    "4677": "people ",
    "4678": "iest ",
    "4679": "Matt",
    "4680": "Matthi",
    "4681": "4), ",
    "4682": "pulsion",
    "4683": "eign ",
    "4684": "ellow",
    "4685": "ociate",
    "4686": "ivine",
    "4687": "welve ",
    "4688": "urchase",
    "4689": " branch",
    "4690": "aper ",
    "4691": "urable ",
    "4692": "lways",
    "4693": "tribut",
    "4694": "le the ",
    "4695": "ering ",
    "4696": "paper",
    "4697": "ordinat",
    "4698": "god",
    "4699": "similar",
    "4700": "similar to ",
    "4701": "oviding",
    "4702": "Lati",
    "4703": "hiloso",
    "4704": "hilosoph",
    "4705": "ening",
    "4706": "centur",
    "4707": "Web s",
    "4708": "Web serv",
    "4709": "eriodical",
    "4710": "field",
    "4711": "treat",
    "4712": "treaty ",
    "4713": " famous",
    "4714": "ct, ",
    "4715": "ces ",
    "4716": "omot",
    "4717": "ything",
    "4718": "habitant",
    "4719": "Virgi",
    "4720": "orrect",
    "4721": "oided ",
    "4722": "Sept",
    "4723": "September",
    "4724": "nked ",
    "4725": "flies",
    "4726": "ratifi",
    "4727": "remained ",
    "4728": "cuum",
    "4729": "caree",
    "4730": "Guant",
    "4731": "Guantna",
    "4732": "eutral",
    "4733": " offic",
    "4734": " official",
    "4735": "alyps",
    "4736": "placebo",
    "4737": "e more ",
    "4738": "odern",
    "4739": "ryman",
    "4740": "astern",
    "4741": "pping",
    "4742": "agram",
    "4743": " lega",
    "4744": "windo",
    "4745": "rwi",
    "4746": "failed",
    "4747": " pop",
    "4748": " popula",
    "4749": " population",
    "4750": "7)*",
    "4751": "rgumen",
    "4752": "evap",
    "4753": ", 19",
    "4754": "Dag",
    "4755": "Dagda",
    "4756": "liber",
    "4757": "liberate",
    "4758": "ptcy",
    "4759": "divid",
    "4760": "dividual",
    "4761": "gco",
    "4762": "gcolor",
    "4763": "race ",
    "4764": "final",
    "4765": "olera",
    "4766": "lingu",
    "4767": "linguist",
    "4768": "ed for ",
    "4769": "ugur",
    "4770": "ilbert",
    "4771": "lizabet",
    "4772": "etter",
    "4773": "jaz",
    "4774": "udal",
    "4775": "mber ",
    "4776": "increas",
    "4777": "increasing",
    "4778": "additio",
    "4779": "tury ",
    "4780": "micil",
    "4781": "unction",
    "4782": "rogra",
    "4783": "clear ",
    "4784": "elgi",
    "4785": "elgium",
    "4786": "machin",
    "4787": "NOT",
    "4788": "waday",
    "4789": "-year",
    "4790": "battle",
    "4791": "astro",
    "4792": "trict",
    "4793": "-gl",
    "4794": "-glob",
    "4795": "s mas",
    "4796": "m*19",
    "4797": "Nation",
    "4798": "National",
    "4799": "entro",
    "4800": "entropy",
    "4801": "alifi",
    "4802": "well-",
    "4803": "p*",
    "4804": "free",
    "4805": "sume ",
    "4806": "oof ",
    "4807": "ciden",
    "4808": "zero",
    "4809": "itsel",
    "4810": "itself",
    "4811": "acri",
    "4812": "acrific",
    "4813": "killi",
    "4814": "other ",
    "4815": "other han",
    "4816": "wder",
    "4817": "Cen",
    "4818": "Census",
    "4819": "onware",
    "4820": "ity*",
    "4821": "gons",
    "4822": " astro",
    "4823": "leep",
    "4824": "erface",
    "4825": "e#",
    "4826": "vices ",
    "4827": "1st ",
    "4828": "1st cen",
    "4829": "1st centur",
    "4830": "yoff",
    "4831": "ilation",
    "4832": "did ",
    "4833": "capit",
    "4834": "capital",
    "4835": "erect",
    "4836": "dule ",
    "4837": "uped ",
    "4838": "mainstr",
    "4839": "mainstrea",
    "4840": "ximate",
    "4841": "ximately ",
    "4842": "Novembe",
    "4843": " den",
    "4844": " densit",
    "4845": "new ",
    "4846": "giment",
    "4847": "difi",
    "4848": "dified ",
    "4849": "a --",
    "4850": "custo",
    "4851": " (1.",
    "4852": "andina",
    "4853": "andinavi",
    "4854": "derivat",
    "4855": "venting",
    "4856": "ragg",
    "4857": "raggy ",
    "4858": "2 |",
    "4859": "five ",
    "4860": "desp",
    "4861": "despread",
    "4862": "cused ",
    "4863": "cused of ",
    "4864": "eight",
    "4865": "back",
    "4866": "82 - ",
    "4867": "cluding",
    "4868": "Awar",
    "4869": "ssembl",
    "4870": "viction",
    "4871": "eenth ",
    "4872": "rbo",
    "4873": "those ",
    "4874": "compu",
    "4875": "llowing",
    "4876": "leave ",
    "4877": "clusi",
    "4878": "clusive ",
    "4879": "vario",
    "4880": "various ",
    "4881": "case ",
    "4882": "viliz",
    "4883": "vilization",
    "4884": "Hungar",
    "4885": "alach",
    "4886": "census",
    "4887": "album",
    "4888": "charact",
    "4889": "characteri",
    "4890": "0 /t",
    "4891": "like",
    "4892": "likely ",
    "4893": "likely to ",
    "4894": "bination",
    "4895": "ificent",
    "4896": "fense ",
    "4897": "computer",
    "4898": "sting ",
    "4899": "istant",
    "4900": "espe",
    "4901": "especi",
    "4902": "especiall",
    "4903": "(S",
    "4904": "nt day",
    "4905": "llino",
    "4906": "ment of ",
    "4907": "sma ",
    "4908": "nickn",
    "4909": "nicknamed",
    "4910": "puter",
    "4911": " and B",
    "4912": "short",
    "4913": "d for ",
    "4914": "ibble",
    "4915": "ed that",
    "4916": "hancemen",
    "4917": "curren",
    "4918": "current ",
    "4919": "instance",
    "4920": "ffer ",
    "4921": "tected ",
    "4922": "English",
    "4923": "r or ",
    "4924": "ct of ",
    "4925": "found",
    "4926": "foundland",
    "4927": "unders",
    "4928": "understan",
    "4929": "list ",
    "4930": " theo",
    "4931": "sex ",
    "4932": "Boone",
    "4933": "part of ",
    "4934": "joine",
    "4935": "joined ",
    "4936": "4th ",
    "4937": "ontane",
    "4938": " Church",
    "4939": "gdal",
    "4940": "eral ",
    "4941": "anoth",
    "4942": "is reas",
    "4943": "red to ",
    "4944": "Scottis",
    "4945": "Scottish ",
    "4946": "betwee",
    "4947": "between ",
    "4948": "vidual",
    "4949": "ffice",
    "4950": "Christia",
    "4951": "0 /",
    "4952": "0 /re",
    "4953": "ternati",
    "4954": "voided ",
    "4955": "licen",
    "4956": "inanc",
    "4957": "inancial",
    "4958": "Sport",
    "4959": "minera",
    "4960": "chemy",
    "4961": "eback ",
    "4962": " now ",
    "4963": "circu",
    "4964": "and He",
    "4965": "and Her",
    "4966": "and Herze",
    "4967": "and Herzegov",
    "4968": "acco",
    "4969": "Football",
    "4970": "llection",
    "4971": "olic ",
    "4972": "thus ",
    "4973": "celestial",
    "4974": "ception",
    "4975": "oken ",
    "4976": "muniti",
    "4977": "ization",
    "4978": "ed, ",
    "4979": "its ",
    "4980": "CI",
    "4981": "lieve ",
    "4982": "nical",
    "4983": "names",
    "4984": "again",
    "4985": "against ",
    "4986": "bili",
    "4987": "bilize",
    "4988": "rganiz",
    "4989": "rganization",
    "4990": "Pacif",
    "4991": "Pacific ",
    "4992": "iloso",
    "4993": "ilosoph",
    "4994": "ypical",
    "4995": "lecture",
    "4996": "mbol",
    "4997": "inorgan",
    "4998": "mode",
    "4999": " spa",
    "5000": "shown",
    "5001": "ateur",
    "5002": "the age",
    "5003": " betwee",
    "5004": "adopt",
    "5005": "epide",
    "5006": "epidemi",
    "5007": "alas",
    "5008": " progra",
    "5009": "ogni",
    "5010": "ognize",
    "5011": "each ",
    "5012": "comple",
    "5013": "causes ",
    "5014": "icial ",
    "5015": "ingly",
    "5016": "ingly, ",
    "5017": "edited",
    "5018": "rity ",
    "5019": "rity (",
    "5020": "h, ",
    "5021": "sni",
    "5022": " 15 and ",
    "5023": " 15 and over",
    "5024": "e of ",
    "5025": "fford",
    "5026": "would",
    "5027": "nese ",
    "5028": "use of ",
    "5029": "use of nit",
    "5030": "use of nitro",
    "5031": " like",
    "5032": "mming",
    "5033": "tain",
    "5034": "equiv",
    "5035": "equivalen",
    "5036": "ardly ",
    "5037": "ults ",
    "5038": "nald ",
    "5039": " were",
    "5040": "meop",
    "5041": "meopath",
    "5042": "e minimu",
    "5043": "e minimum ",
    "5044": "perous ",
    "5045": "Den",
    "5046": "Denmar",
    "5047": "popul",
    "5048": "popular ",
    "5049": "rthern ",
    "5050": "rly ",
    "5051": "ered ",
    "5052": "Greece",
    "5053": "ercen",
    "5054": "vessel",
    "5055": "ue, ",
    "5056": "ccring",
    "5057": "ccrington",
    "5058": "nglo-",
    "5059": "of his ",
    "5060": "nine ",
    "5061": "open ",
    "5062": "harma",
    "5063": "-19",
    "5064": "requ",
    "5065": "require",
    "5066": "istenc",
    "5067": "need ",
    "5068": "herited",
    "5069": "ulins",
    "5070": "there ",
    "5071": "gou",
    "5072": "gouvern",
    "5073": "embedd",
    "5074": "valuable ",
    "5075": "ition ",
    "5076": "effecti",
    "5077": "L_",
    "5078": "L_{",
    "5079": "romant",
    "5080": "romantic ",
    "5081": "ification",
    "5082": "eval",
    "5083": "evaluat",
    "5084": "featur",
    "5085": "nogra",
    "5086": "nograph",
    "5087": "tting",
    "5088": "= cen",
    "5089": "= center",
    "5090": "8. ",
    "5091": "ital",
    "5092": " St",
    "5093": " State",
    "5094": "Yah",
    "5095": "Yahwe",
    "5096": "a and ",
    "5097": "sych",
    "5098": "sycholog",
    "5099": "hile ",
    "5100": "ogen ",
    "5101": "Despite",
    "5102": "Arthur",
    "5103": "erwis",
    "5104": "gentina",
    "5105": "ax",
    "5106": "mson",
    "5107": "edienc",
    "5108": "igeria",
    "5109": " Je",
    "5110": " Jews",
    "5111": "seball",
    "5112": "ormal",
    "5113": "uncia",
    "5114": "earliest ",
    "5115": "uction",
    "5116": "one of ",
    "5117": "very ",
    "5118": "culti",
    "5119": "Decat",
    "5120": "Decatur",
    "5121": "uclea",
    "5122": "erm",
    "5123": " gro",
    "5124": " growth",
    "5125": "reli",
    "5126": "tibi",
    "5127": "tibilit",
    "5128": "-dr",
    "5129": "oble",
    "5130": "oblem",
    "5131": "Linea",
    "5132": "ivalen",
    "5133": "maintai",
    "5134": "scuss",
    "5135": "market",
    "5136": "tlant",
    "5137": " year",
    "5138": "their ",
    "5139": "velation",
    "5140": "nexa",
    "5141": "nexation",
    "5142": "w (",
    "5143": " likely ",
    "5144": "duce ",
    "5145": "2,000",
    "5146": "eling",
    "5147": "ary ",
    "5148": "ary mo",
    "5149": "ssed ",
    "5150": "engt",
    "5151": "weight",
    "5152": "lst ",
    "5153": "cycle",
    "5154": "signed ",
    "5155": "granat",
    "5156": "come ",
    "5157": "ired ",
    "5158": "purp",
    "5159": "purpose",
    "5160": "along ",
    "5161": "along with",
    "5162": "ecific",
    "5163": "illustr",
    "5164": "illustrate",
    "5165": "keep",
    "5166": "lgor",
    "5167": "lgorith",
    "5168": "cture ",
    "5169": "M /ma",
    "5170": "culate",
    "5171": "ersian",
    "5172": "Facul",
    "5173": "Faculty ",
    "5174": "ucky",
    "5175": "ed with",
    "5176": "v. ",
    "5177": "manuscri",
    "5178": "bute ",
    "5179": "bass",
    "5180": "brain",
    "5181": "etime ",
    "5182": "tend ",
    "5183": "tend to ",
    "5184": "ed in ",
    "5185": "st-",
    "5186": "antna",
    "5187": "antnamo",
    "5188": "term",
    "5189": "itual",
    "5190": "count",
    "5191": "countries",
    "5192": "hanto",
    "5193": "ferred",
    "5194": "ferred to ",
    "5195": "publish",
    "5196": "makes ",
    "5197": "pends o",
    "5198": "pends on ",
    "5199": "erview",
    "5200": "lem ",
    "5201": "losur",
    "5202": "ve Ameri",
    "5203": "ve American",
    "5204": "ject to ",
    "5205": "lius ",
    "5206": "ified ",
    "5207": "ists ",
    "5208": "ipline",
    "5209": "parish",
    "5210": "ief ",
    "5211": "whom ",
    "5212": "contai",
    "5213": "pectio",
    "5214": "umula",
    "5215": "ree-",
    "5216": "employ",
    "5217": "piracy",
    "5218": "arise ",
    "5219": "create",
    "5220": "Alexander ",
    "5221": "rection",
    "5222": "orporate",
    "5223": "ublishe",
    "5224": "cial",
    "5225": "theme ",
    "5226": "lomon",
    "5227": "lood",
    "5228": "nsib",
    "5229": "nsibilit",
    "5230": "3% ",
    "5231": "3% /t",
    "5232": "3% /td",
    "5233": "tration",
    "5234": "proc",
    "5235": "proclaim",
    "5236": "proclaimed ",
    "5237": "'s, ",
    "5238": "cause ",
    "5239": "equentl",
    "5240": "equently ",
    "5241": "considered ",
    "5242": "cabu",
    "5243": "zodi",
    "5244": "zodiac",
    "5245": "9)*",
    "5246": "utpu",
    "5247": "grain ",
    "5248": " number",
    "5249": " number of ",
    "5250": "Ass",
    "5251": "Associ",
    "5252": "ckey",
    "5253": "d ima",
    "5254": "r (",
    "5255": "weak",
    "5256": "al-",
    "5257": "bg",
    "5258": "bgco",
    "5259": "bgcolor",
    "5260": "mixt",
    "5261": "mixture",
    "5262": "leuci",
    "5263": "coef",
    "5264": "coeffic",
    "5265": "coefficien",
    "5266": "exist",
    "5267": "surviv",
    "5268": "survived ",
    "5269": "pport",
    "5270": "pported ",
    "5271": "nds to",
    "5272": "nding ",
    "5273": "junct",
    "5274": "junction",
    "5275": "abso",
    "5276": "absolut",
    "5277": "/re",
    "5278": "/region",
    "5279": "S br",
    "5280": "Celt",
    "5281": "monly ",
    "5282": "sts of ",
    "5283": "Army",
    "5284": "chemi",
    "5285": "chemical",
    "5286": "zgr",
    "5287": "locked",
    "5288": "ndicat",
    "5289": "NBC",
    "5290": "Jacque",
    "5291": "vious ",
    "5292": " Le",
    "5293": " Leag",
    "5294": "arlia",
    "5295": "arliament",
    "5296": "?:",
    "5297": "anage",
    "5298": "anagement",
    "5299": "and wi",
    "5300": "and wine ",
    "5301": "particularl",
    "5302": "particularly ",
    "5303": "morphism",
    "5304": "0 /ma",
    "5305": "0 /math ",
    "5306": "70,000",
    "5307": "llenge ",
    "5308": "character ",
    "5309": " Bea",
    "5310": "equation",
    "5311": "ged ",
    "5312": "answer",
    "5313": "y that",
    "5314": "effor",
    "5315": "neces",
    "5316": "rport",
    "5317": "Smit",
    "5318": "3. ",
    "5319": "erdin",
    "5320": "mortal",
    "5321": "during th",
    "5322": "during the ",
    "5323": "bles",
    "5324": "equence",
    "5325": "botto",
    "5326": "bottom ",
    "5327": "lbum",
    "5328": " /mat",
    "5329": "Sax",
    "5330": ") /ma",
    "5331": "eyond",
    "5332": "oteric ",
    "5333": "Earl",
    "5334": "Atlan",
    "5335": "4th N",
    "5336": "4th NF",
    "5337": "1 ||",
    "5338": "lliam ",
    "5339": "help ",
    "5340": "194",
    "5341": "appeara",
    "5342": "appearance",
    "5343": "aimed ",
    "5344": "50% ",
    "5345": "prox",
    "5346": "proxima",
    "5347": "ination",
    "5348": "gerous",
    "5349": "as, ",
    "5350": "basis",
    "5351": "2% ",
    "5352": "2% /t",
    "5353": "2% /td",
    "5354": "kes ",
    "5355": "Decc",
    "5356": "ater ",
    "5357": "ater than",
    "5358": "Ki ",
    "5359": "sold ",
    "5360": "sold in ",
    "5361": "not be ",
    "5362": "thum",
    "5363": "thumous",
    "5364": "Main ",
    "5365": "Main article",
    "5366": "tated ",
    "5367": "tated that",
    "5368": "strateg",
    "5369": "menia",
    "5370": "Roman ",
    "5371": "romise",
    "5372": "Edin",
    "5373": "Edinbu",
    "5374": "Edinburg",
    "5375": "onze",
    "5376": "venien",
    "5377": "guist",
    "5378": "tonom",
    "5379": "tually ",
    "5380": "sput",
    "5381": "danger",
    "5382": "dangerous",
    "5383": "ficiency",
    "5384": "fered ",
    "5385": "princ",
    "5386": "princip",
    "5387": "Hegel",
    "5388": "Cauch",
    "5389": "uilt ",
    "5390": "fare ",
    "5391": "7, 18",
    "5392": "sely ",
    "5393": "forced to ",
    "5394": "petitive",
    "5395": "chael",
    "5396": "chael. ",
    "5397": "democr",
    "5398": "wamp",
    "5399": "required ",
    "5400": "yboards ",
    "5401": "Viet",
    "5402": "Moo",
    "5403": "person",
    "5404": "predict",
    "5405": "an St",
    "5406": "an Stree",
    "5407": "aivel",
    "5408": "Eugen",
    "5409": "aedi",
    "5410": "nominat",
    "5411": "gramm",
    "5412": "Emperor",
    "5413": "Emperor (",
    "5414": "Emperor (b",
    "5415": "means of ",
    "5416": "Vene",
    "5417": "Venez",
    "5418": "Venezuel",
    "5419": "hysic",
    "5420": "upon ",
    "5421": "ssful",
    "5422": "house",
    "5423": "househol",
    "5424": " N",
    "5425": " Nore",
    "5426": "migrate ",
    "5427": "availa",
    "5428": "Link",
    "5429": " officers",
    "5430": "Schu",
    "5431": "Schuma",
    "5432": "Schumache",
    "5433": "quel ",
    "5434": "ceptanc",
    "5435": "T br",
    "5436": "S-",
    "5437": "S-Vi",
    "5438": "cally",
    "5439": "cally, ",
    "5440": "guerit",
    "5441": "Service",
    "5442": "ians ",
    "5443": "Lives",
    "5444": "ctron",
    "5445": "ethn",
    "5446": "ethnic ",
    "5447": "o, ",
    "5448": "ge of ",
    "5449": "ut of ",
    "5450": "etwood",
    "5451": "massivel",
    "5452": "massively ",
    "5453": "4)*",
    "5454": "hill ",
    "5455": " Park",
    "5456": "BS ",
    "5457": "er of ",
    "5458": "prevent",
    "5459": "namely ",
    "5460": "lter ",
    "5461": "ebook",
    "5462": "bserv",
    "5463": "ABC",
    "5464": "ponse",
    "5465": " mamm",
    "5466": "dimension",
    "5467": " is that",
    "5468": "July ",
    "5469": "the world",
    "5470": "6,000",
    "5471": "memo",
    "5472": "background",
    "5473": "runni",
    "5474": "running ",
    "5475": " de ",
    "5476": "physic",
    "5477": "pect",
    "5478": "zzard",
    "5479": "climate",
    "5480": "ressure",
    "5481": "IE",
    "5482": "caval",
    "5483": "trateg",
    "5484": "rangin",
    "5485": "ranging ",
    "5486": "2th ",
    "5487": "ted States ",
    "5488": "Plat",
    "5489": "the most",
    "5490": " Germany",
    "5491": "repre",
    "5492": "reprene",
    "5493": "F. K",
    "5494": "F. Ken",
    "5495": "included",
    "5496": "5)*",
    "5497": "hierar",
    "5498": "carry ",
    "5499": "norma",
    "5500": "normally ",
    "5501": "petition",
    "5502": "ieving",
    "5503": "lescop",
    "5504": "Richa",
    "5505": "Richard",
    "5506": " offered ",
    "5507": "satur",
    "5508": "saturate",
    "5509": "speec",
    "5510": "aircra",
    "5511": "aircraft",
    "5512": "uffered ",
    "5513": "velengt",
    "5514": "7'",
    "5515": "meet ",
    "5516": " cell",
    "5517": "provide ",
    "5518": "understand ",
    "5519": "observed ",
    "5520": "ffee ",
    "5521": "Hamps",
    "5522": "Hampshir",
    "5523": "no l",
    "5524": "no long",
    "5525": "no longer ",
    "5526": "rod ",
    "5527": "promine",
    "5528": "mph",
    "5529": "mphlet",
    "5530": "verted ",
    "5531": " level",
    "5532": "bellion",
    "5533": "isation",
    "5534": "soci",
    "5535": "another ",
    "5536": "controvers",
    "5537": "controversial",
    "5538": "Sult",
    "5539": "Sultan ",
    "5540": "appear ",
    "5541": "gay ",
    "5542": "lleneu",
    "5543": "lleneuve",
    "5544": "ncy",
    "5545": "ncy, ",
    "5546": "myel",
    "5547": " proc",
    "5548": " proces",
    "5549": "constitu",
    "5550": "constitution",
    "5551": "pared to ",
    "5552": " album",
    "5553": "Ura",
    "5554": "anning",
    "5555": "exclusi",
    "5556": "March ",
    "5557": "CIA",
    "5558": "plici",
    "5559": "tives",
    "5560": "unles",
    "5561": " off ",
    "5562": "ld, ",
    "5563": "sthe",
    "5564": "eywell",
    "5565": " pleas",
    "5566": " pleasure",
    "5567": "lost ",
    "5568": "Baro",
    "5569": "Baroque",
    "5570": "ref ",
    "5571": "Champ",
    "5572": "itious ",
    "5573": "mathema",
    "5574": "mathematic",
    "5575": "direct",
    "5576": "Obs",
    "5577": "Obscu",
    "5578": "super",
    "5579": "supermarket",
    "5580": "brown",
    "5581": "ority ",
    "5582": "ry br",
    "5583": "Latin ",
    "5584": "forming",
    "5585": "eving",
    "5586": "fact ",
    "5587": ".Croa",
    "5588": ".Croatia",
    "5589": "other side",
    "5590": "mainland",
    "5591": "Detro",
    "5592": "collection",
    "5593": "collection of ",
    "5594": "messa",
    "5595": "rsue",
    "5596": "welt ",
    "5597": "cts the ",
    "5598": "eritage",
    "5599": "varia",
    "5600": "home ",
    "5601": "home to ",
    "5602": " up",
    "5603": " upon ",
    "5604": "romwell",
    "5605": "name serv",
    "5606": "KL",
    "5607": "M (",
    "5608": "ke, ",
    "5609": "raffic ",
    "5610": "extrap",
    "5611": "extrapont",
    "5612": "extrapontine",
    "5613": "ought ",
    "5614": "residen",
    "5615": "University",
    "5616": "lists",
    "5617": "lists*19",
    "5618": "riety ",
    "5619": "orway",
    "5620": "atian",
    "5621": "colli",
    "5622": "collision",
    "5623": "atmosph",
    "5624": "atmosphere",
    "5625": "dvertis",
    "5626": "4 bi",
    "5627": "4 billi",
    "5628": "ceiver",
    "5629": "divide",
    "5630": "appointed ",
    "5631": "scree",
    "5632": "way from",
    "5633": "During the ",
    "5634": ". D",
    "5635": "Homer",
    "5636": "apped",
    "5637": "vars",
    "5638": "Wiza",
    "5639": "Wizard",
    "5640": "-Pr",
    "5641": "-Prince",
    "5642": "riety of ",
    "5643": "imult",
    "5644": "imultane",
    "5645": "imultaneous",
    "5646": "17)*",
    "5647": "efore",
    "5648": " tea",
    "5649": "drama",
    "5650": "dramatic",
    "5651": "rbit",
    "5652": "nership",
    "5653": "consistent",
    "5654": "foreign",
    "5655": " billi",
    "5656": "bes ",
    "5657": "olla",
    "5658": "ollard",
    "5659": "topher ",
    "5660": "curr",
    "5661": "releas",
    "5662": "release of ",
    "5663": "iedric",
    "5664": "Marxi",
    "5665": "90)*",
    "5666": "Who ",
    "5667": "gart ",
    "5668": "mander",
    "5669": "fraid",
    "5670": "rapidly ",
    "5671": "popular",
    "5672": "creat",
    "5673": "creator ",
    "5674": "merick",
    "5675": "Drac",
    "5676": "Dracula",
    "5677": " ro",
    "5678": " rod ",
    "5679": "9)*17",
    "5680": "penal",
    "5681": "penalty ",
    "5682": "*The ",
    "5683": "orange",
    "5684": "der, ",
    "5685": "locaus",
    "5686": "nner ",
    "5687": "vector",
    "5688": "lling ",
    "5689": "tudi",
    "5690": "tudies ",
    "5691": "forward ",
    "5692": "particular ",
    "5693": "ccording to ",
    "5694": "in, ",
    "5695": " Com",
    "5696": " Comic",
    "5697": "metro",
    "5698": "nt to ",
    "5699": "kilo",
    "5700": "foot",
    "5701": "football",
    "5702": "illum",
    "5703": " novel",
    "5704": "Golden",
    "5705": "termine",
    "5706": "cultiva",
    "5707": "cultivars",
    "5708": "Phil",
    "5709": "ximu",
    "5710": "ivity",
    "5711": "resulted in ",
    "5712": "Muse",
    "5713": "Museum",
    "5714": "whet",
    "5715": "whether",
    "5716": " stra",
    "5717": " strateg",
    "5718": "neration",
    "5719": "ctions",
    "5720": "rcycl",
    "5721": "broad",
    "5722": "broadcas",
    "5723": "f, ",
    "5724": "f, or ",
    "5725": "f, or any",
    "5726": "North Ameri",
    "5727": "North American",
    "5728": " groups",
    "5729": "polym",
    "5730": "thic ",
    "5731": "ailed",
    "5732": "drid",
    "5733": "fend ",
    "5734": " Ban",
    "5735": "3 ndas",
    "5736": "3 ndash",
    "5737": "evole",
    "5738": "vince ",
    "5739": "effects ",
    "5740": "ggested that",
    "5741": "aware ",
    "5742": "Nagu",
    "5743": "Naguib",
    "5744": "-str",
    "5745": "Treaty of ",
    "5746": "5,000",
    "5747": "rich ",
    "5748": "laimed ",
    "5749": "ccount",
    "5750": "englis",
    "5751": "Camer",
    "5752": "eresting ",
    "5753": " Christin",
    "5754": "50)*",
    "5755": "Verl",
    "5756": "Verlag",
    "5757": "Irani",
    "5758": "Italian",
    "5759": " heavily",
    "5760": "appl",
    "5761": "applicat",
    "5762": "application",
    "5763": "dvocat",
    "5764": "weeks ",
    "5765": " America, ",
    "5766": "naxi",
    "5767": "ntast",
    "5768": "ministers",
    "5769": "verdict",
    "5770": "jami",
    "5771": "guit",
    "5772": "lid ",
    "5773": "duction",
    "5774": "announc",
    "5775": " African ",
    "5776": "websit",
    "5777": "alone ",
    "5778": "onumen",
    "5779": "C (",
    "5780": "discip",
    "5781": "disciplin",
    "5782": "poleo",
    "5783": "bPr",
    "5784": "narrow",
    "5785": "agate",
    "5786": "nchrot",
    "5787": "nchrotron",
    "5788": "ortion",
    "5789": "rinted ",
    "5790": "ns betwee",
    "5791": " than ",
    "5792": "angered ",
    "5793": "mabl",
    "5794": "Blac",
    "5795": "Black ",
    "5796": "Black F",
    "5797": "Black Fla",
    "5798": "ervatism",
    "5799": "file ",
    "5800": "Connecticu",
    "5801": "positione",
    "5802": "ollow",
    "5803": "Busi",
    "5804": "Business",
    "5805": "trum",
    "5806": "usiness",
    "5807": "ppear",
    "5808": "reasons",
    "5809": "capitali",
    "5810": "Octob",
    "5811": "October ",
    "5812": "Comeback ",
    "5813": "companion",
    "5814": "ytho",
    "5815": "ytholog",
    "5816": "ubric",
    "5817": "Gate",
    "5818": "changing ",
    "5819": "circumstance",
    "5820": "refers to",
    "5821": "Central Ameri",
    "5822": "Central American",
    "5823": "placement",
    "5824": "ttempt",
    "5825": "French ",
    "5826": "gher ",
    "5827": "gher pit",
    "5828": "cluste",
    "5829": "methin",
    "5830": " necess",
    "5831": " necessarily ",
    "5832": "ussians",
    "5833": "s|",
    "5834": "attra",
    "5835": "attractio",
    "5836": "nrich",
    "5837": "Paris",
    "5838": "type of ",
    "5839": "power",
    "5840": "gricul",
    "5841": "Shep",
    "5842": "the age of ",
    "5843": "TC",
    "5844": "ilicon",
    "5845": "RG",
    "5846": "RGB",
    "5847": "tribution",
    "5848": "aught",
    "5849": "ithet ",
    "5850": "etero",
    "5851": "generate ",
    "5852": "4-200",
    "5853": "meaning",
    "5854": "commonly ",
    "5855": "r effe",
    "5856": "preci",
    "5857": "preciate",
    "5858": "ed as ",
    "5859": "World",
    "5860": "fted ",
    "5861": "ogy",
    "5862": "If ",
    "5863": "ohib",
    "5864": "elgium -",
    "5865": "compound",
    "5866": "best ",
    "5867": "best known",
    "5868": "versib",
    "5869": "derive",
    "5870": "derived from",
    "5871": " film",
    "5872": "kfor",
    "5873": "osym",
    "5874": "applied",
    "5875": "paperback",
    "5876": "vigora",
    "5877": "ailable",
    "5878": "reign",
    "5879": " Aca",
    "5880": " Acade",
    "5881": "arly ",
    "5882": "followed by ",
    "5883": "ition",
    "5884": "It ",
    "5885": "-ra",
    "5886": "cts",
    "5887": "uited ",
    "5888": "n-X",
    "5889": "nti-",
    "5890": "mired",
    "5891": "effectivel",
    "5892": "effectively ",
    "5893": "ternativel",
    "5894": "ternatively ",
    "5895": "ydrof",
    "5896": "ydrofoi",
    "5897": "specifically ",
    "5898": "justing ",
    "5899": "though ",
    "5900": "panded",
    "5901": "Djang",
    "5902": "began",
    "5903": "tly",
    "5904": "tly, ",
    "5905": "'side",
    "5906": "illustrat",
    "5907": " about",
    "5908": "housand",
    "5909": "next",
    "5910": "www",
    "5911": "stly ",
    "5912": " Aste",
    "5913": " Asteri",
    "5914": "sbelie",
    "5915": "HD",
    "5916": "HDZ",
    "5917": " Al",
    "5918": "hren",
    "5919": "hrenhe",
    "5920": "capture",
    "5921": "6.",
    "5922": "cosm",
    "5923": "le form",
    "5924": "ecause of ",
    "5925": "yweight",
    "5926": "yweight br",
    "5927": "eelin",
    "5928": "eelings",
    "5929": "inging",
    "5930": "dogs",
    "5931": "7 nbsp;",
    "5932": "D (19",
    "5933": "D (199",
    "5934": "d, ",
    "5935": "thent",
    "5936": "moirs",
    "5937": "tedly ",
    "5938": "ction ",
    "5939": "animal ",
    "5940": "umabl",
    "5941": "umably ",
    "5942": "population",
    "5943": "ttery ",
    "5944": "parable",
    "5945": "parliam",
    "5946": "oxy",
    "5947": "oxygen",
    "5948": "Rodd",
    "5949": "hines",
    "5950": "Coma ",
    "5951": "communicate ",
    "5952": "terog",
    "5953": "terogene",
    "5954": "terogeneous",
    "5955": "extrem",
    "5956": "extremely",
    "5957": "sometime",
    "5958": "sometimes ",
    "5959": "olish",
    "5960": "White ",
    "5961": "White Wo",
    "5962": "White Wolf",
    "5963": "yard",
    "5964": "178",
    "5965": "1789,",
    "5966": "associate",
    "5967": "associated ",
    "5968": "associated with",
    "5969": "doubl",
    "5970": "iff",
    "5971": "iff'",
    "5972": "iff'ren",
    "5973": " light",
    "5974": "recogni",
    "5975": "recognized ",
    "5976": "Congre",
    "5977": "Congress",
    "5978": "plicat",
    "5979": "caused ",
    "5980": " suff",
    "5981": "cycl",
    "5982": "anti-",
    "5983": "anti-commun",
    "5984": "Categor",
    "5985": "mphibi",
    "5986": "mphibious",
    "5987": "War ",
    "5988": "War De",
    "5989": "War Depart",
    "5990": "t of L",
    "5991": "t of Lat",
    "5992": "t of Latter",
    "5993": "densit",
    "5994": "however",
    "5995": "park ",
    "5996": "erly",
    "5997": "erlying",
    "5998": "grouped ",
    "5999": "uke ",
    "6000": "uke of ",
    "6001": "icians",
    "6002": "certain ",
    "6003": "centra",
    "6004": "central ",
    "6005": "course of ",
    "6006": "child",
    "6007": "fortu",
    "6008": "fortunat",
    "6009": " in ",
    "6010": "r (b",
    "6011": "r (b. ",
    "6012": "tured ",
    "6013": "old",
    "6014": "imself ",
    "6015": "-called",
    "6016": "ocean",
    "6017": "fish",
    "6018": "himself ",
    "6019": "merged ",
    "6020": "learn ",
    "6021": "lean ",
    "6022": "11th ",
    "6023": "ajor",
    "6024": "ptun",
    "6025": "nger ",
    "6026": "nger than",
    "6027": "estimate",
    "6028": "Booksto",
    "6029": "Bookstore",
    "6030": "com --",
    "6031": " Emp",
    "6032": " Empire",
    "6033": "uclear ",
    "6034": "pand",
    "6035": "relationship",
    "6036": "yme ",
    "6037": "d-19",
    "6038": "colleges ",
    "6039": "ulpt",
    "6040": "body ",
    "6041": "tales ",
    "6042": "geria",
    "6043": "s time",
    "6044": "ath of ",
    "6045": "tending",
    "6046": "an relat",
    "6047": "scene",
    "6048": "vian ",
    "6049": "irate",
    "6050": "On ",
    "6051": "smic ",
    "6052": "important to ",
    "6053": "levision",
    "6054": "tform",
    "6055": "filled",
    "6056": "redict",
    "6057": "dish",
    "6058": "Ireland, ",
    "6059": "2.",
    "6060": "oup ",
    "6061": "-spe",
    "6062": "-speak",
    "6063": "session",
    "6064": "rbi",
    "6065": "Knight",
    "6066": "bsbu",
    "6067": "Boston",
    "6068": "threat",
    "6069": "threatened ",
    "6070": "unt for ",
    "6071": "see ",
    "6072": "credit",
    "6073": "useful",
    "6074": "crutin",
    "6075": "my Awar",
    "6076": "NA",
    "6077": " he ",
    "6078": "onome",
    "6079": "ponsibilit",
    "6080": "equence ",
    "6081": "20 - ",
    "6082": "179",
    "6083": "htm",
    "6084": "hadith",
    "6085": "guest o",
    "6086": "guest oper",
    "6087": "viron",
    "6088": "racula",
    "6089": "extent",
    "6090": " canon ",
    "6091": ", Californ",
    "6092": ", California",
    "6093": "rowsp",
    "6094": "club ",
    "6095": "serving",
    "6096": "raries",
    "6097": "7 ndas",
    "6098": "7 ndash",
    "6099": "coff",
    "6100": "hypo",
    "6101": "hypothe",
    "6102": "oloto",
    "6103": "magazi",
    "6104": "en, German",
    "6105": "eting",
    "6106": "ically",
    "6107": "ically, ",
    "6108": "glome",
    "6109": "2 to ",
    "6110": "tial ",
    "6111": "lunar",
    "6112": "ts, ",
    "6113": "Both ",
    "6114": "under",
    "6115": "frui",
    "6116": "Germany's ",
    "6117": "Bank",
    "6118": "Bankruptcy",
    "6119": "ry, ",
    "6120": " tang",
    "6121": " tangent",
    "6122": "indus",
    "6123": "industrie",
    "6124": "tabilit",
    "6125": " tele",
    "6126": " television ",
    "6127": "figu",
    "6128": "inhabitant",
    "6129": "ocation",
    "6130": "ic be",
    "6131": "ic bever",
    "6132": "ic beverage",
    "6133": "ivers ",
    "6134": "Memb",
    "6135": "Members",
    "6136": "okary",
    "6137": "temporary ",
    "6138": "gaged in ",
    "6139": "computati",
    "6140": "computational ",
    "6141": "negati",
    "6142": "silic",
    "6143": "model ",
    "6144": "moved ",
    "6145": "lacie",
    "6146": "Russian ",
    "6147": "debat",
    "6148": "te in ",
    "6149": "brew ",
    "6150": "Pope",
    "6151": "ley ",
    "6152": "newer",
    "6153": "se, ",
    "6154": "he bel",
    "6155": "he below",
    "6156": "poratism",
    "6157": "tiko",
    "6158": "Bib",
    "6159": "front ",
    "6160": "volved ",
    "6161": "varies",
    "6162": "Foxe",
    "6163": "ricult",
    "6164": "otation",
    "6165": "give ",
    "6166": "Microsoft",
    "6167": "i. ",
    "6168": "people to ",
    "6169": " World ",
    "6170": "autob",
    "6171": " being",
    "6172": " problem",
    "6173": "ciate",
    "6174": "signals",
    "6175": "errac",
    "6176": "erracial",
    "6177": "roduc",
    "6178": "UN ",
    "6179": "eache",
    "6180": "offrey",
    "6181": " analysis",
    "6182": "nouncemen",
    "6183": "nouncement ",
    "6184": "great ",
    "6185": "Bli",
    "6186": "Blizz",
    "6187": "Blizzard",
    "6188": ".com",
    "6189": ".com --",
    "6190": "exact",
    "6191": "exactly ",
    "6192": "life ",
    "6193": "founder ",
    "6194": "onom",
    "6195": "dric ",
    "6196": " near",
    "6197": "ripture",
    "6198": "rgue",
    "6199": "city's ",
    "6200": "field of ",
    "6201": "1)*",
    "6202": "lasts ",
    "6203": "completion",
    "6204": "topol",
    "6205": "eau",
    "6206": "oseph",
    "6207": "s)",
    "6208": "pposed",
    "6209": "thrown ",
    "6210": "Yog",
    "6211": "Yog-",
    "6212": "iving",
    "6213": "aintanc",
    "6214": "claimed ",
    "6215": "dopt",
    "6216": "e and ",
    "6217": "cidental",
    "6218": "cidentally ",
    "6219": " fee",
    "6220": " feet ",
    "6221": "y, ",
    "6222": "frequentl",
    "6223": "frequently ",
    "6224": "vs",
    "6225": "vs. ",
    "6226": "-Vi",
    "6227": "gorith",
    "6228": "death",
    "6229": "s or ",
    "6230": "on of ",
    "6231": "road",
    "6232": "Muslim",
    "6233": "tree",
    "6234": "the University of ",
    "6235": "Corcov",
    "6236": "onounc",
    "6237": "Mela",
    "6238": "Melaka",
    "6239": "Gates ",
    "6240": "terres",
    "6241": "terrestria",
    "6242": "believe ",
    "6243": "pitch ",
    "6244": "inent ",
    "6245": "ssional",
    "6246": "encod",
    "6247": "Ang",
    "6248": "Angol",
    "6249": "Coven",
    "6250": "Covenant",
    "6251": "explo",
    "6252": "detected ",
    "6253": "e*",
    "6254": "El ",
    "6255": "El Sa",
    "6256": "El Salvador",
    "6257": "etry ",
    "6258": "ation (19",
    "6259": "ation (199",
    "6260": "mend",
    "6261": "mendment",
    "6262": "ovanni",
    "6263": " Wi",
    "6264": "itary ",
    "6265": "acter",
    "6266": "Roman",
    "6267": "ubt ",
    "6268": "Hill",
    "6269": "participa",
    "6270": "ourism",
    "6271": "road ",
    "6272": " breast",
    "6273": "study",
    "6274": "weal",
    "6275": "3-inc",
    "6276": "3-inch ",
    "6277": "World Ban",
    "6278": "r*",
    "6279": "1-",
    "6280": "Sabine",
    "6281": "6. ",
    "6282": "iation",
    "6283": "wsui",
    "6284": "do not",
    "6285": "promote",
    "6286": "find",
    "6287": "mage ",
    "6288": "liance",
    "6289": "Commer",
    "6290": "renov",
    "6291": " 200",
    "6292": "s*19",
    "6293": "catch ",
    "6294": "Catholic ",
    "6295": "preserv",
    "6296": "s:",
    "6297": "esthe",
    "6298": "ndash",
    "6299": "ambia",
    "6300": "(18",
    "6301": "ks, ",
    "6302": "Right",
    "6303": " King",
    "6304": " Kingdo",
    "6305": "trial ",
    "6306": "bonic",
    "6307": "Jacob",
    "6308": "of which",
    "6309": "rowspan",
    "6310": "VO",
    "6311": "VOC",
    "6312": "termina",
    "6313": "enber",
    "6314": "hero ",
    "6315": "Pin",
    "6316": "Pinyin",
    "6317": "s movemen",
    "6318": "ondon ",
    "6319": "xtrem",
    "6320": "klin",
    "6321": "New Te",
    "6322": "New Testa",
    "6323": "eters",
    "6324": "ligi",
    "6325": "ligible",
    "6326": "tinued ",
    "6327": "entering ",
    "6328": " flo",
    "6329": " floppy",
    "6330": "gay right",
    "6331": "Histo",
    "6332": "willing to ",
    "6333": "dicates ",
    "6334": "unch ",
    "6335": "proa",
    "6336": "dification",
    "6337": "naiss",
    "6338": "naissanc",
    "6339": "8-19",
    "6340": "Following",
    "6341": "acci",
    "6342": "created ",
    "6343": "format",
    "6344": "My ",
    "6345": "al) ",
    "6346": "e's ",
    "6347": "player",
    "6348": "Nica",
    "6349": "Nicara",
    "6350": "Nicaragu",
    "6351": "r's ",
    "6352": "consecut",
    "6353": "consecutive",
    "6354": "ushed",
    "6355": "Bosni",
    "6356": "covered ",
    "6357": "total",
    "6358": "ask ",
    "6359": "ce fict",
    "6360": "ce fiction",
    "6361": "Darwi",
    "6362": "pope",
    "6363": "IP address",
    "6364": "cholog",
    "6365": "nsive",
    "6366": "China ",
    "6367": "on-",
    "6368": "ronuncia",
    "6369": "ronunciation",
    "6370": "tallest",
    "6371": "planni",
    "6372": "planning ",
    "6373": "result of ",
    "6374": "surround",
    "6375": "stions",
    "6376": "tarian",
    "6377": " on ",
    "6378": ". --",
    "6379": "2 nbsp",
    "6380": "OC",
    "6381": "OC_",
    "6382": "summ",
    "6383": "emperor",
    "6384": "posure",
    "6385": "players ",
    "6386": " Fish",
    "6387": "ased on ",
    "6388": "flamm",
    "6389": "etymo",
    "6390": "counter",
    "6391": "counter-",
    "6392": "uch that",
    "6393": "ll of Fa",
    "6394": "words ",
    "6395": "tes ",
    "6396": "Germanic ",
    "6397": " trans",
    "6398": " transform",
    "6399": " transformation",
    "6400": "crisis",
    "6401": "xes ",
    "6402": "ne 19",
    "6403": "ublishers",
    "6404": "Depart",
    "6405": "ory, ",
    "6406": "lement",
    "6407": "air:",
    "6408": "Speci",
    "6409": "eople",
    "6410": " (195",
    "6411": "develop",
    "6412": "development",
    "6413": "-sta",
    "6414": "oor ",
    "6415": "oating",
    "6416": "Hagg",
    "6417": "4.",
    "6418": "P (",
    "6419": "vereign ",
    "6420": "deo ",
    "6421": "Chop",
    "6422": "onstruct",
    "6423": "code ",
    "6424": "ldren",
    "6425": "faste",
    "6426": "veale",
    "6427": "vealed ",
    "6428": "ctually ",
    "6429": "Uk",
    "6430": "Ukra",
    "6431": "bility of ",
    "6432": "rague",
    "6433": "actually ",
    "6434": "cotto",
    "6435": "While ",
    "6436": "truss",
    "6437": "paration",
    "6438": "(born 1",
    "6439": "(born 19",
    "6440": "thoven",
    "6441": "Graph",
    "6442": "ethan",
    "6443": "ethanol",
    "6444": ")*19",
    "6445": "Calonne",
    "6446": "velopment of ",
    "6447": "etime",
    "6448": "Hong Kong",
    "6449": "hauc",
    "6450": "promise",
    "6451": "prang",
    "6452": "fall of ",
    "6453": "1.",
    "6454": "deg",
    "6455": "evels of ",
    "6456": "distr",
    "6457": "district",
    "6458": "performed ",
    "6459": "alace",
    "6460": "a Comp",
    "6461": "egin ",
    "6462": "succession",
    "6463": " foo",
    "6464": " foot",
    "6465": " football",
    "6466": "phabe",
    "6467": "range of ",
    "6468": "betic",
    "6469": " of ele",
    "6470": " of elect",
    "6471": "Chines",
    "6472": "Chinese ",
    "6473": "oned ",
    "6474": "ntimen",
    "6475": "attle",
    "6476": "related ",
    "6477": "welcom",
    "6478": "eply ",
    "6479": "publicat",
    "6480": "publication",
    "6481": "ity's ",
    "6482": "versing",
    "6483": "Aeo",
    "6484": "Aeolia",
    "6485": "e-",
    "6486": "dishe",
    "6487": "fiction",
    "6488": "y|",
    "6489": "icked ",
    "6490": "k*",
    "6491": "-in",
    "6492": "hydrogen ",
    "6493": "tropol",
    "6494": "tropolit",
    "6495": "urke",
    "6496": "eele",
    "6497": "eelers",
    "6498": "burg",
    "6499": " aspect",
    "6500": " aspects of ",
    "6501": "rey ",
    "6502": "Edinburgh ",
    "6503": "phenomenon ",
    "6504": " Christia",
    "6505": "oting",
    "6506": "George ",
    "6507": "on afte",
    "6508": "late 19",
    "6509": "Morr",
    "6510": "wegi",
    "6511": "ose to ",
    "6512": "+ /",
    "6513": "+ /su",
    "6514": "munist",
    "6515": "counties",
    "6516": "successful",
    "6517": "erlangu",
    "6518": "erlanguage",
    "6519": "plies",
    "6520": "Fox ",
    "6521": "immedia",
    "6522": "immediate",
    "6523": "rtoo",
    "6524": "distan",
    "6525": "er's ",
    "6526": "Dicti",
    "6527": "Dictiona",
    "6528": "holding",
    "6529": "tamin",
    "6530": "eginning ",
    "6531": "metimes ",
    "6532": "en:",
    "6533": "two ",
    "6534": "Coug",
    "6535": "C. ",
    "6536": "tention",
    "6537": "ldie",
    "6538": " D",
    "6539": " Doo",
    "6540": " Doom",
    "6541": "currentl",
    "6542": ".#",
    "6543": "hical ",
    "6544": "Arian",
    "6545": "t met",
    "6546": "t method",
    "6547": "one to ",
    "6548": "Reag",
    "6549": "Broad",
    "6550": "Broadcas",
    "6551": "zeneg",
    "6552": "zenegger",
    "6553": " beg",
    "6554": " begins",
    "6555": "Dy",
    "6556": "Dyna",
    "6557": "plied",
    "6558": "influence ",
    "6559": "Swa",
    "6560": "Swamp",
    "6561": " Film",
    "6562": "Testa",
    "6563": " hour",
    "6564": "dangered ",
    "6565": "specula",
    "6566": "speculate ",
    "6567": "latinat",
    "6568": "nd the ",
    "6569": "ocket ",
    "6570": "fused",
    "6571": "toire",
    "6572": "suing",
    "6573": "blind ",
    "6574": "half",
    "6575": "Corsic",
    "6576": "flex",
    "6577": "nsber",
    "6578": "phron",
    "6579": "roque",
    "6580": "ently ",
    "6581": "Apol",
    "6582": "Apollo",
    "6583": "Colum",
    "6584": "the-",
    "6585": "rate ",
    "6586": "system",
    "6587": "Prot",
    "6588": "Proto-",
    "6589": "hyste",
    "6590": "manufactur",
    "6591": "manufacturing",
    "6592": "members of the ",
    "6593": "gger ",
    "6594": "BB",
    "6595": "chup",
    "6596": "chupac",
    "6597": "chupacab",
    "6598": "rned ",
    "6599": "quire",
    "6600": "ense ",
    "6601": "curs",
    "6602": "victory ",
    "6603": "First",
    "6604": "offer",
    "6605": "analysis",
    "6606": "merger",
    "6607": "Byzantine",
    "6608": "titution",
    "6609": "abrad",
    "6610": " stu",
    "6611": " studen",
    "6612": "estate",
    "6613": "ctoral",
    "6614": "idence, ",
    "6615": "com/",
    "6616": "chelor",
    "6617": "ypes of ",
    "6618": "andard",
    "6619": "ks (19",
    "6620": "ks (199",
    "6621": "Fouri",
    "6622": "nor of ",
    "6623": "velopment",
    "6624": "marsh",
    "6625": "marshal",
    "6626": "marshal (d. ",
    "6627": "dika",
    "6628": "s in ",
    "6629": "council",
    "6630": "relating to ",
    "6631": "Harva",
    "6632": "Harvard",
    "6633": "pic",
    "6634": "Chapter",
    "6635": "hagg",
    "6636": "larly ",
    "6637": "collected ",
    "6638": "ignals",
    "6639": "Hawai",
    "6640": "holog",
    "6641": "kind of ",
    "6642": "eal ",
    "6643": "seen ",
    "6644": "otable ",
    "6645": "trying to ",
    "6646": "l to ",
    "6647": "oll ",
    "6648": "stock",
    "6649": " Pec",
    "6650": "seud",
    "6651": "lack of ",
    "6652": "2|",
    "6653": "lticell",
    "6654": "lticellula",
    "6655": "legislation",
    "6656": "allest ",
    "6657": "President",
    "6658": "neath ",
    "6659": "en's ",
    "6660": "coast",
    "6661": "too ",
    "6662": "mainstream ",
    "6663": "rmally ",
    "6664": "this ",
    "6665": "gorod",
    "6666": "investo",
    "6667": "Sotho",
    "6668": " Associ",
    "6669": "position",
    "6670": "trieved ",
    "6671": "hatch ",
    "6672": "many, ",
    "6673": "Vedic",
    "6674": "riage ",
    "6675": "desc",
    "6676": "descent",
    "6677": "raditio",
    "6678": "look",
    "6679": " again",
    "6680": "refore",
    "6681": " be ",
    "6682": "ession",
    "6683": "otia",
    "6684": "latter",
    "6685": "ateful",
    "6686": "ddle",
    "6687": "h.",
    "6688": "break",
    "6689": "breaking",
    "6690": "Conference ",
    "6691": "culation",
    "6692": " often",
    "6693": "ivisi",
    "6694": "iting ",
    "6695": "imle",
    "6696": "cross th",
    "6697": "cross the ",
    "6698": "tereotyp",
    "6699": "astline",
    "6700": "plaint",
    "6701": "dna ",
    "6702": "write-",
    "6703": "journey",
    "6704": "nio ",
    "6705": " Assembl",
    "6706": "heat",
    "6707": "novel",
    "6708": "uringia",
    "6709": "medici",
    "6710": "narrat",
    "6711": "narrative",
    "6712": "r footn",
    "6713": "r footnote",
    "6714": "initia",
    "6715": "Hens",
    "6716": "Henslow",
    "6717": " instance",
    "6718": "especially ",
    "6719": "onio ",
    "6720": "tney",
    "6721": "levan",
    "6722": "rdini",
    "6723": "ellowship",
    "6724": "ofar ",
    "6725": "ulated ",
    "6726": "stle",
    "6727": "eries of ",
    "6728": "chord",
    "6729": "ilities",
    "6730": "s, ",
    "6731": "nants ",
    "6732": "srael",
    "6733": "contrast",
    "6734": "contrast, ",
    "6735": "6th ",
    "6736": "6th centur",
    "6737": "investi",
    "6738": "investigation",
    "6739": "try ",
    "6740": "diame",
    "6741": "diameter",
    "6742": "osition ",
    "6743": "6 iss",
    "6744": "6 issue",
    "6745": "therto ",
    "6746": "possession",
    "6747": "lains",
    "6748": "ant, ",
    "6749": "parties",
    "6750": "vesicle",
    "6751": "wo Cha",
    "6752": "wo Champ",
    "6753": "9. ",
    "6754": "lers",
    "6755": "Civil",
    "6756": "ength ",
    "6757": "ength of ",
    "6758": "tential ",
    "6759": "tail ",
    "6760": "rbon ",
    "6761": "ringfield",
    "6762": "c mate",
    "6763": "c material",
    "6764": "reached",
    "6765": "-lif",
    "6766": "ured ",
    "6767": "Vand",
    "6768": "stribut",
    "6769": "taboo",
    "6770": " rea",
    "6771": " reactio",
    "6772": " sect",
    "6773": "S-DO",
    "6774": "productio",
    "6775": "and Ta",
    "6776": "understo",
    "6777": "understorm",
    "6778": "xwell",
    "6779": "-sc",
    "6780": "-scale",
    "6781": " sequence",
    "6782": " sequences ",
    "6783": "4, 200",
    "6784": "paci",
    "6785": "pacity ",
    "6786": "steri",
    "6787": "tand",
    "6788": "tandard",
    "6789": "udienc",
    "6790": "sat ",
    "6791": "nus ",
    "6792": "o-Guin",
    "6793": " only ",
    "6794": " support",
    "6795": "Prince",
    "6796": "orporated ",
    "6797": "tended",
    "6798": "tended to ",
    "6799": "at of ",
    "6800": "ummin",
    "6801": "ummings",
    "6802": "extant",
    "6803": "rthod",
    "6804": "rthodox",
    "6805": " 16",
    "6806": "ccused",
    "6807": "ccused of ",
    "6808": "traced ",
    "6809": " of Engl",
    "6810": "reduce ",
    "6811": "ection",
    "6812": "A ",
    "6813": "A C",
    "6814": "production of ",
    "6815": "Egypt",
    "6816": "lack ",
    "6817": "mocracy",
    "6818": "gnitive ",
    "6819": "sieg",
    "6820": "', ",
    "6821": "arian ",
    "6822": "turn ",
    "6823": "vation",
    "6824": "campu",
    "6825": " laws",
    "6826": "hormon",
    "6827": "thought",
    "6828": "attempt",
    "6829": "ly, ",
    "6830": "tructur",
    "6831": "lestine",
    "6832": "orship",
    "6833": "rigina",
    "6834": "riginal ",
    "6835": "rdner",
    "6836": "list of ",
    "6837": "wyer",
    "6838": "has a ",
    "6839": "astronome",
    "6840": "kly ",
    "6841": " mo",
    "6842": " molec",
    "6843": "print",
    "6844": "bial",
    "6845": "i, ",
    "6846": "Nether",
    "6847": "Netherland",
    "6848": "rthograph",
    "6849": "Jacques ",
    "6850": "DVD",
    "6851": "insura",
    "6852": "insurance",
    "6853": "fall",
    "6854": " ke",
    "6855": " keyboard",
    "6856": "mile ",
    "6857": "Fire",
    "6858": "nguished ",
    "6859": "dited with",
    "6860": "nt in ",
    "6861": "20th centur",
    "6862": "l X",
    "6863": "East",
    "6864": "ermane",
    "6865": "ermanent ",
    "6866": "2 iss",
    "6867": "2 issue",
    "6868": "betical",
    "6869": "published ",
    "6870": "talk ",
    "6871": "activis",
    "6872": "activists ",
    "6873": "Ency",
    "6874": "Encycl",
    "6875": " app",
    "6876": " appear",
    "6877": "cade",
    "6878": "miconduct",
    "6879": "eeting",
    "6880": "companies",
    "6881": "olume ",
    "6882": "fact that",
    "6883": "inity ",
    "6884": "Hermes",
    "6885": " Thin",
    "6886": "deal ",
    "6887": "deal with",
    "6888": "religio",
    "6889": "atible",
    "6890": "glob",
    "6891": "global",
    "6892": "T4",
    "6893": "hold ",
    "6894": " of 6",
    "6895": "Crom",
    "6896": "Cromwell",
    "6897": "rospace ",
    "6898": "3-19",
    "6899": "dult",
    "6900": " hal",
    "6901": " half ",
    "6902": "From ",
    "6903": "19 - ",
    "6904": "one of the ",
    "6905": "existing",
    "6906": "blood",
    "6907": "reque",
    "6908": "lying",
    "6909": "hand",
    "6910": "hands of ",
    "6911": "Heal",
    "6912": "p:",
    "6913": " campai",
    "6914": " campaign",
    "6915": "ackground",
    "6916": "press",
    "6917": " leader",
    "6918": "Crow",
    "6919": "y of the ",
    "6920": "cumbed",
    "6921": "inister ",
    "6922": " Part",
    "6923": "Gener",
    "6924": "Generation",
    "6925": "foundation",
    "6926": "palac",
    "6927": "ct s",
    "6928": "ct snow",
    "6929": "e music",
    "6930": "casion",
    "6931": "d to ",
    "6932": "commit",
    "6933": "committe",
    "6934": " isom",
    "6935": " isomorp",
    "6936": "quee",
    "6937": "rotection ",
    "6938": "varie",
    "6939": "2)*1",
    "6940": "es that",
    "6941": "Great ",
    "6942": "uck ",
    "6943": "nethel",
    "6944": "netheles",
    "6945": "ingap",
    "6946": "ovecra",
    "6947": "ovecraft",
    "6948": "born ",
    "6949": "tact ",
    "6950": "Croa",
    "6951": "Croatia",
    "6952": "bly ",
    "6953": "fons",
    "6954": "parent",
    "6955": "parently ",
    "6956": "stilla",
    "6957": "stillation",
    "6958": "tific",
    "6959": "corresponde",
    "6960": "drive",
    "6961": "frare",
    "6962": "frared ",
    "6963": "Earth",
    "6964": "other pla",
    "6965": "refer to ",
    "6966": "attribut",
    "6967": "attributed to ",
    "6968": "significan",
    "6969": "inguis",
    "6970": "eolog",
    "6971": "the ci",
    "6972": "the city ",
    "6973": "experi",
    "6974": "ercept",
    "6975": "ercepting",
    "6976": "rized ",
    "6977": "Decemb",
    "6978": "tinually ",
    "6979": "or (d. ",
    "6980": "/or ",
    "6981": "else",
    "6982": "elsewhere",
    "6983": "spers",
    "6984": "n bec",
    "6985": "n became ",
    "6986": "voted ",
    "6987": "voted to ",
    "6988": "eople ",
    "6989": "ownshe",
    "6990": "inpu",
    "6991": "role ",
    "6992": "DC",
    "6993": "lgri",
    "6994": " of all",
    "6995": "HIP",
    "6996": "HIPC",
    "6997": "inclusion",
    "6998": "written",
    "6999": "onard",
    "7000": "on'",
    "7001": "on't ",
    "7002": "Protestant ",
    "7003": "inate ",
    "7004": "ve) ",
    "7005": "itical",
    "7006": "tally",
    "7007": "tally, ",
    "7008": "'m ",
    "7009": "ucasia",
    "7010": "fred ",
    "7011": "rlia",
    "7012": "hievous",
    "7013": ") and ",
    "7014": "cancell",
    "7015": "oadcas",
    "7016": "ce. ",
    "7017": "action",
    "7018": "belief",
    "7019": "surrender",
    "7020": "2 bi",
    "7021": "2 billi",
    "7022": "Transgen",
    "7023": "Transgender",
    "7024": "arria",
    "7025": "piration",
    "7026": "x) ",
    "7027": "1)*19",
    "7028": "succeede",
    "7029": "Jagu",
    "7030": "side from",
    "7031": "atric",
    "7032": "torna",
    "7033": "Hear",
    "7034": "poken",
    "7035": "instead of ",
    "7036": "a and Her",
    "7037": "a and Herzegov",
    "7038": "lymp",
    "7039": "Salm",
    "7040": "involve",
    "7041": "involved ",
    "7042": "software",
    "7043": "imilar ",
    "7044": "ersecut",
    "7045": "andon ",
    "7046": "ntax",
    "7047": "onent",
    "7048": "world ",
    "7049": "Grenad",
    "7050": " (Wi",
    "7051": " (Windows",
    "7052": " pea",
    "7053": "pollo",
    "7054": "provide",
    "7055": "osevel",
    "7056": "Nash",
    "7057": "Greek ",
    "7058": "ounter",
    "7059": " of which",
    "7060": "tally ",
    "7061": " as to ",
    "7062": "indicat",
    "7063": "indicate ",
    "7064": "menia -",
    "7065": "launched",
    "7066": "kenazi",
    "7067": "smuch as",
    "7068": "as to ",
    "7069": "topi",
    "7070": "streatment",
    "7071": "5 /re",
    "7072": "school",
    "7073": "West A",
    "7074": "r than",
    "7075": "Cleveland",
    "7076": "discovered ",
    "7077": "corps",
    "7078": "arts of ",
    "7079": "enetic",
    "7080": "ually ",
    "7081": "6)*",
    "7082": "together ",
    "7083": "dependenc",
    "7084": "tural",
    "7085": "Netw",
    "7086": "Network",
    "7087": "9, 1",
    "7088": "aire ",
    "7089": "lta ",
    "7090": "Byp",
    "7091": "Bypass",
    "7092": " anti",
    "7093": "llenged ",
    "7094": "since ",
    "7095": "Tur",
    "7096": "Turke",
    "7097": "neir",
    "7098": "imacy",
    "7099": "pentan",
    "7100": "genoci",
    "7101": "imposed",
    "7102": "case, ",
    "7103": "works",
    "7104": "mount",
    "7105": "mountain",
    "7106": ".Conden",
    "7107": "dilla",
    "7108": "belix ",
    "7109": "gressi",
    "7110": "proposed",
    "7111": "or may ",
    "7112": "erefore",
    "7113": "rego",
    "7114": "ucce",
    "7115": "tenanc",
    "7116": "rectly",
    "7117": "garded ",
    "7118": "garded as ",
    "7119": "retic",
    "7120": "duced ",
    "7121": "GE ",
    "7122": "acuat",
    "7123": "Section",
    "7124": "echn",
    "7125": "arely ",
    "7126": "iculous",
    "7127": "ir:",
    "7128": "erger ",
    "7129": "l, ",
    "7130": "given",
    "7131": "x than",
    "7132": "ulpture",
    "7133": "intelligenc",
    "7134": "erious ",
    "7135": "Christmas",
    "7136": "isle, ",
    "7137": "anim",
    "7138": "animous",
    "7139": "earing",
    "7140": "Duch",
    "7141": "kra",
    "7142": ". For ",
    "7143": ". For example",
    "7144": ". For example, ",
    "7145": "ary, ",
    "7146": "herent ",
    "7147": "appr",
    "7148": "approa",
    "7149": "acilit",
    "7150": "ty of ",
    "7151": "choice",
    "7152": "FA",
    "7153": "FA ",
    "7154": "FA C",
    "7155": "enous",
    "7156": "Salvador",
    "7157": "-old ",
    "7158": "ervati",
    "7159": "olici",
    "7160": "olicism",
    "7161": "Vien",
    "7162": " famously ",
    "7163": "rray ",
    "7164": "cial ",
    "7165": "cial Democr",
    "7166": "fect",
    "7167": "rare ",
    "7168": "ibution",
    "7169": "servati",
    "7170": "servative ",
    "7171": "nored",
    "7172": "aimed that",
    "7173": "Joh",
    "7174": "gender",
    "7175": "st-sel",
    "7176": "st-sellin",
    "7177": "RAF",
    "7178": "onary ",
    "7179": "issue",
    "7180": "kept ",
    "7181": "ount ",
    "7182": "ndorr",
    "7183": "reement",
    "7184": "allic ",
    "7185": "institution",
    "7186": "iniscen",
    "7187": "ssing ",
    "7188": "ortly ",
    "7189": "sigoth",
    "7190": "2, 194",
    "7191": "surrection",
    "7192": "ced by ",
    "7193": "ingredien",
    "7194": "Part",
    "7195": "udent",
    "7196": "me example",
    "7197": "me ed",
    "7198": "me educat",
    "7199": "baro",
    "7200": "baroque",
    "7201": "nqu",
    "7202": "trinit",
    "7203": "trinitari",
    "7204": "eetho",
    "7205": "eethoven",
    "7206": " French",
    "7207": "upper",
    "7208": "uppercase ",
    "7209": "urier ",
    "7210": "writing",
    "7211": "oked ",
    "7212": "romag",
    "7213": "romagnet",
    "7214": "Four",
    "7215": "string",
    "7216": "motion",
    "7217": "orce ",
    "7218": "DI",
    "7219": "DIF",
    "7220": "ream",
    "7221": "more than",
    "7222": "2nd ",
    "7223": "gions",
    "7224": "gions, ",
    "7225": "venue ",
    "7226": "iege ",
    "7227": "clop",
    "7228": "ve of ",
    "7229": "icy ",
    "7230": "remaining",
    "7231": "arelia",
    "7232": "ructed ",
    "7233": "t br",
    "7234": "roportion",
    "7235": "roportionate",
    "7236": "block",
    "7237": "7.",
    "7238": "erests of ",
    "7239": "agmat",
    "7240": "frican ",
    "7241": "roid",
    "7242": "loven",
    "7243": "individual",
    "7244": "positions",
    "7245": "Synch",
    "7246": "Synchron",
    "7247": "ions*",
    "7248": "ar, ",
    "7249": "incorporate",
    "7250": "gneti",
    "7251": "gnetism",
    "7252": "Blin",
    "7253": "ull ",
    "7254": "irector",
    "7255": "9)*1",
    "7256": "4. ",
    "7257": "arist ",
    "7258": "redub",
    "7259": "llerith",
    "7260": "letyp",
    "7261": "fixed ",
    "7262": "microwa",
    "7263": "Arch",
    "7264": "Archbi",
    "7265": "Archbishop",
    "7266": "ox ",
    "7267": "ox rea",
    "7268": "ox reactio",
    "7269": "operat",
    "7270": "operating",
    "7271": "ntane",
    "7272": "ntaneous",
    "7273": "Goth",
    "7274": "olocat",
    "7275": "olocating",
    "7276": "agment",
    "7277": "Stee",
    "7278": "Steele",
    "7279": "Steelers",
    "7280": "GT ",
    "7281": "pendiu",
    "7282": "taken",
    "7283": "amily ",
    "7284": "former ",
    "7285": "Alama",
    "7286": "Alamanni",
    "7287": "ran ",
    "7288": "undary ",
    "7289": "want ",
    "7290": "passenge",
    "7291": " belie",
    "7292": "judge",
    "7293": "spent ",
    "7294": "comed ",
    "7295": "puted ",
    "7296": "icene ",
    "7297": "glish ",
    "7298": "sigma",
    "7299": "rrive",
    "7300": "plying",
    "7301": "rismat",
    "7302": "rismatic ",
    "7303": "Spen",
    "7304": "Spenser",
    "7305": "ndance",
    "7306": "Yose",
    "7307": "Yosef ",
    "7308": "communist",
    "7309": "whose ",
    "7310": "efficient ",
    "7311": "hing ",
    "7312": "wavel",
    "7313": "wavelengt",
    "7314": "wife",
    "7315": "bing ",
    "7316": "small",
    "7317": "commander",
    "7318": "coerci",
    "7319": "called",
    "7320": "adap",
    "7321": "adapted ",
    "7322": "prime ",
    "7323": "ljuk ",
    "7324": "deca",
    "7325": "signate",
    "7326": "signated ",
    "7327": "to 1",
    "7328": "swept ",
    "7329": "number of ",
    "7330": "dom ",
    "7331": "roatia",
    "7332": "reason ",
    "7333": " levels ",
    "7334": "iograph",
    "7335": "egre",
    "7336": "egregation",
    "7337": "cret ",
    "7338": "veloci",
    "7339": "ies to ",
    "7340": "os (",
    "7341": "gula",
    "7342": "Port",
    "7343": "Port-",
    "7344": "Port-au",
    "7345": "topp",
    "7346": "topped ",
    "7347": "ub ",
    "7348": "omose",
    "7349": "omosex",
    "7350": "connecting",
    "7351": "Best",
    "7352": "Atlantic",
    "7353": "rysl",
    "7354": "rysler ",
    "7355": "cisel",
    "7356": "cisely ",
    "7357": "17th ",
    "7358": "zard",
    "7359": "anelles",
    "7360": " eut",
    "7361": " euthan",
    "7362": " launc",
    "7363": "Boit",
    "7364": "withstan",
    "7365": "Gold",
    "7366": "instrument",
    "7367": "instrumental",
    "7368": "logers",
    "7369": "last ",
    "7370": "romote",
    "7371": "xteen",
    "7372": "osecut",
    "7373": " publishe",
    "7374": "edito",
    "7375": "editorial",
    "7376": " was to ",
    "7377": "shown that",
    "7378": "Isla",
    "7379": "ating syst",
    "7380": "ating system",
    "7381": "esque",
    "7382": " her ",
    "7383": "tuden",
    "7384": "vehic",
    "7385": "y 200",
    "7386": "bought",
    "7387": "Pack",
    "7388": " from ",
    "7389": "os A",
    "7390": "os Ange",
    "7391": "us, ",
    "7392": "duard",
    "7393": "th-cen",
    "7394": "th-century ",
    "7395": "ational",
    "7396": "unning",
    "7397": "gulf",
    "7398": "Defin",
    "7399": "Definitive ",
    "7400": " occurren",
    "7401": "questi",
    "7402": "orial",
    "7403": "former",
    "7404": "formerly ",
    "7405": "Vale",
    "7406": "Valeria",
    "7407": "olitic",
    "7408": "where you",
    "7409": "cars",
    "7410": "legion",
    "7411": " Chop",
    "7412": "athlet",
    "7413": "call ",
    "7414": "9% ",
    "7415": "ds to",
    "7416": "good",
    "7417": "wide ",
    "7418": "ir, ",
    "7419": " ball",
    "7420": "weh",
    "7421": "crew ",
    "7422": "c, ",
    "7423": "fensive ",
    "7424": "Charlie",
    "7425": "llus",
    "7426": "usly ",
    "7427": " (198",
    "7428": "ching mo",
    "7429": "ching mode ",
    "7430": "consona",
    "7431": "does",
    "7432": "ccele",
    "7433": "3th ",
    "7434": "Ferr",
    "7435": "change ",
    "7436": "univers",
    "7437": "Mc",
    "7438": "McVi",
    "7439": " order",
    "7440": "meroo",
    "7441": "linked",
    "7442": "osperi",
    "7443": "organ",
    "7444": "vard",
    "7445": " sto",
    "7446": "atical",
    "7447": "Riem",
    "7448": "ird ",
    "7449": "imply ",
    "7450": "independent",
    "7451": " Association",
    "7452": "region",
    "7453": "martia",
    "7454": "name, ",
    "7455": " both ",
    "7456": "critic",
    "7457": "criticism",
    "7458": "d by ",
    "7459": "ecome ",
    "7460": "kingly ",
    "7461": "uristic",
    "7462": "agogic",
    "7463": "ciple",
    "7464": "IS",
    "7465": "ISB",
    "7466": "ISBN ",
    "7467": "e.com",
    "7468": "e.com --",
    "7469": "invasion",
    "7470": "00 mil",
    "7471": "00 million",
    "7472": "England",
    "7473": "cious",
    "7474": "produce ",
    "7475": " denote",
    "7476": "rical ",
    "7477": "rical en",
    "7478": "rical engine",
    "7479": "3,000",
    "7480": "Clovi",
    "7481": "6-19",
    "7482": "parati",
    "7483": "respo",
    "7484": "response",
    "7485": "eace",
    "7486": "orces ",
    "7487": " /tt ",
    "7488": "Hallow",
    "7489": "Halloween",
    "7490": "meric ",
    "7491": "biang",
    "7492": "econd ",
    "7493": "parable to ",
    "7494": "therap",
    "7495": "urgund",
    "7496": "buda",
    "7497": "articip",
    "7498": "s M",
    "7499": "s Moin",
    "7500": "ceptive",
    "7501": "arding",
    "7502": "libert",
    "7503": "finger",
    "7504": "kelet",
    "7505": "kingha",
    "7506": "arent",
    "7507": "unclaim",
    "7508": "unclaimed ",
    "7509": "ternal",
    "7510": "rade ",
    "7511": "direction",
    "7512": "kar",
    "7513": "politic",
    "7514": "shing ",
    "7515": " computer",
    "7516": "oget",
    "7517": "ogether",
    "7518": "cede ",
    "7519": "2 hours",
    "7520": "dify",
    "7521": "bra",
    "7522": "brahim",
    "7523": "enefi",
    "7524": "andinavian ",
    "7525": "-Willa",
    "7526": "-Willamet",
    "7527": " are int",
    "7528": "han Ar",
    "7529": "han Aru",
    "7530": "offic",
    "7531": "Works ",
    "7532": "Works (19",
    "7533": "liberali",
    "7534": "liberalism",
    "7535": "Deser",
    "7536": "Algo",
    "7537": "fluence ",
    "7538": "bact",
    "7539": "bacteria",
    "7540": ",' ",
    "7541": "hit ",
    "7542": "ared ",
    "7543": "nger, ",
    "7544": "tes Dj",
    "7545": "tes Djang",
    "7546": "demean",
    "7547": "other word",
    "7548": "other words",
    "7549": "other words, ",
    "7550": "xas ",
    "7551": "affai",
    "7552": "control ",
    "7553": "select",
    "7554": "eligi",
    "7555": "example, ",
    "7556": "adept ",
    "7557": "ar pla",
    "7558": "sympt",
    "7559": "symptom",
    "7560": "vote ",
    "7561": "g, ",
    "7562": "or, ",
    "7563": "NES",
    "7564": "NESC",
    "7565": "accu",
    "7566": "accurat",
    "7567": "appen",
    "7568": "IH",
    "7569": "nova",
    "7570": "hills",
    "7571": "chieve",
    "7572": "ime ",
    "7573": " battleship",
    "7574": "continu",
    "7575": "continuity ",
    "7576": "ft) ",
    "7577": "mosex",
    "7578": "mosexual",
    "7579": "obabl",
    "7580": "obably ",
    "7581": "iance ",
    "7582": "ancient ",
    "7583": "said",
    "7584": "said to ",
    "7585": "monly used ",
    "7586": "modern ",
    "7587": "ipula",
    "7588": "rix ",
    "7589": "mmer ",
    "7590": "usage ",
    "7591": "t (b",
    "7592": "t (b. ",
    "7593": "Hum",
    "7594": "2-19",
    "7595": "venile ",
    "7596": "ogrammer",
    "7597": "yers",
    "7598": "yers, ",
    "7599": "pinni",
    "7600": "aped ",
    "7601": "proces",
    "7602": "process ",
    "7603": " (b",
    "7604": " (b. ",
    "7605": "greement",
    "7606": "B br",
    "7607": "erted ",
    "7608": "ics",
    "7609": "claim",
    "7610": "claiming",
    "7611": "minister ",
    "7612": "acres",
    "7613": "tus of ",
    "7614": "d and ",
    "7615": "i to ",
    "7616": "stud",
    "7617": "student",
    "7618": "due ",
    "7619": "due to ",
    "7620": "oms ",
    "7621": "trus ",
    "7622": "llustr",
    "7623": "sident ",
    "7624": "eived ",
    "7625": "junction ",
    "7626": "junction with",
    "7627": "generated ",
    "7628": "phre",
    "7629": "categor",
    "7630": "cing ",
    "7631": "ld's ",
    "7632": "ymbol",
    "7633": "cTe",
    "7634": "opat",
    "7635": "nity ",
    "7636": "bordered by ",
    "7637": " scien",
    "7638": "atom",
    "7639": "thron",
    "7640": "Argentina",
    "7641": "Argentina -",
    "7642": "visit ",
    "7643": "visit to ",
    "7644": " held",
    "7645": "Queen",
    "7646": ") (19",
    "7647": ") (199",
    "7648": "occas",
    "7649": "occasion",
    "7650": " pol",
    "7651": " polym",
    "7652": "construct",
    "7653": "acles",
    "7654": "style",
    "7655": "abort",
    "7656": "sala",
    "7657": "vely ",
    "7658": "d English",
    "7659": " band",
    "7660": "versions of ",
    "7661": "driver",
    "7662": "while ",
    "7663": "s tea",
    "7664": "possible ",
    "7665": "ameter",
    "7666": "Orthograph",
    "7667": "Comic",
    "7668": "and 19",
    "7669": "visors",
    "7670": " through",
    "7671": "store ",
    "7672": "Century ",
    "7673": "ted King",
    "7674": "ted Kingdo",
    "7675": "rucifi",
    "7676": "rochem",
    "7677": "they ",
    "7678": "history of ",
    "7679": "redesign",
    "7680": "eject",
    "7681": "Adam",
    "7682": "Japanese ",
    "7683": "Japanese and ",
    "7684": "hence ",
    "7685": "stree",
    "7686": "Christian ",
    "7687": " hub",
    "7688": "order ",
    "7689": "itted ",
    "7690": "scendant",
    "7691": "undanc",
    "7692": "odeo",
    "7693": "molec",
    "7694": "molecule",
    "7695": "o not ",
    "7696": "effect ",
    "7697": "arty ",
    "7698": "ered from",
    "7699": "hs of ",
    "7700": "Thomas",
    "7701": "Div",
    "7702": "Divisi",
    "7703": "alogue",
    "7704": "identifying",
    "7705": "llamet",
    "7706": "bank",
    "7707": "public ",
    "7708": "ccas",
    "7709": "ccasion",
    "7710": "largest ",
    "7711": "me of ",
    "7712": " made ",
    "7713": "mibi",
    "7714": "venture",
    "7715": "getting",
    "7716": "point",
    "7717": "izza",
    "7718": " Stree",
    "7719": "building",
    "7720": "England ",
    "7721": "prise ",
    "7722": " Atlant",
    "7723": " Atlantic ",
    "7724": "ogene",
    "7725": "ogeneous",
    "7726": " thron",
    "7727": "Haiti",
    "7728": "isolation",
    "7729": "voluti",
    "7730": "riograph",
    "7731": "xual",
    "7732": "trict ",
    "7733": "le*",
    "7734": "Rab",
    "7735": "medal",
    "7736": "wspaper",
    "7737": "vernment",
    "7738": "efforts ",
    "7739": " all ",
    "7740": "Texa",
    "7741": "out th",
    "7742": "out the ",
    "7743": "algor",
    "7744": "algorith",
    "7745": "perspec",
    "7746": "perspecti",
    "7747": "amp;",
    "7748": "ity of ",
    "7749": "des ",
    "7750": "Pea",
    "7751": "Peace",
    "7752": "identification",
    "7753": "oxida",
    "7754": "oxidation",
    "7755": "vised ",
    "7756": "ospit",
    "7757": "mond",
    "7758": "corresponds to",
    "7759": "plain ",
    "7760": "up of ",
    "7761": "rovide",
    "7762": "thanks ",
    "7763": "i-vir",
    "7764": "operation",
    "7765": "upset ",
    "7766": "S-, ",
    "7767": "ourns",
    "7768": "fiden",
    "7769": "napart",
    "7770": "almost",
    "7771": "tailers",
    "7772": "raculous",
    "7773": "/td ",
    "7774": "raster",
    "7775": "Greek",
    "7776": "tchie",
    "7777": "cumenical",
    "7778": "0)*19",
    "7779": "ources ",
    "7780": "Aristo",
    "7781": "responsibilit",
    "7782": "cribed",
    "7783": "Union ",
    "7784": "scale",
    "7785": "Esa",
    "7786": "Esau",
    "7787": "large as ",
    "7788": "roly",
    "7789": "Vietna",
    "7790": "normal ",
    "7791": "tel ",
    "7792": "rub",
    "7793": "rubbed",
    "7794": "ordered ",
    "7795": "7)*19",
    "7796": "max ",
    "7797": "flection",
    "7798": "Mount ",
    "7799": "Ark ",
    "7800": " high",
    "7801": "advance ",
    "7802": "placed by ",
    "7803": "Smith ",
    "7804": "Kna",
    "7805": "Knapp",
    "7806": "pporter of ",
    "7807": "s out ",
    "7808": "role",
    "7809": "roleum",
    "7810": "sphor",
    "7811": "Various",
    "7812": "might",
    "7813": "north",
    "7814": "::",
    "7815": "ding ro",
    "7816": "Leag",
    "7817": "0x",
    "7818": "effect of ",
    "7819": " New ",
    "7820": "othing",
    "7821": "iproc",
    "7822": "sing ",
    "7823": "y)",
    "7824": "uxi",
    "7825": "sman",
    "7826": "smania",
    "7827": "ervation",
    "7828": "te for ",
    "7829": "searc",
    "7830": "fence ",
    "7831": "endency ",
    "7832": "referenc",
    "7833": "reference ",
    "7834": "sured ",
    "7835": "regulate",
    "7836": "kill ",
    "7837": "volutionary ",
    "7838": "us. ",
    "7839": "5 /su",
    "7840": "second",
    "7841": "uk",
    "7842": "ukc",
    "7843": "causing",
    "7844": "increases ",
    "7845": "bious",
    "7846": "nuk",
    "7847": "nukka",
    "7848": "aspir",
    "7849": "nother",
    "7850": "rian ",
    "7851": "Heter",
    "7852": "us) ",
    "7853": "Original ",
    "7854": "sculpture",
    "7855": " budded",
    "7856": "cerem",
    "7857": "midin",
    "7858": "onto ",
    "7859": "y 1",
    "7860": "ces of ",
    "7861": "nolog",
    "7862": "ierre",
    "7863": "ggered",
    "7864": "Techno",
    "7865": "Technolog",
    "7866": " toward",
    "7867": "arlanc",
    "7868": "citi",
    "7869": "citizen",
    "7870": "Philip",
    "7871": "Philippi",
    "7872": "ressive",
    "7873": "4th Da",
    "7874": "4th Dalai",
    "7875": "***",
    "7876": "Carmi",
    "7877": "Carmichael ",
    "7878": "victories",
    "7879": "ritual",
    "7880": "enjami",
    "7881": "uring th",
    "7882": "electron",
    "7883": "Geh",
    "7884": "simal",
    "7885": "inally ",
    "7886": "ublic ",
    "7887": "-speaking",
    "7888": " studi",
    "7889": "hertz",
    "7890": "a|",
    "7891": "king, ",
    "7892": "gains ",
    "7893": "Left",
    "7894": "apart",
    "7895": "researched",
    "7896": "ted Kingdom",
    "7897": "aided ",
    "7898": "aggressi",
    "7899": "aggressive ",
    "7900": "axim",
    "7901": "aximum",
    "7902": "SE",
    "7903": "products",
    "7904": "productsE",
    "7905": "Socra",
    "7906": "sila",
    "7907": "t /ma",
    "7908": "situation",
    "7909": "pending",
    "7910": "ntactic",
    "7911": "inaccu",
    "7912": "Corps",
    "7913": "Railway",
    "7914": "remend",
    "7915": "remendous",
    "7916": "directly ",
    "7917": "lfgan",
    "7918": "Dut",
    "7919": "Dutch ",
    "7920": "cuado",
    "7921": "entire",
    "7922": "yn ",
    "7923": "should",
    "7924": "ribbean ",
    "7925": "0th ",
    "7926": "ly-",
    "7927": "geolog",
    "7928": "digital",
    "7929": "nner (d. ",
    "7930": "nner (d. 19",
    "7931": "wise ",
    "7932": "ernal",
    "7933": "appears",
    "7934": "er (19",
    "7935": "er (199",
    "7936": "arm ",
    "7937": "ttendance",
    "7938": "deau",
    "7939": "related to ",
    "7940": "e milit",
    "7941": "e military ",
    "7942": "90 K",
    "7943": " popular ",
    "7944": " per ",
    "7945": " per capit",
    "7946": "culations ",
    "7947": "ney ",
    "7948": "hibitors",
    "7949": "stume",
    "7950": "eltsin",
    "7951": "ionee",
    "7952": "nguish",
    "7953": "geome",
    "7954": "icture",
    "7955": "full ",
    "7956": "land, ",
    "7957": "opolitic",
    "7958": " broadcas",
    "7959": "scoring",
    "7960": "t, ",
    "7961": "leil",
    "7962": "leilax",
    "7963": " Castle",
    "7964": "bulen",
    "7965": "- productio",
    "7966": "icapp",
    "7967": "achine",
    "7968": "2 clu",
    "7969": ", 199",
    "7970": "currently",
    "7971": "bush",
    "7972": "bushwa",
    "7973": " such as",
    "7974": "Melan",
    "7975": "Melanesi",
    "7976": "evil",
    "7977": "ne to ",
    "7978": "arison",
    "7979": "Matthew",
    "7980": "umed ",
    "7981": "equal",
    "7982": "equal to ",
    "7983": "microscop",
    "7984": "primary ",
    "7985": "nauti",
    "7986": "osco",
    "7987": "imary ",
    "7988": "orically ",
    "7989": "argue",
    "7990": "argued that",
    "7991": "support",
    "7992": "supporters",
    "7993": "tandem",
    "7994": "overbs",
    "7995": "umpt",
    "7996": "umption",
    "7997": "uter ",
    "7998": "mograph",
    "7999": "er E",
    "8000": "er Educ",
    "8001": "crament",
    "8002": "depending",
    "8003": "labor",
    "8004": "nervo",
    "8005": "nervous ",
    "8006": "nervous system",
    "8007": "directed ",
    "8008": " Jews to ",
    "8009": "econom",
    "8010": "deriving",
    "8011": "ociation",
    "8012": "unres",
    "8013": "penditu",
    "8014": ")*18",
    "8015": ")*189",
    "8016": "ists and ",
    "8017": "es Sa",
    "8018": "elimi",
    "8019": ":Se",
    "8020": "modyna",
    "8021": "modynami",
    "8022": "ai ",
    "8023": "ai L",
    "8024": "ai Lama",
    "8025": "member of ",
    "8026": " group ",
    "8027": "followers",
    "8028": "Detroit ",
    "8029": "Cook",
    "8030": "Jerusa",
    "8031": "et of ",
    "8032": "istotle",
    "8033": "reals",
    "8034": "(199",
    "8035": " Dut",
    "8036": " module ",
    "8037": "Hank",
    "8038": "Brussel",
    "8039": "nago",
    "8040": "nagogue",
    "8041": "egregio",
    "8042": "vocat",
    "8043": "3 BC",
    "8044": " sup2|",
    "8045": "e^",
    "8046": "joint",
    "8047": "inciden",
    "8048": "phobi",
    "8049": "jacent ",
    "8050": "chigan",
    "8051": "flux ",
    "8052": "flux of ",
    "8053": "digit",
    "8054": "sworth",
    "8055": "tool",
    "8056": "branch",
    "8057": "home in ",
    "8058": "reserv",
    "8059": "reservoi",
    "8060": "country ",
    "8061": " rat",
    "8062": " rate",
    "8063": "Mariti",
    "8064": "interv",
    "8065": "intervene",
    "8066": "period",
    "8067": "d'",
    "8068": " proceed",
    "8069": "frequent ",
    "8070": "moto",
    "8071": "motorcycl",
    "8072": "hamas",
    "8073": "apole",
    "8074": "both ",
    "8075": "lower ",
    "8076": "stw",
    "8077": "seque",
    "8078": "sequent ",
    "8079": "milia",
    "8080": "5 BC",
    "8081": "cultur",
    "8082": "cultures ",
    "8083": "ttorn",
    "8084": "ttorney",
    "8085": " Kus",
    "8086": " always be ",
    "8087": "gary ",
    "8088": "dependence of ",
    "8089": "knots",
    "8090": "knots|",
    "8091": "6)*19",
    "8092": "Island",
    "8093": "ues ",
    "8094": "reducin",
    "8095": "reducing ",
    "8096": "Nicaragua --",
    "8097": "falling ",
    "8098": "falling objec",
    "8099": "1}",
    "8100": "secu",
    "8101": "security ",
    "8102": "This ",
    "8103": "twined ",
    "8104": "career ",
    "8105": "complex ",
    "8106": "one-",
    "8107": "ronic ",
    "8108": "splac",
    "8109": "sTe",
    "8110": "Philoso",
    "8111": "Philosoph",
    "8112": "Indeed",
    "8113": " feels",
    "8114": "imbu",
    "8115": "Movemen",
    "8116": "rbitrar",
    "8117": "October to ",
    "8118": "wo-",
    "8119": "wo-third",
    "8120": "sisten",
    "8121": "represe",
    "8122": "represent",
    "8123": "speculated ",
    "8124": "speculated that",
    "8125": "itician",
    "8126": "etici",
    "8127": "termined ",
    "8128": "ministration",
    "8129": "6 /su",
    "8130": "Granad",
    "8131": "exiu",
    "8132": "clot",
    "8133": " if",
    "8134": "aic ",
    "8135": "-centra",
    "8136": "-central ",
    "8137": "just ",
    "8138": "taur",
    "8139": "modera",
    "8140": "ponential ",
    "8141": "sene",
    "8142": "nial",
    "8143": "litigation",
    "8144": "ntio",
    "8145": "3)",
    "8146": "3)Imag",
    "8147": "3)Image",
    "8148": "3)Image:",
    "8149": "abul",
    "8150": " part",
    "8151": "Argentine",
    "8152": "Scree",
    "8153": "atistic",
    "8154": "F-1",
    "8155": "graphics",
    "8156": "e most ",
    "8157": "emingly",
    "8158": "pent ",
    "8159": " team ",
    "8160": "Empire",
    "8161": "anfor",
    "8162": "process of ",
    "8163": "distribution",
    "8164": "ceased ",
    "8165": "3:",
    "8166": "Baltim",
    "8167": "ddle of ",
    "8168": "ddle of the ",
    "8169": "Carr",
    "8170": "untee",
    "8171": "refu",
    "8172": "refuge",
    "8173": "refugees ",
    "8174": "one card",
    "8175": " succe",
    "8176": " successful",
    "8177": "1 /sub ",
    "8178": "loss",
    "8179": "Inter",
    "8180": "Interwiki",
    "8181": " use",
    "8182": "installed",
    "8183": "mercial ",
    "8184": "y,",
    "8185": "y,:",
    "8186": "baseball",
    "8187": "se. ",
    "8188": "Shee",
    "8189": "Sheeana",
    "8190": "currents ",
    "8191": "jeopar",
    "8192": "tres",
    "8193": "raining ",
    "8194": "poration",
    "8195": "enz",
    "8196": "enzym",
    "8197": "-West",
    "8198": "m of ",
    "8199": "virtu",
    "8200": "manage",
    "8201": "adoga",
    "8202": "fallen",
    "8203": "Instituti",
    "8204": "Institutions",
    "8205": "run ",
    "8206": "wy",
    "8207": "servant",
    "8208": "ggestion",
    "8209": " answer",
    "8210": "ix ",
    "8211": "llenge",
    "8212": "celeb",
    "8213": "celebrat",
    "8214": "otherwis",
    "8215": "otherwise ",
    "8216": "diale",
    "8217": "Isle of ",
    "8218": "10",
    "8219": "White So",
    "8220": "uly ",
    "8221": "Jelli",
    "8222": "Jellico",
    "8223": "Ruth",
    "8224": "Dart",
    "8225": "Dartmo",
    "8226": "corresponding ",
    "8227": "corresponding to ",
    "8228": "few ",
    "8229": "vintage",
    "8230": "front",
    "8231": "friend",
    "8232": "llywood",
    "8233": "Foreign ",
    "8234": "Foreign relat",
    "8235": "or, and ",
    "8236": "Class",
    "8237": "levant ",
    "8238": " to be ",
    "8239": "paris",
    "8240": "tract ",
    "8241": "ts of ",
    "8242": "Magn",
    "8243": "Magnitu",
    "8244": "entered ",
    "8245": "home ru",
    "8246": "Securit",
    "8247": "commitment",
    "8248": "veil",
    "8249": "karyo",
    "8250": "rove ",
    "8251": "Abuse",
    "8252": "emselves as ",
    "8253": "tson ",
    "8254": "plication",
    "8255": "therapy ",
    "8256": "Israelite",
    "8257": "pire ",
    "8258": "Bible ",
    "8259": "omewhere",
    "8260": "ior to ",
    "8261": "mounted ",
    "8262": "Bong",
    "8263": "Tennes",
    "8264": "s to be ",
    "8265": "and the ",
    "8266": "of the ",
    "8267": "sil ",
    "8268": "mmond",
    "8269": "objecti",
    "8270": "elect",
    "8271": "verted tree",
    "8272": " Commun",
    "8273": "water",
    "8274": "(\\",
    "8275": "limited",
    "8276": "Kamp",
    "8277": "Kampuch",
    "8278": "obtain",
    "8279": "osperity ",
    "8280": "chips",
    "8281": "ac1",
    "8282": "iberia",
    "8283": "exact ",
    "8284": "Isai",
    "8285": "Isaia",
    "8286": "leading",
    "8287": "leading ro",
    "8288": "museu",
    "8289": "sting",
    "8290": "riding",
    "8291": "gravi",
    "8292": "Adhema",
    "8293": "idea ",
    "8294": "ecame ",
    "8295": "discovery ",
    "8296": "state ",
    "8297": " (199",
    "8298": "master",
    "8299": "beings",
    "8300": " Alexand",
    "8301": "ities, ",
    "8302": " stati",
    "8303": " stations",
    "8304": "d as ",
    "8305": "EC",
    "8306": " NO ",
    "8307": " NO I",
    "8308": "ated ",
    "8309": "G is ",
    "8310": "60 K",
    "8311": "at least ",
    "8312": " fruct",
    "8313": "nickname ",
    "8314": "lanesi",
    "8315": "lanesian ",
    "8316": "(Dubli",
    "8317": "lay ",
    "8318": "cance",
    "8319": "Security ",
    "8320": "k to ",
    "8321": "layed ",
    "8322": "cellor ",
    "8323": "s in use",
    "8324": "standing",
    "8325": "valid",
    "8326": "weap",
    "8327": "weapons",
    "8328": "pectanc",
    "8329": "Jackson",
    "8330": "lary ",
    "8331": "outbu",
    "8332": "outburst",
    "8333": " scientific",
    "8334": "broadcast ",
    "8335": "1 = ",
    "8336": "killing ",
    "8337": " day",
    "8338": "cific ",
    "8339": " Asia",
    "8340": "oulous",
    "8341": "insubstantia",
    "8342": "funct",
    "8343": "function",
    "8344": "brary ",
    "8345": "xade",
    "8346": "xadeci",
    "8347": "xadecimal",
    "8348": "developments ",
    "8349": "try sk",
    "8350": "kistan",
    "8351": "cer ",
    "8352": "earlier ",
    "8353": "r orbit",
    "8354": "Jacques",
    "8355": "Jacques-",
    "8356": "sure ",
    "8357": "not only",
    "8358": "versely",
    "8359": "sines",
    "8360": " notabl",
    "8361": "approxima",
    "8362": "approximate",
    "8363": "esca",
    "8364": "volume",
    "8365": "ahar",
    "8366": " she ",
    "8367": "cimal",
    "8368": "ehavior",
    "8369": " narr",
    "8370": " narrati",
    "8371": " uphel",
    "8372": "p|",
    "8373": "erhe",
    "8374": "erheim",
    "8375": "Father",
    "8376": "CC",
    "8377": "er*19",
    "8378": "rogat",
    "8379": "2,000 year",
    "8380": " makes ",
    "8381": "focus",
    "8382": "o, Ameri",
    "8383": "o, American",
    "8384": "amino",
    "8385": "Memor",
    "8386": "onounced ",
    "8387": "GDP",
    "8388": "V of ",
    "8389": "6 BC",
    "8390": "major",
    "8391": "majority of ",
    "8392": "characteristic",
    "8393": ".j",
    "8394": ".jpg",
    "8395": "attractions",
    "8396": "diterr",
    "8397": "diterrane",
    "8398": "Linna",
    "8399": "Linnaeus",
    "8400": "divided ",
    "8401": "divided int",
    "8402": "divided into ",
    "8403": "approaching ",
    "8404": "noted that",
    "8405": "cultural",
    "8406": "assed as ",
    "8407": "BBC",
    "8408": "accord",
    "8409": "accordanc",
    "8410": "accordance ",
    "8411": "accordance with",
    "8412": "Zealand",
    "8413": "considerabl",
    "8414": "considerably ",
    "8415": "metropol",
    "8416": "n, ",
    "8417": "on's ",
    "8418": "ratio",
    "8419": "strate",
    "8420": "poser ",
    "8421": "poser (d. ",
    "8422": "n**",
    "8423": "users",
    "8424": "files",
    "8425": "2:",
    "8426": "dioc",
    "8427": "dioces",
    "8428": "hiers",
    "8429": "sor",
    "8430": "sorbed",
    "8431": "19-19",
    "8432": "Assyria",
    "8433": "medie",
    "8434": "medieval",
    "8435": "nub",
    "8436": "nubbed",
    "8437": "xeno",
    "8438": "readily",
    "8439": "cabin",
    "8440": " cross",
    "8441": " cross-c",
    "8442": " cross-coun",
    "8443": " bass",
    "8444": "game, ",
    "8445": "RTG",
    "8446": "anaesthe",
    "8447": "rage",
    "8448": "ditionally",
    "8449": "ditionally, ",
    "8450": "Februar",
    "8451": "games ",
    "8452": "everanc",
    "8453": "xious",
    "8454": "borderi",
    "8455": "bordering ",
    "8456": "ially ",
    "8457": "crimm",
    "8458": "dinner",
    "8459": "h /t",
    "8460": "h /trt",
    "8461": "scored",
    "8462": "s ag",
    "8463": "ular ",
    "8464": "bstra",
    "8465": "some ",
    "8466": "brief ",
    "8467": "finally ",
    "8468": "homosexual",
    "8469": "obab",
    "8470": "arctic",
    "8471": "approximately ",
    "8472": "extensi",
    "8473": "the N",
    "8474": "the Nob",
    "8475": "the Nobel ",
    "8476": "tor",
    "8477": "ADD",
    "8478": "ADDR ",
    "8479": "Turkey ",
    "8480": "conomi",
    "8481": "dio ",
    "8482": "Science Ficti",
    "8483": "Ph.",
    "8484": "Ph.D",
    "8485": "ppearing",
    "8486": "erms ",
    "8487": "dry ",
    "8488": "ruption",
    "8489": "California",
    "8490": "hund",
    "8491": "hundred",
    "8492": "Bloc",
    "8493": "cubi",
    "8494": "cubic ",
    "8495": "Transport",
    "8496": "Transportation",
    "8497": "imila",
    "8498": "Book of ",
    "8499": "izont",
    "8500": "izontal",
    "8501": "main line",
    "8502": "processin",
    "8503": "crops",
    "8504": " period",
    "8505": "jected ",
    "8506": "plains",
    "8507": "speake",
    "8508": "speakers",
    "8509": "n res",
    "8510": "inem ",
    "8511": "II, ",
    "8512": "/(",
    "8513": "as well as ",
    "8514": "rudes ",
    "8515": ":(",
    "8516": "rystal",
    "8517": "ML ",
    "8518": "wid",
    "8519": "width ",
    "8520": "nglican",
    "8521": "rank",
    "8522": "absence",
    "8523": "-rank",
    "8524": "-ranking",
    "8525": "Cape",
    "8526": "Cape B",
    "8527": "Cape Bre",
    "8528": "Cape Breton",
    "8529": "together with",
    "8530": "conden",
    "8531": "celand",
    "8532": "continuous",
    "8533": " Per",
    "8534": "pics ",
    "8535": "means t",
    "8536": "means that ",
    "8537": " Arna",
    "8538": " Arnaz ",
    "8539": "oning ",
    "8540": " have ",
    "8541": "Westero",
    "8542": "ridge",
    "8543": "ttest ",
    "8544": " carrie",
    "8545": " carriers",
    "8546": "of his serv",
    "8547": "of his servant",
    "8548": "proph",
    "8549": "ile and ",
    "8550": "le to ",
    "8551": "rish ",
    "8552": "irm",
    "8553": "ming, ",
    "8554": "gular ",
    "8555": "avion",
    "8556": "avionics",
    "8557": "Commun",
    "8558": "sama",
    "8559": "s tend to ",
    "8560": "deb",
    "8561": "ttlers",
    "8562": "door ",
    "8563": "Politic",
    "8564": "didat",
    "8565": "activi",
    "8566": "Eze",
    "8567": "Ezeki",
    "8568": "bviou",
    "8569": "bviousl",
    "8570": "brS",
    "8571": "brSP",
    "8572": "drome ",
    "8573": "ese ",
    "8574": "reach ",
    "8575": "lting ",
    "8576": "\\ph",
    "8577": "\\phi",
    "8578": "plicate ",
    "8579": "leaving",
    "8580": "lding",
    "8581": "cero",
    "8582": "x NO I",
    "8583": "x NO IMPO",
    "8584": "reers",
    "8585": " begin ",
    "8586": "larger ",
    "8587": "thews",
    "8588": "Gulf",
    "8589": "trick",
    "8590": "assage",
    "8591": "settle",
    "8592": "Paki",
    "8593": "Pakistan",
    "8594": "Zara",
    "8595": "Zarago",
    "8596": "address",
    "8597": " travel",
    "8598": "increased ",
    "8599": "ST",
    "8600": "ndustr",
    "8601": "spiritual",
    "8602": "termining ",
    "8603": "otected by ",
    "8604": "next to ",
    "8605": "zone ",
    "8606": "finitions",
    "8607": "Ont",
    "8608": "Ontari",
    "8609": "nds ",
    "8610": "working",
    "8611": "ideline",
    "8612": "erval",
    "8613": "-200",
    "8614": "chagod",
    "8615": "chagodzi",
    "8616": "chagodzilla",
    "8617": "ng of ",
    "8618": "rrangemen",
    "8619": "fans",
    "8620": "card",
    "8621": "masterpie",
    "8622": "Scott ",
    "8623": "adows",
    "8624": "lengt",
    "8625": "shing, ",
    "8626": "city ",
    "8627": "establ",
    "8628": "ndo-",
    "8629": "Russia",
    "8630": "sumpt",
    "8631": "sumption",
    "8632": "tistic",
    "8633": "menstru",
    "8634": "characterized ",
    "8635": "quation",
    "8636": "www.",
    "8637": "commo",
    "8638": "commoditi",
    "8639": "rped",
    "8640": "-langu",
    "8641": "-language",
    "8642": "purch",
    "8643": "purchase",
    "8644": "research ",
    "8645": "revealed ",
    "8646": "1940s ",
    "8647": "sserit",
    "8648": "puty ",
    "8649": "spla",
    "8650": "6 in ",
    "8651": "6 in lea",
    "8652": "6 in leap ",
    "8653": "6 in leap year",
    "8654": "ition, ",
    "8655": "Medica",
    "8656": "radation",
    "8657": "diamond",
    "8658": "WC",
    "8659": "amount",
    "8660": "O sub ",
    "8661": "-pla",
    "8662": "akes ",
    "8663": "ome ru",
    "8664": "like ",
    "8665": "uture",
    "8666": "e , ",
    "8667": "succeeded ",
    "8668": "succeeded in ",
    "8669": "steps",
    "8670": "originally ",
    "8671": "re, ",
    "8672": "preced",
    "8673": "precedent",
    "8674": "-of",
    "8675": "drag",
    "8676": "dragoo",
    "8677": "consum",
    "8678": "inhibit",
    "8679": " work ",
    "8680": "tributed to ",
    "8681": " molecule",
    "8682": "oser ",
    "8683": "oser to ",
    "8684": "andal",
    "8685": "contra",
    "8686": "aspects ",
    "8687": "theirs",
    "8688": "ertain",
    "8689": "Osb",
    "8690": "ash ",
    "8691": "influenced by ",
    "8692": " famil",
    "8693": " families",
    "8694": "ronicle",
    "8695": "eak ",
    "8696": "Harle",
    "8697": "Harley-",
    "8698": "Harley-Da",
    "8699": " curren",
    "8700": " currents ",
    "8701": "otic ",
    "8702": "rting ",
    "8703": "rochemical",
    "8704": "forcing",
    "8705": "ominat",
    "8706": "experiment",
    "8707": "irport",
    "8708": "love with",
    "8709": "Black Sabbat",
    "8710": "farthe",
    "8711": "British ",
    "8712": "Institut",
    "8713": "heory, ",
    "8714": "00 year",
    "8715": "nting",
    "8716": "ering, ",
    "8717": "iminati",
    "8718": " The ",
    "8719": "crude ",
    "8720": "crude oi",
    "8721": "e^{",
    "8722": ", /ma",
    "8723": "inium",
    "8724": "Christians",
    "8725": "xport",
    "8726": "ugar ",
    "8727": "each team",
    "8728": "Ministry ",
    "8729": "Ministry of ",
    "8730": "lorida",
    "8731": "according to ",
    "8732": "environ",
    "8733": " Ge",
    "8734": "atly ",
    "8735": "herit",
    "8736": "heritage",
    "8737": "oisi",
    "8738": "rcycle ",
    "8739": "believed ",
    "8740": "weari",
    "8741": "wearing ",
    "8742": "upled",
    "8743": "e in",
    "8744": "lowed ",
    "8745": "prefer",
    "8746": "asuring",
    "8747": "blessed",
    "8748": "-comp",
    "8749": "cided",
    "8750": "r own",
    "8751": "Fourier ",
    "8752": "iders ",
    "8753": "planned ",
    "8754": "and Best",
    "8755": "historical",
    "8756": "influenced ",
    "8757": " Festi",
    "8758": " Festival",
    "8759": "knew ",
    "8760": "icative",
    "8761": "inhabitants of ",
    "8762": " because ",
    "8763": "sive than",
    "8764": "old, ",
    "8765": "gospel",
    "8766": "zbe",
    "8767": "thful",
    "8768": "salm",
    "8769": "upgra",
    "8770": "upgrade ",
    "8771": "relatively ",
    "8772": "byloni",
    "8773": "customer",
    "8774": "now b",
    "8775": "ertion",
    "8776": "ranging from",
    "8777": "tokusa",
    "8778": "ovable ",
    "8779": "ted, ",
    "8780": "heritanc",
    "8781": "ez ",
    "8782": "referred to ",
    "8783": "gered ",
    "8784": "virtual ",
    "8785": "that year",
    "8786": "cols",
    "8787": "colspan",
    "8788": "prises",
    "8789": "beit ",
    "8790": " Fra",
    "8791": " Franc",
    "8792": " Francis",
    "8793": " Francisco",
    "8794": "thy ",
    "8795": "rtograph",
    "8796": "environment",
    "8797": " bec",
    "8798": " became ",
    "8799": " later",
    "8800": "lock ",
    "8801": "enemies",
    "8802": "ultima",
    "8803": " Palac",
    "8804": "IADD",
    "8805": " me",
    "8806": " mechani",
    "8807": " aci",
    "8808": "victim",
    "8809": "receive",
    "8810": "tualit",
    "8811": "tuality, ",
    "8812": "iram",
    "8813": "sociate",
    "8814": "code",
    "8815": "cupie",
    "8816": "e mach",
    "8817": "e machine",
    "8818": "myelinat",
    "8819": "sometimes the ",
    "8820": "libra",
    "8821": "irect",
    "8822": "irected ",
    "8823": "ddress",
    "8824": " terr",
    "8825": "lingto",
    "8826": "oxide",
    "8827": "forefront ",
    "8828": "forefront of ",
    "8829": "dness",
    "8830": "usually ",
    "8831": "199",
    "8832": "ornamen",
    "8833": " of Right",
    "8834": "). ",
    "8835": "program",
    "8836": " countries",
    "8837": "check",
    "8838": "Dictionary ",
    "8839": "Han ",
    "8840": "l-",
    "8841": "significant ",
    "8842": "planet",
    "8843": "ocrat",
    "8844": "an ab",
    "8845": "an abstr",
    "8846": "andy ",
    "8847": "nihil",
    "8848": "YB",
    "8849": "else ",
    "8850": "systemb",
    "8851": "Cub",
    "8852": "Kara",
    "8853": "Karaca",
    "8854": "dvanc",
    "8855": " purpos",
    "8856": "ssert",
    "8857": "crete ",
    "8858": "Dubli",
    "8859": "impossible",
    "8860": "eru",
    "8861": "ervene",
    "8862": "target",
    "8863": "zar, ",
    "8864": "O I",
    "8865": "O IMPO",
    "8866": "Madame",
    "8867": "scien",
    "8868": "le in ",
    "8869": "Pleas",
    "8870": "celes",
    "8871": "turn to ",
    "8872": "flower",
    "8873": "energy",
    "8874": "China",
    "8875": " gr",
    "8876": " grid",
    "8877": "chlor",
    "8878": "the circ",
    "8879": "Devil",
    "8880": "treatment",
    "8881": "okeles",
    "8882": "athletic ",
    "8883": "worked",
    "8884": "federal",
    "8885": "denom",
    "8886": "denomination",
    "8887": "sant",
    "8888": "somewhat ",
    "8889": "ourdi",
    "8890": "ourdieu",
    "8891": "horizo",
    "8892": "tainment",
    "8893": "melo",
    "8894": "OV",
    "8895": "OVA ",
    "8896": "30 K",
    "8897": "rned mate",
    "8898": "rned material",
    "8899": "erfe",
    "8900": "Windows",
    "8901": "playing",
    "8902": "under ",
    "8903": "DH",
    "8904": "DHC",
    "8905": "ending",
    "8906": "ceili",
    "8907": "lky ",
    "8908": "complete",
    "8909": "customers to",
    "8910": "house ",
    "8911": "gun ",
    "8912": "role in ",
    "8913": "easie",
    "8914": "..",
    "8915": "people.",
    "8916": "doesn't",
    "8917": " Ci",
    "8918": "missing ",
    "8919": "Resis",
    "8920": "peasa",
    "8921": "ted Kingdom ",
    "8922": "d on ",
    "8923": "marked",
    "8924": " World Fa",
    "8925": "load",
    "8926": "loading",
    "8927": "also been ",
    "8928": "athlete",
    "8929": "itoring",
    "8930": "ized ",
    "8931": "finite",
    "8932": "ciety",
    "8933": "ical ",
    "8934": "Australi",
    "8935": "11 /",
    "8936": "3 /sub ",
    "8937": "rchitect",
    "8938": "the city",
    "8939": "echan",
    "8940": "amate",
    "8941": "larger than",
    "8942": "glass",
    "8943": "ddie ",
    "8944": "Fla",
    "8945": "Flamen",
    "8946": "Flamenco",
    "8947": "reading",
    "8948": "sque",
    "8949": "Papu",
    "8950": "Papua ",
    "8951": "Papua New ",
    "8952": "Papua New Guin",
    "8953": "nomination",
    "8954": "seous",
    "8955": "describ",
    "8956": "describe ",
    "8957": "ynom",
    "8958": "ynomial",
    "8959": "farm",
    "8960": "fantry",
    "8961": "Del",
    "8962": "Delph",
    "8963": "conque",
    "8964": "conquered",
    "8965": "understand",
    "8966": " Church**",
    "8967": " Church***",
    "8968": "Hamilton",
    "8969": "500 K",
    "8970": "ycry",
    "8971": "ycrystal",
    "8972": "Brunsw",
    "8973": "general ",
    "8974": "done ",
    "8975": "midit",
    "8976": "aking",
    "8977": "vidson",
    "8978": "creator of ",
    "8979": " hous",
    "8980": " houses ",
    "8981": "garded by ",
    "8982": "Odo",
    "8983": "Odoace",
    "8984": "any other ",
    "8985": "chanical",
    "8986": "Swed",
    "8987": "Swedish",
    "8988": "osing",
    "8989": "wedding",
    "8990": " hund",
    "8991": " hundred",
    "8992": "atrol ",
    "8993": "IBM",
    "8994": "o Go",
    "8995": "d in ",
    "8996": "brain ",
    "8997": "central govern",
    "8998": " three ",
    "8999": "Clau",
    "9000": "Serge",
    "9001": "Constitu",
    "9002": "Constitution",
    "9003": "Ange",
    "9004": "Angels",
    "9005": "Federation",
    "9006": "ction",
    "9007": "ction, ",
    "9008": " few ",
    "9009": "stories",
    "9010": "pixe",
    "9011": "bounce",
    "9012": "pensa",
    "9013": " Island",
    "9014": "metown",
    "9015": "Comnen",
    "9016": " alt",
    "9017": "ino-",
    "9018": " of English",
    "9019": "|-",
    "9020": "|-|",
    "9021": "shore ",
    "9022": "proceed",
    "9023": "000000",
    "9024": "erformanc",
    "9025": "controlled",
    "9026": " Scien",
    "9027": "er to ",
    "9028": "prema",
    "9029": "premacy",
    "9030": " of electron",
    "9031": "ionari",
    "9032": "ionaries ",
    "9033": "ntastic ",
    "9034": "incip",
    "9035": "ubset of ",
    "9036": "ystems ",
    "9037": "esimal",
    "9038": "Judaism",
    "9039": "Columbi",
    "9040": "godzi",
    "9041": "godzilla",
    "9042": "incidence ",
    "9043": "singula",
    "9044": "editing",
    "9045": "oot ",
    "9046": "riving",
    "9047": "opposed",
    "9048": "opposed to ",
    "9049": "htt",
    "9050": "funda",
    "9051": "fundamental",
    "9052": "Darwin ",
    "9053": "BA",
    "9054": "70 K",
    "9055": "Castr",
    "9056": "Rome ",
    "9057": " IQ",
    "9058": "Sala",
    "9059": "Salaam",
    "9060": "binary ",
    "9061": "mention",
    "9062": "ypically ",
    "9063": "golden",
    "9064": "War, ",
    "9065": "osition",
    "9066": "pression",
    "9067": "franch",
    "9068": "0.",
    "9069": "mail ",
    "9070": "and, ",
    "9071": "ecimal",
    "9072": "alog ",
    "9073": "ynch",
    "9074": ". /re",
    "9075": ". /ref ",
    "9076": "r th ",
    "9077": "r th co",
    "9078": "r th cols",
    "9079": "r th colspan",
    "9080": "lumn ",
    "9081": "cross-dr",
    "9082": "cross-dres",
    "9083": "explore",
    "9084": "ppet ",
    "9085": "court",
    "9086": "ts|",
    "9087": "vampe",
    "9088": "Swat ",
    "9089": "Swat (",
    "9090": "questions",
    "9091": "ler than",
    "9092": "esoteric ",
    "9093": "experienc",
    "9094": "als ",
    "9095": "als with",
    "9096": " build ",
    "9097": "data ",
    "9098": "Eris",
    "9099": " than b",
    "9100": "tep ",
    "9101": "alk*",
    "9102": "t of the ",
    "9103": "otan",
    "9104": "rwin ",
    "9105": "glyc",
    "9106": "glyceri",
    "9107": "ssage",
    "9108": "July 200",
    "9109": "ve, ",
    "9110": "apol",
    "9111": "andoned ",
    "9112": "eviden",
    "9113": "bleach",
    "9114": "n Mar",
    "9115": "stituted ",
    "9116": "aches ",
    "9117": "Contin",
    "9118": "Continent",
    "9119": "amongs",
    "9120": "mountainous",
    "9121": "tC",
    "9122": "objective ",
    "9123": "mental and ",
    "9124": "dy,",
    "9125": "dy,:",
    "9126": "tmosph",
    "9127": " can be ",
    "9128": "navid",
    "9129": "Emine",
    "9130": "filia",
    "9131": "on to ",
    "9132": "work of ",
    "9133": "administ",
    "9134": "ups -",
    "9135": "coral",
    "9136": "lunder",
    "9137": "condary ",
    "9138": "rient",
    "9139": "University of A",
    "9140": "University of Af",
    "9141": "University of Afgha",
    "9142": "corn ",
    "9143": ":*",
    "9144": "Jesus",
    "9145": "Rich",
    "9146": "Richter",
    "9147": " occurre",
    "9148": "Qur",
    "9149": "Qur'",
    "9150": "finition ",
    "9151": "ntern",
    "9152": "nternational",
    "9153": "uncom",
    "9154": "uncommon",
    "9155": "nocen",
    "9156": "following",
    "9157": "all pla",
    "9158": "all players ",
    "9159": "hilhar",
    "9160": "hilharmon",
    "9161": "able to ",
    "9162": "hanty ",
    "9163": " transport",
    "9164": "queen ",
    "9165": "ercepted ",
    "9166": "20 K",
    "9167": "attention",
    "9168": "containing",
    "9169": "arwi",
    "9170": "urice ",
    "9171": " td al",
    "9172": " td align",
    "9173": "yment",
    "9174": "fuses",
    "9175": "valence ",
    "9176": "valence of ",
    "9177": "rade.",
    "9178": "Highway",
    "9179": "Al s",
    "9180": "Al sub ",
    "9181": " associ",
    "9182": " associate",
    "9183": "stated ",
    "9184": "l br",
    "9185": "moves",
    "9186": "ja",
    "9187": "built",
    "9188": "lasting",
    "9189": "Demographics",
    "9190": "efficacy",
    "9191": "cetic",
    "9192": "geanc",
    "9193": "phi",
    "9194": "hilip",
    "9195": "oth, ",
    "9196": "portra",
    "9197": "end to ",
    "9198": "oduction ",
    "9199": "hedule",
    "9200": "Pont",
    "9201": "Pontcha",
    "9202": "Pontchart",
    "9203": "syno",
    "9204": "synopt",
    "9205": ", Po",
    "9206": ", Politic",
    "9207": "campai",
    "9208": "campaign",
    "9209": "marine",
    "9210": "Software*",
    "9211": " mode",
    "9212": "ignifican",
    "9213": "ignificant ",
    "9214": "people*",
    "9215": "summer of ",
    "9216": "pected to ",
    "9217": "produce",
    "9218": "tes*",
    "9219": "material",
    "9220": "uman ",
    "9221": "ceding",
    "9222": "explosion",
    "9223": "aneous",
    "9224": " nbsp",
    "9225": "out-",
    "9226": "out-of",
    "9227": "odies",
    "9228": "crani",
    "9229": "ch and ",
    "9230": "that t",
    "9231": "I Cor",
    "9232": "I Corps",
    "9233": " after",
    "9234": "mable",
    "9235": "manuscript",
    "9236": "thousa",
    "9237": "4:",
    "9238": "Bene",
    "9239": "Benedict",
    "9240": "sub-contine",
    "9241": " named",
    "9242": "its o",
    "9243": " frequen",
    "9244": "Macc",
    "9245": "Maccab",
    "9246": "Maccabee",
    "9247": " sch",
    "9248": " schol",
    "9249": " scholar",
    "9250": "telescop",
    "9251": "traded",
    "9252": " align",
    "9253": "perts ",
    "9254": "Ex",
    "9255": "easy ",
    "9256": "easy to ",
    "9257": "ective",
    "9258": "clear",
    "9259": "es - ",
    "9260": "Adria",
    "9261": "Adriatic",
    "9262": "Tess",
    "9263": "oreograph",
    "9264": "sexual",
    "9265": "label",
    "9266": " algorith",
    "9267": "runs",
    "9268": "spons",
    "9269": "lters",
    "9270": "capable",
    "9271": "priate",
    "9272": "Hungarian",
    "9273": "its added ",
    "9274": "ainfall ",
    "9275": "slight",
    "9276": "8.",
    "9277": "Beethoven",
    "9278": "Beethoven's ",
    "9279": "fense of ",
    "9280": ". Dale",
    "9281": "ube ",
    "9282": "luid",
    "9283": "ercel",
    "9284": "ercely ",
    "9285": "masses",
    "9286": "earning",
    "9287": "dharma",
    "9288": "Fly",
    "9289": "Flynn",
    "9290": " /ref ",
    "9291": "rostati",
    "9292": "rostatic ",
    "9293": "e.g. ",
    "9294": "Reagan ",
    "9295": "platform",
    "9296": "symph",
    "9297": "ming from",
    "9298": "preserved ",
    "9299": "nature",
    "9300": "greatest ",
    "9301": "flation",
    "9302": "vironment",
    "9303": "digm",
    "9304": "introduc",
    "9305": "introduction",
    "9306": " that time, ",
    "9307": "2)}",
    "9308": "addition ",
    "9309": "addition to ",
    "9310": "nts ",
    "9311": "university ",
    "9312": " Boul",
    "9313": " Boulev",
    "9314": " Boulevard",
    "9315": "ronounc",
    "9316": "(d. 1",
    "9317": "Airbu",
    "9318": "heat ",
    "9319": "degree",
    "9320": "New World",
    "9321": "Cat. ",
    "9322": "devices ",
    "9323": "gonom",
    "9324": "achieved ",
    "9325": "deser",
    "9326": "elings",
    "9327": "hoea",
    "9328": "ignited",
    "9329": ") - ",
    "9330": "indu",
    "9331": "Egyptian",
    "9332": "Orio",
    "9333": "training ",
    "9334": "easure",
    "9335": "quake",
    "9336": "ar player",
    "9337": "asib",
    "9338": "th centur",
    "9339": "intern",
    "9340": " 19",
    "9341": "Templ",
    "9342": "rang ",
    "9343": "murder",
    "9344": "strog",
    "9345": "meland",
    "9346": "9.",
    "9347": " Se",
    "9348": "/ci",
    "9349": "grid",
    "9350": "/trt",
    "9351": "using ",
    "9352": " section",
    "9353": "uffalo",
    "9354": "well, ",
    "9355": "sun ",
    "9356": "seases ",
    "9357": " (born",
    "9358": "eed, ",
    "9359": "committed ",
    "9360": "shari",
    "9361": "-Celt",
    "9362": "-Celtic ",
    "9363": "interactio",
    "9364": " production",
    "9365": "Sue",
    "9366": " among",
    "9367": "manufacturers",
    "9368": " with",
    "9369": "iece ",
    "9370": "MDM",
    "9371": "organization",
    "9372": "hydrocarbo",
    "9373": "uter",
    "9374": "phras",
    "9375": "ngs ",
    "9376": " polymers",
    "9377": "fertil",
    "9378": "9)*18",
    "9379": "resulting",
    "9380": "vival",
    "9381": "ntial",
    "9382": " appoint",
    "9383": "ndmil",
    "9384": "prive",
    "9385": "prived of ",
    "9386": "icass",
    "9387": "ri ",
    "9388": "ri L",
    "9389": "ri Lan",
    "9390": "buried ",
    "9391": "figure ",
    "9392": "llogis",
    "9393": "geon ",
    "9394": "lementation",
    "9395": "ogolla",
    "9396": "Theolog",
    "9397": "ndaries",
    "9398": " Dar",
    "9399": " Darwi",
    "9400": "domes",
    "9401": "domestic",
    "9402": "rically ",
    "9403": "sts t",
    "9404": "sts that ",
    "9405": "Corrupt",
    "9406": "Corruption",
    "9407": " = 2 |",
    "9408": "what ",
    "9409": "zilla",
    "9410": "crypt",
    "9411": " aspect of ",
    "9412": "rucifixi",
    "9413": "gemon",
    "9414": "ller br",
    "9415": "centr",
    "9416": "utili",
    "9417": "Publi",
    "9418": "Public ",
    "9419": "Low",
    "9420": "Low ",
    "9421": "Low German",
    "9422": "Scy",
    "9423": "Scytal",
    "9424": "meas",
    "9425": "niepe",
    "9426": "mse",
    "9427": "s that ",
    "9428": "red h",
    "9429": "red herr",
    "9430": "red herring",
    "9431": "erground",
    "9432": "fair ",
    "9433": "abuse",
    "9434": "cause of ",
    "9435": "overy ",
    "9436": " Museum",
    "9437": " Bre",
    "9438": " Breton",
    "9439": "scula",
    "9440": "scular ",
    "9441": "erhaps",
    "9442": " time",
    "9443": "ctbook",
    "9444": "major ",
    "9445": "move ",
    "9446": " though",
    "9447": "ic ac",
    "9448": "ic acid",
    "9449": "damage",
    "9450": "nzine",
    "9451": "onian ",
    "9452": "withdr",
    "9453": "composition ",
    "9454": "Ber",
    "9455": "Berlin",
    "9456": "important ro",
    "9457": "etence",
    "9458": "deed ",
    "9459": "lation",
    "9460": "job ",
    "9461": "9)*189",
    "9462": "nsyl",
    "9463": "nsylvan",
    "9464": "surrounding",
    "9465": "rged ",
    "9466": "rged with",
    "9467": "Robert",
    "9468": "t hor",
    "9469": "t horizo",
    "9470": "radition",
    "9471": "allow",
    "9472": "fess",
    "9473": "data typ",
    "9474": "ntly, ",
    "9475": "ally-",
    "9476": "it of ",
    "9477": "Britons",
    "9478": "voked",
    "9479": "perial",
[...]
