{
  "id2token": {
    "0": "\n",
    "1": " ",
    "2": "!",
    "3": "#",
    "4": "$",
    "5": "%",
    "6": "'",
    "7": "(",
    "8": ")",
    "9": "*",
    "10": "+",
    "11": ",",
    "12": "-",
    "13": ".",
    "14": "/",
    "15": "0",
    "16": "1",
    "17": "2",
    "18": "3",
    "19": "4",
    "20": "5",
    "21": "6",
    "22": "7",
    "23": "8",
    "24": "9",
    "25": ":",
    "26": ";",
    "27": "=",
    "28": "?",
    "29": "@",
    "30": "A",
    "31": "B",
    "32": "C",
    "33": "D",
    "34": "E",
    "35": "F",
    "36": "G",
    "37": "H",
    "38": "I",
    "39": "J",
    "40": "K",
    "41": "L",
    "42": "M",
    "43": "N",
    "44": "O",
    "45": "P",
    "46": "Q",
    "47": "R",
    "48": "S",
    "49": "T",
    "50": "U",
    "51": "V",
    "52": "W",
    "53": "X",
    "54": "Y",
    "55": "Z",
    "56": "\\",
    "57": "^",
    "58": "_",
    "59": "`",
    "60": "a",
    "61": "b",
    "62": "c",
    "63": "d",
    "64": "e",
    "65": "f",
    "66": "g",
    "67": "h",
    "68": "i",
    "69": "j",
    "70": "k",
    "71": "l",
    "72": "m",
    "73": "n",
    "74": "o",
    "75": "p",
    "76": "q",
    "77": "r",
    "78": "s",
    "79": "t",
    "80": "u",
    "81": "v",
    "82": "w",
    "83": "x",
    "84": "y",
    "85": "z",
    "86": "{",
    "87": "|",
    "88": "}",
    "89": "~",
    "90": "<|endoftext|>",
    "91": "<pad>",
    "92": "K.",
    "93": "de",
    "94": "der",
    "95": "dern",
    "96": "ls",
    "97": "us",
    "98": "uss",
    "99": "ussi",
    "100": "ussia",
    "101": "um",
    "102": "ume",
    "103": "umed",
    "104": "umed ",
    "105": "ti",
    "106": "tit",
    "107": "oc",
    "108": "til",
    "109": "tili",
    "110": "ur",
    "111": "urt",
    "112": "urth",
    "113": " b",
    "114": " br",
    "115": "vi",
    "116": "vid",
    "117": "vide",
    "118": "viden",
    "119": "ze",
    "120": "zed",
    "121": "ak",
    "122": "ake",
    "123": "ra",
    "124": "rac",
    "125": "ract",
    "126": "racte",
    "127": "racter",
    "128": "vie",
    "129": "fi",
    "130": "fir",
    "131": "em",
    "132": "emb",
    "133": "st",
    "134": "sto",
    "135": "stot",
    "136": "ni",
    "137": "nis",
    "138": "3 ",
    "139": "3 -",
    "140": "3 - ",
    "141": "er",
    "142": "erg",
    "143": "da",
    "144": "dar",
    "145": "un",
    "146": "unc",
    "147": "ve",
    "148": "ved",
    "149": "ro",
    "150": "rou",
    "151": "roug",
    "152": "we",
    "153": "gh",
    "154": "gha",
    "155": "f.",
    "156": "ol",
    "157": "if",
    "158": "ifi",
    "159": "ifie",
    "160": "ified",
    "161": "Bo",
    "162": "po",
    "163": "pos",
    "164": "pose",
    "165": "poser",
    "166": "ar",
    "167": "ara",
    "168": "arac",
    "169": "aract",
    "170": "sc",
    "171": "sco",
    "172": "di",
    "173": "dic",
    "174": "lg",
    "175": "lga",
    "176": "lgar",
    "177": "au",
    "178": "aus",
    "179": "aust",
    "180": "ri",
    "181": "ril",
    "182": "od",
    "183": "odh",
    "184": "tr",
    "185": "oo",
    "186": "ook",
    "187": "ook ",
    "188": "U,",
    "189": "U, ",
    "190": "il",
    "191": "ill",
    "192": "ill ",
    "193": "no",
    "194": "nom",
    "195": "Pa",
    "196": "-1",
    "197": "-18",
    "198": "ne",
    "199": "nel",
    "200": "ump",
    "201": "el",
    "202": "elt",
    "203": "eltr",
    "204": "Af",
    "205": "Afg",
    "206": "Afgh",
    "207": "Afgha",
    "208": "mb",
    "209": "mbe",
    "210": "ea",
    "211": "eal",
    "212": "ela",
    "213": "8,",
    "214": "8, ",
    "215": "//",
    "216": "av",
    "217": "ave",
    "218": "aven",
    "219": "ems",
    "220": "ria",
    "221": "En",
    "222": "Eng",
    "223": "Engl",
    "224": "ns",
    "225": "ns ",
    "226": "-E",
    "227": "-En",
    "228": "-Eng",
    "229": "-Engl",
    "230": "al",
    "231": "alv",
    "232": "alva",
    "233": "alvad",
    "234": "alvado",
    "235": "le",
    "236": "leg",
    "237": "lege",
    "238": "lo",
    "239": "loy",
    "240": "y ",
    "241": "rf",
    "242": "rfo",
    "243": "rfor",
    "244": "as",
    "245": "ast",
    "246": "asta",
    "247": "8)",
    "248": "ma",
    "249": "mal",
    "250": "mall",
    "251": "tio",
    "252": "tion",
    "253": " (",
    "254": " (b",
    "255": " (b.",
    "256": "ct",
    "257": "ctu",
    "258": "os",
    "259": "osa",
    "260": "osau",
    "261": "osaur",
    "262": "rv",
    "263": "rvi",
    "264": "rvic",
    "265": "rvice",
    "266": "C,",
    "267": "C, ",
    "268": "roq",
    "269": "roqu",
    "270": "an",
    "271": "ang",
    "272": "ange",
    "273": "angel",
    "274": "to",
    "275": "tob",
    "276": "ir",
    "277": "irs",
    "278": "irst",
    "279": "ac",
    "280": "ace",
    "281": "mp",
    "282": "mpi",
    "283": "mpio",
    "284": "mpion",
    "285": "Be",
    "286": "Bea",
    "287": "WI",
    "288": "WII",
    "289": "za",
    "290": "zat",
    "291": "ll",
    "292": "lli",
    "293": "llin",
    "294": "lling",
    "295": "TR",
    "296": "TRT",
    "297": "uc",
    "298": "uct",
    "299": "rg",
    "300": "rge",
    "301": "g ",
    "302": "g K",
    "303": "g Ko",
    "304": "ic",
    "305": "icu",
    "306": "icul",
    "307": "icult",
    "308": "n-",
    "309": "roun",
    "310": "round",
    "311": "D.",
    "312": "in",
    "313": "ini",
    "314": "init",
    "315": "initi",
    "316": "initio",
    "317": "inition",
    "318": "na",
    "319": "nal",
    "320": "nall",
    "321": "nally",
    "322": "is",
    "323": "isc",
    "324": "iscu",
    "325": "iscus",
    "326": "el ",
    "327": "asi",
    "328": "asio",
    "329": "asion",
    "330": "ba",
    "331": "bab",
    "332": "ge",
    "333": "gen",
    "334": "genc",
    "335": "ki",
    "336": "kin",
    "337": "hu",
    "338": "hur",
    "339": "hurs",
    "340": "hursa",
    "341": "3 /",
    "342": "3 /s",
    "343": "/k",
    "344": "/kg",
    "345": "rot",
    "346": "roth",
    "347": "rothe",
    "348": "ot",
    "349": "oth",
    "350": "othe",
    "351": "eas",
    "352": "easu",
    "353": "easur",
    "354": "ose",
    "355": "ose ",
    "356": "sl",
    "357": "sla",
    "358": "gel",
    "359": "Cz",
    "360": "Cze",
    "361": "Czec",
    "362": "Czech",
    "363": "ov",
    "364": "ovi",
    "365": "ovie",
    "366": "oviet",
    "367": "sti",
    "368": "stic",
    "369": "tt",
    "370": "Da",
    "371": "Dan",
    "372": "Dani",
    "373": "Danie",
    "374": "Daniel",
    "375": "ct ",
    "376": "ng",
    "377": "ngu",
    "378": "(d",
    "379": "(d.",
    "380": "en",
    "381": "ent",
    "382": "ents",
    "383": "if ",
    "384": "yl",
    "385": "yle",
    "386": "my",
    "387": "my ",
    "388": "ngl",
    "389": "ngle",
    "390": "ap",
    "391": "apa",
    "392": "stit",
    "393": "ai",
    "394": "ais",
    "395": "Xo",
    "396": "Xoa",
    "397": "Xoan",
    "398": "ere",
    "399": "ere ",
    "400": "rae",
    "401": "dr",
    "402": "dre",
    "403": "Ha",
    "404": "Har",
    "405": "Harb",
    "406": "Harbo",
    "407": "4,",
    "408": "4, ",
    "409": "ch",
    "410": "cha",
    "411": "chan",
    "412": "chani",
    "413": "ant",
    "414": "^{",
    "415": "aii",
    "416": "pt",
    "417": "pti",
    "418": "ou",
    "419": "oug",
    "420": "kn",
    "421": "kno",
    "422": "know",
    "423": "known",
    "424": "2 ",
    "425": "2 /",
    "426": "2 /s",
    "427": "ke",
    "428": "ked",
    "429": "af",
    "430": "aft",
    "431": "afte",
    "432": "rab",
    "433": "alu",
    "434": "alue",
    "435": "e,",
    "436": "e, ",
    "437": "xt",
    "438": "llo",
    "439": "llow",
    "440": "cto",
    "441": "ctor",
    "442": "gr",
    "443": "gre",
    "444": "gree",
    "445": "TD",
    "446": "TD ",
    "447": "tto",
    "448": "im",
    "449": "imi",
    "450": "imin",
    "451": "ob",
    "452": "obi",
    "453": "obil",
    "454": "cti",
    "455": "ctio",
    "456": "ala",
    "457": "nr",
    "458": "ers",
    "459": "Ma",
    "460": "als",
    "461": "alse",
    "462": "6 ",
    "463": "6 -",
    "464": "bl",
    "465": "bli",
    "466": "Fi",
    "467": "Fin",
    "468": "wi",
    "469": "wic",
    "470": "wich",
    "471": "at",
    "472": "atu",
    "473": "atur",
    "474": "Hay",
    "475": "Hayn",
    "476": "Hayne",
    "477": "ire",
    "478": "irec",
    "479": "irect",
    "480": "pte",
    "481": "ptem",
    "482": "ptemb",
    "483": "-s",
    "484": "-sp",
    "485": "-spe",
    "486": ",:",
    "487": "li",
    "488": "lit",
    "489": "liti",
    "490": "zi",
    "491": "la",
    "492": "lah",
    "493": "laho",
    "494": "mo",
    "495": "moc",
    "496": "mocr",
    "497": "ale",
    "498": "ats",
    "499": "atso",
    "500": "atson",
    "501": "ild",
    "502": "eb",
    "503": "eba",
    "504": "Ve",
    "505": "Ved",
    "506": "Veda",
    "507": "So",
    "508": "Sou",
    "509": "Sout",
    "510": "South",
    "511": "co",
    "512": "co ",
    "513": "xe",
    "514": "nc",
    "515": "nch",
    "516": "wh",
    "517": "who",
    "518": "who ",
    "519": "ote",
    "520": "oter",
    "521": "si",
    "522": "sit",
    "523": "on",
    "524": "oni",
    "525": "onic",
    "526": "Go",
    "527": "Got",
    "528": "Goth",
    "529": "char",
    "530": "chara",
    "531": "charac",
    "532": "charact",
    "533": "fr",
    "534": "fri",
    "535": "fric",
    "536": "frica",
    "537": "Am",
    "538": "Ame",
    "539": "Amer",
    "540": "Ameri",
    "541": "ec",
    "542": "ech",
    "543": "/s",
    "544": "br",
    "545": "bre",
    "546": "brev",
    "547": "yc",
    "548": "ych",
    "549": "ul",
    "550": "nl",
    "551": "nly",
    "552": " w",
    "553": " wi",
    "554": " wit",
    "555": " with",
    "556": "eam",
    "557": "ati",
    "558": "atio",
    "559": "ation",
    "560": "ver",
    "561": "very",
    "562": "very ",
    "563": "cl",
    "564": "cli",
    "565": "clin",
    "566": "se",
    "567": "sel",
    "568": "self",
    "569": "me",
    "570": "mer",
    "571": "meri",
    "572": "it",
    "573": "ith",
    "574": "ithe",
    "575": "p ",
    "576": "p o",
    "577": "p of",
    "578": "p of ",
    "579": "col",
    "580": "coln",
    "581": "yn",
    "582": "it ",
    "583": "2 -",
    "584": "osl",
    "585": "ph",
    "586": "pho",
    "587": "ect",
    "588": "ric",
    "589": "rict",
    "590": "RG",
    "591": "RGB",
    "592": "ran",
    "593": "rs",
    "594": "rsi",
    "595": "rsio",
    "596": "rsion",
    "597": "fin",
    "598": "rod",
    "599": "rop",
    "600": "rope",
    "601": "rat",
    "602": "rate",
    "603": "imp",
    "604": "impo",
    "605": "impor",
    "606": "import",
    "607": "RO",
    "608": "ROM",
    "609": "du",
    "610": "duc",
    "611": "-b",
    "612": "-bo",
    "613": "E ",
    "614": "E b",
    "615": "E br",
    "616": "elp",
    "617": "elp ",
    "618": "lle",
    "619": "lled",
    "620": "og",
    "621": "ogi",
    "622": "ogic",
    "623": "Se",
    "624": "Sec",
    "625": "Seco",
    "626": "Secon",
    "627": "Second",
    "628": "tu",
    "629": "tua",
    "630": "tual",
    "631": "rov",
    "632": "rove",
    "633": "Ke",
    "634": "Ket",
    "635": "Keth",
    "636": "Kethu",
    "637": "ghb",
    "638": "gu",
    "639": "gue",
    "640": "erc",
    "641": "ptid",
    "642": "th",
    "643": "tho",
    "644": "thol",
    "645": "tholi",
    "646": "et",
    "647": "eth",
    "648": "or",
    "649": "orp",
    "650": "orpo",
    "651": "orpor",
    "652": "orpora",
    "653": "wid",
    "654": "widt",
    "655": "width",
    "656": "C)",
    "657": "und",
    "658": "mos",
    "659": "rom",
    "660": "rom ",
    "661": "pe",
    "662": "pee",
    "663": "peed",
    "664": "umen",
    "665": "umeni",
    "666": "umenic",
    "667": "8 ",
    "668": "8 -",
    "669": "litio",
    "670": "ia",
    "671": "ian",
    "672": "ise",
    "673": "isen",
    "674": "isenh",
    "675": "isenho",
    "676": "ad",
    "677": "ada",
    "678": "aday",
    "679": "r*",
    "680": "ld",
    "681": "ldr",
    "682": "ldre",
    "683": "up",
    "684": "ups",
    "685": "lov",
    "686": "al ",
    "687": "rd",
    "688": "rd ",
    "689": "ew",
    "690": "rr",
    "691": "rry",
    "692": "tiv",
    "693": "ear",
    "694": "earc",
    "695": "ab",
    "696": "abo",
    "697": "abor",
    "698": "gl",
    "699": "glo",
    "700": "glob",
    "701": "globa",
    "702": "global",
    "703": "as ",
    "704": "ui",
    "705": "ta",
    "706": "tai",
    "707": "tail",
    "708": "unt",
    "709": "untr",
    "710": "rdw",
    "711": "rdwa",
    "712": "rdwar",
    "713": "rdware",
    "714": "tiona",
    "715": "net",
    "716": "nete",
    "717": "netee",
    "718": "loc",
    "719": "lock",
    "720": "*E",
    "721": "lor",
    "722": "Ea",
    "723": "he",
    "724": "hec",
    "725": "hech",
    "726": "4)",
    "727": "4)*",
    "728": "bu",
    "729": "nt",
    "730": "nty",
    "731": "ste",
    "732": "ova",
    "733": "ci",
    "734": "cie",
    "735": "lu",
    "736": "lus",
    "737": "lusi",
    "738": "iti",
    "739": "itis",
    "740": "cr",
    "741": "cre",
    "742": "cree",
    "743": "creen",
    "744": "tive",
    "745": "nib",
    "746": "eo",
    "747": "eop",
    "748": "eopl",
    "749": "eople",
    "750": "go",
    "751": "gon",
    "752": "id",
    "753": "ide",
    "754": "rb",
    "755": "rbo",
    "756": "rbon",
    "757": "va",
    "758": "rri",
    "759": "rrie",
    "760": "rried",
    "761": ",0",
    "762": ",00",
    "763": "lin",
    "764": "lino",
    "765": "om",
    "766": "oma",
    "767": "omai",
    "768": "omain",
    "769": "Mi",
    "770": "Min",
    "771": "Mini",
    "772": "Minis",
    "773": "Minist",
    "774": "cou",
    "775": "es",
    "776": "esu",
    "777": "esus",
    "778": "io",
    "779": "ion",
    "780": "ie",
    "781": "iec",
    "782": "iece",
    "783": "after",
    "784": "sp",
    "785": "spe",
    "786": "spec",
    "787": "spect",
    "788": "ju",
    "789": "jur",
    "790": "den",
    "791": "dent",
    "792": "alec",
    "793": "alect",
    "794": "ye",
    "795": "yet",
    "796": "niv",
    "797": "ots",
    "798": "otsw",
    "799": "otswa",
    "800": "TV",
    "801": "TV ",
    "802": "nar",
    "803": "narc",
    "804": "ce",
    "805": "ces",
    "806": "cess",
    "807": "lai",
    "808": "laim",
    "809": "iane",
    "810": "ianet",
    "811": "ouv",
    "812": "ouve",
    "813": "ly",
    "814": "lyn",
    "815": "m*",
    "816": "do",
    "817": "dop",
    "818": "doph",
    "819": "4-",
    "820": "4-y",
    "821": "4-ye",
    "822": "4-yea",
    "823": "4-year",
    "824": "erm",
    "825": "erma",
    "826": "rt",
    "827": "rte",
    "828": "rted",
    "829": "i)",
    "830": "abl",
    "831": "able",
    "832": "Un",
    "833": "ut",
    "834": "utl",
    "835": "utle",
    "836": "Al",
    "837": "pi",
    "838": "pid",
    "839": ".)",
    "840": "U.",
    "841": "U.S",
    "842": "U.S.",
    "843": "post",
    "844": "ga",
    "845": "gai",
    "846": "gain",
    "847": "lley",
    "848": "bb",
    "849": "bbi",
    "850": "lig",
    "851": "lign",
    "852": "nin",
    "853": "ning",
    "854": "lled ",
    "855": "by",
    "856": "byt",
    "857": "rar",
    "858": "rre",
    "859": "rren",
    "860": "rga",
    "861": "rgan",
    "862": "the",
    "863": "ee",
    "864": "ee ",
    "865": "ja",
    "866": "jam",
    "867": "cc",
    "868": "ccu",
    "869": "orm",
    "870": "cep",
    "871": "cept",
    "872": "*T",
    "873": "pl",
    "874": " t",
    "875": " to",
    "876": "tz",
    "877": "He",
    "878": "ptu",
    "879": "ptur",
    "880": "pture",
    "881": "rl",
    "882": "lev",
    "883": "leve",
    "884": "level",
    "885": "t ",
    "886": "dam",
    "887": "dame",
    "888": "damen",
    "889": "nd",
    "890": "nda",
    "891": "ndar",
    "892": "ndard",
    "893": "ded",
    "894": "tat",
    "895": "tate",
    "896": "tates",
    "897": "div",
    "898": "divi",
    "899": "divid",
    "900": "dividu",
    "901": "Ju",
    "902": "eau",
    "903": "eaut",
    "904": "mm",
    "905": "mmo",
    "906": "mmon",
    "907": "3 n",
    "908": "3 nd",
    "909": "3 nda",
    "910": "3 ndas",
    "911": "lv",
    "912": "nan",
    "913": "till",
    "914": "ch ",
    "915": "h ",
    "916": "rit",
    "917": "-19",
    "918": " a",
    "919": " as",
    "920": "con",
    "921": "cond",
    "922": "arl",
    "923": "arli",
    "924": "arlia",
    "925": "arliam",
    "926": ") ",
    "927": ") /",
    "928": ") /t",
    "929": "mpl",
    "930": "rp",
    "931": "0 ",
    "932": "0 /",
    "933": "0 /t",
    "934": "ww",
    "935": "wer",
    "936": "were",
    "937": "ed",
    "938": "edo",
    "939": "edon",
    "940": "era",
    "941": "erag",
    "942": "B ",
    "943": "mma",
    "944": "mman",
    "945": "mmand",
    "946": "gar",
    "947": "gare",
    "948": "garet",
    "949": "so",
    "950": "soc",
    "951": "soci",
    "952": "socia",
    "953": "Co",
    "954": "ana",
    "955": "anad",
    "956": "thi",
    "957": "thin",
    "958": "thou",
    "959": "est",
    "960": "esti",
    "961": "estim",
    "962": "FG",
    "963": "FGC",
    "964": "ptis",
    "965": "0-",
    "966": "rito",
    "967": "a.",
    "968": "phe",
    "969": "phen",
    "970": ")*",
    "971": ")*1",
    "972": ")*19",
    "973": "alay",
    "974": "ort",
    "975": "dn",
    "976": "dne",
    "977": "dney",
    "978": "Wo",
    "979": "Wor",
    "980": "ien",
    "981": "iend",
    "982": " f",
    "983": " fi",
    "984": " fic",
    "985": " fict",
    "986": " ficti",
    "987": "yed",
    "988": "ling",
    "989": "Fr",
    "990": "Fra",
    "991": "Fran",
    "992": "plo",
    "993": "DN",
    "994": "DNA",
    "995": "ldi",
    "996": "ldie",
    "997": "ldier",
    "998": "dat",
    "999": "data",
    "1000": ".*",
    "1001": "ave ",
    "1002": "mon",
    "1003": "mong",
    "1004": "ile",
    "1005": "ile ",
    "1006": "are",
    "1007": "are ",
    "1008": "ei",
    "1009": "ein",
    "1010": "eing",
    "1011": "pla",
    "1012": "unci",
    "1013": "uncil",
    "1014": "wa",
    "1015": "war",
    "1016": "pm",
    "1017": "pme",
    "1018": "pmen",
    "1019": "now",
    "1020": "nown",
    "1021": "ray",
    "1022": "ley",
    "1023": "ir ",
    "1024": "mot",
    "1025": "adi",
    "1026": "adin",
    "1027": "(b",
    "1028": "(b.",
    "1029": "(b. ",
    "1030": "SV",
    "1031": "SVC",
    "1032": "bi",
    "1033": "bin",
    "1034": "nce",
    "1035": "nce ",
    "1036": "ish",
    "1037": "pha",
    "1038": "phan",
    "1039": "iz",
    "1040": "ize",
    "1041": "Yo",
    "1042": "You",
    "1043": "gg",
    "1044": "et ",
    "1045": "tim",
    "1046": "dy",
    "1047": "tha",
    "1048": "that",
    "1049": "sod",
    "1050": "ek",
    "1051": "ek ",
    "1052": "5 ",
    "1053": "5 n",
    "1054": "5 nd",
    "1055": "5 nda",
    "1056": "5 ndas",
    "1057": "ict",
    "1058": "le ",
    "1059": "inc",
    "1060": "incl",
    "1061": "inclu",
    "1062": "includ",
    "1063": "Wh",
    "1064": "uma",
    "1065": "uman",
    "1066": "erms",
    "1067": "gge",
    "1068": "gges",
    "1069": "ggest",
    "1070": "cif",
    "1071": "cifi",
    "1072": "tom",
    "1073": "IV",
    "1074": "rm",
    "1075": "rmi",
    "1076": "s ",
    "1077": "s o",
    "1078": "s of",
    "1079": "s of ",
    "1080": "cle",
    "1081": "bil",
    "1082": "bili",
    "1083": "dd",
    "1084": "dde",
    "1085": "dded",
    "1086": "th ",
    "1087": "re",
    "1088": "ren",
    "1089": "renc",
    "1090": "rench",
    "1091": "art",
    "1092": "arti",
    "1093": "vil",
    "1094": "vily",
    "1095": "am",
    "1096": "ame",
    "1097": "ames",
    "1098": "nen",
    "1099": "ow",
    "1100": "owe",
    "1101": "owed",
    "1102": "ic ",
    "1103": "Gr",
    "1104": "Gre",
    "1105": "of",
    "1106": "of-",
    "1107": "ru",
    "1108": "ngd",
    "1109": "ngdo",
    "1110": "mu",
    "1111": "mun",
    "1112": "muni",
    "1113": "ormo",
    "1114": "ormou",
    "1115": "ormous",
    "1116": "rin",
    "1117": "oh",
    "1118": "ohn",
    "1119": "bs",
    "1120": "bse",
    "1121": "bser",
    "1122": "bserv",
    "1123": "asp",
    "1124": "aspa",
    "1125": "aspar",
    "1126": "and",
    "1127": "ande",
    "1128": "ander",
    "1129": "oll",
    "1130": "ollo",
    "1131": "orth",
    "1132": "did",
    "1133": "com",
    "1134": "comp",
    "1135": "fo",
    "1136": "for",
    "1137": "ove",
    "1138": "ok",
    "1139": "oke",
    "1140": "ele",
    "1141": "/m",
    "1142": "/ma",
    "1143": "/mat",
    "1144": "ris",
    "1145": "izo",
    "1146": "izon",
    "1147": "BU",
    "1148": "ord",
    "1149": "orde",
    "1150": "order",
    "1151": "pr",
    "1152": "pre",
    "1153": "pres",
    "1154": "ik",
    "1155": "ike",
    "1156": "itc",
    "1157": "itch",
    "1158": "dit",
    "1159": "vio",
    "1160": "viol",
    "1161": "te",
    "1162": "ter",
    "1163": "tern",
    "1164": "us ",
    "1165": "Ye",
    "1166": "Yel",
    "1167": "Yelt",
    "1168": "cco",
    "1169": "ccor",
    "1170": "ccord",
    "1171": "sa",
    "1172": "sau",
    "1173": "saur",
    "1174": "ie ",
    "1175": "-ba",
    "1176": "tti",
    "1177": "ttin",
    "1178": "tting",
    "1179": "osi",
    "1180": "osit",
    "1181": "/r",
    "1182": "/re",
    "1183": "fu",
    "1184": "rde",
    "1185": "ero",
    "1186": "ett",
    "1187": "ette",
    "1188": "etter",
    "1189": "tro",
    "1190": "yo",
    "1191": "eg",
    "1192": "egi",
    "1193": "egin",
    "1194": "In",
    "1195": "Ind",
    "1196": "mag",
    "1197": "rrel",
    "1198": "tor",
    "1199": "nsi",
    "1200": "nsio",
    "1201": "nsion",
    "1202": "es,",
    "1203": "es, ",
    "1204": "ex",
    "1205": "ext",
    "1206": "ng ",
    "1207": "su",
    "1208": "sul",
    "1209": "sult",
    "1210": "uri",
    "1211": "urin",
    "1212": "uring",
    "1213": "vo",
    "1214": "von",
    "1215": "von ",
    "1216": "ua",
    "1217": "uar",
    "1218": "try",
    "1219": "pis",
    "1220": "piso",
    "1221": "pisod",
    "1222": "hl",
    "1223": "of ",
    "1224": "nge",
    "1225": "nger",
    "1226": "over",
    "1227": "overn",
    "1228": "rti",
    "1229": "rtil",
    "1230": "rtill",
    "1231": "bo",
    "1232": "bod",
    "1233": "uf",
    "1234": "uff",
    "1235": "uffm",
    "1236": "uffma",
    "1237": "exa",
    "1238": "exan",
    "1239": "exand",
    "1240": "bit",
    "1241": "way",
    "1242": "str",
    "1243": "stro",
    "1244": "DT",
    "1245": "DTD",
    "1246": "DTD ",
    "1247": "pa",
    "1248": "ss",
    "1249": "ssa",
    "1250": "ssay",
    "1251": "St",
    "1252": "Sta",
    "1253": "7)",
    "1254": "kr",
    "1255": "kra",
    "1256": "mi",
    "1257": "res",
    "1258": "log",
    "1259": "FS",
    "1260": "FSM",
    "1261": "umb",
    "1262": "sk",
    "1263": "ha",
    "1264": "has",
    "1265": "has ",
    "1266": "sid",
    "1267": "ib",
    "1268": "Fe",
    "1269": "Feb",
    "1270": "hm",
    "1271": "omm",
    "1272": "omma",
    "1273": "omman",
    "1274": "ommand",
    "1275": "les",
    "1276": "lest",
    "1277": "mac",
    "1278": "mach",
    "1279": "machi",
    "1280": "machin",
    "1281": "ag",
    "1282": "agb",
    "1283": "agba",
    "1284": "agbar",
    "1285": "rael",
    "1286": "be",
    "1287": "bel",
    "1288": "ore",
    "1289": "eog",
    "1290": "ome",
    "1291": "bal",
    "1292": "rie",
    "1293": "ries",
    "1294": "ub",
    "1295": "ubl",
    "1296": "uble",
    "1297": "ty",
    "1298": "ty ",
    "1299": "ah",
    "1300": "aha",
    "1301": "mou",
    "1302": "moun",
    "1303": "use",
    "1304": "uses",
    "1305": "uses ",
    "1306": "lis",
    "1307": "arc",
    "1308": "ca",
    "1309": "cag",
    "1310": "cago",
    "1311": "ger",
    "1312": "loo",
    "1313": "lood",
    "1314": "elf",
    "1315": "ura",
    "1316": "Ch",
    "1317": "Chi",
    "1318": "Chin",
    "1319": "ate",
    "1320": "ateg",
    "1321": "No",
    "1322": "Nob",
    "1323": "Nobe",
    "1324": "Nobel",
    "1325": "tain",
    "1326": "lb",
    "1327": "lba",
    "1328": "ich",
    "1329": "Sa",
    "1330": "Sal",
    "1331": "Salv",
    "1332": "Salva",
    "1333": "Salvad",
    "1334": "Salvado",
    "1335": "cat",
    "1336": "io ",
    "1337": "gua",
    "1338": "guag"
  },
  "merges": {
    "40,13": 92,
    "63,64": 93,
    "93,77": 94,
    "94,73": 95,
    "71,78": 96,
    "80,78": 97,
    "97,78": 98,
    "98,68": 99,
    "99,60": 100,
    "80,72": 101,
    "101,64": 102,
    "102,63": 103,
    "103,1": 104,
    "79,68": 105,
    "105,79": 106,
    "74,62": 107,
    "105,71": 108,
    "108,68": 109,
    "80,77": 110,
    "110,79": 111,
    "111,67": 112,
    "1,61": 113,
    "113,77": 114,
    "81,68": 115,
    "115,63": 116,
    "116,64": 117,
    "117,73": 118,
    "85,64": 119,
    "119,63": 120,
    "60,70": 121,
    "121,64": 122,
    "77,60": 123,
    "123,62": 124,
    "124,79": 125,
    "125,64": 126,
    "126,77": 127,
    "115,64": 128,
    "65,68": 129,
    "129,77": 130,
    "64,72": 131,
    "131,61": 132,
    "78,79": 133,
    "133,74": 134,
    "134,79": 135,
    "73,68": 136,
    "136,78": 137,
    "18,1": 138,
    "138,12": 139,
    "139,1": 140,
    "64,77": 141,
    "141,66": 142,
    "63,60": 143,
    "143,77": 144,
    "80,73": 145,
    "145,62": 146,
    "81,64": 147,
    "147,63": 148,
    "77,74": 149,
    "149,80": 150,
    "150,66": 151,
    "82,64": 152,
    "66,67": 153,
    "153,60": 154,
    "65,13": 155,
    "74,71": 156,
    "68,65": 157,
    "157,68": 158,
    "158,64": 159,
    "159,63": 160,
    "31,74": 161,
    "75,74": 162,
    "162,78": 163,
    "163,64": 164,
    "164,77": 165,
    "60,77": 166,
    "166,60": 167,
    "167,62": 168,
    "168,79": 169,
    "78,62": 170,
    "170,74": 171,
    "63,68": 172,
    "172,62": 173,
    "71,66": 174,
    "174,60": 175,
    "175,77": 176,
    "60,80": 177,
    "177,78": 178,
    "178,79": 179,
    "77,68": 180,
    "180,71": 181,
    "74,63": 182,
    "182,67": 183,
    "79,77": 184,
    "74,74": 185,
    "185,70": 186,
    "186,1": 187,
    "50,11": 188,
    "188,1": 189,
    "68,71": 190,
    "190,71": 191,
    "191,1": 192,
    "73,74": 193,
    "193,72": 194,
    "45,60": 195,
    "12,16": 196,
    "196,23": 197,
    "73,64": 198,
    "198,71": 199,
    "101,75": 200,
    "64,71": 201,
    "201,79": 202,
    "202,77": 203,
    "30,65": 204,
    "204,66": 205,
    "205,67": 206,
    "206,60": 207,
    "72,61": 208,
    "208,64": 209,
    "64,60": 210,
    "210,71": 211,
    "201,60": 212,
    "23,11": 213,
    "213,1": 214,
    "14,14": 215,
    "60,81": 216,
    "216,64": 217,
    "217,73": 218,
    "131,78": 219,
    "180,60": 220,
    "34,73": 221,
    "221,66": 222,
    "222,71": 223,
    "73,78": 224,
    "224,1": 225,
    "12,34": 226,
    "226,73": 227,
    "227,66": 228,
    "228,71": 229,
    "60,71": 230,
    "230,81": 231,
    "231,60": 232,
    "232,63": 233,
    "233,74": 234,
    "71,64": 235,
    "235,66": 236,
    "236,64": 237,
    "71,74": 238,
    "238,84": 239,
    "84,1": 240,
    "77,65": 241,
    "241,74": 242,
    "242,77": 243,
    "60,78": 244,
    "244,79": 245,
    "245,60": 246,
    "23,8": 247,
    "72,60": 248,
    "248,71": 249,
    "249,71": 250,
    "105,74": 251,
    "251,73": 252,
    "1,7": 253,
    "253,61": 254,
    "254,13": 255,
    "62,79": 256,
    "256,80": 257,
    "74,78": 258,
    "258,60": 259,
    "259,80": 260,
    "260,77": 261,
    "77,81": 262,
    "262,68": 263,
    "263,62": 264,
    "264,64": 265,
    "32,11": 266,
    "266,1": 267,
    "149,76": 268,
    "268,80": 269,
    "60,73": 270,
    "270,66": 271,
    "271,64": 272,
    "272,71": 273,
    "79,74": 274,
    "274,61": 275,
    "68,77": 276,
    "276,78": 277,
    "277,79": 278,
    "60,62": 279,
    "279,64": 280,
    "72,75": 281,
    "281,68": 282,
    "282,74": 283,
    "283,73": 284,
    "31,64": 285,
    "285,60": 286,
    "52,38": 287,
    "287,38": 288,
    "85,60": 289,
    "289,79": 290,
    "71,71": 291,
    "291,68": 292,
    "292,73": 293,
    "293,66": 294,
    "49,47": 295,
    "295,49": 296,
    "80,62": 297,
    "297,79": 298,
    "77,66": 299,
    "299,64": 300,
    "66,1": 301,
    "301,40": 302,
    "302,74": 303,
    "68,62": 304,
    "304,80": 305,
    "305,71": 306,
    "306,79": 307,
    "73,12": 308,
    "150,73": 309,
    "309,63": 310,
    "33,13": 311,
    "68,73": 312,
    "312,68": 313,
    "313,79": 314,
    "314,68": 315,
    "315,74": 316,
    "316,73": 317,
    "73,60": 318,
    "318,71": 319,
    "319,71": 320,
    "320,84": 321,
    "68,78": 322,
    "322,62": 323,
    "323,80": 324,
    "324,78": 325,
    "201,1": 326,
    "244,68": 327,
    "327,74": 328,
    "328,73": 329,
    "61,60": 330,
    "330,61": 331,
    "66,64": 332,
    "332,73": 333,
    "333,62": 334,
    "70,68": 335,
    "335,73": 336,
    "67,80": 337,
    "337,77": 338,
    "338,78": 339,
    "339,60": 340,
    "138,14": 341,
    "341,78": 342,
    "14,70": 343,
    "343,66": 344,
    "149,79": 345,
    "345,67": 346,
    "346,64": 347,
    "74,79": 348,
    "348,67": 349,
    "349,64": 350,
    "210,78": 351,
    "351,80": 352,
    "352,77": 353,
    "258,64": 354,
    "354,1": 355,
    "78,71": 356,
    "356,60": 357,
    "332,71": 358,
    "32,85": 359,
    "359,64": 360,
    "360,62": 361,
    "361,67": 362,
    "74,81": 363,
    "363,68": 364,
    "364,64": 365,
    "365,79": 366,
    "133,68": 367,
    "367,62": 368,
    "79,79": 369,
    "33,60": 370,
    "370,73": 371,
    "371,68": 372,
    "372,64": 373,
    "373,71": 374,
    "256,1": 375,
    "73,66": 376,
    "376,80": 377,
    "7,63": 378,
    "378,13": 379,
    "64,73": 380,
    "380,79": 381,
    "381,78": 382,
    "157,1": 383,
    "84,71": 384,
    "384,64": 385,
    "72,84": 386,
    "386,1": 387,
    "376,71": 388,
    "388,64": 389,
    "60,75": 390,
    "390,60": 391,
    "367,79": 392,
    "60,68": 393,
    "393,78": 394,
    "53,74": 395,
    "395,60": 396,
    "396,73": 397,
    "141,64": 398,
    "398,1": 399,
    "123,64": 400,
    "63,77": 401,
    "401,64": 402,
    "37,60": 403,
    "403,77": 404,
    "404,61": 405,
    "405,74": 406,
    "19,11": 407,
    "407,1": 408,
    "62,67": 409,
    "409,60": 410,
    "410,73": 411,
    "411,68": 412,
    "270,79": 413,
    "57,86": 414,
    "393,68": 415,
    "75,79": 416,
    "416,68": 417,
    "74,80": 418,
    "418,66": 419,
    "70,73": 420,
    "420,74": 421,
    "421,82": 422,
    "422,73": 423,
    "17,1": 424,
    "424,14": 425,
    "425,78": 426,
    "70,64": 427,
    "427,63": 428,
    "60,65": 429,
    "429,79": 430,
    "430,64": 431,
    "123,61": 432,
    "230,80": 433,
    "433,64": 434,
    "64,11": 435,
    "435,1": 436,
    "83,79": 437,
    "291,74": 438,
    "438,82": 439,
    "256,74": 440,
    "440,77": 441,
    "66,77": 442,
    "442,64": 443,
    "443,64": 444,
    "49,33": 445,
    "445,1": 446,
    "369,74": 447,
    "68,72": 448,
    "448,68": 449,
    "449,73": 450,
    "74,61": 451,
    "451,68": 452,
    "452,71": 453,
    "256,68": 454,
    "454,74": 455,
    "230,60": 456,
    "73,77": 457,
    "141,78": 458,
    "42,60": 459,
    "230,78": 460,
    "460,64": 461,
    "21,1": 462,
    "462,12": 463,
    "61,71": 464,
    "464,68": 465,
    "35,68": 466,
    "466,73": 467,
    "82,68": 468,
    "468,62": 469,
    "469,67": 470,
    "60,79": 471,
    "471,80": 472,
    "472,77": 473,
    "403,84": 474,
    "474,73": 475,
    "475,64": 476,
    "276,64": 477,
    "477,62": 478,
    "478,79": 479,
    "416,64": 480,
    "480,72": 481,
    "481,61": 482,
    "12,78": 483,
    "483,75": 484,
    "484,64": 485,
    "11,25": 486,
    "71,68": 487,
    "487,79": 488,
    "488,68": 489,
    "85,68": 490,
    "71,60": 491,
    "491,67": 492,
    "492,74": 493,
    "72,74": 494,
    "494,62": 495,
    "495,77": 496,
    "230,64": 497,
    "471,78": 498,
    "498,74": 499,
    "499,73": 500,
    "190,63": 501,
    "64,61": 502,
    "502,60": 503,
    "51,64": 504,
    "504,63": 505,
    "505,60": 506,
    "48,74": 507,
    "507,80": 508,
    "508,79": 509,
    "509,67": 510,
    "62,74": 511,
    "511,1": 512,
    "83,64": 513,
    "73,62": 514,
    "514,67": 515,
    "82,67": 516,
    "516,74": 517,
    "517,1": 518,
    "348,64": 519,
    "519,77": 520,
    "78,68": 521,
    "521,79": 522,
    "74,73": 523,
    "523,68": 524,
    "524,62": 525,
    "36,74": 526,
    "526,79": 527,
    "527,67": 528,
    "410,77": 529,
    "529,60": 530,
    "530,62": 531,
    "531,79": 532,
    "65,77": 533,
    "533,68": 534,
    "534,62": 535,
    "535,60": 536,
    "30,72": 537,
    "537,64": 538,
    "538,77": 539,
    "539,68": 540,
    "64,62": 541,
    "541,67": 542,
    "14,78": 543,
    "61,77": 544,
    "544,64": 545,
    "545,81": 546,
    "84,62": 547,
    "547,67": 548,
    "80,71": 549,
    "73,71": 550,
    "550,84": 551,
    "1,82": 552,
    "552,68": 553,
    "553,79": 554,
    "554,67": 555,
    "210,72": 556,
    "471,68": 557,
    "557,74": 558,
    "558,73": 559,
    "147,77": 560,
    "560,84": 561,
    "561,1": 562,
    "62,71": 563,
    "563,68": 564,
    "564,73": 565,
    "78,64": 566,
    "566,71": 567,
    "567,65": 568,
    "72,64": 569,
    "569,77": 570,
    "570,68": 571,
    "68,79": 572,
    "572,67": 573,
    "573,64": 574,
    "75,1": 575,
    "575,74": 576,
    "576,65": 577,
    "577,1": 578,
    "511,71": 579,
    "579,73": 580,
    "84,73": 581,
    "572,1": 582,
    "424,12": 583,
    "258,71": 584,
    "75,67": 585,
    "585,74": 586,
    "541,79": 587,
    "180,62": 588,
    "588,79": 589,
    "47,36": 590,
    "590,31": 591,
    "123,73": 592,
    "77,78": 593,
    "593,68": 594,
    "594,74": 595,
    "595,73": 596,
    "129,73": 597,
    "149,63": 598,
    "149,75": 599,
    "599,64": 600,
    "123,79": 601,
    "601,64": 602,
    "448,75": 603,
    "603,74": 604,
    "604,77": 605,
    "605,79": 606,
    "47,44": 607,
    "607,42": 608,
    "63,80": 609,
    "609,62": 610,
    "12,61": 611,
    "611,74": 612,
    "34,1": 613,
    "613,61": 614,
    "614,77": 615,
    "201,75": 616,
    "616,1": 617,
    "291,64": 618,
    "618,63": 619,
    "74,66": 620,
    "620,68": 621,
    "621,62": 622,
    "48,64": 623,
    "623,62": 624,
    "624,74": 625,
    "625,73": 626,
    "626,63": 627,
    "79,80": 628,
    "628,60": 629,
    "629,71": 630,
    "149,81": 631,
    "631,64": 632,
    "40,64": 633,
    "633,79": 634,
    "634,67": 635,
    "635,80": 636,
    "153,61": 637,
    "66,80": 638,
    "638,64": 639,
    "141,62": 640,
    "417,63": 641,
    "79,67": 642,
    "642,74": 643,
    "643,71": 644,
    "644,68": 645,
    "64,79": 646,
    "646,67": 647,
    "74,77": 648,
    "648,75": 649,
    "649,74": 650,
    "650,77": 651,
    "651,60": 652,
    "468,63": 653,
    "653,79": 654,
    "654,67": 655,
    "32,8": 656,
    "145,63": 657,
    "494,78": 658,
    "149,72": 659,
    "659,1": 660,
    "75,64": 661,
    "661,64": 662,
    "662,63": 663,
    "102,73": 664,
    "664,68": 665,
    "665,62": 666,
    "23,1": 667,
    "667,12": 668,
    "489,74": 669,
    "68,60": 670,
    "670,73": 671,
    "322,64": 672,
    "672,73": 673,
    "673,67": 674,
    "674,74": 675,
    "60,63": 676,
    "676,60": 677,
    "677,84": 678,
    "77,9": 679,
    "71,63": 680,
    "680,77": 681,
    "681,64": 682,
    "80,75": 683,
    "683,78": 684,
    "238,81": 685,
    "230,1": 686,
    "77,63": 687,
    "687,1": 688,
    "64,82": 689,
    "77,77": 690,
    "690,84": 691,
    "105,81": 692,
    "210,77": 693,
    "693,62": 694,
    "60,61": 695,
    "695,74": 696,
    "696,77": 697,
    "66,71": 698,
    "698,74": 699,
    "699,61": 700,
    "700,60": 701,
    "701,71": 702,
    "244,1": 703,
    "80,68": 704,
    "79,60": 705,
    "705,68": 706,
    "706,71": 707,
    "145,79": 708,
    "708,77": 709,
    "687,82": 710,
    "710,60": 711,
    "711,77": 712,
    "712,64": 713,
    "252,60": 714,
    "198,79": 715,
    "715,64": 716,
    "716,64": 717,
    "238,62": 718,
    "718,70": 719,
    "9,34": 720,
    "238,77": 721,
    "34,60": 722,
    "67,64": 723,
    "723,62": 724,
    "724,67": 725,
    "19,8": 726,
    "726,9": 727,
    "61,80": 728,
    "73,79": 729,
    "729,84": 730,
    "133,64": 731,
    "363,60": 732,
    "62,68": 733,
    "733,64": 734,
    "71,80": 735,
    "735,78": 736,
    "736,68": 737,
    "572,68": 738,
    "738,78": 739,
    "62,77": 740,
    "740,64": 741,
    "741,64": 742,
    "742,73": 743,
    "692,64": 744,
    "136,61": 745,
    "64,74": 746,
    "746,75": 747,
    "747,71": 748,
    "748,64": 749,
    "66,74": 750,
    "750,73": 751,
    "68,63": 752,
    "752,64": 753,
    "77,61": 754,
    "754,74": 755,
    "755,73": 756,
    "81,60": 757,
    "690,68": 758,
    "758,64": 759,
    "759,63": 760,
    "11,15": 761,
    "761,15": 762,
    "487,73": 763,
    "763,74": 764,
    "74,72": 765,
    "765,60": 766,
    "766,68": 767,
    "767,73": 768,
    "42,68": 769,
    "769,73": 770,
    "770,68": 771,
    "771,78": 772,
    "772,79": 773,
    "511,80": 774,
    "64,78": 775,
    "775,80": 776,
    "776,78": 777,
    "68,74": 778,
    "778,73": 779,
    "68,64": 780,
    "780,62": 781,
    "781,64": 782,
    "431,77": 783,
    "78,75": 784,
    "784,64": 785,
    "785,62": 786,
    "786,79": 787,
    "69,80": 788,
    "788,77": 789,
    "93,73": 790,
    "790,79": 791,
    "497,62": 792,
    "792,79": 793,
    "84,64": 794,
    "794,79": 795,
    "136,81": 796,
    "348,78": 797,
    "797,82": 798,
    "798,60": 799,
    "49,51": 800,
    "800,1": 801,
    "318,77": 802,
    "802,62": 803,
    "62,64": 804,
    "804,78": 805,
    "805,78": 806,
    "491,68": 807,
    "807,72": 808,
    "671,64": 809,
    "809,79": 810,
    "418,81": 811,
    "811,64": 812,
    "71,84": 813,
    "813,73": 814,
    "72,9": 815,
    "63,74": 816,
    "816,75": 817,
    "817,67": 818,
    "19,12": 819,
    "819,84": 820,
    "820,64": 821,
    "821,60": 822,
    "822,77": 823,
    "141,72": 824,
    "824,60": 825,
    "77,79": 826,
    "826,64": 827,
    "827,63": 828,
    "68,8": 829,
    "695,71": 830,
    "830,64": 831,
    "50,73": 832,
    "80,79": 833,
    "833,71": 834,
    "834,64": 835,
    "30,71": 836,
    "75,68": 837,
    "837,63": 838,
    "13,8": 839,
    "50,13": 840,
    "840,48": 841,
    "841,13": 842,
    "163,79": 843,
    "66,60": 844,
    "844,68": 845,
    "845,73": 846,
    "618,84": 847,
    "61,61": 848,
    "848,68": 849,
    "487,66": 850,
    "850,73": 851,
    "136,73": 852,
    "852,66": 853,
    "619,1": 854,
    "61,84": 855,
    "855,79": 856,
    "123,77": 857,
    "690,64": 858,
    "858,73": 859,
    "299,60": 860,
    "860,73": 861,
    "642,64": 862,
    "64,64": 863,
    "863,1": 864,
    "69,60": 865,
    "865,72": 866,
    "62,62": 867,
    "867,80": 868,
    "648,72": 869,
    "804,75": 870,
    "870,79": 871,
    "9,49": 872,
    "75,71": 873,
    "1,79": 874,
    "874,74": 875,
    "79,85": 876,
    "37,64": 877,
    "416,80": 878,
    "878,77": 879,
    "879,64": 880,
    "77,71": 881,
    "235,81": 882,
    "882,64": 883,
    "883,71": 884,
    "79,1": 885,
    "143,72": 886,
    "886,64": 887,
    "887,73": 888,
    "73,63": 889,
    "889,60": 890,
    "890,77": 891,
    "891,63": 892,
    "93,63": 893,
    "705,79": 894,
    "894,64": 895,
    "895,78": 896,
    "172,81": 897,
    "897,68": 898,
    "898,63": 899,
    "899,80": 900,
    "39,80": 901,
    "210,80": 902,
    "902,79": 903,
    "72,72": 904,
    "904,74": 905,
    "905,73": 906,
    "138,73": 907,
    "907,63": 908,
    "908,60": 909,
    "909,78": 910,
    "71,81": 911,
    "318,73": 912,
    "108,71": 913,
    "409,1": 914,
    "67,1": 915,
    "180,79": 916,
    "196,24": 917,
    "1,60": 918,
    "918,78": 919,
    "511,73": 920,
    "920,63": 921,
    "166,71": 922,
    "922,68": 923,
    "923,60": 924,
    "924,72": 925,
    "8,1": 926,
    "926,14": 927,
    "927,79": 928,
    "281,71": 929,
    "77,75": 930,
    "15,1": 931,
    "931,14": 932,
    "932,79": 933,
    "82,82": 934,
    "152,77": 935,
    "935,64": 936,
    "64,63": 937,
    "937,74": 938,
    "938,73": 939,
    "141,60": 940,
    "940,66": 941,
    "31,1": 942,
    "904,60": 943,
    "943,73": 944,
    "944,63": 945,
    "844,77": 946,
    "946,64": 947,
    "947,79": 948,
    "78,74": 949,
    "949,62": 950,
    "950,68": 951,
    "951,60": 952,
    "32,74": 953,
    "270,60": 954,
    "954,63": 955,
    "642,68": 956,
    "956,73": 957,
    "643,80": 958,
    "775,79": 959,
    "959,68": 960,
    "960,72": 961,
    "35,36": 962,
    "962,32": 963,
    "417,78": 964,
    "15,12": 965,
    "916,74": 966,
    "60,13": 967,
    "585,64": 968,
    "968,73": 969,
    "8,9": 970,
    "970,16": 971,
    "971,24": 972,
    "456,84": 973,
    "648,79": 974,
    "63,73": 975,
    "975,64": 976,
    "976,84": 977,
    "52,74": 978,
    "978,77": 979,
    "780,73": 980,
    "980,63": 981,
    "1,65": 982,
    "982,68": 983,
    "983,62": 984,
    "984,79": 985,
    "985,68": 986,
    "794,63": 987,
    "763,66": 988,
    "35,77": 989,
    "989,60": 990,
    "990,73": 991,
    "873,74": 992,
    "33,43": 993,
    "993,30": 994,
    "680,68": 995,
    "995,64": 996,
    "996,77": 997,
    "143,79": 998,
    "998,60": 999,
    "13,9": 1000,
    "217,1": 1001,
    "494,73": 1002,
    "1002,66": 1003,
    "190,64": 1004,
    "1004,1": 1005,
    "166,64": 1006,
    "1006,1": 1007,
    "64,68": 1008,
    "1008,73": 1009,
    "1009,66": 1010,
    "873,60": 1011,
    "146,68": 1012,
    "1012,71": 1013,
    "82,60": 1014,
    "1014,77": 1015,
    "75,72": 1016,
    "1016,64": 1017,
    "1017,73": 1018,
    "193,82": 1019,
    "1019,73": 1020,
    "123,84": 1021,
    "235,84": 1022,
    "276,1": 1023,
    "494,79": 1024,
    "676,68": 1025,
    "1025,73": 1026,
    "7,61": 1027,
    "1027,13": 1028,
    "1028,1": 1029,
    "48,51": 1030,
    "1030,32": 1031,
    "61,68": 1032,
    "1032,73": 1033,
    "514,64": 1034,
    "1034,1": 1035,
    "322,67": 1036,
    "585,60": 1037,
    "1037,73": 1038,
    "68,85": 1039,
    "1039,64": 1040,
    "54,74": 1041,
    "1041,80": 1042,
    "66,66": 1043,
    "646,1": 1044,
    "105,72": 1045,
    "63,84": 1046,
    "642,60": 1047,
    "1047,79": 1048,
    "949,63": 1049,
    "64,70": 1050,
    "1050,1": 1051,
    "20,1": 1052,
    "1052,73": 1053,
    "1053,63": 1054,
    "1054,60": 1055,
    "1055,78": 1056,
    "304,79": 1057,
    "235,1": 1058,
    "312,62": 1059,
    "1059,71": 1060,
    "1060,80": 1061,
    "1061,63": 1062,
    "52,67": 1063,
    "101,60": 1064,
    "1064,73": 1065,
    "824,78": 1066,
    "1043,64": 1067,
    "1067,78": 1068,
    "1068,79": 1069,
    "733,65": 1070,
    "1070,68": 1071,
    "274,72": 1072,
    "38,51": 1073,
    "77,72": 1074,
    "1074,68": 1075,
    "78,1": 1076,
    "1076,74": 1077,
    "1077,65": 1078,
    "1078,1": 1079,
    "563,64": 1080,
    "1032,71": 1081,
    "1081,68": 1082,
    "63,63": 1083,
    "1083,64": 1084,
    "1084,63": 1085,
    "642,1": 1086,
    "77,64": 1087,
    "1087,73": 1088,
    "1088,62": 1089,
    "1089,67": 1090,
    "166,79": 1091,
    "1091,68": 1092,
    "115,71": 1093,
    "1093,84": 1094,
    "60,72": 1095,
    "1095,64": 1096,
    "1096,78": 1097,
    "198,73": 1098,
    "74,82": 1099,
    "1099,64": 1100,
    "1100,63": 1101,
    "304,1": 1102,
    "36,77": 1103,
    "1103,64": 1104,
    "74,65": 1105,
    "1105,12": 1106,
    "77,80": 1107,
    "376,63": 1108,
    "1108,74": 1109,
    "72,80": 1110,
    "1110,73": 1111,
    "1111,68": 1112,
    "869,74": 1113,
    "1113,80": 1114,
    "1114,78": 1115,
    "180,73": 1116,
    "74,67": 1117,
    "1117,73": 1118,
    "61,78": 1119,
    "1119,64": 1120,
    "1120,77": 1121,
    "1121,81": 1122,
    "244,75": 1123,
    "1123,60": 1124,
    "1124,77": 1125,
    "270,63": 1126,
    "1126,64": 1127,
    "1127,77": 1128,
    "156,71": 1129,
    "1129,74": 1130,
    "974,67": 1131,
    "172,63": 1132,
    "511,72": 1133,
    "1133,75": 1134,
    "65,74": 1135,
    "1135,77": 1136,
    "363,64": 1137,
    "74,70": 1138,
    "1138,64": 1139,
    "201,64": 1140,
    "14,72": 1141,
    "1141,60": 1142,
    "1142,79": 1143,
    "180,78": 1144,
    "1039,74": 1145,
    "1145,73": 1146,
    "31,50": 1147,
    "648,63": 1148,
    "1148,64": 1149,
    "1149,77": 1150,
    "75,77": 1151,
    "1151,64": 1152,
    "1152,78": 1153,
    "68,70": 1154,
    "1154,64": 1155,
    "572,62": 1156,
    "1156,67": 1157,
    "172,79": 1158,
    "115,74": 1159,
    "1159,71": 1160,
    "79,64": 1161,
    "1161,77": 1162,
    "1162,73": 1163,
    "97,1": 1164,
    "54,64": 1165,
    "1165,71": 1166,
    "1166,79": 1167,
    "867,74": 1168,
    "1168,77": 1169,
    "1169,63": 1170,
    "78,60": 1171,
    "1171,80": 1172,
    "1172,77": 1173,
    "780,1": 1174,
    "611,60": 1175,
    "369,68": 1176,
    "1176,73": 1177,
    "1177,66": 1178,
    "258,68": 1179,
    "1179,79": 1180,
    "14,77": 1181,
    "1181,64": 1182,
    "65,80": 1183,
    "687,64": 1184,
    "141,74": 1185,
    "646,79": 1186,
    "1186,64": 1187,
    "1187,77": 1188,
    "184,74": 1189,
    "84,74": 1190,
    "64,66": 1191,
    "1191,68": 1192,
    "1192,73": 1193,
    "38,73": 1194,
    "1194,63": 1195,
    "248,66": 1196,
    "858,71": 1197,
    "274,77": 1198,
    "224,68": 1199,
    "1199,74": 1200,
    "1200,73": 1201,
    "775,11": 1202,
    "1202,1": 1203,
    "64,83": 1204,
    "1204,79": 1205,
    "376,1": 1206,
    "78,80": 1207,
    "1207,71": 1208,
    "1208,79": 1209,
    "110,68": 1210,
    "1210,73": 1211,
    "1211,66": 1212,
    "81,74": 1213,
    "1213,73": 1214,
    "1214,1": 1215,
    "80,60": 1216,
    "1216,77": 1217,
    "184,84": 1218,
    "837,78": 1219,
    "1219,74": 1220,
    "1220,63": 1221,
    "67,71": 1222,
    "1105,1": 1223,
    "376,64": 1224,
    "1224,77": 1225,
    "1137,77": 1226,
    "1226,73": 1227,
    "826,68": 1228,
    "1228,71": 1229,
    "1229,71": 1230,
    "61,74": 1231,
    "1231,63": 1232,
    "80,65": 1233,
    "1233,65": 1234,
    "1234,72": 1235,
    "1235,60": 1236,
    "1204,60": 1237,
    "1237,73": 1238,
    "1238,63": 1239,
    "1032,79": 1240,
    "1014,84": 1241,
    "133,77": 1242,
    "1242,74": 1243,
    "33,49": 1244,
    "1244,33": 1245,
    "1245,1": 1246,
    "75,60": 1247,
    "78,78": 1248,
    "1248,60": 1249,
    "1249,84": 1250,
    "48,79": 1251,
    "1251,60": 1252,
    "22,8": 1253,
    "70,77": 1254,
    "1254,60": 1255,
    "72,68": 1256,
    "1087,78": 1257,
    "238,66": 1258,
    "35,48": 1259,
    "1259,42": 1260,
    "101,61": 1261,
    "78,70": 1262,
    "67,60": 1263,
    "1263,78": 1264,
    "1264,1": 1265,
    "521,63": 1266,
    "68,61": 1267,
    "35,64": 1268,
    "1268,61": 1269,
    "67,72": 1270,
    "765,72": 1271,
    "1271,60": 1272,
    "1272,73": 1273,
    "1273,63": 1274,
    "235,78": 1275,
    "1275,79": 1276,
    "248,62": 1277,
    "1277,67": 1278,
    "1278,68": 1279,
    "1279,73": 1280,
    "60,66": 1281,
    "1281,61": 1282,
    "1282,60": 1283,
    "1283,77": 1284,
    "400,71": 1285,
    "61,64": 1286,
    "1286,71": 1287,
    "648,64": 1288,
    "746,66": 1289,
    "765,64": 1290,
    "330,71": 1291,
    "180,64": 1292,
    "1292,78": 1293,
    "80,61": 1294,
    "1294,71": 1295,
    "1295,64": 1296,
    "79,84": 1297,
    "1297,1": 1298,
    "60,67": 1299,
    "1299,60": 1300,
    "494,80": 1301,
    "1301,73": 1302,
    "97,64": 1303,
    "1303,78": 1304,
    "1304,1": 1305,
    "487,78": 1306,
    "166,62": 1307,
    "62,60": 1308,
    "1308,66": 1309,
    "1309,74": 1310,
    "332,77": 1311,
    "238,74": 1312,
    "1312,63": 1313,
    "201,65": 1314,
    "110,60": 1315,
    "32,67": 1316,
    "1316,68": 1317,
    "1317,73": 1318,
    "471,64": 1319,
    "1319,66": 1320,
    "43,74": 1321,
    "1321,61": 1322,
    "1322,64": 1323,
    "1323,71": 1324,
    "706,73": 1325,
    "71,61": 1326,
    "1326,60": 1327,
    "304,67": 1328,
    "48,60": 1329,
    "1329,71": 1330,
    "1330,81": 1331,
    "1331,60": 1332,
    "1332,63": 1333,
    "1333,74": 1334,
    "1308,79": 1335,
    "778,1": 1336,
    "638,60": 1337,
    "1337,66": 1338
  },
  "next_id": 1339
}