{
  "id2token": {
    "0": "\n",
    "1": " ",
    "2": "!",
    "3": "#",
    "4": "$",
    "5": "%",
    "6": "'",
    "7": "(",
    "8": ")",
    "9": "*",
    "10": "+",
    "11": ",",
    "12": "-",
    "13": ".",
    "14": "/",
    "15": "0",
    "16": "1",
    "17": "2",
    "18": "3",
    "19": "4",
    "20": "5",
    "21": "6",
    "22": "7",
    "23": "8",
    "24": "9",
    "25": ":",
    "26": ";",
    "27": "=",
    "28": "?",
    "29": "@",
    "30": "A",
    "31": "B",
    "32": "C",
    "33": "D",
    "34": "E",
    "35": "F",
    "36": "G",
    "37": "H",
    "38": "I",
    "39": "J",
    "40": "K",
    "41": "L",
    "42": "M",
    "43": "N",
    "44": "O",
    "45": "P",
    "46": "Q",
    "47": "R",
    "48": "S",
    "49": "T",
    "50": "U",
    "51": "V",
    "52": "W",
    "53": "X",
    "54": "Y",
    "55": "Z",
    "56": "\\",
    "57": "^",
    "58": "_",
    "59": "`",
    "60": "a",
    "61": "b",
    "62": "c",
    "63": "d",
    "64": "e",
    "65": "f",
    "66": "g",
    "67": "h",
    "68": "i",
    "69": "j",
    "70": "k",
    "71": "l",
    "72": "m",
    "73": "n",
    "74": "o",
    "75": "p",
    "76": "q",
    "77": "r",
    "78": "s",
    "79": "t",
    "80": "u",
    "81": "v",
    "82": "w",
    "83": "x",
    "84": "y",
    "85": "z",
    "86": "{",
    "87": "|",
    "88": "}",
    "89": "~",
    "90": "<|endoftext|>",
    "91": "<pad>",
    "92": "li",
    "93": "lie",
    "94": "ik",
    "95": "ike",
    "96": "Ro",
    "97": "Rom",
    "98": "us",
    "99": "usc",
    "100": "uscu",
    "101": "uscul",
    "102": "pa",
    "103": "pai",
    "104": "pain",
    "105": "id",
    "106": "ida",
    "107": "iday",
    "108": ".*",
    "109": "ol",
    "110": "olu",
    "111": "olut",
    "112": "ue",
    "113": "ue ",
    "114": "ge",
    "115": "get",
    "116": "geta",
    "117": "me",
    "118": "op",
    "119": "opp",
    "120": "oppe",
    "121": "opped",
    "122": "OG",
    "123": "OGI",
    "124": "st",
    "125": "sto",
    "126": "ta",
    "127": "tai",
    "128": "ve",
    "129": "vel",
    "130": "9,",
    "131": "ow",
    "132": "owe",
    "133": "owev",
    "134": "9 ",
    "135": "ca",
    "136": "can",
    "137": "ym",
    "138": "ymp",
    "139": "ry",
    "140": "ry ",
    "141": "gl",
    "142": "ur",
    "143": "uri",
    "144": "urin",
    "145": "r.",
    "146": "r. ",
    "147": "va",
    "148": "kn",
    "149": "kno",
    "150": "know",
    "151": "un",
    "152": "und",
    "153": "ec",
    "154": "eco",
    "155": "no",
    "156": "not",
    "157": "au",
    "158": "aul",
    "159": "ek",
    "160": ";1",
    "161": "ys",
    "162": "ysi",
    "163": "ysis",
    "164": "ha",
    "165": "han",
    "166": "han ",
    "167": "uc",
    "168": "Ho",
    "169": "Hon",
    "170": "Hong",
    "171": "il",
    "172": "ily",
    "173": "usa",
    "174": "usad",
    "175": "by",
    "176": "gg",
    "177": "gge",
    "178": "gges",
    "179": "ggest",
    "180": "re",
    "181": "red",
    "182": "we",
    "183": "wes",
    "184": "west",
    "185": "da",
    "186": "day",
    "187": " t",
    "188": " th",
    "189": " tha",
    "190": " that",
    "191": "sy",
    "192": "sys",
    "193": "syst",
    "194": "ic",
    "195": "ica",
    "196": "ican",
    "197": "on",
    "198": "oni",
    "199": "onia",
    "200": "mi",
    "201": "min",
    "202": "ig",
    "203": "igr",
    "204": "de",
    "205": "der",
    "206": "deri",
    "207": "tat",
    "208": "tati",
    "209": "gs",
    "210": "eg",
    "211": "ego",
    "212": "egon",
    "213": " o",
    "214": " of",
    "215": " of ",
    "216": "D ",
    "217": "D -",
    "218": "D --",
    "219": "ti",
    "220": "til",
    "221": "till",
    "222": "al",
    "223": "alo",
    "224": "ree",
    "225": "ree ",
    "226": "ga",
    "227": "gam",
    "228": "lo",
    "229": "loc",
    "230": "loci",
    "231": "th",
    "232": "tha",
    "233": "than",
    "234": "1 ",
    "235": "ea",
    "236": "ean",
    "237": "eans",
    "238": "eans ",
    "239": "uch",
    "240": "uch ",
    "241": "uch a",
    "242": "uch as",
    "243": "use",
    "244": "pu",
    "245": "pub",
    "246": "vo",
    "247": "thi",
    "248": "thin",
    "249": "am",
    "250": "amm",
    "251": "rem",
    "252": "tab",
    "253": "tabl",
    "254": "table",
    "255": "it",
    "256": "itu",
    "257": "ch",
    "258": "vi",
    "259": "vis",
    "260": "visi",
    "261": "re ",
    "262": "ed",
    "263": "ed ",
    "264": "wr",
    "265": "Co",
    "266": "Cor",
    "267": "Cort",
    "268": "Sp",
    "269": "Spa",
    "270": "be",
    "271": "bel",
    "272": "beli",
    "273": "belie",
    "274": "ower",
    "275": "er",
    "276": "eri",
    "277": "erio",
    "278": "eriod",
    "279": "vil",
    "280": "vily",
    "281": "hh",
    "282": "hhh",
    "283": "is",
    "284": "isa",
    "285": "isam",
    "286": "isamb",
    "287": "nn",
    "288": "nni",
    "289": "nnis",
    "290": "wo",
    "291": "yi",
    "292": "yin",
    "293": "el",
    "294": "eld",
    "295": "an",
    "296": "anc",
    "297": "opo",
    "298": "bu",
    "299": "na",
    "300": "nat",
    "301": "era",
    "302": "sk",
    "303": "skr",
    "304": "skri",
    "305": "ma",
    "306": "mag",
    "307": "ra",
    "308": "ras",
    "309": "ke",
    "310": "ker",
    "311": "ne",
    "312": "neg",
    "313": "negi",
    "314": "6,",
    "315": "6, ",
    "316": "if",
    "317": "ifi",
    "318": "ific",
    "319": "ot",
    "320": "otb",
    "321": "otba",
    "322": "otbal",
    "323": "otball",
    "324": "Bo",
    "325": "Bow",
    "326": "Bowl",
    "327": "wa",
    "328": "as",
    "329": "as ",
    "330": "cha",
    "331": "chan",
    "332": "chani",
    "333": "ad",
    "334": "add",
    "335": "tic",
    "336": "oo",
    "337": "oop",
    "338": "sh",
    "339": "to",
    "340": "tok",
    "341": "toku",
    "342": "tr",
    "343": "tra",
    "344": "tras",
    "345": "trast",
    "346": "ont",
    "347": "onth",
    "348": "tt",
    "349": "tte",
    "350": "tter",
    "351": "Th",
    "352": "e ",
    "353": "om",
    "354": "oma",
    "355": "oman",
    "356": "rt",
    "357": "rte",
    "358": "ov",
    "359": "ove",
    "360": "ovem",
    "361": "oveme",
    "362": "ovemen",
    "363": "ild",
    "364": "or",
    "365": "ork",
    "366": "thm",
    "367": "omp",
    "368": "pi",
    "369": "pir",
    "370": "ela",
    "371": "elan",
    "372": "om ",
    "373": "pe",
    "374": "per",
    "375": "peri",
    "376": "iv",
    "377": "ive",
    "378": "wi",
    "379": "wit",
    "380": "with",
    "381": "dr",
    "382": "rr",
    "383": "rre",
    "384": "rren",
    "385": "ang",
    "386": "su",
    "387": "suc",
    "388": "such",
    "389": "'s",
    "390": "'s ",
    "391": "tc",
    "392": "tch",
    "393": "eland",
    "394": "ty",
    "395": "ty ",
    "396": "do",
    "397": "dow",
    "398": "down",
    "399": "and",
    "400": "and ",
    "401": "rv",
    "402": "rve",
    "403": "ite",
    "404": "ited",
    "405": "so",
    "406": "tu",
    "407": "tua",
    "408": "ri",
    "409": "rie",
    "410": "ries",
    "411": "nea",
    "412": "ei",
    "413": "ein",
    "414": "eing",
    "415": "ce",
    "416": "ce ",
    "417": "ps",
    "418": "si",
    "419": "sib",
    "420": "sibl",
    "421": "ped",
    "422": "pedi",
    "423": "pedia",
    "424": "aq",
    "425": "Go",
    "426": "Gos",
    "427": "Gosp",
    "428": "ro",
    "429": "rom",
    "430": "3 ",
    "431": "3 /",
    "432": "3 /s",
    "433": "3 /su",
    "434": "po",
    "435": "por",
    "436": "port",
    "437": "mb",
    "438": "mbi",
    "439": "mbig",
    "440": "mbigu",
    "441": "Sy",
    "442": "Sys",
    "443": "Syst",
    "444": "igi",
    "445": "igin",
    "446": "ves",
    "447": "NO",
    "448": "ba",
    "449": "bal",
    "450": "Me",
    "451": "Mex",
    "452": "Mexi",
    "453": "Mexic",
    "454": "ju",
    "455": "jur",
    "456": "A,",
    "457": "A, ",
    "458": "sta",
    "459": "go",
    "460": "gol",
    "461": "ast",
    "462": "asta",
    "463": "um",
    "464": "ume",
    "465": "urc",
    "466": "urce",
    "467": " I",
    "468": "nd",
    "469": "ndo",
    "470": "rou",
    "471": "roug",
    "472": "lt",
    "473": "aug",
    "474": "pos",
    "475": "ka",
    "476": "onl",
    "477": "only",
    "478": "nu",
    "479": "num",
    "480": "numb",
    "481": "numbe",
    "482": "ir",
    "483": "ir ",
    "484": "rit",
    "485": "ar",
    "486": "ng",
    "487": "nge",
    "488": "Ma",
    "489": "Mar",
    "490": "Ir",
    "491": "Ira",
    "492": "FM",
    "493": "FMD",
    "494": "NE",
    "495": "orr",
    "496": "orro",
    "497": "orror",
    "498": "eo",
    "499": "ct",
    "500": "cto",
    "501": "ctob",
    "502": "z ",
    "503": "st ",
    "504": "st o",
    "505": "st of",
    "506": "st of ",
    "507": "fo",
    "508": "for",
    "509": "for ",
    "510": "fi",
    "511": "fin",
    "512": "( ",
    "513": "rito",
    "514": "ritor",
    "515": "/t",
    "516": "gag",
    "517": "pan",
    "518": "ven",
    "519": "rd",
    "520": "ie",
    "521": "ck",
    "522": "sul",
    "523": "sult",
    "524": "ob",
    "525": "obj",
    "526": "obje",
    "527": "objec",
    "528": "co",
    "529": "con",
    "530": "cons",
    "531": "const",
    "532": "Te",
    "533": "Ten",
    "534": "Tenn",
    "535": "low",
    "536": "lowa",
    "537": "lowan",
    "538": "lowanc",
    "539": "Am",
    "540": "Ame",
    "541": "Amer",
    "542": "Ameri",
    "543": "that",
    "544": "iew",
    "545": "up",
    "546": "gi",
    "547": "git",
    "548": "le",
    "549": "let",
    "550": "za",
    "551": "zat",
    "552": "rc",
    "553": "rce",
    "554": "ho",
    "555": "hou",
    "556": "hour",
    "557": "hours",
    "558": "ust",
    "559": "ust ",
    "560": "ip",
    "561": "orl",
    "562": "orld",
    "563": "Bor",
    "564": "hab",
    "565": "habi",
    "566": "habit",
    "567": "ag",
    "568": "age",
    "569": "cu",
    "570": "cut",
    "571": "mo",
    "572": "mor",
    "573": "more",
    "574": "more ",
    "575": "He",
    "576": "Hei",
    "577": "Heig",
    "578": "Heigh",
    "579": "ai",
    "580": "ain",
    "581": "DP",
    "582": "in",
    "583": "ine",
    "584": "rci",
    "585": "rcis",
    "586": "isi",
    "587": "Ge",
    "588": "Ger",
    "589": "Germ",
    "590": "Germa",
    "591": "os",
    "592": "ost",
    "593": "ost ",
    "594": "yr",
    "595": "yri",
    "596": "yria",
    "597": "res",
    "598": "or ",
    "599": "ul",
    "600": "uld",
    "601": "la",
    "602": "lat",
    "603": "late",
    "604": "late ",
    "605": "fl",
    "606": "flu",
    "607": "flue",
    "608": "fluen",
    "609": "(1",
    "610": "(19",
    "611": "ll",
    "612": "lle",
    "613": "lley",
    "614": "hous",
    "615": "ttl",
    "616": "pp",
    "617": "RI",
    "618": "RIS",
    "619": "owed",
    "620": "sp",
    "621": "spe",
    "622": "spel",
    "623": "wel",
    "624": "80",
    "625": "oi",
    "626": "oid",
    "627": "ina",
    "628": "bo",
    "629": "Ch",
    "630": "Cha",
    "631": "Chap",
    "632": "Chapl",
    "633": "Height",
    "634": "dam",
    "635": "dame",
    "636": "oin",
    "637": "rti",
    "638": "yo",
    "639": "you",
    "640": "60",
    "641": "urit",
    "642": "ex",
    "643": "exa",
    "644": "exan",
    "645": "exand",
    "646": "olv",
    "647": "olve",
    "648": "q ",
    "649": "q l",
    "650": "q la",
    "651": "q lan",
    "652": "q lang",
    "653": "q langu",
    "654": "cc",
    "655": "ccu",
    "656": "ccum",
    "657": "ccumu",
    "658": "igh",
    "659": "ighb",
    "660": "lan",
    "661": "lang",
    "662": "langu",
    "663": "% ",
    "664": "boo",
    "665": "book",
    "666": "oth",
    "667": "oth ",
    "668": "rth",
    "669": "eu",
    "670": "eut",
    "671": "ar ",
    "672": "di",
    "673": "diu",
    "674": "Ta",
    "675": "Tam",
    "676": "Tama",
    "677": "ki",
    "678": "ut",
    "679": "je",
    "680": " to",
    "681": "ely",
    "682": "has",
    "683": "hod",
    "684": "nt",
    "685": "ntr",
    "686": "ntry",
    "687": "urt",
    "688": "urth",
    "689": "urthe",
    "690": "en",
    "691": "ene",
    "692": "amo",
    "693": "amon",
    "694": "amond",
    "695": "5t",
    "696": "5th",
    "697": "r,",
    "698": "r, ",
    "699": " -",
    "700": "im",
    "701": "ime",
    "702": "imen",
    "703": "mp",
    "704": "mpt",
    "705": "em",
    "706": "eme",
    "707": "emen",
    "708": "av",
    "709": "ave",
    "710": "lis",
    "711": "lish",
    "712": "dit",
    "713": "diti",
    "714": "ap",
    "715": "apa",
    "716": "ni",
    "717": "nim",
    "718": "orn",
    "719": "emp",
    "720": "mbl",
    "721": "ren",
    "722": "renc",
    "723": "rench",
    "724": "tc.",
    "725": "ons",
    "726": "onst",
    "727": "onsta",
    "728": "onstan",
    "729": "ko",
    "730": "nen",
    "731": "ud",
    "732": "oint",
    "733": "iver",
    "734": "tho",
    "735": "thou",
    "736": "thoug",
    "737": "1 /",
    "738": "1 /s",
    "739": "1 /su",
    "740": "ups",
    "741": "du",
    "742": "dur",
    "743": "duri",
    "744": "durin",
    "745": "during",
    "746": "uca",
    "747": "ext",
    "748": "te",
    "749": "ter",
    "750": "cag",
    "751": "cago",
    "752": "es",
    "753": "gr",
    "754": "ac",
    "755": "moc",
    "756": "mocr",
    "757": "wb",
    "758": "wbo",
    "759": "wboy",
    "760": "at",
    "761": "ati",
    "762": "atio",
    "763": "ation",
    "764": "cl",
    "765": "cli",
    "766": "clid",
    "767": "N ",
    "768": "N b",
    "769": "N br",
    "770": "on ",
    "771": "amb",
    "772": "opt",
    "773": "--",
    "774": "eiv",
    "775": "00",
    "776": "00 ",
    "777": "ami",
    "778": "amil",
    "779": "ev",
    "780": "eve",
    "781": "riti",
    "782": "ritis",
    "783": "cov",
    "784": "cove",
    "785": "cover",
    "786": "rch",
    "787": "dy",
    "788": "dy ",
    "789": "Re",
    "790": "Rep",
    "791": "Repu",
    "792": "Repub",
    "793": ".S",
    "794": "rl",
    "795": "rle",
    "796": "rles",
    "797": "rles ",
    "798": "an ",
    "799": "ase",
    "800": "ased",
    "801": "ased ",
    "802": "Gol",
    "803": "Gola",
    "804": "Golan",
    "805": "fic",
    "806": "rg",
    "807": "rga",
    "808": "rgan",
    "809": "wor",
    "810": "word",
    "811": "eq",
    "812": "equ",
    "813": "eque",
    "814": "equen",
    "815": "eci",
    "816": "!-",
    "817": "ew",
    "818": "hu",
    "819": "hur",
    "820": "hurc",
    "821": "hurch",
    "822": "ss",
    "823": "i ",
    "824": "ach",
    "825": "ep",
    "826": "ept",
    "827": "epte",
    "828": "eptem",
    "829": "eptemb",
    "830": "ith",
    "831": "11",
    "832": "ili",
    "833": "ilit",
    "834": "Tec",
    "835": "Tech",
    "836": "Wo",
    "837": "Wor",
    "838": "cr",
    "839": "cre",
    "840": "ya",
    "841": "yal",
    "842": "velo",
    "843": "4,",
    "844": "4, ",
    "845": "mpe",
    "846": "mper",
    "847": "ong",
    "848": " /",
    "849": "nad",
    "850": "sid",
    "851": "side",
    "852": "len",
    "853": "lend",
    "854": "lenda",
    "855": "lendar",
    "856": "ist",
    "857": "Br",
    "858": "Bri",
    "859": "Brit",
    "860": "Briti",
    "861": "Britis",
    "862": "may",
    "863": "may ",
    "864": "ery",
    "865": "ery ",
    "866": "lor",
    "867": "jeo",
    "868": "art",
    "869": "arti",
    "870": "artic",
    "871": "articu",
    "872": "articul",
    "873": "articula",
    "874": "rap",
    "875": "che",
    "876": "ched",
    "877": "exam",
    "878": "har",
    "879": "sus",
    "880": "reek",
    "881": "ifica",
    "882": "ifican",
    "883": "forc",
    "884": "At",
    "885": "Ata",
    "886": "Atar",
    "887": "lly",
    "888": " td",
    "889": "nd ",
    "890": "nd t",
    "891": "nd to",
    "892": "nd to ",
    "893": "ort",
    "894": "mal",
    "895": "mall",
    "896": "sin",
    "897": "ne ",
    "898": "est",
    "899": "hi",
    "900": "hie",
    "901": "hiev",
    "902": "w ",
    "903": " l",
    "904": " la",
    "905": " lan",
    "906": " lang",
    "907": " langu",
    "908": "vig",
    "909": "viga",
    "910": "lec",
    "911": "lect",
    "912": "how",
    "913": "how ",
    "914": "/ ",
    "915": "pt",
    "916": "pt ",
    "917": "he",
    "918": "her",
    "919": "io",
    "920": "ior",
    "921": "eb",
    "922": "mil",
    "923": "mila",
    "924": "milar",
    "925": "ngt",
    "926": "ngth",
    "927": "/s",
    "928": "/su",
    "929": "vol",
    "930": "volv",
    "931": "volve",
    "932": "oc",
    "933": "ocu",
    "934": "ocum",
    "935": "leb",
    "936": "lebr",
    "937": "nan",
    "938": "MD",
    "939": "cru",
    "940": "crui",
    "941": "cruis",
    "942": "cruise",
    "943": "We",
    "944": "Web",
    "945": "#8",
    "946": "uth",
    "947": "ide",
    "948": "iti",
    "949": "itio",
    "950": "form",
    "951": "hic",
    "952": "hica",
    "953": "hicag",
    "954": "mos",
    "955": "most",
    "956": "tob",
    "957": "ctu",
    "958": "ito",
    "959": "vat",
    "960": "fe",
    "961": "6 ",
    "962": "6 -",
    "963": "6 - ",
    "964": "iz",
    "965": "anch",
    "966": "din",
    "967": "ding",
    "968": "uh",
    "969": "uha",
    "970": "uham",
    "971": "jec",
    "972": "ject",
    "973": "ame",
    "974": "BC",
    "975": "ile",
    "976": "ile ",
    "977": "ilt",
    "978": "ilto",
    "979": "ilton",
    "980": "pol",
    "981": "tan",
    "982": "ult",
    "983": "tri",
    "984": "gen",
    "985": "gent",
    "986": "uci",
    "987": "ucin",
    "988": "ulu",
    "989": "The",
    "990": "The ",
    "991": "Eu",
    "992": "Eur",
    "993": "Euro",
    "994": "Europ",
    "995": "Europe",
    "996": "rom ",
    "997": "-1",
    "998": "be ",
    "999": "5,",
    "1000": "5, ",
    "1001": "gre",
    "1002": "hio",
    "1003": "aint",
    "1004": "Con",
    "1005": "lli",
    "1006": "llia",
    "1007": "lliam",
    "1008": "icu",
    "1009": "icul",
    "1010": "icula",
    "1011": "ell",
    "1012": "Mi",
    "1013": "Min",
    "1014": "Mini",
    "1015": "Minis",
    "1016": "nj",
    "1017": "njo",
    "1018": "njou",
    "1019": "njour",
    "1020": "ia",
    "1021": "ack",
    "1022": "ack ",
    "1023": "mie",
    "1024": "mies",
    "1025": "Gr",
    "1026": "Gre",
    "1027": "uti",
    "1028": "ure",
    "1029": "urea",
    "1030": "ureat",
    "1031": "zi",
    "1032": "rov",
    "1033": "lu",
    "1034": "err",
    "1035": "erre",
    "1036": "cono",
    "1037": "lah",
    "1038": "Ca",
    "1039": "Can",
    "1040": "Cana",
    "1041": "dn",
    "1042": "dne",
    "1043": "ism",
    "1044": "TA",
    "1045": "RT",
    "1046": "ial",
    "1047": "int",
    "1048": "wn",
    "1049": "ere",
    "1050": "vai",
    "1051": "vail",
    "1052": "bed",
    "1053": "ld",
    "1054": "ld ",
    "1055": "td",
    "1056": "but",
    "1057": "but ",
    "1058": "lif",
    "1059": "lifo",
    "1060": "a ",
    "1061": "my",
    "1062": "ou",
    "1063": "out",
    "1064": "in ",
    "1065": "In",
    "1066": "wri",
    "1067": "writ",
    "1068": "ak",
    "1069": "aka",
    "1070": "akan",
    "1071": "hoo",
    "1072": "hood",
    "1073": "dv",
    "1074": "oa",
    "1075": "oad",
    "1076": "lea",
    "1077": "leas",
    "1078": "yp",
    "1079": "ypt",
    "1080": "ch ",
    "1081": "rough",
    "1082": "ok",
    "1083": "et",
    "1084": "ete",
    "1085": "8 ",
    "1086": "8 -",
    "1087": " (",
    "1088": " (d",
    "1089": " (d.",
    "1090": " (d. ",
    "1091": "Cy",
    "1092": "Cyt",
    "1093": "Cyto",
    "1094": "mpu",
    "1095": "mput",
    "1096": "arl",
    "1097": "bl",
    "1098": "bli",
    "1099": "blis",
    "1100": "ever",
    "1101": "ball",
    "1102": "(b",
    "1103": "(bo",
    "1104": "(bor",
    "1105": "(born",
    "1106": "eus",
    "1107": "tie",
    "1108": "tio",
    "1109": "tion",
    "1110": "4 ",
    "1111": "4 -",
    "1112": "4 - ",
    "1113": "Cal",
    "1114": "Cali",
    "1115": "Calif",
    "1116": "Califo",
    "1117": "ote",
    "1118": "oter",
    "1119": "c ",
    "1120": "9)",
    "1121": "es ",
    "1122": "ortu",
    "1123": "ortun",
    "1124": "ovel",
    "1125": "roc",
    "1126": "nom",
    "1127": "ze",
    "1128": "zed",
    "1129": "zed ",
    "1130": "udi",
    "1131": "ticl",
    "1132": "ticle",
    "1133": "of",
    "1134": "of ",
    "1135": "nth",
    "1136": "his",
    "1137": "erb",
    "1138": "iki",
    "1139": "ver",
    "1140": "vere",
    "1141": "verei",
    "1142": "vereig",
    "1143": "was",
    "1144": "p ",
    "1145": "Pa",
    "1146": "Pag",
    "1147": "Page",
    "1148": "Gu",
    "1149": "Gui",
    "1150": "Guid",
    "1151": "Guide",
    "1152": "ill",
    "1153": "illi",
    "1154": "illia",
    "1155": "illiam",
    "1156": "ome",
    "1157": "Ya",
    "1158": "Yan",
    "1159": "Yank",
    "1160": "Yanke",
    "1161": "Yankee",
    "1162": "Fr",
    "1163": "Fre",
    "1164": "Fren",
    "1165": "af",
    "1166": "hist",
    "1167": "by ",
    "1168": "tag",
    "1169": "tage",
    "1170": "nc",
    "1171": "sl",
    "1172": "cau",
    "1173": "caus",
    "1174": "),",
    "1175": "), ",
    "1176": "tz",
    "1177": "Yo",
    "1178": "Yor",
    "1179": "York",
    "1180": "ric",
    "1181": "rica",
    "1182": "rical",
    "1183": "thio",
    "1184": "thiop",
    "1185": "ger",
    "1186": "xa",
    "1187": "ny",
    "1188": "fr",
    "1189": "itis",
    "1190": "ct ",
    "1191": "lit",
    "1192": "liti",
    "1193": "litic",
    "1194": "60s",
    "1195": "aft",
    "1196": "afte",
    "1197": "arg",
    "1198": "arge",
    "1199": "s*",
    "1200": "hang",
    "1201": "Guin",
    "1202": "ub",
    "1203": "ubl",
    "1204": "ubli",
    "1205": "c.",
    "1206": "urg",
    "1207": "urge",
    "1208": "urges",
    "1209": "Dj",
    "1210": "Dji",
    "1211": "Djib",
    "1212": "Djibo",
    "1213": "Djibou",
    "1214": "fa",
    "1215": "fam",
    "1216": "famo",
    "1217": "famou",
    "1218": "famous",
    "1219": "gt",
    "1220": "gto",
    "1221": "unt",
    "1222": "amou",
    "1223": "amous",
    "1224": "ied",
    "1225": " s",
    "1226": "hown",
    "1227": "rm",
    "1228": "rma",
    "1229": "ns",
    "1230": "nse",
    "1231": "foo",
    "1232": "food",
    "1233": "iter",
    "1234": "Da",
    "1235": "Dan",
    "1236": "Dani",
    "1237": "Danis",
    "1238": "Danish",
    "1239": "anu",
    "1240": "anua",
    "1241": "anuar",
    "1242": "she",
    "1243": "*1",
    "1244": "dd",
    "1245": "km",
    "1246": "km)",
    "1247": "izo",
    "1248": "urn",
    "1249": "Ba",
    "1250": "Ban",
    "1251": "Bang",
    "1252": "Bangl",
    "1253": "mm",
    "1254": "Ha",
    "1255": "Ham",
    "1256": "Hami",
    "1257": "Hamil",
    "1258": "Tea",
    "1259": "Teac",
    "1260": "Teach",
    "1261": "oic",
    "1262": "oice",
    "1263": "lde",
    "1264": "lden",
    "1265": "rda",
    "1266": "rdan",
    "1267": "med",
    "1268": "*Y",
    "1269": "sia",
    "1270": "och",
    "1271": "Ar",
    "1272": "Art",
    "1273": "Arti",
    "1274": "Artic",
    "1275": "Articl",
    "1276": "iga",
    "1277": " n",
    "1278": " no",
    "1279": " not",
    "1280": "til ",
    "1281": "God",
    "1282": "so ",
    "1283": "vers",
    "1284": "ris",
    "1285": "icat",
    "1286": "our",
    "1287": "le ",
    "1288": "se",
    "1289": "ser",
    "1290": "serv",
    "1291": "Ti",
    "1292": "Tig",
    "1293": "Tigr",
    "1294": "gor",
    "1295": "gn",
    "1296": "cem",
    "1297": "cemb",
    "1298": "the",
    "1299": "ther",
    "1300": "tow",
    "1301": "town",
    "1302": "ber",
    "1303": "bert",
    "1304": "evel",
    "1305": "gy",
    "1306": "gyp",
    "1307": "gypt",
    "1308": "vy",
    "1309": "sur",
    "1310": "ity",
    "1311": "ity ",
    "1312": "gat",
    "1313": "oved",
    "1314": "cri",
    "1315": "Ja",
    "1316": "Jac",
    "1317": "Jack",
    "1318": "L ",
    "1319": "L b",
    "1320": "L br",
    "1321": "icl",
    "1322": "icle",
    "1323": "lla",
    "1324": "rot",
    "1325": "roth",
    "1326": "ifo",
    "1327": "ifor",
    "1328": "iforn",
    "1329": "dg",
    "1330": "dge",
    "1331": "oug",
    "1332": "ough",
    "1333": "bs",
    "1334": "fy",
    "1335": "= ",
    "1336": "chi",
    "1337": "chin",
    "1338": "ical",
    "1339": "ing",
    "1340": "ingl",
    "1341": "ingle",
    "1342": "cum",
    "1343": "cume",
    "1344": "cumen",
    "1345": "nis",
    "1346": "crip",
    "1347": "cript",
    "1348": "mer",
    "1349": "meri",
    "1350": "sic",
    "1351": "cco",
    "1352": "ccor",
    "1353": "ccord",
    "1354": "lm",
    "1355": "rio",
    "1356": "rior",
    "1357": "r ",
    "1358": "r /",
    "1359": "r /s",
    "1360": "r /su",
    "1361": "lip",
    "1362": "Sc",
    "1363": "Sco",
    "1364": "Scot",
    "1365": "eren",
    "1366": "ird",
    "1367": "lue",
    "1368": "luen",
    "1369": "ab",
    "1370": "abl",
    "1371": "cen",
    "1372": "ici",
    "1373": "icia",
    "1374": "hop",
    "1375": "ener",
    "1376": "enera",
    "1377": "ider",
    "1378": "cra",
    "1379": "enc",
    "1380": "ench",
    "1381": "gra",
    "1382": "DO",
    "1383": "DON",
    "1384": "DONE",
    "1385": "ci",
    "1386": "cie",
    "1387": "cien",
    "1388": "0,",
    "1389": "are",
    "1390": "are ",
    "1391": "erag",
    "1392": "hanc",
    "1393": "las",
    "1394": "lass",
    "1395": "elt",
    "1396": "gic",
    "1397": "U ",
    "1398": "ses",
    "1399": "sess",
    "1400": "Al",
    "1401": "Ale",
    "1402": "Alex",
    "1403": "n ",
    "1404": "n b",
    "1405": "n br",
    "1406": " - ",
    "1407": "rvi",
    "1408": "rvic",
    "1409": "rvice",
    "1410": "Chi",
    "1411": "Chin",
    "1412": "og",
    "1413": "tw",
    "1414": "twe",
    "1415": "twee",
    "1416": "omes",
    "1417": "omest",
    "1418": "lled",
    "1419": "ru",
    "1420": "ruc",
    "1421": "ruct",
    "1422": "ors",
    "1423": "orse",
    "1424": "loy",
    "1425": "fore",
    "1426": "Na",
    "1427": "Nak",
    "1428": "Naka",
    "1429": "Nakan",
    "1430": "e,",
    "1431": "e, ",
    "1432": "ona",
    "1433": "onat",
    "1434": "cin",
    "1435": "g)",
    "1436": ".*1",
    "1437": ".*19",
    "1438": "5 ",
    "1439": "5 a",
    "1440": "5 an",
    "1441": "5 and",
    "1442": "5 and ",
    "1443": "ali",
    "1444": "oci",
    "1445": " A",
    "1446": "van",
    "1447": "arr",
    "1448": "lti",
    "1449": "over",
    "1450": "overn",
    "1451": "ui",
    "1452": "Hor",
    "1453": "Hora",
    "1454": "Horac",
    "1455": "ale",
    "1456": "alen",
    "1457": "aus",
    "1458": "shi",
    "1459": "ship",
    "1460": "oe",
    "1461": "oe ",
    "1462": "net",
    "1463": "able",
    "1464": "lin",
    "1465": "tur",
    "1466": "voi",
    "1467": "void",
    "1468": "ate",
    "1469": "ateg",
    "1470": "atego",
    "1471": "ategor",
    "1472": "6t",
    "1473": "6th",
    "1474": "hat",
    "1475": "cci",
    "1476": "ccin",
    "1477": "ngu",
    "1478": "lio",
    "1479": "lion",
    "1480": "ye",
    "1481": "opl",
    "1482": "one",
    "1483": "ones",
    "1484": "outh",
    "1485": "ttle",
    "1486": "now",
    "1487": "d.",
    "1488": "xi",
    "1489": "xic",
    "1490": "llo",
    "1491": "llow",
    "1492": "ron",
    "1493": "rin",
    "1494": "ring",
    "1495": "mar",
    "1496": "Ci",
    "1497": "Cin",
    "1498": "Cinc",
    "1499": "Gi",
    "1500": "Gia",
    "1501": "Gian",
    "1502": "Giant",
    "1503": "ket",
    "1504": "rig",
    "1505": "righ",
    "1506": "right",
    "1507": "oun",
    "1508": "ounc",
    "1509": "S ",
    "1510": "ltic",
    "1511": "spec",
    "1512": "inat",
    "1513": "ug",
    "1514": "ugh",
    "1515": "ught",
    "1516": "hol",
    "1517": "tar",
    "1518": "hem",
    "1519": "hema",
    "1520": "rm{",
    "1521": "aly",
    "1522": "alys",
    "1523": "alysi",
    "1524": "alysis",
    "1525": "uct",
    "1526": "uctu",
    "1527": "uctur",
    "1528": "7,",
    "1529": "7, ",
    "1530": "6 a",
    "1531": "6 an",
    "1532": "6 and",
    "1533": "ula",
    "1534": "cam",
    "1535": "came",
    "1536": "has ",
    "1537": "Ju",
    "1538": "lum",
    "1539": "hir",
    "1540": "hiro",
    "1541": "hirop",
    "1542": "hiropr",
    "1543": "En",
    "1544": "Eng",
    "1545": "Engl",
    "1546": "nin",
    "1547": "ning",
    "1548": "nes",
    "1549": "ness",
    "1550": "ovi",
    "1551": "ovie",
    "1552": "oviet",
    "1553": "umen",
    "1554": "ass",
    "1555": "cro",
    "1556": "tal",
    "1557": "WI",
    "1558": "upe",
    "1559": "uper",
    "1560": "CN",
    "1561": "CNS",
    "1562": "CNS ",
    "1563": "ope",
    "1564": "hat ",
    "1565": "ctor",
    "1566": "hos",
    "1567": "host",
    "1568": "s ",
    "1569": "s o",
    "1570": "s of",
    "1571": "s of ",
    "1572": "ari",
    "1573": "ic ",
    "1574": " nd",
    "1575": " nda",
    "1576": " ndas",
    "1577": "cq",
    "1578": "cqu",
    "1579": "sla",
    "1580": "bol",
    "1581": " /t",
    "1582": "nct",
    "1583": " K",
    "1584": " Ko",
    "1585": " Kon",
    "1586": " Kong",
    "1587": "Gro",
    "1588": "Grou",
    "1589": "8 b",
    "1590": "8 br",
    "1591": "De",
    "1592": "ee",
    "1593": "eed",
    "1594": "ife",
    "1595": "iou",
    "1596": "ious",
    "1597": "2,",
    "1598": "vio",
    "1599": "viou",
    "1600": "par",
    "1601": "para",
    "1602": "ore",
    "1603": "ore ",
    "1604": "hee",
    "1605": "hees",
    "1606": "heese",
    "1607": "ond",
    "1608": "ryp",
    "1609": "rypt",
    "1610": "cor",
    "1611": "cord",
    "1612": "trie",
    "1613": "cat",
    "1614": "he ",
    "1615": "yl",
    "1616": "yle",
    "1617": "das",
    "1618": "wl",
    "1619": "ked",
    "1620": "2 ",
    "1621": "\\m",
    "1622": "\\ma",
    "1623": "\\mat",
    "1624": "cil",
    "1625": "pr",
    "1626": "pri",
    "1627": ") ",
    "1628": "(d",
    "1629": "(d.",
    "1630": "(d. ",
    "1631": "gar",
    "1632": "gard",
    "1633": "I.",
    "1634": "Vi",
    "1635": "uring",
    "1636": "hav",
    "1637": "have",
    "1638": "wh",
    "1639": "whi",
    "1640": "whic",
    "1641": "which",
    "1642": "cel",
    "1643": "cell",
    "1644": "esi",
    "1645": "esid",
    "1646": "az",
    "1647": "azi",
    "1648": "NO ",
    "1649": "NO I",
    "1650": "ilo",
    "1651": "ilot",
    "1652": "ts",
    "1653": "hed",
    "1654": "velop",
    "1655": "oso",
    "1656": "dor",
    "1657": "Fa",
    "1658": "Far",
    "1659": "Faro",
    "1660": "Faroe",
    "1661": "nst",
    "1662": "l ",
    "1663": "E ",
    "1664": "E -",
    "1665": "olo",
    "1666": "rar",
    "1667": "nr",
    "1668": "ede",
    "1669": "eder",
    "1670": "fri",
    "1671": "all",
    "1672": "alle",
    "1673": "alled",
    "1674": "urch",
    "1675": "cle",
    "1676": "ua",
    "1677": "ana",
    "1678": "anad",
    "1679": "isto",
    "1680": "Wi",
    "1681": "Wit",
    "1682": "With",
    "1683": "redi",
    "1684": "redie",
    "1685": "redien",
    "1686": ".p",
    "1687": ".pn",
    "1688": ".png",
    "1689": "tit",
    "1690": "titu",
    "1691": "Jap",
    "1692": "Japa",
    "1693": "Japan",
    "1694": " a",
    "1695": " as",
    "1696": " as ",
    "1697": "lk",
    "1698": "ord",
    "1699": "orda",
    "1700": "ordan",
    "1701": "Em",
    "1702": "ight",
    "1703": "uss",
    "1704": "ngl",
    "1705": "mat",
    "1706": "mate",
    "1707": "acy",
    "1708": "od",
    "1709": "amp",
    "1710": "ampl",
    "1711": "8)",
    "1712": "umer",
    "1713": "ib",
    "1714": "sel",
    "1715": "ini",
    "1716": "Pau",
    "1717": "Paul",
    "1718": "ht",
    "1719": "ws",
    "1720": "rea",
    "1721": "reas",
    "1722": "lb",
    "1723": "lbe",
    "1724": "lber",
    "1725": "org",
    "1726": "onn",
    "1727": "onne",
    "1728": "onnec",
    "1729": "onnect",
    "1730": "ape",
    "1731": "apes",
    "1732": "yea",
    "1733": "year",
    "1734": "liv",
    "1735": "ve ",
    "1736": "erg",
    "1737": " b",
    "1738": " br",
    "1739": "Wim",
    "1740": "Wimb",
    "1741": "Wimbl",
    "1742": "hil",
    "1743": "teg",
    "1744": "well",
    "1745": "xt",
    "1746": "eas",
    "1747": "hap",
    "1748": "hapl",
    "1749": "So",
    "1750": "Sof",
    "1751": "Soft"
  },
  "merges": {
    "71,68": 92,
    "92,64": 93,
    "68,70": 94,
    "94,64": 95,
    "47,74": 96,
    "96,72": 97,
    "80,78": 98,
    "98,62": 99,
    "99,80": 100,
    "100,71": 101,
    "75,60": 102,
    "102,68": 103,
    "103,73": 104,
    "68,63": 105,
    "105,60": 106,
    "106,84": 107,
    "13,9": 108,
    "74,71": 109,
    "109,80": 110,
    "110,79": 111,
    "80,64": 112,
    "112,1": 113,
    "66,64": 114,
    "114,79": 115,
    "115,60": 116,
    "72,64": 117,
    "74,75": 118,
    "118,75": 119,
    "119,64": 120,
    "120,63": 121,
    "44,36": 122,
    "122,38": 123,
    "78,79": 124,
    "124,74": 125,
    "79,60": 126,
    "126,68": 127,
    "81,64": 128,
    "128,71": 129,
    "24,11": 130,
    "74,82": 131,
    "131,64": 132,
    "132,81": 133,
    "24,1": 134,
    "62,60": 135,
    "135,73": 136,
    "84,72": 137,
    "137,75": 138,
    "77,84": 139,
    "139,1": 140,
    "66,71": 141,
    "80,77": 142,
    "142,68": 143,
    "143,73": 144,
    "77,13": 145,
    "145,1": 146,
    "81,60": 147,
    "70,73": 148,
    "148,74": 149,
    "149,82": 150,
    "80,73": 151,
    "151,63": 152,
    "64,62": 153,
    "153,74": 154,
    "73,74": 155,
    "155,79": 156,
    "60,80": 157,
    "157,71": 158,
    "64,70": 159,
    "26,16": 160,
    "84,78": 161,
    "161,68": 162,
    "162,78": 163,
    "67,60": 164,
    "164,73": 165,
    "165,1": 166,
    "80,62": 167,
    "37,74": 168,
    "168,73": 169,
    "169,66": 170,
    "68,71": 171,
    "171,84": 172,
    "98,60": 173,
    "173,63": 174,
    "61,84": 175,
    "66,66": 176,
    "176,64": 177,
    "177,78": 178,
    "178,79": 179,
    "77,64": 180,
    "180,63": 181,
    "82,64": 182,
    "182,78": 183,
    "183,79": 184,
    "63,60": 185,
    "185,84": 186,
    "1,79": 187,
    "187,67": 188,
    "188,60": 189,
    "189,79": 190,
    "78,84": 191,
    "191,78": 192,
    "192,79": 193,
    "68,62": 194,
    "194,60": 195,
    "195,73": 196,
    "74,73": 197,
    "197,68": 198,
    "198,60": 199,
    "72,68": 200,
    "200,73": 201,
    "68,66": 202,
    "202,77": 203,
    "63,64": 204,
    "204,77": 205,
    "205,68": 206,
    "126,79": 207,
    "207,68": 208,
    "66,78": 209,
    "64,66": 210,
    "210,74": 211,
    "211,73": 212,
    "1,74": 213,
    "213,65": 214,
    "214,1": 215,
    "33,1": 216,
    "216,12": 217,
    "217,12": 218,
    "79,68": 219,
    "219,71": 220,
    "220,71": 221,
    "60,71": 222,
    "222,74": 223,
    "180,64": 224,
    "224,1": 225,
    "66,60": 226,
    "226,72": 227,
    "71,74": 228,
    "228,62": 229,
    "229,68": 230,
    "79,67": 231,
    "231,60": 232,
    "232,73": 233,
    "16,1": 234,
    "64,60": 235,
    "235,73": 236,
    "236,78": 237,
    "237,1": 238,
    "167,67": 239,
    "239,1": 240,
    "240,60": 241,
    "241,78": 242,
    "98,64": 243,
    "75,80": 244,
    "244,61": 245,
    "81,74": 246,
    "231,68": 247,
    "247,73": 248,
    "60,72": 249,
    "249,72": 250,
    "180,72": 251,
    "126,61": 252,
    "252,71": 253,
    "253,64": 254,
    "68,79": 255,
    "255,80": 256,
    "62,67": 257,
    "81,68": 258,
    "258,78": 259,
    "259,68": 260,
    "180,1": 261,
    "64,63": 262,
    "262,1": 263,
    "82,77": 264,
    "32,74": 265,
    "265,77": 266,
    "266,79": 267,
    "48,75": 268,
    "268,60": 269,
    "61,64": 270,
    "270,71": 271,
    "271,68": 272,
    "272,64": 273,
    "132,77": 274,
    "64,77": 275,
    "275,68": 276,
    "276,74": 277,
    "277,63": 278,
    "258,71": 279,
    "279,84": 280,
    "67,67": 281,
    "281,67": 282,
    "68,78": 283,
    "283,60": 284,
    "284,72": 285,
    "285,61": 286,
    "73,73": 287,
    "287,68": 288,
    "288,78": 289,
    "82,74": 290,
    "84,68": 291,
    "291,73": 292,
    "64,71": 293,
    "293,63": 294,
    "60,73": 295,
    "295,62": 296,
    "118,74": 297,
    "61,80": 298,
    "73,60": 299,
    "299,79": 300,
    "275,60": 301,
    "78,70": 302,
    "302,77": 303,
    "303,68": 304,
    "72,60": 305,
    "305,66": 306,
    "77,60": 307,
    "307,78": 308,
    "70,64": 309,
    "309,77": 310,
    "73,64": 311,
    "311,66": 312,
    "312,68": 313,
    "21,11": 314,
    "314,1": 315,
    "68,65": 316,
    "316,68": 317,
    "317,62": 318,
    "74,79": 319,
    "319,61": 320,
    "320,60": 321,
    "321,71": 322,
    "322,71": 323,
    "31,74": 324,
    "324,82": 325,
    "325,71": 326,
    "82,60": 327,
    "60,78": 328,
    "328,1": 329,
    "257,60": 330,
    "330,73": 331,
    "331,68": 332,
    "60,63": 333,
    "333,63": 334,
    "219,62": 335,
    "74,74": 336,
    "336,75": 337,
    "78,67": 338,
    "79,74": 339,
    "339,70": 340,
    "340,80": 341,
    "79,77": 342,
    "342,60": 343,
    "343,78": 344,
    "344,79": 345,
    "197,79": 346,
    "346,67": 347,
    "79,79": 348,
    "348,64": 349,
    "349,77": 350,
    "49,67": 351,
    "64,1": 352,
    "74,72": 353,
    "353,60": 354,
    "354,73": 355,
    "77,79": 356,
    "356,64": 357,
    "74,81": 358,
    "358,64": 359,
    "359,72": 360,
    "360,64": 361,
    "361,73": 362,
    "171,63": 363,
    "74,77": 364,
    "364,70": 365,
    "231,72": 366,
    "353,75": 367,
    "75,68": 368,
    "368,77": 369,
    "293,60": 370,
    "370,73": 371,
    "353,1": 372,
    "75,64": 373,
    "373,77": 374,
    "374,68": 375,
    "68,81": 376,
    "376,64": 377,
    "82,68": 378,
    "378,79": 379,
    "379,67": 380,
    "63,77": 381,
    "77,77": 382,
    "382,64": 383,
    "383,73": 384,
    "295,66": 385,
    "78,80": 386,
    "386,62": 387,
    "387,67": 388,
    "6,78": 389,
    "389,1": 390,
    "79,62": 391,
    "391,67": 392,
    "371,63": 393,
    "79,84": 394,
    "394,1": 395,
    "63,74": 396,
    "396,82": 397,
    "397,73": 398,
    "295,63": 399,
    "399,1": 400,
    "77,81": 401,
    "401,64": 402,
    "255,64": 403,
    "403,63": 404,
    "78,74": 405,
    "79,80": 406,
    "406,60": 407,
    "77,68": 408,
    "408,64": 409,
    "409,78": 410,
    "311,60": 411,
    "64,68": 412,
    "412,73": 413,
    "413,66": 414,
    "62,64": 415,
    "415,1": 416,
    "75,78": 417,
    "78,68": 418,
    "418,61": 419,
    "419,71": 420,
    "373,63": 421,
    "421,68": 422,
    "422,60": 423,
    "60,76": 424,
    "36,74": 425,
    "425,78": 426,
    "426,75": 427,
    "77,74": 428,
    "428,72": 429,
    "18,1": 430,
    "430,14": 431,
    "431,78": 432,
    "432,80": 433,
    "75,74": 434,
    "434,77": 435,
    "435,79": 436,
    "72,61": 437,
    "437,68": 438,
    "438,66": 439,
    "439,80": 440,
    "48,84": 441,
    "441,78": 442,
    "442,79": 443,
    "202,68": 444,
    "444,73": 445,
    "128,78": 446,
    "43,44": 447,
    "61,60": 448,
    "448,71": 449,
    "42,64": 450,
    "450,83": 451,
    "451,68": 452,
    "452,62": 453,
    "69,80": 454,
    "454,77": 455,
    "30,11": 456,
    "456,1": 457,
    "124,60": 458,
    "66,74": 459,
    "459,71": 460,
    "328,79": 461,
    "461,60": 462,
    "80,72": 463,
    "463,64": 464,
    "142,62": 465,
    "465,64": 466,
    "1,38": 467,
    "73,63": 468,
    "468,74": 469,
    "428,80": 470,
    "470,66": 471,
    "71,79": 472,
    "157,66": 473,
    "434,78": 474,
    "70,60": 475,
    "197,71": 476,
    "476,84": 477,
    "73,80": 478,
    "478,72": 479,
    "479,61": 480,
    "480,64": 481,
    "68,77": 482,
    "482,1": 483,
    "408,79": 484,
    "60,77": 485,
    "73,66": 486,
    "486,64": 487,
    "42,60": 488,
    "488,77": 489,
    "38,77": 490,
    "490,60": 491,
    "35,42": 492,
    "492,33": 493,
    "43,34": 494,
    "364,77": 495,
    "495,74": 496,
    "496,77": 497,
    "64,74": 498,
    "62,79": 499,
    "499,74": 500,
    "500,61": 501,
    "85,1": 502,
    "124,1": 503,
    "503,74": 504,
    "504,65": 505,
    "505,1": 506,
    "65,74": 507,
    "507,77": 508,
    "508,1": 509,
    "65,68": 510,
    "510,73": 511,
    "7,1": 512,
    "484,74": 513,
    "513,77": 514,
    "14,79": 515,
    "226,66": 516,
    "102,73": 517,
    "128,73": 518,
    "77,63": 519,
    "68,64": 520,
    "62,70": 521,
    "386,71": 522,
    "522,79": 523,
    "74,61": 524,
    "524,69": 525,
    "525,64": 526,
    "526,62": 527,
    "62,74": 528,
    "528,73": 529,
    "529,78": 530,
    "530,79": 531,
    "49,64": 532,
    "532,73": 533,
    "533,73": 534,
    "228,82": 535,
    "535,60": 536,
    "536,73": 537,
    "537,62": 538,
    "30,72": 539,
    "539,64": 540,
    "540,77": 541,
    "541,68": 542,
    "232,79": 543,
    "520,82": 544,
    "80,75": 545,
    "66,68": 546,
    "546,79": 547,
    "71,64": 548,
    "548,79": 549,
    "85,60": 550,
    "550,79": 551,
    "77,62": 552,
    "552,64": 553,
    "67,74": 554,
    "554,80": 555,
    "555,77": 556,
    "556,78": 557,
    "98,79": 558,
    "558,1": 559,
    "68,75": 560,
    "364,71": 561,
    "561,63": 562,
    "324,77": 563,
    "164,61": 564,
    "564,68": 565,
    "565,79": 566,
    "60,66": 567,
    "567,64": 568,
    "62,80": 569,
    "569,79": 570,
    "72,74": 571,
    "571,77": 572,
    "572,64": 573,
    "573,1": 574,
    "37,64": 575,
    "575,68": 576,
    "576,66": 577,
    "577,67": 578,
    "60,68": 579,
    "579,73": 580,
    "33,45": 581,
    "68,73": 582,
    "582,64": 583,
    "552,68": 584,
    "584,78": 585,
    "283,68": 586,
    "36,64": 587,
    "587,77": 588,
    "588,72": 589,
    "589,60": 590,
    "74,78": 591,
    "591,79": 592,
    "592,1": 593,
    "84,77": 594,
    "594,68": 595,
    "595,60": 596,
    "180,78": 597,
    "364,1": 598,
    "80,71": 599,
    "599,63": 600,
    "71,60": 601,
    "601,79": 602,
    "602,64": 603,
    "603,1": 604,
    "65,71": 605,
    "605,80": 606,
    "606,64": 607,
    "607,73": 608,
    "7,16": 609,
    "609,24": 610,
    "71,71": 611,
    "611,64": 612,
    "612,84": 613,
    "555,78": 614,
    "348,71": 615,
    "75,75": 616,
    "47,38": 617,
    "617,48": 618,
    "132,63": 619,
    "78,75": 620,
    "620,64": 621,
    "621,71": 622,
    "182,71": 623,
    "23,15": 624,
    "74,68": 625,
    "625,63": 626,
    "582,60": 627,
    "61,74": 628,
    "32,67": 629,
    "629,60": 630,
    "630,75": 631,
    "631,71": 632,
    "578,79": 633,
    "185,72": 634,
    "634,64": 635,
    "625,73": 636,
    "356,68": 637,
    "84,74": 638,
    "638,80": 639,
    "21,15": 640,
    "143,79": 641,
    "64,83": 642,
    "642,60": 643,
    "643,73": 644,
    "644,63": 645,
    "109,81": 646,
    "646,64": 647,
    "76,1": 648,
    "648,71": 649,
    "649,60": 650,
    "650,73": 651,
    "651,66": 652,
    "652,80": 653,
    "62,62": 654,
    "654,80": 655,
    "655,72": 656,
    "656,80": 657,
    "202,67": 658,
    "658,61": 659,
    "601,73": 660,
    "660,66": 661,
    "661,80": 662,
    "5,1": 663,
    "628,74": 664,
    "664,70": 665,
    "319,67": 666,
    "666,1": 667,
    "356,67": 668,
    "64,80": 669,
    "669,79": 670,
    "485,1": 671,
    "63,68": 672,
    "672,80": 673,
    "49,60": 674,
    "674,72": 675,
    "675,60": 676,
    "70,68": 677,
    "80,79": 678,
    "69,64": 679,
    "187,74": 680,
    "293,84": 681,
    "164,78": 682,
    "554,63": 683,
    "73,79": 684,
    "684,77": 685,
    "685,84": 686,
    "142,79": 687,
    "687,67": 688,
    "688,64": 689,
    "64,73": 690,
    "690,64": 691,
    "249,74": 692,
    "692,73": 693,
    "693,63": 694,
    "20,79": 695,
    "695,67": 696,
    "77,11": 697,
    "697,1": 698,
    "1,12": 699,
    "68,72": 700,
    "700,64": 701,
    "701,73": 702,
    "72,75": 703,
    "703,79": 704,
    "64,72": 705,
    "705,64": 706,
    "706,73": 707,
    "60,81": 708,
    "708,64": 709,
    "92,78": 710,
    "710,67": 711,
    "672,79": 712,
    "712,68": 713,
    "60,75": 714,
    "714,60": 715,
    "73,68": 716,
    "716,72": 717,
    "364,73": 718,
    "705,75": 719,
    "437,71": 720,
    "180,73": 721,
    "721,62": 722,
    "722,67": 723,
    "391,13": 724,
    "197,78": 725,
    "725,79": 726,
    "726,60": 727,
    "727,73": 728,
    "70,74": 729,
    "311,73": 730,
    "80,63": 731,
    "636,79": 732,
    "377,77": 733,
    "231,74": 734,
    "734,80": 735,
    "735,66": 736,
    "234,14": 737,
    "737,78": 738,
    "738,80": 739,
    "545,78": 740,
    "63,80": 741,
    "741,77": 742,
    "742,68": 743,
    "743,73": 744,
    "744,66": 745,
    "167,60": 746,
    "642,79": 747,
    "79,64": 748,
    "748,77": 749,
    "135,66": 750,
    "750,74": 751,
    "64,78": 752,
    "66,77": 753,
    "60,62": 754,
    "571,62": 755,
    "755,77": 756,
    "82,61": 757,
    "757,74": 758,
    "758,84": 759,
    "60,79": 760,
    "760,68": 761,
    "761,74": 762,
    "762,73": 763,
    "62,71": 764,
    "764,68": 765,
    "765,63": 766,
    "43,1": 767,
    "767,61": 768,
    "768,77": 769,
    "197,1": 770,
    "249,61": 771,
    "118,79": 772,
    "12,12": 773,
    "412,81": 774,
    "15,15": 775,
    "775,1": 776,
    "249,68": 777,
    "777,71": 778,
    "64,81": 779,
    "779,64": 780,
    "484,68": 781,
    "781,78": 782,
    "528,81": 783,
    "783,64": 784,
    "784,77": 785,
    "552,67": 786,
    "63,84": 787,
    "787,1": 788,
    "47,64": 789,
    "789,75": 790,
    "790,80": 791,
    "791,61": 792,
    "13,48": 793,
    "77,71": 794,
    "794,64": 795,
    "795,78": 796,
    "796,1": 797,
    "295,1": 798,
    "328,64": 799,
    "799,63": 800,
    "800,1": 801,
    "425,71": 802,
    "802,60": 803,
    "803,73": 804,
    "510,62": 805,
    "77,66": 806,
    "806,60": 807,
    "807,73": 808,
    "290,77": 809,
    "809,63": 810,
    "64,76": 811,
    "811,80": 812,
    "812,64": 813,
    "813,73": 814,
    "153,68": 815,
    "2,12": 816,
    "64,82": 817,
    "67,80": 818,
    "818,77": 819,
    "819,62": 820,
    "820,67": 821,
    "78,78": 822,
    "68,1": 823,
    "754,67": 824,
    "64,75": 825,
    "825,79": 826,
    "826,64": 827,
    "827,72": 828,
    "828,61": 829,
    "255,67": 830,
    "16,16": 831,
    "171,68": 832,
    "832,79": 833,
    "532,62": 834,
    "834,67": 835,
    "52,74": 836,
    "836,77": 837,
    "62,77": 838,
    "838,64": 839,
    "84,60": 840,
    "840,71": 841,
    "129,74": 842,
    "19,11": 843,
    "843,1": 844,
    "703,64": 845,
    "845,77": 846,
    "197,66": 847,
    "1,14": 848,
    "299,63": 849,
    "418,63": 850,
    "850,64": 851,
    "548,73": 852,
    "852,63": 853,
    "853,60": 854,
    "854,77": 855,
    "283,79": 856,
    "31,77": 857,
    "857,68": 858,
    "858,79": 859,
    "859,68": 860,
    "860,78": 861,
    "305,84": 862,
    "862,1": 863,
    "275,84": 864,
    "864,1": 865,
    "228,77": 866,
    "679,74": 867,
    "485,79": 868,
    "868,68": 869,
    "869,62": 870,
    "870,80": 871,
    "871,71": 872,
    "872,60": 873,
    "307,75": 874,
    "257,64": 875,
    "875,63": 876,
    "643,72": 877,
    "164,77": 878,
    "386,78": 879,
    "224,70": 880,
    "318,60": 881,
    "881,73": 882,
    "508,62": 883,
    "30,79": 884,
    "884,60": 885,
    "885,77": 886,
    "611,84": 887,
    "187,63": 888,
    "468,1": 889,
    "889,79": 890,
    "890,74": 891,
    "891,1": 892,
    "364,79": 893,
    "305,71": 894,
    "894,71": 895,
    "418,73": 896,
    "311,1": 897,
    "752,79": 898,
    "67,68": 899,
    "899,64": 900,
    "900,81": 901,
    "82,1": 902,
    "1,71": 903,
    "903,60": 904,
    "904,73": 905,
    "905,66": 906,
    "906,80": 907,
    "258,66": 908,
    "908,60": 909,
    "548,62": 910,
    "910,79": 911,
    "554,82": 912,
    "912,1": 913,
    "14,1": 914,
    "75,79": 915,
    "915,1": 916,
    "67,64": 917,
    "917,77": 918,
    "68,74": 919,
    "919,77": 920,
    "64,61": 921,
    "200,71": 922,
    "922,60": 923,
    "923,77": 924,
    "486,79": 925,
    "925,67": 926,
    "14,78": 927,
    "927,80": 928,
    "246,71": 929,
    "929,81": 930,
    "930,64": 931,
    "74,62": 932,
    "932,80": 933,
    "933,72": 934,
    "548,61": 935,
    "935,77": 936,
    "299,73": 937,
    "42,33": 938,
    "838,80": 939,
    "939,68": 940,
    "940,78": 941,
    "941,64": 942,
    "52,64": 943,
    "943,61": 944,
    "3,23": 945,
    "678,67": 946,
    "105,64": 947,
    "255,68": 948,
    "948,74": 949,
    "508,72": 950,
    "899,62": 951,
    "951,60": 952,
    "952,66": 953,
    "571,78": 954,
    "954,79": 955,
    "339,61": 956,
    "499,80": 957,
    "255,74": 958,
    "147,79": 959,
    "65,64": 960,
    "21,1": 961,
    "961,12": 962,
    "962,1": 963,
    "68,85": 964,
    "296,67": 965,
    "672,73": 966,
    "966,66": 967,
    "80,67": 968,
    "968,60": 969,
    "969,72": 970,
    "679,62": 971,
    "971,79": 972,
    "249,64": 973,
    "31,32": 974,
    "171,64": 975,
    "975,1": 976,
    "171,79": 977,
    "977,74": 978,
    "978,73": 979,
    "434,71": 980,
    "126,73": 981,
    "599,79": 982,
    "342,68": 983,
    "114,73": 984,
    "984,79": 985,
    "167,68": 986,
    "986,73": 987,
    "599,80": 988,
    "351,64": 989,
    "989,1": 990,
    "34,80": 991,
    "991,77": 992,
    "992,74": 993,
    "993,75": 994,
    "994,64": 995,
    "429,1": 996,
    "12,16": 997,
    "270,1": 998,
    "20,11": 999,
    "999,1": 1000,
    "753,64": 1001,
    "899,74": 1002,
    "580,79": 1003,
    "265,73": 1004,
    "611,68": 1005,
    "1005,60": 1006,
    "1006,72": 1007,
    "194,80": 1008,
    "1008,71": 1009,
    "1009,60": 1010,
    "293,71": 1011,
    "42,68": 1012,
    "1012,73": 1013,
    "1013,68": 1014,
    "1014,78": 1015,
    "73,69": 1016,
    "1016,74": 1017,
    "1017,80": 1018,
    "1018,77": 1019,
    "68,60": 1020,
    "754,70": 1021,
    "1021,1": 1022,
    "200,64": 1023,
    "1023,78": 1024,
    "36,77": 1025,
    "1025,64": 1026,
    "678,68": 1027,
    "142,64": 1028,
    "1028,60": 1029,
    "1029,79": 1030,
    "85,68": 1031,
    "428,81": 1032,
    "71,80": 1033,
    "275,77": 1034,
    "1034,64": 1035,
    "529,74": 1036,
    "601,67": 1037,
    "32,60": 1038,
    "1038,73": 1039,
    "1039,60": 1040,
    "63,73": 1041,
    "1041,64": 1042,
    "283,72": 1043,
    "49,30": 1044,
    "47,49": 1045,
    "1020,71": 1046,
    "582,79": 1047,
    "82,73": 1048,
    "275,64": 1049,
    "147,68": 1050,
    "1050,71": 1051,
    "270,63": 1052,
    "71,63": 1053,
    "1053,1": 1054,
    "79,63": 1055,
    "298,79": 1056,
    "1056,1": 1057,
    "92,65": 1058,
    "1058,74": 1059,
    "60,1": 1060,
    "72,84": 1061,
    "74,80": 1062,
    "1062,79": 1063,
    "582,1": 1064,
    "38,73": 1065,
    "264,68": 1066,
    "1066,79": 1067,
    "60,70": 1068,
    "1068,60": 1069,
    "1069,73": 1070,
    "554,74": 1071,
    "1071,63": 1072,
    "63,81": 1073,
    "74,60": 1074,
    "1074,63": 1075,
    "548,60": 1076,
    "1076,78": 1077,
    "84,75": 1078,
    "1078,79": 1079,
    "257,1": 1080,
    "471,67": 1081,
    "74,70": 1082,
    "64,79": 1083,
    "1083,64": 1084,
    "23,1": 1085,
    "1085,12": 1086,
    "1,7": 1087,
    "1087,63": 1088,
    "1088,13": 1089,
    "1089,1": 1090,
    "32,84": 1091,
    "1091,79": 1092,
    "1092,74": 1093,
    "703,80": 1094,
    "1094,79": 1095,
    "485,71": 1096,
    "61,71": 1097,
    "1097,68": 1098,
    "1098,78": 1099,
    "780,77": 1100,
    "449,71": 1101,
    "7,61": 1102,
    "1102,74": 1103,
    "1103,77": 1104,
    "1104,73": 1105,
    "669,78": 1106,
    "219,64": 1107,
    "219,74": 1108,
    "1108,73": 1109,
    "19,1": 1110,
    "1110,12": 1111,
    "1111,1": 1112,
    "1038,71": 1113,
    "1113,68": 1114,
    "1114,65": 1115,
    "1115,74": 1116,
    "319,64": 1117,
    "1117,77": 1118,
    "62,1": 1119,
    "24,8": 1120,
    "752,1": 1121,
    "893,80": 1122,
    "1122,73": 1123,
    "359,71": 1124,
    "428,62": 1125,
    "155,72": 1126,
    "85,64": 1127,
    "1127,63": 1128,
    "1128,1": 1129,
    "731,68": 1130,
    "335,71": 1131,
    "1131,64": 1132,
    "74,65": 1133,
    "1133,1": 1134,
    "684,67": 1135,
    "899,78": 1136,
    "275,61": 1137,
    "94,68": 1138,
    "128,77": 1139,
    "1139,64": 1140,
    "1140,68": 1141,
    "1141,66": 1142,
    "327,78": 1143,
    "75,1": 1144,
    "45,60": 1145,
    "1145,66": 1146,
    "1146,64": 1147,
    "36,80": 1148,
    "1148,68": 1149,
    "1149,63": 1150,
    "1150,64": 1151,
    "171,71": 1152,
    "1152,68": 1153,
    "1153,60": 1154,
    "1154,72": 1155,
    "353,64": 1156,
    "54,60": 1157,
    "1157,73": 1158,
    "1158,70": 1159,
    "1159,64": 1160,
    "1160,64": 1161,
    "35,77": 1162,
    "1162,64": 1163,
    "1163,73": 1164,
    "60,65": 1165,
    "1136,79": 1166,
    "175,1": 1167,
    "126,66": 1168,
    "1168,64": 1169,
    "73,62": 1170,
    "78,71": 1171,
    "135,80": 1172,
    "1172,78": 1173,
    "8,11": 1174,
    "1174,1": 1175,
    "79,85": 1176,
    "54,74": 1177,
    "1177,77": 1178,
    "1178,70": 1179,
    "408,62": 1180,
    "1180,60": 1181,
    "1181,71": 1182,
    "247,74": 1183,
    "1183,75": 1184,
    "114,77": 1185,
    "83,60": 1186,
    "73,84": 1187,
    "65,77": 1188,
    "948,78": 1189,
    "499,1": 1190,
    "92,79": 1191,
    "1191,68": 1192,
    "1192,62": 1193,
    "640,78": 1194,
    "1165,79": 1195,
    "1195,64": 1196,
    "485,66": 1197,
    "1197,64": 1198,
    "78,9": 1199,
    "165,66": 1200,
    "1149,73": 1201,
    "80,61": 1202,
    "1202,71": 1203,
    "1203,68": 1204,
    "62,13": 1205,
    "142,66": 1206,
    "1206,64": 1207,
    "1207,78": 1208,
    "33,69": 1209,
    "1209,68": 1210,
    "1210,61": 1211,
    "1211,74": 1212,
    "1212,80": 1213,
    "65,60": 1214,
    "1214,72": 1215,
    "1215,74": 1216,
    "1216,80": 1217,
    "1217,78": 1218,
    "66,79": 1219,
    "1219,74": 1220,
    "151,79": 1221,
    "692,80": 1222,
    "1222,78": 1223,
    "520,63": 1224,
    "1,78": 1225,
    "912,73": 1226,
    "77,72": 1227,
    "1227,60": 1228,
    "73,78": 1229,
    "1229,64": 1230,
    "507,74": 1231,
    "1231,63": 1232,
    "403,77": 1233,
    "33,60": 1234,
    "1234,73": 1235,
    "1235,68": 1236,
    "1236,78": 1237,
    "1237,67": 1238,
    "295,80": 1239,
    "1239,60": 1240,
    "1240,77": 1241,
    "338,64": 1242,
    "9,16": 1243,
    "63,63": 1244,
    "70,72": 1245,
    "1245,8": 1246,
    "964,74": 1247,
    "142,73": 1248,
    "31,60": 1249,
    "1249,73": 1250,
    "1250,66": 1251,
    "1251,71": 1252,
    "72,72": 1253,
    "37,60": 1254,
    "1254,72": 1255,
    "1255,68": 1256,
    "1256,71": 1257,
    "532,60": 1258,
    "1258,62": 1259,
    "1259,67": 1260,
    "625,62": 1261,
    "1261,64": 1262,
    "1053,64": 1263,
    "1263,73": 1264,
    "519,60": 1265,
    "1265,73": 1266,
    "117,63": 1267,
    "9,54": 1268,
    "418,60": 1269,
    "932,67": 1270,
    "30,77": 1271,
    "1271,79": 1272,
    "1272,68": 1273,
    "1273,62": 1274,
    "1274,71": 1275,
    "202,60": 1276,
    "1,73": 1277,
    "1277,74": 1278,
    "1278,79": 1279,
    "220,1": 1280,
    "425,63": 1281,
    "405,1": 1282,
    "1139,78": 1283,
    "408,78": 1284,
    "195,79": 1285,
    "1062,77": 1286,
    "548,1": 1287,
    "78,64": 1288,
    "1288,77": 1289,
    "1289,81": 1290,
    "49,68": 1291,
    "1291,66": 1292,
    "1292,77": 1293,
    "459,77": 1294,
    "66,73": 1295,
    "415,72": 1296,
    "1296,61": 1297,
    "231,64": 1298,
    "1298,77": 1299,
    "339,82": 1300,
    "1300,73": 1301,
    "270,77": 1302,
    "1302,79": 1303,
    "780,71": 1304,
    "66,84": 1305,
    "1305,75": 1306,
    "1306,79": 1307,
    "81,84": 1308,
    "386,77": 1309,
    "255,84": 1310,
    "1310,1": 1311,
    "226,79": 1312,
    "359,63": 1313,
    "838,68": 1314,
    "39,60": 1315,
    "1315,62": 1316,
    "1316,70": 1317,
    "41,1": 1318,
    "1318,61": 1319,
    "1319,77": 1320,
    "194,71": 1321,
    "1321,64": 1322,
    "611,60": 1323,
    "428,79": 1324,
    "1324,67": 1325,
    "316,74": 1326,
    "1326,77": 1327,
    "1327,73": 1328,
    "63,66": 1329,
    "1329,64": 1330,
    "1062,66": 1331,
    "1331,67": 1332,
    "61,78": 1333,
    "65,84": 1334,
    "27,1": 1335,
    "257,68": 1336,
    "1336,73": 1337,
    "195,71": 1338,
    "582,66": 1339,
    "1339,71": 1340,
    "1340,64": 1341,
    "569,72": 1342,
    "1342,64": 1343,
    "1343,73": 1344,
    "716,78": 1345,
    "1314,75": 1346,
    "1346,79": 1347,
    "117,77": 1348,
    "1348,68": 1349,
    "418,62": 1350,
    "654,74": 1351,
    "1351,77": 1352,
    "1352,63": 1353,
    "71,72": 1354,
    "408,74": 1355,
    "1355,77": 1356,
    "77,1": 1357,
    "1357,14": 1358,
    "1358,78": 1359,
    "1359,80": 1360,
    "92,75": 1361,
    "48,62": 1362,
    "1362,74": 1363,
    "1363,79": 1364,
    "1049,73": 1365,
    "482,63": 1366,
    "1033,64": 1367,
    "1367,73": 1368,
    "60,61": 1369,
    "1369,71": 1370,
    "415,73": 1371,
    "194,68": 1372,
    "1372,60": 1373,
    "554,75": 1374,
    "691,77": 1375,
    "1375,60": 1376,
    "947,77": 1377,
    "838,60": 1378,
    "690,62": 1379,
    "1379,67": 1380,
    "753,60": 1381,
    "33,44": 1382,
    "1382,43": 1383,
    "1383,34": 1384,
    "62,68": 1385,
    "1385,64": 1386,
    "1386,73": 1387,
    "15,11": 1388,
    "485,64": 1389,
    "1389,1": 1390,
    "301,66": 1391,
    "165,62": 1392,
    "601,78": 1393,
    "1393,78": 1394,
    "293,79": 1395,
    "546,62": 1396,
    "50,1": 1397,
    "1288,78": 1398,
    "1398,78": 1399,
    "30,71": 1400,
    "1400,64": 1401,
    "1401,83": 1402,
    "73,1": 1403,
    "1403,61": 1404,
    "1404,77": 1405,
    "699,1": 1406,
    "401,68": 1407,
    "1407,62": 1408,
    "1408,64": 1409,
    "629,68": 1410,
    "1410,73": 1411,
    "74,66": 1412,
    "79,82": 1413,
    "1413,64": 1414,
    "1414,64": 1415,
    "1156,78": 1416,
    "1416,79": 1417,
    "612,63": 1418,
    "77,80": 1419,
    "1419,62": 1420,
    "1420,79": 1421,
    "364,78": 1422,
    "1422,64": 1423,
    "228,84": 1424,
    "508,64": 1425,
    "43,60": 1426,
    "1426,70": 1427,
    "1427,60": 1428,
    "1428,73": 1429,
    "64,11": 1430,
    "1430,1": 1431,
    "197,60": 1432,
    "1432,79": 1433,
    "1385,73": 1434,
    "66,8": 1435,
    "108,16": 1436,
    "1436,24": 1437,
    "20,1": 1438,
    "1438,60": 1439,
    "1439,73": 1440,
    "1440,63": 1441,
    "1441,1": 1442,
    "222,68": 1443,
    "932,68": 1444,
    "1,30": 1445,
    "147,73": 1446,
    "485,77": 1447,
    "472,68": 1448,
    "359,77": 1449,
    "1449,73": 1450,
    "80,68": 1451,
    "168,77": 1452,
    "1452,60": 1453,
    "1453,62": 1454,
    "222,64": 1455,
    "1455,73": 1456,
    "157,78": 1457,
    "338,68": 1458,
    "1458,75": 1459,
    "74,64": 1460,
    "1460,1": 1461,
    "311,79": 1462,
    "1370,64": 1463,
    "92,73": 1464,
    "406,77": 1465,
    "246,68": 1466,
    "1466,63": 1467,
    "760,64": 1468,
    "1468,66": 1469,
    "1469,74": 1470,
    "1470,77": 1471,
    "21,79": 1472,
    "1472,67": 1473,
    "164,79": 1474,
    "654,68": 1475,
    "1475,73": 1476,
    "486,80": 1477,
    "92,74": 1478,
    "1478,73": 1479,
    "84,64": 1480,
    "118,71": 1481,
    "197,64": 1482,
    "1482,78": 1483,
    "1063,67": 1484,
    "615,64": 1485,
    "155,82": 1486,
    "63,13": 1487,
    "83,68": 1488,
    "1488,62": 1489,
    "611,74": 1490,
    "1490,82": 1491,
    "428,73": 1492,
    "408,73": 1493,
    "1493,66": 1494,
    "305,77": 1495,
    "32,68": 1496,
    "1496,73": 1497,
    "1497,62": 1498,
    "36,68": 1499,
    "1499,60": 1500,
    "1500,73": 1501,
    "1501,79": 1502,
    "309,79": 1503,
    "408,66": 1504,
    "1504,67": 1505,
    "1505,79": 1506,
    "1062,73": 1507,
    "1507,62": 1508,
    "48,1": 1509,
    "1448,62": 1510,
    "621,62": 1511,
    "627,79": 1512,
    "80,66": 1513,
    "1513,67": 1514,
    "1514,79": 1515,
    "554,71": 1516,
    "126,77": 1517,
    "917,72": 1518,
    "1518,60": 1519,
    "1227,86": 1520,
    "222,84": 1521,
    "1521,78": 1522,
    "1522,68": 1523,
    "1523,78": 1524,
    "167,79": 1525,
    "1525,80": 1526,
    "1526,77": 1527,
    "22,11": 1528,
    "1528,1": 1529,
    "961,60": 1530,
    "1530,73": 1531,
    "1531,63": 1532,
    "599,60": 1533,
    "135,72": 1534,
    "1534,64": 1535,
    "682,1": 1536,
    "39,80": 1537,
    "1033,72": 1538,
    "899,77": 1539,
    "1539,74": 1540,
    "1540,75": 1541,
    "1541,77": 1542,
    "34,73": 1543,
    "1543,66": 1544,
    "1544,71": 1545,
    "716,73": 1546,
    "1546,66": 1547,
    "311,78": 1548,
    "1548,78": 1549,
    "358,68": 1550,
    "1550,64": 1551,
    "1551,79": 1552,
    "464,73": 1553,
    "328,78": 1554,
    "838,74": 1555,
    "126,71": 1556,
    "52,38": 1557,
    "545,64": 1558,
    "1558,77": 1559,
    "32,43": 1560,
    "1560,48": 1561,
    "1561,1": 1562,
    "118,64": 1563,
    "1474,1": 1564,
    "500,77": 1565,
    "554,78": 1566,
    "1566,79": 1567,
    "78,1": 1568,
    "1568,74": 1569,
    "1569,65": 1570,
    "1570,1": 1571,
    "485,68": 1572,
    "194,1": 1573,
    "1277,63": 1574,
    "1574,60": 1575,
    "1575,78": 1576,
    "62,76": 1577,
    "1577,80": 1578,
    "1171,60": 1579,
    "628,71": 1580,
    "848,79": 1581,
    "1170,79": 1582,
    "1,40": 1583,
    "1583,74": 1584,
    "1584,73": 1585,
    "1585,66": 1586,
    "1025,74": 1587,
    "1587,80": 1588,
    "1085,61": 1589,
    "1589,77": 1590,
    "33,64": 1591,
    "64,64": 1592,
    "1592,63": 1593,
    "316,64": 1594,
    "919,80": 1595,
    "1595,78": 1596,
    "17,11": 1597,
    "258,74": 1598,
    "1598,80": 1599,
    "102,77": 1600,
    "1600,60": 1601,
    "364,64": 1602,
    "1602,1": 1603,
    "917,64": 1604,
    "1604,78": 1605,
    "1605,64": 1606,
    "197,63": 1607,
    "139,75": 1608,
    "1608,79": 1609,
    "528,77": 1610,
    "1610,63": 1611,
    "983,64": 1612,
    "135,79": 1613,
    "917,1": 1614,
    "84,71": 1615,
    "1615,64": 1616,
    "185,78": 1617,
    "82,71": 1618,
    "309,63": 1619,
    "17,1": 1620,
    "56,72": 1621,
    "1621,60": 1622,
    "1622,79": 1623,
    "1385,71": 1624,
    "75,77": 1625,
    "1625,68": 1626,
    "8,1": 1627,
    "7,63": 1628,
    "1628,13": 1629,
    "1629,1": 1630,
    "226,77": 1631,
    "1631,63": 1632,
    "38,13": 1633,
    "51,68": 1634,
    "144,66": 1635,
    "164,81": 1636,
    "1636,64": 1637,
    "82,67": 1638,
    "1638,68": 1639,
    "1639,62": 1640,
    "1640,67": 1641,
    "415,71": 1642,
    "1642,71": 1643,
    "752,68": 1644,
    "1644,63": 1645,
    "60,85": 1646,
    "1646,68": 1647,
    "447,1": 1648,
    "1648,38": 1649,
    "171,74": 1650,
    "1650,79": 1651,
    "79,78": 1652,
    "917,63": 1653,
    "842,75": 1654,
    "591,74": 1655,
    "396,77": 1656,
    "35,60": 1657,
    "1657,77": 1658,
    "1658,74": 1659,
    "1659,64": 1660,
    "1229,79": 1661,
    "71,1": 1662,
    "34,1": 1663,
    "1663,12": 1664,
    "109,74": 1665,
    "307,77": 1666,
    "73,77": 1667,
    "262,64": 1668,
    "1668,77": 1669,
    "1188,68": 1670,
    "222,71": 1671,
    "1671,64": 1672,
    "1672,63": 1673,
    "465,67": 1674,
    "764,64": 1675,
    "80,60": 1676,
    "295,60": 1677,
    "1677,63": 1678,
    "856,74": 1679,
    "52,68": 1680,
    "1680,79": 1681,
    "1681,67": 1682,
    "181,68": 1683,
    "1683,64": 1684,
    "1684,73": 1685,
    "13,75": 1686,
    "1686,73": 1687,
    "1687,66": 1688,
    "219,79": 1689,
    "1689,80": 1690,
    "1315,75": 1691,
    "1691,60": 1692,
    "1692,73": 1693,
    "1,60": 1694,
    "1694,78": 1695,
    "1695,1": 1696,
    "71,70": 1697,
    "364,63": 1698,
    "1698,60": 1699,
    "1699,73": 1700,
    "34,72": 1701,
    "658,79": 1702,
    "98,78": 1703,
    "486,71": 1704,
    "305,79": 1705,
    "1705,64": 1706,
    "754,84": 1707,
    "74,63": 1708,
    "249,75": 1709,
    "1709,71": 1710,
    "23,8": 1711,
    "464,77": 1712,
    "68,61": 1713,
    "1288,71": 1714,
    "582,68": 1715,
    "1145,80": 1716,
    "1716,71": 1717,
    "67,79": 1718,
    "82,78": 1719,
    "180,60": 1720,
    "1720,78": 1721,
    "71,61": 1722,
    "1722,64": 1723,
    "1723,77": 1724,
    "364,66": 1725,
    "197,73": 1726,
    "1726,64": 1727,
    "1727,62": 1728,
    "1728,79": 1729,
    "714,64": 1730,
    "1730,78": 1731,
    "1480,60": 1732,
    "1732,77": 1733,
    "92,81": 1734,
    "128,1": 1735,
    "275,66": 1736,
    "1,61": 1737,
    "1737,77": 1738,
    "1680,72": 1739,
    "1739,61": 1740,
    "1740,71": 1741,
    "899,71": 1742,
    "748,66": 1743,
    "623,71": 1744,
    "83,79": 1745,
    "235,78": 1746,
    "164,75": 1747,
    "1747,71": 1748,
    "48,74": 1749,
    "1749,65": 1750,
    "1750,79": 1751
  },
  "next_id": 1752
}