{
  "id2token": {
    "0": "\n",
    "1": " ",
    "2": "!",
    "3": "#",
    "4": "$",
    "5": "%",
    "6": "'",
    "7": "(",
    "8": ")",
    "9": "*",
    "10": "+",
    "11": ",",
    "12": "-",
    "13": ".",
    "14": "/",
    "15": "0",
    "16": "1",
    "17": "2",
    "18": "3",
    "19": "4",
    "20": "5",
    "21": "6",
    "22": "7",
    "23": "8",
    "24": "9",
    "25": ":",
    "26": ";",
    "27": "=",
    "28": "?",
    "29": "@",
    "30": "A",
    "31": "B",
    "32": "C",
    "33": "D",
    "34": "E",
    "35": "F",
    "36": "G",
    "37": "H",
    "38": "I",
    "39": "J",
    "40": "K",
    "41": "L",
    "42": "M",
    "43": "N",
    "44": "O",
    "45": "P",
    "46": "Q",
    "47": "R",
    "48": "S",
    "49": "T",
    "50": "U",
    "51": "V",
    "52": "W",
    "53": "X",
    "54": "Y",
    "55": "Z",
    "56": "\\",
    "57": "^",
    "58": "_",
    "59": "`",
    "60": "a",
    "61": "b",
    "62": "c",
    "63": "d",
    "64": "e",
    "65": "f",
    "66": "g",
    "67": "h",
    "68": "i",
    "69": "j",
    "70": "k",
    "71": "l",
    "72": "m",
    "73": "n",
    "74": "o",
    "75": "p",
    "76": "q",
    "77": "r",
    "78": "s",
    "79": "t",
    "80": "u",
    "81": "v",
    "82": "w",
    "83": "x",
    "84": "y",
    "85": "z",
    "86": "{",
    "87": "|",
    "88": "}",
    "89": "~",
    "90": "<|endoftext|>",
    "91": "<pad>",
    "92": "lc",
    "93": "lch",
    "94": "lche",
    "95": "lchem",
    "96": "ti",
    "97": "tim",
    "98": "na",
    "99": "nad",
    "100": "5,",
    "101": "5, ",
    "102": "go",
    "103": "gom",
    "104": "gome",
    "105": "be",
    "106": "bet",
    "107": "ve",
    "108": "ves",
    "109": "NP",
    "110": "ca",
    "111": "can",
    "112": "ga",
    "113": "gat",
    "114": "le",
    "115": "fi",
    "116": "fil",
    "117": "film",
    "118": "sl",
    "119": "sla",
    "120": "slan",
    "121": "sland",
    "122": "he",
    "123": "het",
    "124": "lu",
    "125": "lue",
    "126": "tu",
    "127": "tua",
    "128": "0s",
    "129": "0s ",
    "130": "pi",
    "131": "pir",
    "132": "pire",
    "133": "og",
    "134": "tl",
    "135": "tle",
    "136": "tler",
    "137": "yn",
    "138": "yna",
    "139": "IG",
    "140": "ub",
    "141": "ubs",
    "142": "ubst",
    "143": "7 ",
    "144": "7 -",
    "145": "8s",
    "146": "8s.",
    "147": "mp",
    "148": "pt",
    "149": "pte",
    "150": "ptem",
    "151": "ptemb",
    "152": "g ",
    "153": "ro",
    "154": "rov",
    "155": "ba",
    "156": "bas",
    "157": "eg",
    "158": "ega",
    "159": "it",
    "160": "ith",
    "161": "si",
    "162": "sin",
    "163": "sing",
    "164": "nz",
    "165": "xi",
    "166": "xil",
    "167": "ww",
    "168": "www",
    "169": "BA",
    "170": "BAS",
    "171": "BASI",
    "172": "ng",
    "173": "ngs",
    "174": "ib",
    "175": "ibu",
    "176": "ibut",
    "177": " o",
    "178": "roy",
    "179": "itu",
    "180": "7-",
    "181": "Ke",
    "182": "Kep",
    "183": "Kepl",
    "184": "Keple",
    "185": "g K",
    "186": "g Ko",
    "187": "g Kon",
    "188": "g Kong",
    "189": "nat",
    "190": "nati",
    "191": "natio",
    "192": "nation",
    "193": "on",
    "194": "one",
    "195": "onee",
    "196": "oneer",
    "197": "ra",
    "198": "ras",
    "199": "nal",
    "200": "ch",
    "201": "che",
    "202": "chem",
    "203": "tig",
    "204": "us",
    "205": "ust",
    "206": "ust ",
    "207": "pr",
    "208": "pri",
    "209": "pril",
    "210": "co",
    "211": "coh",
    "212": "coho",
    "213": "od",
    "214": "ody",
    "215": "odyn",
    "216": "Go",
    "217": "rm",
    "218": "rmi",
    "219": "rmin",
    "220": "eu",
    "221": "eud",
    "222": ".j",
    "223": ".jp",
    "224": ".jpg",
    "225": "to",
    "226": "to ",
    "227": "SR",
    "228": "ke",
    "229": "ker",
    "230": "ly",
    "231": "ly ",
    "232": "ni",
    "233": "nis",
    "234": "nish",
    "235": "is",
    "236": "2 ",
    "237": "2 -",
    "238": "ond",
    "239": "ondo",
    "240": "uc",
    "241": "uch",
    "242": "uch ",
    "243": "uch a",
    "244": "uch as",
    "245": "th",
    "246": "the",
    "247": "PP",
    "248": "if",
    "249": "ifi",
    "250": "ta",
    "251": "tan",
    "252": "tane",
    "253": "taneo",
    "254": "taneou",
    "255": "sp",
    "256": "spi",
    "257": "spit",
    "258": "spite",
    "259": "ol",
    "260": "ole",
    "261": "olec",
    "262": "olecu",
    "263": "X-",
    "264": "X-M",
    "265": "X-Me",
    "266": "X-Men",
    "267": "ii",
    "268": "er",
    "269": "erm",
    "270": "erma",
    "271": "I ",
    "272": "li",
    "273": "lia",
    "274": "liam",
    "275": "liame",
    "276": "ut",
    "277": "utu",
    "278": "utur",
    "279": "we",
    "280": "wes",
    "281": "west",
    "282": "(d",
    "283": "(d.",
    "284": "(d. ",
    "285": "-|",
    "286": "il",
    "287": "ilt",
    "288": "ilto",
    "289": "ka",
    "290": "kat",
    "291": "in",
    "292": "ini",
    "293": "init",
    "294": "ri",
    "295": "rit",
    "296": "rito",
    "297": "ritor",
    "298": "vo",
    "299": "ki",
    "300": "kii",
    "301": "kiin",
    "302": "kiing",
    "303": "pp",
    "304": "ppe",
    "305": "pped",
    "306": "du",
    "307": "duk",
    "308": "duke",
    "309": "ll",
    "310": "lle",
    "311": "lled",
    "312": "He",
    "313": "Heg",
    "314": "Hege",
    "315": "Hegel",
    "316": "Ge",
    "317": "fr",
    "318": "fri",
    "319": "fric",
    "320": "frica",
    "321": "rop",
    "322": "ise",
    "323": "ns",
    "324": "nsw",
    "325": "nswi",
    "326": "nswic",
    "327": "nswick",
    "328": "dh",
    "329": "dhe",
    "330": "dhei",
    "331": "dheim",
    "332": "tt",
    "333": "tte",
    "334": "ttee",
    "335": "ie",
    "336": "ier",
    "337": "an",
    "338": "ang",
    "339": "nan",
    "340": "nst",
    "341": "nstr",
    "342": "nstra",
    "343": "hr",
    "344": "hro",
    "345": "gm",
    "346": "gme",
    "347": "gmen",
    "348": "gment",
    "349": "hy",
    "350": "hys",
    "351": "hysi",
    "352": " of",
    "353": " of ",
    "354": "da",
    "355": "rt",
    "356": "rte",
    "357": "rteg",
    "358": "rtegu",
    "359": "rtegun",
    "360": "lea",
    "361": "leas",
    "362": "least",
    "363": "lla",
    "364": "llab",
    "365": ".*",
    "366": "6,",
    "367": "6, ",
    "368": "ver",
    "369": "vers",
    "370": "ou",
    "371": "oul",
    "372": "ct",
    "373": "cti",
    "374": "ctio",
    "375": "ction",
    "376": "xe",
    "377": "ur",
    "378": "urr",
    "379": "urro",
    "380": "urrou",
    "381": "urroun",
    "382": "urround",
    "383": "tw",
    "384": "twe",
    "385": "st",
    "386": "ste",
    "387": "stem",
    "388": "ho",
    "389": "hou",
    "390": "hour",
    "391": "rie",
    "392": "ried",
    "393": "mu",
    "394": "mul",
    "395": "mula",
    "396": "gh",
    "397": "ght",
    "398": "ctl",
    "399": "ctly",
    "400": "pu",
    "401": "pul",
    "402": "Ci",
    "403": "Cin",
    "404": "Cine",
    "405": "Cinem",
    "406": "lo",
    "407": "low",
    "408": "ne",
    "409": "nes",
    "410": "nes ",
    "411": ".g",
    "412": ".g.",
    "413": "n ",
    "414": "n /",
    "415": "n /s",
    "416": "n /su",
    "417": "Ru",
    "418": "Rum",
    "419": "ru",
    "420": "ruc",
    "421": "ruct",
    "422": "ructu",
    "423": "ructur",
    "424": "PU",
    "425": "PUT",
    "426": "pl",
    "427": "pla",
    "428": "jo",
    "429": "joy",
    "430": "mw",
    "431": "mwa",
    "432": "se",
    "433": "sen",
    "434": "ned",
    "435": "lov",
    "436": "bab",
    "437": "pe",
    "438": "pec",
    "439": "pect",
    "440": "io",
    "441": "iou",
    "442": "Ap",
    "443": "nd",
    "444": "nd ",
    "445": "nist",
    "446": "al",
    "447": "al ",
    "448": "te",
    "449": "ter",
    "450": "tera",
    "451": "-t",
    "452": "NO",
    "453": "or",
    "454": "orp",
    "455": "orpo",
    "456": "orpor",
    "457": "orpora",
    "458": "ha",
    "459": "hav",
    "460": "have",
    "461": "po",
    "462": "por",
    "463": "port",
    "464": "M ",
    "465": "M -",
    "466": "Je",
    "467": "Jew",
    "468": "at",
    "469": "ati",
    "470": "atio",
    "471": "ation",
    "472": "p ",
    "473": "p o",
    "474": "p of",
    "475": "p of ",
    "476": "xo",
    "477": "xon",
    "478": "PE",
    "479": "ag",
    "480": "ags",
    "481": "ak",
    "482": "aki",
    "483": "akin",
    "484": "em",
    "485": "emb",
    "486": "et",
    "487": "etw",
    "488": "etwe",
    "489": "ank",
    "490": "lly",
    "491": "fic",
    "492": "ux",
    "493": "vi",
    "494": "vid",
    "495": "ug",
    "496": "ugu",
    "497": "ugus",
    "498": "ugust",
    "499": "ue",
    "500": "uer",
    "501": "Br",
    "502": "bs",
    "503": "bst",
    "504": "com",
    "505": "come",
    "506": "Gr",
    "507": "Gre",
    "508": "Kr",
    "509": "Kra",
    "510": "ort",
    "511": "orth",
    "512": "har",
    "513": "hara",
    "514": "harac",
    "515": "haract",
    "516": "2D",
    "517": "ar",
    "518": "arv",
    "519": "arva",
    "520": "arvar",
    "521": "arvard",
    "522": "ea",
    "523": "eat",
    "524": "eaty",
    "525": "qu",
    "526": "ju",
    "527": "jus",
    "528": "just",
    "529": "rl",
    "530": "rle",
    "531": "rles",
    "532": "rles ",
    "533": "ved",
    "534": "ec",
    "535": "ech",
    "536": "Sc",
    "537": "Sci",
    "538": "Scie",
    "539": "Scien",
    "540": "gol",
    "541": " (",
    "542": "yl",
    "543": "ylo",
    "544": "ylor",
    "545": "Bri",
    "546": "Brit",
    "547": "Briti",
    "548": "Britis",
    "549": " y",
    "550": " ye",
    "551": " yea",
    "552": " year",
    "553": "hi",
    "554": "hit",
    "555": "hite",
    "556": "ud",
    "557": "udl",
    "558": "udle",
    "559": "udley",
    "560": "dus",
    "561": "dust",
    "562": "dustr",
    "563": "ov",
    "564": "ove",
    "565": "ovel",
    "566": "ut ",
    "567": "ep",
    "568": "epe",
    "569": "epen",
    "570": "ad",
    "571": "ade",
    "572": "ader",
    "573": "fie",
    "574": "fied",
    "575": "gt",
    "576": "ac",
    "577": "act",
    "578": "acte",
    "579": "ph",
    "580": "phe",
    "581": "pher",
    "582": "wa",
    "583": "was",
    "584": "Ro",
    "585": "Rod",
    "586": "Rodg",
    "587": "Rodge",
    "588": "me",
    "589": "mel",
    "590": "mela",
    "591": "melan",
    "592": "Ex",
    "593": "Exa",
    "594": "Exam",
    "595": "Examp",
    "596": "Exampl",
    "597": "Example",
    "598": "wi",
    "599": "wis",
    "600": "wise",
    "601": "set",
    "602": "rus",
    "603": "rusa",
    "604": "Fo",
    "605": "For",
    "606": "Fore",
    "607": "etr",
    "608": "os",
    "609": "ose",
    "610": "osev",
    "611": "oseve",
    "612": "th ",
    "613": "ers",
    "614": "ln",
    "615": "eb",
    "616": "ebr",
    "617": "rs",
    "618": "rse",
    "619": "rse ",
    "620": "tal",
    "621": "tale",
    "622": "oly",
    "623": "ir",
    "624": "irt",
    "625": "irth",
    "626": "hat",
    "627": "hat ",
    "628": "U ",
    "629": "U -",
    "630": "U --",
    "631": "en",
    "632": "ene",
    "633": "*1",
    "634": "bsp",
    "635": "uri",
    "636": "urit",
    "637": "urity",
    "638": "/o",
    "639": "ef",
    "640": "eft",
    "641": "ee",
    "642": "een",
    "643": "rp",
    "644": "rph",
    "645": "yr",
    "646": "yri",
    "647": "yrig",
    "648": "eas",
    "649": "and",
    "650": "peci",
    "651": "IB",
    "652": "IBO",
    "653": "ory",
    "654": "ew",
    "655": "Jo",
    "656": "Joh",
    "657": "John",
    "658": "cu",
    "659": "cue",
    "660": "ic",
    "661": "ici",
    "662": "icie",
    "663": "icien",
    "664": "ae",
    "665": "ael",
    "666": "om",
    "667": "omi",
    "668": "omin",
    "669": "omina",
    "670": "let",
    "671": "uci",
    "672": "ap",
    "673": "apt",
    "674": "Wr",
    "675": "Wri",
    "676": "va",
    "677": "vat",
    "678": "yle",
    "679": "ica",
    "680": "ical",
    "681": "tang",
    "682": "tange",
    "683": "tangen",
    "684": "//",
    "685": "Ca",
    "686": "Can",
    "687": "Cant",
    "688": "Canto",
    "689": "As",
    "690": "Asi",
    "691": "Asia",
    "692": "icia",
    "693": "icial",
    "694": "lp",
    "695": "lpt",
    "696": "nda",
    "697": "ndan",
    "698": "ai",
    "699": "ird",
    "700": "pro",
    "701": "ya",
    "702": "yan",
    "703": "hib",
    "704": "hibi",
    "705": "hibit",
    "706": "ok",
    "707": "oke",
    "708": "de",
    "709": "de ",
    "710": "met",
    "711": "meth",
    "712": "metho",
    "713": "tc",
    "714": "tch",
    "715": "ld",
    "716": "ould",
    "717": "les",
    "718": "qua",
    "719": "Ze",
    "720": "Zep",
    "721": "Zeph",
    "722": "ple",
    "723": "un",
    "724": "und",
    "725": "undl",
    "726": "tie",
    "727": "nic",
    "728": "ic ",
    "729": "oli",
    "730": "ppl",
    "731": "la",
    "732": "lat",
    "733": "late",
    "734": "ony",
    "735": "kil",
    "736": "kilo",
    "737": "iu",
    "738": "ius",
    "739": "ma",
    "740": "mag",
    "741": "nt",
    "742": "nt ",
    "743": "das",
    "744": "ean",
    "745": "ean ",
    "746": "han",
    "747": "hani",
    "748": "Eu",
    "749": "Eur",
    "750": "Euro",
    "751": "Europ",
    "752": "Europe",
    "753": "h ",
    "754": " t",
    "755": " to",
    "756": " to ",
    "757": " C",
    "758": " Ch",
    "759": "liv",
    "760": "dul",
    "761": "oll",
    "762": "ollo",
    "763": "z)",
    "764": "sic",
    "765": ").",
    "766": "of",
    "767": "oft",
    "768": "ofte",
    "769": "often",
    "770": "pre",
    "771": "pres",
    "772": "Ac",
    "773": "Act",
    "774": "AM",
    "775": "AMP",
    "776": "mi",
    "777": "mil",
    "778": "mill",
    "779": "di",
    "780": "dif",
    "781": "diff",
    "782": "gu",
    "783": "gue",
    "784": "ll ",
    "785": "Ec",
    "786": "Eco",
    "787": "Econ",
    "788": "Econo",
    "789": "ck",
    "790": "cke",
    "791": "cket",
    "792": "jp",
    "793": "fin",
    "794": "gl",
    "795": "yi",
    "796": "yin",
    "797": "ying",
    "798": "sio",
    "799": "sion",
    "800": "7s",
    "801": "7s.",
    "802": "bu",
    "803": "bur",
    "804": "su",
    "805": "sum",
    "806": "Lo",
    "807": "Lor",
    "808": "Co",
    "809": "Cor",
    "810": "Corp",
    "811": "Corpo",
    "812": "Corpor",
    "813": "are",
    "814": "aren",
    "815": "pop",
    "816": "popu",
    "817": "popul",
    "818": "op",
    "819": "oph",
    "820": "br",
    "821": "bri",
    "822": "ui",
    "823": "uit",
    "824": "im",
    "825": "id",
    "826": "ide",
    "827": "iden",
    "828": "us ",
    "829": "9*",
    "830": "urk",
    "831": "rk",
    "832": "rke",
    "833": "rket",
    "834": "gov",
    "835": "gove",
    "836": "ei",
    "837": "eim",
    "838": "eco",
    "839": "econ",
    "840": "econd",
    "841": "per",
    "842": "per ",
    "843": "ze",
    "844": "zec",
    "845": "zech",
    "846": "ain",
    "847": "aint",
    "848": "el",
    "849": " (d",
    "850": " (d.",
    "851": " (d. ",
    "852": "Na",
    "853": "god",
    "854": "der",
    "855": "dera",
    "856": "irl",
    "857": "uth",
    "858": "tar",
    "859": "tarc",
    "860": "tarch",
    "861": "his",
    "862": "pid",
    "863": "mo",
    "864": "mor",
    "865": "more",
    "866": "more ",
    "867": "nc",
    "868": "nch",
    "869": "1,",
    "870": "1, ",
    "871": "Ho",
    "872": "Hom",
    "873": "cop",
    "874": "fing",
    "875": "finge",
    "876": "finger",
    "877": "las",
    "878": "lass",
    "879": "nsi",
    "880": "nsiv",
    "881": "nsive",
    "882": "bl",
    "883": "ble",
    "884": "lem",
    "885": "lema",
    "886": "vic",
    "887": "vict",
    "888": "jur",
    "889": "dan",
    "890": "GB",
    "891": "er ",
    "892": "do",
    "893": "don",
    "894": "TM",
    "895": "TML",
    "896": "Bo",
    "897": "Bos",
    "898": "Bost",
    "899": "Bosto",
    "900": "so",
    "901": "son",
    "902": "no",
    "903": "noo",
    "904": " /",
    "905": " /m",
    "906": "ig",
    "907": "igi",
    "908": "igio",
    "909": "rme",
    "910": "fo",
    "911": "for",
    "912": "forn",
    "913": "Os",
    "914": "Osc",
    "915": "Osca",
    "916": "Oscar",
    "917": "ebo",
    "918": "ebor",
    "919": "9 ",
    "920": "9 -",
    "921": "9 - ",
    "922": "olo",
    "923": "olor",
    "924": "olora",
    "925": "olorad",
    "926": "olorado",
    "927": "kk",
    "928": "cr",
    "929": "cri",
    "930": "crit",
    "931": "sk",
    "932": "mes",
    "933": "my",
    "934": "eij",
    "935": "eiji",
    "936": "eijin",
    "937": "eijing",
    "938": "fe",
    "939": "dn",
    "940": "gor",
    "941": "tr",
    "942": "tro",
    "943": "ia",
    "944": "iat",
    "945": "fl",
    "946": "flu",
    "947": "flue",
    "948": "pos",
    "949": "pose",
    "950": "posed",
    "951": "vem",
    "952": "veme",
    "953": "ge",
    "954": "els",
    "955": "uni",
    "956": "Gro",
    "957": "Groh",
    "958": "Grohl",
    "959": "iv",
    "960": "ive",
    "961": "ived",
    "962": "*v",
    "963": "*vs",
    "964": "*vs.",
    "965": "*vs. ",
    "966": "ue ",
    "967": "mm",
    "968": "mma",
    "969": "mman",
    "970": "mmand",
    "971": "Fol",
    "972": "Foll",
    "973": "Follo",
    "974": "cl",
    "975": "clu",
    "976": "clud",
    "977": "eatu",
    "978": "eatur",
    "979": "3,",
    "980": "3, ",
    "981": "),",
    "982": "), ",
    "983": "rim",
    "984": "rime",
    "985": "Pe",
    "986": "Ped",
    "987": "Pedr",
    "988": "Pedro",
    "989": "ban",
    "990": "ubj",
    "991": "ubje",
    "992": "ubjec",
    "993": "ubject",
    "994": "am",
    "995": "amp",
    "996": "ampl",
    "997": "ample",
    "998": "dr",
    "999": "fes",
    "1000": "fest",
    "1001": "amb",
    "1002": " /s",
    "1003": " /su",
    "1004": "lown",
    "1005": "Car",
    "1006": "ersi",
    "1007": "ersio",
    "1008": "ersion",
    "1009": "fore",
    "1010": "d ",
    "1011": "MP",
    "1012": "MPO",
    "1013": "2 - ",
    "1014": "osp",
    "1015": "ospe",
    "1016": "ospel",
    "1017": "mou",
    "1018": "up",
    "1019": "upt",
    "1020": "mb",
    "1021": "mbo",
    "1022": "now",
    "1023": "pto",
    "1024": "NO ",
    "1025": "NO I",
    "1026": "urt",
    "1027": "An",
    "1028": "Ang",
    "1029": "Ange",
    "1030": "Angel",
    "1031": "ate",
    "1032": "ater",
    "1033": "At",
    "1034": "Ata",
    "1035": "Atar",
    "1036": "cha",
    "1037": "chai",
    "1038": "chain",
    "1039": "eiv",
    "1040": "rope",
    "1041": "ibi",
    "1042": "ibit",
    "1043": "phr",
    "1044": "phro",
    "1045": "lio",
    "1046": "ana",
    "1047": "Pel",
    "1048": "Pelo",
    "1049": "mic",
    "1050": "nor",
    "1051": "PC",
    "1052": "ys",
    "1053": "ys ",
    "1054": "lt",
    "1055": "ltu",
    "1056": "ltur",
    "1057": "FT",
    "1058": "rot",
    "1059": "rote",
    "1060": "gha",
    "1061": "ghan",
    "1062": "lv",
    "1063": "lvi",
    "1064": "lvin",
    "1065": "Cap",
    "1066": "Cape",
    "1067": "xu",
    "1068": "xua",
    "1069": "eate",
    "1070": "eated",
    "1071": "mous",
    "1072": "lit",
    "1073": "ow",
    "1074": "owl",
    "1075": "lom",
    "1076": "lomb",
    "1077": "Te",
    "1078": "Tex",
    "1079": "Texa",
    "1080": "Texas",
    "1081": "cto",
    "1082": "ctob",
    "1083": "ctobe",
    "1084": " I",
    "1085": " II",
    "1086": "sia",
    "1087": "sian",
    "1088": "eo",
    "1089": "eop",
    "1090": "eopl",
    "1091": "oo",
    "1092": "ook",
    "1093": "lun",
    "1094": "lunt",
    "1095": "put",
    "1096": "bei",
    "1097": "bein",
    "1098": "being",
    "1099": "-B",
    "1100": "ft",
    "1101": "ft ",
    "1102": "rc",
    "1103": "rci",
    "1104": "rcis",
    "1105": "cra",
    "1106": "ex",
    "1107": "exa",
    "1108": "pin",
    "1109": "ping",
    "1110": "/m",
    "1111": "/ma",
    "1112": "/mat",
    "1113": "/math",
    "1114": "Ch",
    "1115": "wo",
    "1116": "wom",
    "1117": "woma",
    "1118": "woman",
    "1119": "20",
    "1120": "20s",
    "1121": "vie",
    "1122": "cup",
    "1123": "cupu",
    "1124": "cupun",
    "1125": "nee",
    "1126": "need",
    "1127": "ul",
    "1128": "uld",
    "1129": "ls",
    "1130": "lso",
    "1131": "lso ",
    "1132": "nam",
    "1133": "name",
    "1134": "oon",
    "1135": "ks",
    "1136": "ks ",
    "1137": "spr",
    "1138": "ger",
    "1139": "Du",
    "1140": "Rom",
    "1141": "bre",
    "1142": "brew",
    "1143": "hap",
    "1144": "haps",
    "1145": "bi",
    "1146": "bio",
    "1147": "gr",
    "1148": "gro",
    "1149": "olet",
    "1150": "+ ",
    "1151": "ckn",
    "1152": "ckna",
    "1153": "cknam",
    "1154": "ckname",
    "1155": "cknamed",
    "1156": "W ",
    "1157": "W -",
    "1158": "W --",
    "1159": " W",
    "1160": " Wa",
    "1161": " War",
    "1162": "bis",
    "1163": "ake",
    "1164": "aken",
    "1165": "br ",
    "1166": "lut",
    "1167": "lute",
    "1168": "gui",
    "1169": "guis",
    "1170": "guish",
    "1171": "rol",
    "1172": "tur",
    "1173": "use",
    "1174": "useu",
    "1175": "useum",
    "1176": "mba",
    "1177": "mbal",
    "1178": "a ",
    "1179": "ve ",
    "1180": "eme",
    "1181": "ng ",
    "1182": "atr",
    "1183": "atra",
    "1184": "le ",
    "1185": "1/",
    "1186": "1 ",
    "1187": "1 -",
    "1188": "tra",
    "1189": "trac",
    "1190": "tract",
    "1191": "xa",
    "1192": "xam",
    "1193": "xamp",
    "1194": "xampl",
    "1195": "tto",
    "1196": "ttom",
    "1197": "vit",
    "1198": "vity",
    "1199": "bj",
    "1200": "bje",
    "1201": "bjec",
    "1202": "bject",
    "1203": ";)",
    "1204": "rsi",
    "1205": "rsio",
    "1206": "rsion",
    "1207": "dom",
    "1208": "bal",
    "1209": "isl",
    "1210": "isla",
    "1211": "wo-",
    "1212": "ung",
    "1213": "unga",
    "1214": "ungar",
    "1215": "fa",
    "1216": "egi",
    "1217": "wd",
    "1218": "wde",
    "1219": "wder",
    "1220": "lus",
    "1221": "y)",
    "1222": "oso",
    "1223": "ibe",
    "1224": "ua",
    "1225": "uar",
    "1226": "yo",
    "1227": "yon",
    "1228": "yond",
    "1229": "8*",
    "1230": "isi",
    "1231": "isin",
    "1232": "dep",
    "1233": "depe",
    "1234": "Pr",
    "1235": "Pra",
    "1236": "rib",
    "1237": "ribu",
    "1238": "row",
    "1239": "wn",
    "1240": "wne",
    "1241": "fy",
    "1242": "ab",
    "1243": "abl",
    "1244": "low ",
    "1245": "den",
    "1246": "dens",
    "1247": "K ",
    "1248": "K -",
    "1249": "K --",
    "1250": "irs",
    "1251": "hie",
    "1252": "men",
    "1253": "ment",
    "1254": "uis",
    "1255": "has",
    "1256": "hase",
    "1257": "ppo",
    "1258": "ppor",
    "1259": "pport",
    "1260": "and ",
    "1261": "anat",
    "1262": "sel",
    "1263": "selv",
    "1264": "je",
    "1265": "jec",
    "1266": "ject",
    "1267": "Gi",
    "1268": "Gin",
    "1269": "rou",
    "1270": "roun",
    "1271": "round",
    "1272": "0 ",
    "1273": "0 b",
    "1274": "0 br",
    "1275": "D ",
    "1276": "D -",
    "1277": "D --",
    "1278": "mod",
    "1279": "unc",
    "1280": "ont",
    "1281": "re",
    "1282": "reo",
    "1283": "nci",
    "1284": "ncip",
    "1285": "wt",
    "1286": "wth",
    "1287": "unt",
    "1288": "untr",
    "1289": "untri",
    "1290": "untrie",
    "1291": "ustr",
    "1292": "cc",
    "1293": "cco",
    "1294": "lf",
    "1295": "nand",
    "1296": "ool",
    "1297": "sy",
    "1298": "syc",
    "1299": "sych",
    "1300": "ill",
    "1301": "illi",
    "1302": "g)",
    "1303": "luen",
    "1304": "ope",
    "1305": "oper",
    "1306": "orc",
    "1307": "orce",
    "1308": "lif",
    "1309": "lifo",
    "1310": "lifor",
    "1311": "liforn",
    "1312": "ona",
    "1313": "onan",
    "1314": "cy",
    "1315": "cyc",
    "1316": "cycl",
    "1317": "hu",
    "1318": "hum",
    "1319": "huma",
    "1320": "human",
    "1321": " r",
    "1322": " ri",
    "1323": " rig",
    "1324": " righ",
    "1325": " right",
    "1326": "Ir",
    "1327": "Ira",
    "1328": "o;",
    "1329": "day",
    "1330": "voi",
    "1331": "void",
    "1332": "nn",
    "1333": "nnh",
    "1334": "tab",
    "1335": "tabl",
    "1336": "tabli",
    "1337": "tablis",
    "1338": "tablish",
    "1339": "dv",
    "1340": "dve",
    "1341": "dver",
    "1342": "dverb",
    "1343": "acy",
    "1344": "ell",
    "1345": "spa",
    "1346": "spap",
    "1347": "ema",
    "1348": "rty",
    "1349": "sta",
    "1350": "ci",
    "1351": "nin",
    "1352": "nins",
    "1353": "ninsu",
    "1354": "Am",
    "1355": "Ame",
    "1356": "Amer",
    "1357": "Ameri",
    "1358": "oss",
    "1359": "very",
    "1360": "ald",
    "1361": "gar",
    "1362": "gard",
    "1363": "ties",
    "1364": "nl",
    "1365": "nly",
    "1366": "via",
    "1367": "NA",
    "1368": "rr",
    "1369": "rre",
    "1370": "rren",
    "1371": "rrent",
    "1372": "fec",
    "1373": "fect",
    "1374": "uck",
    "1375": "bo",
    "1376": "bot",
    "1377": "ant",
    "1378": "eni",
    "1379": "es",
    "1380": "ess",
    "1381": "sa",
    "1382": "san",
    "1383": "st ",
    "1384": "st o",
    "1385": "rted",
    "1386": "oy",
    "1387": "ery",
    "1388": "til",
    "1389": "ign",
    "1390": "ere",
    "1391": "eren",
    "1392": "fen",
    "1393": "av",
    "1394": "ave",
    "1395": "ave ",
    "1396": "usa",
    "1397": "usan",
    "1398": "usand",
    "1399": "str",
    "1400": "ult",
    "1401": "tin",
    "1402": "tes",
    "1403": "A ",
    "1404": "ing",
    "1405": "inge",
    "1406": "inger",
    "1407": "s'",
    "1408": "Ev",
    "1409": "Eva",
    "1410": "Evan",
    "1411": "Evang",
    "1412": "Evange",
    "1413": "Evangel",
    "1414": "ins",
    "1415": "inst",
    "1416": "60",
    "1417": "60s",
    "1418": "wee",
    "1419": "fu",
    "1420": "/or",
    "1421": "opp",
    "1422": "mili",
    "1423": "milia",
    "1424": "nf",
    "1425": "oc",
    "1426": "oca",
    "1427": "30",
    "1428": "30s",
    "1429": "mbe",
    "1430": "mber",
    "1431": "out",
    "1432": "outh",
    "1433": "method",
    "1434": "ithe",
    "1435": "ither",
    "1436": "acr",
    "1437": "bb",
    "1438": "gra",
    "1439": "grap",
    "1440": "graph",
    "1441": "le t",
    "1442": "-1",
    "1443": "ff",
    "1444": "ffi",
    "1445": "ffit",
    "1446": "5.",
    "1447": "iab",
    "1448": "pha",
    "1449": " i",
    "1450": "RI",
    "1451": "RIN",
    "1452": "RINT",
    "1453": "Pa",
    "1454": "alo",
    "1455": "alog",
    "1456": "ct ",
    "1457": "ct t",
    "1458": "ct th",
    "1459": "ct tha",
    "1460": "ct that",
    "1461": "ela",
    "1462": "elat",
    "1463": "Col",
    "1464": "Coll",
    "1465": "Colle",
    "1466": "Colleg",
    "1467": "ax",
    "1468": "igr",
    "1469": "enc",
    "1470": "ench",
    "1471": "In",
    "1472": "Inf",
    "1473": "isex",
    "1474": "mora",
    "1475": "ss",
    "1476": "ssi",
    "1477": "ile",
    "1478": "iled",
    "1479": "tiv",
    "1480": "tive",
    "1481": "rce",
    "1482": "cip",
    "1483": "itc",
    "1484": "itch",
    "1485": "rig",
    "1486": "righ",
    "1487": "right",
    "1488": "ild",
    "1489": "vil",
    "1490": "vill",
    "1491": "olit",
    "1492": "oliti",
    "1493": "bra",
    "1494": "brai",
    "1495": "brain",
    "1496": "Chr",
    "1497": "Chro",
    "1498": "cia",
    "1499": "kn",
    "1500": "kno",
    "1501": "avi",
    "1502": "avia",
    "1503": "ers ",
    "1504": "insta",
    "1505": "brid",
    "1506": "bridg",
    "1507": "bridge",
    "1508": "hn",
    "1509": "tk",
    "1510": "tka",
    "1511": "rro",
    "1512": "rrol",
    "1513": "rroll",
    "1514": "Oc",
    "1515": "Oct",
    "1516": "rui",
    "1517": "ruit",
    "1518": "cy ",
    "1519": "te ",
    "1520": "TD",
    "1521": "5 ",
    "1522": "5 a",
    "1523": "5 an",
    "1524": "5 and",
    "1525": "un ",
    "1526": "nit",
    "1527": "inc",
    "1528": "inch",
    "1529": "Di",
    "1530": "Dia",
    "1531": "Dian",
    "1532": "Zo",
    "1533": "Zon",
    "1534": "Zone",
    "1535": "tib",
    "1536": " n",
    "1537": " nu",
    "1538": " num",
    "1539": "bed",
    "1540": "mat",
    "1541": "mati",
    "1542": "F ",
    "1543": "nall",
    "1544": "nally",
    "1545": "iop",
    "1546": "cat",
    "1547": "ind",
    "1548": "rae",
    "1549": "rael",
    "1550": "Ta",
    "1551": "Tar",
    "1552": "Tarl",
    "1553": "Tarle",
    "1554": "rap",
    "1555": "raph",
    "1556": "hic",
    "1557": "hicl",
    "1558": "era",
    "1559": "eral",
    "1560": "Con",
    "1561": "Cons",
    "1562": "Const",
    "1563": "Pl",
    "1564": "Pla",
    "1565": "anc",
    "1566": "anch",
    "1567": "igra",
    "1568": "ail",
    "1569": "cua",
    "1570": "lec",
    "1571": "lect",
    "1572": "nct",
    "1573": "icu",
    "1574": "icul",
    "1575": "icula",
    "1576": "icular",
    "1577": " /ma",
    "1578": "lin",
    "1579": "ock",
    "1580": "ince",
    "1581": "3 ",
    "1582": "3 /",
    "1583": "3 /s",
    "1584": "Ye",
    "1585": "Yes",
    "1586": "gai",
    "1587": "gain",
    "1588": "erm ",
    "1589": "ome",
    "1590": "omen",
    "1591": "En",
    "1592": "Eng",
    "1593": "Engl",
    "1594": "um",
    "1595": "umn",
    "1596": "xp",
    "1597": "orn",
    "1598": "olv",
    "1599": "olve",
    "1600": "he ",
    "1601": "rg",
    "1602": "rgi",
    "1603": "rgin",
    "1604": "eq",
    "1605": "equ",
    "1606": "1 - ",
    "1607": "mpt",
    "1608": "mpto",
    "1609": "mptom",
    "1610": "lg",
    "1611": "lga",
    "1612": "lgar",
    "1613": "Cou",
    "1614": "Coun",
    "1615": "ed",
    "1616": "edr",
    "1617": "edri",
    "1618": "ney",
    "1619": "fro",
    "1620": "from",
    "1621": "exam",
    "1622": "examp",
    "1623": "exampl",
    "1624": "example",
    "1625": "lac",
    "1626": "lace",
    "1627": "tm",
    "1628": "tma",
    "1629": "flo",
    "1630": "flop",
    "1631": "Va",
    "1632": "ien",
    "1633": "iend",
    "1634": "osi",
    "1635": "osit",
    "1636": "gen",
    "1637": "gene",
    "1638": "rry",
    "1639": "re ",
    "1640": "oi",
    "1641": "oic",
    "1642": "oice",
    "1643": "ord",
    "1644": "orde",
    "1645": "order",
    "1646": "nchr",
    "1647": "utho",
    "1648": "uthor",
    "1649": "hon",
    "1650": "hony",
    "1651": "ms",
    "1652": "inis",
    "1653": "inist",
    "1654": "lse",
    "1655": "'t",
    "1656": "rea",
    "1657": "reat",
    "1658": "reate",
    "1659": "ling",
    "1660": " b",
    "1661": " br",
    "1662": "T ",
    "1663": "T -",
    "1664": "ss ",
    "1665": "gon",
    "1666": "iatr",
    "1667": "ccor",
    "1668": "ccord",
    "1669": "ysi",
    "1670": "ym",
    "1671": "ymp",
    "1672": "siu",
    "1673": "sium",
    "1674": "ix",
    "1675": "ina",
    "1676": "mbl",
    "1677": "off",
    "1678": "ymm",
    "1679": "ymme",
    "1680": "ymmet",
    "1681": "as",
    "1682": "as ",
    "1683": "lli",
    "1684": "llin",
    "1685": "llino",
    "1686": "igin",
    "1687": "sc",
    "1688": "scr",
    "1689": "scri",
    "1690": "ous",
    "1691": "oust",
    "1692": "erso",
    "1693": "erson",
    "1694": "llen",
    "1695": "lleng",
    "1696": "rien",
    "1697": "riend",
    "1698": "omis",
    "1699": "icit",
    "1700": "ani",
    "1701": "ania",
    "1702": "odu",
    "1703": "oduc",
    "1704": "rac",
    "1705": "ract",
    "1706": "y ",
    "1707": "y =",
    "1708": "y = ",
    "1709": "ist",
    "1710": "isto",
    "1711": "aw",
    "1712": "awa",
    "1713": "awar",
    "1714": "aware",
    "1715": "eri",
    "1716": "eria",
    "1717": "rf",
    "1718": "rfa",
    "1719": "rfac",
    "1720": "urc",
    "1721": "urce",
    "1722": "lm",
    "1723": "ye",
    "1724": "yea",
    "1725": "year",
    "1726": "lai",
    "1727": "laim",
    "1728": "nip",
    "1729": "Fort",
    "1730": "m ",
    "1731": "pho",
    "1732": "phon",
    "1733": "owe",
    "1734": "owed",
    "1735": "chan",
    "1736": "rmed",
    "1737": "sh",
    "1738": "shi",
    "1739": "shin",
    "1740": "eci",
    "1741": "sat",
    "1742": "nd o",
    "1743": "nd of",
    "1744": "nd of ",
    "1745": "roi",
    "1746": "roit",
    "1747": "alt",
    "1748": "stab",
    "1749": "stabl",
    "1750": "stabli",
    "1751": "rta",
    "1752": "rtai",
    "1753": "ent",
    "1754": "nge",
    "1755": "I -",
    "1756": "I --",
    "1757": "terr",
    "1758": "6)",
    "1759": "ck ",
    "1760": "ape",
    "1761": "apel",
    "1762": "sho",
    "1763": "shop",
    "1764": "fre",
    "1765": "fred",
    "1766": "gi",
    "1767": "gio",
    "1768": "fte",
    "1769": "fter",
    "1770": "too",
    "1771": "toon",
    "1772": "ito",
    "1773": "= ",
    "1774": "art",
    "1775": "art*",
    "1776": "reas",
    "1777": "Giu",
    "1778": "Gius",
    "1779": "gam",
    "1780": "lcu",
    "1781": "lcul",
    "1782": "Q ",
    "1783": "Q -",
    "1784": "Q --",
    "1785": "far",
    "1786": "fare",
    "1787": "pti",
    "1788": "ptis",
    "1789": "ume",
    "1790": "umen",
    "1791": "az",
    "1792": "azi",
    "1793": "troi",
    "1794": "troit",
    "1795": "Ne",
    "1796": "New",
    "1797": "New ",
    "1798": "opl",
    "1799": "on ",
    "1800": ")*",
    "1801": "lve",
    "1802": "lves",
    "1803": "ce",
    "1804": "ced",
    "1805": "ced ",
    "1806": "red",
    "1807": "ute",
    "1808": "los",
    "1809": "die",
    "1810": "not",
    "1811": "not ",
    "1812": "ros",
    "1813": "ross",
    "1814": "#S",
    "1815": "deo",
    "1816": "arti",
    "1817": "know",
    "1818": "known",
    "1819": "gent",
    "1820": "ria",
    "1821": "ffic",
    "1822": "ordo",
    "1823": "ordon",
    "1824": "iven",
    "1825": "brev",
    "1826": "nal ",
    "1827": "aer",
    "1828": "epend",
    "1829": "SB",
    "1830": "SBN",
    "1831": "bid",
    "1832": "bidd",
    "1833": "au",
    "1834": "aul",
    "1835": "igh",
    "1836": "ight",
    "1837": "gmi",
    "1838": "ico",
    "1839": "icon",
    "1840": "ay",
    "1841": "ay ",
    "1842": "ws",
    "1843": "ws ",
    "1844": "mov",
    "1845": "ndar",
    "1846": "vemb",
    "1847": "vembe",
    "1848": "Ma",
    "1849": "Mar",
    "1850": "Mari",
    "1851": "Marin",
    "1852": "tz",
    "1853": "tze",
    "1854": "way",
    "1855": "aus",
    "1856": "ause",
    "1857": "tre",
    "1858": "trea",
    "1859": "cot",
    "1860": "wik",
    "1861": "dva",
    "1862": "dvan",
    "1863": "lay",
    "1864": "L)",
    "1865": "ime",
    "1866": " c",
    "1867": " co",
    "1868": "owev",
    "1869": "the ",
    "1870": "U.",
    "1871": "U.S",
    "1872": "U.S.",
    "1873": "Mi",
    "1874": "Min",
    "1875": "Ming",
    "1876": "VI",
    "1877": "tha",
    "1878": "rel",
    "1879": "rela",
    "1880": "relan",
    "1881": "reland",
    "1882": "imen",
    "1883": "imens",
    "1884": "gus",
    "1885": "gust",
    "1886": "mos",
    "1887": "mosp",
    "1888": "han ",
    "1889": "ereo",
    "1890": "ssu",
    "1891": "ssue",
    "1892": "wit",
    "1893": "with",
    "1894": "mst",
    "1895": "msta",
    "1896": "mstan",
    "1897": "nse",
    "1898": "RS",
    "1899": "RSD",
    "1900": "det",
    "1901": "ore",
    "1902": "ore ",
    "1903": "lie",
    "1904": "Zea",
    "1905": "Zeal",
    "1906": "ase",
    "1907": "ased",
    "1908": "ased ",
    "1909": " Is",
    "1910": " Isl",
    "1911": "'s",
    "1912": "rigi",
    "1913": "omb",
    "1914": "ombo",
    "1915": "ombon",
    "1916": "thi",
    "1917": "thia",
    "1918": "org",
    "1919": "she",
    "1920": "she ",
    "1921": "sey",
    "1922": "iopi",
    "1923": "iz",
    "1924": "ize",
    "1925": "LP",
    "1926": "tai",
    "1927": "tail",
    "1928": "ry",
    "1929": "ryp",
    "1930": "rypt",
    "1931": "lecu",
    "1932": "upl",
    "1933": "gion",
    "1934": "gua",
    "1935": "guag",
    "1936": "lop",
    "1937": "lopp",
    "1938": "loppy",
    "1939": "vel",
    "1940": "vidu",
    "1941": "vidua",
    "1942": " A",
    "1943": " Am",
    "1944": " Ame",
    "1945": " Amer",
    "1946": " Ameri",
    "1947": "mer",
    "1948": "Foo",
    "1949": "Foot",
    "1950": "Footb",
    "1951": "Footba",
    "1952": "Footbal",
    "1953": "mpe",
    "1954": "mper",
    "1955": "mperi",
    "1956": "tool",
    "1957": "oct",
    "1958": "octr",
    "1959": "octri",
    "1960": "octrin",
    "1961": "but",
    "1962": "but ",
    "1963": "blem",
    "1964": "hor",
    "1965": "tho",
    "1966": "hur",
    "1967": "r'",
    "1968": "r'a",
    "1969": "cou",
    "1970": "ran",
    "1971": "icl",
    "1972": "icle",
    "1973": "iq",
    "1974": "iqu",
    "1975": "my ",
    "1976": "M.",
    "1977": "nem",
    "1978": "acu",
    "1979": "egin",
    "1980": "eginn",
    "1981": "lied",
    "1982": "pee",
    "1983": "peed",
    "1984": "pis",
    "1985": "piso",
    "1986": "pisod",
    "1987": "ppy",
    "1988": "300",
    "1989": "ocr",
    "1990": "ocra",
    "1991": "houl",
    "1992": "hould",
    "1993": "dis",
    "1994": "diso",
    "1995": "disor",
    "1996": "disord",
    "1997": "ari",
    "1998": "aria",
    "1999": "two",
    "2000": "twor",
    "2001": "twork",
    "2002": "ob",
    "2003": "obi",
    "2004": "lth",
    "2005": " w",
    "2006": " wh",
    "2007": "dt",
    "2008": "wev",
    "2009": "weve",
    "2010": "wever",
    "2011": "oom",
    "2012": "sas",
    "2013": "sass",
    "2014": "get",
    "2015": "geta",
    "2016": "pa",
    "2017": "pac",
    "2018": "lan",
    "2019": "land",
    "2020": "rri",
    "2021": "yc",
    "2022": "ycl",
    "2023": "stan",
    "2024": "than",
    "2025": "that",
    "2026": "that ",
    "2027": "zep",
    "2028": "'s ",
    "2029": "fac",
    "2030": "orr",
    "2031": "orro",
    "2032": "orror",
    "2033": "wan",
    "2034": "wand",
    "2035": "Un",
    "2036": "Uni",
    "2037": "haf",
    "2038": "haft",
    "2039": "2|",
    "2040": "2| ",
    "2041": "ery ",
    "2042": "rs ",
    "2043": "kr",
    "2044": "ham",
    "2045": "o-",
    "2046": "kin",
    "2047": "king",
    "2048": "erse",
    "2049": "tes ",
    "2050": "eno",
    "2051": "comm",
    "2052": "commo",
    "2053": "common",
    "2054": "Wi",
    "2055": "Win",
    "2056": "lik",
    "2057": "like",
    "2058": "ary",
    "2059": "ary ",
    "2060": "rin",
    "2061": "ring",
    "2062": "ring ",
    "2063": "ange",
    "2064": "y,",
    "2065": "y, ",
    "2066": "or ",
    "2067": "thou",
    "2068": "i ",
    "2069": "ir ",
    "2070": "wam",
    "2071": "wamp",
    "2072": "ori",
    "2073": "orit",
    "2074": "orith",
    "2075": "orithm",
    "2076": "ot",
    "2077": "otb",
    "2078": "otba",
    "2079": "tri",
    "2080": "ven",
    "2081": "ame",
    "2082": "prin",
    "2083": "hus",
    "2084": "husi",
    "2085": "husia",
    "2086": "iver",
    "2087": "tp",
    "2088": "ili",
    "2089": "Chri",
    "2090": "Chris",
    "2091": "sor",
    "2092": "lleg",
    "2093": "llege",
    "2094": "test",
    "2095": "nde",
    "2096": "nder",
    "2097": "elt",
    "2098": "ollow",
    "2099": "opt",
    "2100": "ople",
    "2101": "rd",
    "2102": "rda",
    "2103": "Al",
    "2104": "Ali",
    "2105": "Alie",
    "2106": "Alien",
    "2107": "rga",
    "2108": "rgan",
    "2109": "rad",
    "2110": "rado",
    "2111": "s#",
    "2112": "angu",
    "2113": "70",
    "2114": "eet",
    "2115": "esse",
    "2116": "essel",
    "2117": "hos",
    "2118": "host",
    "2119": "eau",
    "2120": "Ja",
    "2121": "Jam",
    "2122": "Jame",
    "2123": "James",
    "2124": "xas",
    "2125": "grat",
    "2126": "ptu",
    "2127": "ptur",
    "2128": " -",
    "2129": "ny",
    "2130": "nb",
    "2131": "iga",
    "2132": "van",
    "2133": "vang",
    "2134": "vange",
    "2135": "vangel",
    "2136": "erms",
    "2137": "tip",
    "2138": "- ",
    "2139": "ite",
    "2140": "itec",
    "2141": "itect",
    "2142": "olog",
    "2143": "nym",
    "2144": "vide",
    "2145": "ood",
    "2146": "cya",
    "2147": "cyan",
    "2148": "tis",
    "2149": "ocu",
    "2150": "ocum",
    "2151": "s*",
    "2152": "s**",
    "2153": "nk",
    "2154": "nke",
    "2155": "nked",
    "2156": "g/",
    "2157": "sine",
    "2158": "sines",
    "2159": "siness",
    "2160": "epo",
    "2161": "epos",
    "2162": "eposi",
    "2163": "eposit",
    "2164": "GU",
    "2165": "GUI",
    "2166": "oup",
    "2167": "der ",
    "2168": "lp ",
    "2169": "Wa",
    "2170": "Wat",
    "2171": "Wate",
    "2172": "Water",
    "2173": "Mic",
    "2174": "Mick",
    "2175": "irm",
    "2176": " f",
    "2177": " fr",
    "2178": " fro",
    "2179": " from",
    "2180": "gag",
    "2181": "ber",
    "2182": "bert",
    "2183": "cam",
    "2184": "came",
    "2185": "roug",
    "2186": "rup",
    "2187": "tei",
    "2188": "tein",
    "2189": "es ",
    "2190": "nu",
    "2191": "num",
    "2192": "St",
    "2193": "ces",
    "2194": "cess",
    "2195": "dar",
    "2196": "dard",
    "2197": "tel",
    "2198": " in",
    "2199": "osop",
    "2200": "osoph",
    "2201": "ert",
    "2202": "erta",
    "2203": "ertai",
    "2204": "ans",
    "2205": "r.",
    "2206": "r. ",
    "2207": "eut",
    "2208": "ish",
    "2209": "ishe",
    "2210": "ecu",
    "2211": "ecut",
    "2212": "sw",
    "2213": "swe",
    "2214": "swer",
    "2215": "/ ",
    "2216": "anth",
    "2217": "emi",
    "2218": "hen",
    "2219": "hen ",
    "2220": "gmin",
    "2221": "mse",
    "2222": "msel",
    "2223": "con",
    "2224": "cono",
    "2225": "conom",
    "2226": "rid",
    "2227": "ril",
    "2228": "ath",
    "2229": "atho",
    "2230": "athol",
    "2231": "atholi",
    "2232": "iber",
    "2233": "2t",
    "2234": "2th",
    "2235": "ngu",
    "2236": "ngua",
    "2237": "nguag",
    "2238": "liamen",
    "2239": "uk",
    "2240": "uke",
    "2241": "2 /",
    "2242": "2 /s",
    "2243": "2 /su",
    "2244": "No",
    "2245": "pers",
    "2246": "ssib",
    "2247": "huse",
    "2248": "ial",
    "2249": "ial ",
    "2250": " a",
    "2251": " ar",
    "2252": "iam",
    "2253": "emp",
    "2254": "Com",
    "2255": "Comm",
    "2256": "thol",
    "2257": "70s",
    "2258": "vs",
    "2259": "vs.",
    "2260": " nd",
    "2261": " nda",
    "2262": " ndas",
    "2263": " ndash",
    "2264": "+\\",
    "2265": "trin",
    "2266": "tring",
    "2267": "hal",
    "2268": "ij",
    "2269": "iji",
    "2270": "fur",
    "2271": "lb",
    "2272": "lbu",
    "2273": "lbum",
    "2274": "On",
    "2275": "wel",
    "2276": "cen",
    "2277": "fir",
    "2278": "firm",
    "2279": "ting",
    "2280": "opy",
    "2281": "bov",
    "2282": "bove",
    "2283": "sb",
    "2284": "rod",
    "2285": "emo",
    "2286": "emor",
    "2287": "imp",
    "2288": "lian",
    "2289": "bse",
    "2290": "bsen",
    "2291": "bbl",
    "2292": "atc",
    "2293": "atch",
    "2294": "cif",
    "2295": "rm ",
    "2296": "ip",
    "2297": "ipe",
    "2298": "iper",
    "2299": "De",
    "2300": "Dem",
    "2301": "Demo",
    "2302": "uro",
    "2303": "urop",
    "2304": "urope",
    "2305": "gan",
    "2306": "2,",
    "2307": "2, ",
    "2308": "stru",
    "2309": "elan",
    "2310": "eland",
    "2311": "9)",
    "2312": "lianc",
    "2313": " - ",
    "2314": "zen",
    "2315": ".*1",
    "2316": ".*19",
    "2317": "mac",
    "2318": "dy",
    "2319": "dye",
    "2320": "AS",
    "2321": "ASI",
    "2322": "Mah",
    "2323": "Mahy",
    "2324": "Mahyn",
    "2325": "des",
    "2326": "pon",
    "2327": "poni",
    "2328": "ponic",
    "2329": "apa",
    "2330": "apan",
    "2331": "ctu",
    "2332": "ctur",
    "2333": "efo",
    "2334": "efor",
    "2335": "efore",
    "2336": "yst",
    "2337": "Ha",
    "2338": "Ham",
    "2339": "Haml",
    "2340": "Hamle",
    "2341": "Hamlet",
    "2342": "sot",
    "2343": "soto",
    "2344": "iel",
    "2345": "za",
    "2346": "zab",
    "2347": "zabe",
    "2348": "law",
    "2349": "bor",
    "2350": "nser",
    "2351": "nserv",
    "2352": "/t",
    "2353": "/td",
    "2354": "aker",
    "2355": "vera",
    "2356": "verag",
    "2357": "uti",
    "2358": ")*1",
    "2359": ")*19",
    "2360": "tia",
    "2361": "ens",
    "2362": "havi",
    "2363": "havio",
    "2364": "ranc",
    "2365": "ranch",
    "2366": "thoug",
    "2367": "though",
    "2368": "duc",
    "2369": "duct",
    "2370": "DO",
    "2371": "DOS",
    "2372": "depen",
    "2373": "forc",
    "2374": "bord",
    "2375": "borde",
    "2376": "border",
    "2377": "oth",
    "2378": "oth ",
    "2379": "numb",
    "2380": "numbe",
    "2381": "number",
    "2382": "nti",
    "2383": "ntio",
    "2384": "ida",
    "2385": "el ",
    "2386": "posi",
    "2387": "posit",
    "2388": "llia",
    "2389": "lliam",
    "2390": "pit",
    "2391": "form",
    "2392": "Roma",
    "2393": "Roman",
    "2394": "WI",
    "2395": "most",
    "2396": "than ",
    "2397": "rv",
    "2398": "rve",
    "2399": "res",
    "2400": "erv",
    "2401": "omp",
    "2402": "abi",
    "2403": "ura",
    "2404": "fan",
    "2405": "eta",
    "2406": "etab",
    "2407": "etabo",
    "2408": "etabol",
    "2409": "ican",
    "2410": "at ",
    "2411": "angen",
    "2412": "vs. ",
    "2413": "fal",
    "2414": "fall",
    "2415": "eal",
    "2416": "eba",
    "2417": "ebal",
    "2418": "ugl",
    "2419": "ugla",
    "2420": "mbon",
    "2421": "P.",
    "2422": "ady",
    "2423": "d.",
    "2424": "amen",
    "2425": "avit",
    "2426": "dit",
    "2427": "diti",
    "2428": "ditio",
    "2429": "dition",
    "2430": " m",
    "2431": " mi",
    "2432": " mil",
    "2433": "en ",
    "2434": "mpa",
    "2435": "mpan",
    "2436": "role",
    "2437": "roleu",
    "2438": "roleum",
    "2439": "iba",
    "2440": "ibal",
    "2441": "vol",
    "2442": "volu",
    "2443": "volum",
    "2444": "volume",
    "2445": "ged",
    "2446": "ts",
    "2447": "ts ",
    "2448": "eou",
    "2449": "a|",
    "2450": "nna",
    "2451": "umm",
    "2452": "opo",
    "2453": "opod",
    "2454": "opoda",
    "2455": "Hou",
    "2456": "Hous",
    "2457": "iec",
    "2458": "iece",
    "2459": "cea",
    "2460": "ox",
    "2461": "by",
    "2462": "by ",
    "2463": "ning",
    "2464": "box",
    "2465": "box{",
    "2466": "iti",
    "2467": "itio",
    "2468": "ition",
    "2469": "ot ",
    "2470": "dat",
    "2471": "gn",
    "2472": "gne",
    "2473": "enom",
    "2474": "enome",
    "2475": "enomen",
    "2476": "oti",
    "2477": "otim",
    "2478": "e ",
    "2479": "e t",
    "2480": "e th",
    "2481": "e tha",
    "2482": "e that",
    "2483": "gg",
    "2484": "air",
    "2485": "J ",
    "2486": "J -",
    "2487": "J --",
    "2488": "**",
    "2489": "geth",
    "2490": "gre",
    "2491": "ns ",
    "2492": "eer",
    "2493": "dic",
    "2494": "dict",
    "2495": "urin",
    "2496": "uring",
    "2497": "7,",
    "2498": "7, ",
    "2499": "ick",
    "2500": "icke",
    "2501": "ickey",
    "2502": "quo",
    "2503": "Ki",
    "2504": "tor",
    "2505": "itis",
    "2506": "ted",
    "2507": "Kim",
    "2508": "Dec",
    "2509": "Dece",
    "2510": "Decem",
    "2511": "Decemb",
    "2512": "xx",
    "2513": "xxo",
    "2514": "man",
    "2515": "atin",
    "2516": "ido",
    "2517": "idos",
    "2518": "nog",
    "2519": "ener",
    "2520": "enera",
    "2521": "5 e",
    "2522": "5 es",
    "2523": "5 est",
    "2524": "5 est.",
    "2525": "ect",
    "2526": "vice",
    "2527": "ey",
    "2528": "aly",
    "2529": "alys",
    "2530": "alysi",
    "2531": "alysis",
    "2532": "thod",
    "2533": "asi",
    "2534": "tow",
    "2535": "in ",
    "2536": "in a",
    "2537": "4)",
    "2538": "sid",
    "2539": "side",
    "2540": "sider",
    "2541": "lest",
    "2542": "ked",
    "2543": "X-r",
    "2544": "sul",
    "2545": "sult",
    "2546": "yp",
    "2547": "7 b",
    "2548": "7 br",
    "2549": "Pro",
    "2550": "Prot",
    "2551": "Prote",
    "2552": "eans",
    "2553": "eans ",
    "2554": "tio",
    "2555": "tion",
    "2556": "ied",
    "2557": "Jap",
    "2558": "Japa",
    "2559": "adem",
    "2560": "nged",
    "2561": "maz",
    "2562": "Kin",
    "2563": "King",
    "2564": "eng",
    "2565": "tea",
    "2566": "tead",
    "2567": "val",
    "2568": "vale",
    "2569": "valen",
    "2570": "pria",
    "2571": "priat",
    "2572": "tern",
    "2573": "ty",
    "2574": "tob",
    "2575": "tobe",
    "2576": "O)",
    "2577": "oweve",
    "2578": "owever",
    "2579": "undr",
    "2580": "oun",
    "2581": "ound",
    "2582": "hyd",
    "2583": "hydr",
    "2584": "wid",
    "2585": "ead",
    "2586": "eade",
    "2587": "eader",
    "2588": "ngl",
    "2589": "ngle",
    "2590": "5*",
    "2591": "tish",
    "2592": "ty ",
    "2593": ") ",
    "2594": ") /",
    "2595": ") /t",
    "2596": "ized",
    "2597": "par",
    "2598": "part",
    "2599": "Ya",
    "2600": "one ",
    "2601": "c.",
    "2602": "lien",
    "2603": "nag",
    "2604": "ht",
    "2605": "moc",
    "2606": "mocr",
    "2607": "ets",
    "2608": "19",
    "2609": "ouv",
    "2610": "ucc",
    "2611": "ucce",
    "2612": "ian",
    "2613": "V)",
    "2614": "rans",
    "2615": "mal",
    "2616": "..",
    "2617": "pan",
    "2618": "pani",
    "2619": "teg",
    "2620": "tego",
    "2621": "tegor",
    "2622": "6 ",
    "2623": "chi",
    "2624": "chin",
    "2625": "nae",
    "2626": "naeu",
    "2627": "naeus",
    "2628": ",0",
    "2629": ",00",
    "2630": ",000",
    "2631": "pea",
    "2632": "peak",
    "2633": "nie",
    "2634": "nies",
    "2635": " =",
    "2636": " = ",
    "2637": "ons",
    "2638": "onst",
    "2639": "ese",
    "2640": "esen",
    "2641": "apo",
    "2642": "apon",
    "2643": "top",
    "2644": "lk",
    "2645": "Li",
    "2646": "Lib",
    "2647": "Libe",
    "2648": "Liber",
    "2649": "arth",
    "2650": "artha",
    "2651": "arthag",
    "2652": "mur",
    "2653": "cm",
    "2654": "witc",
    "2655": "witch",
    "2656": "ided",
    "2657": "ided ",
    "2658": "ret",
    "2659": "isk",
    "2660": "mbr",
    "2661": "mbro",
    "2662": "nd{",
    "2663": "We",
    "2664": "Wes",
    "2665": "West",
    "2666": "urd",
    "2667": "Gree",
    "2668": "ress",
    "2669": "rti",
    "2670": "rtic",
    "2671": "ig ",
    "2672": "obe",
    "2673": "se ",
    "2674": "ah",
    "2675": "ah'",
    "2676": "itiv",
    "2677": "NF",
    "2678": "sur",
    "2679": "sure",
    "2680": "Nor",
    "2681": "pow",
    "2682": "powd",
    "2683": "powde",
    "2684": "from ",
    "2685": "bat",
    "2686": "ateu",
    "2687": "xl",
    "2688": "xle",
    "2689": "xley",
    "2690": "X ",
    "2691": "D)",
    "2692": "rst",
    "2693": "file",
    "2694": "ance",
    "2695": "sand",
    "2696": "uls",
    "2697": "lor",
    "2698": "oka",
    "2699": "leg",
    "2700": "lege",
    "2701": "edi",
    "2702": "edia",
    "2703": "hil",
    "2704": "hild",
    "2705": "y a",
    "2706": "y an",
    "2707": "y and",
    "2708": "very ",
    "2709": "rpo",
    "2710": "rpor",
    "2711": "rpora",
    "2712": "ffa",
    "2713": "ffai",
    "2714": "kan",
    "2715": "ypt",
    "2716": "DP",
    "2717": "hem",
    "2718": "hemi",
    "2719": "kie",
    "2720": "aur",
    "2721": "aura",
    "2722": "ace",
    "2723": "oil",
    "2724": "fess",
    "2725": "any",
    "2726": "any ",
    "2727": "hin",
    "2728": "ped",
    "2729": "nswe",
    "2730": "nswer",
    "2731": "b ",
    "2732": "nte",
    "2733": "nted",
    "2734": "R ",
    "2735": "ued",
    "2736": "ued ",
    "2737": "dg",
    "2738": "dge",
    "2739": "dget",
    "2740": "arb",
    "2741": "tat",
    "2742": "tate",
    "2743": "up ",
    "2744": "ugh",
    "2745": "Mil",
    "2746": "Milo",
    "2747": "hand",
    "2748": "oin",
    "2749": "oint",
    "2750": "eol",
    "2751": "eolo",
    "2752": "eolog",
    "2753": "4*",
    "2754": "80",
    "2755": "omic",
    "2756": "xual",
    "2757": "zi",
    "2758": " th",
    "2759": " tha",
    "2760": " that",
    "2761": "weh",
    "2762": "yria",
    "2763": "1)",
    "2764": "gge",
    "2765": "arte",
    "2766": "arted",
    "2767": "namen",
    "2768": "y o",
    "2769": "y of",
    "2770": "y of ",
    "2771": "ale",
    "2772": "alen",
    "2773": "mig",
    "2774": "miga",
    "2775": "sis",
    "2776": "sis ",
    "2777": "mai",
    "2778": "mail",
    "2779": "roup",
    "2780": "ten",
    "2781": "tent",
    "2782": "eir",
    "2783": "has ",
    "2784": "Cas",
    "2785": "Casp",
    "2786": "Caspi",
    "2787": "Caspia",
    "2788": "sed",
    "2789": "sed ",
    "2790": "Th",
    "2791": "The",
    "2792": "ntr",
    "2793": "' ",
    "2794": "tholi",
    "2795": "House",
    "2796": "B ",
    "2797": "Oce",
    "2798": "Ocea",
    "2799": "mbol",
    "2800": "ano",
    "2801": "sex",
    "2802": "cohol",
    "2803": "nese",
    "2804": "xis",
    "2805": "lete",
    "2806": "ctic",
    "2807": "rla",
    "2808": "C)",
    "2809": "rigin",
    "2810": "vin",
    "2811": "ving",
    "2812": "L) ",
    "2813": "brie",
    "2814": "briel",
    "2815": "vid ",
    "2816": "rm{",
    "2817": "wed",
    "2818": "ain ",
    "2819": "fle",
    "2820": "To",
    "2821": "Toa",
    "2822": "Toas",
    "2823": "sh ",
    "2824": "hatt",
    "2825": "hatta",
    "2826": "Er",
    "2827": "Eri",
    "2828": "Erit",
    "2829": "Eritr",
    "2830": "gas",
    "2831": "Per",
    "2832": "Pers",
    "2833": "Perse",
    "2834": "Persep",
    "2835": "Perseph",
    "2836": "erl",
    "2837": "erli",
    "2838": "erlin",
    "2839": "teu",
    "2840": "teur",
    "2841": "onw",
    "2842": "onwe",
    "2843": "onwea",
    "2844": "able",
    "2845": "Brn",
    "2846": "Brnn",
    "2847": "Brnnh",
    "2848": "8 ",
    "2849": "8 -",
    "2850": "8 - ",
    "2851": "tati",
    "2852": "tatio",
    "2853": "tation",
    "2854": "hai",
    "2855": "hail",
    "2856": "its",
    "2857": "dre",
    "2858": "dred",
    "2859": "thin",
    "2860": "ev",
    "2861": "ure",
    "2862": "18",
    "2863": "itor",
    "2864": "mpl",
    "2865": "mple",
    "2866": "ps",
    "2867": "psh",
    "2868": "pshi",
    "2869": "pshir",
    "2870": "pshire",
    "2871": "nni",
    "2872": "nnin",
    "2873": "nning",
    "2874": "In ",
    "2875": "tc.",
    "2876": "vemen",
    "2877": "ium",
    "2878": "zh",
    "2879": "zhe",
    "2880": "zhei",
    "2881": "zheim",
    "2882": "-c",
    "2883": "-ca",
    "2884": "-cal",
    "2885": "om ",
    "2886": "math",
    "2887": "roa",
    "2888": "road",
    "2889": "used",
    "2890": "ulti",
    "2891": "tir",
    "2892": "yma",
    "2893": "yman",
    "2894": "igan",
    "2895": "Univ",
    "2896": "Unive",
    "2897": "Univer",
    "2898": "asy",
    "2899": "ower",
    "2900": "tyl",
    "2901": "i-",
    "2902": "term",
    "2903": "termi",
    "2904": "termin",
    "2905": "lap",
    "2906": "zed",
    "2907": "zed ",
    "2908": "zo",
    "2909": "zon",
    "2910": "cro",
    "2911": "dern",
    "2912": "dern ",
    "2913": "mn",
    "2914": "am ",
    "2915": "lore",
    "2916": "lorer",
    "2917": "cep",
    "2918": "cept",
    "2919": "essu",
    "2920": "essur",
    "2921": "ipt",
    "2922": "id ",
    "2923": "ckg",
    "2924": "all",
    "2925": "ally",
    "2926": "ally ",
    "2927": "xic",
    "2928": "sup",
    "2929": "sac",
    "2930": "La",
    "2931": "Law",
    "2932": "tti",
    "2933": "ttis",
    "2934": "ad ",
    "2935": "agu",
    "2936": "The ",
    "2937": "tol",
    "2938": "mon",
    "2939": "mont",
    "2940": "month",
    "2941": "var",
    "2942": "anie",
    "2943": "anies",
    "2944": "lyw",
    "2945": "lywo",
    "2946": "B-",
    "2947": ", ",
    "2948": "ree",
    "2949": "reez",
    "2950": "reezi",
    "2951": "reezin",
    "2952": "reezing",
    "2953": "sph",
    "2954": "dra",
    "2955": "pun",
    "2956": "punk",
    "2957": "it ",
    "2958": "vai",
    "2959": "vail",
    "2960": "lic",
    "2961": "lica",
    "2962": "is ",
    "2963": "avio",
    "2964": "oug",
    "2965": "ough",
    "2966": "Engli",
    "2967": "Englis",
    "2968": "L ",
    "2969": "L b",
    "2970": "L br",
    "2971": "zar",
    "2972": "n'",
    "2973": "n't",
    "2974": "gd",
    "2975": "gdo",
    "2976": "on,",
    "2977": "on, ",
    "2978": "eed",
    "2979": "dd",
    "2980": "ddh",
    "2981": "tain",
    "2982": "iday",
    "2983": "Par",
    "2984": "ocat",
    "2985": "#C",
    "2986": "ebat",
    "2987": "bee",
    "2988": "been",
    "2989": "Da",
    "2990": "Dan",
    "2991": "wen",
    "2992": "went",
    "2993": "Mal",
    "2994": "Mala",
    "2995": "50",
    "2996": "50s",
    "2997": "BM",
    "2998": "eph",
    "2999": "ron",
    "3000": "ront",
    "3001": "cce",
    "3002": "magn",
    "3003": "Yo",
    "3004": "Yor",
    "3005": "York",
    "3006": "ribut",
    "3007": "eve",
    "3008": "ism",
    "3009": "luti",
    "3010": "lutio",
    "3011": "lution",
    "3012": "lig",
    "3013": "lign",
    "3014": "rd ",
    "3015": "byl",
    "3016": "bylo",
    "3017": "tari",
    "3018": "tario",
    "3019": " wi",
    "3020": " wit",
    "3021": "pera",
    "3022": "tell",
    "3023": "ritr",
    "3024": "Chron",
    "3025": "guit",
    "3026": "guita",
    "3027": "guitar",
    "3028": "nbs",
    "3029": "nbsp",
    "3030": "ein",
    "3031": "ful",
    "3032": "spo",
    "3033": "spon",
    "3034": "Hi",
    "3035": "His",
    "3036": "Hist",
    "3037": "Histo",
    "3038": "fol",
    "3039": "folk",
    "3040": "lite",
    "3041": "eig",
    "3042": "eign",
    "3043": "ra ",
    "3044": "ual",
    "3045": "lapt",
    "3046": "lapto",
    "3047": "lapton",
    "3048": "town",
    "3049": "win",
    "3050": "wing",
    "3051": "easo",
    "3052": "eason",
    "3053": "roth",
    "3054": "Ri",
    "3055": "Riv",
    "3056": "Rive",
    "3057": "River",
    "3058": "arg",
    "3059": "eto",
    "3060": "lid",
    "3061": "| ",
    "3062": "For ",
    "3063": "k ",
    "3064": "(1",
    "3065": "(19",
    "3066": "hri",
    "3067": "hris",
    "3068": "ativ",
    "3069": "ative",
    "3070": "lty",
    "3071": "ego",
    "3072": "Micke",
    "3073": "Mickey",
    "3074": "dica",
    "3075": "nown",
    "3076": "Id",
    "3077": "Id}",
    "3078": "usc",
    "3079": "ndo",
    "3080": "trie",
    "3081": "tries",
    "3082": "tire",
    "3083": "hoo",
    "3084": "hool",
    "3085": "owd",
    "3086": "owde",
    "3087": "owder",
    "3088": "icy",
    "3089": "icyc",
    "3090": "icycl",
    "3091": "hrop",
    "3092": "ents",
    "3093": "ents ",
    "3094": "lex",
    "3095": "yed",
    "3096": "hart",
    "3097": "harte",
    "3098": "harter",
    "3099": "9,",
    "3100": "9, ",
    "3101": "min",
    "3102": "lti",
    "3103": "lm ",
    "3104": "tem",
    "3105": "age",
    "3106": "aged",
    "3107": "wl",
    "3108": "ull",
    "3109": "ama",
    "3110": "hel",
    "3111": "helm",
    "3112": "cur",
    "3113": "lav",
    "3114": "ntion",
    "3115": "nev",
    "3116": "neva",
    "3117": "xy",
    "3118": "xyg",
    "3119": "cus",
    "3120": "hurc",
    "3121": "hurch",
    "3122": "t ",
    "3123": "t o",
    "3124": "t of",
    "3125": "t of ",
    "3126": "exan",
    "3127": "det ",
    "3128": "(x",
    "3129": "(x)",
    "3130": "-b",
    "3131": "-bo",
    "3132": "-boy",
    "3133": "zz",
    "3134": "rio",
    "3135": "riod",
    "3136": "6 -",
    "3137": "6 - ",
    "3138": "erf",
    "3139": "erfe",
    "3140": "erfec",
    "3141": "erfect",
    "3142": "40",
    "3143": "40s",
    "3144": "etwee",
    "3145": "oto",
    "3146": "otor",
    "3147": "be ",
    "3148": "phew",
    "3149": "play",
    "3150": " At",
    "3151": " Atl",
    "3152": " Atla",
    "3153": "xpr",
    "3154": "xpre",
    "3155": "xpres",
    "3156": "xpress",
    "3157": "Gos",
    "3158": "Gosp",
    "3159": "Gospe",
    "3160": "Gospel",
    "3161": "ways",
    "3162": "sub",
    "3163": "subg",
    "3164": "subgr",
    "3165": "subgro",
    "3166": "subgrou",
    "3167": "subgroup",
    "3168": "unci",
    "3169": "mins",
    "3170": "over",
    "3171": "overn",
    "3172": "0)",
    "3173": "ire",
    "3174": "El",
    "3175": "Elg",
    "3176": "Elga",
    "3177": "Elgar",
    "3178": "craf",
    "3179": "rror",
    "3180": "uta",
    "3181": "efi",
    "3182": "efin",
    "3183": "ols",
    "3184": "olsp",
    "3185": "lur",
    "3186": "lint",
    "3187": "linto",
    "3188": "pris",
    "3189": "inan",
    "3190": "inanc",
    "3191": "ek",
    "3192": "ubl",
    "3193": "uble",
    "3194": "ierz",
    "3195": "nste",
    "3196": "nstei",
    "3197": "eff",
    "3198": "vir",
    "3199": "viro",
    "3200": "viron",
    "3201": "dash",
    "3202": "et ",
    "3203": "ighb",
    "3204": "emin",
    "3205": "uct",
    "3206": "nded",
    "3207": "nded ",
    "3208": "2)",
    "3209": "bel",
    "3210": "iew",
    "3211": "lis",
    "3212": "lish",
    "3213": "dow",
    "3214": "rese",
    "3215": "resen",
    "3216": "resent",
    "3217": "nen",
    "3218": "ando",
    "3219": "ete",
    "3220": "eter",
    "3221": "moun",
    "3222": " g",
    "3223": " ga",
    "3224": " gam",
    "3225": "mme",
    "3226": "mmer",
    "3227": "200",
    "3228": "vern",
    "3229": "80s",
    "3230": "orb",
    "3231": "orbi",
    "3232": "orbit",
    "3233": "On ",
    "3234": "yss",
    "3235": "ded",
    "3236": "ded ",
    "3237": "ted ",
    "3238": "oco",
    "3239": "esi",
    "3240": "esid",
    "3241": "ossi",
    "3242": "ossib",
    "3243": "ider",
    "3244": "OI",
    "3245": "OIN",
    "3246": "ever",
    "3247": "hag",
    "3248": "eis",
    "3249": "bit",
    "3250": "Her",
    "3251": "Herg",
    "3252": "ik",
    "3253": "ny ",
    "3254": "Ste",
    "3255": "Stei",
    "3256": "Stein",
    "3257": "oe",
    "3258": "oen",
    "3259": "oeni",
    "3260": "loy",
    "3261": "Chi",
    "3262": "Chin",
    "3263": "may",
    "3264": "may ",
    "3265": "/s",
    "3266": "/su",
    "3267": "mis",
    "3268": "mist",
    "3269": "ern",
    "3270": "meri",
    "3271": "s,",
    "3272": "s, ",
    "3273": "ote",
    "3274": "oted",
    "3275": "ine",
    "3276": "ines",
    "3277": "iness",
    "3278": "ilm",
    "3279": "sto",
    "3280": "stor",
    "3281": "ora",
    "3282": "ety",
    "3283": "Is",
    "3284": "rar",
    "3285": "wk",
    "3286": "gges",
    "3287": "ggest",
    "3288": "rodu",
    "3289": "roduc",
    "3290": "azin",
    "3291": "azine",
    "3292": " |",
    "3293": "bil",
    "3294": "ork",
    "3295": "fun",
    "3296": "rase",
    "3297": " an",
    "3298": " and",
    "3299": "diu",
    "3300": "dium",
    "3301": "yag",
    "3302": "siv",
    "3303": "sive",
    "3304": "gic",
    "3305": "otbal",
    "3306": "wm",
    "3307": "ugue",
    "3308": "ass",
    "3309": "eep",
    "3310": "Mai",
    "3311": "Main",
    "3312": "Ve",
    "3313": "Ver",
    "3314": "Verd",
    "3315": "Verdi",
    "3316": "esa",
    "3317": "esar",
    "3318": "atu",
    "3319": "atur",
    "3320": "fact",
    "3321": "amag",
    "3322": " M",
    "3323": " Mi",
    "3324": " Min",
    "3325": "pic",
    "3326": "nsu",
    "3327": "hiev",
    "3328": "del",
    "3329": "dels",
    "3330": "rial",
    "3331": "som",
    "3332": "some",
    "3333": "somer",
    "3334": "igit",
    "3335": "gin",
    "3336": "ging",
    "3337": "Cha",
    "3338": "Chad",
    "3339": "Hal",
    "3340": "Halo",
    "3341": "Lab",
    "3342": "Labo",
    "3343": "itud",
    "3344": "ler",
    "3345": "rde",
    "3346": "rder",
    "3347": "war",
    "3348": "ward",
    "3349": "kee",
    "3350": "keep",
    "3351": "cem",
    "3352": "cemb",
    "3353": "dea",
    "3354": "dean",
    "3355": "arr",
    "3356": "arri",
    "3357": "arrie",
    "3358": "arrier",
    "3359": "89",
    "3360": "onto",
    "3361": "ifo",
    "3362": "ifor",
    "3363": "iforn",
    "3364": "tit",
    "3365": "titu",
    "3366": "rth",
    "3367": "rtho",
    "3368": "/r",
    "3369": "/re",
    "3370": "/ref",
    "3371": "ship",
    "3372": "lui",
    "3373": "luid",
    "3374": "ich",
    "3375": "uca",
    "3376": "ucat",
    "3377": "imi",
    "3378": "rack",
    "3379": "inio",
    "3380": "inion",
    "3381": "izen",
    "3382": "anad",
    "3383": "me ",
    "3384": "nia",
    "3385": "X-ra",
    "3386": "exand",
    "3387": "facto",
    "3388": "factor",
    "3389": "ext",
    "3390": "Heb",
    "3391": "Hebr",
    "3392": "bia",
    "3393": "nr",
    "3394": "ent ",
    "3395": "aut",
    "3396": "auth",
    "3397": "autho",
    "3398": "author",
    "3399": "S)",
    "3400": "roll",
    "3401": "ann",
    "3402": "anni",
    "3403": "annib",
    "3404": "unch",
    "3405": "ack",
    "3406": "OS",
    "3407": "edu",
    "3408": "edul",
    "3409": "ark",
    "3410": "Fr",
    "3411": "tand",
    "3412": "vard",
    "3413": "N ",
    "3414": "N -",
    "3415": "N --",
    "3416": "ned ",
    "3417": "op ",
    "3418": "riz",
    "3419": "rize",
    "3420": "med",
    "3421": "medi",
    "3422": "ola",
    "3423": "Verde",
    "3424": "aid",
    "3425": "PL",
    "3426": "ttl",
    "3427": "denc",
    "3428": "ften",
    "3429": "llar",
    "3430": "t,",
    "3431": "t, ",
    "3432": "aup",
    "3433": "ry ",
    "3434": "eel",
    "3435": "que",
    "3436": "ne ",
    "3437": "ouse",
    "3438": "Ocean",
    "3439": "CD",
    "3440": "ife",
    "3441": "cle",
    "3442": "hort",
    "3443": "ird ",
    "3444": "ser",
    "3445": "serv",
    "3446": "UN",
    "3447": "UNE",
    "3448": "uma",
    "3449": "uman",
    "3450": "enn",
    "3451": "P ",
    "3452": "fer",
    "3453": "his ",
    "3454": "ovi",
    "3455": "ovie",
    "3456": "BN",
    "3457": "llo",
    "3458": "llor",
    "3459": "Bu",
    "3460": "Bur",
    "3461": "joi",
    "3462": "join",
    "3463": "oa",
    "3464": "oad",
    "3465": "oub",
    "3466": "wor",
    "3467": "worl",
    "3468": "world",
    "3469": "depend",
    "3470": "uic",
    "3471": "uici",
    "3472": "uicid",
    "3473": "ja",
    "3474": "jam",
    "3475": "had",
    "3476": "hady",
    "3477": "h*",
    "3478": "thor",
    "3479": "riou",
    "3480": "rious",
    "3481": "lf-",
    "3482": " /t",
    "3483": "VD",
    "3484": "jud",
    "3485": "tter",
    "3486": "irc",
    "3487": "OC",
    "3488": "OCT",
    "3489": "OCTY",
    "3490": "net",
    "3491": "mand",
    "3492": "emen",
    "3493": "arke",
    "3494": "arket",
    "3495": "aym",
    "3496": "xpe",
    "3497": "xper",
    "3498": "xperi",
    "3499": "nar",
    "3500": "isho",
    "3501": "ishop",
    "3502": "cho",
    "3503": "choo",
    "3504": "chool",
    "3505": "Bul",
    "3506": "Bulg",
    "3507": "Bulga",
    "3508": "Bulgar",
    "3509": "--",
    "3510": "ynt",
    "3511": "ynth",
    "3512": "ynthe",
    "3513": "ren",
    "3514": "renc",
    "3515": "rench",
    "3516": "hl",
    "3517": "hlo",
    "3518": "hlor",
    "3519": "tif",
    "3520": "x ",
    "3521": "wr",
    "3522": "wri",
    "3523": "wrig",
    "3524": "wrigh",
    "3525": "wright",
    "3526": "sse",
    "3527": "ssed",
    "3528": "uat",
    "3529": "gul",
    "3530": "api",
    "3531": "apie",
    "3532": "iet",
    "3533": "BC",
    "3534": " --",
    "3535": " -- ",
    "3536": "lud",
    "3537": " k",
    "3538": " ki",
    "3539": " kil",
    "3540": " kilo",
    "3541": " kilom",
    "3542": " kilome",
    "3543": " kilomet",
    "3544": "Za",
    "3545": "Zap",
    "3546": "Zapp",
    "3547": "Zappa",
    "3548": "pm",
    "3549": "ook ",
    "3550": "orn ",
    "3551": " Cha",
    "3552": "ughe",
    "3553": "din",
    "3554": "ding",
    "3555": "vali",
    "3556": "valid",
    "3557": "Mo",
    "3558": "Moo",
    "3559": "Moon",
    "3560": "ngt",
    "3561": "ngth",
    "3562": "ifl",
    "3563": "acto",
    "3564": "actor",
    "3565": "sig",
    "3566": "sign",
    "3567": "craft",
    "3568": "git",
    "3569": "Ga",
    "3570": "Gam",
    "3571": "4,",
    "3572": "4, ",
    "3573": "imu",
    "3574": "imum",
    "3575": "wned",
    "3576": "How",
    "3577": "Howe",
    "3578": "Howev",
    "3579": "Howeve",
    "3580": "However",
    "3581": "mar",
    "3582": "mary",
    "3583": "mary ",
    "3584": "mpet",
    "3585": "Ger",
    "3586": "Germ",
    "3587": "Germa",
    "3588": "acri",
    "3589": "acrit",
    "3590": "ray",
    "3591": "ok ",
    "3592": "icr",
    "3593": "icro",
    "3594": "time",
    "3595": "ege",
    "3596": "oni",
    "3597": "onia",
    "3598": "PO",
    "3599": "War",
    "3600": "mit",
    "3601": " d",
    "3602": " da",
    "3603": " dan",
    "3604": " danc",
    "3605": "mea",
    "3606": "mean",
    "3607": "gres",
    "3608": "gress",
    "3609": "tf",
    "3610": "tfo",
    "3611": "erg",
    "3612": "ity",
    "3613": "blo",
    "3614": "wh",
    "3615": "whi",
    "3616": "whic",
    "3617": "which",
    "3618": "sib",
    "3619": "sibl",
    "3620": "lph",
    "3621": "lpha",
    "3622": "ova",
    "3623": "isc",
    "3624": "app",
    "3625": "appa",
    "3626": "nry",
    "3627": "nry ",
    "3628": "wea",
    "3629": "dal",
    "3630": "its ",
    "3631": "X -",
    "3632": "X --",
    "3633": "ris",
    "3634": "ssil",
    "3635": "ries",
    "3636": "olsh",
    "3637": "8,",
    "3638": "8, ",
    "3639": "s ",
    "3640": "s o",
    "3641": "s of",
    "3642": "s of ",
    "3643": "PD",
    "3644": "ntra",
    "3645": "ntrac",
    "3646": "ntract",
    "3647": "rat",
    "3648": "erial",
    "3649": "S ",
    "3650": "1 b",
    "3651": "1 br",
    "3652": "ms ",
    "3653": "hop",
    "3654": "ch ",
    "3655": "untries",
    "3656": "athe",
    "3657": "ather",
    "3658": "enu",
    "3659": "enue",
    "3660": "ies",
    "3661": "d W",
    "3662": "her",
    "3663": "ago",
    "3664": "-k",
    "3665": "-kn",
    "3666": "-kno",
    "3667": "-know",
    "3668": "-known",
    "3669": "azil",
    "3670": "azili",
    "3671": "para",
    "3672": "parat",
    "3673": "ily",
    "3674": "3t",
    "3675": "3th",
    "3676": "gy",
    "3677": "gyp",
    "3678": "gypt",
    "3679": "zin",
    "3680": "zing",
    "3681": "dol",
    "3682": "cean",
    "3683": "Ag",
    "3684": "Agr",
    "3685": "pen",
    "3686": "pend",
    "3687": "led",
    "3688": "ledg",
    "3689": "ilk",
    "3690": "icat",
    "3691": "bin",
    "3692": "cate",
    "3693": "cated",
    "3694": "embe",
    "3695": "ember",
    "3696": "ched",
    "3697": "Game",
    "3698": "oot",
    "3699": "ootb",
    "3700": "ootba",
    "3701": "ootbal",
    "3702": "ield",
    "3703": "omo",
    "3704": "8)",
    "3705": "erd",
    "3706": "erde",
    "3707": "ear",
    "3708": "zy",
    "3709": "zym",
    "3710": "Be",
    "3711": "Be ",
    "3712": "sm",
    "3713": "sma",
    "3714": "UT",
    "3715": "exp",
    "3716": "expe",
    "3717": "apoe",
    "3718": "apoei",
    "3719": "apoeir",
    "3720": "Em",
    "3721": "O ",
    "3722": "O -",
    "3723": "00",
    "3724": "000",
    "3725": "pita",
    "3726": "odo",
    "3727": "E ",
    "3728": "00s",
    "3729": "ball",
    "3730": " s",
    "3731": "dge ",
    "3732": "NE",
    "3733": "-o",
    "3734": "-ou",
    "3735": "-out",
    "3736": " (b",
    "3737": " (b.",
    "3738": " (b. ",
    "3739": " (b. 1",
    "3740": "olar",
    "3741": "tist",
    "3742": "pite",
    "3743": "ubg",
    "3744": "ubgr",
    "3745": "lyi",
    "3746": "lyin",
    "3747": "yg",
    "3748": "yge",
    "3749": "ygen",
    "3750": "xf",
    "3751": "xfo",
    "3752": "hang",
    "3753": "ami",
    "3754": "inen",
    "3755": "len",
    "3756": "lend",
    "3757": "e b",
    "3758": "e br",
    "3759": "cov",
    "3760": "cove",
    "3761": "cover",
    "3762": "ford",
    "3763": "car",
    "3764": "-u",
    "3765": "rom",
    "3766": "rom ",
    "3767": "did",
    "3768": "dida",
    "3769": "wer",
    "3770": "were",
    "3771": "rly",
    "3772": "Fre",
    "3773": "Fren",
    "3774": "Frenc",
    "3775": "French",
    "3776": "grou",
    "3777": "groun",
    "3778": "ground",
    "3779": "ior",
    "3780": "ard",
    "3781": "gun",
    "3782": "ndm",
    "3783": "ndme",
    "3784": "uil",
    "3785": "uad",
    "3786": " F",
    "3787": " Fo",
    "3788": " For",
    "3789": "igu",
    "3790": "(b",
    "3791": "(b.",
    "3792": "(b. ",
    "3793": "leb",
    "3794": "lebr",
    "3795": "argo",
    "3796": "?*",
    "3797": "erag",
    "3798": "ctr",
    "3799": "ctri",
    "3800": "amil",
    "3801": "amilt",
    "3802": "amilto",
    "3803": "x)",
    "3804": "lim",
    "3805": "pat",
    "3806": "pati",
    "3807": "maic",
    "3808": "xan",
    "3809": "xand",
    "3810": "vent",
    "3811": "Q}",
    "3812": "of ",
    "3813": "pter",
    "3814": "vio",
    "3815": "pap",
    "3816": "thm",
    "3817": "orat",
    "3818": "gs",
    "3819": "eban",
    "3820": "R -",
    "3821": "cros",
    "3822": "cross",
    "3823": "ddi",
    "3824": "ston",
    "3825": "iall",
    "3826": "urn",
    "3827": "yal",
    "3828": "Po",
    "3829": "Pol",
    "3830": "ern ",
    "3831": "90",
    "3832": "90s",
    "3833": "ovem",
    "3834": "oveme",
    "3835": "ovemen",
    "3836": "so ",
    "3837": "byt",
    "3838": "emm",
    "3839": "Wo",
    "3840": "Wor",
    "3841": "Worl",
    "3842": "World",
    "3843": "cent",
    "3844": "Jer",
    "3845": "y*",
    "3846": "uel",
    "3847": "ept",
    "3848": "kt",
    "3849": "kto",
    "3850": "sol",
    "3851": "rn",
    "3852": "rna",
    "3853": "isti",
    "3854": "istic",
    "3855": "rma",
    "3856": "rmal",
    "3857": "ype",
    "3858": "trat",
    "3859": "rass",
    "3860": " no",
    "3861": " not",
    "3862": "ther",
    "3863": "ligi",
    "3864": "ven ",
    "3865": "Lav",
    "3866": "Lavo",
    "3867": "Lavoi",
    "3868": "Lavois",
    "3869": "twee",
    "3870": "viet",
    "3871": "ali",
    "3872": "alig",
    "3873": "align",
    "3874": "ence",
    "3875": "enced",
    "3876": "lib",
    "3877": "indo",
    "3878": "indow",
    "3879": "two ",
    "3880": "pio",
    "3881": "pion",
    "3882": "viou",
    "3883": "vious",
    "3884": "z ",
    "3885": "od ",
    "3886": "rch",
    "3887": "ious",
    "3888": "lutc",
    "3889": "lutch",
    "3890": "otes",
    "3891": "otest",
    "3892": "irma",
    "3893": "hich",
    "3894": "Y ",
    "3895": "Y -",
    "3896": "Y --",
    "3897": "ivers",
    "3898": "Hoo",
    "3899": "Hoov",
    "3900": "aten",
    "3901": "oved",
    "3902": "Vi",
    "3903": "Vir",
    "3904": "Virg",
    "3905": "Virgi",
    "3906": "llel",
    "3907": "cit",
    "3908": "ono",
    "3909": "ccu",
    "3910": "xample",
    "3911": "ton",
    "3912": "zil",
    "3913": "ice",
    "3914": "lot",
    "3915": "AC",
    "3916": "ACD",
    "3917": "rtu",
    "3918": "verb",
    "3919": "therl",
    "3920": "opu",
    "3921": "opul",
    "3922": "!-",
    "3923": "!--",
    "3924": "aig",
    "3925": "5)",
    "3926": "velo",
    "3927": "ror",
    "3928": "ara",
    "3929": "base",
    "3930": "d. ",
    "3931": "kis",
    "3932": "see",
    "3933": "-s",
    "3934": "-sp",
    "3935": "rrit",
    "3936": "rrito",
    "3937": "rritor",
    "3938": "Bro",
    "3939": "Broo",
    "3940": "Brook",
    "3941": "uare",
    "3942": "rge",
    "3943": "rget",
    "3944": "yt",
    "3945": "yth",
    "3946": "Tes",
    "3947": "Test",
    "3948": "rb",
    "3949": "rba",
    "3950": "nard",
    "3951": "aph",
    "3952": "nks",
    "3953": "ie ",
    "3954": "ngi",
    "3955": "ngin",
    "3956": "gis",
    "3957": "gist",
    "3958": "unct",
    "3959": "n n",
    "3960": "n nd",
    "3961": "n nda",
    "3962": "n ndas",
    "3963": "n ndash",
    "3964": "sof",
    "3965": "soft",
    "3966": "ered",
    "3967": "less",
    "3968": "bred",
    "3969": "rusal",
    "3970": "ds",
    "3971": "dso",
    "3972": "dson",
    "3973": "V ",
    "3974": "V -",
    "3975": "velop",
    "3976": "pie",
    "3977": "piec",
    "3978": "piece",
    "3979": "uo",
    "3980": "uou",
    "3981": "uous",
    "3982": "y#",
    "3983": "video",
    "3984": "f ",
    "3985": "Le",
    "3986": "Lea",
    "3987": "Leag",
    "3988": "Leagu",
    "3989": "ttle",
    "3990": "gri",
    "3991": "gric",
    "3992": "gricu",
    "3993": "gricul",
    "3994": "gricult",
    "3995": "ner",
    "3996": "ync",
    "3997": "gree",
    "3998": "ls ",
    "3999": "Cana",
    "4000": "Canad",
    "4001": "Canadi",
    "4002": "Canadia",
    "4003": "Canadian",
    "4004": "hom",
    "4005": "bus",
    "4006": "bust",
    "4007": "main",
    "4008": "cie",
    "4009": "cien",
    "4010": "ltim",
    "4011": "nly ",
    "4012": "Boo",
    "4013": "Book",
    "4014": "p.",
    "4015": "spe",
    "4016": "spec",
    "4017": "App",
    "4018": "Appl",
    "4019": "Apple",
    "4020": "raf",
    "4021": "raft",
    "4022": "xt",
    "4023": "eigh",
    "4024": "f-",
    "4025": "OO",
    "4026": "OOP",
    "4027": "Ot",
    "4028": "Oth",
    "4029": "Othe",
    "4030": "Other",
    "4031": "heo",
    "4032": "heor",
    "4033": "ata",
    "4034": "fict",
    "4035": "ficti",
    "4036": "fictio",
    "4037": "cul",
    "4038": "oks",
    "4039": "babl",
    "4040": "dm",
    "4041": "dmi",
    "4042": "bea",
    "4043": "med ",
    "4044": "ebru",
    "4045": "ebrua",
    "4046": "ong",
    "4047": "ctor",
    "4048": "arl",
    "4049": "Lio",
    "4050": "Lion",
    "4051": "6|",
    "4052": "6| ",
    "4053": "Ba",
    "4054": "usad",
    "4055": "rag",
    "4056": "ew ",
    "4057": "uss",
    "4058": "lata",
    "4059": "mbri",
    "4060": "ccur",
    "4061": "male",
    "4062": "lip",
    "4063": "w ",
    "4064": "oet",
    "4065": "tsh",
    "4066": "Zec",
    "4067": "Zech",
    "4068": "suc",
    "4069": "such",
    "4070": "illia",
    "4071": "illiam",
    "4072": "n,",
    "4073": "n, ",
    "4074": "sea",
    "4075": "sear",
    "4076": "hm",
    "4077": "nsy",
    "4078": "nsyl",
    "4079": "ach",
    "4080": "te 1",
    "4081": "Bas",
    "4082": "Base",
    "4083": "kl",
    "4084": "kla",
    "4085": "Dub",
    "4086": "Dubl",
    "4087": "Dubli",
    "4088": "Ai",
    "4089": "Air",
    "4090": "ele",
    "4091": "mun",
    "4092": "pub",
    "4093": "publ",
    "4094": "publi",
    "4095": "ho ",
    "4096": "viv",
    "4097": " mill",
    "4098": " milli",
    "4099": " millio",
    "4100": " million",
    "4101": "ovemb",
    "4102": "ovembe",
    "4103": "can ",
    "4104": "rip",
    "4105": "ript",
    "4106": "zat",
    "4107": "zati",
    "4108": "zatio",
    "4109": "zation",
    "4110": "icid",
    "4111": "riv",
    "4112": "rive",
    "4113": "hio",
    "4114": "eit",
    "4115": "an ",
    "4116": "ibl",
    "4117": "eaty ",
    "4118": "itt",
    "4119": "goro",
    "4120": "gorou",
    "4121": "ble ",
    "4122": "ge ",
    "4123": "ge o",
    "4124": "ge of",
    "4125": "ge of ",
    "4126": "ves ",
    "4127": "seb",
    "4128": "seba",
    "4129": "sebal",
    "4130": "for ",
    "4131": "ral",
    "4132": "% ",
    "4133": "cid",
    "4134": "gto",
    "4135": "Dut",
    "4136": "Dutc",
    "4137": "Dutch",
    "4138": "m)",
    "4139": "5t",
    "4140": "5th",
    "4141": "sch",
    "4142": "ssibl",
    "4143": "oma",
    "4144": "oman",
    "4145": "yd",
    "4146": "ydr",
    "4147": "ji",
    "4148": "jin",
    "4149": "sti",
    "4150": "ee ",
    "4151": "lows",
    "4152": "lows ",
    "4153": "ymn",
    "4154": "cad",
    "4155": "ost",
    "4156": "osti",
    "4157": "ld ",
    "4158": "weg",
    "4159": "wegi",
    "4160": "jor",
    "4161": "wav",
    "4162": "nec",
    "4163": "nect",
    "4164": "ric",
    "4165": "reer",
    "4166": "tla",
    "4167": "wide",
    "4168": "ndon",
    "4169": "ster",
    "4170": "dren",
    "4171": "C ",
    "4172": "ino",
    "4173": "bol",
    "4174": "rt ",
    "4175": "SA",
    "4176": "ndas",
    "4177": "ndash",
    "4178": "chn",
    "4179": "ttp",
    "4180": "iff",
    "4181": "sit",
    "4182": "eld",
    "4183": "egis",
    "4184": "egisl",
    "4185": "insu",
    "4186": "nto",
    "4187": "ific",
    "4188": "ssio",
    "4189": "ssion",
    "4190": "ness",
    "4191": "turn",
    "4192": "H ",
    "4193": "H -",
    "4194": "mec",
    "4195": "mech",
    "4196": "Yea",
    "4197": "hod",
    "4198": " br ",
    "4199": "ece",
    "4200": "ieg",
    "4201": "epp",
    "4202": "C.",
    "4203": "ement",
    "4204": "nth",
    "4205": "Chan",
    "4206": "Chanc",
    "4207": "Chance",
    "4208": "omm",
    "4209": "ommo",
    "4210": "ommon",
    "4211": "pot",
    "4212": "poth",
    "4213": "abli",
    "4214": "e:",
    "4215": "*L",
    "4216": "*Li",
    "4217": "*Lis",
    "4218": "*List",
    "4219": "sexu",
    "4220": "gula",
    "4221": "Emp",
    "4222": "fini",
    "4223": "finit",
    "4224": "urch",
    "4225": "#Sa",
    "4226": "bg",
    "4227": "bgr",
    "4228": "bgro",
    "4229": "bgrou",
    "4230": "bgroup",
    "4231": "cer",
    "4232": "cert",
    "4233": "gur",
    "4234": "orm",
    "4235": "egor",
    "4236": "oups",
    "4237": "Qu",
    "4238": "lett",
    "4239": "ule",
    "4240": "l ",
    "4241": "eum",
    "4242": "idat",
    "4243": "mitt",
    "4244": "leu",
    "4245": "leum",
    "4246": "ely",
    "4247": "ngli",
    "4248": "nglis",
    "4249": "eam",
    "4250": "alle",
    "4251": "alled",
    "4252": "E -",
    "4253": "E --",
    "4254": "td",
    "4255": "td ",
    "4256": "nsylv",
    "4257": "iod",
    "4258": "cil",
    "4259": "miss",
    "4260": " /mat",
    "4261": "nou",
    "4262": "noun",
    "4263": "nounc",
    "4264": "elo",
    "4265": "ds ",
    "4266": "rey",
    "4267": "atri",
    "4268": "fg",
    "4269": "fgh",
    "4270": "SAC",
    "4271": " as",
    "4272": "ity ",
    "4273": "G ",
    "4274": "G -",
    "4275": "G --",
    "4276": "nga",
    "4277": "ngar",
    "4278": "d w",
    "4279": "d wi",
    "4280": "d wit",
    "4281": "d with",
    "4282": "eap",
    "4283": "eapo",
    "4284": "eapon",
    "4285": "mina",
    "4286": "cin",
    "4287": "en,",
    "4288": "en, ",
    "4289": "Chu",
    "4290": "Chur",
    "4291": "Churc",
    "4292": "Church",
    "4293": "Lak",
    "4294": "Lake",
    "4295": "dent",
    "4296": "yric",
    "4297": "pple",
    "4298": "onic",
    "4299": "stea",
    "4300": "stead",
    "4301": "ile ",
    "4302": "sil",
    "4303": "bitr",
    "4304": "volv",
    "4305": "n c",
    "4306": "n co",
    "4307": "n com",
    "4308": "erdee",
    "4309": "erdeen",
    "4310": "e 1",
    "4311": "eag",
    "4312": "eagu",
    "4313": "log",
    "4314": "Chl",
    "4315": "Chlo",
    "4316": "Chlor",
    "4317": "oci",
    "4318": "disk",
    "4319": "ilo",
    "4320": "ict",
    "4321": "rtha",
    "4322": "rthag",
    "4323": "ame ",
    "4324": "rict",
    "4325": "...",
    "4326": "ero",
    "4327": "0 -",
    "4328": "0 - ",
    "4329": "tly",
    "4330": "4 ",
    "4331": "n-",
    "4332": ":/",
    "4333": "://",
    "4334": "goi",
    "4335": "goin",
    "4336": "omon",
    "4337": "nze",
    "4338": "dee",
    "4339": "firs",
    "4340": "first",
    "4341": "He ",
    "4342": "cag",
    "4343": "cago",
    "4344": "wo ",
    "4345": "ube",
    "4346": "c ",
    "4347": "modo",
    "4348": "modor",
    "4349": "modore",
    "4350": "urth",
    "4351": "urthe",
    "4352": "nel",
    "4353": "MPOR",
    "4354": "igm",
    "4355": "iri",
    "4356": "irit",
    "4357": "ilit",
    "4358": "rcu",
    "4359": "ley",
    "4360": "b{",
    "4361": "eh",
    "4362": "x b",
    "4363": "x br",
    "4364": "rgu",
    "4365": "tag",
    "4366": "fiction",
    "4367": ".S",
    "4368": ".S.",
    "4369": "vis",
    "4370": "bir",
    "4371": "bird",
    "4372": "s)",
    "4373": "ndr",
    "4374": "sep",
    "4375": "seph",
    "4376": "gum",
    "4377": "gume",
    "4378": "gumen",
    "4379": "bum",
    "4380": "ttin",
    "4381": "tting",
    "4382": "owi",
    "4383": "owin",
    "4384": "bon",
    "4385": "bond",
    "4386": "pt ",
    "4387": "othe",
    "4388": "ke ",
    "4389": "Af",
    "4390": "Afg",
    "4391": "Afgh",
    "4392": "used ",
    "4393": "sts",
    "4394": "sts ",
    "4395": "4 -",
    "4396": "4 - ",
    "4397": "spel",
    "4398": "arc",
    "4399": "arch",
    "4400": "CDC ",
    "4401": "Sox",
    "4402": "veloped",
    "4403": "er.",
    "4404": "medica",
    "4405": "medical ",
    "4406": "dom of ",
    "4407": "ather tha",
    "4408": "eaucra",
    "4409": "Ontario",
    "4410": "th, ",
    "4411": "Stree",
    "4412": "Street ",
    "4413": "experime",
    "4414": "experiment",
    "4415": "Stephe",
    "4416": "6 (",
    "4417": "cogn",
    "4418": "vapor",
    "4419": "ia, ",
    "4420": "sides ",
    "4421": "Lake ",
    "4422": "Lake V",
    "4423": "Lake Vost",
    "4424": "non-",
    "4425": "chemical",
    "4426": "isted",
    "4427": "y off ",
    "4428": "89), ",
    "4429": "entranc",
    "4430": "uclea",
    "4431": "down ",
    "4432": "purpo",
    "4433": "nned",
    "4434": "vernacu",
    "4435": "vernacula",
    "4436": "cher",
    "4437": "oes ",
    "4438": "5% ",
    "4439": "Aalen",
    "4440": "typic",
    "4441": "typically ",
    "4442": "simpl",
    "4443": "n /td",
    "4444": "n /tdtd ",
    "4445": "n /tdtd st",
    "4446": "n /tdtd style",
    "4447": "6A",
    "4448": "or of ",
    "4449": "entered",
    "4450": "xation",
    "4451": "ted in ",
    "4452": "edingl",
    "4453": "seque",
    "4454": "sequent",
    "4455": "sequently ",
    "4456": "notabl",
    "4457": "notably ",
    "4458": "Janu",
    "4459": "to be ",
    "4460": "FDP",
    "4461": "third ",
    "4462": "reater",
    "4463": "School",
    "4464": "since",
    "4465": "wspap",
    "4466": "riving",
    "4467": "reafter",
    "4468": "NOM",
    "4469": " charact",
    "4470": "ities",
    "4471": "ities, ",
    "4472": "-kuo",
    "4473": "sisted ",
    "4474": "style",
    "4475": "Leo",
    "4476": "apart",
    "4477": "apartment",
    "4478": "into ",
    "4479": "landers ",
    "4480": "text",
    "4481": "bishop",
    "4482": "Hz ",
    "4483": "curity ",
    "4484": "inches ",
    "4485": "asic ",
    "4486": "rument",
    "4487": "uerto ",
    "4488": "despite",
    "4489": "dminist",
    "4490": "dministrat",
    "4491": "loca",
    "4492": "eties",
    "4493": "oclas",
    "4494": "cutter",
    "4495": "Sept",
    "4496": "September",
    "4497": "thus ",
    "4498": " 1",
    "4499": " 17",
    "4500": "rs and ",
    "4501": "lack ",
    "4502": " Cola",
    "4503": "creas",
    "4504": "creasing",
    "4505": "signal ",
    "4506": "metric",
    "4507": "ortuni",
    "4508": "RNA",
    "4509": "y are ",
    "4510": "rtrt",
    "4511": " Gr",
    "4512": " Grace",
    "4513": "ademic ",
    "4514": "ortant",
    "4515": "1.",
    "4516": "ctronic",
    "4517": "Chapter",
    "4518": "Chapter ",
    "4519": "nce ",
    "4520": "atting",
    "4521": "Epis",
    "4522": "Epistle",
    "4523": " mach",
    "4524": "st ele",
    "4525": "st element",
    "4526": "hold ",
    "4527": "function",
    "4528": "Years ",
    "4529": "Heave",
    "4530": "onomic",
    "4531": "rles, ",
    "4532": "LO",
    "4533": "Perform",
    "4534": "Performer",
    "4535": "orporates ",
    "4536": "n)*",
    "4537": "ked to ",
    "4538": "1, 19",
    "4539": "Graus",
    "4540": "ifferen",
    "4541": "ifferent ",
    "4542": "or, ",
    "4543": "ndred",
    "4544": "ld Test",
    "4545": "ld Testamen",
    "4546": "sther",
    "4547": "covered",
    "4548": "giving",
    "4549": "anning ",
    "4550": "exterm",
    "4551": "extermina",
    "4552": "pua ",
    "4553": "upite",
    "4554": "try ",
    "4555": "-state",
    "4556": "ressive",
    "4557": "eant ",
    "4558": "gimes",
    "4559": "sport",
    "4560": " T",
    "4561": " French",
    "4562": "orly ",
    "4563": "mpio",
    "4564": "married",
    "4565": " Fel",
    "4566": " Felip",
    "4567": "velocit",
    "4568": "others ",
    "4569": "alph",
    "4570": "riven ",
    "4571": "style= ",
    "4572": "widow",
    "4573": "cy.",
    "4574": "Indi",
    "4575": "chatka",
    "4576": "Talk",
    "4577": "modifi",
    "4578": "ceta",
    "4579": "cetacean",
    "4580": " rea",
    "4581": "ragone",
    "4582": "efinite",
    "4583": "success",
    "4584": "successful",
    "4585": " race",
    "4586": "rater",
    "4587": "divide",
    "4588": "divided ",
    "4589": "t of La",
    "4590": "t of Latter",
    "4591": "50 - ",
    "4592": "usual",
    "4593": "usually ",
    "4594": "avy ",
    "4595": "ixed",
    "4596": "leaf ",
    "4597": "leaf no",
    "4598": "knife",
    "4599": "cuum",
    "4600": "AR",
    "4601": "apid",
    "4602": "stitu",
    "4603": "yes ",
    "4604": "yes - ",
    "4605": " is ",
    "4606": " is ab",
    "4607": "rowth ",
    "4608": "module",
    "4609": "Matt",
    "4610": "Matt.",
    "4611": "1)*1",
    "4612": "isions",
    "4613": "Nobel",
    "4614": "pparch",
    "4615": "ubtre",
    "4616": "tennis",
    "4617": "posse",
    "4618": "possession",
    "4619": "CH ",
    "4620": "CH sub",
    "4621": "90 - ",
    "4622": "90 - 1",
    "4623": "90 - 17",
    "4624": "epist",
    "4625": "fted ",
    "4626": "day of ",
    "4627": "brPar",
    "4628": "romo",
    "4629": "Gaud",
    "4630": "tionship",
    "4631": "ire to ",
    "4632": "roach ",
    "4633": "opold ",
    "4634": "crops",
    "4635": "Hels",
    "4636": "Helsin",
    "4637": "Helsinki",
    "4638": "attle",
    "4639": "omson",
    "4640": "village",
    "4641": "ripene",
    "4642": "li, ",
    "4643": "ts, ",
    "4644": "dependence",
    "4645": "vary ",
    "4646": "essenti",
    "4647": "announ",
    "4648": "announced ",
    "4649": "latter",
    "4650": "udio",
    "4651": "o not",
    "4652": "humed",
    "4653": "cience",
    "4654": "separa",
    "4655": " (d. 19",
    "4656": "changed",
    "4657": "ird, ",
    "4658": "Colora",
    "4659": "Colorado",
    "4660": "differen",
    "4661": "mits ",
    "4662": "Captain",
    "4663": "imate",
    "4664": "perform",
    "4665": "performed",
    "4666": "guing ",
    "4667": "cape",
    "4668": "heredi",
    "4669": "hereditar",
    "4670": "lier",
    "4671": "Eston",
    "4672": "Estonia",
    "4673": "cadem",
    "4674": "word ",
    "4675": "visio",
    "4676": "decl",
    "4677": "declare",
    "4678": "f of ",
    "4679": "alter ",
    "4680": "1 cha",
    "4681": "1 charact",
    "4682": "physi",
    "4683": " or",
    "4684": "rbache",
    "4685": "ne, ",
    "4686": "blas",
    "4687": "Kidd",
    "4688": "ebrai",
    "4689": "achim",
    "4690": "7 billi",
    "4691": "tended ",
    "4692": "rtolo",
    "4693": "merely",
    "4694": "mith",
    "4695": "mith, ",
    "4696": "l of ",
    "4697": "89 - ",
    "4698": "gencie",
    "4699": "opinion",
    "4700": "clusive",
    "4701": "ensure",
    "4702": "irection",
    "4703": " Flem",
    "4704": " Flemish",
    "4705": "um /t",
    "4706": "looks",
    "4707": " impa",
    "4708": "on't",
    "4709": "mains ",
    "4710": "ferred",
    "4711": "ferred to ",
    "4712": "quenc",
    "4713": "monga",
    "4714": "altera",
    "4715": "alteration",
    "4716": "vent of ",
    "4717": "tried ",
    "4718": "aying",
    "4719": "ensio",
    "4720": "endu",
    "4721": "lmark",
    "4722": "dressed",
    "4723": "army ",
    "4724": "s out ",
    "4725": " Ge",
    "4726": "Arag",
    "4727": "Aragone",
    "4728": "resembl",
    "4729": " /re",
    "4730": "Domin",
    "4731": "weapon",
    "4732": "onitor",
    "4733": "Penz",
    "4734": "Penzance",
    "4735": "victed",
    "4736": "potent",
    "4737": "e for ",
    "4738": " weapon",
    "4739": "mospher",
    "4740": "endenc",
    "4741": " skat",
    "4742": "ilure",
    "4743": "ntual",
    "4744": "argue ",
    "4745": "pagan",
    "4746": "t's ",
    "4747": "etic",
    "4748": "8-1",
    "4749": "etration",
    "4750": "eeded",
    "4751": "DL",
    "4752": "DLR ",
    "4753": "away ",
    "4754": "severa",
    "4755": "aid that",
    "4756": "Kni",
    "4757": "Knight",
    "4758": " who",
    "4759": " brow",
    "4760": "araday",
    "4761": "present",
    "4762": "n.",
    "4763": "illiams ",
    "4764": "Compan",
    "4765": "9A",
    "4766": "IM ",
    "4767": "plish",
    "4768": "plishment",
    "4769": "footbal",
    "4770": "football ",
    "4771": "ysic",
    "4772": "Johnson",
    "4773": "Johnson, ",
    "4774": "rsued ",
    "4775": "w.",
    "4776": "olved ",
    "4777": "Minist",
    "4778": "rectly",
    "4779": "ttempt",
    "4780": "oms ",
    "4781": "Bulgaria",
    "4782": " imp",
    "4783": " import",
    "4784": " important",
    "4785": "Digit",
    "4786": "celand",
    "4787": "mall ",
    "4788": "ectio",
    "4789": "onwealth",
    "4790": "iloso",
    "4791": "follow",
    "4792": "following",
    "4793": "ierra ",
    "4794": "subtre",
    "4795": "ks, ",
    "4796": "Chinese",
    "4797": "nservative",
    "4798": "ermina",
    "4799": "ihel",
    "4800": "ihelio",
    "4801": " should",
    "4802": "c, ",
    "4803": "l-",
    "4804": "i.",
    "4805": "i.e",
    "4806": "i.e.",
    "4807": "e 19",
    "4808": "e 199",
    "4809": "eeply ",
    "4810": "licens",
    "4811": "19 - ",
    "4812": "aled ",
    "4813": "album",
    "4814": "bes ",
    "4815": "among",
    "4816": "strong",
    "4817": "large",
    "4818": "Empero",
    "4819": "eatured",
    "4820": "over ",
    "4821": "lood ",
    "4822": "tenced ",
    "4823": "eache",
    "4824": "eaches ",
    "4825": "lunar",
    "4826": "applica",
    "4827": "application",
    "4828": "Bosnia",
    "4829": "orporation",
    "4830": " comm",
    "4831": "scien",
    "4832": "Pacif",
    "4833": "fend ",
    "4834": "nnect",
    "4835": "nnectio",
    "4836": "2-1",
    "4837": "Mande",
    "4838": "gnant",
    "4839": "adow",
    "4840": " soul",
    "4841": "infect",
    "4842": "irate",
    "4843": "egotia",
    "4844": "marine",
    "4845": "atelli",
    "4846": "curren",
    "4847": " have",
    "4848": "ships ",
    "4849": "media ",
    "4850": "rn (",
    "4851": "rn (19",
    "4852": "pting ",
    "4853": "ractical",
    "4854": "GS",
    "4855": "store ",
    "4856": "rding",
    "4857": "ditory",
    "4858": "placed ",
    "4859": "ur of ",
    "4860": "volved",
    "4861": "Sta",
    "4862": "hout ",
    "4863": "3 - ",
    "4864": " class",
    "4865": " class (",
    "4866": "uffic",
    "4867": "ufficien",
    "4868": " never",
    "4869": "embers of ",
    "4870": "ccupie",
    "4871": "ccupied ",
    "4872": "enres",
    "4873": "Fel",
    "4874": "Big ",
    "4875": "Big Coun",
    "4876": "Big Countr",
    "4877": "erwent",
    "4878": "Van ",
    "4879": "trolled",
    "4880": " into ",
    "4881": "Unun",
    "4882": "passed",
    "4883": "3's ",
    "4884": "roxi",
    "4885": "roximat",
    "4886": "r t",
    "4887": "ncy ",
    "4888": "imal ",
    "4889": "Afric",
    "4890": "Lync",
    "4891": "catio",
    "4892": "= all",
    "4893": "urrent",
    "4894": "entual",
    "4895": "esight",
    "4896": "eferen",
    "4897": " War*1",
    "4898": " War*19",
    "4899": "Otto",
    "4900": "Ottoman",
    "4901": "centur",
    "4902": "ruptc",
    "4903": "anu",
    "4904": "anufact",
    "4905": "Athen",
    "4906": "Athens ",
    "4907": "e of ",
    "4908": "Secu",
    "4909": "Securit",
    "4910": "till ",
    "4911": "offer ",
    "4912": "ra's ",
    "4913": "rcoa",
    "4914": "post",
    "4915": "post-",
    "4916": "type",
    "4917": "letaria",
    "4918": "countr",
    "4919": "countries",
    "4920": "brech",
    "4921": "brecht ",
    "4922": "wned b",
    "4923": "wned by ",
    "4924": "(in ",
    "4925": "l*",
    "4926": "4 /su",
    "4927": "CP",
    "4928": "arian ",
    "4929": "me, ",
    "4930": "ervice",
    "4931": "theory",
    "4932": "ct to",
    "4933": "Eas",
    "4934": "public ",
    "4935": "tional ",
    "4936": "Viruse",
    "4937": "Indian ",
    "4938": "vis, ",
    "4939": "follows",
    "4940": "plant",
    "4941": "eared",
    "4942": "belie",
    "4943": "believed",
    "4944": "der.",
    "4945": "gotia",
    "4946": "such as",
    "4947": "tradition",
    "4948": "traditional ",
    "4949": "ating ",
    "4950": "ating sy",
    "4951": "ating system",
    "4952": "ly a",
    "4953": "ly after",
    "4954": "7.",
    "4955": "ternation",
    "4956": "ternational ",
    "4957": "swept ",
    "4958": " Ara",
    "4959": " uni",
    "4960": "period",
    "4961": "it 19",
    "4962": "ge, ",
    "4963": "body",
    "4964": "nucle",
    "4965": "wine ",
    "4966": "issu",
    "4967": "issued",
    "4968": "tractio",
    "4969": "undari",
    "4970": "essage",
    "4971": "ociate",
    "4972": "ociated with",
    "4973": "derive",
    "4974": " range",
    "4975": " range of ",
    "4976": " throw",
    "4977": "admin",
    "4978": "administ",
    "4979": "administrat",
    "4980": "ives ",
    "4981": "Cavit",
    "4982": "Cavitation",
    "4983": "bicid",
    "4984": "so, ",
    "4985": "mselves ",
    "4986": "ime Min",
    "4987": "ime Minist",
    "4988": "virtua",
    "4989": "virtually",
    "4990": " word",
    "4991": "kend",
    "4992": "enega",
    "4993": "Pici",
    "4994": "Piciril",
    "4995": "talian",
    "4996": "believe ",
    "4997": "Mike ",
    "4998": "3)*19",
    "4999": "dney",
    "5000": "altered",
    "5001": "team ",
    "5002": "itors ",
    "5003": " two ",
    "5004": "blade",
    "5005": "today",
    "5006": "2.",
    "5007": "court ",
    "5008": "prestig",
    "5009": "prestigious",
    "5010": "specific",
    "5011": "Summ",
    "5012": "gued ",
    "5013": " out ",
    "5014": "ginal ",
    "5015": "Advan",
    "5016": "pted ",
    "5017": "mediate",
    "5018": "Rums",
    "5019": "Rumsfe",
    "5020": "age of ",
    "5021": "intent",
    "5022": "intentio",
    "5023": "ropolog",
    "5024": "iatio",
    "5025": "Skat",
    "5026": "elling",
    "5027": "ter of ",
    "5028": "llowing",
    "5029": "ings ",
    "5030": "lergy",
    "5031": "riche",
    "5032": "cing ",
    "5033": " /tdt",
    "5034": " /tdtd ",
    "5035": "arly ",
    "5036": "eeting",
    "5037": "placem",
    "5038": "placement ",
    "5039": "O)*",
    "5040": "arition",
    "5041": "See ",
    "5042": "gical ",
    "5043": "ograph",
    "5044": "ce ",
    "5045": "will ",
    "5046": "ering ",
    "5047": "thron",
    "5048": "throne ",
    "5049": "teraction",
    "5050": "empire",
    "5051": ")#",
    "5052": "There ",
    "5053": "There are",
    "5054": "1 and ",
    "5055": "llywo",
    "5056": "famous",
    "5057": "flew ",
    "5058": " machine",
    "5059": "o, ",
    "5060": "lgorithm",
    "5061": "dvance",
    "5062": "Xer",
    "5063": "Xerxe",
    "5064": "used.",
    "5065": "lten ",
    "5066": "vorce",
    "5067": "establish",
    "5068": "established",
    "5069": "Jud",
    "5070": "surren",
    "5071": "export",
    "5072": "uilt ",
    "5073": "ccurs ",
    "5074": "deavo",
    "5075": "rucifi",
    "5076": "rucifixi",
    "5077": "ially ",
    "5078": "osing ",
    "5079": "modern ",
    "5080": "reasons",
    "5081": "Duke ",
    "5082": " unt",
    "5083": " until",
    "5084": "slie ",
    "5085": "glyc",
    "5086": "glycemi",
    "5087": "Join",
    "5088": "Joint ",
    "5089": "Pil",
    "5090": "Pilgri",
    "5091": "nian ",
    "5092": "and-",
    "5093": "e sk",
    "5094": "bination",
    "5095": "bination of ",
    "5096": "avily ",
    "5097": "knight",
    "5098": "4 nbsp",
    "5099": "4 nbsp;",
    "5100": "inha",
    "5101": "inhabit",
    "5102": "igital ",
    "5103": "bout ",
    "5104": "aid to ",
    "5105": "moving",
    "5106": "vicinit",
    "5107": "vicinity of ",
    "5108": "launch",
    "5109": "launched",
    "5110": "hunem",
    "5111": "Enigm",
    "5112": "viator",
    "5113": "husban",
    "5114": "again",
    "5115": " notabl",
    "5116": " during",
    "5117": " off ",
    "5118": "therine",
    "5119": "set of ",
    "5120": "ducer",
    "5121": "ducer#",
    "5122": "ddie ",
    "5123": "egions",
    "5124": "photo",
    "5125": "photograph",
    "5126": "bian ",
    "5127": "decad",
    "5128": "Belie",
    "5129": "Believers",
    "5130": "compe",
    "5131": "icopter",
    "5132": "lness",
    "5133": "eached",
    "5134": "B.",
    "5135": "B.C.",
    "5136": "paid ",
    "5137": "le the ",
    "5138": " Were",
    "5139": "heart",
    "5140": "ges ",
    "5141": "utono",
    "5142": "utonomous",
    "5143": "research",
    "5144": "aline ",
    "5145": "become",
    "5146": " de ",
    "5147": "guaran",
    "5148": "guarante",
    "5149": "general",
    "5150": "vessel",
    "5151": "Bulgarian",
    "5152": "4th ",
    "5153": "osed ",
    "5154": "ntly ",
    "5155": "4.",
    "5156": "x number",
    "5157": "mport",
    "5158": "Airport",
    "5159": "ajor",
    "5160": "ttempted",
    "5161": "epend o",
    "5162": "epend on ",
    "5163": "mmers ",
    "5164": "Beiji",
    "5165": "Beijing ",
    "5166": "www.",
    "5167": "urning",
    "5168": "anois ",
    "5169": "relative",
    "5170": "ptation",
    "5171": "upper ",
    "5172": "ity of ",
    "5173": "daugh",
    "5174": "daughter",
    "5175": "Cla",
    "5176": "Claud",
    "5177": "icularly ",
    "5178": "depress",
    "5179": "mmanuel",
    "5180": "aight",
    "5181": "ological",
    "5182": "uitar",
    "5183": "epubl",
    "5184": "exhal",
    "5185": "exhaled",
    "5186": "iged",
    "5187": "nowledg",
    "5188": "antic ",
    "5189": "News ",
    "5190": "0.",
    "5191": " numero",
    "5192": " numerous ",
    "5193": "ifeste",
    "5194": "ifested ",
    "5195": "button",
    "5196": "overned",
    "5197": "d was ",
    "5198": "sal ",
    "5199": "deir",
    "5200": " Y",
    "5201": " Yim",
    "5202": "erefore",
    "5203": "visit ",
    "5204": "s of 200",
    "5205": "hed ",
    "5206": "ching ",
    "5207": "reduc",
    "5208": "reduced",
    "5209": " friga",
    "5210": "breviat",
    "5211": "Young",
    "5212": "Young, ",
    "5213": "then ",
    "5214": "Plains",
    "5215": "lopath",
    "5216": "ckground",
    "5217": "This ",
    "5218": "tely ",
    "5219": "taura",
    "5220": "loween",
    "5221": "operate",
    "5222": "operated ",
    "5223": "tight",
    "5224": "based ",
    "5225": "idal ",
    "5226": "allic ",
    "5227": "Naval",
    "5228": "Naval ",
    "5229": "Naval Base",
    "5230": "acing",
    "5231": "emaine",
    "5232": "emained ",
    "5233": "ecision",
    "5234": "ooden ",
    "5235": " that t",
    "5236": " that time",
    "5237": "Empire",
    "5238": " bass",
    "5239": "resa ",
    "5240": "ainfall",
    "5241": "akes ",
    "5242": "volume of ",
    "5243": "y's ",
    "5244": "foundl",
    "5245": "sely ",
    "5246": "corda",
    "5247": "cordanc",
    "5248": "ropract",
    "5249": "variet",
    "5250": "variety of ",
    "5251": "bourn",
    "5252": "Hein",
    "5253": "entit",
    "5254": "entitled",
    "5255": "iated",
    "5256": "militar",
    "5257": "Book of ",
    "5258": " dist",
    "5259": " distribut",
    "5260": "angelica",
    "5261": "angelical ",
    "5262": "istant",
    "5263": "surfac",
    "5264": "antenn",
    "5265": "tablished",
    "5266": "tatisti",
    "5267": "ilding",
    "5268": "kes ",
    "5269": "prised",
    "5270": "prised of ",
    "5271": "utside",
    "5272": "Agricul",
    "5273": "Agricultur",
    "5274": "ions ",
    "5275": "techn",
    "5276": "techniqu",
    "5277": "rto",
    "5278": "movie ",
    "5279": "lding",
    "5280": "organi",
    "5281": "gramme",
    "5282": "sometime",
    "5283": "sometimes ",
    "5284": " am ",
    "5285": "ble to ",
    "5286": "the isla",
    "5287": "the island",
    "5288": " its ",
    "5289": "uled ",
    "5290": "guard",
    "5291": "nibal",
    "5292": "uum",
    "5293": " Free",
    "5294": "per se",
    "5295": "per secon",
    "5296": "Raym",
    "5297": "Raymond",
    "5298": "}}",
    "5299": "}} /",
    "5300": "}} /re",
    "5301": "given ",
    "5302": "I, ",
    "5303": "I, emp",
    "5304": "I, empero",
    "5305": "I, emperor",
    "5306": "cted",
    "5307": "reated ",
    "5308": "olarship",
    "5309": "olarships ",
    "5310": "asium",
    "5311": "ntinen",
    "5312": "perties",
    "5313": "Boein",
    "5314": "llent ",
    "5315": "Dark",
    "5316": "Chaiti",
    "5317": "Dubna",
    "5318": "Christma",
    "5319": "ior to ",
    "5320": "famil",
    "5321": "greater",
    "5322": "greater tha",
    "5323": "greater than ",
    "5324": "elimi",
    "5325": "eliminat",
    "5326": "frame ",
    "5327": "panic ",
    "5328": "aige ",
    "5329": "Notre",
    "5330": "Notre ",
    "5331": "7)*",
    "5332": "Berl",
    "5333": "ss, ",
    "5334": "faith",
    "5335": "is of ",
    "5336": "Seri",
    "5337": "quire",
    "5338": "nduct",
    "5339": "nducted",
    "5340": "performance",
    "5341": "Chancellor",
    "5342": "mney",
    "5343": "List o",
    "5344": "List of ",
    "5345": " Mixi",
    "5346": " Mixing ",
    "5347": "territor",
    "5348": " law",
    "5349": "evere ",
    "5350": "OM",
    "5351": "30 - ",
    "5352": "fication",
    "5353": "employ",
    "5354": "employed",
    "5355": "means ",
    "5356": "riented ",
    "5357": "chola",
    "5358": "bomb",
    "5359": " en",
    "5360": " environ",
    "5361": " environment",
    "5362": "haled",
    "5363": " with ",
    "5364": "father",
    "5365": "oes not ",
    "5366": "aurice",
    "5367": "-cent",
    "5368": "ristma",
    "5369": "arter",
    "5370": "eceive",
    "5371": "borrow",
    "5372": "borrowed",
    "5373": "Tora",
    "5374": "ature ",
    "5375": "consis",
    "5376": "consist of ",
    "5377": "IBM ",
    "5378": "try to ",
    "5379": "tanet ",
    "5380": "Rese",
    "5381": "Research",
    "5382": "ndeed",
    "5383": "udget",
    "5384": "ngdom",
    "5385": "door ",
    "5386": "her tha",
    "5387": "orts ",
    "5388": "posedly ",
    "5389": "Pope",
    "5390": "dame ",
    "5391": "situat",
    "5392": "situatio",
    "5393": "Fif",
    "5394": "Fifth ",
    "5395": ", br",
    "5396": "sist of ",
    "5397": "Island",
    "5398": "rpose ",
    "5399": "feate",
    "5400": "batten",
    "5401": "strate",
    "5402": "strategic",
    "5403": "entire",
    "5404": "hus, ",
    "5405": "0000",
    "5406": "Old ",
    "5407": "Dyl",
    "5408": " may ",
    "5409": "slands ",
    "5410": " Cross",
    "5411": "Nation",
    "5412": "National ",
    "5413": "xing ",
    "5414": "7th ",
    "5415": "itaria",
    "5416": "for example",
    "5417": "ecla",
    "5418": "rounded",
    "5419": "releas",
    "5420": "yor",
    "5421": "reless",
    "5422": "ccasi",
    "5423": "aske",
    "5424": "comes ",
    "5425": "eem ",
    "5426": "dish ",
    "5427": "image",
    "5428": "cylin",
    "5429": "isting ",
    "5430": "estate",
    "5431": "nwi",
    "5432": "ernal ",
    "5433": "axony",
    "5434": "notio",
    "5435": "dened",
    "5436": "determ",
    "5437": "determine",
    "5438": " brain ",
    "5439": "ecorat",
    "5440": " number",
    "5441": "dered",
    "5442": "der of ",
    "5443": "flight",
    "5444": "centric",
    "5445": "ollowing",
    "5446": "lia, ",
    "5447": "shingto",
    "5448": "rugs",
    "5449": "as wel",
    "5450": "as well ",
    "5451": "as well as ",
    "5452": " America",
    "5453": "Haer",
    "5454": "Haer.",
    "5455": "venteen",
    "5456": "iety of ",
    "5457": "self ",
    "5458": "Pound",
    "5459": "forcement",
    "5460": "bic ",
    "5461": "Puri",
    "5462": "uggl",
    "5463": "largely ",
    "5464": "Pitt",
    "5465": "Pittsb",
    "5466": "angement",
    "5467": "ust be ",
    "5468": "opted",
    "5469": "ointment",
    "5470": "and 19",
    "5471": "and 199",
    "5472": " time",
    "5473": "intern",
    "5474": "internal ",
    "5475": "internal no",
    "5476": "live ",
    "5477": "Diction",
    "5478": "Christia",
    "5479": " Chris",
    "5480": " Christia",
    "5481": "btain",
    "5482": "btaining",
    "5483": "crown",
    "5484": "ulture",
    "5485": "viously ",
    "5486": "emia",
    "5487": "emia, ",
    "5488": "crimina",
    "5489": "sts, ",
    "5490": "back",
    "5491": "5 hou",
    "5492": "5 house",
    "5493": "5 househo",
    "5494": "tebra",
    "5495": "judge",
    "5496": "Poo",
    "5497": "3rd ",
    "5498": "3rd day",
    "5499": "merania",
    "5500": "r, ",
    "5501": "lize",
    "5502": "x, ",
    "5503": "ial, ",
    "5504": "member",
    "5505": "adio",
    "5506": "groups",
    "5507": "si-",
    "5508": "Blis",
    "5509": "Blissy",
    "5510": "Blissymbol",
    "5511": "vegeta",
    "5512": "Duke of ",
    "5513": "Corporation",
    "5514": "lmud",
    "5515": "pious ",
    "5516": "chrom",
    "5517": "cally",
    "5518": "Prize",
    "5519": "hypoth",
    "5520": "adway",
    "5521": "entre",
    "5522": "entrepre",
    "5523": "ircraft",
    "5524": "Peninsu",
    "5525": "omobil",
    "5526": "this ",
    "5527": "cides ",
    "5528": "O sub",
    "5529": "O sub ",
    "5530": " Island",
    "5531": "sphere",
    "5532": "ltic ",
    "5533": "novat",
    "5534": "level",
    "5535": "selves ",
    "5536": "mblance",
    "5537": "rd cent",
    "5538": "rd centur",
    "5539": "ket",
    "5540": "ketball",
    "5541": "hweh",
    "5542": "tempt ",
    "5543": "tempt to ",
    "5544": " school",
    "5545": "ly to ",
    "5546": "gnition",
    "5547": "thedra",
    "5548": "xford ",
    "5549": "Ital",
    "5550": "egul",
    "5551": "reasing",
    "5552": "reasingly ",
    "5553": "also ",
    "5554": "rrespon",
    "5555": "pent ",
    "5556": "se of ",
    "5557": "elease",
    "5558": "et*",
    "5559": "pective",
    "5560": "pectively",
    "5561": "hildren",
    "5562": "twice",
    "5563": " other",
    "5564": " belo",
    "5565": " below",
    "5566": "ancestor",
    "5567": "stion ",
    "5568": "compan",
    "5569": "company ",
    "5570": "manu",
    "5571": "manufact",
    "5572": "tadel",
    "5573": " dow",
    "5574": " down ",
    "5575": "Bact",
    "5576": " got ",
    "5577": "forement",
    "5578": "rrored",
    "5579": "chuck",
    "5580": "deriv",
    "5581": "derivative",
    "5582": "ns, ",
    "5583": "e time",
    "5584": "et (d. ",
    "5585": "et (d. 19",
    "5586": "anti-",
    "5587": "fras",
    "5588": "frastr",
    "5589": "frastruct",
    "5590": "nguishe",
    "5591": "asked",
    "5592": "vacu",
    "5593": "vacuum",
    "5594": "rogen",
    "5595": "levan",
    "5596": "these ",
    "5597": "experien",
    "5598": "eived",
    "5599": " card",
    "5600": "sala",
    "5601": "eview",
    "5602": "subse",
    "5603": "subseque",
    "5604": " of New ",
    "5605": " of New Zeal",
    "5606": "applied",
    "5607": "meant ",
    "5608": " film",
    "5609": "ll 1",
    "5610": "stud",
    "5611": "studio",
    "5612": "Upp",
    "5613": "Uppsa",
    "5614": "Uppsala",
    "5615": "lievers",
    "5616": "otto",
    "5617": "ted Pr",
    "5618": "ted Press",
    "5619": "weight",
    "5620": "polit",
    "5621": "political",
    "5622": "Comic",
    "5623": "hether",
    "5624": "distan",
    "5625": "natura",
    "5626": "natural ",
    "5627": "Summit ",
    "5628": "a Com",
    "5629": "a Compan",
    "5630": "ilgri",
    "5631": "Octobe",
    "5632": "dam ",
    "5633": "arget ",
    "5634": "piano",
    "5635": "Brent",
    "5636": "Brentwo",
    "5637": "nced",
    "5638": " countries",
    "5639": "destro",
    "5640": "destroyed",
    "5641": "ds, ",
    "5642": "ivid",
    "5643": "ividual",
    "5644": "edition",
    "5645": "minent ",
    "5646": "ovements ",
    "5647": "Novembe",
    "5648": "trans",
    "5649": "inform",
    "5650": "information",
    "5651": "ivered",
    "5652": "miolog",
    "5653": "miologist",
    "5654": "mming",
    "5655": "8000",
    "5656": "longe",
    "5657": "iorate",
    "5658": "nature",
    "5659": "Greenb",
    "5660": "Greenberg",
    "5661": "achelo",
    "5662": "sitor",
    "5663": "sitors ",
    "5664": "st, ",
    "5665": "yello",
    "5666": "umbia",
    "5667": "You",
    "5668": "Isles",
    "5669": "pick ",
    "5670": "ic ac",
    "5671": "-day",
    "5672": "neral ",
    "5673": "Summit 19",
    "5674": "rea ",
    "5675": "percent",
    "5676": "subscri",
    "5677": "list of ",
    "5678": "pothesi",
    "5679": " announc",
    "5680": " announces ",
    "5681": "tmas ",
    "5682": "ic Ocean",
    "5683": "enat",
    "5684": "rtemis",
    "5685": "ir For",
    "5686": "ir Force",
    "5687": "Channel",
    "5688": " born ",
    "5689": "nimu",
    "5690": "nimum ",
    "5691": "matica",
    "5692": "matically",
    "5693": " astro",
    "5694": "cument",
    "5695": "along ",
    "5696": "From ",
    "5697": "azing ",
    "5698": "s and ",
    "5699": "esti",
    "5700": "respon",
    "5701": "responsibl",
    "5702": "responsible ",
    "5703": "responsible for ",
    "5704": "iminish",
    "5705": "iminished",
    "5706": "altern",
    "5707": "salt",
    "5708": "languag",
    "5709": "erstand",
    "5710": "erstanding",
    "5711": "ire ",
    "5712": "rather",
    "5713": "compani",
    "5714": "d in",
    "5715": "d into ",
    "5716": "rific",
    "5717": "cuisin",
    "5718": "Dubna /t",
    "5719": "ller",
    "5720": "communi",
    "5721": "communicated",
    "5722": "ming ",
    "5723": "ffect",
    "5724": "tempor",
    "5725": "temporary ",
    "5726": "able to ",
    "5727": "s re",
    "5728": "s remain",
    "5729": "s remaining",
    "5730": "estern",
    "5731": "ugge",
    "5732": "uggeste",
    "5733": "Clara ",
    "5734": "eternal ",
    "5735": "ulted",
    "5736": "sover",
    "5737": "sovereign",
    "5738": "jazz",
    "5739": "ns of ",
    "5740": "17",
    "5741": "uns ",
    "5742": " theis",
    "5743": "llaps",
    "5744": "von ",
    "5745": "arnation",
    "5746": "urren",
    "5747": "oftwar",
    "5748": "class",
    "5749": "nnsy",
    "5750": "nnsylv",
    "5751": "nnsylvania",
    "5752": "Dire",
    "5753": "Director",
    "5754": "ilities",
    "5755": "onomous",
    "5756": "DM",
    "5757": "DMT ",
    "5758": "Sovie",
    "5759": "gging",
    "5760": "son of ",
    "5761": "find ",
    "5762": "imila",
    "5763": " nomen",
    "5764": " nomencl",
    "5765": " nomenclatur",
    "5766": "9 hou",
    "5767": "Game ",
    "5768": "Game Bo",
    "5769": "nshi",
    "5770": "well",
    "5771": "well-known",
    "5772": "ectual",
    "5773": "neur",
    "5774": "track ",
    "5775": "against ",
    "5776": "business",
    "5777": "arrange",
    "5778": "taining",
    "5779": "ended ",
    "5780": " conc",
    "5781": " concern",
    "5782": " case",
    "5783": "sed on ",
    "5784": "ector",
    "5785": "S.",
    "5786": "vert ",
    "5787": "Ghen",
    "5788": " ref",
    "5789": "cies ",
    "5790": "ory of ",
    "5791": "ental ",
    "5792": "Bill",
    "5793": "-based ",
    "5794": "river",
    "5795": "condar",
    "5796": "entirely ",
    "5797": "tward",
    "5798": "4th in ",
    "5799": "4th in lea",
    "5800": "ubsequ",
    "5801": "ubsequent",
    "5802": "ubsequently ",
    "5803": "esopo",
    "5804": "esopota",
    "5805": "hasuer",
    "5806": "hoice",
    "5807": "easure",
    "5808": "trum",
    "5809": "ponse ",
    "5810": "ponse to ",
    "5811": "4, 200",
    "5812": "visite",
    "5813": "visited ",
    "5814": "cklin",
    "5815": "8)*1",
    "5816": "8)*19",
    "5817": "United ",
    "5818": "easons, ",
    "5819": "Schil",
    "5820": "Schilling",
    "5821": "send ",
    "5822": "vaded ",
    "5823": "entity ",
    "5824": "ted.",
    "5825": "doing",
    "5826": "ople's ",
    "5827": "erivat",
    "5828": "eautif",
    "5829": "eautiful",
    "5830": "publishe",
    "5831": "published ",
    "5832": "Hoppe",
    "5833": "Hopper",
    "5834": "nton, ",
    "5835": "inely ",
    "5836": "scrimma",
    "5837": "Canter",
    "5838": "Canterbur",
    "5839": "orced ",
    "5840": "cured",
    "5841": "Council",
    "5842": "Atlan",
    "5843": "Atlanti",
    "5844": "imal",
    "5845": "duce ",
    "5846": "new ",
    "5847": "flict",
    "5848": " Found",
    "5849": " Foundation",
    "5850": "Arge",
    "5851": "Argenti",
    "5852": "er, ",
    "5853": "er, see",
    "5854": "tend ",
    "5855": "tend to ",
    "5856": "e.",
    "5857": "rtd ",
    "5858": "lead ",
    "5859": "lead to ",
    "5860": ") br",
    "5861": "pract",
    "5862": "practice",
    "5863": "uced",
    "5864": "House of ",
    "5865": "well ",
    "5866": "well as ",
    "5867": "icated",
    "5868": "a res",
    "5869": "a result",
    "5870": "astern",
    "5871": "e - ",
    "5872": "il ",
    "5873": "utral",
    "5874": "ship of ",
    "5875": " colli",
    "5876": " collision",
    "5877": "chemist",
    "5878": "Politi",
    "5879": "number of ",
    "5880": "anley",
    "5881": "illiant ",
    "5882": "disposit",
    "5883": "dispositio",
    "5884": " govern",
    "5885": " government",
    "5886": "does ",
    "5887": "bn ",
    "5888": "thorough",
    "5889": "thoroughbred",
    "5890": "Jesu",
    "5891": "ecent ",
    "5892": "across",
    "5893": "StG",
    "5894": "ses ",
    "5895": "gorith",
    "5896": "Cube",
    "5897": "hogs",
    "5898": "hogshe",
    "5899": "the vo",
    "5900": "eminist",
    "5901": "pigment",
    "5902": "ee al",
    "5903": "which ",
    "5904": "which he ",
    "5905": "ernate",
    "5906": "they ",
    "5907": "8.",
    "5908": "x - ",
    "5909": "a*",
    "5910": "4 /td",
    "5911": "iing",
    "5912": "orem)",
    "5913": "ng to ",
    "5914": " number of ",
    "5915": "Miss ",
    "5916": "5 year",
    "5917": "ndition",
    "5918": "cists ",
    "5919": " games ",
    "5920": "Famil",
    "5921": "domes",
    "5922": "domesti",
    "5923": "itizen",
    "5924": "16",
    "5925": " betwee",
    "5926": " between ",
    "5927": " bel",
    "5928": " belie",
    "5929": "New York",
    "5930": "res - ",
    "5931": "res - god",
    "5932": "acteria",
    "5933": "industr",
    "5934": " AI",
    "5935": " AID",
    "5936": "sain",
    "5937": "clai",
    "5938": "claimed ",
    "5939": "nkshaft",
    "5940": "skill",
    "5941": "evious",
    "5942": "inal ",
    "5943": "usio",
    "5944": "tten ",
    "5945": "ipela",
    "5946": "lymp",
    "5947": "sists ",
    "5948": "cisel",
    "5949": "killing",
    "5950": "cond ",
    "5951": "etnam",
    "5952": "etnam War",
    "5953": "rs.",
    "5954": "bserv",
    "5955": "bserving",
    "5956": "irect",
    "5957": "ply ",
    "5958": "color",
    "5959": "Gtting",
    "5960": "tual ",
    "5961": "place",
    "5962": "ntually ",
    "5963": "you",
    "5964": "hoped",
    "5965": "Kan",
    "5966": " St",
    "5967": " Star",
    "5968": "s:",
    "5969": "ing of ",
    "5970": "t.",
    "5971": "avoi",
    "5972": "ppear",
    "5973": " (1",
    "5974": "mous f",
    "5975": "babilit",
    "5976": "ivalen",
    "5977": "avier ",
    "5978": "erect",
    "5979": "erected",
    "5980": "ceiv",
    "5981": "ceiving",
    "5982": "emains",
    "5983": "buried",
    "5984": "Viet",
    "5985": "Vietnam",
    "5986": "molecu",
    "5987": "pilot",
    "5988": "best ",
    "5989": " Catholi",
    "5990": "yard",
    "5991": "yde ",
    "5992": "cuck",
    "5993": "cuckoo",
    "5994": "a**",
    "5995": "espect",
    "5996": "espect to ",
    "5997": "phne ",
    "5998": "voted ",
    "5999": "ederal",
    "6000": " nutrie",
    "6001": "ansio",
    "6002": "France",
    "6003": "repre",
    "6004": "bdica",
    "6005": "traces ",
    "6006": "pect to ",
    "6007": "revel",
    "6008": "revelation",
    "6009": "on's ",
    "6010": "lowes",
    "6011": "lowest ",
    "6012": "ll's ",
    "6013": "rcelo",
    "6014": "rcelona",
    "6015": "histor",
    "6016": "brothe",
    "6017": "January ",
    "6018": " soft",
    "6019": " softwar",
    "6020": "rmative",
    "6021": "lecules",
    "6022": "editar",
    "6023": "onstant",
    "6024": "redire",
    "6025": "Eugene",
    "6026": "lowed",
    "6027": "pino",
    "6028": "pinoza",
    "6029": "player ",
    "6030": "player (d. ",
    "6031": "player (d. 19",
    "6032": "sequenc",
    "6033": "mbran",
    "6034": "zed, ",
    "6035": "comput",
    "6036": "rminius",
    "6037": "itecture",
    "6038": "litho",
    "6039": "played",
    "6040": "Benz",
    "6041": "rifle",
    "6042": "retent",
    "6043": "retentio",
    "6044": "Nuc",
    "6045": "betwee",
    "6046": " admi",
    "6047": " administ",
    "6048": "ervise",
    "6049": "appoint",
    "6050": "mpede ",
    "6051": "aturate",
    "6052": "aturated ",
    "6053": "ruled",
    "6054": "puter ",
    "6055": "ardina",
    "6056": "Herze",
    "6057": "Herzegov",
    "6058": "ists ",
    "6059": "atheism",
    "6060": ")**",
    "6061": ")**Na",
    "6062": ")**Naval",
    "6063": "lawye",
    "6064": "lawyer",
    "6065": "p year",
    "6066": "event",
    "6067": "eventual",
    "6068": "having ",
    "6069": "urve",
    "6070": "Retr",
    "6071": "Retrie",
    "6072": "Soviet ",
    "6073": "AK",
    "6074": "April",
    "6075": "orge ",
    "6076": "installed",
    "6077": "Bourd",
    "6078": "missio",
    "6079": "moted ",
    "6080": "ready",
    "6081": "end ",
    "6082": "erived",
    "6083": "meaning",
    "6084": "oreover",
    "6085": "oteric",
    "6086": "tudent",
    "6087": "Ecker",
    "6088": "venien",
    "6089": "u ",
    "6090": "iah ",
    "6091": "gital ",
    "6092": "althou",
    "6093": "although",
    "6094": "ternal ",
    "6095": "subject",
    "6096": "subject of ",
    "6097": "shave",
    "6098": "lance",
    "6099": "inding",
    "6100": "ibilit",
    "6101": "ch, ",
    "6102": "uting ",
    "6103": "le-",
    "6104": "s on ",
    "6105": "enage",
    "6106": "ared ",
    "6107": "Motor",
    "6108": "symbol",
    "6109": "rded ",
    "6110": "egment",
    "6111": "sunder",
    "6112": "iving",
    "6113": "bsp;",
    "6114": "ers, ",
    "6115": "my, ",
    "6116": "ups ",
    "6117": "Kore",
    "6118": "throug",
    "6119": "through ",
    "6120": " north",
    "6121": "still ",
    "6122": "idly ",
    "6123": "ravio",
    "6124": "raviolet",
    "6125": "writte",
    "6126": "written ",
    "6127": "Class",
    "6128": "reme ",
    "6129": "actio",
    "6130": "becomes ",
    "6131": "ounded",
    "6132": "take",
    "6133": "commonly ",
    "6134": "vides ",
    "6135": "enos ",
    "6136": "enos Air",
    "6137": "establishment",
    "6138": "establishment of ",
    "6139": "/trt",
    "6140": "/trtrt",
    "6141": "/trtrtd ",
    "6142": "nd Is",
    "6143": "nd Island",
    "6144": "Earl",
    "6145": "ephant",
    "6146": "front",
    "6147": "frontation",
    "6148": "krupt",
    "6149": " own",
    "6150": "commer",
    "6151": "commercia",
    "6152": "spread",
    "6153": "Portu",
    "6154": "Portugue",
    "6155": " Fin",
    "6156": "Morm",
    "6157": " cana",
    "6158": "nseati",
    "6159": "Jewish",
    "6160": "hundr",
    "6161": "hundred",
    "6162": "ertain ",
    "6163": "elatio",
    "6164": "design",
    "6165": "designed",
    "6166": "ecutio",
    "6167": "pany ",
    "6168": "writer",
    "6169": "elsew",
    "6170": "elsewher",
    "6171": "odied",
    "6172": "es not ",
    "6173": "ipment",
    "6174": "front ",
    "6175": "front of ",
    "6176": "sef ",
    "6177": "Gregor",
    "6178": "Gregorian",
    "6179": "blood ",
    "6180": "itsel",
    "6181": "amous",
    "6182": "wrong",
    "6183": "alism",
    "6184": "li.",
    "6185": "li. ",
    "6186": "Garan",
    "6187": "roop",
    "6188": "Acco",
    "6189": "Accord",
    "6190": "According",
    "6191": "alist ",
    "6192": "riage ",
    "6193": "6.",
    "6194": "6. /",
    "6195": "6. /re",
    "6196": "ying to ",
    "6197": "n.*19",
    "6198": "efield",
    "6199": "ch.",
    "6200": "MS ",
    "6201": "loration",
    "6202": "out ",
    "6203": "Wil",
    "6204": "Wilhelm",
    "6205": "bing ",
    "6206": "again ",
    "6207": "bandon",
    "6208": "loyed",
    "6209": "surviv",
    "6210": "of scri",
    "6211": "of scrimma",
    "6212": " In ",
    "6213": "Gemin",
    "6214": "ico-",
    "6215": "quick",
    "6216": "quickly ",
    "6217": "standard",
    "6218": "standardized",
    "6219": "troop",
    "6220": "cue b",
    "6221": "cue ball",
    "6222": "good ",
    "6223": "de, ",
    "6224": "urrently ",
    "6225": "critic",
    "6226": "critics ",
    "6227": "egiona",
    "6228": "ly, ",
    "6229": " of J",
    "6230": ". For",
    "6231": "Boas",
    "6232": "Boas's ",
    "6233": "te for ",
    "6234": "ffbr ",
    "6235": "y.",
    "6236": "ffered",
    "6237": "junct",
    "6238": "Educ",
    "6239": "Education",
    "6240": " la",
    "6241": " laure",
    "6242": " laureate",
    "6243": "bsbur",
    "6244": "deral ",
    "6245": "I /td",
    "6246": "eceives ",
    "6247": "ollege",
    "6248": "FF",
    "6249": "ropped",
    "6250": " var",
    "6251": " variet",
    "6252": "London",
    "6253": "aided",
    "6254": "llaborat",
    "6255": "1 is ",
    "6256": "usoi",
    "6257": "ffalo",
    "6258": "ategic",
    "6259": "late ",
    "6260": "late 200",
    "6261": "ncent ",
    "6262": "halting",
    "6263": "ies o",
    "6264": "ies on ",
    "6265": "hosted",
    "6266": "arewel",
    "6267": "arewell ",
    "6268": "ccording",
    "6269": "sted ",
    "6270": "lines ",
    "6271": "univers",
    "6272": "malgam",
    "6273": " Sc",
    "6274": " School",
    "6275": "ns - ",
    "6276": "sq",
    "6277": "(born ",
    "6278": "-vers",
    "6279": "-versa",
    "6280": "5 - ",
    "6281": "ence of ",
    "6282": "cultur",
    "6283": "Guit",
    "6284": "Guitar",
    "6285": "telev",
    "6286": "televisi",
    "6287": "part of ",
    "6288": "3 /sub",
    "6289": "stic ",
    "6290": "do not",
    "6291": "veral ",
    "6292": "lifera",
    "6293": "liferation",
    "6294": "mained",
    "6295": "*19",
    "6296": "Eurasi",
    "6297": "companied",
    "6298": "operation",
    "6299": "#8",
    "6300": "#82",
    "6301": "ecess",
    "6302": "el.",
    "6303": "gotte",
    "6304": "gotten ",
    "6305": "tagoni",
    "6306": "oxygen",
    "6307": "cerned ",
    "6308": "lies ",
    "6309": "conduct",
    "6310": "tribut",
    "6311": "corpora",
    "6312": "ural ",
    "6313": "History ",
    "6314": "History of ",
    "6315": "expensive",
    "6316": "ently ",
    "6317": "unteer",
    "6318": "ussia",
    "6319": "fessio",
    "6320": "rgely ",
    "6321": "avail",
    "6322": "Gui",
    "6323": "Guine",
    "6324": "old ",
    "6325": "ierre ",
    "6326": "vate ",
    "6327": "ometri",
    "6328": "possibl",
    "6329": "possibly ",
    "6330": "ism br",
    "6331": "Rep",
    "6332": "Republ",
    "6333": "orer",
    "6334": "Under ",
    "6335": "Viruses ",
    "6336": "uing ",
    "6337": "nerable",
    "6338": "egan ",
    "6339": "reaten ",
    "6340": "ropria",
    "6341": " cont",
    "6342": " contain",
    "6343": " contains ",
    "6344": "It ",
    "6345": "ticle",
    "6346": "ificance",
    "6347": " Emp",
    "6348": "yled ",
    "6349": "knowledg",
    "6350": "ediment",
    "6351": "r of ",
    "6352": "rew ",
    "6353": "distri",
    "6354": "distribut",
    "6355": "ures ",
    "6356": "enth ",
    "6357": "kido",
    "6358": "llern",
    "6359": "ul ",
    "6360": ", emp",
    "6361": ", empero",
    "6362": ", emperor",
    "6363": " Fran",
    "6364": " Franke",
    "6365": "more than ",
    "6366": "emoved",
    "6367": "ris ",
    "6368": "nt, ",
    "6369": "earlie",
    "6370": "earliest ",
    "6371": "stello",
    "6372": "CM",
    "6373": "uses ",
    "6374": "liqu",
    "6375": "alab",
    "6376": "alabas",
    "6377": "timate",
    "6378": "h to ",
    "6379": "particular",
    "6380": "particularly ",
    "6381": " common ",
    "6382": "val ",
    "6383": "eggs",
    "6384": "current ",
    "6385": "annihil",
    "6386": "annihilation",
    "6387": " nomina",
    "6388": " nominated ",
    "6389": "ficial ",
    "6390": "death ",
    "6391": " Cae",
    "6392": " Caesa",
    "6393": "living",
    "6394": "Gener",
    "6395": "erseded ",
    "6396": "planet",
    "6397": "inric",
    "6398": "inrich ",
    "6399": "n Ne",
    "6400": "n Nevis",
    "6401": "Produc",
    "6402": "Producer",
    "6403": "oster ",
    "6404": "latio",
    "6405": "lized ",
    "6406": "uslim",
    "6407": "suist",
    "6408": "owing ",
    "6409": "earance",
    "6410": "epresent",
    "6411": "epresentation",
    "6412": ")*189",
    "6413": "laved",
    "6414": " wife",
    "6415": "Govern",
    "6416": "Government",
    "6417": "njam",
    "6418": "ced.",
    "6419": "sm*",
    "6420": "mount of ",
    "6421": "licit",
    "6422": "6)*",
    "6423": "ataly",
    "6424": "wolf",
    "6425": "soul",
    "6426": "ible ",
    "6427": "summer",
    "6428": "weigh",
    "6429": "three",
    "6430": "luded",
    "6431": "soluti",
    "6432": "Bunda",
    "6433": "Bundaber",
    "6434": "object",
    "6435": "sold ",
    "6436": "shad",
    "6437": "dominan",
    "6438": "dominant ",
    "6439": " s /su",
    "6440": " s /sup ",
    "6441": "iscover",
    "6442": "iscovered",
    "6443": "cient ",
    "6444": "egard ",
    "6445": "egard to ",
    "6446": "what ",
    "6447": "Cold W",
    "6448": "Cold War",
    "6449": "entation",
    "6450": "agement",
    "6451": "E0",
    "6452": " alg",
    "6453": "Imperi",
    "6454": "10",
    "6455": "10, ",
    "6456": "10, Ap",
    "6457": "10, Apollo",
    "6458": "verti",
    "6459": "vertica",
    "6460": " It ",
    "6461": "l as ",
    "6462": "binson",
    "6463": "brask",
    "6464": "chieve",
    "6465": "chievement",
    "6466": "futur",
    "6467": "ith ",
    "6468": "brahi",
    "6469": "plants ",
    "6470": "half ",
    "6471": "paraph",
    "6472": "paraphyle",
    "6473": "4, 19",
    "6474": "enerally",
    "6475": "power ",
    "6476": "ories ",
    "6477": "motes ",
    "6478": "se, ",
    "6479": "mencl",
    "6480": "menclatur",
    "6481": "urden ",
    "6482": "enter ",
    "6483": "ailure",
    "6484": "plus ",
    "6485": "nseque",
    "6486": "20th ",
    "6487": "sterda",
    "6488": " ala",
    "6489": " alabas",
    "6490": "ycho",
    "6491": "ycholog",
    "6492": "Linna",
    "6493": "Linnaeu",
    "6494": "yoff",
    "6495": "onable ",
    "6496": "those ",
    "6497": "aim ",
    "6498": "llision",
    "6499": " argue",
    "6500": " argued ",
    "6501": "rating",
    "6502": "pable ",
    "6503": "pable of ",
    "6504": "parallel",
    "6505": "Neuro",
    "6506": "3.",
    "6507": "ypical",
    "6508": "ypically ",
    "6509": "radiat",
    "6510": "radiatio",
    "6511": "***",
    "6512": "appear",
    "6513": "appeared",
    "6514": "Swed",
    "6515": "igurat",
    "6516": "7 or ",
    "6517": "By ",
    "6518": "erlying",
    "6519": "chael ",
    "6520": "liberal",
    "6521": "Liberia",
    "6522": "400 ",
    "6523": "br (",
    "6524": "rature",
    "6525": "Richa",
    "6526": "Richard ",
    "6527": " acid",
    "6528": "who",
    "6529": "enough",
    "6530": "nnot",
    "6531": "nnotation",
    "6532": "jects ",
    "6533": "maintain",
    "6534": "maintains ",
    "6535": "rish ",
    "6536": "Fai",
    "6537": "ovary ",
    "6538": "mmedi",
    "6539": "mmediate",
    "6540": "fined",
    "6541": "home ",
    "6542": "Israel",
    "6543": "reaty of ",
    "6544": "parliamen",
    "6545": "(bckg",
    "6546": "(bckgr",
    "6547": " were",
    "6548": "4, 1",
    "6549": "ifically ",
    "6550": "uff",
    "6551": "carry ",
    "6552": "duced",
    "6553": "circu",
    "6554": "full ",
    "6555": "tection",
    "6556": "etc.",
    "6557": "digit",
    "6558": " 19",
    "6559": " theo",
    "6560": "task",
    "6561": "2q",
    "6562": " toward",
    "6563": "nbsp;",
    "6564": "atta",
    "6565": "50 milli",
    "6566": "X-O",
    "6567": "prophe",
    "6568": "truct",
    "6569": "tructure",
    "6570": "13",
    "6571": "currently",
    "6572": "etrie",
    "6573": "differ ",
    "6574": "uring th",
    "6575": "uring the ",
    "6576": "ium /t",
    "6577": "d of ",
    "6578": "rancis ",
    "6579": "more.",
    "6580": "ditional ",
    "6581": "dicated ",
    "6582": "ogation",
    "6583": "3D ",
    "6584": "aism",
    "6585": "ulptur",
    "6586": "ynchro",
    "6587": "vernight",
    "6588": " took ",
    "6589": "ngitu",
    "6590": "Sam",
    "6591": "Samuel",
    "6592": "bably ",
    "6593": "ignific",
    "6594": "ignificant",
    "6595": "unicate",
    "6596": "and mod",
    "6597": "dtd ",
    "6598": "escri",
    "6599": "escribed",
    "6600": "New Test",
    "6601": "New Testamen",
    "6602": "perating",
    "6603": "past ",
    "6604": "ref ",
    "6605": "ref name",
    "6606": "ref name=",
    "6607": "using",
    "6608": "icatio",
    "6609": "oviet ",
    "6610": "neuro",
    "6611": "geog",
    "6612": "geograph",
    "6613": "joyed",
    "6614": "istinct",
    "6615": "ers.",
    "6616": "wealth",
    "6617": "BBC",
    "6618": "With ",
    "6619": "ds of ",
    "6620": "cian ",
    "6621": "2 (",
    "6622": "opposit",
    "6623": "oppositio",
    "6624": "site ",
    "6625": "site of ",
    "6626": "ells ",
    "6627": "etical",
    "6628": "dire",
    "6629": "sney",
    "6630": "direction",
    "6631": "joining",
    "6632": " part",
    "6633": "cinto",
    "6634": "utual ",
    "6635": "emples",
    "6636": "h ...",
    "6637": "frigat",
    "6638": "ritical",
    "6639": "Tele",
    "6640": "Televis",
    "6641": "Televisio",
    "6642": "English ",
    "6643": "proper",
    "6644": "onnel",
    "6645": "holog",
    "6646": "analog",
    "6647": "ioned ",
    "6648": "birth",
    "6649": "birthday",
    "6650": "masc",
    "6651": "persona",
    "6652": "Bibl",
    "6653": "hasis ",
    "6654": "execut",
    "6655": "executive",
    "6656": "Laborat",
    "6657": "Laboratory",
    "6658": "ehavio",
    "6659": "gallo",
    "6660": "fictional ",
    "6661": "links ",
    "6662": "aff",
    "6663": "affect",
    "6664": "Laugh",
    "6665": "Laughton",
    "6666": "edicated",
    "6667": "inanced",
    "6668": "K, ",
    "6669": "ritic",
    "6670": "troyed",
    "6671": "hampion",
    "6672": "lement",
    "6673": "cal ",
    "6674": "available",
    "6675": "Los ",
    "6676": "Los Angel",
    "6677": "tact ",
    "6678": "tact with",
    "6679": "triarch",
    "6680": "swim",
    "6681": " member",
    "6682": "seas ",
    "6683": " way",
    "6684": "cipher",
    "6685": "eable ",
    "6686": "ioces",
    "6687": "ategor",
    "6688": "gger",
    "6689": " writ",
    "6690": "lshe",
    "6691": "essenge",
    "6692": "estim",
    "6693": "estimate",
    "6694": "Mu",
    "6695": "Muq",
    "6696": "sity of ",
    "6697": "lying ",
    "6698": "ebacke",
    "6699": "chy of ",
    "6700": "ducted",
    "6701": "dership",
    "6702": "shape",
    "6703": "Muss",
    "6704": "Mussoli",
    "6705": "each ",
    "6706": "babda",
    "6707": "ired ",
    "6708": "However, ",
    "6709": "conia",
    "6710": "tegrat",
    "6711": "Press",
    "6712": "gardless",
    "6713": "gardless of ",
    "6714": "ored ",
    "6715": "fact that",
    "6716": "singer ",
    "6717": "amuel",
    "6718": "juris",
    "6719": "eemed ",
    "6720": "e trad",
    "6721": "system",
    "6722": "ceedi",
    "6723": "ceeding ",
    "6724": "(fle",
    "6725": "(flew ",
    "6726": "rance ",
    "6727": "aptain ",
    "6728": "birth ",
    "6729": "lost ",
    "6730": "osure",
    "6731": "deep ",
    "6732": " he ",
    "6733": "nedict",
    "6734": "pecially ",
    "6735": "Frank",
    "6736": "Germany ",
    "6737": "back ",
    "6738": "ly.",
    "6739": "pril ",
    "6740": "joined",
    "6741": " notio",
    "6742": " notion ",
    "6743": "indiv",
    "6744": "individ",
    "6745": "individual",
    "6746": "packed",
    "6747": "make ",
    "6748": "Languag",
    "6749": "show ",
    "6750": "nickn",
    "6751": "rning",
    "6752": "accept",
    "6753": "accepted",
    "6754": "generally ",
    "6755": "Roman ",
    "6756": "Roman Emp",
    "6757": "under ",
    "6758": "fered",
    "6759": "found",
    "6760": "panda",
    "6761": "soon ",
    "6762": "tested",
    "6763": "rization",
    "6764": "write ",
    "6765": "Februa",
    "6766": "ratio",
    "6767": "music",
    "6768": "musician",
    "6769": "however",
    "6770": "matter",
    "6771": "vember",
    "6772": "ssie ",
    "6773": "philo",
    "6774": "philoso",
    "6775": "Georg",
    "6776": "Georgia",
    "6777": "tlement",
    "6778": "Constant",
    "6779": "Constantino",
    "6780": "Constantinople",
    "6781": "eries ",
    "6782": "lemens",
    "6783": "one, ",
    "6784": "Penn",
    "6785": "Pennsy",
    "6786": "Pennsylv",
    "6787": "Pennsylvania",
    "6788": "Anarch",
    "6789": "Connect",
    "6790": "Connecticu",
    "6791": "lacht",
    "6792": "non ",
    "6793": "home of ",
    "6794": "Bars",
    "6795": "Barsoom",
    "6796": "Sea",
    "6797": "final ",
    "6798": "Both ",
    "6799": "have b",
    "6800": "have been",
    "6801": "state",
    "6802": "state, ",
    "6803": "nistrat",
    "6804": "Europa",
    "6805": "Colum",
    "6806": "Columbus",
    "6807": "hedra",
    "6808": "sified",
    "6809": "itting",
    "6810": "ign of ",
    "6811": "population",
    "6812": "etween ",
    "6813": "partement",
    "6814": "3-1",
    "6815": "critici",
    "6816": "sister",
    "6817": "same ",
    "6818": "vasion",
    "6819": "evol",
    "6820": "evoluti",
    "6821": "volcan",
    "6822": "20th cent",
    "6823": "20th centur",
    "6824": "lemish",
    "6825": "jima",
    "6826": "quered",
    "6827": " team",
    "6828": " of S",
    "6829": "HA",
    "6830": "ecame ",
    "6831": "fficial ",
    "6832": "Cuis",
    "6833": "Cuisine",
    "6834": "DONE",
    "6835": "region",
    "6836": "st or",
    "6837": "lack of ",
    "6838": "earth",
    "6839": "earthwor",
    "6840": "d wife",
    "6841": " been",
    "6842": "ntinu",
    "6843": "brow",
    "6844": "settle",
    "6845": "settlement",
    "6846": "arried ",
    "6847": "urist ",
    "6848": "hows ",
    "6849": "eby ",
    "6850": "peace",
    "6851": " lo",
    "6852": " longe",
    "6853": "ollowed",
    "6854": "rename",
    "6855": "renamed ",
    "6856": "rect t",
    "6857": "rect to",
    "6858": "Spin",
    "6859": "odies",
    "6860": "eatio",
    "6861": "dium /t",
    "6862": "acco",
    "6863": "accord",
    "6864": "according",
    "6865": "respect",
    "6866": "athedra",
    "6867": "echni",
    "6868": "echnique",
    "6869": "thern ",
    "6870": " all ",
    "6871": "th.",
    "6872": "meets",
    "6873": "works ",
    "6874": "s), ",
    "6875": " et ",
    "6876": " et al",
    "6877": "forces ",
    "6878": "racked",
    "6879": " up ",
    "6880": "tween ",
    "6881": " inves",
    "6882": "ry, ",
    "6883": "stated ",
    "6884": "hnei",
    "6885": "kness",
    "6886": "tinued ",
    "6887": "sis, ",
    "6888": "igge",
    "6889": "iggest ",
    "6890": "screen",
    "6891": "s bet",
    "6892": "s betwee",
    "6893": "ally, ",
    "6894": "owned ",
    "6895": "tisticia",
    "6896": "tisticians",
    "6897": "tisticians, ",
    "6898": "oleum",
    "6899": "kary",
    "6900": "Boy ",
    "6901": "itle ",
    "6902": "oughly ",
    "6903": "reprene",
    "6904": "aest",
    "6905": "denomina",
    "6906": "lains ",
    "6907": "7)*1",
    "6908": "7)*189",
    "6909": "accid",
    "6910": "logy, ",
    "6911": "arent ",
    "6912": "ator",
    "6913": "rent ",
    "6914": "bring ",
    "6915": "plement",
    "6916": "elative",
    "6917": "elatively ",
    "6918": "European ",
    "6919": " gospel",
    "6920": "behal",
    "6921": "ctuation",
    "6922": "ositio",
    "6923": "Scot",
    "6924": "Scotland",
    "6925": "ational ",
    "6926": "9 /td",
    "6927": "tood ",
    "6928": " areas",
    "6929": "nsumpt",
    "6930": "nsumptio",
    "6931": "erns ",
    "6932": "Antarc",
    "6933": "Antarcti",
    "6934": "dows ",
    "6935": " of Engl",
    "6936": "Bowm",
    "6937": " Among",
    "6938": "ised ",
    "6939": "oadca",
    "6940": "factors ",
    "6941": "hormon",
    "6942": "ews ",
    "6943": "CA",
    "6944": "allow",
    "6945": "allows ",
    "6946": "oversia",
    "6947": "Pomer",
    "6948": "Pomerania",
    "6949": "man, ",
    "6950": "P br",
    "6951": "icycle ",
    "6952": "CI",
    "6953": "cine ",
    "6954": " killed",
    "6955": "south",
    "6956": "room",
    "6957": "-align",
    "6958": "less of ",
    "6959": "ke.",
    "6960": "finitio",
    "6961": "told ",
    "6962": " Ana",
    "6963": " Anaxi",
    "6964": " Anaximand",
    "6965": "taxa",
    "6966": "ts.",
    "6967": "cedonia",
    "6968": "yment ",
    "6969": "restri",
    "6970": "toration",
    "6971": " name",
    "6972": "fere ",
    "6973": "mmuni",
    "6974": "laid ",
    "6975": "sidered",
    "6976": "exten",
    "6977": "extended ",
    "6978": "arries ",
    "6979": "emption",
    "6980": "Baptis",
    "6981": "ining ",
    "6982": "Dra",
    "6983": "Drawing",
    "6984": "American ",
    "6985": "-200",
    "6986": "eway ",
    "6987": "bema",
    "6988": "bemaster",
    "6989": "webs",
    "6990": "website",
    "6991": "ted to ",
    "6992": " influe",
    "6993": "NC",
    "6994": "ransition",
    "6995": "0, ",
    "6996": "oldie",
    "6997": "cause",
    "6998": "happen",
    "6999": "toward",
    "7000": "aring ",
    "7001": "songs",
    "7002": "re of ",
    "7003": "quarte",
    "7004": "ando ",
    "7005": "lated ",
    "7006": "agment",
    "7007": "series",
    "7008": "icers ",
    "7009": "punish",
    "7010": "punishment",
    "7011": "Football ",
    "7012": "gets ",
    "7013": "alien",
    "7014": "alienate",
    "7015": "ouq",
    "7016": " fruit",
    "7017": "did not",
    "7018": "7)*19",
    "7019": "s to ",
    "7020": "erbia",
    "7021": " n /su",
    "7022": " n /sup ",
    "7023": "adca",
    "7024": "adcasti",
    "7025": "adcasting ",
    "7026": "running",
    "7027": "tic ",
    "7028": "pter ",
    "7029": "govern",
    "7030": "support",
    "7031": "supported",
    "7032": "Brazili",
    "7033": "Brazilian ",
    "7034": "TO)",
    "7035": "mitism",
    "7036": "rable ",
    "7037": "late 19",
    "7038": "Casuis",
    "7039": "Casuistr",
    "7040": " Bo",
    "7041": "Daim",
    "7042": "Daimler",
    "7043": "ommuni",
    "7044": "ble, ",
    "7045": "ntain",
    "7046": "ntains ",
    "7047": "mely ",
    "7048": "Britanni",
    "7049": "behavio",
    "7050": "alga",
    "7051": "racteri",
    "7052": "racteristi",
    "7053": "ble of ",
    "7054": "syndr",
    "7055": "syndrome",
    "7056": "near",
    "7057": "e*",
    "7058": "urial ",
    "7059": "take ",
    "7060": "oked ",
    "7061": "origin",
    "7062": "irst ",
    "7063": "think ",
    "7064": "fact, ",
    "7065": ";lin",
    "7066": "gainst ",
    "7067": "ctually ",
    "7068": "ends ",
    "7069": "long ",
    "7070": "shown",
    "7071": "paratio",
    "7072": "players ",
    "7073": "utant",
    "7074": "eyond",
    "7075": "raine",
    "7076": "nance",
    "7077": "Jerome",
    "7078": "arrival",
    "7079": "August",
    "7080": "cussed ",
    "7081": "rgenti",
    "7082": " pi",
    "7083": " pilot",
    "7084": "Y.",
    "7085": "untrium",
    "7086": "untrium /t",
    "7087": "aircraft",
    "7088": "everal ",
    "7089": "tored",
    "7090": "ary, ",
    "7091": "gfie",
    "7092": "One ",
    "7093": "fected",
    "7094": "stands ",
    "7095": "Fung",
    "7096": "built",
    "7097": " Chapter",
    "7098": "laims ",
    "7099": "ell br",
    "7100": "how ",
    "7101": "Carter",
    "7102": "eight ",
    "7103": "-lan",
    "7104": "-languag",
    "7105": "erely ",
    "7106": "agree",
    "7107": "agreement",
    "7108": "hospita",
    "7109": "rown ",
    "7110": "med forc",
    "7111": "positio",
    "7112": " which",
    "7113": "El C",
    "7114": "El Cid ",
    "7115": "oting ",
    "7116": "actual",
    "7117": "marka",
    "7118": "risto",
    "7119": "ristotle",
    "7120": " more ",
    "7121": "filk ",
    "7122": "arthwor",
    "7123": "Saint",
    "7124": "presiden",
    "7125": "ndemn",
    "7126": "3 200",
    "7127": "thiop",
    "7128": "doga",
    "7129": "ethic",
    "7130": "inolog",
    "7131": "toxi",
    "7132": "Vost",
    "7133": "pattern",
    "7134": "sub ",
    "7135": "le, ",
    "7136": "certain ",
    "7137": "s - ",
    "7138": "es, ",
    "7139": " by ",
    "7140": "artific",
    "7141": "ation of ",
    "7142": "princip",
    "7143": "overnment",
    "7144": "ceptio",
    "7145": "drawing",
    "7146": "instru",
    "7147": "instrument",
    "7148": "offered",
    "7149": "nial ",
    "7150": "izes ",
    "7151": "Retrieved",
    "7152": "South",
    "7153": "Apple II",
    "7154": "most of ",
    "7155": "fensive",
    "7156": "inous ",
    "7157": "esley",
    "7158": "ssal ",
    "7159": "derived",
    "7160": "build",
    "7161": "building",
    "7162": "witness",
    "7163": "ughes, ",
    "7164": "aseball",
    "7165": "Presid",
    "7166": "ubject to ",
    "7167": "vejo",
    "7168": "vejourn",
    "7169": "viding",
    "7170": "erritor",
    "7171": "includ",
    "7172": "included",
    "7173": "equip",
    "7174": "equipment",
    "7175": "Nav",
    "7176": "Cent",
    "7177": "Center ",
    "7178": "ates ",
    "7179": "ths ",
    "7180": "dshi",
    "7181": " the ",
    "7182": "velation",
    "7183": "CDU ",
    "7184": "lgium",
    "7185": "nque",
    "7186": "tesian",
    "7187": "ifty ",
    "7188": " sign",
    "7189": "ccurring ",
    "7190": "ordina",
    "7191": "teen ",
    "7192": "Paul",
    "7193": " 2 /su",
    "7194": " 2 /sub ",
    "7195": "gins ",
    "7196": "Daily",
    "7197": "opulent ",
    "7198": " notable",
    "7199": "various",
    "7200": "Hof",
    "7201": "Hofman",
    "7202": "writing",
    "7203": "harmac",
    "7204": "harmaceut",
    "7205": "baseball",
    "7206": "crates",
    "7207": "etail",
    "7208": "needed",
    "7209": "nhatta",
    "7210": "lter ",
    "7211": "tates ",
    "7212": "tates that ",
    "7213": "speakin",
    "7214": "major",
    "7215": "pistle",
    "7216": "pplicat",
    "7217": "kater ",
    "7218": "petit",
    "7219": "lessed",
    "7220": " it ",
    "7221": "rities",
    "7222": "ultiple",
    "7223": "surround",
    "7224": " area",
    "7225": "ponte",
    "7226": "whole",
    "7227": "pull ",
    "7228": "y 19",
    "7229": "y 198",
    "7230": "lack",
    "7231": " S",
    "7232": " Saint",
    "7233": "eneath",
    "7234": "amilies",
    "7235": "wife",
    "7236": "provin",
    "7237": "feat ",
    "7238": ":19",
    "7239": "Huss",
    "7240": "Hussein",
    "7241": "kewise",
    "7242": "urfac",
    "7243": "Dumn",
    "7244": "theti",
    "7245": " play",
    "7246": "utili",
    "7247": "utilize",
    "7248": "Ment",
    "7249": "Mentio",
    "7250": "esident ",
    "7251": "ssued ",
    "7252": "orado",
    "7253": " near",
    "7254": "ractic ",
    "7255": "in to ",
    "7256": "college",
    "7257": "igeria",
    "7258": "vital ",
    "7259": "ormation",
    "7260": "riginally ",
    "7261": "levis",
    "7262": "levisio",
    "7263": "viruse",
    "7264": "viruses ",
    "7265": "*18",
    "7266": "ad hai",
    "7267": "formance",
    "7268": "nectio",
    "7269": "ituation",
    "7270": "mother",
    "7271": "untry ",
    "7272": "ducing",
    "7273": "radition",
    "7274": "Apollo",
    "7275": "re are",
    "7276": "pired ",
    "7277": "numero",
    "7278": "numerous ",
    "7279": "gram ",
    "7280": "wood ",
    "7281": "nolog",
    "7282": "titas",
    "7283": "broad",
    "7284": "consider",
    "7285": "considered",
    "7286": "atile ",
    "7287": "euro",
    "7288": "movement",
    "7289": "ltsin",
    "7290": "9), ",
    "7291": "dance",
    "7292": "milar",
    "7293": " known",
    "7294": "a (d. ",
    "7295": "a (d. 19",
    "7296": "engines",
    "7297": "assifi",
    "7298": "assified",
    "7299": "lain ",
    "7300": "nditu",
    "7301": "sts that ",
    "7302": "breakin",
    "7303": "breaking ",
    "7304": "British ",
    "7305": "British Is",
    "7306": "British Isles",
    "7307": "cular",
    "7308": "nected",
    "7309": "e)*",
    "7310": "l'",
    "7311": "illing ",
    "7312": "f, ",
    "7313": "baske",
    "7314": "must ",
    "7315": "199",
    "7316": " spac",
    "7317": " includ",
    "7318": " include ",
    "7319": "refer",
    "7320": "referred",
    "7321": "referred to ",
    "7322": "limits ",
    "7323": " Franc",
    "7324": "bliga",
    "7325": "etermin",
    "7326": "Spani",
    "7327": "Spanish ",
    "7328": "-owned",
    "7329": "cruis",
    "7330": "lamic",
    "7331": "adical",
    "7332": "chester",
    "7333": "erxe",
    "7334": "Battle",
    "7335": "Mass",
    "7336": "Massach",
    "7337": "Massachuse",
    "7338": "termedia",
    "7339": "ressed",
    "7340": "xins ",
    "7341": "don't",
    "7342": "ing to ",
    "7343": "architect",
    "7344": "hutan",
    "7345": "cial ",
    "7346": "ski ",
    "7347": "times ",
    "7348": "minist",
    "7349": "minister ",
    "7350": "rner ",
    "7351": "advan",
    "7352": "ningham",
    "7353": "Norse ",
    "7354": "NCA",
    "7355": "NCAA ",
    "7356": "ustrali",
    "7357": "mmercia",
    "7358": "amed ",
    "7359": "5)*",
    "7360": "maining",
    "7361": "censu",
    "7362": "amily ",
    "7363": "emptive",
    "7364": "Ara",
    "7365": "ourag",
    "7366": "hind ",
    "7367": "nooker",
    "7368": "derived from",
    "7369": "int ",
    "7370": "defen",
    "7371": "bsorb",
    "7372": "abled ",
    "7373": "tenance",
    "7374": "y to ",
    "7375": "elf-",
    "7376": " can ",
    "7377": " R",
    "7378": " Rese",
    "7379": " Research",
    "7380": "field ",
    "7381": "quip",
    "7382": "quipment",
    "7383": "dictio",
    "7384": "speaker",
    "7385": "5th c",
    "7386": "5th cent",
    "7387": "narchi",
    "7388": "cutting",
    "7389": "celebr",
    "7390": " - god",
    "7391": "l.",
    "7392": "ailable",
    "7393": "Version",
    "7394": "mperial ",
    "7395": " new ",
    "7396": "sts of ",
    "7397": "eligio",
    "7398": "charact",
    "7399": "Hub",
    "7400": "Hubba",
    "7401": "champ",
    "7402": "champio",
    "7403": "hair",
    "7404": "rived ",
    "7405": "tuition",
    "7406": " in th",
    "7407": " in the ",
    "7408": "olasti",
    "7409": "s, and ",
    "7410": "code ",
    "7411": "diving",
    "7412": "secon",
    "7413": "Gospel of ",
    "7414": "/h",
    "7415": "Jerusa",
    "7416": "Jerusalem",
    "7417": "instanc",
    "7418": "leader",
    "7419": "gister ",
    "7420": " buil",
    "7421": "pts ",
    "7422": "pts to ",
    "7423": "further",
    "7424": "k.",
    "7425": "cious",
    "7426": "'d ",
    "7427": "~1",
    "7428": "ained",
    "7429": "higan",
    "7430": "filled",
    "7431": "Castil",
    "7432": "Catholi",
    "7433": "monstr",
    "7434": "escent",
    "7435": "viewed",
    "7436": "nger",
    "7437": "dynam",
    "7438": "ct as ",
    "7439": "audie",
    "7440": "audienc",
    "7441": " Februa",
    "7442": " February ",
    "7443": "Rooseve",
    "7444": "Roosevelt",
    "7445": "88",
    "7446": "iatic ",
    "7447": "ssing ",
    "7448": "rsoom",
    "7449": "little",
    "7450": "vided ",
    "7451": "ncert",
    "7452": "comets ",
    "7453": "skilled",
    "7454": "adqua",
    "7455": "adquarte",
    "7456": "utonic",
    "7457": "ennium",
    "7458": "Mac",
    "7459": "ought ",
    "7460": "compris",
    "7461": "comprising",
    "7462": "d to ",
    "7463": "etter",
    "7464": "easily",
    "7465": "lacked",
    "7466": "U-",
    "7467": "veal ",
    "7468": "at Brit",
    "7469": "ubstant",
    "7470": "tted ",
    "7471": "tted bas",
    "7472": "party ",
    "7473": "Treat",
    "7474": "Treatise",
    "7475": "uce ",
    "7476": "cks ",
    "7477": "central",
    "7478": "ad of ",
    "7479": "universiti",
    "7480": "izing",
    "7481": "polic",
    "7482": "of 1",
    "7483": "life ",
    "7484": "ethn",
    "7485": "ertake ",
    "7486": " of the ",
    "7487": " of the year",
    "7488": "bbre",
    "7489": "bbrevia",
    "7490": "Oly",
    "7491": "Olymp",
    "7492": "lucent",
    "7493": ". ",
    "7494": "ecomes",
    "7495": "tentio",
    "7496": "remac",
    "7497": "Midd",
    "7498": "Middle ",
    "7499": "Sprin",
    "7500": "Springs",
    "7501": "eviden",
    "7502": "evidence",
    "7503": "fused ",
    "7504": "ent of ",
    "7505": "t to ",
    "7506": "Year",
    "7507": "litur",
    "7508": "ource",
    "7509": "uming",
    "7510": "emerge",
    "7511": "BeOS",
    "7512": "plays ",
    "7513": "ortali",
    "7514": "educed ",
    "7515": "lady",
    "7516": "yer",
    "7517": "fulfil",
    "7518": "lifornia",
    "7519": "amorp",
    "7520": "andolph",
    "7521": "call ",
    "7522": "call cent",
    "7523": "ddle ",
    "7524": "that of ",
    "7525": "ight of ",
    "7526": "uilding",
    "7527": "th met",
    "7528": "odotu",
    "7529": "ces, ",
    "7530": "lds ",
    "7531": "rtholom",
    "7532": "Holy ",
    "7533": "grouped",
    "7534": " are ",
    "7535": "sted with",
    "7536": "althy",
    "7537": "ccurred",
    "7538": "situated",
    "7539": "achie",
    "7540": "tegrated",
    "7541": "below",
    "7542": "on of ",
    "7543": "Ted W",
    "7544": "Ted William",
    "7545": "machin",
    "7546": "mme (",
    "7547": "ints ",
    "7548": "isco",
    "7549": "posed of ",
    "7550": "cribed",
    "7551": "jail",
    "7552": "audi",
    "7553": "audio",
    "7554": "measure",
    "7555": "treat ",
    "7556": "xture",
    "7557": " aspect",
    "7558": "smania",
    "7559": "0,000",
    "7560": "aised ",
    "7561": "vice of ",
    "7562": " K",
    "7563": " Kan",
    "7564": "May ",
    "7565": " km)",
    "7566": " bla",
    "7567": "Food ",
    "7568": "nberg",
    "7569": "repla",
    "7570": "erved",
    "7571": "popular",
    "7572": "Best ",
    "7573": "March ",
    "7574": "fused to ",
    "7575": " Follo",
    "7576": " Following",
    "7577": " theories",
    "7578": "either",
    "7579": "bylonia",
    "7580": "present ",
    "7581": ".*18",
    "7582": "process",
    "7583": "processing",
    "7584": "ve CD",
    "7585": "trary ",
    "7586": "trary to ",
    "7587": "struct",
    "7588": "structed",
    "7589": "secr",
    "7590": "secret ",
    "7591": "Helsing",
    "7592": "copyrig",
    "7593": "copyright",
    "7594": "osely ",
    "7595": "there ",
    "7596": "delete",
    "7597": "hilade",
    "7598": "hiladelph",
    "7599": "drawa",
    "7600": "eptember",
    "7601": "Dama",
    "7602": "Damasc",
    "7603": "tracted",
    "7604": "umber",
    "7605": "depending",
    "7606": "mpanies",
    "7607": "group ",
    "7608": "s.",
    "7609": "pound",
    "7610": "in 1",
    "7611": "ov, ",
    "7612": " emi",
    "7613": " emitte",
    "7614": "r not",
    "7615": "Extern",
    "7616": "External ",
    "7617": "External Li",
    "7618": "uisine",
    "7619": "ppro",
    "7620": "pproxi",
    "7621": " often",
    "7622": "pelle",
    "7623": "lasting",
    "7624": "Charles ",
    "7625": "Charles Fo",
    "7626": "Charles Foster",
    "7627": "count ",
    "7628": "20, ",
    "7629": "hierar",
    "7630": "eating",
    "7631": "promis",
    "7632": "-called",
    "7633": "kingdom",
    "7634": "tists ",
    "7635": "fs ",
    "7636": "econom",
    "7637": "E, ",
    "7638": "Western ",
    "7639": "chelor",
    "7640": "troduct",
    "7641": "copies",
    "7642": "upon ",
    "7643": "custo",
    "7644": "ctorian",
    "7645": "Peres",
    "7646": "Perestre",
    "7647": "nior ",
    "7648": "nding",
    "7649": "kene ",
    "7650": "enzym",
    "7651": "later",
    "7652": "cclaim",
    "7653": "hput",
    "7654": "Deism",
    "7655": " also ",
    "7656": "fectio",
    "7657": "yle of ",
    "7658": "steel ",
    "7659": "always",
    "7660": "aused ",
    "7661": "czec",
    "7662": "prevent",
    "7663": "pplicatio",
    "7664": "rer",
    "7665": "arity ",
    "7666": "arity of ",
    "7667": "If ",
    "7668": "ttended ",
    "7669": "vided in",
    "7670": "vided into ",
    "7671": "ting s",
    "7672": "ting syst",
    "7673": "ting system",
    "7674": "ctical ",
    "7675": "nstitu",
    "7676": "seemed ",
    "7677": "the Apple",
    "7678": "the Apple II",
    "7679": "synth",
    "7680": "synthesi",
    "7681": "miered",
    "7682": " turn",
    "7683": "mplement",
    "7684": "high",
    "7685": "lspan",
    "7686": "J.",
    "7687": " Wor",
    "7688": " World ",
    "7689": " World War",
    "7690": " mech",
    "7691": " mechani",
    "7692": "related ",
    "7693": "igence",
    "7694": "ealed",
    "7695": "aka ",
    "7696": "along with",
    "7697": "tute ",
    "7698": "ybo",
    "7699": "yboard",
    "7700": "bryo",
    "7701": "Big Apple",
    "7702": "verage ",
    "7703": "ghting",
    "7704": "80)*1",
    "7705": "bolic ",
    "7706": "sperit",
    "7707": "Baseball",
    "7708": " Ind",
    "7709": "engage",
    "7710": "the cit",
    "7711": " sever",
    "7712": " several ",
    "7713": "share",
    "7714": "During ",
    "7715": " for ",
    "7716": "/k",
    "7717": "early ",
    "7718": "early as ",
    "7719": "E.",
    "7720": "rapid",
    "7721": "rapidly ",
    "7722": "marize",
    "7723": "ilibri",
    "7724": "ncies ",
    "7725": "elabor",
    "7726": "elaborate",
    "7727": "page ",
    "7728": "peninsu",
    "7729": "peninsula",
    "7730": "doctri",
    "7731": "exist",
    "7732": "credi",
    "7733": "ponsibl",
    "7734": "ponsible ",
    "7735": "ponsible for ",
    "7736": "difficul",
    "7737": " Cent",
    "7738": " Centur",
    "7739": "oppose",
    "7740": "opposed ",
    "7741": "opposed to ",
    "7742": "kfo",
    "7743": "ried to ",
    "7744": "candida",
    "7745": "return",
    "7746": "returned",
    "7747": "Later",
    "7748": "speran",
    "7749": "Latin",
    "7750": "w - ",
    "7751": "ghly ",
    "7752": "widely ",
    "7753": "-19",
    "7754": "Johann",
    "7755": "rary ",
    "7756": "upport",
    "7757": "tarcti",
    "7758": " resid",
    "7759": "f yo",
    "7760": "rough ",
    "7761": "82",
    "7762": "yleti",
    "7763": "yletic ",
    "7764": "dess of ",
    "7765": "d/t",
    "7766": "al, ",
    "7767": "anch of ",
    "7768": "cord",
    "7769": "cording",
    "7770": "rovement",
    "7771": "cessing",
    "7772": "ission",
    "7773": "y acid",
    "7774": "t*",
    "7775": " Africa",
    "7776": "feet ",
    "7777": " object",
    "7778": "ified",
    "7779": "pper",
    "7780": "itation",
    "7781": "combat",
    "7782": "Epi",
    "7783": "Epipha",
    "7784": "data ",
    "7785": "authent",
    "7786": "val Base",
    "7787": "Main ar",
    "7788": "Main arti",
    "7789": "Main article",
    "7790": "virus ",
    "7791": "hile ",
    "7792": "locaust ",
    "7793": "s of the ",
    "7794": "nnel ",
    "7795": "occur",
    "7796": "colo",
    "7797": "ches ",
    "7798": "engaged",
    "7799": "engaged in",
    "7800": "double",
    "7801": "aching",
    "7802": "its of ",
    "7803": "mosome",
    "7804": "ronto",
    "7805": "sence",
    "7806": "Contest",
    "7807": "pecul",
    "7808": "3th c",
    "7809": "3th cent",
    "7810": "-coll",
    "7811": "-collect",
    "7812": "0)*",
    "7813": "oroc",
    "7814": "likely ",
    "7815": "God ",
    "7816": "rchase",
    "7817": "an in",
    "7818": "an inning",
    "7819": "cist ",
    "7820": "Stra",
    "7821": "Strauss",
    "7822": "Generation",
    "7823": "erium",
    "7824": "Pruss",
    "7825": "argumen",
    "7826": "oral ",
    "7827": "ky ",
    "7828": "inary ",
    "7829": "-comp",
    "7830": " Di",
    "7831": " Dire",
    "7832": "ainst ",
    "7833": "career",
    "7834": "st of ",
    "7835": "ually ",
    "7836": "8)*",
    "7837": "Summer ",
    "7838": "Summer O",
    "7839": "Summer Oly",
    "7840": "Summer Olymp",
    "7841": "Valle",
    "7842": "ointed",
    "7843": "BNP ",
    "7844": "est ",
    "7845": "rganiz",
    "7846": "rganization",
    "7847": "osexual",
    "7848": "herbi",
    "7849": "herbicid",
    "7850": "bour",
    "7851": "ontrol",
    "7852": "light",
    "7853": " anth",
    "7854": " anthrop",
    "7855": "Chen ",
    "7856": "Chen K",
    "7857": "Prooe",
    "7858": "Prooem",
    "7859": " row",
    "7860": "tank ",
    "7861": "eant to ",
    "7862": "Contro",
    "7863": "topher",
    "7864": "ld War",
    "7865": "yxi",
    "7866": "Bourdie",
    "7867": ":#",
    "7868": "rresponds ",
    "7869": "stion of ",
    "7870": " abil",
    "7871": "orbidd",
    "7872": "mountain",
    "7873": " command",
    "7874": "Chihu",
    "7875": "tless ",
    "7876": "tless bas",
    "7877": " hand",
    "7878": "Intell",
    "7879": "Intellig",
    "7880": " cuis",
    "7881": "haring",
    "7882": "nez",
    "7883": "nezuel",
    "7884": "ltimate",
    "7885": "show host",
    "7886": "Collins",
    "7887": " dio",
    "7888": " dioxi",
    "7889": "div",
    "7890": " water",
    "7891": "itimat",
    "7892": "k of ",
    "7893": "lled b",
    "7894": "lled by ",
    "7895": "use of ",
    "7896": "Insti",
    "7897": "Institu",
    "7898": "versio",
    "7899": "version ",
    "7900": "roughl",
    "7901": "ted fa",
    "7902": "ted fatt",
    "7903": "cendent",
    "7904": "dox ",
    "7905": " if ",
    "7906": " tree",
    "7907": "tted with",
    "7908": "implem",
    "7909": "lliant ",
    "7910": "lucin",
    "7911": "inema",
    "7912": "ureate",
    "7913": "elip",
    "7914": ") and ",
    "7915": "keted ",
    "7916": "methan",
    "7917": "ities ",
    "7918": "nstitution",
    "7919": "er (d. ",
    "7920": "utiful",
    "7921": "aptation",
    "7922": "Catholic ",
    "7923": "value",
    "7924": "educat",
    "7925": "eroti",
    "7926": " could",
    "7927": "reliab",
    "7928": "host of ",
    "7929": "Netherl",
    "7930": "Netherland",
    "7931": "orned",
    "7932": "evice",
    "7933": "Bishop",
    "7934": "Columbia",
    "7935": "Bart",
    "7936": " nucle",
    "7937": " nuclear",
    "7938": "change ",
    "7939": "alcul",
    "7940": "alculate",
    "7941": "analy",
    "7942": "include ",
    "7943": "pitalis",
    "7944": "ification",
    "7945": " offic",
    "7946": "formerl",
    "7947": "formerly ",
    "7948": "pletely ",
    "7949": "Years'",
    "7950": "Years' War",
    "7951": "supporting",
    "7952": "=#C",
    "7953": "=#Cege",
    "7954": "celebrate",
    "7955": "finishe",
    "7956": "finished ",
    "7957": "ntarc",
    "7958": " ends ",
    "7959": "rped",
    "7960": "reaty ",
    "7961": "Basque",
    "7962": "refer to",
    "7963": "here t",
    "7964": "here to",
    "7965": "next",
    "7966": "lls ",
    "7967": " African ",
    "7968": "ic mic",
    "7969": "ic microw",
    "7970": "torped",
    "7971": "Jupite",
    "7972": "position ",
    "7973": "zoate",
    "7974": "cecraft",
    "7975": "cholars ",
    "7976": "end of ",
    "7977": "measurement",
    "7978": "escen",
    "7979": "television ",
    "7980": "arpe",
    "7981": "raordina",
    "7982": "Catholic Church",
    "7983": "arson",
    "7984": "actor*19",
    "7985": "9. ",
    "7986": "frastructure",
    "7987": "stop ",
    "7988": " belongs",
    "7989": "tivating ",
    "7990": "18th ",
    "7991": "encycl",
    "7992": "encyclope",
    "7993": "encyclopedi",
    "7994": "district",
    "7995": ". For ",
    "7996": "underg",
    "7997": "ossible t",
    "7998": "ossible to",
    "7999": "nother",
    "8000": "ic*",
    "8001": "ce, ",
    "8002": "distributio",
    "8003": "utoma",
    "8004": "n't unt",
    "8005": "n't until ",
    "8006": "5,000",
    "8007": "station",
    "8008": "profile",
    "8009": "forehe",
    "8010": " device",
    "8011": "Danes ",
    "8012": "aller",
    "8013": "7 billion ",
    "8014": "avann",
    "8015": "avannah",
    "8016": "dedicated",
    "8017": "inside",
    "8018": "Believe ",
    "8019": "hood ",
    "8020": "bled ",
    "8021": "killed",
    "8022": "HTML",
    "8023": "#Cege",
    "8024": "#Cegep ",
    "8025": "Prussian",
    "8026": "covery of ",
    "8027": "pating ",
    "8028": "stitution",
    "8029": "llied",
    "8030": "Unicode ",
    "8031": "joua",
    "8032": "associated with",
    "8033": "mstances",
    "8034": " arriving",
    "8035": "equivalen",
    "8036": "Texas (d. ",
    "8037": "gh School",
    "8038": "depart",
    "8039": "department",
    "8040": "ecade",
    "8041": "Flore",
    "8042": "Cambo",
    "8043": "Cambodi",
    "8044": "s that ",
    "8045": "al to ",
    "8046": "beloved",
    "8047": "millio",
    "8048": "100)*",
    "8049": "enshri",
    "8050": "enshrined ",
    "8051": " corre",
    "8052": "scow",
    "8053": "to provin",
    "8054": "lism ",
    "8055": "S-",
    "8056": "casion",
    "8057": "understand",
    "8058": "ge. ",
    "8059": "flags",
    "8060": " classified",
    "8061": "center ",
    "8062": "center of ",
    "8063": "I of ",
    "8064": " aside",
    "8065": "synthesize",
    "8066": "London*",
    "8067": "1tr",
    "8068": "odern ",
    "8069": "Lord ",
    "8070": "traight",
    "8071": "leave ",
    "8072": "indows ",
    "8073": " univers",
    "8074": " university ",
    "8075": " guil",
    "8076": "yrgy",
    "8077": "invent",
    "8078": "inventor of ",
    "8079": "availabi",
    "8080": "summer of ",
    "8081": "drian",
    "8082": "TV ",
    "8083": "13th ",
    "8084": "tt - ",
    "8085": "literal",
    "8086": " presiden",
    "8087": " of Minist",
    "8088": "osovo",
    "8089": " bein",
    "8090": " being ",
    "8091": "and the ",
    "8092": "one els",
    "8093": "timidat",
    "8094": "ell, ",
    "8095": "east ",
    "8096": "east Asia",
    "8097": "on (",
    "8098": "eradica",
    "8099": "eradicate ",
    "8100": "est.",
    "8101": "est.)",
    "8102": "est.)Mil",
    "8103": "est.)Milit",
    "8104": "th of ",
    "8105": "unei",
    "8106": "s or",
    "8107": "miting",
    "8108": "encing",
    "8109": " of the",
    "8110": " of their ",
    "8111": "ungarian",
    "8112": " lea",
    "8113": " league",
    "8114": "eattle",
    "8115": "corporation",
    "8116": "cations ",
    "8117": "Just",
    "8118": "rismati",
    "8119": "solvent",
    "8120": "truth",
    "8121": "ipped",
    "8122": "ease ",
    "8123": " po",
    "8124": "AO",
    "8125": "AOL ",
    "8126": "shares ",
    "8127": "ined ",
    "8128": "ineffic",
    "8129": "inefficien",
    "8130": "single ",
    "8131": "computing",
    "8132": "17 - ",
    "8133": "a, ",
    "8134": "dly ",
    "8135": "eries, ",
    "8136": "Turk",
    "8137": "Turkey",
    "8138": "aday",
    "8139": "nstration",
    "8140": "withstan",
    "8141": "5% and ",
    "8142": "defended ",
    "8143": "lhi",
    "8144": "ilicon",
    "8145": "positive",
    "8146": "comprised",
    "8147": "Cantonese",
    "8148": "Cantonese and",
    "8149": "Bant",
    "8150": "Bantu ",
    "8151": "keeping",
    "8152": "keeping with ",
    "8153": "s for ",
    "8154": "trong ",
    "8155": " intera",
    "8156": " interacti",
    "8157": "monica",
    "8158": " know",
    "8159": "Divisio",
    "8160": "heliop",
    "8161": "heliopause",
    "8162": "legisla",
    "8163": "thless",
    "8164": "Bret",
    "8165": "nest ",
    "8166": "s often",
    "8167": " software ",
    "8168": "', ",
    "8169": "utsch",
    "8170": "y Press",
    "8171": "tempted ",
    "8172": "tempted to ",
    "8173": "Hano",
    "8174": "Hanover",
    "8175": "erpris",
    "8176": "entire ",
    "8177": "Alpha",
    "8178": "Alphabet",
    "8179": "Air For",
    "8180": "spoke",
    "8181": "spoken ",
    "8182": "pedition",
    "8183": "claiming ",
    "8184": "search ",
    "8185": "annot ",
    "8186": "2)*1",
    "8187": "soil",
    "8188": "iplom",
    "8189": "access",
    "8190": "access to ",
    "8191": "tline",
    "8192": "stroke",
    "8193": "erstor",
    "8194": "centrip",
    "8195": "centripeta",
    "8196": "-found",
    "8197": " territor",
    "8198": "Bik",
    "8199": "7 mbr",
    "8200": ".C.",
    "8201": "solved",
    "8202": "i De",
    "8203": "i Deser",
    "8204": "leet ",
    "8205": "Prayer",
    "8206": "mission ",
    "8207": "ctoria",
    "8208": "osest ",
    "8209": " south",
    "8210": "distance ",
    "8211": "oreti",
    "8212": "oretical ",
    "8213": "user",
    "8214": "legal ",
    "8215": "-born",
    "8216": "VA ",
    "8217": "patria",
    "8218": "patriate ",
    "8219": "worth ",
    "8220": "worth not",
    "8221": "ulting ",
    "8222": " ben",
    "8223": "reference",
    "8224": "reference fr",
    "8225": "usseau",
    "8226": "angels ",
    "8227": "e-",
    "8228": "e-ele",
    "8229": "e-elected",
    "8230": "Republic ",
    "8231": "Republic of ",
    "8232": "om?*",
    "8233": "Dale",
    "8234": "nstant",
    "8235": "determining ",
    "8236": "Jaco",
    "8237": "Jacobit",
    "8238": "ortio",
    "8239": "table b",
    "8240": "table border",
    "8241": "ms, ",
    "8242": "relationship",
    "8243": "istrict",
    "8244": "ellipt",
    "8245": "oxidat",
    "8246": "oxidatio",
    "8247": "teach ",
    "8248": "guilty",
    "8249": "is to ",
    "8250": "up of ",
    "8251": "counci",
    "8252": "eries of ",
    "8253": "seems ",
    "8254": "erred",
    "8255": "erred to ",
    "8256": "-time",
    "8257": "declared ",
    "8258": "2). ",
    "8259": "erior ",
    "8260": "erior to ",
    "8261": "an American ",
    "8262": "lleagu",
    "8263": "hrough",
    "8264": " rad",
    "8265": " radiatio",
    "8266": "hael ",
    "8267": "6th ",
    "8268": "llingne",
    "8269": "Lev",
    "8270": "reating",
    "8271": "Navarr",
    "8272": "mobil",
    "8273": "mobile ",
    "8274": "ames ",
    "8275": "side of the ",
    "8276": "errestri",
    "8277": "predict",
    "8278": " Mone",
    "8279": " Monetar",
    "8280": "(200",
    "8281": "Judith ",
    "8282": "d ar",
    "8283": "d ar-",
    "8284": "d ar-R",
    "8285": "d ar-Rah",
    "8286": "Catal",
    "8287": "Rece",
    "8288": "oluti",
    "8289": "proclaimed ",
    "8290": "leaders ",
    "8291": "South Atla",
    "8292": "administered",
    "8293": "rategi",
    "8294": "rategic ",
    "8295": " tools",
    "8296": "creased",
    "8297": "dnight",
    "8298": "retain ",
    "8299": "vy ",
    "8300": " sal",
    "8301": " salad ",
    "8302": "highest ",
    "8303": "protein",
    "8304": " announced",
    "8305": " article",
    "8306": "Ab",
    "8307": "arguments ",
    "8308": "usage ",
    "8309": "osed of ",
    "8310": "icus*",
    "8311": "Cats ",
    "8312": "Guar",
    "8313": "religio",
    "8314": "ndeed, ",
    "8315": "ilation",
    "8316": "ive year",
    "8317": "separated ",
    "8318": "ippin",
    "8319": "based on ",
    "8320": " Republ",
    "8321": "memor",
    "8322": "lesale",
    "8323": "anual ",
    "8324": "capitalis",
    "8325": "zziness",
    "8326": "Do not",
    "8327": "tingent ",
    "8328": "imilarly",
    "8329": "imilarly, ",
    "8330": "ional ",
    "8331": "torage",
    "8332": "cation ",
    "8333": "ormat",
    "8334": "covering",
    "8335": "European and ",
    "8336": "alpha",
    "8337": "alphabet",
    "8338": "enic ",
    "8339": "ng theory",
    "8340": "Tit",
    "8341": "ited ",
    "8342": "Hitler",
    "8343": "esentm",
    "8344": "thout ",
    "8345": "adiatio",
    "8346": "Chicago",
    "8347": "undamen",
    "8348": "undamental",
    "8349": "ruled 17",
    "8350": "Johannes",
    "8351": "Johannesbur",
    "8352": "addict",
    "8353": "ernando ",
    "8354": "tigate",
    "8355": "until ",
    "8356": "doctor",
    "8357": "2 sub ",
    "8358": "nickname ",
    "8359": "per*19",
    "8360": "condition",
    "8361": "presence",
    "8362": "ache ",
    "8363": "adult",
    "8364": "loid ",
    "8365": "e, ",
    "8366": "script",
    "8367": "verses ",
    "8368": "puters ",
    "8369": "id not ",
    "8370": "world's ",
    "8371": " release",
    "8372": "ightha",
    "8373": "ighthawk",
    "8374": "ng, ",
    "8375": "evolved ",
    "8376": "which time",
    "8377": "cientists ",
    "8378": "st on ",
    "8379": " total",
    "8380": "togeth",
    "8381": "purpose",
    "8382": "his, ",
    "8383": " 19, ",
    "8384": "uine ",
    "8385": "orm of ",
    "8386": "Kong",
    "8387": "ernmost",
    "8388": "poke",
    "8389": "poken ",
    "8390": "pplications ",
    "8391": "refore",
    "8392": "served",
    "8393": " Squa",
    "8394": "difficult to ",
    "8395": " called",
    "8396": "existent",
    "8397": "yet ",
    "8398": "voys ",
    "8399": "said",
    "8400": "Yok",
    "8401": "Yokoi",
    "8402": "ershi",
    "8403": " involv",
    "8404": " involves ",
    "8405": "ent with",
    "8406": "evenu",
    "8407": "Hambur",
    "8408": "Hamburg",
    "8409": "eather",
    "8410": "verting",
    "8411": "4-1",
    "8412": "emann",
    "8413": "territories",
    "8414": "focus",
    "8415": "focused",
    "8416": "elative to ",
    "8417": "8 /td",
    "8418": "heatr",
    "8419": "still be ",
    "8420": "stimula",
    "8421": "portra",
    "8422": "*Ev",
    "8423": "*Eve ",
    "8424": " dire",
    "8425": " director",
    "8426": "truggl",
    "8427": "mouth ",
    "8428": "mouth of ",
    "8429": "er gam",
    "8430": "that time",
    "8431": "4 bit",
    "8432": "Arm",
    "8433": "eported",
    "8434": "fiber",
    "8435": "David ",
    "8436": "Jul",
    "8437": "July ",
    "8438": "coding",
    "8439": "1st ",
    "8440": "whose ",
    "8441": "Popul",
    "8442": "Popular",
    "8443": "itself ",
    "8444": "traditions ",
    "8445": "llinois ",
    "8446": " long ",
    "8447": " long as ",
    "8448": "strategy",
    "8449": "table ",
    "8450": "egree",
    "8451": "vealed ",
    "8452": "oglo",
    "8453": "lto",
    "8454": "offens",
    "8455": "ckles",
    "8456": "etoph",
    "8457": "etophyt",
    "8458": "East ",
    "8459": "mino",
    "8460": "mino acid",
    "8461": "Commission",
    "8462": "ountain",
    "8463": "iberius",
    "8464": "enuous",
    "8465": " income",
    "8466": "8-18",
    "8467": "Gaull",
    "8468": "ather than ",
    "8469": "right-",
    "8470": "right-hand",
    "8471": "eded",
    "8472": "mself ",
    "8473": "raise",
    "8474": " Fact",
    "8475": "rbroa",
    "8476": "ultimat",
    "8477": "chosen",
    "8478": "dictionar",
    "8479": "ingle ",
    "8480": "characters ",
    "8481": "7, 19",
    "8482": "on - ",
    "8483": "increas",
    "8484": "increased",
    "8485": "thul",
    "8486": "thulhu",
    "8487": "s to the ",
    "8488": "fields ",
    "8489": "ching militar",
    "8490": "ast ",
    "8491": "kitch",
    "8492": "cts ",
    "8493": " to be ",
    "8494": "mistaken",
    "8495": "Schl",
    "8496": "Schlen",
    "8497": "icz ",
    "8498": "icz (",
    "8499": " toas",
    "8500": " made",
    "8501": "egal ",
    "8502": "unisia",
    "8503": "local ",
    "8504": "amoun",
    "8505": "Middle Ag",
    "8506": "referred to as ",
    "8507": "job ",
    "8508": "ovsk",
    "8509": "rick ",
    "8510": "orms of ",
    "8511": "web ",
    "8512": "web brow",
    "8513": "web browser",
    "8514": "cancer",
    "8515": "ystem",
    "8516": "etray",
    "8517": "etrayed",
    "8518": "refer to ",
    "8519": "hydrog",
    "8520": "umpti",
    "8521": "em to ",
    "8522": "funeral",
    "8523": "the year",
    "8524": "Malaysi",
    "8525": "Malaysia",
    "8526": "apart ",
    "8527": "91",
    "8528": "914 ",
    "8529": "alect",
    "8530": "Pop",
    "8531": "monarch",
    "8532": "Micro",
    "8533": "Microco",
    "8534": "Micrococcu",
    "8535": "chron",
    "8536": "nald ",
    "8537": "Rwand",
    "8538": "of 19",
    "8539": " town",
    "8540": "decess",
    "8541": "Left ",
    "8542": "eathin",
    "8543": "eathing ",
    "8544": "travel",
    "8545": "nover",
    "8546": "el, ",
    "8547": "bserve",
    "8548": "19 (",
    "8549": "19 (200",
    "8550": " increasing",
    "8551": " increasingly ",
    "8552": "exclusive",
    "8553": "versions ",
    "8554": "pts, ",
    "8555": "rban ",
    "8556": "tform ",
    "8557": "tempera",
    "8558": "acial ",
    "8559": "Constitu",
    "8560": "however, ",
    "8561": " acti",
    "8562": " activity",
    "8563": "United Sta",
    "8564": "United States ",
    "8565": "juana",
    "8566": "rederi",
    "8567": "scarte",
    "8568": "placement",
    "8569": "Marcus",
    "8570": "le tt ",
    "8571": "nger tha",
    "8572": "nger than ",
    "8573": "ustice",
    "8574": "speaking ",
    "8575": "-hand",
    "8576": "Alfred",
    "8577": " in the world",
    "8578": "bile ",
    "8579": "pigmented",
    "8580": "etrating ",
    "8581": "appearance",
    "8582": "duces ",
    "8583": "named ",
    "8584": "monia",
    "8585": "terste",
    "8586": "terstellar",
    "8587": "eputa",
    "8588": "eputation",
    "8589": "compete ",
    "8590": "orld",
    "8591": "orldwide",
    "8592": "written as ",
    "8593": "treatm",
    "8594": "s between ",
    "8595": "sual ",
    "8596": "duratio",
    "8597": "dinary ",
    "8598": "predicted",
    "8599": "istingu",
    "8600": "istinguish",
    "8601": "uwen",
    "8602": "epresented",
    "8603": "February ",
    "8604": " Englis",
    "8605": "o that",
    "8606": "erum",
    "8607": " Afgh",
    "8608": " Afghani",
    "8609": " Afghanistan",
    "8610": "vecraft",
    "8611": "judicial",
    "8612": "remely ",
    "8613": "llate ",
    "8614": "error",
    "8615": "in 18",
    "8616": "ankrup",
    "8617": "ks on ",
    "8618": "separate ",
    "8619": "ue#C",
    "8620": "ue#Cege",
    "8621": "softwar",
    "8622": "Yeltsin",
    "8623": "cripti",
    "8624": "England ",
    "8625": "stepped",
    "8626": "situation ",
    "8627": "-Li",
    "8628": "-Lith",
    "8629": "-Lithua",
    "8630": "nia (",
    "8631": "MPE",
    "8632": "MPEG",
    "8633": "Apach",
    "8634": "begins ",
    "8635": "ische ",
    "8636": "ische Mo",
    "8637": "person ",
    "8638": "change",
    "8639": "izont",
    "8640": "Gnu",
    "8641": "Gnu M",
    "8642": "Gnu Mach",
    "8643": "0-",
    "8644": "man, English ",
    "8645": "ize br",
    "8646": "shadowed",
    "8647": "bellio",
    "8648": "result",
    "8649": "enai",
    "8650": "estoration",
    "8651": " today",
    "8652": "es.*19",
    "8653": "nomer",
    "8654": "ay that ",
    "8655": "7th centur",
    "8656": " yield",
    "8657": "aptism",
    "8658": "-R",
    "8659": "-Rah",
    "8660": "groms ",
    "8661": "to the ",
    "8662": "guardian",
    "8663": "angeness",
    "8664": "eats ",
    "8665": "eake",
    "8666": "eakened ",
    "8667": "ceiver",
    "8668": "ddin ",
    "8669": "office",
    "8670": "inexpe",
    "8671": "inexpensive",
    "8672": "R.S.",
    "8673": "R.S.C.",
    "8674": "inancial ",
    "8675": "no (",
    "8676": "terland",
    "8677": "eproduc",
    "8678": "eproduction",
    "8679": "Franc",
    "8680": " refers ",
    "8681": " refers to ",
    "8682": "easonabl",
    "8683": "easonably ",
    "8684": "state-owned",
    "8685": "Bona",
    "8686": "Bonapart",
    "8687": "Touch",
    "8688": "Boer",
    "8689": "Boerha",
    "8690": "flying",
    "8691": "oreign",
    "8692": " comp",
    "8693": "verely",
    "8694": "mong ",
    "8695": "se to ",
    "8696": "eagan ",
    "8697": "rs, ",
    "8698": "website*",
    "8699": " district",
    "8700": "enabli",
    "8701": "enabling ",
    "8702": "ming",
    "8703": "animous",
    "8704": "p, ",
    "8705": "items ",
    "8706": "ration ",
    "8707": "preventing",
    "8708": "Yello",
    "8709": "Valley ",
    "8710": "ective",
    "8711": "bundan",
    "8712": "Newton",
    "8713": "allowed",
    "8714": "politic",
    "8715": "South Africa",
    "8716": "judice",
    "8717": "oic acid",
    "8718": "ds. ",
    "8719": " famous",
    "8720": "kernel",
    "8721": "possess ",
    "8722": "sorry",
    "8723": " Pol",
    "8724": "mmended ",
    "8725": "forced",
    "8726": "Acts ",
    "8727": "resource",
    "8728": "brought ",
    "8729": "primary ",
    "8730": ".*199",
    "8731": "2:",
    "8732": "choosing",
    "8733": "zamb",
    "8734": "zambiqu",
    "8735": "patible ",
    "8736": "ealth",
    "8737": "Pork",
    "8738": "ywh",
    "8739": "ywhere",
    "8740": "ssumed ",
    "8741": "and and ",
    "8742": "inhabitant",
    "8743": "infected",
    "8744": "compon",
    "8745": "components ",
    "8746": "leading",
    "8747": "leading to ",
    "8748": "pluri",
    "8749": "HE",
    "8750": "HENA",
    "8751": "h /t",
    "8752": "flux ",
    "8753": "cer, ",
    "8754": "ceed",
    "8755": " bec",
    "8756": " because",
    "8757": "Proto-",
    "8758": "vated",
    "8759": "Deser",
    "8760": " referen",
    "8761": "head of ",
    "8762": "consists ",
    "8763": "itted",
    "8764": "shed ",
    "8765": "learly",
    "8766": "eristi",
    "8767": "eristic",
    "8768": "a#C",
    "8769": "sis*",
    "8770": "affai",
    "8771": "child",
    "8772": "children",
    "8773": "persons",
    "8774": "uch of ",
    "8775": "tholog",
    "8776": "anden",
    "8777": "andenbur",
    "8778": "t all",
    "8779": "econcil",
    "8780": "econciliatio",
    "8781": " signific",
    "8782": " significant",
    "8783": "-He",
    "8784": "clesia",
    "8785": "Early ",
    "8786": " Car",
    "8787": " Caroli",
    "8788": "ats ",
    "8789": "icarb",
    "8790": "ongress",
    "8791": " name= ",
    "8792": "sitive",
    "8793": "military ",
    "8794": "tellectual",
    "8795": "pencer",
    "8796": "gazin",
    "8797": "beer",
    "8798": " reaction",
    "8799": "uing that ",
    "8800": "Laconia",
    "8801": "dvertis",
    "8802": "dvertising",
    "8803": "S, ",
    "8804": "parliamentar",
    "8805": "parliamentary ",
    "8806": "theolog",
    "8807": "ubjected",
    "8808": "etitiv",
    "8809": "etitive ",
    "8810": "siege",
    "8811": "e team",
    "8812": "Mode",
    "8813": "p and ",
    "8814": "initiat",
    "8815": "en rou",
    "8816": " universally ",
    "8817": "-ROM",
    "8818": " 2,",
    "8819": "continued ",
    "8820": "rucial ",
    "8821": "traces of ",
    "8822": "Marvel",
    "8823": "Band",
    "8824": "leming",
    "8825": "asylu",
    "8826": "eceiver",
    "8827": "es 17",
    "8828": "ve-",
    "8829": "Bryth",
    "8830": "Brythonic",
    "8831": "rtr t",
    "8832": "Passing ",
    "8833": "mage ",
    "8834": "mage with",
    "8835": "therland",
    "8836": "miliar",
    "8837": " Leagu",
    "8838": " enzym",
    "8839": "unting",
    "8840": "country ",
    "8841": "thernet",
    "8842": "Age of ",
    "8843": "e than ",
    "8844": "lst ",
    "8845": "hao",
    "8846": "penalt",
    "8847": "iwan",
    "8848": " suicid",
    "8849": "death, ",
    "8850": "on. ",
    "8851": "restriction",
    "8852": "special ",
    "8853": "ollar",
    "8854": "ecimal",
    "8855": "lear",
    "8856": "t-",
    "8857": "exact ",
    "8858": " Air For",
    "8859": " Air Force ",
    "8860": "playwright",
    "8861": "y play",
    "8862": "y player",
    "8863": "(ad",
    "8864": "please",
    "8865": "eaning",
    "8866": "secondar",
    "8867": " Wik",
    "8868": " Wikipe",
    "8869": " Wikipedi",
    "8870": " AT",
    "8871": "Harle",
    "8872": "Carbon",
    "8873": "ittee ",
    "8874": "egoism",
    "8875": " demo",
    "8876": " democra",
    "8877": "gistic",
    "8878": "Civil",
    "8879": "unctio",
    "8880": "ra, ",
    "8881": "tla (1",
    "8882": "efinition",
    "8883": "gardener",
    "8884": "g. ",
    "8885": "ased on ",
    "8886": "conflict",
    "8887": "7th day of ",
    "8888": "native ",
    "8889": "Song",
    "8890": "optical",
    "8891": "prieta",
    "8892": "In 19",
    "8893": "putation",
    "8894": " Its ",
    "8895": "cteria",
    "8896": "international ",
    "8897": "Austr",
    "8898": "tudy",
    "8899": "tudying",
    "8900": "ouris",
    "8901": "Shu",
    "8902": "legend",
    "8903": "ocide ",
    "8904": "inally",
    "8905": "called",
    "8906": "Mk.",
    "8907": "st centur",
    "8908": "uva",
    "8909": "kepti",
    "8910": "*200",
    "8911": "upreme ",
    "8912": "maintained",
    "8913": "n, D",
    "8914": "nell",
    "8915": "nell, ",
    "8916": "pole ",
    "8917": "merchan",
    "8918": "loysiu",
    "8919": " No",
    "8920": " Nova",
    "8921": " Nova Sc",
    "8922": " Nova Scoti",
    "8923": "issioned",
    "8924": "issioned by ",
    "8925": " until ",
    "8926": "naming",
    "8927": "1 /math",
    "8928": "vince ",
    "8929": "umerou",
    "8930": "umerous ",
    "8931": "piracy",
    "8932": "Yard",
    "8933": "Yards",
    "8934": "Coff",
    "8935": " mechanic",
    "8936": "member of the ",
    "8937": " mus",
    "8938": "Stadium",
    "8939": "s and Bu",
    "8940": "s and Butt",
    "8941": "five ",
    "8942": "endo",
    "8943": "endosy",
    "8944": "endosymb",
    "8945": "cuti",
    "8946": "cuticul",
    "8947": "gative",
    "8948": "velopment",
    "8949": "platea",
    "8950": "formed",
    "8951": "egotiation",
    "8952": "ng K",
    "8953": "ng Kong",
    "8954": "jectio",
    "8955": "octor of ",
    "8956": "diverse",
    "8957": "ated ",
    "8958": "ated land",
    "8959": "fluore",
    "8960": "fluoresc",
    "8961": " data",
    "8962": "ry. ",
    "8963": "icipan",
    "8964": "icipants ",
    "8965": "vented",
    "8966": " Le",
    "8967": " Lev",
    "8968": "d-",
    "8969": "d-ar",
    "8970": "essenger",
    "8971": "establishing",
    "8972": "ppeared ",
    "8973": "shing ",
    "8974": "ided over ",
    "8975": "natoli",
    "8976": "M br",
    "8977": "ealers ",
    "8978": "pitched",
    "8979": "nown as",
    "8980": "hake",
    "8981": "hakespe",
    "8982": "hakespeare",
    "8983": " turned",
    "8984": ".*Ev",
    "8985": "atured",
    "8986": "penhag",
    "8987": "studies",
    "8988": "Elbin",
    "8989": "into",
    "8990": "New Br",
    "8991": "New Brun",
    "8992": "crashe",
    "8993": "formation",
    "8994": "ge from ",
    "8995": "EE ",
    "8996": "n - ",
    "8997": "latitud",
    "8998": "nowledge of ",
    "8999": " mona",
    "9000": " monarch",
    "9001": "nes, ",
    "9002": "Vanu",
    "9003": "vast ",
    "9004": "peaking",
    "9005": "ecil ",
    "9006": "ormat ",
    "9007": "age br",
    "9008": "common law",
    "9009": "name for ",
    "9010": "poly",
    "9011": "tries to ",
    "9012": " languag",
    "9013": "oused ",
    "9014": "sted",
    "9015": "sted, ",
    "9016": "piler",
    "9017": "sz",
    "9018": "toxic",
    "9019": "attacke",
    "9020": "exported",
    "9021": "minimum",
    "9022": "L- ",
    "9023": "s occasi",
    "9024": "annah",
    "9025": "8 to ",
    "9026": "differentia",
    "9027": "differentiate ",
    "9028": "Right",
    "9029": "Fire",
    "9030": "FireWi",
    "9031": "tinue ",
    "9032": "eing ",
    "9033": " astrolog",
    "9034": "longs",
    "9035": "longside",
    "9036": "occer",
    "9037": "TR ",
    "9038": " zon",
    "9039": "80s, ",
    "9040": "threat",
    "9041": "td align",
    "9042": "td align=",
    "9043": "yptio",
    "9044": "-at",
    "9045": "-at-",
    "9046": "-at-ar",
    "9047": "thwest",
    "9048": "i - ",
    "9049": "ce Presid",
    "9050": "First ",
    "9051": "First World",
    "9052": "First World War",
    "9053": "troduced",
    "9054": "ided into ",
    "9055": "erci",
    "9056": "made ",
    "9057": "nstruct",
    "9058": " Cyp",
    "9059": " Cyprio",
    "9060": "pielb",
    "9061": "pielberg",
    "9062": "lyric",
    "9063": "violen",
    "9064": "each.",
    "9065": "ifficul",
    "9066": " knowledg",
    "9067": "eaded ",
    "9068": "Coloss",
    "9069": "WW",
    "9070": "satell",
    "9071": "satellite",
    "9072": "addictio",
    "9073": "golden",
    "9074": "Amsterda",
    "9075": "ccasiona",
    "9076": "glycine",
    "9077": "Sny",
    "9078": "4)*19",
    "9079": "sher",
    "9080": "Kingdom",
    "9081": " us ",
    "9082": " Fit",
    "9083": " Fitz",
    "9084": " Fitzger",
    "9085": " Fitzgerald",
    "9086": "ms) ",
    "9087": "w of ",
    "9088": "spoke ",
    "9089": "gime ",
    "9090": " Scot",
    "9091": "tical ",
    "9092": "Holla",
    "9093": "urdue ",
    "9094": " Ras",
    "9095": " Rasput",
    "9096": " words, ",
    "9097": "raism",
    "9098": "3 mbr",
    "9099": "3 mbr /",
    "9100": "perated ",
    "9101": " (born ",
    "9102": "(D",
    "9103": "(Doct",
    "9104": "determined ",
    "9105": "Docum",
    "9106": "Document ",
    "9107": "natural sel",
    "9108": "natural selectio",
    "9109": "ngoli",
    "9110": " around",
    "9111": "number /t",
    "9112": "invo",
    "9113": "pioneer",
    "9114": "water",
    "9115": " /tt ",
    "9116": "rested ",
    "9117": " refer ",
    "9118": " refer to ",
    "9119": "ainly ",
    "9120": "stant ",
    "9121": "emitic ",
    "9122": "Hampshire",
    "9123": "of Chin",
    "9124": "sparse ",
    "9125": "igent ",
    "9126": "mm) ",
    "9127": "Semi",
    "9128": "begin",
    "9129": "beginning",
    "9130": " Atlanti",
    "9131": " now ",
    "9132": "several ",
    "9133": "sorts ",
    "9134": "percus",
    "9135": "percussion",
    "9136": "nquered",
    "9137": "Matthe",
    "9138": "Italian",
    "9139": " Yard",
    "9140": "us;",
    "9141": "administrative",
    "9142": "substan",
    "9143": "substantia",
    "9144": "substantial ",
    "9145": "170",
    "9146": "in Ham",
    "9147": "in Hambur",
    "9148": "eceived",
    "9149": "understanding",
    "9150": "Canada",
    "9151": " on ",
    "9152": "izenship",
    "9153": "/H",
    "9154": "/Hurd",
    "9155": "diction ",
    "9156": "also",
    "9157": "gned ",
    "9158": " movie",
    "9159": "sured ",
    "9160": "cially",
    "9161": "RC ",
    "9162": "place. ",
    "9163": "IC",
    "9164": "pupi",
    "9165": "nds ",
    "9166": "sports ",
    "9167": "areer ",
    "9168": "t with",
    "9169": "eturn",
    "9170": "putative",
    "9171": "dance ",
    "9172": "by Ru",
    "9173": "terpre",
    "9174": "immediate",
    "9175": "immediately ",
    "9176": "ential",
    "9177": "entialism",
    "9178": "ester",
    "9179": "engthe",
    "9180": " Colorado",
    "9181": "erted",
    "9182": "before",
    "9183": "anging",
    "9184": "ngze",
    "9185": "nsation",
    "9186": "manent ",
    "9187": "persecutio",
    "9188": "itable",
    "9189": "essential ",
    "9190": "essential charact",
    "9191": " endo",
    "9192": " endosy",
    "9193": " endosymb",
    "9194": "shall",
    "9195": "solar",
    "9196": " Rule",
    "9197": " played",
    "9198": "quitt",
    "9199": "quitted",
    "9200": "ccepted ",
    "9201": " of time",
    "9202": "product",
    "9203": "productio",
    "9204": "partici",
    "9205": "participat",
    "9206": "EV",
    "9207": "eighbor",
    "9208": "learning",
    "9209": "rt stor",
    "9210": "cided",
    "9211": "relatively ",
    "9212": "position /",
    "9213": "meroon",
    "9214": "estion",
    "9215": "Committ",
    "9216": "way - ",
    "9217": "experienced ",
    "9218": " born in ",
    "9219": " born in Ham",
    "9220": " born in Hambur",
    "9221": "basis of ",
    "9222": "morning",
    "9223": "morning*",
    "9224": "Korea",
    "9225": "Korea, ",
    "9226": "after",
    "9227": "hips",
    "9228": "llowed",
    "9229": "efining",
    "9230": "Poor",
    "9231": "that one",
    "9232": "that one*",
    "9233": "influe",
    "9234": "influenti",
    "9235": "influential ",
    "9236": "iro, ",
    "9237": "1)*19",
    "9238": "Peter",
    "9239": "b-",
    "9240": "1th ",
    "9241": "valley",
    "9242": "packa",
    "9243": " togeth",
    "9244": " together ",
    "9245": "create",
    "9246": "ntly, ",
    "9247": "ackles",
    "9248": " was ",
    "9249": " that year",
    "9250": "contain",
    "9251": "aparth",
    "9252": "aparthei",
    "9253": "run ",
    "9254": "emand ",
    "9255": "droa",
    "9256": "almost",
    "9257": "oded",
    "9258": "communicatio",
    "9259": " and bass",
    "9260": "less tha",
    "9261": "less than ",
    "9262": "preserv",
    "9263": "returned to ",
    "9264": "aged to ",
    "9265": "rt, ",
    "9266": "pray",
    "9267": "States ",
    "9268": "underground",
    "9269": "ecover",
    "9270": "ecovered",
    "9271": "ifferences",
    "9272": "pplied",
    "9273": "vature",
    "9274": "arrangement",
    "9275": "viewer",
    "9276": "damag",
    "9277": "varian",
    "9278": "vestig",
    "9279": "media",
    "9280": " American ",
    "9281": "rtup ",
    "9282": "+ /su",
    "9283": "tells ",
    "9284": "II",
    "9285": "Fit",
    "9286": "Fitz",
    "9287": "Fitzger",
    "9288": "Fitzgerald",
    "9289": " wheel",
    "9290": "-spea",
    "9291": "quired ",
    "9292": "arrass",
    "9293": "tinct ",
    "9294": "erful ",
    "9295": "gway",
    "9296": "H sup",
    "9297": "another",
    "9298": "mwood",
    "9299": "property ",
    "9300": "executio",
    "9301": "gained",
    "9302": "nts ",
    "9303": "amily*",
    "9304": "words ",
    "9305": "Football Leagu",
    "9306": "enemy ",
    "9307": "ocial ",
    "9308": "ctivity",
    "9309": "largest ",
    "9310": "ingual",
    "9311": "quires ",
    "9312": "e gun",
    "9313": "0)*19",
    "9314": "taken ",
    "9315": "action ",
    "9316": "action of ",
    "9317": "70)*",
    "9318": "3)*189",
    "9319": "stroph",
    "9320": "clav",
    "9321": "Diego",
    "9322": "to 1,",
    "9323": "ctivel",
    "9324": "quota",
    "9325": "Cimmer",
    "9326": "Cimmerian",
    "9327": "rland ",
    "9328": "e and ",
    "9329": "Security ",
    "9330": "Asse",
    "9331": "Assembl",
    "9332": "rmenia",
    "9333": " '",
    "9334": "quency ",
    "9335": "acknowledg",
    "9336": "causes ",
    "9337": " De",
    "9338": " Deser",
    "9339": " minu",
    "9340": "ganized",
    "9341": "pled ",
    "9342": "20, Ru",
    "9343": "20, Russe",
    "9344": "reach ",
    "9345": "Maimon",
    "9346": "Ether",
    "9347": "est in ",
    "9348": "dimen",
    "9349": "dimension",
    "9350": "referring ",
    "9351": "referring to ",
    "9352": "prevalen",
    "9353": "prevalent ",
    "9354": "izable",
    "9355": "synt",
    "9356": "syntax",
    "9357": "commodat",
    "9358": "iago",
    "9359": "roele",
    "9360": "roelectronic",
    "9361": "dentified",
    "9362": "respective",
    "9363": "Crass",
    "9364": "eleven ",
    "9365": "braic ",
    "9366": " offered",
    "9367": "bout",
    "9368": "tinum",
    "9369": "rily ",
    "9370": "lock",
    "9371": "lockquo",
    "9372": "hallen",
    "9373": "oglobin",
    "9374": "e#C",
    "9375": "e#Cege",
    "9376": " glid",
    "9377": " gliders ",
    "9378": "m, ",
    "9379": "irvan",
    "9380": "prescri",
    "9381": "prescripti",
    "9382": " breat",
    "9383": "captur",
    "9384": "sh's ",
    "9385": "onsist",
    "9386": "Platea",
    "9387": " ego",
    "9388": "Depres",
    "9389": "ialism",
    "9390": "cused",
    "9391": "agus*",
    "9392": "shnu",
    "9393": "ttgen",
    "9394": "ttgenste",
    "9395": "Claudius",
    "9396": "verthe",
    "9397": "vertheless",
    "9398": "encrypt",
    "9399": "e base",
    "9400": "y age ",
    "9401": "y age ann",
    "9402": "orthograph",
    "9403": "ttempt to ",
    "9404": "Cele",
    "9405": "Celesti",
    "9406": "quator",
    "9407": "quatorial ",
    "9408": "quatorial Guine",
    "9409": "B br",
    "9410": "Einst",
    "9411": "Einstein",
    "9412": "announcem",
    "9413": "Love",
    "9414": "Lovecraft",
    "9415": "b, ",
    "9416": " netw",
    "9417": " network",
    "9418": "falling",
    "9419": "hloride",
    "9420": "created",
    "9421": "Hip",
    "9422": " pipe",
    "9423": " imported",
    "9424": "middle ",
    "9425": "pp. ",
    "9426": "aboli",
    "9427": "abolism",
    "9428": "highly ",
    "9429": "-thi",
    "9430": ". Scot",
    "9431": "Ka",
    "9432": "Kaf",
    "9433": "Kafka",
    "9434": " or wh",
    "9435": " or white",
    "9436": "years ",
    "9437": "pecification",
    "9438": "Angora",
    "9439": "rds ",
    "9440": "essay",
    "9441": "DVD",
    "9442": " nit",
    "9443": "Elev",
    "9444": "Elevation",
    "9445": "rament",
    "9446": "s from ",
    "9447": "tactic",
    "9448": "login ",
    "9449": " they",
    "9450": "between ",
    "9451": "or she ",
    "9452": "9)*19",
    "9453": " hel",
    "9454": "ization",
    "9455": "belong",
    "9456": "erstood ",
    "9457": "dministrative",
    "9458": "gotiation",
    "9459": "lengt",
    "9460": "er-",
    "9461": "r team",
    "9462": "itimac",
    "9463": "Alani",
    "9464": "179",
    "9465": " half ",
    "9466": "auch",
    "9467": "auchbi",
    "9468": "ngoin",
    "9469": "presentation",
    "9470": "ests ",
    "9471": "uccess",
    "9472": "uccessful",
    "9473": "ultivat",
    "9474": "times been",
    "9475": "destroy ",
    "9476": "trol ",
    "9477": "fluenc",
    "9478": "arently",
    "9479": "pful",
    "9480": "friend ",
    "9481": "of year",
    "9482": "Charl",
    "9483": "tected",
    "9484": "us re",
    "9485": "influenced",
    "9486": "answer",
    "9487": "jmp",
    "9488": "space",
    "9489": " side",
    "9490": "17)*",
    "9491": "rlemagn",
    "9492": "hosts ",
    "9493": " typically ",
    "9494": "b al",
    "9495": "b al-",
    "9496": "ty Colleg",
    "9497": "paranor",
    "9498": "paranormal",
    "9499": "tains ",
    "9500": "ch Vi",
    "9501": "one ano",
    "9502": "one another",
    "9503": "Hegelian",
    "9504": "aintained",
    "9505": "ling, ",
    "9506": "sector",
    "9507": "exodu",
    "9508": "ited as ",
    "9509": "ies--",
    "9510": "atches ",
    "9511": "life",
    "9512": "life, ",
    "9513": "including",
    "9514": "delivered",
    "9515": "engagement",
    "9516": "ckney",
    "9517": " longer",
    "9518": "partment",
    "9519": "asically",
    "9520": "U/",
    "9521": "U/H",
    "9522": "U/Hurd",
    "9523": "Amiga",
    "9524": "long",
    "9525": "urred",
    "9526": "es. ",
    "9527": "thing ",
    "9528": "*Ap",
    "9529": "*Apach",
    "9530": "seud",
    "9531": "hold that ",
    "9532": "hold that ange",
    "9533": "encryptio",
    "9534": "cinema",
    "9535": "rise of ",
    "9536": "variab",
    "9537": "alleged",
    "9538": "help ",
    "9539": "Phil",
    "9540": "4 17",
    "9541": "43",
    "9542": "rayal ",
    "9543": "rayal of ",
    "9544": "rigor",
    "9545": "rigorous",
    "9546": "fer, ",
    "9547": " viruses ",
    "9548": "1;",
    "9549": "wbo",
    "9550": "People",
    "9551": "tagonia",
    "9552": "ructio",
    "9553": "Hurd",
    "9554": "fough",
    "9555": "fought ",
    "9556": "usage of ",
    "9557": "anage ",
    "9558": "- design",
    "9559": "- designation",
    "9560": "erarch",
    "9561": "Indiana",
    "9562": "A.",
    "9563": "A.D",
    "9564": "0 mbr",
    "9565": "oking",
    "9566": "TO ",
    "9567": "ce to ",
    "9568": "exactly",
    "9569": " decision",
    "9570": "hoeni",
    "9571": "5, 19",
    "9572": "600)*",
    "9573": "eb brow",
    "9574": "eb browser",
    "9575": "tism ",
    "9576": "Czech",
    "9577": "ls (19",
    "9578": "heavily ",
    "9579": "Hoosi",
    "9580": "faith ",
    "9581": "third lay",
    "9582": "ormed",
    "9583": " alti",
    "9584": " altitu",
    "9585": " gly",
    "9586": " you",
    "9587": "allegedly ",
    "9588": "drawn",
    "9589": " Ireland",
    "9590": "ths, ",
    "9591": "sence ",
    "9592": "mmerian",
    "9593": "yone ",
    "9594": "Geneva",
    "9595": "ulfe",
    "9596": "Brun",
    "9597": "Brunei",
    "9598": "view ",
    "9599": "mportant",
    "9600": "Windows ",
    "9601": "hilip",
    "9602": "ty to ",
    "9603": "de-",
    "9604": "ylum",
    "9605": "Mark ",
    "9606": "thern A",
    "9607": "thern Australi",
    "9608": "Hispani",
    "9609": "ciona",
    "9610": "guel ",
    "9611": "victory",
    "9612": "Alexand",
    "9613": " River",
    "9614": "hostile ",
    "9615": "De ",
    "9616": "De Pa",
    "9617": "nguish",
[...]
