{
  "id2token": {
    "0": "\n",
    "1": " ",
    "2": "!",
    "3": "#",
    "4": "$",
    "5": "%",
    "6": "'",
    "7": "(",
    "8": ")",
    "9": "*",
    "10": "+",
    "11": ",",
    "12": "-",
    "13": ".",
    "14": "/",
    "15": "0",
    "16": "1",
    "17": "2",
    "18": "3",
    "19": "4",
    "20": "5",
    "21": "6",
    "22": "7",
    "23": "8",
    "24": "9",
    "25": ":",
    "26": ";",
    "27": "=",
    "28": "?",
    "29": "@",
    "30": "A",
    "31": "B",
    "32": "C",
    "33": "D",
    "34": "E",
    "35": "F",
    "36": "G",
    "37": "H",
    "38": "I",
    "39": "J",
    "40": "K",
    "41": "L",
    "42": "M",
    "43": "N",
    "44": "O",
    "45": "P",
    "46": "Q",
    "47": "R",
    "48": "S",
    "49": "T",
    "50": "U",
    "51": "V",
    "52": "W",
    "53": "X",
    "54": "Y",
    "55": "Z",
    "56": "\\",
    "57": "^",
    "58": "_",
    "59": "`",
    "60": "a",
    "61": "b",
    "62": "c",
    "63": "d",
    "64": "e",
    "65": "f",
    "66": "g",
    "67": "h",
    "68": "i",
    "69": "j",
    "70": "k",
    "71": "l",
    "72": "m",
    "73": "n",
    "74": "o",
    "75": "p",
    "76": "q",
    "77": "r",
    "78": "s",
    "79": "t",
    "80": "u",
    "81": "v",
    "82": "w",
    "83": "x",
    "84": "y",
    "85": "z",
    "86": "{",
    "87": "|",
    "88": "}",
    "89": "~",
    "90": "<|endoftext|>",
    "91": "<pad>",
    "92": "<USER> ",
    "93": "<ASSISTANT> ",
    "94": "pt",
    "95": "ma",
    "96": "mas",
    "97": "!-",
    "98": "so",
    "99": "som",
    "100": "ju",
    "101": "it",
    "102": "ith",
    "103": "ithe",
    "104": "ep",
    "105": "epe",
    "106": "Mo",
    "107": "Moo",
    "108": "Moor",
    "109": "si",
    "110": "sid",
    "111": "side",
    "112": "sider",
    "113": "el",
    "114": "ele",
    "115": "elec",
    "116": "elect",
    "117": "br",
    "118": "br ",
    "119": "ri",
    "120": "rib",
    "121": "ribu",
    "122": "rf",
    "123": "rfa",
    "124": "rfac",
    "125": "ta",
    "126": "tal",
    "127": "tala",
    "128": "talan",
    "129": "- ",
    "130": "as",
    "131": "ase",
    "132": "ased",
    "133": "is",
    "134": "iss",
    "135": "ei",
    "136": "ein",
    "137": "ua",
    "138": "ual",
    "139": "uall",
    "140": "eb",
    "141": "ebr",
    "142": "ebra",
    "143": "fo",
    "144": "foo",
    "145": "foot",
    "146": "footb",
    "147": "footba",
    "148": "footbal",
    "149": "ro",
    "150": "roe",
    "151": "roez",
    "152": "roeze",
    "153": "H.",
    "154": "cy",
    "155": "st",
    "156": "ste",
    "157": "ar",
    "158": "ari",
    "159": "arin",
    "160": "aring",
    "161": "yz",
    "162": "yza",
    "163": "yzan",
    "164": "yzant",
    "165": "yzanti",
    "166": "ho",
    "167": "how",
    "168": "howe",
    "169": "howev",
    "170": "ic",
    "171": "ice",
    "172": "ti",
    "173": "tin",
    "174": "ol",
    "175": "olu",
    "176": "olut",
    "177": "oluti",
    "178": "se",
    "179": "see",
    "180": "eli",
    "181": "oo",
    "182": "oot",
    "183": "ootb",
    "184": "ootba",
    "185": "Ci",
    "186": "Civ",
    "187": "Civi",
    "188": "la",
    "189": "lam",
    "190": "lama",
    "191": "ab",
    "192": "abo",
    "193": "abou",
    "194": "about",
    "195": "wa",
    "196": "was",
    "197": "uc",
    "198": "uch",
    "199": "Ph",
    "200": "Pho",
    "201": "Phoe",
    "202": "Phoeb",
    "203": "ew",
    "204": "ewt",
    "205": "ewto",
    "206": "ewton",
    "207": " f",
    "208": "ne",
    "209": "nea",
    "210": "le",
    "211": "les",
    "212": "lest",
    "213": "leste",
    "214": "eld",
    "215": "et",
    "216": "etw",
    "217": "etwe",
    "218": "at",
    "219": "ate",
    "220": "ater",
    "221": "ko",
    "222": "kot",
    "223": "kota",
    "224": "Es",
    "225": "Esp",
    "226": "Espe",
    "227": "Esper",
    "228": " fr",
    "229": " fro",
    "230": " from",
    "231": "rt",
    "232": "rtu",
    "233": "rtun",
    "234": "ca",
    "235": "cas",
    "236": "n-",
    "237": "n-d",
    "238": "n-de",
    "239": "n-dec",
    "240": "ec",
    "241": "ecd",
    "242": "ecdo",
    "243": "ecdot",
    "244": "um",
    "245": "umb",
    "246": "umbe",
    "247": "L ",
    "248": "7 ",
    "249": "7 -",
    "250": "7 - ",
    "251": "it ",
    "252": "eler",
    "253": "ria",
    "254": "riat",
    "255": "nz",
    "256": "nzy",
    "257": "nzym",
    "258": "nn",
    "259": "nne",
    "260": "ex",
    "261": "exa",
    "262": "exam",
    "263": "examp",
    "264": "exampl",
    "265": "isl",
    "266": "isla",
    "267": "islan",
    "268": "ea",
    "269": "ean",
    "270": "eans",
    "271": "eans ",
    "272": " w",
    "273": " wi",
    "274": "4-",
    "275": "be",
    "276": "bet",
    "277": "betw",
    "278": "betwe",
    "279": "betwee",
    "280": "kh",
    "281": "ler",
    "282": "e ",
    "283": "e m",
    "284": "e mi",
    "285": "sp",
    "286": "spe",
    "287": "spec",
    "288": "re",
    "289": "ree",
    "290": "ree ",
    "291": "rr",
    "292": "rri",
    "293": "rrit",
    "294": "rrito",
    "295": "c.",
    "296": "c. ",
    "297": "an",
    "298": "ang",
    "299": "ange",
    "300": "anger",
    "301": "0,",
    "302": "0,0",
    "303": "0,00",
    "304": "0,000",
    "305": "gm",
    "306": "gma",
    "307": "sm",
    "308": "sms",
    "309": "de",
    "310": "dea",
    "311": "deau",
    "312": "hi",
    "313": "his",
    "314": "his ",
    "315": "tt",
    "316": "tto",
    "317": "ttom",
    "318": "ut",
    "319": "uth",
    "320": "utho",
    "321": "uthor",
    "322": "ug",
    "323": "ugh",
    "324": "ge",
    "325": "gel",
    "326": "ume",
    "327": "umer",
    "328": "tte",
    "329": "tter",
    "330": "7;",
    "331": "za",
    "332": "Se",
    "333": "Sem",
    "334": "Semi",
    "335": "(s",
    "336": "(s)",
    "337": "lo",
    "338": "lop",
    "339": "Wh",
    "340": "Whe",
    "341": "Whet",
    "342": "Wheth",
    "343": "Whethe",
    "344": "low",
    "345": "lowe",
    "346": "lowed",
    "347": "rd",
    "348": "rdi",
    "349": "rdil",
    "350": "gr",
    "351": "gre",
    "352": "gres",
    "353": "gress",
    "354": "asi",
    "355": "asio",
    "356": "nt",
    "357": "ap",
    "358": "bi",
    "359": "bis",
    "360": "bish",
    "361": "bisho",
    "362": "bishop",
    "363": "tti",
    "364": "ttin",
    "365": "ja",
    "366": "*L",
    "367": "los",
    "368": "rte",
    "369": "itr",
    "370": "ss",
    "371": "sse",
    "372": "sser",
    "373": "om",
    "374": "ome",
    "375": "ased ",
    "376": "7)",
    "377": "7)*",
    "378": "te",
    "379": "ter",
    "380": "tern",
    "381": "to",
    "382": "tor",
    "383": " U",
    "384": " Un",
    "385": " Uni",
    "386": "me",
    "387": "mes",
    "388": "res",
    "389": "je",
    "390": "jec",
    "391": "ad",
    "392": "ade",
    "393": " \\",
    "394": "tak",
    "395": "IO",
    "396": "IOS",
    "397": "ai",
    "398": "aim",
    "399": "ur",
    "400": "urs",
    "401": "urse",
    "402": "al",
    "403": "ale",
    "404": "Gu",
    "405": "Gua",
    "406": "Guam",
    "407": "tr",
    "408": "tra",
    "409": "eba",
    "410": "ebal",
    "411": "ser",
    "412": "ou",
    "413": "oul",
    "414": "ould",
    "415": "nti",
    "416": "ntin",
    "417": "ij",
    "418": "iji",
    "419": "nen",
    "420": "abi",
    "421": "abin",
    "422": "get",
    "423": "geth",
    "424": "pu",
    "425": "put",
    "426": "li",
    "427": "lig",
    "428": "ligi",
    "429": "ligio",
    "430": "sw",
    "431": " fe",
    "432": "in",
    "433": "ind",
    "434": "d ",
    "435": "1}",
    "436": "ugu",
    "437": "ugus",
    "438": "rit",
    "439": "riti",
    "440": "ritis",
    "441": "do",
    "442": "dom",
    "443": "doma",
    "444": "domai",
    "445": "4 ",
    "446": "4 y",
    "447": "4 ye",
    "448": "4 yea",
    "449": "hl",
    "450": "hle",
    "451": "iti",
    "452": "itie",
    "453": "pa",
    "454": "pan",
    "455": "pani",
    "456": "ll",
    "457": "lle",
    "458": "llec",
    "459": "llect",
    "460": "Ra",
    "461": "Rab",
    "462": "Rabb",
    "463": "gg",
    "464": "gge",
    "465": "gger",
    "466": "er",
    "467": "erg",
    "468": "dr",
    "469": "dre",
    "470": "lik",
    "471": "like",
    "472": "med",
    "473": "As",
    "474": "Ass",
    "475": "Assy",
    "476": "Assyr",
    "477": "ay",
    "478": "ayi",
    "479": "ayin",
    "480": "dw",
    "481": "dwi",
    "482": "dwin",
    "483": "sis",
    "484": "sis ",
    "485": "Li",
    "486": "Lin",
    "487": "Linc",
    "488": "Linco",
    "489": "Lincol",
    "490": "pte",
    "491": "ptem",
    "492": "ptemb",
    "493": "1-",
    "494": "40",
    "495": "400",
    "496": "ld",
    "497": "ld ",
    "498": "iz",
    "499": "ize",
    "500": "ized",
    "501": "en",
    "502": "ene",
    "503": "ener",
    "504": "az",
    "505": "azz",
    "506": "str",
    "507": "stri",
    "508": "8)",
    "509": "iv",
    "510": "ive",
    "511": "iven",
    "512": "tinu",
    "513": "aru",
    "514": "us",
    "515": "ush",
    "516": "#V",
    "517": "#Vi",
    "518": "vi",
    "519": "vin",
    "520": "PU",
    "521": "ah",
    "522": "bec",
    "523": "beca",
    "524": "becam",
    "525": "co",
    "526": "cou",
    "527": "coul",
    "528": "could",
    "529": "log",
    "530": "cm",
    "531": "pter",
    "532": "tw",
    "533": "twe",
    "534": "twee",
    "535": "lio",
    "536": "di",
    "537": "diu",
    "538": "dium",
    "539": "ve",
    "540": "ver",
    "541": "vern",
    "542": "sea",
    "543": "seas",
    "544": "ac",
    "545": "act",
    "546": "acti",
    "547": "sel",
    "548": "sely",
    "549": "ra",
    "550": "ral",
    "551": "ateg",
    "552": "og",
    "553": "ogr",
    "554": "hb",
    "555": "wh",
    "556": "whi",
    "557": "whic",
    "558": "which",
    "559": "which ",
    "560": "mo",
    "561": "moc",
    "562": "mocr",
    "563": "com",
    "564": "comp",
    "565": "compr",
    "566": "compre",
    "567": "su",
    "568": "sui",
    "569": "suit",
    "570": "ses",
    "571": "sess",
    "572": "ee",
    "573": "eek",
    "574": "ni",
    "575": "niv",
    "576": "nive",
    "577": "niver",
    "578": "nivers",
    "579": "hr",
    "580": "hro",
    "581": "omb",
    "582": "ig",
    "583": "igi",
    "584": "igin",
    "585": "sec",
    "586": "secu",
    "587": "gn",
    "588": "erb",
    "589": "usi",
    "590": "usin",
    "591": "bb",
    "592": "bbe",
    "593": "bbed",
    "594": " a",
    "595": " as",
    "596": "ist",
    "597": "istr",
    "598": "istri",
    "599": "istrib",
    "600": "istribu",
    "601": "CT",
    "602": "CT ",
    "603": "ye",
    "604": "yea",
    "605": "year",
    "606": "eti",
    "607": "etic",
    "608": "fu",
    "609": "fug",
    "610": "fuge",
    "611": "ney",
    "612": "ag",
    "613": "ago",
    "614": "yl",
    "615": "yll",
    "616": "ris",
    "617": "rs",
    "618": "rsu",
    "619": "00",
    "620": "000",
    "621": "on",
    "622": "ong",
    "623": "ong ",
    "624": "hip",
    "625": "ech",
    "626": "echn",
    "627": "Yo",
    "628": "Yor",
    "629": "Cu",
    "630": "Cup",
    "631": "siz",
    "632": "ok",
    "633": "oke",
    "634": "0s",
    "635": "0s ",
    "636": "s'",
    "637": " t",
    "638": " th",
    "639": "Wa",
    "640": "War",
    "641": "oli",
    "642": "hig",
    "643": "high",
    "644": "mi",
    "645": "min",
    "646": "mins",
    "647": "icu",
    "648": "icut",
    "649": "tem",
    "650": "teme",
    "651": "temen",
    "652": "tement",
    "653": "int",
    "654": "inth",
    "655": "inthi",
    "656": "inthia",
    "657": "em",
    "658": "eme",
    "659": "emen",
    "660": "ce",
    "661": "cer",
    "662": "cert",
    "663": "-v",
    "664": "-vo",
    "665": "/m",
    "666": "/ma",
    "667": "/mat",
    "668": "/math",
    "669": "if",
    "670": "ifi",
    "671": "ific",
    "672": "ifica",
    "673": "CO",
    "674": "CO ",
    "675": "emb",
    "676": "embe",
    "677": "bt",
    "678": "lel",
    "679": "au",
    "680": "aus",
    "681": "AS",
    "682": "lk",
    "683": "lka",
    "684": "lkal",
    "685": "vel",
    "686": "red",
    "687": "red ",
    "688": "elt",
    "689": "elte",
    "690": "elter",
    "691": "Va",
    "692": "Van",
    "693": "Van ",
    "694": "Van H",
    "695": "Van He",
    "696": "Van Hel",
    "697": "Van Hels",
    "698": "Van Helsi",
    "699": "Van Helsin",
    "700": "ct",
    "701": "ct ",
    "702": "ct t",
    "703": "ct th",
    "704": "py",
    "705": "pyr",
    "706": "pyri",
    "707": "era",
    "708": "du",
    "709": "dur",
    "710": "duri",
    "711": " A",
    "712": " Am",
    "713": "So",
    "714": "Sou",
    "715": "Sout",
    "716": "yg",
    "717": "hu",
    "718": "hum",
    "719": "huma",
    "720": "human",
    "721": "rea",
    "722": "real",
    "723": "ana",
    "724": "anad",
    "725": "erm",
    "726": "erma",
    "727": "erman",
    "728": "bl",
    "729": "bli",
    "730": "sul",
    "731": "sult",
    "732": "th",
    "733": "tha",
    "734": "that",
    "735": "that ",
    "736": "urn",
    "737": "urn ",
    "738": "yd",
    "739": "ydr",
    "740": "ign",
    "741": "wp",
    "742": "wpo",
    "743": "xy",
    "744": "ont",
    "745": "onte",
    "746": "onten",
    "747": "ontene",
    "748": "rad",
    "749": "radi",
    "750": "are",
    "751": "are ",
    "752": "vo",
    "753": "vot",
    "754": "Re",
    "755": "Rep",
    "756": "Repu",
    "757": "Repub",
    "758": "oc",
    "759": "oci",
    "760": "ocia",
    "761": "uti",
    "762": "utin",
    "763": "kn",
    "764": "kno",
    "765": "know",
    "766": "knowl",
    "767": "knowle",
    "768": "than",
    "769": "ales",
    "770": "pi",
    "771": "pin",
    "772": "icl",
    "773": "ool",
    "774": "hre",
    "775": "hren",
    "776": "hrenh",
    "777": "hrenhe",
    "778": "fs",
    "779": "fs ",
    "780": "3)",
    "781": "cat",
    "782": "fr",
    "783": "fri",
    "784": "frie",
    "785": "frien",
    "786": "friend",
    "787": "(b",
    "788": "(b.",
    "789": "(b. ",
    "790": "geo",
    "791": "vers",
    "792": "versi",
    "793": "mit",
    "794": "igni",
    "795": "ignif",
    "796": "rb",
    "797": "rby",
    "798": "ul",
    "799": "uld",
    "800": "ulde",
    "801": "ulder",
    "802": "ted",
    "803": "ted ",
    "804": "gra",
    "805": "gram",
    "806": "y ",
    "807": "y s",
    "808": "y si",
    "809": " k",
    "810": " kn",
    "811": " kno",
    "812": " know",
    "813": "ks",
    "814": "Na",
    "815": "Nav",
    "816": "C)",
    "817": "rot",
    "818": "rote",
    "819": "pl",
    "820": "plo",
    "821": "un",
    "822": "unc",
    "823": "tec",
    "824": "is ",
    "825": "ley",
    "826": "lin",
    "827": "lind",
    "828": "::",
    "829": "ran",
    "830": "ms",
    "831": "mst",
    "832": "dio",
    "833": "po",
    "834": "por",
    "835": "ast",
    "836": "ot",
    "837": "otb",
    "838": "otba",
    "839": "otbal",
    "840": "tis",
    "841": "xi",
    "842": "mil",
    "843": "req",
    "844": "requ",
    "845": "pit",
    "846": "K-",
    "847": "til",
    "848": "2 ",
    "849": "2 B",
    "850": "2 BC",
    "851": "na",
    "852": "nar",
    "853": "narc",
    "854": "nd",
    "855": "ndi",
    "856": "ndit",
    "857": "ali",
    "858": "Ki",
    "859": "Kin",
    "860": "King",
    "861": "King ",
    "862": "il",
    "863": "ila",
    "864": "lie",
    "865": "liev",
    "866": "Po",
    "867": "Pol",
    "868": "due",
    "869": "due ",
    "870": ".e",
    "871": "*B",
    "872": "*Ba",
    "873": "*Ban",
    "874": "*Bang",
    "875": "Gi",
    "876": "Gib",
    "877": "lar",
    "878": "larg",
    "879": "tu",
    "880": "tua",
    "881": "tuat",
    "882": "uss",
    "883": "ust",
    "884": "usto",
    "885": "k ",
    "886": "ox",
    "887": "20",
    "888": "Fe",
    "889": "Fer",
    "890": "Ferr",
    "891": "Ferra",
    "892": "Ferrar",
    "893": "he",
    "894": "hel",
    "895": "held",
    "896": "rk",
    "897": "rke",
    "898": "rket",
    "899": "op",
    "900": "opp",
    "901": "oppe",
    "902": "opped",
    "903": "(d",
    "904": "(d.",
    "905": "(d. ",
    "906": "ect",
    "907": "fa",
    "908": "far",
    "909": "air",
    "910": "ui",
    "911": "dit",
    "912": "diti",
    "913": "ditio",
    "914": "dition",
    "915": "fe",
    "916": "fes",
    "917": "fess",
    "918": "dl",
    "919": "dla",
    "920": "Am",
    "921": "Ame",
    "922": "Amer",
    "923": "Ameri",
    "924": "rted",
    "925": "ev",
    "926": "eve",
    "927": "ever",
    "928": "Wi",
    "929": "Wil",
    "930": "cti",
    "931": "ki",
    "932": "kil",
    "933": "kill",
    "934": "ifie",
    "935": "ified",
    "936": "yi",
    "937": "yie",
    "938": "yiel",
    "939": "one",
    "940": "ones",
    "941": "tan",
    "942": "tann",
    "943": "gy",
    "944": "gyp",
    "945": "gypt",
    "946": "ow",
    "947": "owa",
    "948": "rg",
    "949": "rge",
    "950": "ctl",
    "951": "ctly",
    "952": "o ",
    "953": "tm",
    "954": "h ",
    "955": "rti",
    "956": "rtic",
    "957": "rta",
    "958": "rtak",
    "959": "bit",
    "960": "eld ",
    "961": "for",
    "962": "fore",
    "963": "bef",
    "964": "befo",
    "965": "befor",
    "966": "nc",
    "967": "tera",
    "968": "bu",
    "969": "but",
    "970": "but ",
    "971": "onq",
    "972": "onqu",
    "973": "im",
    "974": "lon",
    "975": "long",
    "976": "ity",
    "977": "ity ",
    "978": "tisf",
    "979": "onee",
    "980": "oneer",
    "981": "serv",
    "982": "Le",
    "983": "rw",
    "984": "rwa",
    "985": "gl",
    "986": "des",
    "987": "lea",
    "988": "vio",
    "989": "viou",
    "990": "ov",
    "991": "ic ",
    "992": "pite",
    "993": "pite ",
    "994": "bbr",
    "995": "yp",
    "996": "eak",
    "997": "ym",
    "998": "ymp",
    "999": "rse",
    "1000": "wo",
    "1001": "ns",
    "1002": "nst",
    "1003": "s ",
    "1004": "s (",
    "1005": "ica",
    "1006": "ican",
    "1007": ", ",
    "1008": "medi",
    "1009": "uri",
    "1010": "urin",
    "1011": "/A",
    "1012": "/A-",
    "1013": "ga",
    "1014": "gam",
    "1015": "Eu",
    "1016": "Eur",
    "1017": "ka",
    "1018": "ka ",
    "1019": "d o",
    "1020": "rov",
    "1021": "rove",
    "1022": "rover",
    "1023": "mm",
    "1024": "mma",
    "1025": " s",
    "1026": "igh",
    "1027": "anu",
    "1028": "anua",
    "1029": "anuar",
    "1030": "ir",
    "1031": "irc",
    "1032": "cea",
    "1033": "wi",
    "1034": "wit",
    "1035": "zb",
    "1036": "zbe",
    "1037": "zbek",
    "1038": "ilu",
    "1039": "ilur",
    "1040": "ilure",
    "1041": "erc",
    "1042": " i",
    "1043": " in",
    "1044": " in ",
    "1045": "ud",
    "1046": "uda",
    "1047": "udan",
    "1048": "\\s",
    "1049": "\\sq",
    "1050": "\\sqr",
    "1051": "uf",
    "1052": "ufa",
    "1053": "ufac",
    "1054": "ufact",
    "1055": "sd",
    "1056": "sdo",
    "1057": " is",
    "1058": " is ",
    "1059": "nary",
    "1060": "iver",
    "1061": "voi",
    "1062": "void",
    "1063": "rds",
    "1064": "cyc",
    "1065": "cycl",
    "1066": "sl",
    "1067": "gan",
    "1068": "f(",
    "1069": "f(x",
    "1070": "f(x)",
    "1071": "os",
    "1072": "osp",
    "1073": "osph",
    "1074": "nste",
    "1075": "nster",
    "1076": "PA",
    "1077": "PAC",
    "1078": "PAC ",
    "1079": "mu",
    "1080": "mus",
    "1081": "musi",
    "1082": "ls",
    "1083": "ke",
    "1084": "ken",
    "1085": "An",
    "1086": "Ant",
    "1087": "ain",
    "1088": "tea",
    "1089": "team",
    "1090": "aint",
    "1091": "Go",
    "1092": "Gov",
    "1093": "Gove",
    "1094": "Gover",
    "1095": "bee",
    "1096": "been",
    "1097": "been ",
    "1098": "man",
    "1099": "manc",
    "1100": " K",
    "1101": " Ki",
    "1102": "ige",
    "1103": "igen",
    "1104": "igeno",
    "1105": "vid",
    "1106": "vidu",
    "1107": "rito",
    "1108": "ritor",
    "1109": "ble",
    "1110": "thm",
    "1111": "eck",
    "1112": "Br",
    "1113": "her",
    "1114": "roa",
    "1115": "ng",
    "1116": "nge",
    "1117": "I ",
    "1118": "ert",
    "1119": "erti",
    "1120": "ertif",
    "1121": "ch",
    "1122": "cha",
    "1123": "lot",
    "1124": "rv",
    "1125": "rve",
    "1126": "rve ",
    "1127": "be ",
    "1128": "am",
    "1129": "ame",
    "1130": "sto",
    "1131": "ston",
    "1132": "stone",
    "1133": "spi",
    "1134": "io",
    "1135": "iou",
    "1136": "tia",
    "1137": "tiar",
    "1138": "fi",
    "1139": "ack",
    "1140": "acka",
    "1141": "ackag",
    "1142": "or",
    "1143": "ort",
    "1144": "orta",
    "1145": "ortal",
    "1146": "epr",
    "1147": "epre",
    "1148": "epren",
    "1149": "hor",
    "1150": "hort",
    "1151": "amed",
    "1152": "comm",
    "1153": "commo",
    "1154": "common",
    "1155": "sh",
    "1156": "shi",
    "1157": "ha",
    "1158": "had",
    "1159": "had ",
    "1160": "geta",
    "1161": "een",
    "1162": "Ca",
    "1163": "Can",
    "1164": "Cana",
    "1165": "Ap",
    "1166": "App",
    "1167": "Appl",
    "1168": "Apple",
    "1169": "ite",
    "1170": "oth",
    "1171": "al ",
    "1172": "/t",
    "1173": "Di",
    "1174": "Dis",
    "1175": "radit",
    "1176": "raditi",
    "1177": "raditio",
    "1178": "cog",
    "1179": "cogn",
    "1180": "cogni",
    "1181": "ts",
    "1182": "tse",
    "1183": "tsel",
    "1184": "ly",
    "1185": "ear",
    "1186": "rde",
    "1187": "rder",
    "1188": "Pow",
    "1189": "Powe",
    "1190": "xf",
    "1191": "xfo",
    "1192": "the",
    "1193": "the ",
    "1194": "rie",
    "1195": "rien",
    "1196": "riend",
    "1197": "Ho",
    "1198": "How",
    "1199": "Howe",
    "1200": "Howev",
    "1201": "igr",
    "1202": "tab",
    "1203": "Th",
    "1204": "eg",
    "1205": "egi",
    "1206": "egio",
    "1207": "egion",
    "1208": "ass",
    "1209": "cl",
    "1210": "hn",
    "1211": "hns",
    "1212": "Lo",
    "1213": "Lou",
    "1214": "arc",
    "1215": "ral ",
    "1216": "con",
    "1217": "cond",
    "1218": "cod",
    "1219": "pub",
    "1220": "publ",
    "1221": "publi",
    "1222": "mb",
    "1223": "mbo",
    "1224": "mbox",
    "1225": "he ",
    "1226": "son",
    "1227": " l",
    "1228": "r.",
    "1229": "r. ",
    "1230": "cot",
    "1231": "*C",
    "1232": "g ",
    "1233": "ivi",
    "1234": "ivid",
    "1235": "ividu",
    "1236": "pe",
    "1237": "pec",
    "1238": "cc",
    "1239": "cco",
    "1240": "ccor",
    "1241": "ccord",
    "1242": "ccordi",
    "1243": "ip",
    "1244": "rtz",
    "1245": "ia",
    "1246": "iah",
    "1247": "uag",
    "1248": "acs",
    "1249": " o",
    "1250": " of",
    "1251": " of ",
    "1252": "case",
    "1253": "may",
    "1254": "may ",
    "1255": "lu",
    "1256": "lue",
    "1257": "ze",
    "1258": "zed",
    "1259": "zed ",
    "1260": "ypi",
    "1261": "ric",
    "1262": "rick",
    "1263": "ved",
    "1264": "mp",
    "1265": "mpt",
    "1266": "uct",
    "1267": "ucta",
    "1268": "uctan",
    "1269": "chu",
    "1270": "bre",
    "1271": "ue",
    "1272": " an",
    "1273": "eth",
    "1274": "ethe",
    "1275": "ether",
    "1276": "etherl",
    "1277": "etherla",
    "1278": "exan",
    "1279": "exand",
    "1280": "Sov",
    "1281": "Sovi",
    "1282": "Sovie",
    "1283": "car",
    "1284": "cart",
    "1285": "ph",
    "1286": "phy",
    "1287": "phys",
    "1288": "physi",
    "1289": "ors",
    "1290": "orse",
    "1291": " O",
    "1292": " OS",
    "1293": "tl",
    "1294": "tly",
    "1295": "ae",
    "1296": "ael",
    "1297": "try",
    "1298": "US",
    "1299": "USA",
    "1300": "USA,",
    "1301": "USA, ",
    "1302": "liv",
    "1303": "live",
    "1304": "liver",
    "1305": "ich",
    "1306": "ich ",
    "1307": "dow",
    "1308": "down",
    "1309": "urc",
    "1310": "Af",
    "1311": "Afr",
    "1312": "Afri",
    "1313": "ix",
    "1314": "lb",
    "1315": "lbu",
    "1316": "lbum",
    "1317": "ish",
    "1318": "rian",
    "1319": "cu",
    "1320": "cum",
    "1321": "cume",
    "1322": "cumen",
    "1323": "pil",
    "1324": "ib",
    "1325": "rvi",
    "1326": "rvic",
    "1327": "itio",
    "1328": "ition",
    "1329": "-G",
    "1330": "-Gi",
    "1331": "-Gil",
    "1332": "ustr",
    "1333": "loc",
    "1334": "loca",
    "1335": "any",
    "1336": "any ",
    "1337": "cons",
    "1338": "mem",
    "1339": "memb",
    "1340": "membe",
    "1341": "ed",
    "1342": "edi",
    "1343": "edis",
    "1344": "edish",
    "1345": "ron",
    "1346": "ront",
    "1347": "Ad",
    "1348": "Ade",
    "1349": "Adel",
    "1350": "Adela",
    "1351": "Fo",
    "1352": "ok ",
    "1353": "ndin",
    "1354": "gar",
    "1355": "gard",
    "1356": "garde",
    "1357": "up",
    "1358": "upi",
    "1359": "upie",
    "1360": "so ",
    "1361": "On",
    "1362": "On ",
    "1363": "rig",
    "1364": "rigi",
    "1365": "rigin",
    "1366": "A(",
    "1367": "Dir",
    "1368": "inc",
    "1369": "than ",
    "1370": "rm",
    "1371": "rmo",
    "1372": "arl",
    "1373": "arli",
    "1374": "arlia",
    "1375": "tho",
    "1376": "thol",
    "1377": "tholi",
    "1378": "eq",
    "1379": "2 /",
    "1380": "2 /s",
    "1381": "2 /su",
    "1382": "usine",
    "1383": "usines",
    "1384": "hic",
    "1385": "loy",
    "1386": "dic",
    "1387": "dict",
    "1388": "dicti",
    "1389": "Aw",
    "1390": "Awa",
    "1391": "rc",
    "1392": "rco",
    "1393": "icle",
    "1394": "Em",
    "1395": "Emi",
    "1396": "Emin",
    "1397": "Emine",
    "1398": "Eminem",
    "1399": "Ch",
    "1400": "abs",
    "1401": "absb",
    "1402": "mos",
    "1403": "most",
    "1404": "(b. 1",
    "1405": ").",
    "1406": "De",
    "1407": "Dem",
    "1408": "Demo",
    "1409": "Democ",
    "1410": "Democr",
    "1411": "Democra",
    "1412": "av",
    "1413": "alb",
    "1414": "albu",
    "1415": "ick",
    "1416": "),",
    "1417": "), ",
    "1418": "uen",
    "1419": "lt",
    "1420": "lti",
    "1421": "Ni",
    "1422": "Nil",
    "1423": "Nile",
    "1424": "ob",
    "1425": "obe",
    "1426": "Vi",
    "1427": "Vie",
    "1428": "Viet",
    "1429": "Vietn",
    "1430": "Vietna",
    "1431": "Vietnam",
    "1432": "iff",
    "1433": "eco",
    "1434": "econ",
    "1435": "sen",
    "1436": "sent",
    "1437": "obi",
    "1438": "obil",
    "1439": "ili",
    "1440": "oun",
    "1441": "ount",
    "1442": "temp",
    "1443": "ated",
    "1444": "uck",
    "1445": "sum",
    "1446": "tim",
    "1447": "time",
    "1448": "Ba",
    "1449": "Bat",
    "1450": "Batt",
    "1451": "Battl",
    "1452": "Battle",
    "1453": "ing",
    "1454": "inge",
    "1455": "inger",
    "1456": "se ",
    "1457": "cap",
    "1458": "vid ",
    "1459": "vit",
    "1460": "ous",
    "1461": "oust",
    "1462": "ousti",
    "1463": "rin",
    "1464": "ring",
    "1465": "Ol",
    "1466": "Old",
    "1467": "rded",
    "1468": "mbi",
    "1469": "ell",
    "1470": "ello",
    "1471": "ild",
    "1472": "itia",
    "1473": "nto",
    "1474": "nton",
    "1475": "irl",
    "1476": "ose",
    "1477": "tio",
    "1478": "SR",
    "1479": "nh",
    "1480": "rget",
    "1481": "bo",
    "1482": "bon",
    "1483": "bone",
    "1484": "rteb",
    "1485": "rtebr",
    "1486": "ise",
    "1487": "ises",
    "1488": "isest",
    "1489": "rked",
    "1490": "Ac",
    "1491": "Act",
    "1492": "gh",
    "1493": "alu",
    "1494": "alua",
    "1495": "zi",
    "1496": "ood",
    "1497": "ergu",
    "1498": "ergus",
    "1499": "ad ",
    "1500": "ts ",
    "1501": "adt",
    "1502": "pp",
    "1503": "ppe",
    "1504": "pped",
    "1505": "tai",
    "1506": "tain",
    "1507": "taine",
    "1508": "har",
    "1509": "yla",
    "1510": "als",
    "1511": "also",
    "1512": "also ",
    "1513": "iza",
    "1514": "izat",
    "1515": "izati",
    "1516": "izatio",
    "1517": "tla",
    "1518": "tlan",
    "1519": "tland",
    "1520": "ie",
    "1521": "ied",
    "1522": "ks ",
    "1523": "-n",
    "1524": "-na",
    "1525": "gno",
    "1526": "gnor",
    "1527": "pic",
    "1528": "pict",
    "1529": "unt",
    "1530": "`A",
    "1531": "we",
    "1532": "wes",
    "1533": "west",
    "1534": "oi",
    "1535": "ois",
    "1536": "id",
    "1537": "ide",
    "1538": "ided",
    "1539": "B.",
    "1540": "zy",
    "1541": "zym",
    "1542": "was ",
    "1543": "port",
    "1544": "ded",
    "1545": "ded ",
    "1546": "1.",
    "1547": "1. ",
    "1548": "dwa",
    "1549": "dwar",
    "1550": "nnes",
    "1551": "nness",
    "1552": "va",
    "1553": "Te",
    "1554": "Tec",
    "1555": "Tech",
    "1556": "le ",
    "1557": "NS",
    "1558": "NSF",
    "1559": "bou",
    "1560": "bout",
    "1561": "bout ",
    "1562": "hei",
    "1563": "heit",
    "1564": "Fes",
    "1565": "Fest",
    "1566": "sti",
    "1567": "gs",
    "1568": "rom",
    "1569": "men",
    "1570": "sla",
    "1571": "slan",
    "1572": "wid",
    "1573": "wide",
    "1574": "wer",
    "1575": "were",
    "1576": "ere",
    "1577": " le",
    "1578": " lea",
    "1579": " leas",
    "1580": " least",
    "1581": "orl",
    "1582": "orld",
    "1583": "Be",
    "1584": "Bes",
    "1585": "Best",
    "1586": "aso",
    "1587": "ason",
    "1588": "Co",
    "1589": "Con",
    "1590": "pen",
    "1591": "x)",
    "1592": "nce",
    "1593": "ucc",
    "1594": "ucce",
    "1595": "ucces",
    "1596": "uccess",
    "1597": "area",
    "1598": "iri",
    "1599": "irit",
    "1600": "n)",
    "1601": "hil",
    "1602": "hill",
    "1603": "den",
    "1604": "dent",
    "1605": "denti",
    "1606": "vig",
    "1607": "viga",
    "1608": "nu",
    "1609": "num",
    "1610": "ppr",
    "1611": "ppro",
    "1612": "pea",
    "1613": "pean",
    "1614": "nth",
    "1615": "no",
    "1616": "not",
    "1617": "nota",
    "1618": "notab",
    "1619": "erl",
    "1620": "mpr",
    "1621": "mpre",
    "1622": "mpres",
    "1623": "mpress",
    "1624": "art",
    "1625": "ao",
    "1626": "aol",
    "1627": "unct",
    "1628": "ndr",
    "1629": "ndro",
    "1630": "ndrom",
    "1631": "luen",
    "1632": "U+",
    "1633": "U+0",
    "1634": " )",
    "1635": "win",
    "1636": "ave",
    "1637": "ave ",
    "1638": "4,",
    "1639": "4, ",
    "1640": "pac",
    "1641": "xim",
    "1642": "wea",
    "1643": "ba",
    "1644": "bad",
    "1645": "Dec",
    "1646": "rth",
    "1647": "rthu",
    "1648": "rthur",
    "1649": "Fr",
    "1650": "ens",
    "1651": "orr",
    "1652": "orro",
    "1653": "orrow",
    "1654": "imu",
    "1655": "imum",
    "1656": "nm",
    "1657": "nma",
    "1658": "wr",
    "1659": "wri",
    "1660": "writ",
    "1661": "ntio",
    "1662": "ntion",
    "1663": "var",
    "1664": "vari",
    "1665": "nl",
    "1666": "nle",
    "1667": "s o",
    "1668": "s of",
    "1669": "s of ",
    "1670": "eph",
    "1671": "alic",
    "1672": "rab",
    "1673": " c",
    "1674": "rans",
    "1675": "a ",
    "1676": "a S",
    "1677": "a Sc",
    "1678": "a Sco",
    "1679": "ingl",
    "1680": " /",
    "1681": " /s",
    "1682": " /su",
    "1683": "etc",
    "1684": "ky",
    "1685": "kyd",
    "1686": "kydi",
    "1687": "kydiv",
    "1688": "ati",
    "1689": "atio",
    "1690": "ation",
    "1691": "ers",
    "1692": "ersi",
    "1693": "ersio",
    "1694": "ersion",
    "1695": "ji",
    "1696": "all",
    "1697": "all-",
    "1698": "sk",
    "1699": "sky",
    "1700": "by",
    "1701": "ary",
    "1702": "ary ",
    "1703": "ugust",
    "1704": "chn",
    "1705": "Cit",
    "1706": "lock",
    "1707": "SB",
    "1708": "SBN",
    "1709": "gw",
    "1710": "gwl",
    "1711": "gwla",
    "1712": "gwlad",
    "1713": "end",
    "1714": "end ",
    "1715": "get ",
    "1716": "bea",
    "1717": "xe",
    "1718": "xer",
    "1719": "bei",
    "1720": "bein",
    "1721": "tex",
    "1722": "text",
    "1723": "rro",
    "1724": "rrou",
    "1725": "rroun",
    "1726": "ngs",
    "1727": "ella",
    "1728": "Lea",
    "1729": "Leag",
    "1730": "Leagu",
    "1731": "nta",
    "1732": "mat",
    "1733": "math",
    "1734": "math ",
    "1735": "/td",
    "1736": "ymo",
    "1737": "of",
    "1738": "of ",
    "1739": "6 ",
    "1740": "6 -",
    "1741": "6 - ",
    "1742": "usa",
    "1743": "usad",
    "1744": "*J",
    "1745": "*Jo",
    "1746": "*Joh",
    "1747": "*John",
    "1748": "*Johns",
    "1749": " (",
    "1750": " (b",
    "1751": " (b.",
    "1752": " (b. ",
    "1753": "gu",
    "1754": "gua",
    "1755": "guag",
    "1756": "thu",
    "1757": "thua",
    "1758": "enc",
    "1759": "Bav",
    "1760": "Bava",
    "1761": "Bavar",
    "1762": "Pr",
    "1763": "asil",
    "1764": "asily",
    "1765": "hist",
    "1766": "histo",
    "1767": "cep",
    "1768": "cept",
    "1769": "lit",
    "1770": "litt",
    "1771": "littl",
    "1772": "non",
    "1773": "ress",
    "1774": "xt",
    "1775": "Jo",
    "1776": "Joh",
    "1777": "John",
    "1778": "etwo",
    "1779": "gi",
    "1780": "itic",
    "1781": "dh",
    "1782": "ey",
    "1783": "ey ",
    "1784": "phe",
    "1785": "stoni",
    "1786": "stonia",
    "1787": "bas",
    "1788": "BO",
    "1789": "BOL",
    "1790": "He",
    "1791": "p ",
    "1792": "p b",
    "1793": "p br",
    "1794": "He ",
    "1795": "opt",
    "1796": "Cam",
    "1797": "Camo",
    "1798": "Camou",
    "1799": "Camouf",
    "1800": "Camoufl",
    "1801": "CD",
    "1802": "CDU",
    "1803": "blem",
    "1804": "top",
    "1805": "chi",
    "1806": "chin",
    "1807": "gges",
    "1808": "tic",
    "1809": "tica",
    "1810": "tican",
    "1811": "ket",
    "1812": "nin",
    "1813": "tand",
    "1814": "me ",
    "1815": "km",
    "1816": "km ",
    "1817": " and",
    "1818": " and ",
    "1819": "fl",
    "1820": "flo",
    "1821": "flow",
    "1822": "ure",
    "1823": "mitt",
    "1824": "yme",
    "1825": "ymed",
    "1826": "rish",
    "1827": "has",
    "1828": "has ",
    "1829": "pr",
    "1830": "vad",
    "1831": "vada",
    "1832": "ning",
    "1833": "term",
    "1834": "termi",
    "1835": "agu",
    "1836": "Ed",
    "1837": "ssel",
    "1838": "war",
    "1839": "on ",
    "1840": "yr",
    "1841": "yri",
    "1842": "yrig",
    "1843": "yrigh",
    "1844": "rme",
    "1845": "ught",
    "1846": "ughte",
    "1847": "ughter",
    "1848": "tac",
    "1849": "tace",
    "1850": "matr",
    "1851": "matri",
    "1852": "Ga",
    "1853": "Gam",
    "1854": "Col",
    "1855": "Coll",
    "1856": "Colle",
    "1857": "Colleg",
    "1858": "opl",
    "1859": "tir",
    "1860": "tire",
    "1861": "ced",
    "1862": "DP",
    "1863": "3)*",
    "1864": "3)*1",
    "1865": "La",
    "1866": "Lab",
    "1867": "Labo",
    "1868": "Labou",
    "1869": "Labour",
    "1870": "rn",
    "1871": "rna",
    "1872": "rnal",
    "1873": "nch",
    "1874": "Americ",
    "1875": "erms",
    "1876": "erms ",
    "1877": "iel",
    "1878": "ield",
    "1879": "gir",
    "1880": "Euro",
    "1881": "eet",
    "1882": "eetl",
    "1883": "eetle",
    "1884": "tri",
    "1885": "dum",
    "1886": "ime",
    "1887": "imes",
    "1888": "par",
    "1889": "cca",
    "1890": "ccas",
    "1891": "ccasi",
    "1892": "ccasio",
    "1893": "ccasion",
    "1894": "--",
    "1895": "cati",
    "1896": "catio",
    "1897": "adi",
    "1898": "adia",
    "1899": "ond",
    "1900": "onde",
    "1901": "onden",
    "1902": "ondens",
    "1903": "e o",
    "1904": "e of",
    "1905": "e of ",
    "1906": "flu",
    "1907": "en ",
    "1908": " P",
    "1909": " Pa",
    "1910": " Par",
    "1911": "bor",
    "1912": "born",
    "1913": "born ",
    "1914": "Cons",
    "1915": "Conse",
    "1916": "Conseq",
    "1917": "Consequ",
    "1918": "2 -",
    "1919": "itiz",
    "1920": "itize",
    "1921": "itizen",
    "1922": "Bri",
    "1923": "Brit",
    "1924": "ope",
    "1925": "music",
    "1926": "deg",
    "1927": "tc",
    "1928": "tch",
    "1929": "XM",
    "1930": "XML",
    "1931": "Euc",
    "1932": "Euch",
    "1933": "Coa",
    "1934": "Coas",
    "1935": "Coast",
    "1936": "alla",
    "1937": "allad",
    "1938": "wf",
    "1939": "wfu",
    "1940": "ML",
    "1941": "We",
    "1942": "Wes",
    "1943": "West",
    "1944": "ger",
    "1945": "tras",
    "1946": "trast",
    "1947": "ng ",
    "1948": "rest",
    "1949": "ru",
    "1950": "ruc",
    "1951": "ruct",
    "1952": "toc",
    "1953": "tock",
    "1954": "mpl",
    "1955": "mple",
    "1956": "mplet",
    "1957": "mplete",
    "1958": "ado",
    "1959": "adox",
    "1960": "eci",
    "1961": "ima",
    "1962": "imat",
    "1963": " (d",
    "1964": "blo",
    "1965": "bloc",
    "1966": "block",
    "1967": "blockq",
    "1968": "mou",
    "1969": "zin",
    "1970": "zing",
    "1971": "ingle",
    "1972": "spr",
    "1973": "spre",
    "1974": "sprea",
    "1975": "da",
    "1976": "dar",
    "1977": "xa",
    "1978": "xas",
    "1979": "tiag",
    "1980": "tiago",
    "1981": "yt",
    "1982": "4)",
    "1983": "iro",
    "1984": "eo",
    "1985": "eop",
    "1986": "ibu",
    "1987": "ton",
    "1988": " or",
    "1989": "rticu",
    "1990": "rticul",
    "1991": "bled",
    "1992": "bledo",
    "1993": "Conf",
    "1994": "Confe",
    "1995": "Confed",
    "1996": "hild",
    "1997": "sq",
    "1998": "squ",
    "1999": "s*",
    "2000": "reek",
    "2001": "dd",
    "2002": "ddh",
    "2003": "yy",
    "2004": "umber",
    "2005": "rew",
    "2006": ".*",
    "2007": "ally",
    "2008": "own",
    "2009": "Or",
    "2010": "Ort",
    "2011": "Orth",
    "2012": "Ortho",
    "2013": "ile",
    "2014": "iled",
    "2015": "lid",
    "2016": "eu",
    "2017": "eum",
    "2018": "ety",
    "2019": "val",
    "2020": "yin",
    "2021": "noth",
    "2022": "sta",
    "2023": "stan",
    "2024": "stand",
    "2025": "mens",
    "2026": "mensi",
    "2027": "mensio",
    "2028": "mension",
    "2029": "liti",
    "2030": "litic",
    "2031": "tee",
    "2032": "teel",
    "2033": "dun",
    "2034": "dune",
    "2035": "und",
    "2036": "undr",
    "2037": "undre",
    "2038": "evel",
    "2039": "evela",
    "2040": "lic",
    "2041": "gree",
    "2042": " /t",
    "2043": " /td",
    "2044": "ke ",
    "2045": "hree",
    "2046": "ff",
    "2047": "ffe",
    "2048": "ffer",
    "2049": "div",
    "2050": "acte",
    "2051": "igio",
    "2052": "tig",
    "2053": "ava",
    "2054": "avar",
    "2055": "eat",
    "2056": "aeo",
    "2057": "aeol",
    "2058": "aeolo",
    "2059": "aeolog",
    "2060": "oll",
    "2061": "olla",
    "2062": "ict",
    "2063": "tom",
    "2064": "uch ",
    "2065": "orm",
    "2066": "yc",
    "2067": "yce",
    "2068": "rcot",
    "2069": "nor",
    "2070": "nort",
    "2071": "north",
    "2072": "row",
    "2073": "rown",
    "2074": "dis",
    "2075": "jan",
    "2076": "ani",
    "2077": "ania",
    "2078": "wn",
    "2079": "ede",
    "2080": "eder",
    "2081": "sio",
    "2082": "siol",
    "2083": "siolo",
    "2084": "siolog",
    "2085": "b.",
    "2086": "b. ",
    "2087": "ut ",
    "2088": "irs",
    "2089": "irst",
    "2090": "irst ",
    "2091": "ctic",
    "2092": "h,",
    "2093": "h, ",
    "2094": "C.",
    "2095": "yo",
    "2096": "you",
    "2097": "Sea",
    "2098": "ibl",
    "2099": "zen",
    "2100": "lp",
    "2101": "uta",
    "2102": "utal",
    "2103": "pol",
    "2104": "hen",
    "2105": "gin",
    "2106": "ging",
    "2107": "ais",
    "2108": "aism",
    "2109": "ci",
    "2110": "cit",
    "2111": "1 ",
    "2112": "1 /",
    "2113": "1 /m",
    "2114": "1 /ma",
    "2115": "oft",
    "2116": "angu",
    "2117": "FC",
    "2118": "Is",
    "2119": "Isr",
    "2120": "Isra",
    "2121": "taceo",
    "2122": "taceou",
    "2123": "che",
    "2124": "4)*",
    "2125": "ds",
    "2126": "ds ",
    "2127": "cr",
    "2128": "cro",
    "2129": "cros",
    "2130": "Ro",
    "2131": "Rop",
    "2132": "Rope",
    "2133": "umn",
    "2134": "nag",
    "2135": "Vil",
    "2136": "Vill",
    "2137": "Villa",
    "2138": "). ",
    "2139": "lly",
    "2140": "lly ",
    "2141": "IV",
    "2142": "Fra",
    "2143": "Fran",
    "2144": "mer",
    "2145": "cuo",
    "2146": "cuou",
    "2147": "cuous",
    "2148": "lc",
    "2149": "lcu",
    "2150": "lcul",
    "2151": "sia",
    "2152": "ssi",
    "2153": "rne",
    "2154": "rned",
    "2155": "how ",
    "2156": "loa",
    "2157": "load",
    "2158": "mor",
    "2159": "morp",
    "2160": "morph",
    "2161": "DV",
    "2162": "DVD",
    "2163": " I",
    "2164": "wor",
    "2165": "word",
    "2166": "Cou",
    "2167": "Cour",
    "2168": "ak",
    "2169": "cie",
    "2170": "cien",
    "2171": "Car",
    "2172": "Cari",
    "2173": "Carib",
    "2174": "hib",
    "2175": "hibi",
    "2176": "acted",
    "2177": "more",
    "2178": "ime ",
    "2179": "ake",
    "2180": "ake ",
    "2181": "aci",
    "2182": "acid",
    "2183": "hara",
    "2184": "harac",
    "2185": "gun",
    "2186": "UT",
    "2187": "UTC",
    "2188": "ax",
    "2189": "axi",
    "2190": "axim",
    "2191": "N ",
    "2192": "N s",
    "2193": "N su",
    "2194": "nstei",
    "2195": "othe",
    "2196": "ID",
    "2197": "IDS",
    "2198": "{m",
    "2199": "{ma",
    "2200": "fir",
    "2201": "firs",
    "2202": "evi",
    "2203": "evid",
    "2204": "evide",
    "2205": "eviden",
    "2206": "fie",
    "2207": "fied",
    "2208": "urg",
    "2209": "poo",
    "2210": "pool",
    "2211": "sa",
    "2212": "sat",
    "2213": "rich",
    "2214": "emi",
    "2215": "Un",
    "2216": "Uni",
    "2217": "Univ",
    "2218": "Unive",
    "2219": "Univer",
    "2220": "Univers",
    "2221": "ngt",
    "2222": "sc",
    "2223": "mis",
    "2224": "es",
    "2225": "est",
    "2226": "esti",
    "2227": "estio",
    "2228": "alp",
    "2229": "alph",
    "2230": "alpha",
    "2231": "hy",
    "2232": "sb",
    "2233": "ty",
    "2234": "tyr",
    "2235": "cin",
    "2236": "ask",
    "2237": "aska",
    "2238": "pai",
    "2239": "pain",
    "2240": "Lis",
    "2241": "List",
    "2242": "uce",
    "2243": "ath",
    "2244": "uces",
    "2245": "ethr",
    "2246": "els",
    "2247": "elsi",
    "2248": "elsiu",
    "2249": "jo",
    "2250": "jou",
    "2251": "jour",
    "2252": "lai",
    "2253": "laim",
    "2254": "Ge",
    "2255": "Ger",
    "2256": "law",
    "2257": "lawa",
    "2258": "lawar",
    "2259": "spa",
    "2260": "Hu",
    "2261": "Hun",
    "2262": "Hung",
    "2263": "Hunga",
    "2264": "Hungar",
    "2265": "igu",
    "2266": "igur",
    "2267": "ince",
    "2268": "Gr",
    "2269": "Gre",
    "2270": "bab",
    "2271": "leb",
    "2272": "lebr",
    "2273": "arg",
    "2274": "kal",
    "2275": "yield",
    "2276": "o-",
    "2277": "rci",
    "2278": "rcis",
    "2279": "lf",
    "2280": "nb",
    "2281": "nbs",
    "2282": "nbsp",
    "2283": "tty",
    "2284": "ttys",
    "2285": "nat",
    "2286": "nati",
    "2287": "natio",
    "2288": "llyw",
    "2289": "llywo",
    "2290": "llywoo",
    "2291": "llywood",
    "2292": "cri",
    "2293": "nes",
    "2294": "ness",
    "2295": "ik",
    "2296": "ike",
    "2297": "Feb",
    "2298": "siv",
    "2299": "Lat",
    "2300": "Lati",
    "2301": "Latin",
    "2302": "Mi",
    "2303": "Mil",
    "2304": "not ",
    "2305": "ngl",
    "2306": "ngle",
    "2307": "hem",
    "2308": "mith",
    "2309": "ilm",
    "2310": "izen",
    "2311": "9 ",
    "2312": "9 k",
    "2313": "9 km",
    "2314": "teri",
    "2315": "t ",
    "2316": "lsh",
    "2317": "fer",
    "2318": "fere",
    "2319": "feren",
    "2320": " m",
    "2321": " mo",
    "2322": "lf ",
    "2323": "lv",
    "2324": "ssy",
    "2325": "ssyr",
    "2326": "xyg",
    "2327": "xyge",
    "2328": "xygen",
    "2329": "end o",
    "2330": "end of",
    "2331": "end of ",
    "2332": "some",
    "2333": "omp",
    "2334": "ompo",
    "2335": "vat",
    "2336": "ermi",
    "2337": "ities",
    "2338": "redi",
    "2339": "dg",
    "2340": "dge",
    "2341": "dget",
    "2342": "ember",
    "2343": "nr",
    "2344": "nry",
    "2345": "vai",
    "2346": "vail",
    "2347": "vaila",
    "2348": "vailab",
    "2349": "ove",
    "2350": "oved",
    "2351": "who",
    "2352": "nto ",
    "2353": "ez",
    "2354": "eas",
    "2355": "15",
    "2356": "ten",
    "2357": "tenh",
    "2358": "rt ",
    "2359": "rt o",
    "2360": "rt of",
    "2361": "rt of ",
    "2362": "using",
    "2363": "using ",
    "2364": "imen",
    "2365": "dee",
    "2366": "enn",
    "2367": " D",
    "2368": " De",
    "2369": "tana",
    "2370": "irm",
    "2371": "isc",
    "2372": "isco",
    "2373": "iscov",
    "2374": "iscove",
    "2375": "dia",
    "2376": "jus",
    "2377": "just",
    "2378": "i-",
    "2379": "tsc",
    "2380": "tsch",
    "2381": "eri",
    "2382": "erif",
    "2383": "erify",
    "2384": "nk",
    "2385": "nks",
    "2386": "dda",
    "2387": "ddam",
    "2388": "5 ",
    "2389": "5 /",
    "2390": "5 /s",
    "2391": "5 /su",
    "2392": "tail",
    "2393": "ound",
    "2394": "ly ",
    "2395": "atin",
    "2396": "vie",
    "2397": "view",
    "2398": "fro",
    "2399": "from",
    "2400": "from ",
    "2401": "issi",
    "2402": "dah",
    "2403": "bil",
    "2404": "bili",
    "2405": "rva",
    "2406": "rvan",
    "2407": "agon",
    "2408": "xio",
    "2409": "xiom",
    "2410": " to",
    "2411": "3D",
    "2412": "col",
    "2413": "coln",
    "2414": "aul",
    "2415": "ault",
    "2416": "Ban",
    "2417": "Bang",
    "2418": "Unio",
    "2419": "rba",
    "2420": "rbac",
    "2421": "ho ",
    "2422": "aza",
    "2423": "osed",
    "2424": "gal",
    "2425": "gal ",
    "2426": "lem",
    "2427": "rgu",
    "2428": "cte",
    "2429": "cter",
    "2430": "-1",
    "2431": "od",
    "2432": "ody",
    "2433": "aw",
    "2434": "awa",
    "2435": "awar",
    "2436": "hat",
    "2437": "V ",
    "2438": "ader",
    "2439": "ntinu",
    "2440": "qu",
    "2441": "qui",
    "2442": "ar ",
    "2443": "ire",
    "2444": "lac",
    "2445": "rvice",
    "2446": "(1",
    "2447": "(19",
    "2448": "us ",
    "2449": "tme",
    "2450": "tmen",
    "2451": "tment",
    "2452": "nal",
    "2453": "hin",
    "2454": "hing",
    "2455": "ons",
    "2456": "onst",
    "2457": "onsta",
    "2458": "onstan",
    "2459": "per",
    "2460": "peri",
    "2461": "perio",
    "2462": "period",
    "2463": "vic",
    "2464": "vica",
    "2465": "vicar",
    "2466": ".D",
    "2467": ".D.",
    "2468": "VF",
    "2469": "VFA",
    "2470": "ols",
    "2471": "pir",
    "2472": "pla",
    "2473": "ssa",
    "2474": "desc",
    "2475": "desce",
    "2476": "descen",
    "2477": "kne",
    "2478": "kney",
    "2479": "0%",
    "2480": "0% ",
    "2481": "ivin",
    "2482": "ub",
    "2483": "ubl",
    "2484": "ubli",
    "2485": "th ",
    "2486": "ulf",
    "2487": "riv",
    "2488": "#Ve",
    "2489": "0)",
    "2490": "ela",
    "2491": "hoe",
    "2492": "hoeb",
    "2493": "+\\",
    "2494": "stor",
    "2495": "ches",
    "2496": "chest",
    "2497": "cheste",
    "2498": "rei",
    "2499": "reig",
    "2500": "reign",
    "2501": "fic",
    "2502": "fict",
    "2503": "The",
    "2504": "The ",
    "2505": "s)",
    "2506": "isto",
    "2507": "usic",
    "2508": "xis",
    "2509": "xist",
    "2510": "Ri",
    "2511": "ine",
    "2512": "ined",
    "2513": "rtin",
    "2514": "icr",
    "2515": "icro",
    "2516": "der",
    "2517": "plac",
    "2518": "place",
    "2519": "rms",
    "2520": "No",
    "2521": "Nov",
    "2522": "Hub",
    "2523": "Hubb",
    "2524": "hed",
    "2525": "hed ",
    "2526": " the",
    "2527": " the ",
    "2528": "ce ",
    "2529": "Ai",
    "2530": "Air",
    "2531": ",0",
    "2532": ",00",
    "2533": "P ",
    "2534": "m ",
    "2535": "Je",
    "2536": "l ",
    "2537": "ntar",
    "2538": "s t",
    "2539": "s to",
    "2540": "s to ",
    "2541": "gio",
    "2542": "gion",
    "2543": "Com",
    "2544": "Comp",
    "2545": "Compu",
    "2546": "Comput",
    "2547": " fo",
    "2548": "lockq",
    "2549": "Chi",
    "2550": "Chic",
    "2551": "Chica",
    "2552": "isk",
    "2553": "sal",
    "2554": "hir",
    "2555": "hire",
    "2556": " as ",
    "2557": "gag",
    "2558": "wen",
    "2559": "went",
    "2560": "spo",
    "2561": "spon",
    "2562": "rka",
    "2563": "rkan",
    "2564": "puta",
    "2565": "putat",
    "2566": "putati",
    "2567": "ore",
    "2568": "thou",
    "2569": "3 ",
    "2570": "oid",
    "2571": "its",
    "2572": "xo",
    "2573": "xop",
    "2574": "xoph",
    "2575": "DE",
    "2576": "mpu",
    "2577": "mput",
    "2578": "tud",
    "2579": "heu",
    "2580": "heus",
    "2581": "nem",
    "2582": "nema",
    "2583": "durin",
    "2584": "icul",
    "2585": "angua",
    "2586": "anguag",
    "2587": "Fre",
    "2588": "%)",
    "2589": "with",
    "2590": "NZ",
    "2591": "NZA",
    "2592": "NZAC",
    "2593": "emn",
    "2594": "sad",
    "2595": "oa",
    "2596": "oar",
    "2597": "oard",
    "2598": "Rou",
    "2599": "Roun",
    "2600": "rl",
    "2601": "rla",
    "2602": "rlan",
    "2603": "rlang",
    "2604": "hag",
    "2605": "ord",
    "2606": "orde",
    "2607": "lth",
    "2608": "Ar",
    "2609": "Ara",
    "2610": "Arab",
    "2611": "ark",
    "2612": "nua",
    "2613": "nuar",
    "2614": "oon",
    "2615": "Pa",
    "2616": "Pau",
    "2617": "Paul",
    "2618": "jor",
    "2619": "line",
    "2620": "line ",
    "2621": "ock",
    "2622": "ple",
    "2623": "5 -",
    "2624": "5 - ",
    "2625": "hyl",
    "2626": "viv",
    "2627": "ome ",
    "2628": "mes ",
    "2629": "3,",
    "2630": "3, ",
    "2631": "dlan",
    "2632": "deo",
    "2633": "dho",
    "2634": "dhov",
    "2635": "suc",
    "2636": "such",
    "2637": "such ",
    "2638": "Min",
    "2639": "Mini",
    "2640": "fre",
    "2641": "rio",
    "2642": "riou",
    "2643": "Pro",
    "2644": "dv",
    "2645": "dve",
    "2646": "dver",
    "2647": "age",
    "2648": "DO",
    "2649": "DON",
    "2650": "DONE",
    "2651": "use",
    "2652": "used",
    "2653": "ollo",
    "2654": "ider",
    "2655": "ttp",
    "2656": "tiv",
    "2657": "tive",
    "2658": "St",
    "2659": "Sta",
    "2660": "ets",
    "2661": "zo",
    "2662": "zon",
    "2663": "DF",
    "2664": "DFT",
    "2665": "rul",
    "2666": "mai",
    "2667": "maic",
    "2668": "wo ",
    "2669": "cast",
    "2670": "ycl",
    "2671": "ife",
    "2672": "ala",
    "2673": "alan",
    "2674": "olv",
    "2675": "olve",
    "2676": "olved",
    "2677": "sam",
    "2678": "same",
    "2679": "rrie",
    "2680": "*U",
    "2681": "ult",
    "2682": "tob",
    "2683": "tobe",
    "2684": "pper",
    "2685": "wil",
    "2686": "will",
    "2687": "eriv",
    "2688": "ploy",
    "2689": "oge",
    "2690": "ogen",
    "2691": "ecor",
    "2692": "ecord",
    "2693": "ege",
    "2694": "eget",
    "2695": "Amw",
    "2696": "Amwa",
    "2697": "main",
    "2698": "S)",
    "2699": "SA",
    "2700": "Cr",
    "2701": "Cre",
    "2702": "Cret",
    "2703": "Isl",
    "2704": "X ",
    "2705": "X b",
    "2706": "X br",
    "2707": "hev",
    "2708": "boa",
    "2709": "boar",
    "2710": "bade",
    "2711": "mmu",
    "2712": "mmun",
    "2713": "mmuni",
    "2714": "ndo",
    "2715": "tre",
    "2716": "tiz",
    "2717": "cra",
    "2718": "sh ",
    "2719": "mic",
    "2720": "3, n",
    "2721": "3, nb",
    "2722": "3, nbs",
    "2723": "3, nbsp",
    "2724": "bum",
    "2725": "Gro",
    "2726": "Grou",
    "2727": "Group",
    "2728": "gen",
    "2729": "gent",
    "2730": "n ",
    "2731": "n t",
    "2732": "n th",
    "2733": "n the",
    "2734": "n the ",
    "2735": "oss",
    "2736": "ya",
    "2737": "yal",
    "2738": "1t",
    "2739": "1th",
    "2740": "pet",
    "2741": "peta",
    "2742": "ucl",
    "2743": "/f",
    "2744": "/fe",
    "2745": "ppl",
    "2746": "dam",
    "2747": "dame",
    "2748": "tro",
    "2749": "imi",
    "2750": "imin",
    "2751": "ecis",
    "2752": "bal",
    "2753": "ball",
    "2754": "eiv",
    "2755": "rked ",
    "2756": "new",
    "2757": "new ",
    "2758": "allac",
    "2759": "isi",
    "2760": "isio",
    "2761": "ision",
    "2762": "rnel",
    "2763": "gme",
    "2764": "tat",
    "2765": "tato",
    "2766": "V o",
    "2767": "V of",
    "2768": "V of ",
    "2769": "se o",
    "2770": "se of",
    "2771": "se of ",
    "2772": "gus",
    "2773": "5)",
    "2774": "5)*",
    "2775": "5)*V",
    "2776": "5)*VF",
    "2777": "aga",
    "2778": "agan",
    "2779": "U-",
    "2780": "msf",
    "2781": "ay ",
    "2782": "abl",
    "2783": "zat",
    "2784": "nthe",
    "2785": "pera",
    "2786": "nde",
    "2787": "our",
    "2788": "or ",
    "2789": "icy",
    "2790": "icyc",
    "2791": "icycl",
    "2792": "sit",
    "2793": "nct",
    "2794": "ffi",
    "2795": "ffic",
    "2796": "fem",
    "2797": "y,",
    "2798": "y, ",
    "2799": "cor",
    "2800": "core",
    "2801": "itl",
    "2802": "righ",
    "2803": "tect",
    "2804": "itu",
    "2805": "itud",
    "2806": "af",
    "2807": "aft",
    "2808": "afte",
    "2809": "8)*",
    "2810": "sive",
    "2811": "alc",
    "2812": "alcu",
    "2813": "alcul",
    "2814": "' ",
    "2815": "hoo",
    "2816": "hool",
    "2817": "ked",
    "2818": "mar",
    "2819": "mari",
    "2820": "marin",
    "2821": "-b",
    "2822": "-bo",
    "2823": "-bor",
    "2824": "-born",
    "2825": "esta",
    "2826": "estab",
    "2827": "establ",
    "2828": "establi",
    "2829": "ys",
    "2830": "yst",
    "2831": "yste",
    "2832": "5-",
    "2833": "uil",
    "2834": "nam",
    "2835": "muk",
    "2836": "mukh",
    "2837": "amen",
    "2838": "ament",
    "2839": "ies",
    "2840": "ight",
    "2841": "ami",
    "2842": "amil",
    "2843": "lla",
    "2844": "riz",
    "2845": "rizo",
    "2846": "RA",
    "2847": "RAN",
    "2848": "youn",
    "2849": "young",
    "2850": "reat",
    "2851": "reate",
    "2852": "reated",
    "2853": "lag",
    "2854": "hv",
    "2855": "hvi",
    "2856": "Rig",
    "2857": "Righ",
    "2858": "Right",
    "2859": "1-1",
    "2860": "EA",
    "2861": "a-",
    "2862": "a-C",
    "2863": "ped",
    "2864": "peda",
    "2865": "pedal",
    "2866": "fou",
    "2867": "foun",
    "2868": "arus",
    "2869": "pul",
    "2870": "'s",
    "2871": "'s ",
    "2872": "Chr",
    "2873": "Chri",
    "2874": "Chris",
    "2875": "clo",
    "2876": "cloc",
    "2877": "clock",
    "2878": "cel",
    "2879": "cell",
    "2880": "over",
    "2881": "adu",
    "2882": "adua",
    "2883": "han",
    "2884": "hand",
    "2885": "F ",
    "2886": "vol",
    "2887": "char",
    "2888": "ocid",
    "2889": "aph",
    "2890": "D ",
    "2891": "tur",
    "2892": "turb",
    "2893": "y-",
    "2894": "M.",
    "2895": "M. ",
    "2896": "lli",
    "2897": "llia",
    "2898": "lliam",
    "2899": "ctr",
    "2900": "ara",
    "2901": "arac",
    "2902": "araco",
    "2903": "3 -",
    "2904": "ared",
    "2905": "poli",
    "2906": "ouse",
    "2907": "atu",
    "2908": "atur",
    "2909": "penh",
    "2910": "bat",
    "2911": "eor",
    "2912": "eorg",
    "2913": "k o",
    "2914": "k of",
    "2915": "k of ",
    "2916": " E",
    "2917": " Em",
    "2918": " Emp",
    "2919": "ming",
    "2920": "mingh",
    "2921": "mingha",
    "2922": "mingham",
    "2923": "erce",
    "2924": "xp",
    "2925": "yth",
    "2926": "stem",
    "2927": "fis",
    "2928": "fish",
    "2929": "arr",
    "2930": "ean ",
    "2931": "LD",
    "2932": "In",
    "2933": "Ind",
    "2934": "ep ",
    "2935": "Cat",
    "2936": "Cath",
    "2937": "0, ",
    "2938": "ky ",
    "2939": "udd",
    "2940": "uddh",
    "2941": "rou",
    "2942": "ompr",
    "2943": "ompre",
    "2944": "gri",
    "2945": "cord",
    "2946": "hav",
    "2947": "have",
    "2948": "have ",
    "2949": "xed",
    "2950": "xed ",
    "2951": "tle",
    "2952": "age ",
    "2953": "!--",
    "2954": "ory",
    "2955": "ory ",
    "2956": "via",
    "2957": "ent",
    "2958": "ngi",
    "2959": "ngin",
    "2960": "joi",
    "2961": "join",
    "2962": "uit",
    "2963": "nd ",
    "2964": "sur",
    "2965": "See",
    "2966": "ore ",
    "2967": "met",
    "2968": " av",
    "2969": " ave",
    "2970": " aver",
    "2971": " avera",
    "2972": "fel",
    "2973": "hur",
    "2974": "hurc",
    "2975": "hurch",
    "2976": "dua",
    "2977": "yon",
    "2978": "yond",
    "2979": "ry",
    "2980": "ry ",
    "2981": "ven",
    "2982": "ott",
    "2983": "erv",
    "2984": "re ",
    "2985": "z ",
    "2986": "lleg",
    "2987": "eh",
    "2988": "eho",
    "2989": "ehol",
    "2990": "ntan",
    "2991": "nec",
    "2992": "nect",
    "2993": "wind",
    "2994": "ach",
    "2995": "ache",
    "2996": "wis",
    "2997": "rav",
    "2998": "toco",
    "2999": "tocol",
    "3000": "Len",
    "3001": "overn",
    "3002": "tot",
    "3003": "tota",
    "3004": "urd",
    "3005": "urde",
    "3006": "urder",
    "3007": "IA",
    "3008": "IA ",
    "3009": "Cha",
    "3010": "game",
    "3011": "carb",
    "3012": "osi",
    "3013": "sch",
    "3014": "speci",
    "3015": " km",
    "3016": "ten ",
    "3017": "50",
    "3018": "50s",
    "3019": "oma",
    "3020": "oman",
    "3021": "two",
    "3022": "wed",
    "3023": "xid",
    "3024": "ward",
    "3025": "sib",
    "3026": "eon",
    "3027": "lpt",
    "3028": "S.",
    "3029": "S. ",
    "3030": "0)*",
    "3031": "vem",
    "3032": "veme",
    "3033": "vemen",
    "3034": "vement",
    "3035": "nso",
    "3036": "nsor",
    "3037": "l-",
    "3038": "ien",
    "3039": "iend",
    "3040": "dan",
    "3041": "danc",
    "3042": "naga",
    "3043": "mea",
    "3044": "mean",
    "3045": "rey",
    "3046": " to ",
    "3047": "iga",
    "3048": "igat",
    "3049": "47",
    "3050": "ercen",
    "3051": "ercent",
    "3052": "deri",
    "3053": "rac",
    "3054": "6%",
    "3055": "miz",
    "3056": "hol",
    "3057": "polo",
    "3058": "polog",
    "3059": "oog",
    "3060": "oogl",
    "3061": "oogle",
    "3062": "cce",
    "3063": "It",
    "3064": "Ita",
    "3065": "Sp",
    "3066": "Spa",
    "3067": "ind ",
    "3068": "47-",
    "3069": "ito",
    "3070": "itt",
    "3071": "itte",
    "3072": "Me",
    "3073": "Mex",
    "3074": "Mexi",
    "3075": "Mexic",
    "3076": "-A",
    "3077": "-Am",
    "3078": "-Ame",
    "3079": "-Amer",
    "3080": "O ",
    "3081": "ss ",
    "3082": "nbu",
    "3083": "nbur",
    "3084": "emp",
    "3085": "empt",
    "3086": "oth ",
    "3087": "nos",
    "3088": "hou",
    "3089": "houl",
    "3090": "hould",
    "3091": "stim",
    "3092": "stima",
    "3093": "hay",
    "3094": "hayn",
    "3095": "hayne",
    "3096": "pee",
    "3097": "peed",
    "3098": "urr",
    "3099": "vae",
    "3100": "*z",
    "3101": "tun",
    "3102": "lip",
    "3103": "lum",
    "3104": "itor",
    "3105": "owe",
    "3106": "owev",
    "3107": "oweve",
    "3108": "longe",
    "3109": "Ze",
    "3110": "Zea",
    "3111": "Zeal",
    "3112": "wne",
    "3113": "wner",
    "3114": "/c",
    "3115": "/co",
    "3116": "Fi",
    "3117": "Fil",
    "3118": "Film",
    "3119": "Ital",
    "3120": "p.",
    "3121": "hri",
    "3122": "hris",
    "3123": "Cl",
    "3124": "Cla",
    "3125": "Clau",
    "3126": "eno",
    "3127": "icap",
    "3128": "ster",
    "3129": "play",
    "3130": "playe",
    "3131": "t o",
    "3132": "t of",
    "3133": "t of ",
    "3134": "ant",
    "3135": "haract",
    "3136": "haracte",
    "3137": "lef",
    "3138": "left",
    "3139": "NSFN",
    "3140": "hod",
    "3141": "earc",
    "3142": "sy",
    "3143": "Sc",
    "3144": "Sch",
    "3145": "Scho",
    "3146": "Schoo",
    "3147": "School",
    "3148": "lows",
    "3149": "lows ",
    "3150": "tly ",
    "3151": "ibi",
    "3152": "ibit",
    "3153": "1)",
    "3154": "pri",
    "3155": "hn ",
    "3156": "whe",
    "3157": "able",
    "3158": "Lon",
    "3159": "Lond",
    "3160": "Londo",
    "3161": "and",
    "3162": "and ",
    "3163": "ie ",
    "3164": "iod",
    "3165": "tany",
    "3166": "pun",
    "3167": "punk",
    "3168": "kin",
    "3169": "hat ",
    "3170": "gni",
    "3171": "8,",
    "3172": "8, ",
    "3173": "aken",
    "3174": "rol",
    "3175": "rol ",
    "3176": "ese",
    "3177": "lign",
    "3178": "lign=",
    "3179": "pro",
    "3180": "ess",
    "3181": "elai",
    "3182": "elaid",
    "3183": "dm",
    "3184": "dmi",
    "3185": "vy",
    "3186": "rbo",
    "3187": "uro",
    "3188": "urop",
    "3189": "urope",
    "3190": "FO",
    "3191": "y o",
    "3192": "y of",
    "3193": "y of ",
    "3194": "up ",
    "3195": "egn",
    "3196": "egne",
    "3197": "egnen",
    "3198": "nger",
    "3199": "Germ",
    "3200": "Germa",
    "3201": "Ha",
    "3202": "cle",
    "3203": "Bo",
    "3204": "Boo",
    "3205": "Book",
    "3206": "Ir",
    "3207": "aly",
    "3208": "hap",
    "3209": "itis",
    "3210": "5-1",
    "3211": "ses ",
    "3212": "Ira",
    "3213": "ngli",
    "3214": "nglis",
    "3215": "ibe",
    "3216": "iber",
    "3217": "f.",
    "3218": "f. ",
    "3219": "oal",
    "3220": "app",
    "3221": "eal",
    "3222": "zek",
    "3223": "O s",
    "3224": "O su",
    "3225": "To",
    "3226": "Tot",
    "3227": "Tota",
    "3228": "ince ",
    "3229": "cem",
    "3230": "cemb",
    "3231": "cembe",
    "3232": "bbi",
    "3233": "lts",
    "3234": "Oc",
    "3235": "icen",
    "3236": "F-",
    "3237": "ery",
    "3238": "Franc",
    "3239": "onste",
    "3240": "onstel",
    "3241": "S ",
    "3242": "eopl",
    "3243": "nual",
    "3244": " ce",
    "3245": " cen",
    "3246": " cent",
    "3247": "suin",
    "3248": "uz",
    "3249": "uze",
    "3250": "lif",
    "3251": "A ",
    "3252": "vide",
    "3253": "ifu",
    "3254": "ust ",
    "3255": "Hi",
    "3256": "Hit",
    "3257": "Hitl",
    "3258": "Hitle",
    "3259": "Hitler",
    "3260": "bed",
    "3261": "bed ",
    "3262": "1s",
    "3263": "1st",
    "3264": "hanc",
    "3265": "encl",
    "3266": "}}",
    "3267": "sig",
    "3268": "sign",
    "3269": "aver",
    "3270": "avera",
    "3271": "averag",
    "3272": "cau",
    "3273": "caus",
    "3274": "ek",
    "3275": "nio",
    "3276": "nior",
    "3277": "-e",
    "3278": "-ea",
    "3279": "-eas",
    "3280": "-east",
    "3281": "RN",
    "3282": "RNA",
    "3283": "chae",
    "3284": "chael",
    "3285": "fec",
    "3286": "fac",
    "3287": "imp",
    "3288": "bilit",
    "3289": "et ",
    "3290": "ltho",
    "3291": "osen",
    "3292": "ntr",
    "3293": "ntro",
    "3294": "ntrol",
    "3295": "ores",
    "3296": "orest",
    "3297": "neg",
    "3298": "negi",
    "3299": "negie",
    "3300": "mbe",
    "3301": "mber",
    "3302": "Wo",
    "3303": "Wor",
    "3304": "Worl",
    "3305": ")*",
    "3306": ")*1",
    "3307": ")*19",
    "3308": "gai",
    "3309": "gain",
    "3310": "zy ",
    "3311": "one ",
    "3312": "one o",
    "3313": "one of",
    "3314": "tn",
    "3315": "tna",
    "3316": "tnam",
    "3317": "uo",
    "3318": "amm",
    "3319": "amma",
    "3320": "tf",
    "3321": "tfo",
    "3322": "nov",
    "3323": "nova",
    "3324": "novat",
    "3325": "% ",
    "3326": "noo",
    "3327": "nook",
    "3328": " (b. 1",
    "3329": "thi",
    "3330": "rthe",
    "3331": "rthei",
    "3332": "enb",
    "3333": "ial",
    "3334": "1:",
    "3335": "nou",
    "3336": "noun",
    "3337": "bel",
    "3338": "belo",
    "3339": "below",
    "3340": "fort",
    "3341": "mid",
    "3342": "aker",
    "3343": "pler",
    "3344": "ern",
    "3345": "erna",
    "3346": "fb",
    "3347": "fbr",
    "3348": "fbr ",
    "3349": "meri",
    "3350": "meric",
    "3351": "merica",
    "3352": "cad",
    "3353": "cade",
    "3354": "ting",
    "3355": "eep",
    "3356": "ill",
    "3357": "ille",
    "3358": "iller",
    "3359": "Chu",
    "3360": "Chur",
    "3361": "Churc",
    "3362": "Church",
    "3363": "lan",
    "3364": "ence",
    "3365": "nsi",
    "3366": "nsil",
    "3367": "nsile",
    "3368": "dal",
    "3369": "wif",
    "3370": "wife",
    "3371": "ora",
    "3372": "orah",
    "3373": "hink",
    "3374": "Asi",
    "3375": "Asia",
    "3376": "7t",
    "3377": "7th",
    "3378": "oe",
    "3379": "oes",
    "3380": "For",
    "3381": "rst",
    "3382": "lia",
    "3383": "Dr",
    "3384": "Dra",
    "3385": "cces",
    "3386": "ccess",
    "3387": "arge",
    "3388": "las",
    "3389": "lass",
    "3390": "owp",
    "3391": "owpo",
    "3392": "cis",
    "3393": "ote",
    "3394": "oter",
    "3395": "ost",
    "3396": "osti",
    "3397": "aig",
    "3398": "sper",
    "3399": "ft",
    "3400": "tie",
    "3401": "tien",
    "3402": "pho",
    "3403": "phon",
    "3404": "yer",
    "3405": "ret",
    "3406": "bac",
    "3407": "pos",
    "3408": "pose",
    "3409": "poser",
    "3410": "ces",
    "3411": "ces ",
    "3412": "read",
    "3413": "tru",
    "3414": "truc",
    "3415": "truct",
    "3416": "gui",
    "3417": "guis",
    "3418": "sed",
    "3419": "sed ",
    "3420": "now",
    "3421": "nowl",
    "3422": "nowle",
    "3423": "ompu",
    "3424": "omput",
    "3425": "Par",
    "3426": "Parl",
    "3427": "Parli",
    "3428": "Parlia",
    "3429": "Jew",
    "3430": "sop",
    "3431": "hes",
    "3432": " b",
    "3433": " br",
    "3434": "rga",
    "3435": "rgan",
    "3436": "st ",
    "3437": "bol",
    "3438": "boll",
    "3439": "hra",
    "3440": "'l",
    "3441": "'l-",
    "3442": "Const",
    "3443": "Consta",
    "3444": "Constan",
    "3445": "gul",
    "3446": "gula",
    "3447": "zar",
    "3448": "del",
    "3449": "vemb",
    "3450": "ovi",
    "3451": "ovie",
    "3452": "amp",
    "3453": "ampl",
    "3454": "ys ",
    "3455": " e",
    "3456": "lso",
    "3457": "lso ",
    "3458": " r",
    "3459": "yod",
    "3460": "yodo",
    "3461": "yodor",
    "3462": "impl",
    "3463": " wit",
    "3464": "\\q",
    "3465": "dat",
    "3466": "bra",
    "3467": "eou",
    "3468": "sod",
    "3469": "DN",
    "3470": "DNA",
    "3471": "Nat",
    "3472": "ian",
    "3473": "ian ",
    "3474": "rp",
    "3475": "rpo",
    "3476": "rpoo",
    "3477": "thous",
    "3478": "thousa",
    "3479": "ght",
    "3480": "tati",
    "3481": "out",
    "3482": "out ",
    "3483": "gur",
    "3484": "seat",
    "3485": "i)",
    "3486": "mpi",
    "3487": "mpir",
    "3488": "1 k",
    "3489": "1 km",
    "3490": "iste",
    "3491": "ister",
    "3492": "amo",
    "3493": "amou",
    "3494": "amouf",
    "3495": "18",
    "3496": "ns ",
    "3497": "ww",
    "3498": "www",
    "3499": "yet",
    "3500": "zati",
    "3501": "zatio",
    "3502": "ecia",
    "3503": "thal",
    "3504": "Aram",
    "3505": "llen",
    "3506": "fy",
    "3507": "ystem",
    "3508": "urch",
    "3509": "hors",
    "3510": "horse",
    "3511": "rod",
    "3512": "rodu",
    "3513": "roduc",
    "3514": "aud",
    "3515": "ero",
    "3516": "oug",
    "3517": "uma",
    "3518": "uman",
    "3519": "opo",
    "3520": "opol",
    "3521": "J.",
    "3522": "pap",
    "3523": "rec",
    "3524": "(x",
    "3525": "(x)",
    "3526": "ola",
    "3527": "ultu",
    "3528": "ultur",
    "3529": "ren",
    "3530": "rend",
    "3531": "rende",
    "3532": "ur ",
    "3533": "itim",
    "3534": "abli",
    "3535": "RE",
    "3536": "RED",
    "3537": "REDI",
    "3538": "REDIR",
    "3539": "REDIRE",
    "3540": "ato",
    "3541": "ouf",
    "3542": "oufl",
    "3543": "pot",
    "3544": "poth",
    "3545": "cy ",
    "3546": "ays",
    "3547": "ays ",
    "3548": " n",
    "3549": " na",
    "3550": " nam",
    "3551": "7-",
    "3552": "ketb",
    "3553": "stro",
    "3554": "n'",
    "3555": "n't",
    "3556": "beco",
    "3557": "becom",
    "3558": "ugue",
    "3559": "embl",
    "3560": "ef",
    "3561": "eft",
    "3562": "**",
    "3563": "oin",
    "3564": "oint",
    "3565": "n_",
    "3566": "onw",
    "3567": "onwe",
    "3568": "onwea",
    "3569": "neu",
    "3570": "neur",
    "3571": "e t",
    "3572": "e th",
    "3573": "uni",
    "3574": "Gra",
    "3575": "Gran",
    "3576": "duc",
    "3577": "lec",
    "3578": "lect",
    "3579": "acl",
    "3580": "ddi",
    "3581": "stre",
    "3582": "stren",
    "3583": "streng",
    "3584": "strengt",
    "3585": "terr",
    "3586": "rma",
    "3587": "hab",
    "3588": "habi",
    "3589": "to ",
    "3590": "nic",
    "3591": "lou",
    "3592": "ute",
    "3593": "utel",
    "3594": "cip",
    "3595": "nze",
    "3596": "God",
    "3597": "llo",
    "3598": "llow",
    "3599": "= ",
    "3600": "iet",
    "3601": "Hen",
    "3602": "Henr",
    "3603": "bri",
    "3604": "brid",
    "3605": "bridg",
    "3606": "bridge",
    "3607": "2 /m",
    "3608": "2 /ma",
    "3609": "nis",
    "3610": "nish",
    "3611": "rn ",
    "3612": "habit",
    "3613": "go",
    "3614": "hour",
    "3615": "cto",
    "3616": "Ne",
    "3617": "Net",
    "3618": "ned",
    "3619": "El",
    "3620": "Ele",
    "3621": "30",
    "3622": "30s",
    "3623": "s,",
    "3624": "s, ",
    "3625": "urre",
    "3626": "urren",
    "3627": "ebe",
    "3628": "ban",
    "3629": "Part",
    "3630": "Ru",
    "3631": "Rus",
    "3632": "Russ",
    "3633": "imina",
    "3634": "vir",
    "3635": "viro",
    "3636": "viron",
    "3637": "sita",
    "3638": "ondi",
    "3639": "ondit",
    "3640": "d.",
    "3641": "d. ",
    "3642": "ism",
    "3643": "iden",
    "3644": "ident",
    "3645": "epen",
    "3646": "ible",
    "3647": "ready",
    "3648": "sci",
    "3649": "Sy",
    "3650": "Syr",
    "3651": "elan",
    "3652": "Ser",
    "3653": "Seri",
    "3654": "she",
    "3655": "an ",
    "3656": "II",
    "3657": "isho",
    "3658": "ishop",
    "3659": "gor",
    "3660": "geno",
    "3661": "roup",
    "3662": "ncl",
    "3663": "nclu",
    "3664": "tit",
    "3665": "titu",
    "3666": "pon",
    "3667": "9-",
    "3668": "En",
    "3669": "Eng",
    "3670": "rel",
    "3671": "rely",
    "3672": "ogra",
    "3673": "ude",
    "3674": "Mon",
    "3675": "Mont",
    "3676": "Monte",
    "3677": "Monten",
    "3678": "Montene",
    "3679": "uk",
    "3680": "blin",
    "3681": "blind",
    "3682": "sco",
    "3683": "scop",
    "3684": "mal",
    "3685": "mall",
    "3686": "ford",
    "3687": "api",
    "3688": "apit",
    "3689": "rect",
    "3690": "ed ",
    "3691": "Dece",
    "3692": "Decem",
    "3693": "Decemb",
    "3694": "Decembe",
    "3695": "ner",
    "3696": "nera",
    "3697": "ior",
    "3698": "peci",
    "3699": "64",
    "3700": "aug",
    "3701": "augh",
    "3702": "Rom",
    "3703": "oer",
    "3704": "oerc",
    "3705": "tag",
    "3706": "hov",
    "3707": "ical",
    "3708": "til ",
    "3709": "ber",
    "3710": "GD",
    "3711": "GDP",
    "3712": "Si",
    "3713": "Sir",
    "3714": "Sir ",
    "3715": "uad",
    "3716": "DEC",
    "3717": "ull",
    "3718": "5,",
    "3719": "5, ",
    "3720": "vil",
    "3721": "yn",
    "3722": "W ",
    "3723": "ittl",
    "3724": "lf-",
    "3725": "ard",
    "3726": "ldi",
    "3727": "ldie",
    "3728": "ldier",
    "3729": "dy",
    "3730": "dy ",
    "3731": "Oct",
    "3732": "Octo",
    "3733": "Octob",
    "3734": "Octobe",
    "3735": "dus",
    "3736": "mila",
    "3737": "milar",
    "3738": "orth",
    "3739": "ving",
    "3740": "omi",
    "3741": "omin",
    "3742": " ra",
    "3743": "6-",
    "3744": "ane",
    "3745": "anen",
    "3746": "cul",
    "3747": "cula",
    "3748": "NE",
    "3749": "NET",
    "3750": "ttem",
    "3751": "ttemp",
    "3752": "ttempt",
    "3753": "eria",
    "3754": "erial",
    "3755": "olum",
    "3756": "olume",
    "3757": "occ",
    "3758": "Ju",
    "3759": " sp",
    "3760": " spe",
    "3761": "fin",
    "3762": "fine",
    "3763": "Sco",
    "3764": "Scot",
    "3765": "icti",
    "3766": "unk",
    "3767": "ranc",
    "3768": "alt",
    "3769": "alth",
    "3770": "ina",
    "3771": "err",
    "3772": "elli",
    "3773": " su",
    "3774": "plu",
    "3775": "plus",
    "3776": "olo",
    "3777": "olog",
    "3778": "jur",
    "3779": "eis",
    "3780": "qr",
    "3781": "qrt",
    "3782": "0 ",
    "3783": "tead",
    "3784": " 1",
    "3785": "nia",
    "3786": "pti",
    "3787": "0.",
    "3788": "9)",
    "3789": "9) ",
    "3790": "rat",
    "3791": "rate",
    "3792": "-k",
    "3793": "-kn",
    "3794": "ego",
    "3795": "egon",
    "3796": "M)",
    "3797": "ritr",
    "3798": "ritre",
    "3799": "r ",
    "3800": "anti",
    "3801": "sion",
    "3802": "grap",
    "3803": "lt ",
    "3804": "dero",
    "3805": "nib",
    "3806": "niba",
    "3807": "nibal",
    "3808": "flue",
    "3809": "fluen",
    "3810": "kilo",
    "3811": "ggest",
    "3812": "mon",
    "3813": "mong",
    "3814": "MB",
    "3815": "aw ",
    "3816": "70",
    "3817": "70s",
    "3818": "ysi",
    "3819": "ement",
    "3820": "at ",
    "3821": "ur,",
    "3822": "ur, ",
    "3823": "ot ",
    "3824": "adit",
    "3825": "aditi",
    "3826": "aditio",
    "3827": "erio",
    "3828": "eriod",
    "3829": "ion",
    "3830": "succ",
    "3831": "succe",
    "3832": "ace",
    "3833": "acen",
    "3834": "C ",
    "3835": "rs ",
    "3836": "toe",
    "3837": "toev",
    "3838": "ofte",
    "3839": "uctu",
    "3840": "uctur",
    "3841": "r t",
    "3842": "r to",
    "3843": "sist",
    "3844": "athe",
    "3845": "reet",
    "3846": "ogram",
    "3847": "rup",
    "3848": "rupt",
    "3849": "gro",
    "3850": "grou",
    "3851": "group",
    "3852": "groups",
    "3853": "5 y",
    "3854": "5 ye",
    "3855": "5 yea",
    "3856": "pha",
    "3857": "sup",
    "3858": "pris",
    "3859": "priso",
    "3860": "cla",
    "3861": "clar",
    "3862": "ment",
    "3863": "B ",
    "3864": "odu",
    "3865": "oduc",
    "3866": "b}",
    "3867": "coa",
    "3868": "coac",
    "3869": "coach",
    "3870": "gd",
    "3871": "gdo",
    "3872": "quo",
    "3873": "n.",
    "3874": "n. ",
    "3875": " Ame",
    "3876": " Amer",
    "3877": "olle",
    "3878": "olleg",
    "3879": "opi",
    "3880": "ll ",
    "3881": "cal",
    "3882": "call",
    "3883": "my",
    "3884": "my ",
    "3885": " no",
    "3886": "ccel",
    "3887": "ccele",
    "3888": "cceler",
    "3889": "ppo",
    "3890": "ppos",
    "3891": "r s",
    "3892": "r sh",
    "3893": "all ",
    "3894": "rmi",
    "3895": "cil",
    "3896": "20t",
    "3897": "20th",
    "3898": "coh",
    "3899": "coho",
    "3900": "poi",
    "3901": "poin",
    "3902": "point",
    "3903": "nig",
    "3904": "nigh",
    "3905": "night",
    "3906": "king",
    "3907": "rl ",
    "3908": "cen",
    "3909": "cent",
    "3910": "org",
    "3911": "dil",
    "3912": "dill",
    "3913": "dille",
    "3914": "ged",
    "3915": "seco",
    "3916": "secon",
    "3917": "id ",
    "3918": " with",
    "3919": "gust",
    "3920": "f ",
    "3921": "Su",
    "3922": "Sul",
    "3923": "Sult",
    "3924": "Sulta",
    "3925": "rmu",
    "3926": "rmun",
    "3927": "For ",
    "3928": "cio",
    "3929": "Ma",
    "3930": "sew",
    "3931": "sewi",
    "3932": "yot",
    "3933": "orra",
    "3934": "ku",
    "3935": "vy ",
    "3936": "rap",
    "3937": "das",
    "3938": "enf",
    "3939": "enfo",
    "3940": "enfor",
    "3941": "enforc",
    "3942": "llac",
    "3943": "arte",
    "3944": "arter",
    "3945": "divi",
    "3946": "divin",
    "3947": "diving",
    "3948": "rop",
    "3949": "rope",
    "3950": "mont",
    "3951": "6t",
    "3952": "6th",
    "3953": "Du",
    "3954": "Dun",
    "3955": "Dund",
    "3956": "Dunde",
    "3957": "Dundee",
    "3958": "efu",
    "3959": "don",
    "3960": "sou",
    "3961": "sout",
    "3962": "south",
    "3963": "rati",
    "3964": "ici",
    "3965": "can",
    "3966": "ythm",
    "3967": "fiel",
    "3968": "field",
    "3969": " y",
    "3970": " ye",
    "3971": " yea",
    "3972": " year",
    "3973": "fue",
    "3974": "fuel",
    "3975": "renc",
    "3976": "rench",
    "3977": "ossi",
    "3978": "ossib",
    "3979": "ode",
    "3980": "oder",
    "3981": "zz",
    "3982": "pril",
    "3983": "set",
    "3984": "irec",
    "3985": "irect",
    "3986": "cut",
    "3987": "inu",
    "3988": "A,",
    "3989": "A, ",
    "3990": "bin",
    "3991": "ched",
    "3992": "COB",
    "3993": "COBO",
    "3994": "Sa",
    "3995": "Sag",
    "3996": "Saga",
    "3997": "Sagan",
    "3998": "tabl",
    "3999": "bert",
    "4000": " Ameri",
    "4001": "din",
    "4002": "ding",
    "4003": "lad",
    "4004": "beg",
    "4005": "begi",
    "4006": "begin",
    "4007": "Org",
    "4008": "Orga",
    "4009": "eam",
    "4010": "sin",
    "4011": "sine",
    "4012": "sines",
    "4013": "ung",
    "4014": "unga",
    "4015": "ungar",
    "4016": "r o",
    "4017": "sex",
    "4018": "enou",
    "4019": "enoug",
    "4020": "gani",
    "4021": "anc",
    "4022": "ance",
    "4023": "roun",
    "4024": "lta",
    "4025": "gat",
    "4026": "must",
    "4027": "3t",
    "4028": "3th",
    "4029": "cho",
    "4030": "f a",
    "4031": "f ag",
    "4032": "fla",
    "4033": "flat",
    "4034": "dn",
    "4035": "dne",
    "4036": "dney",
    "4037": "elv",
    "4038": "elvi",
    "4039": "elvil",
    "4040": "han ",
    "4041": "rtis",
    "4042": "rtist",
    "4043": ")#",
    "4044": "ck",
    "4045": "ck ",
    "4046": "80",
    "4047": "liam",
    "4048": "anit",
    "4049": "gue",
    "4050": "ovem",
    "4051": "oveme",
    "4052": "ovemen",
    "4053": "noc",
    "4054": "noce",
    "4055": "nocen",
    "4056": "chr",
    "4057": "chro",
    "4058": "ines",
    "4059": "r th",
    "4060": "r tha",
    "4061": "zard",
    "4062": "cre",
    "4063": "Sh",
    "4064": "She",
    "4065": "She ",
    "4066": "60",
    "4067": "60s",
    "4068": "ulg",
    "4069": "ulga",
    "4070": "Cle",
    "4071": "Clev",
    "4072": "Cleve",
    "4073": "Clevel",
    "4074": "Clevela",
    "4075": "BM",
    "4076": "sey",
    "4077": "rli",
    "4078": "rlia",
    "4079": "rliam",
    "4080": "ty ",
    "4081": "lat",
    "4082": "bus",
    "4083": "bust",
    "4084": "ame ",
    "4085": "ras",
    "4086": "nci",
    "4087": "ncip",
    "4088": "Da",
    "4089": "alti",
    "4090": "aun",
    "4091": "riag",
    "4092": "nit",
    "4093": "bs",
    "4094": "bsp",
    "4095": "ifo",
    "4096": "It ",
    "4097": "alo",
    "4098": "aic",
    "4099": "*1",
    "4100": "stru",
    "4101": "tial",
    "4102": "elie",
    "4103": "equ",
    "4104": "uge",
    "4105": "sys",
    "4106": "syst",
    "4107": "syste",
    "4108": "Ab",
    "4109": "Abr",
    "4110": "Abra",
    "4111": "para",
    "4112": "parat",
    "4113": "rem",
    "4114": "enne",
    "4115": "enner",
    "4116": "ros",
    "4117": "ross",
    "4118": "/s",
    "4119": "/su",
    "4120": "/sup",
    "4121": "er ",
    "4122": "cest",
    "4123": "RP",
    "4124": "RPA",
    "4125": "yge",
    "4126": "ygen",
    "4127": "Gur",
    "4128": "len",
    "4129": "alst",
    "4130": "alsta",
    "4131": "cid",
    "4132": "cide",
    "4133": "ht",
    "4134": "htt",
    "4135": "http",
    "4136": "ilg",
    "4137": "ilgr",
    "4138": "ilgri",
    "4139": "ilgrim",
    "4140": "cta",
    "4141": "ctat",
    "4142": "ery ",
    "4143": "ini",
    "4144": "bar",
    "4145": "uar",
    "4146": "hrou",
    "4147": "tic ",
    "4148": "Canad",
    "4149": "ced ",
    "4150": "ula",
    "4151": "ork",
    "4152": "ottl",
    "4153": "Sep",
    "4154": "Sept",
    "4155": "Septe",
    "4156": "Septem",
    "4157": "Septemb",
    "4158": "usse",
    "4159": "Ea",
    "4160": "Ear",
    "4161": "Eart",
    "4162": "Earth",
    "4163": "cir",
    "4164": "circ",
    "4165": "lay",
    "4166": "ges",
    "4167": "eric",
    "4168": "erica",
    "4169": "got",
    "4170": "got ",
    "4171": "lang",
    "4172": "langu",
    "4173": "il ",
    "4174": "usan",
    "4175": "outh",
    "4176": "4%",
    "4177": "trol",
    "4178": "ps",
    "4179": "cale",
    "4180": "eatu",
    "4181": "eatur",
    "4182": "90",
    "4183": "90s",
    "4184": "pert",
    "4185": "eru",
    "4186": "fam",
    "4187": "fami",
    "4188": "ylo",
    "4189": "ylor",
    "4190": "esi",
    "4191": "rae",
    "4192": "rael",
    "4193": "tox",
    "4194": "culi",
    "4195": "heis",
    "4196": "rld",
    "4197": "NA",
    "4198": "NA ",
    "4199": "w ",
    "4200": "Ta",
    "4201": "Tal",
    "4202": "Tale",
    "4203": "isib",
    "4204": "rvo",
    "4205": "rvoy",
    "4206": "rvoya",
    "4207": "rvoyan",
    "4208": "gnos",
    "4209": "pple",
    "4210": " p",
    "4211": "die",
    "4212": "ende",
    "4213": "ended",
    "4214": "e a",
    "4215": "e al",
    "4216": "2)",
    "4217": "-19",
    "4218": "uter",
    "4219": "ltim",
    "4220": "icag",
    "4221": "ext",
    "4222": "tes",
    "4223": "centu",
    "4224": "centur",
    "4225": "bj",
    "4226": "bje",
    "4227": "bjec",
    "4228": "rim",
    "4229": "nga",
    "4230": "ngar",
    "4231": "versio",
    "4232": "version",
    "4233": "cag",
    "4234": "cago",
    "4235": "lud",
    "4236": "pare",
    "4237": "thod",
    "4238": "egu",
    "4239": "egul",
    "4240": "egula",
    "4241": "Eas",
    "4242": "East",
    "4243": "ega",
    "4244": "egat",
    "4245": "kar",
    "4246": "sli",
    "4247": "slim",
    "4248": "ssac",
    "4249": "ssach",
    "4250": "ssachu",
    "4251": "very",
    "4252": "very ",
    "4253": "bia",
    "4254": "aff",
    "4255": "bine",
    "4256": "binet",
    "4257": "ota",
    "4258": "otat",
    "4259": "ier",
    "4260": "uel",
    "4261": "bst",
    "4262": "BC",
    "4263": "n (",
    "4264": "lleng",
    "4265": "ugl",
    "4266": "ugla",
    "4267": "uglas",
    "4268": "tok",
    "4269": "toke",
    "4270": "VI",
    "4271": "1,",
    "4272": "1, ",
    "4273": "2,",
    "4274": "2, ",
    "4275": "rria",
    "4276": "rriag",
    "4277": "ead",
    "4278": "arn",
    "4279": "ogl",
    "4280": "oglo",
    "4281": "oglob",
    "4282": "wel",
    "4283": "well",
    "4284": "ourc",
    "4285": "ource",
    "4286": "abr",
    "4287": "ws",
    "4288": "wst",
    "4289": "Her",
    "4290": "Herz",
    "4291": "Herze",
    "4292": " for",
    "4293": "clos",
    "4294": "lau",
    "4295": "laut",
    "4296": "tion",
    "4297": "lap",
    "4298": "IDE",
    "4299": ",000",
    "4300": "ract",
    "4301": "t (",
    "4302": "iew",
    "4303": "dec",
    "4304": "decl",
    "4305": "decle",
    "4306": "declen",
    "4307": "nge ",
    "4308": "git",
    "4309": "gita",
    "4310": "gitat",
    "4311": "VD",
    "4312": "after",
    "4313": "hm",
    "4314": "rom ",
    "4315": "F/",
    "4316": "F/A",
    "4317": "itle",
    "4318": ") ",
    "4319": "kine",
    "4320": "kinet",
    "4321": "iu",
    "4322": "ngu",
    "4323": "lion",
    "4324": "-w",
    "4325": "-wi",
    "4326": "-win",
    "4327": " B",
    "4328": " BC",
    "4329": "azo",
    "4330": "azon",
    "4331": "ole",
    "4332": "ckn",
    "4333": "ckna",
    "4334": "rry",
    "4335": "rry ",
    "4336": "coun",
    "4337": "count",
    "4338": "u ",
    "4339": "Val",
    "4340": "Valu",
    "4341": "Valua",
    "4342": "Valuab",
    "4343": "Valuabl",
    "4344": ".)",
    "4345": "roma",
    "4346": "roman",
    "4347": "arth",
    "4348": "RB",
    "4349": "RBI",
    "4350": "eug",
    "4351": "euge",
    "4352": "eugen",
    "4353": "ries",
    "4354": "sar",
    "4355": "sar ",
    "4356": "eyr",
    "4357": "Ang",
    "4358": "Angl",
    "4359": "box",
    "4360": "ough",
    "4361": "hich",
    "4362": "gle",
    "4363": " L",
    "4364": "cross",
    "4365": "South",
    "4366": "*19",
    "4367": "thur",
    "4368": "9,",
    "4369": "9, ",
    "4370": "3-",
    "4371": "blu",
    "4372": "blue",
    "4373": "erm ",
    "4374": "usl",
    "4375": "usli",
    "4376": "uslim",
    "4377": "ulm",
    "4378": "ulmi",
    "4379": "ulmin",
    "4380": "hero",
    "4381": "eag",
    "4382": "eagu",
    "4383": "nces",
    "4384": "ncest",
    "4385": "n,",
    "4386": "n, ",
    "4387": "nly",
    "4388": "nly ",
    "4389": "key",
    "4390": "ily",
    "4391": ".S",
    "4392": ".S.",
    "4393": "mse",
    "4394": "msel",
    "4395": "oved ",
    "4396": "tas",
    "4397": "emne",
    "4398": "emned",
    "4399": "we ",
    "4400": "van",
    "4401": "bul",
    "4402": "utio",
    "4403": "shin",
    "4404": "rx",
    "4405": "rxi",
    "4406": "atm",
    "4407": "atme",
    "4408": "ona",
    "4409": "onau",
    "4410": "onaut",
    "4411": "pre",
    "4412": "pres",
    "4413": "east",
    "4414": "rtai",
    "4415": "rip",
    "4416": "stab",
    "4417": "stabl",
    "4418": "M ",
    "4419": "stabli",
    "4420": " -",
    "4421": " - ",
    "4422": "te ",
    "4423": "zer",
    "4424": "f-",
    "4425": "amenta",
    "4426": "10",
    "4427": "100",
    "4428": "kee",
    "4429": "tate",
    "4430": "let",
    "4431": "lete",
    "4432": "iva",
    "4433": "ival",
    "4434": "xia",
    "4435": "posi",
    "4436": "att",
    "4437": "attl",
    "4438": "attle",
    "4439": "oro",
    "4440": "orou",
    "4441": "cam",
    "4442": "came",
    "4443": "200",
    "4444": "in ",
    "4445": "cess",
    "4446": "yed",
    "4447": "exi",
    "4448": "exis",
    "4449": "exist",
    "4450": "(I",
    "4451": "mina",
    "4452": "ose ",
    "4453": "*Un",
    "4454": "*Uni",
    "4455": "pend",
    "4456": "pendi",
    "4457": "pendin",
    "4458": "nee",
    "4459": "neer",
    "4460": "lde",
    "4461": "lden",
    "4462": "ssu",
    "4463": "AM",
    "4464": "omm",
    "4465": "use ",
    "4466": "use o",
    "4467": "use of",
    "4468": "use of ",
    "4469": "ther",
    "4470": "sso",
    "4471": "ssoc",
    "4472": "ssoci",
    "4473": "ssocia",
    "4474": "pect",
    "4475": "ril",
    "4476": "Ark",
    "4477": "ened",
    "4478": "mocra",
    "4479": "med ",
    "4480": "aum",
    "4481": "ensi",
    "4482": "Hir",
    "4483": "Hiro",
    "4484": "Ve",
    "4485": "wik",
    "4486": "wiki",
    "4487": "3:",
    "4488": "Ya",
    "4489": "Yah",
    "4490": "Yahw",
    "4491": "lob",
    "4492": "loba",
    "4493": "lobal",
    "4494": "rre",
    "4495": "FT",
    "4496": "h)",
    "4497": "iq",
    "4498": "iqu",
    "4499": "udi",
    "4500": "udio",
    "4501": "lyt",
    "4502": "acif",
    "4503": "acifi",
    "4504": "lace",
    "4505": "ful",
    "4506": "19",
    "4507": "190",
    "4508": "racte",
    "4509": "pile",
    "4510": "iles",
    "4511": "iles ",
    "4512": "CE",
    "4513": "CEO",
    "4514": "o'",
    "4515": "o' ",
    "4516": "emy",
    "4517": "Fa",
    "4518": "Fat",
    "4519": "Fath",
    "4520": "Fathe",
    "4521": "tt ",
    "4522": "AI",
    "4523": "mig",
    "4524": "Cub",
    "4525": "Cuba",
    "4526": "twor",
    "4527": "twork",
    "4528": "syc",
    "4529": "sych",
    "4530": "harl",
    "4531": "anis",
    "4532": "anish",
    "4533": "E)",
    "4534": " (d.",
    "4535": " (d. ",
    "4536": "enti",
    "4537": "entio",
    "4538": "rly",
    "4539": "bran",
    "4540": "branc",
    "4541": "branch",
    "4542": "idg",
    "4543": "idge",
    "4544": "doe",
    "4545": "does",
    "4546": "sph",
    "4547": "t-",
    "4548": "oom",
    "4549": "rbi",
    "4550": "rbit",
    "4551": "iam",
    "4552": "selv",
    "4553": "oas",
    "4554": "icie",
    "4555": "icien",
    "4556": "isn",
    "4557": "isne",
    "4558": " by",
    "4559": " by ",
    "4560": "#r",
    "4561": "#re",
    "4562": "#red",
    "4563": "//",
    "4564": "Parliam",
    "4565": "uca",
    "4566": "ucat",
    "4567": "asin",
    "4568": "asins",
    "4569": "ench",
    "4570": "ody ",
    "4571": "memn",
    "4572": "memno",
    "4573": "Bel",
    "4574": "Belt",
    "4575": "t l",
    "4576": "t le",
    "4577": "t lea",
    "4578": "t leas",
    "4579": "orb",
    "4580": "orbe",
    "4581": "orbet",
    "4582": "andw",
    "4583": "andwi",
    "4584": "urk",
    "4585": "urke",
    "4586": "urkey",
    "4587": "EO",
    "4588": "pto",
    "4589": "rys",
    "4590": "ryst",
    "4591": "ntl",
    "4592": "ntly",
    "4593": "ubs",
    "4594": "Ex",
    "4595": "Exc",
    "4596": "uard",
    "4597": "ily ",
    "4598": "rck",
    "4599": "fat",
    "4600": "fath",
    "4601": "fathe",
    "4602": "eut",
    "4603": "olic",
    "4604": "rQ",
    "4605": "tam",
    "4606": "tamp",
    "4607": "rsi",
    "4608": "aba",
    "4609": "alec",
    "4610": "alect",
    "4611": " sc",
    "4612": " sch",
    "4613": " scho",
    "4614": "nom",
    "4615": "Sub",
    "4616": "Subs",
    "4617": "Subst",
    "4618": "goi",
    "4619": "nest",
    "4620": "Hur",
    "4621": "yga",
    "4622": "ygax",
    "4623": "miti",
    "4624": "worl",
    "4625": "world",
    "4626": "e'",
    "4627": "e's",
    "4628": "e's ",
    "4629": "ins",
    "4630": "inst",
    "4631": "inste",
    "4632": "nan",
    "4633": "nanc",
    "4634": "nance",
    "4635": "uat",
    "4636": "uati",
    "4637": "uatio",
    "4638": "turn",
    "4639": "eil",
    "4640": "tine",
    "4641": "tinen",
    "4642": "tar",
    "4643": "targ",
    "4644": "targe",
    "4645": "target",
    "4646": "nned",
    "4647": "Rai",
    "4648": "Rail",
    "4649": "urt",
    "4650": "urth",
    "4651": "thoug",
    "4652": "t a",
    "4653": "t al",
    "4654": "t all",
    "4655": "Y ",
    "4656": "indu",
    "4657": "ena",
    "4658": "utr",
    "4659": "utra",
    "4660": "utral",
    "4661": "gli",
    "4662": "glid",
    "4663": "perat",
    "4664": "*y",
    "4665": "enth",
    "4666": "1%",
    "4667": "bro",
    "4668": "Zw",
    "4669": "Zwi",
    "4670": "ases",
    "4671": "G ",
    "4672": "gan ",
    "4673": "(A",
    "4674": "(AB",
    "4675": "(ABC",
    "4676": "tmo",
    "4677": "tmos",
    "4678": "tmosp",
    "4679": "boat",
    "4680": "rtio",
    "4681": "ainl",
    "4682": " T",
    "4683": "lov",
    "4684": "alif",
    "4685": "het",
    "4686": "hete",
    "4687": "heter",
    "4688": "mme",
    "4689": "mmen",
    "4690": "notat",
    "4691": "notati",
    "4692": "dau",
    "4693": "daug",
    "4694": "daugh",
    "4695": "daught",
    "4696": "daughte",
    "4697": "uly",
    "4698": "aign",
    "4699": "Ver",
    "4700": "Verd",
    "4701": "alid",
    "4702": " wa",
    "4703": " was",
    "4704": "n't ",
    "4705": "niac",
    "4706": "ist ",
    "4707": "ounc",
    "4708": "ilde",
    "4709": "upr",
    "4710": "upre",
    "4711": "uprem",
    "4712": "Sin",
    "4713": "Sing",
    "4714": "Singh",
    "4715": "erci",
    "4716": "rnet",
    "4717": "Do",
    "4718": "dern",
    "4719": "xte",
    "4720": "xten",
    "4721": "ker",
    "4722": " X",
    "4723": "scie",
    "4724": "rm ",
    "4725": " W",
    "4726": " Wa",
    "4727": " al",
    "4728": " all",
    "4729": " all ",
    "4730": "eom",
    "4731": "3 /",
    "4732": "3 /s",
    "4733": "acu",
    "4734": "acul",
    "4735": "reg",
    "4736": "regi",
    "4737": "regio",
    "4738": "region",
    "4739": "ED",
    "4740": "EDI",
    "4741": "EDIF",
    "4742": "tus",
    "4743": " pr",
    "4744": " pro",
    "4745": "fire",
    "4746": "velo",
    "4747": "ol ",
    "4748": "ol o",
    "4749": "ol of",
    "4750": "ol of ",
    "4751": "Roma",
    "4752": "Lei",
    "4753": "Leib",
    "4754": "Leibn",
    "4755": "Leibni",
    "4756": "ntic",
    "4757": "usu",
    "4758": "usua",
    "4759": "uff",
    "4760": "eed",
    "4761": "ugg",
    "4762": "71",
    "4763": "719",
    "4764": "ift",
    "4765": "xerc",
    "4766": "xerci",
    "4767": "borg",
    "4768": "D.",
    "4769": "IS",
    "4770": "ISB",
    "4771": "New",
    "4772": "uba",
    "4773": "Ada",
    "4774": "Adam",
    "4775": "wam",
    "4776": "ete",
    "4777": "eter",
    "4778": "orei",
    "4779": "oreig",
    "4780": "jac",
    "4781": "iec",
    "4782": "iece",
    "4783": "thy",
    "4784": "orm ",
    "4785": "orm o",
    "4786": "orm of",
    "4787": "orm of ",
    "4788": "CI",
    "4789": "00,",
    "4790": "00, ",
    "4791": "Al",
    "4792": "Al ",
    "4793": " F",
    "4794": "31",
    "4795": "319",
    "4796": "stroy",
    "4797": "forc",
    "4798": "force",
    "4799": "gene",
    "4800": "deas",
    "4801": "leng",
    "4802": "lengt",
    "4803": "edim",
    "4804": "nim",
    "4805": "ori",
    "4806": "earl",
    "4807": "ank",
    "4808": "cies",
    "4809": "nad",
    "4810": "nadi",
    "4811": "nadia",
    "4812": "nadian",
    "4813": "yna",
    "4814": "hot",
    "4815": "hote",
    "4816": "hotel",
    "4817": "Hab",
    "4818": "Habs",
    "4819": "Habsb",
    "4820": "Habsbu",
    "4821": "Art",
    "4822": "td",
    "4823": "kel",
    "4824": "kely",
    "4825": "kely ",
    "4826": "glu",
    "4827": "gluc",
    "4828": " S",
    "4829": " Se",
    "4830": " Ser",
    "4831": "ptor",
    "4832": "/S",
    "4833": "-u",
    "4834": "-up",
    "4835": "Oce",
    "4836": "Ocea",
    "4837": "goti",
    "4838": "gotia",
    "4839": "ssib",
    "4840": "His",
    "4841": "Hist",
    "4842": "ne ",
    "4843": "tne",
    "4844": "mete",
    "4845": "meter",
    "4846": "bow",
    "4847": "bowl",
    "4848": " /m",
    "4849": " /ma",
    "4850": "Apr",
    "4851": "Apri",
    "4852": "April",
    "4853": "mosp",
    "4854": "way",
    "4855": "vera",
    "4856": "veral",
    "4857": "veral ",
    "4858": "vict",
    "4859": "victo",
    "4860": "victor",
    "4861": "arib",
    "4862": "eror",
    "4863": "wat",
    "4864": "wate",
    "4865": "water",
    "4866": ",y",
    "4867": "pher",
    "4868": "oni",
    "4869": "40s",
    "4870": "40s ",
    "4871": "ow ",
    "4872": "fil",
    "4873": "file",
    "4874": "EN",
    "4875": "END",
    "4876": "babi",
    "4877": "sau",
    "4878": "rh",
    "4879": "rha",
    "4880": "FTA",
    "4881": "Ja",
    "4882": "Jap",
    "4883": "Japa",
    "4884": "ably",
    "4885": "ono",
    "4886": "onou",
    "4887": "onoun",
    "4888": "anie",
    "4889": "anies",
    "4890": "qua",
    "4891": "-s",
    "4892": "-sh",
    "4893": "-sha",
    "4894": "-shap",
    "4895": "-shape",
    "4896": "-shaped",
    "4897": "ingt",
    "4898": "ingto",
    "4899": "Nob",
    "4900": "utt",
    "4901": "utti",
    "4902": "uttin",
    "4903": "life",
    "4904": "dri",
    "4905": "driv",
    "4906": "eir",
    "4907": "eira",
    "4908": "tual",
    "4909": "OR",
    "4910": "ORP",
    "4911": "ORPG",
    "4912": "Har",
    "4913": "Harr",
    "4914": "mand",
    "4915": "basi",
    "4916": "basic",
    "4917": "hom",
    "4918": "lg",
    "4919": "lge",
    "4920": "lgeb",
    "4921": "lgebr",
    "4922": "4 -",
    "4923": "4 - ",
    "4924": "rmy",
    "4925": "endo",
    "4926": "endor",
    "4927": "its ",
    "4928": "que",
    "4929": "-sho",
    "4930": "itre",
    "4931": "itrea",
    "4932": "Au",
    "4933": "Aus",
    "4934": "omen",
    "4935": "oment",
    "4936": "Ke",
    "4937": "Key",
    "4938": "odi",
    "4939": "leas",
    "4940": "least",
    "4941": "fan",
    "4942": "esig",
    "4943": "esign",
    "4944": "I)",
    "4945": "pod",
    "4946": "Web",
    "4947": "norr",
    "4948": "sona",
    "4949": "sonan",
    "4950": "lied",
    "4951": "ged ",
    "4952": "yes",
    "4953": " for ",
    "4954": "vis",
    "4955": "tma",
    "4956": "icat",
    "4957": "bap",
    "4958": "bapt",
    "4959": "eral",
    "4960": "holi",
    "4961": "holid",
    "4962": "holida",
    "4963": "holiday",
    "4964": "elo",
    "4965": "eloc",
    "4966": "Chia",
    "4967": "Chian",
    "4968": "MBE",
    "4969": "MBER",
    "4970": "y'",
    "4971": "y' ",
    "4972": "neo",
    "4973": "neou",
    "4974": "i ",
    "4975": "tran",
    "4976": "Cro",
    "4977": "eng",
    "4978": "engi",
    "4979": "engin",
    "4980": "ugha",
    "4981": "Tw",
    "4982": "Twe",
    "4983": "SS",
    "4984": "uty",
    "4985": "Pri",
    "4986": "umo",
    "4987": "ite ",
    "4988": "rren",
    "4989": "dor",
    "4990": "nsb",
    "4991": "nsba",
    "4992": "nsbac",
    "4993": "ych",
    "4994": "):",
    "4995": "ondo",
    "4996": "ondon",
    "4997": "irt",
    "4998": "irtu",
    "4999": "kan",
    "5000": "kans",
    "5001": "kansa",
    "5002": "aval",
    "5003": "enst",
    "5004": "/n",
    "5005": "/no",
    "5006": "ttl",
    "5007": "ttle",
    "5008": "pren",
    "5009": "prene",
    "5010": "preneu",
    "5011": "tori",
    "5012": "torie",
    "5013": "ald",
    "5014": "first",
    "5015": "yet ",
    "5016": "leag",
    "5017": "ista",
    "5018": "exp",
    "5019": "expe",
    "5020": "expen",
    "5021": "expens",
    "5022": "expensi",
    "5023": "expensiv",
    "5024": "Hou",
    "5025": "Hous",
    "5026": "Houst",
    "5027": "lers",
    "5028": "lers ",
    "5029": "rizon",
    "5030": "RT",
    "5031": "} ",
    "5032": "} /",
    "5033": "} /m",
    "5034": "} /ma",
    "5035": "acty",
    "5036": "actyl",
    "5037": "nte",
    "5038": "cka",
    "5039": "cke",
    "5040": "cked",
    "5041": "IF",
    "5042": "IFA",
    "5043": "lled",
    "5044": "card",
    "5045": "Ag",
    "5046": "Age",
    "5047": "Agen",
    "5048": "ebre",
    "5049": "ebrew",
    "5050": "SA ",
    "5051": "axis",
    "5052": "0 s",
    "5053": "agai",
    "5054": "again",
    "5055": "/o",
    "5056": "/or",
    "5057": "tol",
    "5058": "role",
    "5059": "hop",
    "5060": "hops",
    "5061": "sle",
    "5062": "gas",
    "5063": "gav",
    "5064": "gave",
    "5065": "gave ",
    "5066": "mill",
    "5067": "v.",
    "5068": "v. ",
    "5069": "in'",
    "5070": "in't",
    "5071": "base",
    "5072": "de ",
    "5073": "OM",
    "5074": "eem",
    "5075": "velop",
    "5076": "uic",
    "5077": "uici",
    "5078": "yu",
    "5079": "yun",
    "5080": "mate",
    "5081": "mater",
    "5082": "materi",
    "5083": "ropo",
    "5084": "ropor",
    "5085": "roport",
    "5086": "roporti",
    "5087": "ia ",
    "5088": "gon",
    "5089": "atie",
    "5090": "atien",
    "5091": "uou",
    "5092": "uous",
    "5093": "n b",
    "5094": "n by",
    "5095": "n by ",
    "5096": "alen",
    "5097": "oy",
    "5098": "god",
    "5099": "thir",
    "5100": "00 ",
    "5101": "cae",
    "5102": "Arti",
    "5103": "o*",
    "5104": " Fi",
    "5105": "llip",
    "5106": "nite",
    "5107": "er,",
    "5108": "er, ",
    "5109": "upe",
    "5110": "uper",
    "5111": "kind",
    "5112": "kinds",
    "5113": "ygi",
    "5114": "ygie",
    "5115": "ntine",
    "5116": "ntinen",
    "5117": "ntinent",
    "5118": "AG",
    "5119": "AGP",
    "5120": "51",
    "5121": "519",
    "5122": "bur",
    "5123": "erly",
    "5124": "Jr",
    "5125": "spri",
    "5126": "sprin",
    "5127": "oad",
    "5128": "uv",
    "5129": "adv",
    "5130": "mag",
    "5131": "iev",
    "5132": "icha",
    "5133": "ichar",
    "5134": "-p",
    "5135": "-pl",
    "5136": "-pla",
    "5137": "ropu",
    "5138": "ropul",
    "5139": "proc",
    "5140": "Phy",
    "5141": "nq",
    "5142": "nqu",
    "5143": "omar",
    "5144": "S$",
    "5145": "k)",
    "5146": "Aust",
    "5147": "Austr",
    "5148": "ims",
    "5149": "imse",
    "5150": "imsel",
    "5151": "rce",
    "5152": "llab",
    "5153": "gol",
    "5154": "es,",
    "5155": "es, ",
    "5156": "poss",
    "5157": "possi",
    "5158": "possib",
    "5159": "cono",
    "5160": "conom",
    "5161": "haz",
    "5162": "vinc",
    "5163": "rriv",
    "5164": "ars",
    "5165": "2-",
    "5166": "2-b",
    "5167": "2-bi",
    "5168": "2-bit",
    "5169": "eha",
    "5170": "ubse",
    "5171": "ubseq",
    "5172": "wse",
    "5173": "wser",
    "5174": "lett",
    "5175": "olf",
    "5176": "gc",
    "5177": "ddl",
    "5178": "ngto",
    "5179": "ngton",
    "5180": "ps ",
    "5181": "een ",
    "5182": "hae",
    "5183": "hael",
    "5184": "test",
    "5185": "Por",
    "5186": "Port",
    "5187": " st",
    "5188": " sty",
    "5189": " styl",
    "5190": "3%",
    "5191": "cret",
    "5192": "zol",
    "5193": "vian",
    "5194": "elp",
    "5195": "reas",
    "5196": "reaso",
    "5197": "howeve",
    "5198": "rug",
    "5199": "rugg",
    "5200": "stat",
    "5201": "8 ",
    "5202": "8 t",
    "5203": "8 to",
    "5204": "8 to ",
    "5205": "nop",
    "5206": " td",
    "5207": "xu",
    "5208": "xua",
    "5209": "ref",
    "5210": "er*",
    "5211": "60s ",
    "5212": "lim",
    "5213": "ST",
    "5214": "leg",
    "5215": "lege",
    "5216": "legen",
    "5217": "legend",
    "5218": " M",
    "5219": "edu",
    "5220": "edul",
    "5221": "ON",
    "5222": "dra",
    "5223": "mali",
    "5224": "malis",
    "5225": "ollow",
    "5226": "pecia",
    "5227": "lev",
    "5228": "leve",
    "5229": "sha",
    "5230": "giv",
    "5231": "viat",
    "5232": "engt",
    "5233": "gia",
    "5234": "gian",
    "5235": ".C",
    "5236": ".C.",
    "5237": "eab",
    "5238": "voc",
    "5239": "voca",
    "5240": "tov",
    "5241": "amer",
    "5242": "amera",
    "5243": "Cal",
    "5244": "Cali",
    "5245": "Calif",
    "5246": "Califo",
    "5247": "Califor",
    "5248": "oso",
    "5249": "osop",
    "5250": "sor",
    "5251": "sati",
    "5252": "ortl",
    "5253": "ortly",
    "5254": "EE",
    "5255": "g t",
    "5256": "WA",
    "5257": "Exp",
    "5258": "Expo",
    "5259": "oca",
    "5260": "ocau",
    "5261": "ocaus",
    "5262": "ocaust",
    "5263": "Mar",
    "5264": "kic",
    "5265": "kick",
    "5266": "pm",
    "5267": "pme",
    "5268": "pmen",
    "5269": "F)",
    "5270": "xpe",
    "5271": "xped",
    "5272": "xpedi",
    "5273": "site",
    "5274": "dica",
    "5275": "dicat",
    "5276": "arx",
    "5277": "nex",
    "5278": "next",
    "5279": "vent",
    "5280": "vents",
    "5281": "wev",
    "5282": "weve",
    "5283": "gred",
    "5284": "gredi",
    "5285": "gredie",
    "5286": "onl",
    "5287": "only",
    "5288": "ocr",
    "5289": "la ",
    "5290": "Ran",
    "5291": "Rang",
    "5292": "pis",
    "5293": "piso",
    "5294": "pisod",
    "5295": "Fir",
    "5296": "enoc",
    "5297": "enoci",
    "5298": "enocid",
    "5299": "tune",
    "5300": "egr",
    "5301": "egre",
    "5302": "egreg",
    "5303": "egrega",
    "5304": "cov",
    "5305": "cove",
    "5306": "A F",
    "5307": "A Fa",
    "5308": "A Far",
    "5309": "A Fare",
    "5310": "nie",
    "5311": "nied",
    "5312": "umab",
    "5313": "iv ",
    "5314": "useu",
    "5315": "useum",
    "5316": "hard",
    "5317": "moun",
    "5318": "mount",
    "5319": "nel",
    "5320": "job",
    "5321": "jobs",
    "5322": "SE",
    "5323": "199",
    "5324": "osoph",
    "5325": "lba",
    "5326": "lbat",
    "5327": "nall",
    "5328": "nally",
    "5329": "00p",
    "5330": "00px",
    "5331": "mw",
    "5332": "mwe",
    "5333": "mwel",
    "5334": "mwell",
    "5335": "pal",
    "5336": "oper",
    "5337": ",\\",
    "5338": "them",
    "5339": "inim",
    "5340": "41",
    "5341": "419",
    "5342": "BE",
    "5343": "ncie",
    "5344": "ncien",
    "5345": "gov",
    "5346": "gove",
    "5347": "clu",
    "5348": "clud",
    "5349": "Tu",
    "5350": "unti",
    "5351": "uli",
    "5352": "art ",
    "5353": "art o",
    "5354": "art of",
    "5355": "art of ",
    "5356": "mps",
    "5357": "mpso",
    "5358": "mpson",
    "5359": "p. ",
    "5360": "Cas",
    "5361": "Cast",
    "5362": ",:",
    "5363": "Stat",
    "5364": "dep",
    "5365": "depe",
    "5366": "depen",
    "5367": "hras",
    "5368": "roo",
    "5369": "roop",
    "5370": "and-",
    "5371": "wal",
    "5372": "(IC",
    "5373": "Ten",
    "5374": "Tent",
    "5375": "Tenta",
    "5376": "91",
    "5377": "ehav",
    "5378": "gener",
    "5379": "genera",
    "5380": "general",
    "5381": "deq",
    "5382": "dequ",
    "5383": "atic",
    "5384": "PC",
    "5385": "s /",
    "5386": "s /t",
    "5387": "bell",
    "5388": "belli",
    "5389": "USB",
    "5390": "tei",
    "5391": "tein",
    "5392": "bub",
    "5393": "bubb",
    "5394": "bubbl",
    "5395": ":/",
    "5396": "://",
    "5397": "ilo",
    "5398": "Emp",
    "5399": "unci",
    "5400": "uncil",
    "5401": "alf",
    "5402": "anch",
    "5403": "mpe",
    "5404": "x}",
    "5405": "ssen",
    "5406": "ibut",
    "5407": "scr",
    "5408": "scri",
    "5409": "epi",
    "5410": "nsiv",
    "5411": "ient",
    "5412": "net",
    "5413": "n L",
    "5414": "Fren",
    "5415": "Frenc",
    "5416": "idd",
    "5417": "iddl",
    "5418": "zil",
    "5419": "tyc",
    "5420": "tych",
    "5421": "pok",
    "5422": "poke",
    "5423": "aree",
    "5424": "areer",
    "5425": "y's",
    "5426": "San",
    "5427": "pone",
    "5428": "just ",
    "5429": "ldl",
    "5430": "ldli",
    "5431": "ver ",
    "5432": "/tr",
    "5433": "Nove",
    "5434": "Novem",
    "5435": "llm",
    "5436": "llme",
    "5437": "GP",
    "5438": "GPM",
    "5439": "GPMG",
    "5440": "craf",
    "5441": "gb",
    "5442": "gby",
    "5443": "Pi",
    "5444": "rana",
    "5445": "You",
    "5446": "Nom",
    "5447": "von",
    "5448": "gethe",
    "5449": "gether",
    "5450": "nsu",
    "5451": "nsul",
    "5452": "k F",
    "5453": "eec",
    "5454": "Gree",
    "5455": "oti",
    "5456": "otid",
    "5457": "late",
    "5458": "Day",
    "5459": "gie",
    "5460": "verQ",
    "5461": "sell",
    "5462": "limb",
    "5463": "t,",
    "5464": "t, ",
    "5465": " Fe",
    "5466": " Fes",
    "5467": " Fest",
    "5468": "upp",
    "5469": "Nin",
    "5470": "Nint",
    "5471": "i*",
    "5472": "arm",
    "5473": "armo",
    "5474": "armon",
    "5475": "itz",
    "5476": "as ",
    "5477": "Gop",
    "5478": "Goph",
    "5479": "usual",
    "5480": "d/",
    "5481": "rmin",
    "5482": "FA",
    "5483": "nounc",
    "5484": "gos",
    "5485": "gosi",
    "5486": "pma",
    "5487": "pman",
    "5488": "sure",
    "5489": "nimi",
    "5490": "erop",
    "5491": "eropo",
    "5492": "onti",
    "5493": "ontin",
    "5494": "ontinu",
    "5495": "yle",
    "5496": "nata",
    "5497": "natal",
    "5498": "-F",
    "5499": "-Fi",
    "5500": "ppor",
    "5501": "pport",
    "5502": " sta",
    "5503": "orms",
    "5504": "itur",
    "5505": "Lam",
    "5506": "Lama",
    "5507": "_i",
    "5508": "fli",
    "5509": "flic",
    "5510": "000 ",
    "5511": "ssay",
    "5512": "eutr",
    "5513": "ms ",
    "5514": "-R",
    "5515": "Av",
    "5516": "Ave",
    "5517": "m,",
    "5518": "m, ",
    "5519": "eca",
    "5520": "ecam",
    "5521": "elf",
    "5522": "elfa",
    "5523": "elfar",
    "5524": "kl",
    "5525": "kla",
    "5526": "sil",
    "5527": "USD",
    "5528": "4--",
    "5529": "erri",
    "5530": "errit",
    "5531": "errito",
    "5532": "rritor",
    "5533": "nate",
    "5534": "lati",
    "5535": "latio",
    "5536": "lation",
    "5537": "ghb",
    "5538": "ghbo",
    "5539": "lead",
    "5540": "whol",
    "5541": "hibit",
    "5542": "ncil",
    "5543": " (1",
    "5544": " (19",
    "5545": "8.",
    "5546": "xper",
    "5547": "xperi",
    "5548": "uid",
    "5549": "uide",
    "5550": "ecau",
    "5551": "ulat",
    "5552": "oit",
    "5553": "oite",
    "5554": "ctu",
    "5555": "ctua",
    "5556": "imate",
    "5557": "roug",
    "5558": "rviv",
    "5559": "xur",
    "5560": "cham",
    "5561": "owed",
    "5562": "rror",
    "5563": "ata",
    "5564": "mica",
    "5565": "rum",
    "5566": "dust",
    "5567": "acle",
    "5568": "nell",
    "5569": "tena",
    "5570": "tenan",
    "5571": "tenanc",
    "5572": "cisi",
    "5573": "noug",
    "5574": "nco",
    "5575": "ncou",
    "5576": "ncouv",
    "5577": "ght ",
    "5578": "-C",
    "5579": "-Co",
    "5580": "-Con",
    "5581": "-Cont",
    "5582": "t*",
    "5583": "ntho",
    "5584": "nthon",
    "5585": "lut",
    "5586": "veng",
    "5587": "trop",
    "5588": "ita",
    "5589": "eth ",
    "5590": "Chin",
    "5591": "ssin",
    "5592": "ripo",
    "5593": "ripol",
    "5594": "fas",
    "5595": "1% ",
    "5596": "ibn",
    "5597": "ibni",
    "5598": "hours",
    "5599": "nial",
    "5600": "ssio",
    "5601": "post",
    "5602": "uns",
    "5603": "unsw",
    "5604": "unswi",
    "5605": "hown",
    "5606": "note",
    "5607": "a,",
    "5608": "a, ",
    "5609": "800",
    "5610": "cup",
    "5611": "who ",
    "5612": "till",
    "5613": "till ",
    "5614": "rtie",
    "5615": "ffa",
    "5616": "ffai",
    "5617": "ecto",
    "5618": "inis",
    "5619": "inist",
    "5620": "Yahwe",
    "5621": "Yahweh",
    "5622": "d /",
    "5623": "d /t",
    "5624": "d /tr",
    "5625": "acto",
    "5626": "actor",
    "5627": "nder",
    "5628": "absbu",
    "5629": "nsa",
    "5630": "nsat",
    "5631": "ith ",
    "5632": "ingh",
    "5633": "soc",
    "5634": "soci",
    "5635": "socia",
    "5636": "mod",
    "5637": "mode",
    "5638": "nned ",
    "5639": "udie",
    "5640": "NSI",
    "5641": "ept",
    "5642": "Alt",
    "5643": "Alta",
    "5644": "ounta",
    "5645": "ountai",
    "5646": "hea",
    "5647": "head",
    "5648": "eque",
    "5649": "nter",
    "5650": "fici",
    "5651": "GC",
    "5652": "urb",
    "5653": "mad",
    "5654": "apt",
    "5655": "aptu",
    "5656": "aptur",
    "5657": "guin",
    "5658": "oph",
    "5659": "ophe",
    "5660": "near",
    "5661": "livi",
    "5662": "livin",
    "5663": "ingd",
    "5664": "ingdo",
    "5665": ". ",
    "5666": ". T",
    "5667": ". Th",
    "5668": "ccep",
    "5669": "ccept",
    "5670": "Drac",
    "5671": "Dracu",
    "5672": "Dracul",
    "5673": "x ",
    "5674": "Did",
    "5675": "Dide",
    "5676": "Dider",
    "5677": "Didero",
    "5678": "apo",
    "5679": "'t",
    "5680": "fal",
    "5681": "ino",
    "5682": "inoi",
    "5683": "em ",
    "5684": "j ",
    "5685": "Jul",
    "5686": "July",
    "5687": "clus",
    "5688": "clust",
    "5689": "..",
    "5690": "ius",
    "5691": "otto",
    "5692": "e.",
    "5693": "e.g",
    "5694": "data",
    "5695": "dol",
    "5696": "avi",
    "5697": "avin",
    "5698": "less",
    "5699": "keep",
    "5700": "r*",
    "5701": "Vic",
    "5702": "Vict",
    "5703": "Victo",
    "5704": "Victor",
    "5705": "Qu",
    "5706": "Que",
    "5707": "state",
    "5708": "nove",
    "5709": "novel",
    "5710": "Est",
    "5711": "eard",
    "5712": "elat",
    "5713": "elati",
    "5714": "elatin",
    "5715": "tabo",
    "5716": "Yu",
    "5717": "Yug",
    "5718": "Yugo",
    "5719": "Yugos",
    "5720": "Yugosl",
    "5721": "Yugosla",
    "5722": "Mao",
    "5723": "proce",
    "5724": "D'",
    "5725": "egis",
    "5726": "Coun",
    "5727": "Count",
    "5728": "6th ",
    "5729": "wee",
    "5730": "week",
    "5731": "1th ",
    "5732": "im ",
    "5733": "imil",
    "5734": "h;",
    "5735": "eel",
    "5736": "eani",
    "5737": "eanin",
    "5738": "vina",
    "5739": "eau",
    "5740": "eaut",
    "5741": "rif",
    "5742": "rifl",
    "5743": "coti",
    "5744": "bot",
    "5745": "both",
    "5746": "sus",
    "5747": "mplo",
    "5748": "inte",
    "5749": "inten",
    "5750": "day",
    "5751": "stl",
    "5752": "stle",
    "5753": "ciou",
    "5754": "aro",
    "5755": "arol",
    "5756": "upo",
    "5757": "keepi",
    "5758": "keepin",
    "5759": "dro",
    "5760": "many",
    "5761": "upl",
    "5762": "6)",
    "5763": "6) ",
    "5764": "pie",
    "5765": "ook",
    "5766": "eaki",
    "5767": "eakin",
    "5768": "evo",
    "5769": "milli",
    "5770": "oco",
    "5771": "ocol",
    "5772": "kyo",
    "5773": "nne ",
    "5774": "aur",
    "5775": "struc",
    "5776": "struct",
    "5777": "size",
    "5778": "nor ",
    "5779": "dly",
    "5780": "user",
    "5781": "osed ",
    "5782": "3D ",
    "5783": "diam",
    "5784": "diama",
    "5785": "diamag",
    "5786": "diamagn",
    "5787": "6.",
    "5788": "6. ",
    "5789": "6. /",
    "5790": "6. /r",
    "5791": "6. /re",
    "5792": "6. /ref",
    "5793": "ecu",
    "5794": "ecur",
    "5795": "ivide",
    "5796": "MM",
    "5797": ".g",
    "5798": ".g.",
    "5799": "isibl",
    "5800": "DB",
    "5801": "DBM",
    "5802": "DBMS",
    "5803": "ecut",
    "5804": "gy ",
    "5805": "Bu",
    "5806": "Bus",
    "5807": "_a",
    "5808": "cur",
    "5809": "mpa",
    "5810": "mpaq",
    "5811": "bod",
    "5812": "rly ",
    "5813": "heno",
    "5814": "ddit",
    "5815": "dditi",
    "5816": "pric",
    "5817": "vow",
    "5818": "vowe",
    "5819": "vowel",
    "5820": "back",
    "5821": "back ",
    "5822": "aps",
    "5823": "/ ",
    "5824": "educ",
    "5825": "smu",
    "5826": "smut",
    "5827": "smuth",
    "5828": "-S",
    "5829": "-Sl",
    "5830": "-Sla",
    "5831": "sbo",
    "5832": "sbor",
    "5833": "enta",
    "5834": "rag",
    "5835": "rago",
    "5836": "Hor",
    "5837": "Hors",
    "5838": "Horse",
    "5839": "imir",
    "5840": "essu",
    "5841": "essur",
    "5842": "In ",
    "5843": "rewe",
    "5844": "oh",
    "5845": "oha",
    "5846": "oham",
    "5847": "Gui",
    "5848": "piri",
    "5849": "pirit",
    "5850": "iab",
    "5851": "logi",
    "5852": "logic",
    "5853": "logica",
    "5854": "logical",
    "5855": "milt",
    "5856": "milto",
    "5857": "milton",
    "5858": "Io",
    "5859": "*S",
    "5860": "oop",
    "5861": "ber ",
    "5862": "rimi",
    "5863": "rimin",
    "5864": "iale",
    "5865": "minu",
    "5866": "minut",
    "5867": "Pe",
    "5868": "ony",
    "5869": "onym",
    "5870": "5t",
    "5871": "5th",
    "5872": "tort",
    "5873": "lte",
    "5874": "lter",
    "5875": "td ",
    "5876": "etr",
    "5877": "etro",
    "5878": "Iy",
    "5879": " mi",
    "5880": " mil",
    "5881": " mill",
    "5882": "sg",
    "5883": "sgo",
    "5884": "sgow",
    "5885": "fte",
    "5886": "miss",
    "5887": "missi",
    "5888": "missil",
    "5889": "bh",
    "5890": "rgo",
    "5891": "swe",
    "5892": "hlet",
    "5893": "NG",
    "5894": "NG ",
    "5895": "hore",
    "5896": "-un",
    "5897": "-uni",
    "5898": "-unit",
    "5899": "sic",
    "5900": "htm",
    "5901": "Novemb",
    "5902": "sir",
    "5903": "gne",
    "5904": "gner",
    "5905": "iop",
    "5906": "kle",
    "5907": "lain",
    "5908": "d,",
    "5909": "d, ",
    "5910": "v ",
    "5911": "timen",
    "5912": "nif",
    "5913": "nifi",
    "5914": "Ow",
    "5915": "ept ",
    "5916": "lds",
    "5917": "lds ",
    "5918": "llin",
    "5919": "lling",
    "5920": "rle",
    "5921": "rlea",
    "5922": "rlead",
    "5923": "Char",
    "5924": "uls",
    "5925": "Mc",
    "5926": "McC",
    "5927": "McCo",
    "5928": "McCoy",
    "5929": "aid",
    "5930": "ew ",
    "5931": "ardm",
    "5932": "ardme",
    "5933": "sma",
    "5934": " Dev",
    "5935": "luti",
    "5936": "etin",
    "5937": "tr ",
    "5938": " 11",
    "5939": "6 /",
    "5940": "6 /s",
    "5941": "6 /su",
    "5942": "ile ",
    "5943": "babl",
    "5944": "rca",
    "5945": "lua",
    "5946": "luat",
    "5947": "ac1",
    "5948": "enat",
    "5949": "fia",
    "5950": "fiab",
    "5951": "oyd",
    "5952": "asu",
    "5953": "ignifi",
    "5954": "ignific",
    "5955": ":*",
    "5956": "d of",
    "5957": "d of ",
    "5958": "volv",
    "5959": "volve",
    "5960": "nni",
    "5961": " yo",
    "5962": " you",
    "5963": "-kno",
    "5964": "Mov",
    "5965": "Move",
    "5966": "Movem",
    "5967": "Moveme",
    "5968": "Movemen",
    "5969": "itze",
    "5970": "sing",
    "5971": "singe",
    "5972": "singer",
    "5973": "rono",
    "5974": "ronou",
    "5975": "nmar",
    "5976": "nmark",
    "5977": "dt",
    "5978": "ongw",
    "5979": "-g",
    "5980": "-gr",
    "5981": "nev",
    "5982": "neve",
    "5983": "nten",
    "5984": "ntend",
    "5985": "giou",
    "5986": "mera",
    "5987": "ash",
    "5988": "ally ",
    "5989": "wl",
    "5990": "K-4",
    "5991": "K-47",
    "5992": "etn",
    "5993": "etna",
    "5994": "days",
    "5995": "lecu",
    "5996": "lecul",
    "5997": "cos",
    "5998": "lm",
    "5999": "lmo",
    "6000": "lmog",
    "6001": "nclud",
    "6002": "Gul",
    "6003": "Lor",
    "6004": "Lord",
    "6005": "Compa",
    "6006": "Compan",
    "6007": "Company",
    "6008": "beli",
    "6009": "belie",
    "6010": "mut",
    "6011": "ccen",
    "6012": "ccent",
    "6013": "lor",
    "6014": "lord",
    "6015": "ntir",
    "6016": "0t",
    "6017": "0th",
    "6018": "rq",
    "6019": "rqu",
    "6020": "F.",
    "6021": "cens",
    "6022": " ev",
    "6023": "rpr",
    "6024": "rpri",
    "6025": "egar",
    "6026": "egard",
    "6027": "Forc",
    "6028": "ems",
    "6029": "emse",
    "6030": "emsel",
    "6031": "emselv",
    "6032": "tory",
    "6033": "hich ",
    "6034": "| ",
    "6035": "stea",
    "6036": "n A",
    "6037": "exu",
    "6038": "exus",
    "6039": "Colu",
    "6040": "Colum",
    "6041": "Columb",
    "6042": " wh",
    "6043": " whi",
    "6044": " whic",
    "6045": "work",
    "6046": "fact",
    "6047": "factu",
    "6048": "rese",
    "6049": "resen",
    "6050": "resent",
    "6051": "ryo",
    "6052": "za ",
    "6053": "Naz",
    "6054": "Nazi",
    "6055": "gax",
    "6056": "hemi",
    "6057": "xic",
    "6058": "ties",
    "6059": "CP",
    "6060": "fus",
    "6061": "found",
    "6062": "apti",
    "6063": "un ",
    "6064": "aki",
    "6065": "akin",
    "6066": "Tel",
    "6067": "Tele",
    "6068": "u,",
    "6069": "u, ",
    "6070": "8%",
    "6071": "5 m",
    "6072": "5 ma",
    "6073": "nada",
    "6074": "ls ",
    "6075": "roper",
    "6076": "urro",
    "6077": "urrou",
    "6078": "Ene",
    "6079": "A.",
    "6080": "A. ",
    "6081": "sba",
    "6082": "ndow",
    "6083": "s.",
    "6084": "mpo",
    "6085": "mpor",
    "6086": "mport",
    "6087": "Dh",
    "6088": "roat",
    "6089": "ehi",
    "6090": "uctua",
    "6091": "icke",
    "6092": "level",
    "6093": "M1",
    "6094": "orme",
    "6095": "ormer",
    "6096": "Bal",
    "6097": "lj",
    "6098": "pret",
    "6099": "ES",
    "6100": "ing ",
    "6101": "nai",
    "6102": "atte",
    "6103": "atter",
    "6104": "atters",
    "6105": "self",
    "6106": "rai",
    "6107": "rail",
    "6108": "We ",
    "6109": "rior",
    "6110": "ilib",
    "6111": "ilibr",
    "6112": "won",
    "6113": "liot",
    "6114": "stel",
    "6115": "stell",
    "6116": "FA ",
    "6117": "lthou",
    "6118": "lthoug",
    "6119": "ule",
    "6120": "cama",
    "6121": "Paz",
    "6122": "ff ",
    "6123": "eer",
    "6124": "mec",
    "6125": "mech",
    "6126": "yk",
    "6127": "wir",
    "6128": "wire",
    "6129": "oir",
    "6130": "nard",
    "6131": "dq",
    "6132": "dqu",
    "6133": "dqua",
    "6134": "8t",
    "6135": "8th",
    "6136": "8th ",
    "6137": "when",
    "6138": "when ",
    "6139": "yS",
    "6140": "ySt",
    "6141": "600",
    "6142": "ob ",
    "6143": "zes",
    "6144": "exc",
    "6145": "exce",
    "6146": "excep",
    "6147": "except",
    "6148": "ateri",
    "6149": "ateria",
    "6150": "swi",
    "6151": "swic",
    "6152": "swick",
    "6153": "seb",
    "6154": "erso",
    "6155": "erson",
    "6156": "sua",
    "6157": "sual",
    "6158": "nce ",
    "6159": "d b",
    "6160": "troo",
    "6161": "troop",
    "6162": "rho",
    "6163": "rhoo",
    "6164": "made",
    "6165": "yan",
    "6166": "yanm",
    "6167": "moso",
    "6168": "mosom",
    "6169": "rece",
    "6170": "recen",
    "6171": "recent",
    "6172": "ntra",
    "6173": "ctor",
    "6174": "onen",
    "6175": "onent",
    "6176": "uris",
    "6177": "ontex",
    "6178": "ontext",
    "6179": "icia",
    "6180": "erne",
    "6181": "erner",
    "6182": "nap",
    "6183": "napa",
    "6184": "disc",
    "6185": "charg",
    "6186": "charge",
    "6187": "79",
    "6188": "aigh",
    "6189": "LR",
    "6190": "LR ",
    "6191": "hang",
    "6192": "rar",
    "6193": "rarr",
    "6194": "media",
    "6195": "yx",
    "6196": " be",
    "6197": "achi",
    "6198": "fini",
    "6199": "ske",
    "6200": "bean",
    "6201": " q",
    "6202": " qu",
    "6203": "-a",
    "6204": "uggl",
    "6205": "w,",
    "6206": "w, ",
    "6207": "wou",
    "6208": "woul",
    "6209": "seba",
    "6210": "nnin",
    "6211": "volc",
    "6212": "volca",
    "6213": "volcan",
    "6214": "calle",
    "6215": "tric",
    "6216": "etrop",
    "6217": "etropo",
    "6218": "typ",
    "6219": "becau",
    "6220": "becaus",
    "6221": "fag",
    "6222": "fagi",
    "6223": "ulti",
    "6224": "ill ",
    "6225": "opic",
    "6226": "ibil",
    "6227": "nbe",
    "6228": "nber",
    "6229": ") a",
    "6230": ") an",
    "6231": ") and",
    "6232": ") and ",
    "6233": "dox",
    "6234": "ram",
    "6235": "rama",
    "6236": "uston",
    "6237": "Mina",
    "6238": "ierr",
    "6239": "ierre",
    "6240": "B(",
    "6241": " not",
    "6242": "z-",
    "6243": "el ",
    "6244": "wy",
    "6245": "wyn",
    "6246": "yag",
    "6247": "rsio",
    "6248": "ussi",
    "6249": "ussia",
    "6250": "q ",
    "6251": " po",
    "6252": " poi",
    "6253": " poin",
    "6254": "oup",
    "6255": "oup ",
    "6256": "otag",
    "6257": "otage",
    "6258": "oloc",
    "6259": "orn",
    "6260": "eto",
    "6261": "stit",
    "6262": "stitu",
    "6263": "3.",
    "6264": "sot",
    "6265": "ellu",
    "6266": "Zo",
    "6267": "~ ",
    "6268": "Cubs",
    "6269": "usio",
    "6270": "usion",
    "6271": "NEE",
    "6272": "Ko",
    "6273": "Kon",
    "6274": "Kong",
    "6275": "PAI",
    "6276": "nty",
    "6277": "nty ",
    "6278": "nty P",
    "6279": "PAR",
    "6280": "earn",
    "6281": "/d",
    "6282": "/di",
    "6283": "/div",
    "6284": "apon",
    "6285": "mpai",
    "6286": "xc",
    "6287": " pl",
    "6288": "uppo",
    "6289": "trol ",
    "6290": "ircu",
    "6291": "...",
    "6292": "mot",
    "6293": "mote",
    "6294": "brac",
    "6295": "ape",
    "6296": "gover",
    "6297": "govern",
    "6298": "chm",
    "6299": "chme",
    "6300": "chmen",
    "6301": "DP ",
    "6302": "verag",
    "6303": "lant",
    "6304": "Tr",
    "6305": "Tri",
    "6306": "Trin",
    "6307": "Trini",
    "6308": "rook",
    "6309": "varia",
    "6310": "ety ",
    "6311": "Mal",
    "6312": "Mala",
    "6313": "Malay",
    "6314": "dif",
    "6315": "diff",
    "6316": "zero",
    "6317": "gang",
    "6318": "Wei",
    "6319": "11",
    "6320": "119",
    "6321": "GE",
    "6322": "Eq",
    "6323": "Equ",
    "6324": "orie",
    "6325": "orien",
    "6326": "ar w",
    "6327": "ar wi",
    "6328": "Ber",
    "6329": "orig",
    "6330": "origi",
    "6331": "origin",
    "6332": "PN",
    "6333": "afe",
    "6334": "ired",
    "6335": "ired ",
    "6336": "ynar",
    "6337": "bass",
    "6338": "Belta",
    "6339": "atib",
    "6340": "here",
    "6341": "odo",
    "6342": "ere ",
    "6343": "mmi",
    "6344": "arti",
    "6345": "teg",
    "6346": "sol",
    "6347": "sole",
    "6348": "asc",
    "6349": "asci",
    "6350": "eren",
    "6351": "Boz",
    "6352": "Bozi",
    "6353": "off",
    "6354": "rkans",
    "6355": "rkansa",
    "6356": "rkansas",
    "6357": "ligh",
    "6358": "itar",
    "6359": "rcu",
    "6360": "opa",
    "6361": " from ",
    "6362": "USH",
    "6363": "USH ",
    "6364": "sland",
    "6365": "oba",
    "6366": "intr",
    "6367": "intro",
    "6368": "ell ",
    "6369": " Py",
    "6370": " Pyt",
    "6371": " Pyth",
    "6372": "dle",
    "6373": "esel",
    "6374": "Bar",
    "6375": "Barr",
    "6376": "Barry",
    "6377": "Barrym",
    "6378": "Barrymo",
    "6379": "Europ",
    "6380": "Europe",
    "6381": "BB",
    "6382": "BBA",
    "6383": "om ",
    "6384": "ngal",
    "6385": "xima",
    "6386": "whel",
    "6387": "ritrea",
    "6388": "owu",
    "6389": "owul",
    "6390": "sert",
    "6391": "rch",
    "6392": "99",
    "6393": "-m",
    "6394": "rgeo",
    "6395": "rgeoi",
    "6396": " La",
    "6397": " Lan",
    "6398": "y*",
    "6399": " war",
    "6400": "erot",
    "6401": "esid",
    "6402": "ump",
    "6403": "-o",
    "6404": "-on",
    "6405": "Lib",
    "6406": "Libe",
    "6407": "Liber",
    "6408": "eni",
    "6409": "enia",
    "6410": "peo",
    "6411": "peop",
    "6412": "peopl",
    "6413": "epend",
    "6414": "ssur",
    "6415": "nico",
    "6416": "nicom",
    "6417": " h",
    "6418": " ha",
    "6419": " han",
    "6420": "rd ",
    "6421": "-l",
    "6422": "-li",
    "6423": "O.",
    "6424": "lma",
    "6425": "lmat",
    "6426": "cus",
    "6427": "ws ",
    "6428": "tali",
    "6429": "talia",
    "6430": "talian",
    "6431": "Za",
    "6432": "worm",
    "6433": "ge ",
    "6434": "irth",
    "6435": "f t",
    "6436": "f th",
    "6437": " Tr",
    "6438": " Tre",
    "6439": "ve ",
    "6440": "81",
    "6441": "819",
    "6442": "part",
    "6443": "Vall",
    "6444": "Valle",
    "6445": "-ol",
    "6446": "-old",
    "6447": "instr",
    "6448": "instre",
    "6449": "instrea",
    "6450": "isit",
    "6451": "fuc",
    "6452": "fuci",
    "6453": "Gl",
    "6454": "Glo",
    "6455": "Glob",
    "6456": "edd",
    "6457": "Jes",
    "6458": "Jesu",
    "6459": "ipl",
    "6460": "iplo",
    "6461": "iol",
    "6462": "iolo",
    "6463": "icago",
    "6464": "eps",
    "6465": "now ",
    "6466": " Bo",
    "6467": " Boy",
    "6468": "urrent",
    "6469": "rive",
    "6470": "500",
    "6471": "4 i",
    "6472": "Grea",
    "6473": "Great",
    "6474": "ndom",
    "6475": "BBC",
    "6476": "5 t",
    "6477": "uw",
    "6478": "uwa",
    "6479": "6,",
    "6480": "6, ",
    "6481": "nchi",
    "6482": "bbl",
    "6483": "player",
    "6484": "c ",
    "6485": "ccu",
    "6486": "ximi",
    "6487": "arry",
    "6488": "moda",
    "6489": "incl",
    "6490": "inclu",
    "6491": "osit",
    "6492": "rowt",
    "6493": "rowth",
    "6494": "add",
    "6495": "addi",
    "6496": "addit",
    "6497": "oce",
    "6498": "ocen",
    "6499": "cal ",
    "6500": "esis",
    "6501": "hous",
    "6502": "housa",
    "6503": "housan",
    "6504": "m*",
    "6505": "ques",
    "6506": "quest",
    "6507": "et o",
    "6508": "et of",
    "6509": "et of ",
    "6510": "ortu",
    "6511": "ortug",
    "6512": "llan",
    "6513": "onan",
    "6514": "Earl",
    "6515": "ilit",
    "6516": "visi",
    "6517": "visio",
    "6518": "pso",
    "6519": "pson",
    "6520": "seri",
    "6521": "serie",
    "6522": "series",
    "6523": "ogi",
    "6524": "ogic",
    "6525": "16",
    "6526": "died",
    "6527": "Gor",
    "6528": "Gord",
    "6529": "cli",
    "6530": "land",
    "6531": "(E",
    "6532": "(Es",
    "6533": "(Est",
    "6534": "wic",
    "6535": "ews",
    "6536": "kb",
    "6537": "kba",
    "6538": "kbar",
    "6539": "vided",
    "6540": "pli",
    "6541": "plic",
    "6542": "plica",
    "6543": "plicat",
    "6544": "plicati",
    "6545": "TA",
    "6546": "TA ",
    "6547": "numb",
    "6548": "eav",
    "6549": "eavi",
    "6550": "eavin",
    "6551": "5) ",
    "6552": "mark",
    "6553": "Mod",
    "6554": "Mode",
    "6555": "lida",
    "6556": "liday",
    "6557": "tym",
    "6558": "ighb",
    "6559": "ighbo",
    "6560": "esy",
    "6561": "bir",
    "6562": "bird",
    "6563": "lien",
    "6564": "lient",
    "6565": "ylv",
    "6566": "eac",
    "6567": "y a",
    "6568": "y an",
    "6569": "y and",
    "6570": "y and ",
    "6571": "sac",
    "6572": "sacr",
    "6573": "Dub",
    "6574": "Duba",
    "6575": "Dubai",
    "6576": "hos",
    "6577": "host",
    "6578": "-pa",
    "6579": "-par",
    "6580": "dna",
    "6581": "dnap",
    "6582": "ndh",
    "6583": "ndho",
    "6584": "peak",
    "6585": " ab",
    "6586": " abo",
    "6587": " abou",
    "6588": "lask",
    "6589": "dig",
    "6590": "digi",
    "6591": "digit",
    "6592": "xam",
    "6593": "xamp",
    "6594": "xampl",
    "6595": " g",
    "6596": " gu",
    "6597": "lph",
    "6598": "arco",
    "6599": "abil",
    "6600": "abili",
    "6601": "trid",
    "6602": "tridg",
    "6603": " or ",
    "6604": "np",
    "6605": "mn",
    "6606": "anin",
    "6607": "tent",
    "6608": "nry ",
    "6609": "mmer",
    "6610": "y t",
    "6611": "y th",
    "6612": "guar",
    "6613": "State",
    "6614": "ial ",
    "6615": "rso",
    "6616": "rson",
    "6617": "pta",
    "6618": "ptai",
    "6619": "ptain",
    "6620": " C",
    "6621": "le,",
    "6622": "le, ",
    "6623": "gnit",
    "6624": "ought",
    "6625": "non-",
    "6626": "Ce",
    "6627": "Cel",
    "6628": "Celt",
    "6629": "trac",
    "6630": "track",
    "6631": "wan",
    "6632": "ipp",
    "6633": "ASI",
    "6634": "ASIC",
    "6635": " (di",
    "6636": "bega",
    "6637": "began",
    "6638": "kmo",
    "6639": "Febr",
    "6640": "Febru",
    "6641": "Februa",
    "6642": "Aug",
    "6643": "apa",
    "6644": "apan",
    "6645": "MS",
    "6646": "MST",
    "6647": "came ",
    "6648": "ssis",
    "6649": "ssist",
    "6650": " ar",
    "6651": " are",
    "6652": "Esto",
    "6653": "Eston",
    "6654": "lis",
    "6655": "fema",
    "6656": "femal",
    "6657": ". -",
    "6658": "ather",
    "6659": "atr",
    "6660": "atro",
    "6661": "atros",
    "6662": "thr",
    "6663": "thro",
    "6664": "throu",
    "6665": "throug",
    "6666": "sup ",
    "6667": " cy",
    "6668": "trib",
    "6669": "sr",
    "6670": "sra",
    "6671": "trod",
    "6672": "trodu",
    "6673": "troduc",
    "6674": "mpan",
    "6675": "vote",
    "6676": "voted",
    "6677": "ocat",
    "6678": "ocati",
    "6679": "ocatio",
    "6680": "care",
    "6681": "1 d",
    "6682": "1 da",
    "6683": "pow",
    "6684": "powe",
    "6685": "ingu",
    "6686": "pat",
    "6687": "soph",
    "6688": "rni",
    "6689": "rnin",
    "6690": "rnini",
    "6691": "iso",
    "6692": "isor",
    "6693": "ngo",
    "6694": "n o",
    "6695": "n on",
    "6696": "Pop",
    "6697": "Pope",
    "6698": "troy",
    "6699": "0 /",
    "6700": "(d. 1",
    "6701": "nded",
    "6702": "nded ",
    "6703": "wk",
    "6704": "wke",
    "6705": "hla",
    "6706": "hlav",
    "6707": "roc",
    "6708": "rock",
    "6709": "{i",
    "6710": "trem",
    "6711": "rles",
    "6712": "tego",
    "6713": "roq",
    "6714": "roqu",
    "6715": "carte",
    "6716": "cartes",
    "6717": "ube",
    "6718": "grow",
    "6719": "growt",
    "6720": "reer",
    "6721": "hal",
    "6722": "yss",
    "6723": "ysse",
    "6724": "ysses",
    "6725": "H ",
    "6726": "H s",
    "6727": "H su",
    "6728": "dnes",
    "6729": "oly",
    "6730": "led",
    "6731": "ptu",
    "6732": " v",
    "6733": " vi",
    "6734": "upt",
    "6735": "id-",
    "6736": "with ",
    "6737": "m o",
    "6738": "m of",
    "6739": "m of ",
    "6740": "wep",
    "6741": "wept",
    "6742": "ail",
    "6743": "akeo",
    "6744": "akeov",
    "6745": "akeove",
    "6746": "umm",
    "6747": "ope ",
    "6748": "p)",
    "6749": "p) ",
    "6750": "'R",
    "6751": "'Re",
    "6752": "'Rei",
    "6753": "'Reil",
    "6754": "Dep",
    "6755": "Depr",
    "6756": "9t",
    "6757": "9th",
    "6758": "ccom",
    "6759": "ccomm",
    "6760": "ccommo",
    "6761": "ccommod",
    "6762": "ccommoda",
    "6763": "spac",
    "6764": "Dan",
    "6765": "Span",
    "6766": "Spani",
    "6767": "there",
    "6768": "ir ",
    "6769": "5)*1",
    "6770": "5)*19",
    "6771": "scio",
    "6772": "sciou",
    "6773": "ach ",
    "6774": "weap",
    "6775": "weapo",
    "6776": "weapon",
    "6777": "wom",
    "6778": "wome",
    "6779": "A b",
    "6780": "A br",
    "6781": "AR",
    "6782": "! ",
    "6783": "eol",
    "6784": "eolo",
    "6785": "eolog",
    "6786": "aper",
    "6787": "x) ",
    "6788": "ersia",
    "6789": "Cop",
    "6790": "Cope",
    "6791": "Copen",
    "6792": "plai",
    "6793": "plain",
    "6794": "syl",
    "6795": "syll",
    "6796": "tage",
    "6797": "aris",
    "6798": "ady",
    "6799": "omy",
    "6800": "andi",
    "6801": "andid",
    "6802": "ginc",
    "6803": "ginco",
    "6804": "umen",
    "6805": "natu",
    "6806": "natur",
    "6807": "act ",
    "6808": "cludi",
    "6809": "cludin",
    "6810": "vidi",
    "6811": "vidin",
    "6812": "gwa",
    "6813": "gway",
    "6814": "CPU",
    "6815": "Ange",
    "6816": "Angel",
    "6817": "tp",
    "6818": "tph",
    "6819": "tpha",
    "6820": "tphal",
    "6821": "bov",
    "6822": "bove",
    "6823": "eath",
    "6824": "erse",
    "6825": "ath ",
    "6826": "prese",
    "6827": "inf",
    "6828": "infa",
    "6829": "def",
    "6830": "zec",
    "6831": "kt",
    "6832": "kto",
    "6833": "lack",
    "6834": "o,",
    "6835": "o, ",
    "6836": "ade ",
    "6837": "kep",
    "6838": "kept",
    "6839": "kepti",
    "6840": "pons",
    "6841": "ponse",
    "6842": "LE",
    "6843": "efe",
    "6844": "efer",
    "6845": "clin",
    "6846": "Sat",
    "6847": "Sata",
    "6848": "Satan",
    "6849": "Des",
    "6850": "Desc",
    "6851": "Desca",
    "6852": "Descar",
    "6853": "eig",
    "6854": " me",
    "6855": "facto",
    "6856": "factor",
    "6857": "ower",
    "6858": "nation",
    "6859": "RU",
    "6860": "Dy",
    "6861": "Dyn",
    "6862": "Dyna",
    "6863": "Dynas",
    "6864": "g.",
    "6865": "ling",
    "6866": "rain",
    "6867": "raine",
    "6868": "Ou",
    "6869": "Out",
    "6870": "Oute",
    "6871": "Outer",
    "6872": "cili",
    "6873": "Soc",
    "6874": "Soci",
    "6875": "Socie",
    "6876": "alit",
    "6877": "ality",
    "6878": "Pl",
    "6879": "rid",
    "6880": "rida",
    "6881": "Thef",
    "6882": "wai",
    "6883": "rtug",
    "6884": "Free",
    "6885": "efo",
    "6886": "eva",
    "6887": "evat",
    "6888": "orp",
    "6889": "orph",
    "6890": "areas",
    "6891": "21",
    "6892": "ript",
    "6893": "_o",
    "6894": "_of",
    "6895": "utu",
    "6896": "utur",
    "6897": "ssociat",
    "6898": " 5",
    "6899": " 5 ",
    "6900": "Who",
    "6901": "2;",
    "6902": "2;)",
    "6903": "ura",
    "6904": "urag",
    "6905": "Hux",
    "6906": "Huxl",
    "6907": "Huxle",
    "6908": "weal",
    "6909": "xit",
    "6910": " fl",
    "6911": " flo",
    "6912": " ro",
    "6913": "erie",
    "6914": "eries",
    "6915": "ink",
    "6916": "Bos",
    "6917": "Bost",
    "6918": "Bosto",
    "6919": "nd t",
    "6920": "nd to",
    "6921": "nd to ",
    "6922": "exte",
    "6923": "exten",
    "6924": "0 -",
    "6925": "0 - ",
    "6926": "0 - 1",
    "6927": "D)",
    "6928": "D) ",
    "6929": "Tun",
    "6930": "unda",
    "6931": "hyp",
    "6932": "sai",
    "6933": "saic",
    "6934": "Grot",
    "6935": "Groth",
    "6936": "inci",
    "6937": "incip",
    "6938": "ans",
    "6939": "iki",
    "6940": "ativ",
    "6941": "ova",
    "6942": "ovat",
    "6943": "6)*",
    "6944": "6)*1",
    "6945": "sitc",
    "6946": "fica",
    "6947": "Lad",
    "6948": "Lado",
    "6949": "CDs",
    "6950": "iD",
    "6951": "iDV",
    "6952": "anio",
    "6953": "anion",
    "6954": "illi",
    "6955": " Sa",
    "6956": "cl-",
    "6957": "aem",
    "6958": "aemo",
    "6959": "via ",
    "6960": "ebac",
    "6961": "yat",
    "6962": "yatt",
    "6963": "ideo",
    "6964": "Sm",
    "6965": "Smi",
    "6966": "FS",
    "6967": "FSM",
    "6968": "ME",
    "6969": "ught ",
    "6970": "hema",
    "6971": "hemat",
    "6972": "ngoi",
    "6973": "e to",
    "6974": "e to ",
    "6975": "ny",
    "6976": "ny ",
    "6977": "ounci",
    "6978": "ouncil",
    "6979": "epu",
    "6980": "( ",
    "6981": "r (",
    "6982": "were ",
    "6983": "iat",
    "6984": "ypt",
    "6985": "lean",
    "6986": "icula",
    "6987": "pc",
    "6988": "pci",
    "6989": "Jews",
    "6990": "or,",
    "6991": "or, ",
    "6992": " R",
    "6993": " Ru",
    "6994": "sserl",
    "6995": "ncer",
    "6996": "Dio",
    "6997": "Diox",
    "6998": "goin",
    "6999": "dant",
    "7000": "danti",
    "7001": "dantic",
    "7002": "ymen",
    "7003": "iph",
    "7004": "egen",
    "7005": "egend",
    "7006": "uzes",
    "7007": "F_",
    "7008": "arb",
    "7009": "oub",
    "7010": "dian",
    "7011": "sain",
    "7012": "mary",
    "7013": "inic",
    "7014": "ushe",
    "7015": "ushed",
    "7016": "eki",
    "7017": "ekin",
    "7018": "tami",
    "7019": "tamin",
    "7020": "occu",
    "7021": "pab",
    "7022": "pabl",
    "7023": "lamb",
    "7024": "lambd",
    "7025": "lambda",
    "7026": "0m",
    "7027": "0mp",
    "7028": "-d",
    "7029": "-di",
    "7030": "-dis",
    "7031": "tub",
    "7032": "tube",
    "7033": "kys",
    "7034": "kysc",
    "7035": "kyscr",
    "7036": "beh",
    "7037": "beha",
    "7038": "eev",
    "7039": "eeve",
    "7040": "tad",
    "7041": "tadi",
    "7042": "reci",
    "7043": "recis",
    "7044": "stoo",
    "7045": " sy",
    "7046": " sys",
    "7047": " syst",
    "7048": " syste",
    "7049": "called",
    "7050": "Ei",
    "7051": "Eic",
    "7052": "mbol",
    "7053": "ompa",
    "7054": "ompan",
    "7055": "ompany",
    "7056": "Ty",
    "7057": "Typ",
    "7058": "ckl",
    "7059": "T ",
    "7060": "4;",
    "7061": "oxi",
    "7062": "oxid",
    "7063": "ype",
    "7064": "resu",
    "7065": "resul",
    "7066": "butt",
    "7067": "SC",
    "7068": "SCI",
    "7069": "tz",
    "7070": "compu",
    "7071": "comput",
    "7072": "W.",
    "7073": "-wing",
    "7074": "Fah",
    "7075": "Haw",
    "7076": "Hawa",
    "7077": "Hawai",
    "7078": "lifo",
    "7079": "*Y",
    "7080": "scon",
    "7081": "sconc",
    "7082": "Un-",
    "7083": "Un-A",
    "7084": "sie",
    "7085": "rmal",
    "7086": "sty",
    "7087": "Hem",
    "7088": "Hemi",
    "7089": "Hemin",
    "7090": "mine",
    "7091": "minen",
    "7092": "onom",
    "7093": "riday",
    "7094": "yw",
    "7095": "ywo",
    "7096": "ywoo",
    "7097": "ood ",
    "7098": "agn",
    "7099": "agno",
    "7100": "Camu",
    "7101": "Camus",
    "7102": "pportu",
    "7103": "arle",
    "7104": "brot",
    "7105": "broth",
    "7106": "many ",
    "7107": "uke",
    "7108": "stra",
    "7109": "Guin",
    "7110": "Guine",
    "7111": "ship",
    "7112": "Kol",
    "7113": "Kolm",
    "7114": "Kolmo",
    "7115": "sort",
    "7116": "fun",
    "7117": "FB",
    "7118": "him",
    "7119": "rue",
    "7120": "stin",
    "7121": "#8",
    "7122": "#82",
    "7123": "kit",
    "7124": "sho",
    "7125": "shou",
    "7126": "shoul",
    "7127": "should",
    "7128": " ru",
    "7129": " run",
    "7130": "rcen",
    "7131": "mselv",
    "7132": "bd",
    "7133": "ontes",
    "7134": "Nati",
    "7135": "Natio",
    "7136": "nf",
    "7137": "nfo",
    "7138": "nfor",
    "7139": "nform",
    "7140": ".2",
    "7141": "solu",
    "7142": "solut",
    "7143": "mae",
    "7144": "mael",
    "7145": "bill",
    "7146": "billi",
    "7147": "billio",
    "7148": "3 - ",
    "7149": "dued",
    "7150": "extent",
    "7151": "Nig",
    "7152": "Nigh",
    "7153": "Night",
    "7154": "pop",
    "7155": "popu",
    "7156": "popul",
    "7157": "itec",
    "7158": "itect",
    "7159": "chai",
    "7160": "chair",
    "7161": "aa",
    "7162": "Fl",
    "7163": "Fli",
    "7164": "Flig",
    "7165": "Fligh",
    "7166": "lima",
    "7167": "00s",
    "7168": "Dol",
    "7169": "Doll",
    "7170": "hron",
    "7171": "hrone",
    "7172": "moto",
    "7173": "motor",
    "7174": "ghe",
    "7175": "ghes",
    "7176": "uto",
    "7177": "ipi",
    "7178": "od ",
    "7179": "lsp",
    "7180": "lspa",
    "7181": "rried",
    "7182": "dram",
    "7183": "drama",
    "7184": " tha",
    "7185": " than",
    "7186": "eur",
    "7187": " ba",
    "7188": " bas",
    "7189": " base",
    "7190": " Ar",
    "7191": "Japan",
    "7192": "nego",
    "7193": "negot",
    "7194": "itc",
    "7195": "D b",
    "7196": "D br",
    "7197": "unit",
    "7198": "Park",
    "7199": "wn ",
    "7200": " lev",
    "7201": " leve",
    "7202": "pas",
    "7203": "pass",
    "7204": "opu",
    "7205": "l e",
    "7206": "l es",
    "7207": "tso",
    "7208": "tson",
    "7209": "-B",
    "7210": "-Bu",
    "7211": "Boa",
    "7212": "Boas",
    "7213": "plan",
    "7214": "Taf",
    "7215": "Taft",
    "7216": "Bea",
    "7217": "Bear",
    "7218": "aec",
    "7219": "aeck",
    "7220": "aecke",
    "7221": "later",
    "7222": "amb",
    "7223": "ambl",
    "7224": "cate",
    "7225": "arly",
    "7226": "arly ",
    "7227": "habb",
    "7228": "habba",
    "7229": "habbat",
    "7230": "une",
    "7231": "one of ",
    "7232": "lee",
    "7233": "mmo",
    "7234": "mmon",
    "7235": "ilot",
    "7236": "orga",
    "7237": "es ",
    "7238": "rgen",
    "7239": "senc",
    "7240": "sence",
    "7241": "havi",
    "7242": "rist",
    "7243": "broa",
    "7244": "broad",
    "7245": "popula",
    "7246": "PE",
    "7247": "ovel",
    "7248": "oic",
    "7249": "oice",
    "7250": "bru",
    "7251": "Pre",
    "7252": "Pres",
    "7253": "enh",
    "7254": "enhe",
    "7255": "env",
    "7256": "enve",
    "7257": "enver",
    "7258": "oga",
    "7259": "b-",
    "7260": "b-S",
    "7261": "b-Sa",
    "7262": "b-Sah",
    "7263": "b-Saha",
    "7264": "V_",
    "7265": "ano",
    "7266": "anot",
    "7267": "anoth",
    "7268": "roac",
    "7269": "roach",
    "7270": "Adv",
    "7271": "Advi",
    "7272": "Advis",
    "7273": "urp",
    "7274": "urpo",
    "7275": " bet",
    "7276": " betw",
    "7277": " betwe",
    "7278": "vale",
    "7279": "valen",
    "7280": "journ",
    "7281": "k.",
    "7282": "humo",
    "7283": "eib",
    "7284": "sbu",
    "7285": "ween",
    "7286": ".h",
    "7287": ".ht",
    "7288": "Duk",
    "7289": "Duke",
    "7290": "Duke ",
    "7291": "rback",
    "7292": "lyn",
    "7293": "rsa",
    "7294": "rsat",
    "7295": "rsati",
    "7296": "unday",
    "7297": "sem",
    "7298": "semb",
    "7299": "erta",
    "7300": "ertai",
    "7301": "mper",
    "7302": "mpera",
    "7303": "mperat",
    "7304": "fed",
    "7305": "fede",
    "7306": "feder",
    "7307": " Ai",
    "7308": " Air",
    "7309": "/sy",
    "7310": "/syn",
    "7311": "/synt",
    "7312": "/synth",
    "7313": "rely ",
    "7314": "ocu",
    "7315": "ocum",
    "7316": "venu",
    "7317": "venue",
    "7318": "xce",
    "7319": "xcep",
    "7320": "xcept",
    "7321": "o n",
    "7322": "o no",
    "7323": "6 p",
    "7324": "6 pe",
    "7325": "6 per",
    "7326": "6 perc",
    "7327": "6 perce",
    "7328": "ggl",
    "7329": "/L",
    "7330": "/L)",
    "7331": "se,",
    "7332": "se, ",
    "7333": "trov",
    "7334": "trove",
    "7335": "inem",
    "7336": "inema",
    "7337": "oing",
    "7338": "9tr",
    "7339": "9tr ",
    "7340": "viewe",
    "7341": "rare",
    "7342": "syn",
    "7343": "synt",
    "7344": "synth",
    "7345": "ouc",
    "7346": "ouch",
    "7347": "firm",
    "7348": "romi",
    "7349": "aged",
    "7350": "Eug",
    "7351": "Euge",
    "7352": "Eugen",
    "7353": "hio",
    "7354": "mov",
    "7355": "move",
    "7356": "movem",
    "7357": "ixe",
    "7358": "ixel",
    "7359": " co",
    "7360": " cor",
    "7361": "riso",
    "7362": "evelo",
    "7363": "fow",
    "7364": "fowl",
    "7365": "MP",
    "7366": "MPE",
    "7367": "MPEG",
    "7368": "DT",
    "7369": "erla",
    "7370": "erlan",
    "7371": "plom",
    "7372": "ploma",
    "7373": "ickl",
    "7374": "ickle",
    "7375": "edo",
    "7376": "edom",
    "7377": "onf",
    "7378": "onfe",
    "7379": "onfed",
    "7380": "onfede",
    "7381": "onfeder",
    "7382": "Pac",
    "7383": "Pact",
    "7384": " he",
    "7385": " he ",
    "7386": "bse",
    "7387": "bser",
    "7388": "bserv",
    "7389": "ithm",
    "7390": "fect",
    "7391": "lyw",
    "7392": "lywo",
    "7393": "lywoo",
    "7394": "-V",
    "7395": "gest",
    "7396": "dva",
    "7397": "dvan",
    "7398": "cted",
    "7399": "weg",
    "7400": "onu",
    "7401": "onun",
    "7402": "onunc",
    "7403": "md",
    "7404": "mda",
    "7405": "mdas",
    "7406": "mdash",
    "7407": "Dut",
    "7408": "ga ",
    "7409": "topo",
    "7410": "tel",
    "7411": "nas",
    "7412": "E ",
    "7413": "dask",
    "7414": "eik",
    "7415": "T b",
    "7416": "T br",
    "7417": " N",
    "7418": " Na",
    "7419": "iom",
    "7420": "iful",
    "7421": "ch ",
    "7422": "ipu",
    "7423": "y S",
    "7424": "umba",
    "7425": "init",
    "7426": "phn",
    "7427": "oopi",
    "7428": "rep",
    "7429": "repr",
    "7430": "repre",
    "7431": "nt ",
    "7432": "asp",
    "7433": "aspi",
    "7434": "aspir",
    "7435": "arre",
    "7436": "arret",
    "7437": "mbr",
    "7438": "mbri",
    "7439": "5 n",
    "7440": "5 nd",
    "7441": "5 nda",
    "7442": "bsb",
    "7443": "bsbu",
    "7444": "bsbur",
    "7445": "9.",
    "7446": "9. ",
    "7447": "'a",
    "7448": "'an",
    "7449": "homa",
    "7450": "hroug",
    "7451": "llow ",
    "7452": "uci",
    "7453": "ecad",
    "7454": "unch",
    "7455": "duce",
    "7456": "duce ",
    "7457": "Indi",
    "7458": "India",
    "7459": "Indian",
    "7460": "hrow",
    "7461": "este",
    "7462": "ogo",
    "7463": "y:",
    "7464": "ues",
    "7465": "oil",
    "7466": "Nic",
    "7467": "diox",
    "7468": "ely",
    "7469": "ely ",
    "7470": "Pla",
    "7471": "ilat",
    "7472": "uga",
    "7473": "ugar",
    "7474": "ayo",
    "7475": "rene",
    "7476": "bam",
    "7477": "Fin",
    "7478": "Finl",
    "7479": "Finla",
    "7480": "Finlan",
    "7481": "Finland",
    "7482": "cei",
    "7483": "ceiv",
    "7484": "Cy",
    "7485": "come",
    "7486": "IT",
    "7487": "+ ",
    "7488": "such a",
    "7489": "Jan",
    "7490": "Janu",
    "7491": "ommu",
    "7492": "ommun",
    "7493": " Ad",
    "7494": " Adm",
    "7495": " Admi",
    "7496": "aught",
    "7497": "SF",
    "7498": "pe ",
    "7499": "ugb",
    "7500": "ugby",
    "7501": "aire",
    "7502": "aired",
    "7503": "ion ",
    "7504": "fant",
    "7505": "sula",
    "7506": "bric",
    "7507": "Leu",
    "7508": "Leuc",
    "7509": "Leuci",
    "7510": "enha",
    "7511": "ocume",
    "7512": "ocumen",
    "7513": "uch a",
    "7514": "anke",
    "7515": "anked",
    "7516": "dru",
    "7517": "drug",
    "7518": " pi",
    "7519": " pic",
    "7520": " pict",
    "7521": " pictu",
    "7522": " pictur",
    "7523": "rast",
    "7524": "ffie",
    "7525": "trep",
    "7526": "ovo",
    "7527": "ticl",
    "7528": "cif",
    "7529": "cife",
    "7530": "cifer",
    "7531": "mett",
    "7532": "2.",
    "7533": "cated",
    "7534": "B b",
    "7535": "B br",
    "7536": "widt",
    "7537": "panc",
    "7538": "ved ",
    "7539": "ecaus",
    "7540": " 9",
    "7541": "egs",
    "7542": "oten",
    "7543": "nv",
    "7544": "nvi",
    "7545": "nvir",
    "7546": "nviro",
    "7547": "nviron",
    "7548": "fg",
    "7549": "fgh",
    "7550": "fgha",
    "7551": "fghan",
    "7552": "led ",
    "7553": "lci",
    "7554": "mol",
    "7555": "molo",
    "7556": "molog",
    "7557": "hlo",
    "7558": "imila",
    "7559": "EC",
    "7560": "ECA",
    "7561": "iddle",
    "7562": "icip",
    "7563": "Californ",
    "7564": "Californi",
    "7565": "9)*",
    "7566": "egan",
    "7567": "IC",
    "7568": "boo",
    "7569": "Priz",
    "7570": "highe",
    "7571": "\\m",
    "7572": "\\ma",
    "7573": "\\mat",
    "7574": "\\math",
    "7575": "ricu",
    "7576": "-6",
    "7577": "-60",
    "7578": "lanc",
    "7579": "sth",
    "7580": "ira",
    "7581": "iral",
    "7582": "Yas",
    "7583": "Yass",
    "7584": "sn",
    "7585": "sne",
    "7586": "sney",
    "7587": "t)",
    "7588": "onic",
    "7589": "entu",
    "7590": "o o",
    "7591": "o on",
    "7592": "bta",
    "7593": "btai",
    "7594": "adin",
    "7595": "Nor",
    "7596": "llio",
    "7597": "g=",
    "7598": "thb",
    "7599": "thba",
    "7600": "ips",
    "7601": "ips ",
    "7602": "ptur",
    "7603": "write",
    "7604": "wt",
    "7605": "kg",
    "7606": "kgr",
    "7607": "kgro",
    "7608": "nj",
    "7609": "nje",
    "7610": "njec",
    "7611": "nject",
    "7612": "*Yo",
    "7613": "nnel",
    "7614": "hana",
    "7615": "prog",
    "7616": "progr",
    "7617": "gla",
    "7618": "glan",
    "7619": "aac",
    "7620": "ymb",
    "7621": "ymbo",
    "7622": "ibs",
    "7623": "k,",
    "7624": "k, ",
    "7625": " d",
    "7626": "Ages",
    "7627": "omas",
    "7628": "DU",
    "7629": "inen",
    "7630": "8-",
    "7631": "dno",
    "7632": "dnou",
    "7633": "dnoug",
    "7634": "Dru",
    "7635": "Drug",
    "7636": "spir",
    "7637": "Engl",
    "7638": "die ",
    "7639": "Acc",
    "7640": "Acco",
    "7641": "Accor",
    "7642": "Accord",
    "7643": "prod",
    "7644": "esc",
    "7645": "escr",
    "7646": "escri",
    "7647": "escrib",
    "7648": "20th ",
    "7649": "ece",
    "7650": "N b",
    "7651": "N br",
    "7652": " lo",
    "7653": " lon",
    "7654": " long",
    "7655": " longe",
    "7656": "IAA",
    "7657": "spee",
    "7658": "Sear",
    "7659": "dul",
    "7660": "lco",
    "7661": "Balm",
    "7662": "Balma",
    "7663": "r w",
    "7664": "r wi",
    "7665": "r wit",
    "7666": "r with",
    "7667": "bys",
    "7668": "byss",
    "7669": "dria",
    "7670": "list",
    "7671": "ourt",
    "7672": "alle",
    "7673": "HB",
    "7674": "S-",
    "7675": "S-I",
    "7676": "vah",
    "7677": "nage",
    "7678": "asic",
    "7679": "light",
    "7680": "rox",
    "7681": "roxi",
    "7682": "roxim",
    "7683": "exe",
    "7684": "exec",
    "7685": "execu",
    "7686": "execut",
    "7687": "pria",
    "7688": "byl",
    "7689": "bylo",
    "7690": "bylon",
    "7691": "odiu",
    "7692": "odium",
    "7693": "lict",
    "7694": "Fea",
    "7695": "Feas",
    "7696": "Feast",
    "7697": "e-",
    "7698": "e-E",
    "7699": "e-Ei",
    "7700": "acr",
    "7701": "{k",
    "7702": "{k-",
    "7703": "eade",
    "7704": "doc",
    "7705": "woo",
    "7706": "wood",
    "7707": " vo",
    "7708": " vot",
    "7709": " Ri",
    "7710": " Riv",
    "7711": "Fle",
    "7712": "Flee",
    "7713": "dern ",
    "7714": "e=",
    "7715": "/td ",
    "7716": "fuse",
    "7717": "rsue",
    "7718": "rsue ",
    "7719": " pa",
    "7720": " pai",
    "7721": " pain",
    "7722": " paint",
    "7723": "nd f",
    "7724": "trea",
    "7725": "psy",
    "7726": "psyc",
    "7727": "sear",
    "7728": "searc",
    "7729": "mselve",
    "7730": "Ot",
    "7731": "Ott",
    "7732": "canc",
    "7733": "cance",
    "7734": "Eg",
    "7735": "Egy",
    "7736": "Egyp",
    "7737": "Egypt",
    "7738": "erba",
    "7739": "CPS",
    "7740": "CPSU",
    "7741": "Del",
    "7742": "late ",
    "7743": " ot",
    "7744": "-si",
    "7745": "no ",
    "7746": "Wat",
    "7747": "Wats",
    "7748": "Watso",
    "7749": "vor",
    "7750": "cand",
    "7751": "candl",
    "7752": "ddle",
    "7753": "rave",
    "7754": "WW",
    "7755": "WWI",
    "7756": "ypo",
    "7757": "sour",
    "7758": "bm",
    "7759": "bmi",
    "7760": "bmit",
    "7761": "pad",
    "7762": "ray",
    "7763": "ofe",
    "7764": "ofes",
    "7765": "ofess",
    "7766": "bio",
    "7767": "merc",
    "7768": "alli",
    "7769": "allie",
    "7770": "allied",
    "7771": "allied ",
    "7772": "T.",
    "7773": "vang",
    "7774": "vange",
    "7775": "ant ",
    "7776": "dura",
    "7777": "graph",
    "7778": "ctri",
    "7779": "ciph",
    "7780": "ciphe",
    "7781": "hlor",
    "7782": "bsta",
    "7783": "h'",
    "7784": "h's",
    "7785": "h's ",
    "7786": "iar",
    "7787": "EG",
    "7788": "EG-",
    "7789": "lun",
    "7790": "lunt",
    "7791": "Ka",
    "7792": "rchi",
    "7793": "rchiv",
    "7794": "tty ",
    "7795": "hit",
    "7796": "hite",
    "7797": "cori",
    "7798": "corin",
    "7799": "tnes",
    "7800": "- 1",
    "7801": "px",
    "7802": "tarc",
    "7803": "tarct",
    "7804": "tarcti",
    "7805": "lyg",
    "7806": "lyga",
    "7807": "3*",
    "7808": "1 -",
    "7809": "1 - ",
    "7810": "igra",
    "7811": "icid",
    "7812": "ird",
    "7813": "hau",
    "7814": "haul",
    "7815": "l-p",
    "7816": "l-pu",
    "7817": "l-pur",
    "7818": "tert",
    "7819": "terta",
    "7820": "she ",
    "7821": "8 -",
    "7822": "e,",
    "7823": "e, ",
    "7824": "spit",
    "7825": "spite",
    "7826": "E.",
    "7827": "nts",
    "7828": " Ara",
    "7829": "bb{",
    "7830": "esse",
    "7831": "essel",
    "7832": "fea",
    "7833": "feat",
    "7834": " Sp",
    "7835": " Spi",
    "7836": " Spir",
    "7837": "egal",
    "7838": "name",
    "7839": "Fore",
    "7840": "Fores",
    "7841": "erp",
    "7842": "erpa",
    "7843": "aj",
    "7844": "ajo",
    "7845": "ssiu",
    "7846": "mstr",
    "7847": "mstro",
    "7848": "mstron",
    "7849": "oppo",
    "7850": "Str",
    "7851": "Stri",
    "7852": "vice",
    "7853": "need",
    "7854": "lpa",
    "7855": "lpac",
    "7856": "lpaca",
    "7857": "owi",
    "7858": "owin",
    "7859": "Danc",
    "7860": "voy",
    "7861": "voya",
    "7862": "voyag",
    "7863": "uj",
    "7864": "uja",
    "7865": "ujah",
    "7866": "akh",
    "7867": "video",
    "7868": "CC",
    "7869": "marr",
    "7870": "marri",
    "7871": "laye",
    "7872": "alia",
    "7873": "hica",
    "7874": "hicag",
    "7875": "hicago",
    "7876": "fric",
    "7877": "bya",
    "7878": "frica",
    "7879": "couv",
    "7880": "dir",
    "7881": "dire",
    "7882": "sca",
    "7883": "scar",
    "7884": "deriv",
    "7885": "yar",
    "7886": "yard",
    "7887": "oda",
    "7888": "eds",
    "7889": "osin",
    "7890": "P b",
    "7891": "P br",
    "7892": "Kar",
    "7893": "Karl",
    "7894": "nod",
    "7895": "node",
    "7896": "onsi",
    "7897": "onsid",
    "7898": "onside",
    "7899": "Red",
    "7900": "tow",
    "7901": "atc",
    "7902": "kille",
    "7903": "i,",
    "7904": "i, ",
    "7905": " Y",
    "7906": " Ya",
    "7907": "risk",
    "7908": "Vir",
    "7909": "Virg",
    "7910": "Virgi",
    "7911": "Virgin",
    "7912": "_of_",
    "7913": "thn",
    "7914": "aut",
    "7915": "n br",
    "7916": "ops",
    "7917": "cala",
    "7918": "calab",
    "7919": "cost",
    "7920": "mba",
    "7921": "mbas",
    "7922": "mbass",
    "7923": "urem",
    "7924": "uremb",
    "7925": "roh",
    "7926": "2:",
    "7927": "All",
    "7928": "Alli",
    "7929": "Allia",
    "7930": "Allian",
    "7931": "tolo",
    "7932": "tolog",
    "7933": "nal ",
    "7934": "diat",
    "7935": "diato",
    "7936": "nes ",
    "7937": "ctur",
    "7938": "odit",
    "7939": "Int",
    "7940": "nns",
    "7941": "nnsy",
    "7942": "nnsyl",
    "7943": "cifi",
    "7944": "dou",
    "7945": "dous",
    "7946": "ndon",
    "7947": "emo",
    "7948": "cui",
    "7949": "Ord",
    "7950": "Pru",
    "7951": "Prus",
    "7952": "Pruss",
    "7953": "xl",
    "7954": "xle",
    "7955": "inio",
    "7956": "yb",
    "7957": "yba",
    "7958": "yban",
    "7959": "ivat",
    "7960": "fra",
    "7961": "frac",
    "7962": "o/",
    "7963": "U ",
    "7964": "U /",
    "7965": "U /s",
    "7966": "U /su",
    "7967": "spea",
    "7968": "speak",
    "7969": "ashi",
    "7970": "ashio",
    "7971": "ellat",
    "7972": " ac",
    "7973": "agh",
    "7974": "Father",
    "7975": "rent",
    "7976": "Ire",
    "7977": "Irel",
    "7978": "osl",
    "7979": "oslo",
    "7980": "oslov",
    "7981": "derw",
    "7982": "derwo",
    "7983": "derwor",
    "7984": "7th ",
    "7985": "rua",
    "7986": "isney",
    "7987": "ubb",
    "7988": "ubbe",
    "7989": "Son",
    "7990": " mor",
    "7991": " mora",
    "7992": " moral",
    "7993": "women",
    "7994": "acc",
    "7995": "cisc",
    "7996": "cia",
    "7997": "ciat",
    "7998": "zinc",
    "7999": "? ",
    "8000": "Sl",
    "8001": "Sla",
    "8002": "Slav",
    "8003": "um ",
    "8004": "x /",
    "8005": "x /m",
    "8006": "x /ma",
    "8007": "TV",
    "8008": "aunc",
    "8009": "inta",
    "8010": "intai",
    "8011": "del ",
    "8012": "9}",
    "8013": "ghl",
    "8014": "lley",
    "8015": "organ",
    "8016": "ileg",
    "8017": "tech",
    "8018": "Irv",
    "8019": "Irvi",
    "8020": "Irvin",
    "8021": "l)",
    "8022": "tatio",
    "8023": "tation",
    "8024": "ngine",
    "8025": "a h",
    "8026": "a ha",
    "8027": "a hal",
    "8028": "a half",
    "8029": "scrib",
    "8030": "udi ",
    "8031": "udi A",
    "8032": "udi Ar",
    "8033": "udi Ara",
    "8034": "0}",
    "8035": "micr",
    "8036": "bbo",
    "8037": "bbon",
    "8038": "eso",
    "8039": "esor",
    "8040": "esort",
    "8041": "esh",
    "8042": "AT",
    "8043": "ATO",
    "8044": "an F",
    "8045": "an Fr",
    "8046": "an Fra",
    "8047": "an Fran",
    "8048": "rkel",
    "8049": "mp ",
    "8050": "mp D",
    "8051": "mp Da",
    "8052": "mp Dav",
    "8053": "b. 1",
    "8054": "q -",
    "8055": " So",
    "8056": " Sox",
    "8057": "bla",
    "8058": "blac",
    "8059": "black",
    "8060": "inar",
    "8061": "ecade",
    "8062": "G (",
    "8063": "y /",
    "8064": "y /m",
    "8065": "y /ma",
    "8066": "Ham",
    "8067": "Hama",
    "8068": "Hamas",
    "8069": "ates",
    "8070": "wag",
    "8071": "oos",
    "8072": "xan",
    "8073": "xand",
    "8074": "Pu",
    "8075": "Pub",
    "8076": "rica",
    "8077": "trim",
    "8078": "osto",
    "8079": "oston",
    "8080": "omag",
    "8081": "omage",
    "8082": "gt",
    "8083": "Gera",
    "8084": "Geral",
    "8085": "Gerald",
    "8086": "26",
    "8087": "eyo",
    "8088": "eyon",
    "8089": "ied ",
    "8090": " Sy",
    "8091": " Sys",
    "8092": " Syst",
    "8093": "grea",
    "8094": "great",
    "8095": "Liv",
    "8096": "Live",
    "8097": "san",
    "8098": "tze",
    "8099": "tzes",
    "8100": "erf",
    "8101": "erfo",
    "8102": "erfor",
    "8103": "-vol",
    "8104": "City",
    "8105": "nie ",
    "8106": "Oh",
    "8107": "Jer",
    "8108": "lex",
    "8109": "gdom",
    "8110": "rsto",
    "8111": "rstoo",
    "8112": "etie",
    "8113": "ida",
    "8114": "often",
    "8115": "roj",
    "8116": "roje",
    "8117": "coi",
    "8118": "coin",
    "8119": "eog",
    "8120": "eogr",
    "8121": "eogra",
    "8122": "ppea",
    "8123": "bha",
    "8124": "Calv",
    "8125": " ri",
    "8126": " rig",
    "8127": " righ",
    "8128": " right",
    "8129": "owd",
    "8130": "educa",
    "8131": "educat",
    "8132": "coz",
    "8133": "cozo",
    "8134": "BP",
    "8135": "BPM",
    "8136": "ynt",
    "8137": "ynth",
    "8138": "embr",
    "8139": "R ",
    "8140": "set ",
    "8141": "film",
    "8142": "imm",
    "8143": "imme",
    "8144": "houg",
    "8145": " milli",
    "8146": "fied ",
    "8147": "pent",
    "8148": "pent ",
    "8149": "heme",
    "8150": "tay",
    "8151": "tay ",
    "8152": "Schop",
    "8153": "Schope",
    "8154": "Schopen",
    "8155": "nau",
    "8156": "rpre",
    "8157": "nony",
    "8158": "nonym",
    "8159": "ebru",
    "8160": "clic",
    "8161": "click",
    "8162": "scov",
    "8163": "scove",
    "8164": "dyn",
    "8165": "dyna",
    "8166": "dynam",
    "8167": "rima",
    "8168": "rimar",
    "8169": "lto",
    "8170": "lton",
    "8171": "speed",
    "8172": "shn",
    "8173": "shna",
    "8174": "Had",
    "8175": "Hadr",
    "8176": "hera",
    "8177": " H",
    "8178": "Fam",
    "8179": "enhag",
    "8180": "enhage",
    "8181": "enhagen",
    "8182": "-da",
    "8183": "-day",
    "8184": "adve",
    "8185": "r'",
    "8186": "r's",
    "8187": "insi",
    "8188": "ntai",
    "8189": "nav",
    "8190": "Kep",
    "8191": "RC",
    "8192": "riet",
    "8193": "riety",
    "8194": "7;s",
    "8195": "ipul",
    "8196": "Pen",
    "8197": "Penn",
    "8198": "tting",
    "8199": "more ",
    "8200": "ntit",
    "8201": "ntity",
    "8202": "ntity ",
    "8203": "{\\",
    "8204": "isti",
    "8205": "-ma",
    "8206": "ietz",
    "8207": "ietzs",
    "8208": "ietzsc",
    "8209": "ietzsch",
    "8210": "a.",
    "8211": "a.k",
    "8212": "a.k.",
    "8213": "lmon",
    "8214": "2)*",
    "8215": "2)*1",
    "8216": "ommo",
    "8217": "ommon",
    "8218": "yout",
    "8219": "tten",
    "8220": "pany",
    "8221": "orc",
    "8222": "orce",
    "8223": "rtr",
    "8224": "ett",
    "8225": "ette",
    "8226": "etter",
    "8227": "is/",
    "8228": "alog",
    "8229": "gric",
    "8230": "gricu",
    "8231": "gricul",
    "8232": "ogam",
    "8233": "bba",
    "8234": "leme",
    "8235": "lemen",
    "8236": "shv",
    "8237": "shvi",
    "8238": "shvil",
    "8239": "shvill",
    "8240": "erse ",
    "8241": "0 n",
    "8242": "0 nb",
    "8243": "0 nbs",
    "8244": "0 nbsp",
    "8245": "tyl",
    "8246": "azono",
    "8247": "8)*1",
    "8248": "eace",
    "8249": "America",
    "8250": "pus",
    "8251": "adic",
    "8252": " War",
    "8253": "enga",
    "8254": " do",
    "8255": " do ",
    "8256": "balt",
    "8257": "comed",
    "8258": "eathr",
    "8259": "emin",
    "8260": "7,",
    "8261": "7, ",
    "8262": "d W",
    "8263": "d Wi",
    "8264": "arryi",
    "8265": "arryin",
    "8266": "heat",
    "8267": "ompos",
    "8268": "Dal",
    "8269": "Dale",
    "8270": "Dalek",
    "8271": "Qa",
    "8272": "dev",
    "8273": "kir",
    "8274": "kirt",
    "8275": "zzl",
    "8276": "X-",
    "8277": "rus",
    "8278": "rust",
    "8279": "%t",
    "8280": "%tr",
    "8281": "brie",
    "8282": "briel",
    "8283": "fth",
    "8284": "kag",
    "8285": "kaga",
    "8286": "nda",
    "8287": "ndat",
    "8288": "ndati",
    "8289": "ndatio",
    "8290": "SSR",
    "8291": "Bol",
    "8292": "Boli",
    "8293": "Boliv",
    "8294": "obal",
    "8295": "gary",
    "8296": "mploy",
    "8297": "Desi",
    "8298": "rnat",
    "8299": "nac",
    "8300": "bouc",
    "8301": "bouch",
    "8302": "bouchu",
    "8303": "bouchur",
    "8304": "nja",
    "8305": "D. ",
    "8306": "rang",
    "8307": "awn",
    "8308": "omo",
    "8309": "omon",
    "8310": "NO",
    "8311": "NO ",
    "8312": "NO I",
    "8313": "NO IM",
    "8314": " V",
    "8315": "Bah",
    "8316": "eigh",
    "8317": "h e",
    "8318": " sup",
    "8319": " de",
    "8320": " des",
    "8321": "fras",
    "8322": "frast",
    "8323": "Ari",
    "8324": "Aria",
    "8325": "Arian",
    "8326": "maj",
    "8327": "majo",
    "8328": "ndas",
    "8329": "ndash",
    "8330": "01",
    "8331": "web",
    "8332": "ealt",
    "8333": "ealth",
    "8334": "ften",
    "8335": " di",
    "8336": "hley",
    "8337": "EF",
    "8338": "EFE",
    "8339": "EFER",
    "8340": "unde",
    "8341": "1.x",
    "8342": "una",
    "8343": "Berk",
    "8344": "Berke",
    "8345": "Berkel",
    "8346": "NC",
    "8347": "rdin",
    "8348": "ying",
    "8349": "lus",
    "8350": "lusi",
    "8351": "aten",
    "8352": "udg",
    "8353": "Jac",
    "8354": "Jack",
    "8355": "cele",
    "8356": "celeb",
    "8357": "bud",
    "8358": "budg",
    "8359": "budge",
    "8360": "etti",
    "8361": "ettin",
    "8362": "etting",
    "8363": "efor",
    "8364": "E. ",
    "8365": "tingu",
    "8366": "-c",
    "8367": "-ca",
    "8368": "epis",
    "8369": "episo",
    "8370": "ico",
    "8371": "icop",
    "8372": "icopt",
    "8373": "C (",
    "8374": "Edw",
    "8375": "Riv",
    "8376": "on /",
    "8377": "on /t",
    "8378": "on /td",
    "8379": "on /td ",
    "8380": "say",
    "8381": "hiop",
    "8382": "-co",
    "8383": "-com",
    "8384": "serte",
    "8385": "ns,",
    "8386": "ns, ",
    "8387": "migr",
    "8388": "n W",
    "8389": "n Wa",
    "8390": "ryp",
    "8391": "nism",
    "8392": "po ",
    "8393": "sint",
    "8394": "5.",
    "8395": "raf",
    "8396": "raft",
    "8397": "sce",
    "8398": "iag",
    "8399": "body",
    "8400": "thei",
    "8401": "theis",
    "8402": "lesti",
    "8403": "lestin",
    "8404": "poll",
    "8405": "wei",
    "8406": "bn",
    "8407": "terc",
    "8408": "terce",
    "8409": "tercep",
    "8410": "tercept",
    "8411": "epin",
    "8412": "ipa",
    "8413": "g K",
    "8414": "g Ko",
    "8415": "Briti",
    "8416": "Britis",
    "8417": " Da",
    "8418": " Day",
    "8419": "doll",
    "8420": "dolla",
    "8421": "dollar",
    "8422": "poe",
    "8423": "atho",
    "8424": "athon",
    "8425": "ig ",
    "8426": "ies ",
    "8427": "reati",
    "8428": "r=",
    "8429": "deat",
    "8430": "death",
    "8431": "Fou",
    "8432": "Foun",
    "8433": "Found",
    "8434": "ottom",
    "8435": "scho",
    "8436": "mayo",
    "8437": "mayor",
    "8438": "ffo",
    "8439": "stop",
    "8440": "dash",
    "8441": "veh",
    "8442": "vehi",
    "8443": "vehic",
    "8444": "bsi",
    "8445": "ifa",
    "8446": "ifad",
    "8447": "ifada",
    "8448": "icum",
    "8449": "saw",
    "8450": "saw ",
    "8451": "mun",
    "8452": "cs",
    "8453": "gmen",
    "8454": "gment",
    "8455": "arta",
    "8456": "l W",
    "8457": "l Wa",
    "8458": "ttr",
    "8459": "cim",
    "8460": "cima",
    "8461": "-bu",
    "8462": "-but",
    "8463": "I H",
    "8464": "I Ha",
    "8465": "ann",
    "8466": " Spa",
    "8467": "lch",
    "8468": "lche",
    "8469": "lchem",
    "8470": "udge",
    "8471": "udget",
    "8472": "Christ",
    "8473": "EX",
    "8474": "EXT",
    "8475": "EXTR",
    "8476": "igib",
    "8477": "emba",
    "8478": "nid",
    "8479": "nide",
    "8480": "adte",
    "8481": "adter",
    "8482": "flig",
    "8483": "fligh",
    "8484": "havio",
    "8485": "xum",
    "8486": "Fri",
    "8487": "Win",
    "8488": "ourn",
    "8489": "xec",
    "8490": "xecu",
    "8491": "xecut",
    "8492": "ptua",
    "8493": "XT",
    "8494": "XTR",
    "8495": "XTRE",
    "8496": "mpet",
    "8497": "migh",
    "8498": "might",
    "8499": "ance ",
    "8500": "Hea",
    "8501": "Heat",
    "8502": "Heath",
    "8503": "Op",
    "8504": "Ope",
    "8505": "Oper",
    "8506": "Opera",
    "8507": "dvo",
    "8508": "dvoc",
    "8509": "dvoca",
    "8510": "urred",
    "8511": "vye",
    "8512": "azi",
    "8513": "azil",
    "8514": "wsk",
    "8515": "Ev",
    "8516": "Eve",
    "8517": "oya",
    "8518": "zr",
    "8519": "zra",
    "8520": "famil",
    "8521": "Rive",
    "8522": "River",
    "8523": "hua",
    "8524": "hc",
    "8525": "hch",
    "8526": "eeme",
    "8527": "eemen",
    "8528": "NF",
    "8529": "NFL",
    "8530": "Sto",
    "8531": "Stor",
    "8532": "lve",
    "8533": "Of",
    "8534": "Of ",
    "8535": "eave",
    "8536": "eaven",
    "8537": "hon",
    "8538": "hono",
    "8539": "maa",
    "8540": "maah",
    "8541": "pur",
    "8542": "purp",
    "8543": "purpo",
    "8544": ";1",
    "8545": "ausi",
    "8546": "kli",
    "8547": "klin",
    "8548": "' )",
    "8549": "' ) ",
    "8550": "scal",
    "8551": "scale",
    "8552": "believ",
    "8553": "eta",
    "8554": "derm",
    "8555": "roni",
    "8556": "ronic",
    "8557": "form",
    "8558": "oubl",
    "8559": "uicid",
    "8560": "sino",
    "8561": "Bay",
    "8562": "Bay ",
    "8563": "hrop",
    "8564": "eks",
    "8565": "eks ",
    "8566": "*M",
    "8567": "*MP",
    "8568": "lust",
    "8569": "arri",
    "8570": "arrie",
    "8571": "fon",
    "8572": "font",
    "8573": "kso",
    "8574": "kson",
    "8575": "clid",
    "8576": "sim",
    "8577": "simi",
    "8578": "wer ",
    "8579": " gr",
    "8580": "pag",
    "8581": "paga",
    "8582": "Nam",
    "8583": "-t",
    "8584": "-to",
    "8585": "-to-",
    "8586": "9 a",
    "8587": "9 an",
    "8588": "itts",
    "8589": " ),",
    "8590": " ), ",
    "8591": "oto",
    "8592": "ving ",
    "8593": "SI",
    "8594": "SIM",
    "8595": "Forest",
    "8596": "wha",
    "8597": "what",
    "8598": "rto",
    "8599": "pula",
    "8600": "nve",
    "8601": "esa",
    "8602": "esar",
    "8603": "Asse",
    "8604": "Assem",
    "8605": "Assemb",
    "8606": "SW",
    "8607": "R}",
    "8608": "onc",
    "8609": "once",
    "8610": "kap",
    "8611": "kapp",
    "8612": "rdina",
    "8613": "bic",
    "8614": "eleb",
    "8615": "hen ",
    "8616": "urthe",
    "8617": "L)",
    "8618": "male",
    "8619": "PEG",
    "8620": "arlo",
    "8621": "eome",
    "8622": "eomet",
    "8623": "eometr",
    "8624": " IM",
    "8625": " IMP",
    "8626": " IMPO",
    "8627": "4 /",
    "8628": "4 /s",
    "8629": "aste",
    "8630": "aster",
    "8631": "cav",
    "8632": "cava",
    "8633": "ensiv",
    "8634": "ensive",
    "8635": "amin",
    "8636": "voic",
    "8637": "A)",
    "8638": "layed",
    "8639": " Re",
    "8640": " Rev",
    "8641": " Revo",
    "8642": "Ti",
    "8643": "Tin",
    "8644": "Tint",
    "8645": "Ph.",
    "8646": "Ph.D",
    "8647": "thodo",
    "8648": "thodox",
    "8649": "rash",
    "8650": "ching",
    "8651": "adel",
    "8652": "kk",
    "8653": "Bah'",
    "8654": "resl",
    "8655": "resle",
    "8656": "resley",
    "8657": "111",
    "8658": "eign",
    "8659": "if ",
    "8660": "scu",
    "8661": "onth",
    "8662": "ntil",
    "8663": " ne",
    "8664": "inn",
    "8665": "inna",
    "8666": "ook ",
    "8667": "fol",
    "8668": "foll",
    "8669": "follo",
    "8670": "eff",
    "8671": " ag",
    "8672": " age",
    "8673": "inter",
    "8674": "zech",
    "8675": "hie",
    "8676": "hiev",
    "8677": "ever ",
    "8678": "hose",
    "8679": "neth",
    "8680": "neth ",
    "8681": "dos",
    "8682": "l b",
    "8683": "C. ",
    "8684": "estr",
    "8685": "waii",
    "8686": "- o",
    "8687": "ip ",
    "8688": "yli",
    "8689": "atus",
    "8690": "Jud",
    "8691": "nfu",
    "8692": "nfus",
    "8693": "wnt",
    "8694": "TN",
    "8695": "Bud",
    "8696": "Budd",
    "8697": "ylan",
    "8698": "pprox",
    "8699": "gib",
    "8700": "Gen",
    "8701": "oO",
    "8702": "ncti",
    "8703": "nctio",
    "8704": "hys",
    "8705": "house",
    "8706": "Habsbur",
    "8707": "Habsburg",
    "8708": "zan",
    "8709": "zant",
    "8710": "Got",
    "8711": "Irela",
    "8712": "Irelan",
    "8713": "activ",
    "8714": "active",
    "8715": "nomi",
    "8716": "jin",
    "8717": "eX",
    "8718": "eXT",
    "8719": "hold",
    "8720": "rra",
    "8721": "pora",
    "8722": "fy ",
    "8723": "eate",
    "8724": "dc",
    "8725": "Tes",
    "8726": "Test",
    "8727": "E,",
    "8728": "rmed",
    "8729": "town",
    "8730": "wd",
    "8731": "wde",
    "8732": "wder",
    "8733": "lour",
    "8734": "wish",
    "8735": "dose",
    "8736": " pow",
    "8737": " powe",
    "8738": "reque",
    "8739": "inor",
    "8740": "itat",
    "8741": "ings",
    "8742": "inav",
    "8743": "Bas",
    "8744": "Basi",
    "8745": "Basin",
    "8746": "osex",
    "8747": "reed",
    "8748": "vich",
    "8749": "unic",
    "8750": "unica",
    "8751": "bare",
    "8752": "Novembe",
    "8753": "doub",
    "8754": "doubl",
    "8755": "Mu",
    "8756": "Mus",
    "8757": "- /",
    "8758": "ossil",
    "8759": "Z ",
    "8760": "World",
    "8761": "Dig",
    "8762": "U)",
    "8763": "Roa",
    "8764": "Road",
    "8765": "nd o",
    "8766": "nd of",
    "8767": "nd of ",
    "8768": "alg",
    "8769": "alga",
    "8770": "erfu",
    "8771": "s )",
    "8772": "s ) ",
    "8773": "0*",
    "8774": "finit",
    "8775": "rtil",
    "8776": "orn ",
    "8777": "eze",
    "8778": " Ve",
    "8779": " Ver",
    "8780": "alin",
    "8781": "aling",
    "8782": "Jou",
    "8783": "Jour",
    "8784": "became",
    "8785": "op ",
    "8786": "kaa",
    "8787": "nuc",
    "8788": "Hol",
    "8789": "Hold",
    "8790": "asur",
    "8791": "plet",
    "8792": "plete",
    "8793": "-of",
    "8794": "-of-",
    "8795": " ma",
    "8796": " maj",
    "8797": " majo",
    "8798": "kon",
    "8799": "erro",
    "8800": "etc.",
    "8801": "elt ",
    "8802": "lse",
    "8803": "Dea",
    "8804": "Dean",
    "8805": "heo",
    "8806": "heor",
    "8807": "tid",
    "8808": "ware",
    "8809": "elsin",
    "8810": "pam",
    "8811": "pami",
    "8812": "pamin",
    "8813": "pamine",
    "8814": "boy",
    "8815": "Sax",
    "8816": "Saxo",
    "8817": "-L",
    "8818": "-Ly",
    "8819": "0 m",
    "8820": "0 me",
    "8821": "0 met",
    "8822": "refe",
    "8823": "refer",
    "8824": "istol",
    "8825": "Hemis",
    "8826": "clam",
    "8827": "clama",
    "8828": "opera",
    "8829": "oor",
    "8830": "ablis",
    "8831": ", 1",
    "8832": ", 19",
    "8833": "nha",
    "8834": "nhag",
    "8835": "isin",
    "8836": "le t",
    "8837": "esen",
    "8838": "esent",
    "8839": "Februar",
    "8840": "ent ",
    "8841": "oct",
    "8842": "See ",
    "8843": "cN",
    "8844": "cNa",
    "8845": "entua",
    "8846": "entual",
    "8847": "atta",
    "8848": "attac",
    "8849": "m K",
    "8850": "m Ki",
    "8851": "Be ",
    "8852": " name",
    "8853": "room",
    "8854": "rham",
    "8855": "rine",
    "8856": "mben",
    "8857": "includ",
    "8858": "locat",
    "8859": "ketba",
    "8860": "ketbal",
    "8861": "famo",
    "8862": "famou",
    "8863": "lav",
    "8864": "lave",
    "8865": "lva",
    "8866": "nel ",
    "8867": "titc",
    "8868": "titch",
    "8869": "rty",
    "8870": "sa ",
    "8871": "mpero",
    "8872": "udy",
    "8873": "Ami",
    "8874": "Amig",
    "8875": "Amiga",
    "8876": "Il",
    "8877": "Ill",
    "8878": "Illi",
    "8879": "Illin",
    "8880": "eae",
    "8881": "own ",
    "8882": "oked",
    "8883": "lub",
    "8884": "K)",
    "8885": "rnar",
    "8886": "book",
    "8887": "abit",
    "8888": "bom",
    "8889": "bomb",
    "8890": "anor",
    "8891": "ograp",
    "8892": "upg",
    "8893": "upgr",
    "8894": "upgra",
    "8895": "teria",
    "8896": "terial",
    "8897": "2+",
    "8898": "eous",
    "8899": "presi",
    "8900": "presid",
    "8901": "tribu",
    "8902": "l R",
    "8903": "l Re",
    "8904": " nd",
    "8905": " nda",
    "8906": "irat",
    "8907": "duat",
    "8908": "pep",
    "8909": "r than",
    "8910": "-D",
    "8911": "-Da",
    "8912": "-Day",
    "8913": "d Wa",
    "8914": "eput",
    "8915": "ienn",
    "8916": "isf",
    "8917": "iner",
    "8918": "hood",
    "8919": "Engli",
    "8920": "Englis",
    "8921": "big",
    "8922": "bigu",
    "8923": "dier",
    "8924": "eles",
    "8925": "elesc",
    "8926": "elesco",
    "8927": "elescop",
    "8928": "useb",
    "8929": "siti",
    "8930": "sitio",
    "8931": "yte",
    "8932": "fores",
    "8933": "forest",
    "8934": "gery",
    "8935": "(l",
    "8936": "(ly",
    "8937": "(lyr",
    "8938": "Ash",
    "8939": "bsit",
    "8940": "inct",
    "8941": "bhi",
    "8942": "uenc",
    "8943": "ej",
    "8944": "ejo",
    "8945": "ejor",
    "8946": "acea",
    "8947": "cipa",
    "8948": "eaten",
    "8949": "ehold",
    "8950": "dha",
    "8951": "TF",
    "8952": "ercia",
    "8953": "rsion",
    "8954": "iot",
    "8955": "oac",
    "8956": "oact",
    "8957": "ify",
    "8958": "rela",
    "8959": "relat",
    "8960": "relati",
    "8961": "fter",
    "8962": "tide",
    "8963": "Agenc",
    "8964": "D.C",
    "8965": "sily",
    "8966": "sily ",
    "8967": "Lu",
    "8968": "Lut",
    "8969": "retr",
    "8970": "igm",
    "8971": "igma",
    "8972": "tele",
    "8973": "timu",
    "8974": "timul",
    "8975": "olt",
    "8976": "ommod",
    "8977": "usal",
    "8978": "fered",
    "8979": "fered ",
    "8980": "Prot",
    "8981": "Prote",
    "8982": "thre",
    "8983": "three",
    "8984": "ated ",
    "8985": "imply",
    "8986": "ra ",
    "8987": "ft ",
    "8988": "hysi",
    "8989": "ridg",
    "8990": "Tib",
    "8991": "Tibe",
    "8992": "Tiber",
    "8993": "edr",
    "8994": "edra",
    "8995": "yru",
    "8996": "yrup",
    "8997": "fran",
    "8998": " bi",
    "8999": " bil",
    "9000": "TO",
    "9001": "eent",
    "9002": "eenth",
    "9003": "brb",
    "9004": "/I",
    "9005": "mel",
    "9006": "ag ",
    "9007": "ta ",
    "9008": "ki)",
    "9009": "BS",
    "9010": "hai",
    "9011": "hait",
    "9012": "nsult",
    "9013": "L /",
    "9014": "L /t",
    "9015": "TAA",
    "9016": "TAAF",
    "9017": "TAAFL",
    "9018": "ject",
    "9019": "iog",
    "9020": "iogr",
    "9021": "iogra",
    "9022": "iograp",
    "9023": "o.",
    "9024": "d. 1",
    "9025": "Off",
    "9026": "rok",
    "9027": "roke",
    "9028": " tr",
    "9029": " tra",
    "9030": "vas",
    "9031": "vasi",
    "9032": "h*",
    "9033": "eas ",
    "9034": " 19",
    "9035": "pace",
    "9036": "z b",
    "9037": "edg",
    "9038": "edge",
    "9039": "amie",
    "9040": "amiel",
    "9041": "llap",
    "9042": "llaps",
    "9043": "llapse",
    "9044": "old",
    "9045": "old ",
    "9046": "Ste",
    "9047": "Stee",
    "9048": "rhy",
    "9049": "rhym",
    "9050": "Hal",
    "9051": "Hall",
    "9052": "vembe",
    "9053": "V)",
    "9054": "N)",
    "9055": "neut",
    "9056": "neutr",
    "9057": "esu",
    "9058": "esur",
    "9059": "esurr",
    "9060": "tempe",
    "9061": "temper",
    "9062": "for ",
    "9063": "Rei",
    "9064": "Reic",
    "9065": "cial",
    "9066": "uble",
    "9067": "aea",
    "9068": "inut",
    "9069": "Catho",
    "9070": "Cathol",
    "9071": "njam",
    "9072": "njami",
    "9073": "njamin",
    "9074": "byt",
    "9075": "efl",
    "9076": "efla",
    "9077": "eflat",
    "9078": "seu",
    "9079": "same ",
    "9080": "Cen",
    "9081": "Cent",
    "9082": "ecem",
    "9083": "ecemb",
    "9084": "ecembe",
    "9085": "icus",
    "9086": "freq",
    "9087": "tap",
    "9088": "ebat",
    "9089": "loso",
    "9090": "losop",
    "9091": "duct",
    "9092": "stant",
    "9093": "acco",
    "9094": "lled ",
    "9095": "Adm",
    "9096": "Admi",
    "9097": "y 2",
    "9098": "y 20",
    "9099": "y 200",
    "9100": "nsw",
    "9101": "nswe",
    "9102": "nswer",
    "9103": "Arm",
    "9104": "zone",
    "9105": "fut",
    "9106": "futu",
    "9107": "futur",
    "9108": "enge",
    "9109": "rsaw",
    "9110": "homo",
    "9111": "leep",
    "9112": "Peng",
    "9113": "cour",
    "9114": "estim",
    "9115": "Bi",
    "9116": "amba",
    "9117": "ambar",
    "9118": "appe",
    "9119": "apper",
    "9120": "elta",
    "9121": "kes",
    "9122": "kesp",
    "9123": "kespe",
    "9124": "kespea",
    "9125": "iness",
    "9126": "Pin",
    "9127": "Pino",
    "9128": "Pinoc",
    "9129": "based",
    "9130": "gs ",
    "9131": "ssed",
    "9132": "uler",
    "9133": "RO",
    "9134": "ROM",
    "9135": "gna",
    "9136": "cuss",
    "9137": "mino",
    "9138": "spect",
    "9139": "BS ",
    "9140": "ckg",
    "9141": "ckgr",
    "9142": "ckgro",
    "9143": "wher",
    "9144": "where",
    "9145": "ttoma",
    "9146": "OA",
    "9147": "OAS",
    "9148": "g th",
    "9149": "Roman",
    "9150": "sibl",
    "9151": "then",
    "9152": "sted",
    "9153": "IM",
    "9154": "avo",
    "9155": "atom",
    "9156": "French",
    "9157": "neuro",
    "9158": "Zwin",
    "9159": " on",
    "9160": " on ",
    "9161": "erge",
    "9162": "Mel",
    "9163": "Meli",
    "9164": "SD",
    "9165": "SD ",
    "9166": "SD $",
    "9167": "Im",
    "9168": "Ima",
    "9169": "Imag",
    "9170": "yel",
    "9171": "thin",
    "9172": "thing",
    "9173": "octr",
    "9174": "shw",
    "9175": "shwi",
    "9176": "SO",
    "9177": "B I",
    "9178": "*E",
    "9179": "ing o",
    "9180": "ing of",
    "9181": "ing of ",
    "9182": "pref",
    "9183": "prefe",
    "9184": "eden",
    "9185": "tsu",
    "9186": "give",
    "9187": "given",
    "9188": "paren",
    "9189": "parent",
    "9190": "ndu",
    "9191": " cl",
    "9192": " clu",
    "9193": " clus",
    "9194": " clust",
    "9195": "cadem",
    "9196": "Avi",
    "9197": "berg",
    "9198": "Are",
    "9199": "sked",
    "9200": "Leit",
    "9201": "At",
    "9202": "Ata",
    "9203": "Atac",
    "9204": "Auc",
    "9205": "Auck",
    "9206": "Per",
    "9207": "Pers",
    "9208": "hus",
    "9209": "food",
    "9210": "volu",
    "9211": "volum",
    "9212": "PD",
    "9213": "aq",
    "9214": "Pie",
    "9215": "Pier",
    "9216": "a M",
    "9217": "rbad",
    "9218": "ital",
    "9219": "usc",
    "9220": "uscl",
    "9221": "p:",
    "9222": "p:/",
    "9223": "pio",
    "9224": "dth",
    "9225": "l f",
    "9226": "l fo",
    "9227": "enez",
    "9228": "enezu",
    "9229": "enezue",
    "9230": "lland",
    "9231": "orki",
    "9232": "orkin",
    "9233": "go ",
    "9234": "ska",
    "9235": "rrow",
    "9236": "Way",
    "9237": "bach",
    "9238": " Ca",
    "9239": "ants",
    "9240": "ncern",
    "9241": "iaf",
    "9242": "rmac",
    "9243": "89",
    "9244": "bso",
    "9245": "bsol",
    "9246": "Ceu",
    "9247": "Ceut",
    "9248": "eus",
    "9249": "rik",
    "9250": "r*1",
    "9251": "r*19",
    "9252": "GM",
    "9253": "cean",
    "9254": "X|",
    "9255": "X| ",
    "9256": "nist",
    "9257": "lme",
    "9258": "bz",
    "9259": "lose",
    "9260": "Ford",
    "9261": "ecr",
    "9262": "ecre",
    "9263": "chan",
    "9264": "chanc",
    "9265": "vu",
    "9266": "Cau",
    "9267": "Cauc",
    "9268": "egor",
    "9269": "floo",
    "9270": "floor",
    "9271": "rpe",
    "9272": "rped",
    "9273": "arra",
    "9274": "arran",
    "9275": "arrant",
    "9276": "0 b",
    "9277": "0 br",
    "9278": "into",
    "9279": "ilan",
    "9280": "bern",
    "9281": "berna",
    "9282": "dama",
    "9283": "damag",
    "9284": "fina",
    "9285": "-r",
    "9286": "-ro",
    "9287": "-roc",
    "9288": "-rock",
    "9289": "ssibl",
    "9290": "mak",
    "9291": "make",
    "9292": "maker",
    "9293": "Vo",
    "9294": "Vol",
    "9295": "ves",
    "9296": "arles",
    "9297": "ylon",
    "9298": "rms ",
    "9299": "ern ",
    "9300": "gth",
    "9301": "ae ",
    "9302": "deca",
    "9303": "decad",
    "9304": "-f",
    "9305": "-fr",
    "9306": "dric",
    "9307": "drich",
    "9308": "mpany",
    "9309": "mul",
    "9310": "Lif",
    "9311": "Life",
    "9312": "riu",
    "9313": "taph",
    "9314": "noi",
    "9315": "noir",
    "9316": "orsi",
    "9317": "orsic",
    "9318": "orsica",
    "9319": "S) ",
    "9320": "omba",
    "9321": "ombar",
    "9322": "39",
    "9323": "oet",
    "9324": "cry",
    "9325": "oz",
    "9326": "ozo",
    "9327": "ozon",
    "9328": "House",
    "9329": "atem",
    "9330": "atema",
    "9331": "tivi",
    "9332": "klan",
    "9333": "hee",
    "9334": "heel",
    "9335": "dob",
    "9336": "doba",
    "9337": "seud",
    "9338": "too",
    "9339": "erh",
    "9340": "erha",
    "9341": "Dant",
    "9342": "Dante",
    "9343": "evio",
    "9344": "eviou",
    "9345": "ghte",
    "9346": "clude",
    "9347": "ilos",
    "9348": "iloso",
    "9349": "ilosop",
    "9350": "oei",
    "9351": "oeir",
    "9352": "ames",
    "9353": "xfor",
    "9354": "enni",
    "9355": "t-s",
    "9356": "thag",
    "9357": " G",
    "9358": " Ge",
    "9359": " Ger",
    "9360": " Gers",
    "9361": " Gersh",
    "9362": "ervi",
    "9363": "ervic",
    "9364": "ervice",
    "9365": "s;",
    "9366": "ctio",
    "9367": "n P",
    "9368": "ml",
    "9369": "mle",
    "9370": "mlet",
    "9371": " de ",
    "9372": "olom",
    "9373": "olomb",
    "9374": "Gene",
    "9375": "Genes",
    "9376": "Genesi",
    "9377": "IG",
    "9378": "ring ",
    "9379": "Lind",
    "9380": "Lindb",
    "9381": "Lindbe",
    "9382": "Lindber",
    "9383": "Lindberg",
    "9384": "tish",
    "9385": "7).",
    "9386": "cill",
    "9387": "Gers",
    "9388": "Gersh",
    "9389": "Gershw",
    "9390": "Gershwi",
    "9391": "rtee",
    "9392": "K ",
    "9393": "Nap",
    "9394": "Napo",
    "9395": "Napol",
    "9396": "cont",
    "9397": "citi",
    "9398": "citiz",
    "9399": "O)",
    "9400": "hina",
    "9401": "ysis",
    "9402": "nut",
    "9403": "mpb",
    "9404": "mpbe",
    "9405": "empl",
    "9406": "rill",
    "9407": "rilli",
    "9408": "lieve",
    "9409": "dias",
    "9410": "diasp",
    "9411": "diaspo",
    "9412": "diaspor",
    "9413": "hne",
    "9414": "hnem",
    "9415": "road",
    "9416": "onicu",
    "9417": "onicus",
    "9418": "Gn",
    "9419": "Gnu",
    "9420": "strac",
    "9421": "stract",
    "9422": "a J",
    "9423": "a Jo",
    "9424": "a Jon",
    "9425": "a Jone",
    "9426": "a Jones",
    "9427": "|X",
    "9428": "|X|",
    "9429": "g,",
    "9430": "g, ",
    "9431": "moth",
    "9432": "mothe",
    "9433": "aldw",
    "9434": "aldwi",
    "9435": "rbin",
    "9436": "Dev",
    "9437": "Deva",
    "9438": "risd",
    "9439": "risdi",
    "9440": "risdic",
    "9441": "risdict",
    "9442": "rniv",
    "9443": "eature",
    "9444": "rovi",
    "9445": "phag",
    "9446": "ople",
    "9447": "posit",
    "9448": "Cree",
    "9449": "Creek",
    "9450": "OT",
    "9451": "OTC",
    "9452": "ccl",
    "9453": "nep",
    "9454": "nepp",
    "9455": "neppe",
    "9456": "nepper",
    "9457": "PCF",
    "9458": "Augu",
    "9459": "u s",
    "9460": "u su",
    "9461": "esto",
    "9462": "eston",
    "9463": "omet",
    "9464": "behi",
    "9465": "behin",
    "9466": "Bor",
    "9467": "Doc",
    "9468": "Doct",
    "9469": "obb",
    "9470": "nur",
    "9471": " Fo",
    "9472": " For",
    "9473": " For ",
    "9474": "Pan",
    "9475": "But",
    "9476": "Butt",
    "9477": "Butte",
    "9478": "Butter",
    "9479": "Fu",
    "9480": "Fuj",
    "9481": "Neth",
    "9482": "Nethe",
    "9483": "Nether",
    "9484": "ntral",
    "9485": "month",
    "9486": "well ",
    "9487": "egea",
    "9488": "2+ ",
    "9489": "2+ /",
    "9490": "2+ /s",
    "9491": "uot",
    "9492": "cn",
    "9493": "album",
    "9494": "er t",
    "9495": "er th",
    "9496": "scien",
    "9497": "lare",
    "9498": "v*",
    "9499": "ored",
    "9500": "Tur",
    "9501": "Turk",
    "9502": "duca",
    "9503": "+ /",
    "9504": "+ /s",
    "9505": "+ /su",
    "9506": "+ /sup",
    "9507": "e min",
    "9508": "etwee",
    "9509": "gry",
    "9510": "EB",
    "9511": "rgi",
    "9512": "shio",
    "9513": "hik",
    "9514": "Nation",
    "9515": "fen",
    "9516": "lowi",
    "9517": "lowin",
    "9518": "dged",
    "9519": "ousa",
    "9520": "oki",
    "9521": "okin",
    "9522": "QL",
    "9523": "zie",
    "9524": "g m",
    "9525": "alyp",
    "9526": "5 /sup",
    "9527": "pra",
    "9528": "prav",
    "9529": "Mot",
    "9530": "Moto",
    "9531": "Motor",
    "9532": "hte",
    "9533": "hter",
    "9534": "TM",
    "9535": "Pit",
    "9536": "Aris",
    "9537": "Arist",
    "9538": "n) ",
    "9539": "ylin",
    "9540": "ogy",
    "9541": " Oc",
    "9542": "mage",
    "9543": "pth",
    "9544": "rui",
    "9545": "ruis",
    "9546": "rz",
    "9547": "rza",
    "9548": "weat",
    "9549": "weath",
    "9550": "Tem",
    "9551": "Temp",
    "9552": "Templ",
    "9553": "scl",
    "9554": "scle",
    "9555": "NU",
    "9556": "NU ",
    "9557": "easo",
    "9558": "eason",
    "9559": "ovemb",
    "9560": "ovembe",
    "9561": "wav",
    "9562": "NT",
    "9563": "pravi",
    "9564": "pravit",
    "9565": "aria",
    "9566": "SN",
    "9567": "SNF",
    "9568": "SNF)",
    "9569": "rced",
    "9570": "rced ",
    "9571": "toni",
    "9572": "rier",
    "9573": "olly",
    "9574": "olly ",
    "9575": "vate",
    "9576": "a. ",
    "9577": "DF)",
    "9578": ".*1",
    "9579": ".*19",
    "9580": "arted",
    "9581": "tist",
    "9582": "limi",
    "9583": "limin",
    "9584": "nough",
    "9585": "oung",
    "9586": "niva",
    "9587": "nival",
    "9588": "bset",
    "9589": "nfe",
    "9590": " mu",
    "9591": "uin",
    "9592": "spap",
    "9593": "vily",
    "9594": " art",
    "9595": " arti",
    "9596": " artis",
    "9597": "imed",
    "9598": "mf",
    "9599": "mfu",
    "9600": "mful",
    "9601": "n /",
    "9602": "n /m",
    "9603": "liat",
    "9604": "ndiv",
    "9605": "ndivi",
    "9606": "hz",
    "9607": "beau",
    "9608": "beaut",
    "9609": "ridge",
    "9610": "ictio",
    "9611": "ivil",
    "9612": "7, 1",
    "9613": " rat",
    "9614": " rate",
    "9615": "pecial",
    "9616": "tool",
    "9617": "bila",
    "9618": "bilat",
    "9619": "bilate",
    "9620": "bilater",
    "9621": "st o",
    "9622": "st of",
    "9623": "st of ",
    "9624": "yph",
    "9625": "wb",
    "9626": "wbo",
    "9627": "wboy",
    "9628": "RF",
    "9629": "RFC",
    "9630": "Arb",
    "9631": "Arbo",
    "9632": "ntas",
    "9633": "deal",
    "9634": "eez",
    "9635": "gine",
    "9636": "7 /",
    "9637": "7 /s",
    "9638": "7 /su",
    "9639": "7 /sup",
    "9640": "PG",
    "9641": "ix ",
    "9642": "NY",
    "9643": "nza",
    "9644": "nzan",
    "9645": "eful",
    "9646": "Bib",
    "9647": "Bibl",
    "9648": "erei",
    "9649": "ee ",
    "9650": "7.",
    "9651": "P-",
    "9652": "cru",
    "9653": "merg",
    "9654": "rami",
    "9655": "ramie",
    "9656": "ramiel",
    "9657": "ingi",
    "9658": "ingin",
    "9659": "cott",
    "9660": "lera",
    "9661": "lerat",
    "9662": "av ",
    "9663": "soli",
    "9664": "nnis",
    "9665": "hrist",
    "9666": "e :",
    "9667": "zab",
    "9668": "zabe",
    "9669": "xity",
    "9670": "ord ",
    "9671": "kell",
    "9672": "kelle",
    "9673": "Bur",
    "9674": "Burm",
    "9675": "Burma",
    "9676": "(di",
    "9677": "ansk",
    "9678": "emu",
    "9679": "emul",
    "9680": "T)",
    "9681": "arso",
    "9682": "-cl",
    "9683": "-cla",
    "9684": "rrec",
    "9685": "rrect",
    "9686": "fical",
    "9687": "AU",
    "9688": "AUS",
    "9689": "2 a",
    "9690": "2 an",
    "9691": "Ira ",
    "9692": "opul",
    "9693": "r,",
    "9694": "r, ",
    "9695": "l,",
    "9696": "l, ",
    "9697": "eny",
    "9698": "Fed",
    "9699": "db",
    "9700": "dbe",
    "9701": "dber",
    "9702": "dberg",
    "9703": "mpus",
    "9704": "Sq",
    "9705": "2*",
    "9706": "inh",
    "9707": "inha",
    "9708": "inhar",
    "9709": "ropr",
    "9710": "ropri",
    "9711": "ropria",
    "9712": "Ast",
    "9713": "Aste",
    "9714": "-pe",
    "9715": "-pee",
    "9716": "imb",
    "9717": "ze ",
    "9718": "NES",
    "9719": "yoz",
    "9720": "ief",
    "9721": "ief ",
    "9722": " (l",
    "9723": " (ly",
    "9724": " (lyr",
    "9725": "ain ",
    "9726": "romw",
    "9727": "romwe",
    "9728": "onar",
    "9729": "onarc",
    "9730": "onarch",
    "9731": "theo",
    "9732": "theor",
    "9733": "7 i",
    "9734": "7 in",
    "9735": "epub",
    "9736": "4-1",
    "9737": "olat",
    "9738": "chur",
    "9739": "wrig",
    "9740": "y b",
    "9741": "until",
    "9742": "hid",
    "9743": "ducat",
    "9744": "urce",
    "9745": "vest",
    "9746": "Y s",
    "9747": "Y su",
    "9748": "page",
    "9749": "uft",
    "9750": "olutio",
    "9751": "scen",
    "9752": "wave",
    "9753": "ham",
    "9754": "osy",
    "9755": "osyn",
    "9756": "imit",
    "9757": "ncol",
    "9758": "gly",
    "9759": "adva",
    "9760": "advan",
    "9761": "canda",
    "9762": "candal",
    "9763": " it",
    "9764": " u",
    "9765": " un",
    "9766": " unk",
    "9767": "Geo",
    "9768": "Geor",
    "9769": "Georg",
    "9770": "jet",
    "9771": "sourc",
    "9772": "IME",
    "9773": "ctiv",
    "9774": "anh",
    "9775": "anha",
    "9776": "anhat",
    "9777": "anhatt",
    "9778": "groun",
    "9779": "cop",
    "9780": "rvana",
    "9781": "clas",
    "9782": "class",
    "9783": "antl",
    "9784": "ehr",
    "9785": "19t",
    "9786": "19th",
    "9787": "roken",
    "9788": "ivers",
    "9789": "rter",
    "9790": "ondu",
    "9791": "mmet",
    "9792": "diod",
    "9793": "Howeve",
    "9794": "nsid",
    "9795": "nside",
    "9796": "nsider",
    "9797": "Dar",
    "9798": "Darw",
    "9799": "Darwi",
    "9800": "dad",
    "9801": "olit",
    "9802": "oliti",
    "9803": "olitic",
    "9804": "nown",
    "9805": "v b",
    "9806": "erpr",
    "9807": "rtho",
    "9808": "nden",
    "9809": "ndenc",
    "9810": " Li",
    "9811": "fet",
    "9812": "fety",
    "9813": "WF",
    "9814": "WF)",
    "9815": "numbe",
    "9816": "lsor",
    "9817": "Canal",
    "9818": "isd",
    "9819": "isdi",
    "9820": "sbur",
    "9821": "sburg",
    "9822": "Zeu",
    "9823": "Med",
    "9824": "Medi",
    "9825": "Medic",
    "9826": "emula",
    "9827": "nis ",
    "9828": "large",
    "9829": "map",
    "9830": "9-1",
    "9831": "SM",
    "9832": "ZA",
    "9833": "kna",
    "9834": "knam",
    "9835": "ahn",
    "9836": "imag",
    "9837": "5%",
    "9838": "sieg",
    "9839": "siege",
    "9840": " level",
    "9841": "mee",
    "9842": "meet",
    "9843": "s A",
    "9844": "s An",
    "9845": "s Ang",
    "9846": "s Ange",
    "9847": "absbur",
    "9848": "absburg",
    "9849": "/h",
    "9850": "/he",
    "9851": "liva",
    "9852": "six",
    "9853": "cker",
    "9854": "iba",
    "9855": "ibal",
    "9856": "nhat",
    "9857": "nhatt",
    "9858": "Afric",
    "9859": "Africa",
    "9860": "Up",
    "9861": "ph ",
    "9862": "-knu",
    "9863": "-knuc",
    "9864": "ltu",
    "9865": "ltur",
    "9866": "90s ",
    "9867": "erus",
    "9868": "erusa",
    "9869": "erusal",
    "9870": "Ted",
    "9871": " Fr",
    "9872": " Fri",
    "9873": "brea",
    "9874": "urm",
    "9875": "urmo",
    "9876": "urmoi",
    "9877": "urmoil",
    "9878": "date",
    "9879": "allen",
    "9880": "tman",
    "9881": " re",
    "9882": "orke",
    "9883": "orked",
    "9884": "cases",
    "9885": "Fe ",
    "9886": "Fe s",
    "9887": "Fe su",
    "9888": "yric",
    "9889": "-pu",
    "9890": "-pur",
    "9891": "-purp",
    "9892": "-purpo",
    "9893": "-purpos",
    "9894": " Pan",
    "9895": " Pand",
    "9896": "uita",
    "9897": "uitar",
    "9898": "rub",
    "9899": "mati",
    "9900": "matio",
    "9901": "mane",
    "9902": "edec",
    "9903": "edece",
    "9904": "er-",
    "9905": "nue",
    "9906": "resp",
    "9907": "lw",
    "9908": "lwa",
    "9909": "nistr",
    "9910": "Balt",
    "9911": "ext ",
    "9912": "oted",
    "9913": "oted ",
    "9914": "nted",
    "9915": "bg",
    "9916": "bga",
    "9917": "bgar",
    "9918": " Af",
    "9919": " Afr",
    "9920": " Afri",
    "9921": " rem",
    "9922": " remo",
    "9923": "wle",
    "9924": "ium",
    "9925": "3r",
    "9926": "3rd",
    "9927": "iami",
    "9928": "Pei",
    "9929": "Peir",
    "9930": "Peirc",
    "9931": "Zeus",
    "9932": "roi",
    "9933": "bun",
    "9934": "etyp",
    "9935": "rts",
    "9936": "rts ",
    "9937": "rts o",
    "9938": "rts of",
    "9939": "ilia",
    "9940": "ort ",
    "9941": "-de",
    "9942": "-dep",
    "9943": "hism",
    "9944": "code",
    "9945": "nak",
    "9946": "nake",
    "9947": "otab",
    "9948": "hvil",
    "9949": "take",
    "9950": "dim",
    "9951": "dime",
    "9952": "nega",
    "9953": "xon",
    "9954": "ompose",
    "9955": "York",
    "9956": "mbl",
    "9957": "lite",
    "9958": "liter",
    "9959": "litera",
    "9960": "acia",
    "9961": " :",
    "9962": "dop",
    "9963": "dopt",
    "9964": "impo",
    "9965": "impor",
    "9966": "Saxon",
    "9967": "edic",
    "9968": "Not",
    "9969": "Note",
    "9970": "*W",
    "9971": "Atl",
    "9972": "Atla",
    "9973": "hasi",
    "9974": "hadi",
    "9975": "hadin",
    "9976": "tract",
    "9977": "7:",
    "9978": "tria",
    "9979": "llor",
    "9980": "ISP",
    "9981": "HI",
    "9982": "HIV",
    "9983": "hange",
    "9984": "sm ",
    "9985": "uis",
    "9986": "nna",
    "9987": "nnan",
    "9988": "pecu",
    "9989": "pecul",
    "9990": "nchu",
    "9991": "6 a",
    "9992": "6 an",
    "9993": "eight",
    "9994": "tog",
    "9995": "togr",
    "9996": "togra",
    "9997": "tograp",
    "9998": "tograph",
    "9999": " la",
    "10000": " lay",
    "10001": " laye",
    "10002": "fee",
    "10003": "feet",
    "10004": "pb",
    "10005": "pbe",
    "10006": "arch",
    "10007": "artic",
    "10008": "articl",
    "10009": "article",
    "10010": "achin",
    "10011": "opte",
    "10012": "mass",
    "10013": "Youn",
    "10014": "ce,",
    "10015": "ce, ",
    "10016": "OS",
    "10017": "9*",
    "10018": "I.",
    "10019": "I. ",
    "10020": "joy",
    "10021": "moved",
    "10022": "3 /su",
    "10023": "Chan",
    "10024": "Chanc",
    "10025": "voni",
    "10026": "lica",
    "10027": "phi",
    "10028": "Bis",
    "10029": "Bish",
    "10030": "Bisho",
    "10031": "ngua",
    "10032": "nguag",
    "10033": "M) ",
    "10034": "M) b",
    "10035": "M) br",
    "10036": "modi",
    "10037": "modit",
    "10038": "emy ",
    "10039": "H)",
    "10040": "Bru",
    "10041": "Bruc",
    "10042": "Bruce",
    "10043": "b ",
    "10044": "anth",
    "10045": "anthe",
    "10046": "ilt",
    "10047": "sp ",
    "10048": "-au",
    "10049": "-aut",
    "10050": "arct",
    "10051": "V.",
    "10052": "ebt",
    "10053": "B)",
    "10054": "muc",
    "10055": "much",
    "10056": "Depu",
    "10057": "Deput",
    "10058": "aine",
    "10059": "ained",
    "10060": "Wee",
    "10061": "Week",
    "10062": "Cant",
    "10063": "iru",
    "10064": "irul",
    "10065": "irule",
    "10066": "irulen",
    "10067": "appl",
    "10068": "HL",
    "10069": "HL ",
    "10070": "HL /",
    "10071": "HL /t",
    "10072": "C B",
    "10073": "C Be",
    "10074": "C Ber",
    "10075": "C Berk",
    "10076": "C Berke",
    "10077": "denc",
    "10078": " Ch",
    "10079": " Cha",
    "10080": " Chan",
    "10081": "y|",
    "10082": "evol",
    "10083": "i /",
    "10084": "i /s",
    "10085": "i /su",
    "10086": "alest",
    "10087": "hims",
    "10088": "himse",
    "10089": "himsel",
    "10090": "Rev",
    "10091": "Revo",
    "10092": "Revol",
    "10093": "aqu",
    "10094": "beat",
    "10095": "arbi",
    "10096": "arbit",
    "10097": "Pel",
    "10098": "Pelo",
    "10099": "Pelop",
    "10100": "ampa",
    "10101": "ampai",
    "10102": "ampaig",
    "10103": "river",
    "10104": "deve",
    "10105": "devel",
    "10106": "conc",
    "10107": "conce",
    "10108": "concep",
    "10109": "concept",
    "10110": "qh",
    "10111": "Boy",
    "10112": "onso",
    "10113": "ems ",
    "10114": "Borg",
    "10115": "aight",
    "10116": "sect",
    "10117": "secti",
    "10118": "(AP",
    "10119": "Fab",
    "10120": "Q ",
    "10121": " Sc",
    "10122": "rwi",
    "10123": "rwin",
    "10124": "ribut",
    "10125": "gic",
    "10126": "p be",
    "10127": "p bet",
    "10128": "p betw",
    "10129": "p betwe",
    "10130": "tatic",
    "10131": "tatic ",
    "10132": "ivided",
    "10133": "sing ",
    "10134": "ocate",
    "10135": "San ",
    "10136": "Soviet",
    "10137": "rof",
    "10138": "rofe",
    "10139": "haps",
    "10140": "dish",
    "10141": "MS ",
    "10142": "hw",
    "10143": "ycen",
    "10144": "2%",
    "10145": "ndal",
    "10146": "writer",
    "10147": "rph",
    "10148": "hamp",
    "10149": "rgil",
    "10150": "rgil'",
    "10151": "astr",
    "10152": "astro",
    "10153": "zak",
    "10154": "awn ",
    "10155": "Musl",
    "10156": "PS",
    "10157": "PS ",
    "10158": "docr",
    "10159": "docri",
    "10160": "docrin",
    "10161": "itiv",
    "10162": "Doctr",
    "10163": "Doctri",
    "10164": "ptid",
    "10165": "rtoo",
    "10166": "love",
    "10167": "s/",
    "10168": "hry",
    "10169": "hrys",
    "10170": "eball",
    "10171": "jam",
    "10172": "humb",
    "10173": "ansa",
    "10174": "indus",
    "10175": "aila",
    "10176": "Engla",
    "10177": "Englan",
    "10178": "Pag",
    "10179": "Isla",
    "10180": "yno",
    "10181": "ynol",
    "10182": "iM",
    "10183": "iMa",
    "10184": "iMac",
    "10185": "hena",
    "10186": "ulate",
    "10187": "ardi",
    "10188": "urge",
    "10189": "can ",
    "10190": "agr",
    "10191": "agre",
    "10192": "eit",
    "10193": " Di",
    "10194": "witz",
    "10195": "witze",
    "10196": "witzer",
    "10197": "witzerl",
    "10198": "witzerla",
    "10199": "ux",
    "10200": "Boe",
    "10201": "mplem",
    "10202": "html",
    "10203": "stic",
    "10204": "crop",
    "10205": "alifo",
    "10206": " nov",
    "10207": " nove",
    "10208": " novel",
    "10209": "Adva",
    "10210": "Advan",
    "10211": "ch a",
    "10212": "ch as",
    "10213": "ntain",
    "10214": "s -",
    "10215": "s - ",
    "10216": "lk ",
    "10217": "lk o",
    "10218": "lk of",
    "10219": "lk of ",
    "10220": "val ",
    "10221": "rtoon",
    "10222": "icto",
    "10223": "ictor",
[...]
