{
  "id2token": {
    "0": "\n",
    "1": " ",
    "2": "!",
    "3": "#",
    "4": "$",
    "5": "%",
    "6": "'",
    "7": "(",
    "8": ")",
    "9": "*",
    "10": "+",
    "11": ",",
    "12": "-",
    "13": ".",
    "14": "/",
    "15": "0",
    "16": "1",
    "17": "2",
    "18": "3",
    "19": "4",
    "20": "5",
    "21": "6",
    "22": "7",
    "23": "8",
    "24": "9",
    "25": ":",
    "26": ";",
    "27": "=",
    "28": "?",
    "29": "@",
    "30": "A",
    "31": "B",
    "32": "C",
    "33": "D",
    "34": "E",
    "35": "F",
    "36": "G",
    "37": "H",
    "38": "I",
    "39": "J",
    "40": "K",
    "41": "L",
    "42": "M",
    "43": "N",
    "44": "O",
    "45": "P",
    "46": "Q",
    "47": "R",
    "48": "S",
    "49": "T",
    "50": "U",
    "51": "V",
    "52": "W",
    "53": "X",
    "54": "Y",
    "55": "Z",
    "56": "\\",
    "57": "^",
    "58": "_",
    "59": "`",
    "60": "a",
    "61": "b",
    "62": "c",
    "63": "d",
    "64": "e",
    "65": "f",
    "66": "g",
    "67": "h",
    "68": "i",
    "69": "j",
    "70": "k",
    "71": "l",
    "72": "m",
    "73": "n",
    "74": "o",
    "75": "p",
    "76": "q",
    "77": "r",
    "78": "s",
    "79": "t",
    "80": "u",
    "81": "v",
    "82": "w",
    "83": "x",
    "84": "y",
    "85": "z",
    "86": "{",
    "87": "|",
    "88": "}",
    "89": "~",
    "90": "<|endoftext|>",
    "91": "<pad>",
    "92": "li",
    "93": "lie",
    "94": "ik",
    "95": "ike",
    "96": "Ro",
    "97": "Rom",
    "98": "us",
    "99": "usc",
    "100": "uscu",
    "101": "uscul",
    "102": "pa",
    "103": "pai",
    "104": "pain",
    "105": "id",
    "106": "ida",
    "107": "iday",
    "108": ".*",
    "109": "ol",
    "110": "olu",
    "111": "olut",
    "112": "ue",
    "113": "ue ",
    "114": "ge",
    "115": "get",
    "116": "geta",
    "117": "me",
    "118": "op",
    "119": "opp",
    "120": "oppe",
    "121": "opped",
    "122": "OG",
    "123": "OGI",
    "124": "st",
    "125": "sto",
    "126": "ta",
    "127": "tai",
    "128": "ve",
    "129": "vel",
    "130": "9,",
    "131": "ow",
    "132": "owe",
    "133": "owev",
    "134": "9 ",
    "135": "ca",
    "136": "can",
    "137": "ym",
    "138": "ymp",
    "139": "ry",
    "140": "ry ",
    "141": "gl",
    "142": "ur",
    "143": "uri",
    "144": "urin",
    "145": "r.",
    "146": "r. ",
    "147": "va",
    "148": "kn",
    "149": "kno",
    "150": "know",
    "151": "un",
    "152": "und",
    "153": "ec",
    "154": "eco",
    "155": "no",
    "156": "not",
    "157": "au",
    "158": "aul",
    "159": "ek",
    "160": ";1",
    "161": "ys",
    "162": "ysi",
    "163": "ysis",
    "164": "ha",
    "165": "han",
    "166": "han ",
    "167": "uc",
    "168": "Ho",
    "169": "Hon",
    "170": "Hong",
    "171": "il",
    "172": "ily",
    "173": "usa",
    "174": "usad",
    "175": "by",
    "176": "gg",
    "177": "gge",
    "178": "gges",
    "179": "ggest",
    "180": "re",
    "181": "red",
    "182": "we",
    "183": "wes",
    "184": "west",
    "185": "da",
    "186": "day",
    "187": " t",
    "188": " th",
    "189": " tha",
    "190": " that",
    "191": "sy",
    "192": "sys",
    "193": "syst",
    "194": "ic",
    "195": "ica",
    "196": "ican",
    "197": "on",
    "198": "oni",
    "199": "onia",
    "200": "mi",
    "201": "min",
    "202": "ig",
    "203": "igr",
    "204": "de",
    "205": "der",
    "206": "deri",
    "207": "tat",
    "208": "tati",
    "209": "gs",
    "210": "eg",
    "211": "ego",
    "212": "egon",
    "213": " o",
    "214": " of",
    "215": " of ",
    "216": "D ",
    "217": "D -",
    "218": "D --",
    "219": "ti",
    "220": "til",
    "221": "till",
    "222": "al",
    "223": "alo",
    "224": "ree",
    "225": "ree ",
    "226": "ga",
    "227": "gam",
    "228": "lo",
    "229": "loc",
    "230": "loci",
    "231": "th",
    "232": "tha",
    "233": "than",
    "234": "1 ",
    "235": "ea",
    "236": "ean",
    "237": "eans",
    "238": "eans ",
    "239": "uch",
    "240": "uch ",
    "241": "uch a",
    "242": "uch as",
    "243": "use",
    "244": "pu",
    "245": "pub",
    "246": "vo",
    "247": "thi",
    "248": "thin",
    "249": "am",
    "250": "amm",
    "251": "rem",
    "252": "tab",
    "253": "tabl",
    "254": "table",
    "255": "it",
    "256": "itu",
    "257": "ch",
    "258": "vi",
    "259": "vis",
    "260": "visi",
    "261": "re ",
    "262": "ed",
    "263": "ed ",
    "264": "wr",
    "265": "Co",
    "266": "Cor",
    "267": "Cort",
    "268": "Sp",
    "269": "Spa",
    "270": "be",
    "271": "bel",
    "272": "beli",
    "273": "belie",
    "274": "ower",
    "275": "er",
    "276": "eri",
    "277": "erio",
    "278": "eriod",
    "279": "vil",
    "280": "vily",
    "281": "hh",
    "282": "hhh",
    "283": "is",
    "284": "isa",
    "285": "isam",
    "286": "isamb",
    "287": "nn",
    "288": "nni",
    "289": "nnis",
    "290": "wo",
    "291": "yi",
    "292": "yin",
    "293": "el",
    "294": "eld",
    "295": "an",
    "296": "anc",
    "297": "opo",
    "298": "bu",
    "299": "na",
    "300": "nat",
    "301": "era",
    "302": "sk",
    "303": "skr",
    "304": "skri",
    "305": "ma",
    "306": "mag",
    "307": "ra",
    "308": "ras",
    "309": "ke",
    "310": "ker",
    "311": "ne",
    "312": "neg",
    "313": "negi",
    "314": "6,",
    "315": "6, ",
    "316": "if",
    "317": "ifi",
    "318": "ific",
    "319": "ot",
    "320": "otb",
    "321": "otba",
    "322": "otbal",
    "323": "otball",
    "324": "Bo",
    "325": "Bow",
    "326": "Bowl",
    "327": "wa",
    "328": "as",
    "329": "as ",
    "330": "cha",
    "331": "chan",
    "332": "chani",
    "333": "ad",
    "334": "add",
    "335": "tic",
    "336": "oo",
    "337": "oop",
    "338": "sh",
    "339": "to",
    "340": "tok",
    "341": "toku",
    "342": "tr",
    "343": "tra",
    "344": "tras",
    "345": "trast",
    "346": "ont",
    "347": "onth",
    "348": "tt",
    "349": "tte",
    "350": "tter",
    "351": "Th",
    "352": "e ",
    "353": "om",
    "354": "oma",
    "355": "oman",
    "356": "rt",
    "357": "rte",
    "358": "ov",
    "359": "ove",
    "360": "ovem",
    "361": "oveme",
    "362": "ovemen",
    "363": "ild",
    "364": "or",
    "365": "ork",
    "366": "thm",
    "367": "omp",
    "368": "pi",
    "369": "pir",
    "370": "ela",
    "371": "elan",
    "372": "om ",
    "373": "pe",
    "374": "per",
    "375": "peri",
    "376": "iv",
    "377": "ive",
    "378": "wi",
    "379": "wit",
    "380": "with",
    "381": "dr",
    "382": "rr",
    "383": "rre",
    "384": "rren",
    "385": "ang",
    "386": "su",
    "387": "suc",
    "388": "such",
    "389": "'s",
    "390": "'s ",
    "391": "tc",
    "392": "tch",
    "393": "eland",
    "394": "ty",
    "395": "ty ",
    "396": "do",
    "397": "dow",
    "398": "down",
    "399": "and",
    "400": "and ",
    "401": "rv",
    "402": "rve",
    "403": "ite",
    "404": "ited",
    "405": "so",
    "406": "tu",
    "407": "tua",
    "408": "ri",
    "409": "rie",
    "410": "ries",
    "411": "nea",
    "412": "ei",
    "413": "ein",
    "414": "eing",
    "415": "ce",
    "416": "ce ",
    "417": "ps",
    "418": "si",
    "419": "sib",
    "420": "sibl",
    "421": "ped",
    "422": "pedi",
    "423": "pedia",
    "424": "aq",
    "425": "Go",
    "426": "Gos",
    "427": "Gosp",
    "428": "ro",
    "429": "rom",
    "430": "3 ",
    "431": "3 /",
    "432": "3 /s",
    "433": "3 /su",
    "434": "po",
    "435": "por",
    "436": "port",
    "437": "mb",
    "438": "mbi",
    "439": "mbig",
    "440": "mbigu",
    "441": "Sy",
    "442": "Sys",
    "443": "Syst",
    "444": "igi",
    "445": "igin",
    "446": "ves",
    "447": "NO",
    "448": "ba",
    "449": "bal",
    "450": "Me",
    "451": "Mex",
    "452": "Mexi",
    "453": "Mexic",
    "454": "ju",
    "455": "jur",
    "456": "A,",
    "457": "A, ",
    "458": "sta",
    "459": "go",
    "460": "gol",
    "461": "ast",
    "462": "asta",
    "463": "um",
    "464": "ume",
    "465": "urc",
    "466": "urce",
    "467": " I",
    "468": "nd",
    "469": "ndo",
    "470": "rou",
    "471": "roug",
    "472": "lt",
    "473": "aug",
    "474": "pos",
    "475": "ka",
    "476": "onl",
    "477": "only",
    "478": "nu",
    "479": "num",
    "480": "numb",
    "481": "numbe",
    "482": "ir",
    "483": "ir ",
    "484": "rit",
    "485": "ar",
    "486": "ng",
    "487": "nge",
    "488": "Ma",
    "489": "Mar",
    "490": "Ir",
    "491": "Ira",
    "492": "FM",
    "493": "FMD",
    "494": "NE",
    "495": "orr",
    "496": "orro",
    "497": "orror",
    "498": "eo",
    "499": "ct",
    "500": "cto",
    "501": "ctob",
    "502": "z ",
    "503": "st ",
    "504": "st o",
    "505": "st of",
    "506": "st of ",
    "507": "fo",
    "508": "for",
    "509": "for ",
    "510": "fi",
    "511": "fin",
    "512": "( ",
    "513": "rito",
    "514": "ritor",
    "515": "/t",
    "516": "gag",
    "517": "pan",
    "518": "ven",
    "519": "rd",
    "520": "ie",
    "521": "ck",
    "522": "sul",
    "523": "sult",
    "524": "ob",
    "525": "obj",
    "526": "obje",
    "527": "objec",
    "528": "co",
    "529": "con",
    "530": "cons",
    "531": "const",
    "532": "Te",
    "533": "Ten",
    "534": "Tenn",
    "535": "low",
    "536": "lowa",
    "537": "lowan",
    "538": "lowanc",
    "539": "Am",
    "540": "Ame",
    "541": "Amer",
    "542": "Ameri",
    "543": "that",
    "544": "iew",
    "545": "up",
    "546": "gi",
    "547": "git",
    "548": "le",
    "549": "let",
    "550": "za",
    "551": "zat",
    "552": "rc",
    "553": "rce",
    "554": "ho",
    "555": "hou",
    "556": "hour",
    "557": "hours",
    "558": "ust",
    "559": "ust ",
    "560": "ip",
    "561": "orl",
    "562": "orld",
    "563": "Bor",
    "564": "hab",
    "565": "habi",
    "566": "habit",
    "567": "ag",
    "568": "age",
    "569": "cu",
    "570": "cut",
    "571": "mo",
    "572": "mor",
    "573": "more",
    "574": "more ",
    "575": "He",
    "576": "Hei",
    "577": "Heig",
    "578": "Heigh",
    "579": "ai",
    "580": "ain",
    "581": "DP",
    "582": "in",
    "583": "ine",
    "584": "rci",
    "585": "rcis",
    "586": "isi",
    "587": "Ge",
    "588": "Ger",
    "589": "Germ",
    "590": "Germa",
    "591": "os",
    "592": "ost",
    "593": "ost ",
    "594": "yr",
    "595": "yri",
    "596": "yria",
    "597": "res",
    "598": "or ",
    "599": "ul",
    "600": "uld",
    "601": "la",
    "602": "lat",
    "603": "late",
    "604": "late ",
    "605": "fl",
    "606": "flu",
    "607": "flue",
    "608": "fluen",
    "609": "(1",
    "610": "(19",
    "611": "ll",
    "612": "lle",
    "613": "lley",
    "614": "hous",
    "615": "ttl",
    "616": "pp",
    "617": "RI",
    "618": "RIS",
    "619": "owed",
    "620": "sp",
    "621": "spe",
    "622": "spel",
    "623": "wel",
    "624": "80",
    "625": "oi",
    "626": "oid",
    "627": "ina",
    "628": "bo",
    "629": "Ch",
    "630": "Cha",
    "631": "Chap",
    "632": "Chapl",
    "633": "Height",
    "634": "dam",
    "635": "dame",
    "636": "oin",
    "637": "rti",
    "638": "yo",
    "639": "you",
    "640": "60",
    "641": "urit",
    "642": "ex",
    "643": "exa",
    "644": "exan",
    "645": "exand",
    "646": "olv",
    "647": "olve",
    "648": "q ",
    "649": "q l",
    "650": "q la",
    "651": "q lan",
    "652": "q lang",
    "653": "q langu",
    "654": "cc",
    "655": "ccu",
    "656": "ccum",
    "657": "ccumu",
    "658": "igh",
    "659": "ighb",
    "660": "lan",
    "661": "lang",
    "662": "langu",
    "663": "% ",
    "664": "boo",
    "665": "book",
    "666": "oth",
    "667": "oth ",
    "668": "rth",
    "669": "eu",
    "670": "eut",
    "671": "ar ",
    "672": "di",
    "673": "diu",
    "674": "Ta",
    "675": "Tam",
    "676": "Tama",
    "677": "ki",
    "678": "ut",
    "679": "je",
    "680": " to",
    "681": "ely",
    "682": "has",
    "683": "hod",
    "684": "nt",
    "685": "ntr",
    "686": "ntry",
    "687": "urt",
    "688": "urth",
    "689": "urthe",
    "690": "en",
    "691": "ene",
    "692": "amo",
    "693": "amon",
    "694": "amond",
    "695": "5t",
    "696": "5th",
    "697": "r,",
    "698": "r, ",
    "699": " -",
    "700": "im",
    "701": "ime",
    "702": "imen",
    "703": "mp",
    "704": "mpt",
    "705": "em",
    "706": "eme",
    "707": "emen",
    "708": "av",
    "709": "ave",
    "710": "lis",
    "711": "lish",
    "712": "dit",
    "713": "diti",
    "714": "ap",
    "715": "apa",
    "716": "ni",
    "717": "nim",
    "718": "orn",
    "719": "emp",
    "720": "mbl",
    "721": "ren",
    "722": "renc",
    "723": "rench",
    "724": "tc.",
    "725": "ons",
    "726": "onst",
    "727": "onsta",
    "728": "onstan",
    "729": "ko",
    "730": "nen",
    "731": "ud",
    "732": "oint",
    "733": "iver",
    "734": "tho",
    "735": "thou",
    "736": "thoug",
    "737": "1 /",
    "738": "1 /s",
    "739": "1 /su",
    "740": "ups",
    "741": "du",
    "742": "dur",
    "743": "duri",
    "744": "durin",
    "745": "during",
    "746": "uca",
    "747": "ext",
    "748": "te",
    "749": "ter",
    "750": "cag",
    "751": "cago",
    "752": "es",
    "753": "gr",
    "754": "ac",
    "755": "moc",
    "756": "mocr",
    "757": "wb",
    "758": "wbo",
    "759": "wboy",
    "760": "at",
    "761": "ati",
    "762": "atio",
    "763": "ation",
    "764": "cl",
    "765": "cli",
    "766": "clid",
    "767": "N ",
    "768": "N b",
    "769": "N br",
    "770": "on ",
    "771": "amb",
    "772": "opt",
    "773": "--",
    "774": "eiv",
    "775": "00",
    "776": "00 ",
    "777": "ami",
    "778": "amil",
    "779": "ev",
    "780": "eve",
    "781": "riti",
    "782": "ritis",
    "783": "cov",
    "784": "cove",
    "785": "cover",
    "786": "rch",
    "787": "dy",
    "788": "dy ",
    "789": "Re",
    "790": "Rep",
    "791": "Repu",
    "792": "Repub",
    "793": ".S",
    "794": "rl",
    "795": "rle",
    "796": "rles",
    "797": "rles ",
    "798": "an ",
    "799": "ase",
    "800": "ased",
    "801": "ased ",
    "802": "Gol",
    "803": "Gola",
    "804": "Golan",
    "805": "fic",
    "806": "rg",
    "807": "rga",
    "808": "rgan",
    "809": "wor",
    "810": "word",
    "811": "eq",
    "812": "equ",
    "813": "eque",
    "814": "equen",
    "815": "eci",
    "816": "!-",
    "817": "ew",
    "818": "hu",
    "819": "hur",
    "820": "hurc",
    "821": "hurch",
    "822": "ss",
    "823": "i ",
    "824": "ach",
    "825": "ep",
    "826": "ept",
    "827": "epte",
    "828": "eptem",
    "829": "eptemb",
    "830": "ith",
    "831": "11",
    "832": "ili",
    "833": "ilit",
    "834": "Tec",
    "835": "Tech",
    "836": "Wo",
    "837": "Wor",
    "838": "cr",
    "839": "cre",
    "840": "ya",
    "841": "yal",
    "842": "velo",
    "843": "4,",
    "844": "4, ",
    "845": "mpe",
    "846": "mper",
    "847": "ong",
    "848": " /",
    "849": "nad",
    "850": "sid",
    "851": "side",
    "852": "len",
    "853": "lend",
    "854": "lenda",
    "855": "lendar",
    "856": "ist",
    "857": "Br",
    "858": "Bri",
    "859": "Brit",
    "860": "Briti",
    "861": "Britis",
    "862": "may",
    "863": "may ",
    "864": "ery",
    "865": "ery ",
    "866": "lor",
    "867": "jeo",
    "868": "art",
    "869": "arti",
    "870": "artic",
    "871": "articu",
    "872": "articul",
    "873": "articula",
    "874": "rap",
    "875": "che",
    "876": "ched",
    "877": "exam",
    "878": "har",
    "879": "sus",
    "880": "reek",
    "881": "ifica",
    "882": "ifican",
    "883": "forc",
    "884": "At",
    "885": "Ata",
    "886": "Atar",
    "887": "lly",
    "888": " td",
    "889": "nd ",
    "890": "nd t",
    "891": "nd to",
    "892": "nd to ",
    "893": "ort",
    "894": "mal",
    "895": "mall",
    "896": "sin",
    "897": "ne ",
    "898": "est",
    "899": "hi",
    "900": "hie",
    "901": "hiev",
    "902": "w ",
    "903": " l",
    "904": " la",
    "905": " lan",
    "906": " lang",
    "907": " langu",
    "908": "vig",
    "909": "viga",
    "910": "lec",
    "911": "lect",
    "912": "how",
    "913": "how ",
    "914": "/ ",
    "915": "pt",
    "916": "pt ",
    "917": "he",
    "918": "her",
    "919": "io",
    "920": "ior",
    "921": "eb",
    "922": "mil",
    "923": "mila",
    "924": "milar",
    "925": "ngt",
    "926": "ngth",
    "927": "/s",
    "928": "/su",
    "929": "vol",
    "930": "volv",
    "931": "volve",
    "932": "oc",
    "933": "ocu",
    "934": "ocum",
    "935": "leb",
    "936": "lebr",
    "937": "nan",
    "938": "MD",
    "939": "cru",
    "940": "crui",
    "941": "cruis",
    "942": "cruise",
    "943": "We",
    "944": "Web",
    "945": "#8",
    "946": "uth",
    "947": "ide",
    "948": "iti",
    "949": "itio",
    "950": "form",
    "951": "hic",
    "952": "hica",
    "953": "hicag",
    "954": "mos",
    "955": "most",
    "956": "tob",
    "957": "ctu",
    "958": "ito",
    "959": "vat",
    "960": "fe",
    "961": "6 ",
    "962": "6 -",
    "963": "6 - ",
    "964": "iz",
    "965": "anch",
    "966": "din",
    "967": "ding",
    "968": "uh",
    "969": "uha",
    "970": "uham",
    "971": "jec",
    "972": "ject",
    "973": "ame",
    "974": "BC",
    "975": "ile",
    "976": "ile ",
    "977": "ilt",
    "978": "ilto",
    "979": "ilton",
    "980": "pol",
    "981": "tan",
    "982": "ult",
    "983": "tri",
    "984": "gen",
    "985": "gent",
    "986": "uci",
    "987": "ucin",
    "988": "ulu",
    "989": "The",
    "990": "The ",
    "991": "Eu",
    "992": "Eur",
    "993": "Euro",
    "994": "Europ",
    "995": "Europe",
    "996": "rom ",
    "997": "-1",
    "998": "be ",
    "999": "5,",
    "1000": "5, ",
    "1001": "gre",
    "1002": "hio",
    "1003": "aint",
    "1004": "Con",
    "1005": "lli",
    "1006": "llia",
    "1007": "lliam",
    "1008": "icu",
    "1009": "icul",
    "1010": "icula",
    "1011": "ell",
    "1012": "Mi",
    "1013": "Min",
    "1014": "Mini",
    "1015": "Minis",
    "1016": "nj",
    "1017": "njo",
    "1018": "njou",
    "1019": "njour",
    "1020": "ia",
    "1021": "ack",
    "1022": "ack ",
    "1023": "mie",
    "1024": "mies",
    "1025": "Gr",
    "1026": "Gre",
    "1027": "uti",
    "1028": "ure",
    "1029": "urea",
    "1030": "ureat",
    "1031": "zi",
    "1032": "rov",
    "1033": "lu",
    "1034": "err",
    "1035": "erre",
    "1036": "cono",
    "1037": "lah",
    "1038": "Ca",
    "1039": "Can",
    "1040": "Cana",
    "1041": "dn",
    "1042": "dne",
    "1043": "ism",
    "1044": "TA",
    "1045": "RT",
    "1046": "ial",
    "1047": "int",
    "1048": "wn",
    "1049": "ere",
    "1050": "vai",
    "1051": "vail",
    "1052": "bed",
    "1053": "ld",
    "1054": "ld ",
    "1055": "td",
    "1056": "but",
    "1057": "but ",
    "1058": "lif",
    "1059": "lifo",
    "1060": "a ",
    "1061": "my",
    "1062": "ou",
    "1063": "out",
    "1064": "in ",
    "1065": "In",
    "1066": "wri",
    "1067": "writ",
    "1068": "ak",
    "1069": "aka",
    "1070": "akan",
    "1071": "hoo",
    "1072": "hood",
    "1073": "dv",
    "1074": "oa",
    "1075": "oad",
    "1076": "lea",
    "1077": "leas",
    "1078": "yp",
    "1079": "ypt",
    "1080": "ch ",
    "1081": "rough",
    "1082": "ok",
    "1083": "et",
    "1084": "ete",
    "1085": "8 ",
    "1086": "8 -",
    "1087": " (",
    "1088": " (d",
    "1089": " (d.",
    "1090": " (d. ",
    "1091": "Cy",
    "1092": "Cyt",
    "1093": "Cyto",
    "1094": "mpu",
    "1095": "mput",
    "1096": "arl",
    "1097": "bl",
    "1098": "bli",
    "1099": "blis",
    "1100": "ever",
    "1101": "ball",
    "1102": "(b",
    "1103": "(bo",
    "1104": "(bor",
    "1105": "(born",
    "1106": "eus",
    "1107": "tie",
    "1108": "tio",
    "1109": "tion",
    "1110": "4 ",
    "1111": "4 -",
    "1112": "4 - ",
    "1113": "Cal",
    "1114": "Cali",
    "1115": "Calif",
    "1116": "Califo",
    "1117": "ote",
    "1118": "oter",
    "1119": "c ",
    "1120": "9)",
    "1121": "es ",
    "1122": "ortu",
    "1123": "ortun",
    "1124": "ovel",
    "1125": "roc",
    "1126": "nom",
    "1127": "ze",
    "1128": "zed",
    "1129": "zed ",
    "1130": "udi",
    "1131": "ticl",
    "1132": "ticle",
    "1133": "of",
    "1134": "of ",
    "1135": "nth",
    "1136": "his",
    "1137": "erb",
    "1138": "iki",
    "1139": "ver",
    "1140": "vere",
    "1141": "verei",
    "1142": "vereig",
    "1143": "was",
    "1144": "p ",
    "1145": "Pa",
    "1146": "Pag",
    "1147": "Page",
    "1148": "Gu",
    "1149": "Gui",
    "1150": "Guid",
    "1151": "Guide",
    "1152": "ill",
    "1153": "illi",
    "1154": "illia",
    "1155": "illiam",
    "1156": "ome",
    "1157": "Ya",
    "1158": "Yan",
    "1159": "Yank",
    "1160": "Yanke",
    "1161": "Yankee",
    "1162": "Fr",
    "1163": "Fre",
    "1164": "Fren",
    "1165": "af",
    "1166": "hist",
    "1167": "by ",
    "1168": "tag",
    "1169": "tage",
    "1170": "nc",
    "1171": "sl",
    "1172": "cau",
    "1173": "caus",
    "1174": "),",
    "1175": "), ",
    "1176": "tz",
    "1177": "Yo",
    "1178": "Yor",
    "1179": "York",
    "1180": "ric",
    "1181": "rica",
    "1182": "rical",
    "1183": "thio",
    "1184": "thiop",
    "1185": "ger",
    "1186": "xa",
    "1187": "ny",
    "1188": "fr",
    "1189": "itis",
    "1190": "ct ",
    "1191": "lit",
    "1192": "liti",
    "1193": "litic",
    "1194": "60s",
    "1195": "aft",
    "1196": "afte",
    "1197": "arg",
    "1198": "arge",
    "1199": "s*",
    "1200": "hang",
    "1201": "Guin",
    "1202": "ub",
    "1203": "ubl",
    "1204": "ubli",
    "1205": "c.",
    "1206": "urg",
    "1207": "urge",
    "1208": "urges",
    "1209": "Dj",
    "1210": "Dji",
    "1211": "Djib",
    "1212": "Djibo",
    "1213": "Djibou",
    "1214": "fa",
    "1215": "fam",
    "1216": "famo",
    "1217": "famou",
    "1218": "famous",
    "1219": "gt",
    "1220": "gto",
    "1221": "unt",
    "1222": "amou",
    "1223": "amous",
    "1224": "ied",
    "1225": " s",
    "1226": "hown",
    "1227": "rm",
    "1228": "rma",
    "1229": "ns",
    "1230": "nse",
    "1231": "foo",
    "1232": "food",
    "1233": "iter",
    "1234": "Da",
    "1235": "Dan",
    "1236": "Dani",
    "1237": "Danis",
    "1238": "Danish",
    "1239": "anu",
    "1240": "anua",
    "1241": "anuar",
    "1242": "she",
    "1243": "*1",
    "1244": "dd",
    "1245": "km",
    "1246": "km)",
    "1247": "izo",
    "1248": "urn",
    "1249": "Ba",
    "1250": "Ban",
    "1251": "Bang",
    "1252": "Bangl",
    "1253": "mm",
    "1254": "Ha",
    "1255": "Ham",
    "1256": "Hami",
    "1257": "Hamil",
    "1258": "Tea",
    "1259": "Teac",
    "1260": "Teach",
    "1261": "oic",
    "1262": "oice",
    "1263": "lde",
    "1264": "lden",
    "1265": "rda",
    "1266": "rdan",
    "1267": "med",
    "1268": "*Y",
    "1269": "sia",
    "1270": "och",
    "1271": "Ar",
    "1272": "Art",
    "1273": "Arti",
    "1274": "Artic",
    "1275": "Articl",
    "1276": "iga",
    "1277": " n",
    "1278": " no",
    "1279": " not",
    "1280": "til ",
    "1281": "God",
    "1282": "so ",
    "1283": "vers",
    "1284": "ris",
    "1285": "icat",
    "1286": "our",
    "1287": "le ",
    "1288": "se",
    "1289": "ser",
    "1290": "serv",
    "1291": "Ti",
    "1292": "Tig",
    "1293": "Tigr",
    "1294": "gor",
    "1295": "gn",
    "1296": "cem",
    "1297": "cemb",
    "1298": "the",
    "1299": "ther",
    "1300": "tow",
    "1301": "town",
    "1302": "ber",
    "1303": "bert",
    "1304": "evel",
    "1305": "gy",
    "1306": "gyp",
    "1307": "gypt",
    "1308": "vy",
    "1309": "sur",
    "1310": "ity",
    "1311": "ity ",
    "1312": "gat",
    "1313": "oved",
    "1314": "cri",
    "1315": "Ja",
    "1316": "Jac",
    "1317": "Jack",
    "1318": "L ",
    "1319": "L b",
    "1320": "L br",
    "1321": "icl",
    "1322": "icle",
    "1323": "lla",
    "1324": "rot",
    "1325": "roth",
    "1326": "ifo",
    "1327": "ifor",
    "1328": "iforn",
    "1329": "dg",
    "1330": "dge",
    "1331": "oug",
    "1332": "ough",
    "1333": "bs",
    "1334": "fy",
    "1335": "= ",
    "1336": "chi",
    "1337": "chin",
    "1338": "ical",
    "1339": "ing",
    "1340": "ingl",
    "1341": "ingle",
    "1342": "cum",
    "1343": "cume",
    "1344": "cumen",
    "1345": "nis",
    "1346": "crip",
    "1347": "cript",
    "1348": "mer",
    "1349": "meri",
    "1350": "sic",
    "1351": "cco",
    "1352": "ccor",
    "1353": "ccord",
    "1354": "lm",
    "1355": "rio",
    "1356": "rior",
    "1357": "r ",
    "1358": "r /",
    "1359": "r /s",
    "1360": "r /su",
    "1361": "lip",
    "1362": "Sc",
    "1363": "Sco",
    "1364": "Scot",
    "1365": "eren",
    "1366": "ird",
    "1367": "lue",
    "1368": "luen",
    "1369": "ab",
    "1370": "abl",
    "1371": "cen",
    "1372": "ici",
    "1373": "icia",
    "1374": "hop",
    "1375": "ener",
    "1376": "enera",
    "1377": "ider",
    "1378": "cra",
    "1379": "enc",
    "1380": "ench",
    "1381": "gra",
    "1382": "DO",
    "1383": "DON",
    "1384": "DONE",
    "1385": "ci",
    "1386": "cie",
    "1387": "cien",
    "1388": "0,",
    "1389": "are",
    "1390": "are ",
    "1391": "erag",
    "1392": "hanc",
    "1393": "las",
    "1394": "lass",
    "1395": "elt",
    "1396": "gic",
    "1397": "U ",
    "1398": "ses",
    "1399": "sess",
    "1400": "Al",
    "1401": "Ale",
    "1402": "Alex",
    "1403": "n ",
    "1404": "n b",
    "1405": "n br",
    "1406": " - ",
    "1407": "rvi",
    "1408": "rvic",
    "1409": "rvice",
    "1410": "Chi",
    "1411": "Chin",
    "1412": "og",
    "1413": "tw",
    "1414": "twe",
    "1415": "twee",
    "1416": "omes",
    "1417": "omest",
    "1418": "lled",
    "1419": "ru",
    "1420": "ruc",
    "1421": "ruct",
    "1422": "ors",
    "1423": "orse",
    "1424": "loy",
    "1425": "fore",
    "1426": "Na",
    "1427": "Nak",
    "1428": "Naka",
    "1429": "Nakan",
    "1430": "e,",
    "1431": "e, ",
    "1432": "ona",
    "1433": "onat",
    "1434": "cin",
    "1435": "g)",
    "1436": ".*1",
    "1437": ".*19",
    "1438": "5 ",
    "1439": "5 a",
    "1440": "5 an",
    "1441": "5 and",
    "1442": "5 and ",
    "1443": "ali",
    "1444": "oci",
    "1445": " A",
    "1446": "van",
    "1447": "arr",
    "1448": "lti",
    "1449": "over",
    "1450": "overn",
    "1451": "ui",
    "1452": "Hor",
    "1453": "Hora",
    "1454": "Horac",
    "1455": "ale",
    "1456": "alen",
    "1457": "aus",
    "1458": "shi",
    "1459": "ship",
    "1460": "oe",
    "1461": "oe ",
    "1462": "net",
    "1463": "able",
    "1464": "lin",
    "1465": "tur",
    "1466": "voi",
    "1467": "void",
    "1468": "ate",
    "1469": "ateg",
    "1470": "atego",
    "1471": "ategor",
    "1472": "6t",
    "1473": "6th",
    "1474": "hat",
    "1475": "cci",
    "1476": "ccin",
    "1477": "ngu",
    "1478": "lio",
    "1479": "lion",
    "1480": "ye",
    "1481": "opl",
    "1482": "one",
    "1483": "ones",
    "1484": "outh",
    "1485": "ttle",
    "1486": "now",
    "1487": "d.",
    "1488": "xi",
    "1489": "xic",
    "1490": "llo",
    "1491": "llow",
    "1492": "ron",
    "1493": "rin",
    "1494": "ring",
    "1495": "mar",
    "1496": "Ci",
    "1497": "Cin",
    "1498": "Cinc",
    "1499": "Gi",
    "1500": "Gia",
    "1501": "Gian",
    "1502": "Giant",
    "1503": "ket",
    "1504": "rig",
    "1505": "righ",
    "1506": "right",
    "1507": "oun",
    "1508": "ounc",
    "1509": "S ",
    "1510": "ltic",
    "1511": "spec",
    "1512": "inat",
    "1513": "ug",
    "1514": "ugh",
    "1515": "ught",
    "1516": "hol",
    "1517": "tar",
    "1518": "hem",
    "1519": "hema",
    "1520": "rm{",
    "1521": "aly",
    "1522": "alys",
    "1523": "alysi",
    "1524": "alysis",
    "1525": "uct",
    "1526": "uctu",
    "1527": "uctur",
    "1528": "7,",
    "1529": "7, ",
    "1530": "6 a",
    "1531": "6 an",
    "1532": "6 and",
    "1533": "ula",
    "1534": "cam",
    "1535": "came",
    "1536": "has ",
    "1537": "Ju",
    "1538": "lum",
    "1539": "hir",
    "1540": "hiro",
    "1541": "hirop",
    "1542": "hiropr",
    "1543": "En",
    "1544": "Eng",
    "1545": "Engl",
    "1546": "nin",
    "1547": "ning",
    "1548": "nes",
    "1549": "ness",
    "1550": "ovi",
    "1551": "ovie",
    "1552": "oviet",
    "1553": "umen",
    "1554": "ass",
    "1555": "cro",
    "1556": "tal",
    "1557": "WI",
    "1558": "upe",
    "1559": "uper",
    "1560": "CN",
    "1561": "CNS",
    "1562": "CNS ",
    "1563": "ope",
    "1564": "hat ",
    "1565": "ctor",
    "1566": "hos",
    "1567": "host",
    "1568": "s ",
    "1569": "s o",
    "1570": "s of",
    "1571": "s of ",
    "1572": "ari",
    "1573": "ic ",
    "1574": " nd",
    "1575": " nda",
    "1576": " ndas",
    "1577": "cq",
    "1578": "cqu",
    "1579": "sla",
    "1580": "bol",
    "1581": " /t",
    "1582": "nct",
    "1583": " K",
    "1584": " Ko",
    "1585": " Kon",
    "1586": " Kong",
    "1587": "Gro",
    "1588": "Grou",
    "1589": "8 b",
    "1590": "8 br",
    "1591": "De",
    "1592": "ee",
    "1593": "eed",
    "1594": "ife",
    "1595": "iou",
    "1596": "ious",
    "1597": "2,",
    "1598": "vio",
    "1599": "viou",
    "1600": "par",
    "1601": "para",
    "1602": "ore",
    "1603": "ore ",
    "1604": "hee",
    "1605": "hees",
    "1606": "heese",
    "1607": "ond",
    "1608": "ryp",
    "1609": "rypt",
    "1610": "cor",
    "1611": "cord",
    "1612": "trie",
    "1613": "cat",
    "1614": "he ",
    "1615": "yl",
    "1616": "yle",
    "1617": "das",
    "1618": "wl",
    "1619": "ked",
    "1620": "2 ",
    "1621": "\\m",
    "1622": "\\ma",
    "1623": "\\mat",
    "1624": "cil",
    "1625": "pr",
    "1626": "pri",
    "1627": ") ",
    "1628": "(d",
    "1629": "(d.",
    "1630": "(d. ",
    "1631": "gar",
    "1632": "gard",
    "1633": "I.",
    "1634": "Vi",
    "1635": "uring",
    "1636": "hav",
    "1637": "have",
    "1638": "wh",
    "1639": "whi",
    "1640": "whic",
    "1641": "which",
    "1642": "cel",
    "1643": "cell",
    "1644": "esi",
    "1645": "esid",
    "1646": "az",
    "1647": "azi",
    "1648": "NO ",
    "1649": "NO I",
    "1650": "ilo",
    "1651": "ilot",
    "1652": "ts",
    "1653": "hed",
    "1654": "velop",
    "1655": "oso",
    "1656": "dor",
    "1657": "Fa",
    "1658": "Far",
    "1659": "Faro",
    "1660": "Faroe",
    "1661": "nst",
    "1662": "l ",
    "1663": "E ",
    "1664": "E -",
    "1665": "olo",
    "1666": "rar",
    "1667": "nr",
    "1668": "ede",
    "1669": "eder",
    "1670": "fri",
    "1671": "all",
    "1672": "alle",
    "1673": "alled",
    "1674": "urch",
    "1675": "cle",
    "1676": "ua",
    "1677": "ana",
    "1678": "anad",
    "1679": "isto",
    "1680": "Wi",
    "1681": "Wit",
    "1682": "With",
    "1683": "redi",
    "1684": "redie",
    "1685": "redien",
    "1686": ".p",
    "1687": ".pn",
    "1688": ".png",
    "1689": "tit",
    "1690": "titu",
    "1691": "Jap",
    "1692": "Japa",
    "1693": "Japan",
    "1694": " a",
    "1695": " as",
    "1696": " as ",
    "1697": "lk",
    "1698": "ord",
    "1699": "orda",
    "1700": "ordan",
    "1701": "Em",
    "1702": "ight",
    "1703": "uss",
    "1704": "ngl",
    "1705": "mat",
    "1706": "mate",
    "1707": "acy",
    "1708": "od",
    "1709": "amp",
    "1710": "ampl",
    "1711": "8)",
    "1712": "umer",
    "1713": "ib",
    "1714": "sel",
    "1715": "ini",
    "1716": "Pau",
    "1717": "Paul",
    "1718": "ht",
    "1719": "ws",
    "1720": "rea",
    "1721": "reas",
    "1722": "lb",
    "1723": "lbe",
    "1724": "lber",
    "1725": "org",
    "1726": "onn",
    "1727": "onne",
    "1728": "onnec",
    "1729": "onnect",
    "1730": "ape",
    "1731": "apes",
    "1732": "yea",
    "1733": "year",
    "1734": "liv",
    "1735": "ve ",
    "1736": "erg",
    "1737": " b",
    "1738": " br",
    "1739": "Wim",
    "1740": "Wimb",
    "1741": "Wimbl",
    "1742": "hil",
    "1743": "teg",
    "1744": "well",
    "1745": "xt",
    "1746": "eas",
    "1747": "hap",
    "1748": "hapl",
    "1749": "So",
    "1750": "Sof",
    "1751": "Soft",
    "1752": "Softw",
    "1753": "Softwa",
    "1754": "Softwar",
    "1755": "astat",
    "1756": "een",
    "1757": "pl",
    "1758": "pla",
    "1759": "fai",
    "1760": "8,",
    "1761": "8, ",
    "1762": "ake",
    "1763": "VI",
    "1764": "ying",
    "1765": "at ",
    "1766": "W.",
    "1767": "ear",
    "1768": "earc",
    "1769": "isk",
    "1770": ",0",
    "1771": ",00",
    "1772": ",000",
    "1773": "nou",
    "1774": "noun",
    "1775": "xe",
    "1776": "xer",
    "1777": "Ki",
    "1778": "KiB",
    "1779": "gai",
    "1780": "gain",
    "1781": "ston",
    "1782": "ual",
    "1783": "ino",
    "1784": "inoc",
    "1785": "inocu",
    "1786": "inocul",
    "1787": "2 n",
    "1788": "2 nd",
    "1789": "2 nda",
    "1790": "2 ndas",
    "1791": "oss",
    "1792": "ossi",
    "1793": "ossib",
    "1794": "tin",
    "1795": "ting",
    "1796": "8 - ",
    "1797": "men",
    "1798": "able ",
    "1799": "ly",
    "1800": "a,",
    "1801": "a, ",
    "1802": "upt",
    "1803": "hib",
    "1804": "hibi",
    "1805": "hibit",
    "1806": "lly ",
    "1807": "mig",
    "1808": "migr",
    "1809": "migra",
    "1810": "en ",
    "1811": "erie",
    "1812": "dera",
    "1813": "hor",
    "1814": "wo ",
    "1815": "gin",
    "1816": "gine",
    "1817": "-c",
    "1818": "-ca",
    "1819": "-cal",
    "1820": "fric",
    "1821": "frica",
    "1822": "gal",
    "1823": "ef",
    "1824": "eft",
    "1825": " B",
    "1826": " BC",
    "1827": "Pr",
    "1828": "hool",
    "1829": "cif",
    "1830": "eat",
    "1831": "eat ",
    "1832": "br",
    "1833": "sho",
    "1834": "shop",
    "1835": "iden",
    "1836": "eop",
    "1837": "eopl",
    "1838": "ft",
    "1839": "fte",
    "1840": "ronz",
    "1841": "ronze",
    "1842": "ipe",
    "1843": "vic",
    "1844": "vice",
    "1845": ")*",
    "1846": "nounc",
    "1847": "sti",
    "1848": "stit",
    "1849": "stitu",
    "1850": "write",
    "1851": "writer",
    "1852": "arc",
    "1853": "inis",
    "1854": "inist",
    "1855": "nw",
    "1856": "nwa",
    "1857": "BM",
    "1858": "urb",
    "1859": "ich",
    "1860": "nk",
    "1861": "nke",
    "1862": "nkee",
    "1863": "1%",
    "1864": "mpa",
    "1865": "mpas",
    "1866": "mpass",
    "1867": "met",
    "1868": "his ",
    "1869": "fro",
    "1870": "from",
    "1871": "P ",
    "1872": "Ri",
    "1873": "Riv",
    "1874": "Rive",
    "1875": "River",
    "1876": "82",
    "1877": "821",
    "1878": "edr",
    "1879": "uni",
    "1880": "5 -",
    "1881": "5 - ",
    "1882": "igu",
    "1883": "oul",
    "1884": "b ",
    "1885": "itec",
    "1886": "itect",
    "1887": "o ",
    "1888": "aw",
    "1889": "aw ",
    "1890": "Kis",
    "1891": "Kiss",
    "1892": "amen",
    "1893": "Ve",
    "1894": "Ven",
    "1895": "rs",
    "1896": "rsi",
    "1897": "rsio",
    "1898": "rsion",
    "1899": "Le",
    "1900": "Lei",
    "1901": "rde",
    "1902": "rder",
    "1903": "Sh",
    "1904": "ook",
    "1905": "orm",
    "1906": "led",
    "1907": "ress",
    "1908": "VD",
    "1909": "eib",
    "1910": "eibn",
    "1911": "fir",
    "1912": "firs",
    "1913": "first",
    "1914": "fer",
    "1915": "*19",
    "1916": "O ",
    "1917": "emb",
    "1918": "*Yo",
    "1919": "ddh",
    "1920": "ad ",
    "1921": "aid",
    "1922": "hin",
    "1923": "ryo",
    "1924": "bru",
    "1925": "brua",
    "1926": "bruar",
    "1927": "bi",
    "1928": "ece",
    "1929": "bit",
    "1930": "eig",
    "1931": "2, ",
    "1932": "Ind",
    "1933": "ect",
    "1934": "pm",
    "1935": "pme",
    "1936": "pmen",
    "1937": "Cyp",
    "1938": "Cypr",
    "1939": "fac",
    "1940": "face",
    "1941": "ge ",
    "1942": "iner",
    "1943": "inera",
    "1944": "ineral",
    "1945": "Ad",
    "1946": "Ado",
    "1947": "Adop",
    "1948": "Adopt",
    "1949": "eria",
    "1950": "ard",
    "1951": "3,",
    "1952": "3, ",
    "1953": "lac",
    "1954": "sig",
    "1955": "sign",
    "1956": "gis",
    "1957": "gisl",
    "1958": "wil",
    "1959": "will",
    "1960": "lur",
    "1961": "str",
    "1962": "me ",
    "1963": "me M",
    "1964": "me Mi",
    "1965": "70",
    "1966": "iel",
    "1967": "ield",
    "1968": "ria",
    "1969": "700",
    "1970": "ice",
    "1971": "known",
    "1972": "spi",
    "1973": "spit",
    "1974": "spite",
    "1975": "les",
    "1976": "lest",
    "1977": "R ",
    "1978": "rmi",
    "1979": "ngr",
    "1980": "ngre",
    "1981": "ror",
    "1982": "nic",
    "1983": "dus",
    "1984": "rgi",
    "1985": "nua",
    "1986": "nual",
    "1987": "ssu",
    "1988": "mai",
    "1989": "main",
    "1990": "-b",
    "1991": "-bi",
    "1992": "-bit",
    "1993": "cy",
    "1994": "ae",
    "1995": "ael",
    "1996": "iot",
    "1997": "rthe",
    "1998": "oph",
    "1999": "19",
    "2000": "used",
    "2001": "used ",
    "2002": "mu",
    "2003": "mus",
    "2004": "o-",
    "2005": "tim",
    "2006": "mit",
    "2007": "Fe",
    "2008": "Fed",
    "2009": "Fede",
    "2010": "Feder",
    "2011": "ole",
    "2012": "oca",
    "2013": "ocat",
    "2014": "ee ",
    "2015": "milt",
    "2016": "gh",
    "2017": "gha",
    "2018": "sio",
    "2019": "sb",
    "2020": "sba",
    "2021": "000",
    "2022": "IA",
    "2023": "geth",
    "2024": "ke ",
    "2025": "hich",
    "2026": "**",
    "2027": "eap",
    "2028": "eap ",
    "2029": "eap y",
    "2030": "eap ye",
    "2031": "eap yea",
    "2032": "rst",
    "2033": "lete",
    "2034": "ems",
    "2035": "arth",
    "2036": "iq",
    "2037": "iqu",
    "2038": ".C",
    "2039": ".C.",
    "2040": "haps",
    "2041": "heb",
    "2042": "heba",
    "2043": "Wik",
    "2044": "Wiki",
    "2045": "pment",
    "2046": "eil",
    "2047": "cti",
    "2048": "ctio",
    "2049": "nec",
    "2050": "nect",
    "2051": " f",
    "2052": " fr",
    "2053": " fro",
    "2054": " from",
    "2055": "pit",
    "2056": "ltim",
    "2057": "ltima",
    "2058": "ian",
    "2059": "iant",
    "2060": "nl",
    "2061": "nly",
    "2062": "nly ",
    "2063": "ymo",
    "2064": "ymol",
    "2065": "T-",
    "2066": " to ",
    "2067": "imp",
    "2068": "impo",
    "2069": "impor",
    "2070": "import",
    "2071": "g}",
    "2072": "sider",
    "2073": "h ",
    "2074": "is ",
    "2075": "Sa",
    "2076": "San",
    "2077": "Ga",
    "2078": "Gal",
    "2079": "Gale",
    "2080": "Galen",
    "2081": "ply",
    "2082": "eep",
    "2083": "way",
    "2084": "ways",
    "2085": "Je",
    "2086": "Jeo",
    "2087": "m ",
    "2088": "bin",
    "2089": "bino",
    "2090": "mas",
    "2091": "thel",
    "2092": "ral",
    "2093": "ule",
    "2094": "bor",
    "2095": "born",
    "2096": "ced",
    "2097": "fed",
    "2098": "fede",
    "2099": "feder",
    "2100": "ara",
    "2101": "eti",
    "2102": "umn",
    "2103": "bou",
    "2104": "bout",
    "2105": "nch",
    "2106": "jo",
    "2107": "joy",
    "2108": "7 ",
    "2109": "7 -",
    "2110": "ay",
    "2111": "nged",
    "2112": "4)",
    "2113": "byt",
    "2114": "nla",
    "2115": "nlan",
    "2116": "nland",
    "2117": "mon",
    "2118": "ton",
    "2119": "Is",
    "2120": "Isr",
    "2121": "Isra",
    "2122": "Israe",
    "2123": "Israel",
    "2124": "ted",
    "2125": "er ",
    "2126": " P",
    "2127": " Pa",
    "2128": " Pag",
    "2129": " Page",
    "2130": "was ",
    "2131": "umb",
    "2132": "umbe",
    "2133": "umber",
    "2134": "rge",
    "2135": "rgen",
    "2136": "Po",
    "2137": "Poe",
    "2138": "orp",
    "2139": "orpo",
    "2140": "orpor",
    "2141": "Emp",
    "2142": "P b",
    "2143": "P br",
    "2144": "ph",
    "2145": "pho",
    "2146": "phon",
    "2147": "cul",
    "2148": ".)",
    "2149": "hn",
    "2150": "hn ",
    "2151": "1 /t",
    "2152": "lg",
    "2153": "fter",
    "2154": "olog",
    "2155": "nna",
    "2156": "gree",
    "2157": "ndon",
    "2158": "ten",
    "2159": "x ",
    "2160": "tas",
    "2161": "rae",
    "2162": "utho",
    "2163": "uthor",
    "2164": "ced ",
    "2165": "bov",
    "2166": "bove",
    "2167": "ut ",
    "2168": "vie",
    "2169": "view",
    "2170": "nar",
    "2171": "ety",
    "2172": "rote",
    "2173": "d. ",
    "2174": "dan",
    "2175": "ner",
    "2176": "de ",
    "2177": "80s",
    "2178": "erba",
    "2179": "/m",
    "2180": "/ma",
    "2181": "St",
    "2182": "sa",
    "2183": "tl",
    "2184": "g ",
    "2185": "g K",
    "2186": "ddl",
    "2187": "rk",
    "2188": "rke",
    "2189": "50",
    "2190": "500",
    "2191": "rsia",
    "2192": "rsian",
    "2193": "omas",
    "2194": "here",
    "2195": "yru",
    "2196": "yrus",
    "2197": "nuar",
    "2198": "gm",
    "2199": "ngi",
    "2200": "ngin",
    "2201": "nati",
    "2202": "sed",
    "2203": "hel",
    "2204": "helm",
    "2205": " 1",
    "2206": "ood",
    "2207": "esti",
    "2208": "estic",
    "2209": "Us",
    "2210": "Com",
    "2211": "Comp",
    "2212": "nce",
    "2213": "oke",
    "2214": "wee",
    "2215": "ecu",
    "2216": "ecut",
    "2217": "t)",
    "2218": "sey",
    "2219": "ire",
    "2220": "vent",
    "2221": " (1",
    "2222": " (19",
    "2223": "pha",
    "2224": "6)",
    "2225": "yer",
    "2226": "ogi",
    "2227": "ogic",
    "2228": "Un",
    "2229": "ict",
    "2230": "icti",
    "2231": "sw",
    "2232": "swe",
    "2233": "swer",
    "2234": "ox",
    "2235": "ele",
    "2236": "ose",
    "2237": "osed",
    "2238": "urr",
    "2239": "urre",
    "2240": "urren",
    "2241": "-ce",
    "2242": "-cen",
    "2243": "even",
    "2244": "rh",
    "2245": "rha",
    "2246": "ant",
    "2247": "#S",
    "2248": "ald",
    "2249": "18",
    "2250": "anadi",
    "2251": "anadia",
    "2252": "anadian",
    "2253": "rro",
    "2254": "lf",
    "2255": "rp",
    "2256": "ey",
    "2257": "ddi",
    "2258": "ega",
    "2259": "yric",
    "2260": "dot",
    "2261": "orne",
    "2262": "erv",
    "2263": "hase",
    "2264": "time",
    "2265": "pero",
    "2266": "peror",
    "2267": "nda",
    "2268": "ky",
    "2269": "zab",
    "2270": "zabe",
    "2271": "ane",
    "2272": "anel",
    "2273": "kin",
    "2274": "sli",
    "2275": "slim",
    "2276": "ucat",
    "2277": "ante",
    "2278": "Kin",
    "2279": "King",
    "2280": "land",
    "2281": "gov",
    "2282": "gove",
    "2283": "riv",
    "2284": "hm",
    "2285": "aph",
    "2286": "ls",
    "2287": "lso",
    "2288": "lso ",
    "2289": "edi",
    "2290": "osl",
    "2291": "nde",
    "2292": "nder",
    "2293": "ings",
    "2294": "thod",
    "2295": "ken",
    "2296": "ins",
    "2297": "insu",
    "2298": "insub",
    "2299": "ot ",
    "2300": "end",
    "2301": "d ",
    "2302": "pre",
    "2303": "pret",
    "2304": "pul",
    "2305": "lson",
    "2306": "ado",
    "2307": "line",
    "2308": "yst",
    "2309": "? ",
    "2310": "stru",
    "2311": "ibu",
    "2312": "ibut",
    "2313": "rta",
    "2314": "rtai",
    "2315": "nota",
    "2316": "notab",
    "2317": "notabl",
    "2318": "!--",
    "2319": "20",
    "2320": "ise",
    "2321": "nut",
    "2322": "rui",
    "2323": "ruis",
    "2324": " =",
    "2325": " = ",
    "2326": "ros",
    "2327": "ross",
    "2328": "Born",
    "2329": "sion",
    "2330": "T ",
    "2331": "bum",
    "2332": "wer",
    "2333": "mun",
    "2334": "sc",
    "2335": "3-",
    "2336": "3-1",
    "2337": "bre",
    "2338": "ay ",
    "2339": "dal",
    "2340": "5)",
    "2341": "lc",
    "2342": "lch",
    "2343": "lche",
    "2344": "lchem",
    "2345": "gan",
    "2346": "tro",
    "2347": "oh",
    "2348": "ohe",
    "2349": "ohem",
    "2350": "nwh",
    "2351": "ly ",
    "2352": "gli",
    "2353": "glis",
    "2354": "ndi",
    "2355": "sco",
    "2356": "aig",
    "2357": "roa",
    "2358": "cep",
    "2359": "cept",
    "2360": "aim",
    "2361": "epe",
    "2362": "epen",
    "2363": "epend",
    "2364": "com",
    "2365": "hen",
    "2366": "iod",
    "2367": "zz",
    "2368": "gla",
    "2369": "rn",
    "2370": "rna",
    "2371": "rnal",
    "2372": "who",
    "2373": "Cl",
    "2374": "Cle",
    "2375": "Clev",
    "2376": "Cleve",
    "2377": "se ",
    "2378": "fu",
    "2379": "ful",
    "2380": "pg",
    "2381": "pgr",
    "2382": "ussi",
    "2383": "ussia",
    "2384": "Cat",
    "2385": "Cath",
    "2386": "I ",
    "2387": "us ",
    "2388": "cus",
    "2389": "als",
    "2390": "90",
    "2391": "90s",
    "2392": "ght",
    "2393": "Ze",
    "2394": "Zen",
    "2395": "Zena",
    "2396": "riz",
    "2397": "rize",
    "2398": "cal",
    "2399": "roup",
    "2400": "duc",
    "2401": "king",
    "2402": "ern",
    "2403": "mob",
    "2404": "mobi",
    "2405": "mobil",
    "2406": "vid",
    "2407": "vid ",
    "2408": "0_",
    "2409": "ple",
    "2410": ".S.",
    "2411": "ame ",
    "2412": "How",
    "2413": "Howe",
    "2414": "Howev",
    "2415": "rad",
    "2416": "slan",
    "2417": "sland",
    "2418": "lia",
    "2419": "liam",
    "2420": "stal",
    "2421": "val",
    "2422": "vale",
    "2423": "valen",
    "2424": "gu",
    "2425": "mpl",
    "2426": "ero",
    "2427": "r o",
    "2428": "r of",
    "2429": "r of ",
    "2430": "ngle",
    "2431": "scop",
    "2432": "MP",
    "2433": "MPO",
    "2434": "lleg",
    "2435": "it ",
    "2436": "F.",
    "2437": "In ",
    "2438": "yz",
    "2439": "md",
    "2440": "mda",
    "2441": "mdas",
    "2442": "sm",
    "2443": "ous",
    "2444": "sse",
    "2445": "ien",
    "2446": "iend",
    "2447": "Pre",
    "2448": "Pres",
    "2449": "Presi",
    "2450": "Presid",
    "2451": "pen",
    "2452": "pend",
    "2453": "py",
    "2454": "ace",
    "2455": "m}",
    "2456": "vir",
    "2457": "viro",
    "2458": "t ",
    "2459": "Bru",
    "2460": "Brun",
    "2461": "sis",
    "2462": "egor",
    "2463": "ble",
    "2464": "blem",
    "2465": "nb",
    "2466": "nbs",
    "2467": "nbsp",
    "2468": "70s",
    "2469": "ade",
    "2470": " p",
    "2471": " pl",
    "2472": " pla",
    "2473": "M ",
    "2474": "rcu",
    "2475": "rac",
    "2476": "ract",
    "2477": "ion",
    "2478": "roun",
    "2479": "round",
    "2480": " an",
    "2481": " and",
    "2482": " and ",
    "2483": "el ",
    "2484": "2)",
    "2485": "sof",
    "2486": "soft",
    "2487": "were",
    "2488": "rict",
    "2489": "typ",
    "2490": "Oc",
    "2491": "rat",
    "2492": "A.",
    "2493": "dium",
    "2494": "1)",
    "2495": "ng ",
    "2496": "mes",
    "2497": "y ",
    "2498": "ies",
    "2499": "angu",
    "2500": "wt",
    "2501": "wth",
    "2502": "uis",
    "2503": "-W",
    "2504": "-Wi",
    "2505": "1 -",
    "2506": "rtic",
    "2507": "rticl",
    "2508": "rticle",
    "2509": "Qu",
    "2510": "ller",
    "2511": "them",
    "2512": "thema",
    "2513": "rtu",
    "2514": "tol",
    "2515": "tole",
    "2516": "tolem",
    "2517": "etw",
    "2518": "etwe",
    "2519": "etwee",
    "2520": "rael",
    "2521": "1,",
    "2522": "1, ",
    "2523": "Fo",
    "2524": "For",
    "2525": "Forc",
    "2526": "Force",
    "2527": "viv",
    "2528": "inc",
    "2529": "lic",
    "2530": "lict",
    "2531": "tern",
    "2532": "ize",
    "2533": "lv",
    "2534": "lva",
    "2535": "lvad",
    "2536": "lvado",
    "2537": "lvador",
    "2538": "woo",
    "2539": "wood",
    "2540": "cop",
    "2541": "any",
    "2542": "any ",
    "2543": "Jer",
    "2544": "clu",
    "2545": "clud",
    "2546": "cond",
    "2547": "0 ",
    "2548": "0 -",
    "2549": "dic",
    "2550": "dica",
    "2551": "dicat",
    "2552": "uil",
    "2553": "nish",
    "2554": "ath",
    "2555": "tem",
    "2556": "eive",
    "2557": "euti",
    "2558": "uro",
    "2559": "urop",
    "2560": "urope",
    "2561": "bab",
    "2562": "E b",
    "2563": "E br",
    "2564": "bn",
    "2565": "ll ",
    "2566": "ny ",
    "2567": "ish",
    "2568": "pie",
    "2569": "mong",
    "2570": "US",
    "2571": "7 - ",
    "2572": "Uni",
    "2573": "Univ",
    "2574": "Unive",
    "2575": "Univer",
    "2576": "Univers",
    "2577": "up ",
    "2578": "magn",
    "2579": "rec",
    "2580": "rect",
    "2581": "Le ",
    "2582": "gue",
    "2583": "den",
    "2584": "son",
    "2585": "onee",
    "2586": "oneer",
    "2587": "ks",
    "2588": "ks ",
    "2589": "zec",
    "2590": "zech",
    "2591": "uel",
    "2592": "rial",
    "2593": "ock",
    "2594": "ocke",
    "2595": "ockey",
    "2596": "ogr",
    "2597": "ogra",
    "2598": "ng|",
    "2599": "ff",
    "2600": "air",
    "2601": "had",
    "2602": "had ",
    "2603": "' ",
    "2604": "sub",
    "2605": "sub ",
    "2606": "part",
    "2607": "llec",
    "2608": "llect",
    "2609": "et ",
    "2610": "embe",
    "2611": "ember",
    "2612": "plo",
    "2613": "plom",
    "2614": "ploma",
    "2615": "stan",
    "2616": "qu",
    "2617": "ipt",
    "2618": "f-",
    "2619": "vela",
    "2620": "velan",
    "2621": "eror",
    "2622": "ctur",
    "2623": "usi",
    "2624": "usic",
    "2625": "usan",
    "2626": "harl",
    "2627": "shin",
    "2628": "jor",
    "2629": "tn",
    "2630": "tna",
    "2631": "tnam",
    "2632": " \\",
    "2633": "Im",
    "2634": "Ima",
    "2635": "Imag",
    "2636": "wis",
    "2637": "uat",
    "2638": "war",
    "2639": "igat",
    "2640": "d o",
    "2641": "d of",
    "2642": "d of ",
    "2643": "Ag",
    "2644": "Age",
    "2645": "le t",
    "2646": "hen ",
    "2647": "s}",
    "2648": "row",
    "2649": "gover",
    "2650": "govern",
    "2651": "yste",
    "2652": "ystem",
    "2653": " --",
    "2654": "ign",
    "2655": "9,0",
    "2656": "9,00",
    "2657": "ory",
    "2658": "ory ",
    "2659": "V ",
    "2660": "gel",
    "2661": "Ins",
    "2662": "Inst",
    "2663": "Insti",
    "2664": "Instit",
    "2665": "leg",
    "2666": "lege",
    "2667": "tria",
    "2668": "yc",
    "2669": "ycl",
    "2670": "reat",
    "2671": "ora",
    "2672": "vate",
    "2673": "llel",
    "2674": "man",
    "2675": "many",
    "2676": "many ",
    "2677": "fen",
    "2678": "ji",
    "2679": "elp",
    "2680": "nt ",
    "2681": "Wes",
    "2682": "West",
    "2683": "chn",
    "2684": "vin",
    "2685": "ving",
    "2686": "ppy",
    "2687": "bour",
    "2688": "irs",
    "2689": "irst",
    "2690": "n'",
    "2691": "n't",
    "2692": "Wa",
    "2693": "War",
    "2694": "not ",
    "2695": "emn",
    "2696": "urs",
    "2697": "hd",
    "2698": "hda",
    "2699": "thing",
    "2700": "Se",
    "2701": "Sec",
    "2702": "Secr",
    "2703": "Secre",
    "2704": "ssi",
    "2705": "ssio",
    "2706": "ssion",
    "2707": "ow)",
    "2708": "orth",
    "2709": "vern",
    "2710": "bsi",
    "2711": "bsit",
    "2712": "irc",
    "2713": "PO",
    "2714": "Cz",
    "2715": "Cze",
    "2716": "Czec",
    "2717": "Czech",
    "2718": "unc",
    "2719": "unct",
    "2720": "neo",
    "2721": "neol",
    "2722": "fax",
    "2723": "rn ",
    "2724": "publ",
    "2725": "publi",
    "2726": "isl",
    "2727": "pea",
    "2728": "peak",
    "2729": "vem",
    "2730": "veme",
    "2731": "vemen",
    "2732": "iu",
    "2733": "th ",
    "2734": "rket",
    "2735": "Yar",
    "2736": "bat",
    "2737": "ded",
    "2738": "s A",
    "2739": "lie ",
    "2740": "ovemb",
    "2741": "ovembe",
    "2742": "read",
    "2743": "Conn",
    "2744": "Conne",
    "2745": "Connec",
    "2746": "Connect",
    "2747": "kf",
    "2748": "kfl",
    "2749": "kflo",
    "2750": "kflow",
    "2751": "ts ",
    "2752": "lim",
    "2753": "0)",
    "2754": "ata",
    "2755": "ound",
    "2756": "cas",
    "2757": "erial",
    "2758": " h",
    "2759": "also",
    "2760": "also ",
    "2761": "spir",
    "2762": "ndas",
    "2763": "nici",
    "2764": "nicip",
    "2765": "ama",
    "2766": "amas",
    "2767": "vide",
    "2768": "vided",
    "2769": "itic",
    "2770": "tec",
    "2771": "tech",
    "2772": "ave ",
    "2773": "nz",
    "2774": "nze",
    "2775": "mou",
    "2776": "mous",
    "2777": "lai",
    "2778": "laim",
    "2779": "iss",
    "2780": "zen",
    "2781": "Ai",
    "2782": "Air",
    "2783": "ima",
    "2784": "Mara",
    "2785": "Marat",
    "2786": "Marath",
    "2787": "tis",
    "2788": "ary",
    "2789": "Zea",
    "2790": "Zeal",
    "2791": "s t",
    "2792": "s to",
    "2793": "0s",
    "2794": "0s ",
    "2795": "the ",
    "2796": "ent",
    "2797": " F",
    "2798": " Fo",
    "2799": " For",
    "2800": " Forc",
    "2801": " Force",
    "2802": "dat",
    "2803": "tto",
    "2804": "dney",
    "2805": "imi",
    "2806": "imit",
    "2807": "fict",
    "2808": "hew",
    "2809": "que",
    "2810": "ram",
    "2811": "rame",
    "2812": "ubj",
    "2813": "ubje",
    "2814": "ubjec",
    "2815": "tle",
    "2816": "amilt",
    "2817": "200",
    "2818": "k ",
    "2819": "tia",
    "2820": "bort",
    "2821": "ome ",
    "2822": "2 -",
    "2823": "2 - ",
    "2824": "m)",
    "2825": "m) ",
    "2826": "dict",
    "2827": "llen",
    "2828": "#82",
    "2829": "gro",
    "2830": "east",
    "2831": ", ",
    "2832": "eda",
    "2833": "ho ",
    "2834": "*C",
    "2835": "*Cy",
    "2836": "*Cyt",
    "2837": "*Cyto",
    "2838": "mosp",
    "2839": "mosph",
    "2840": "ssel",
    "2841": "e m",
    "2842": "e mi",
    "2843": "e min",
    "2844": "e mini",
    "2845": "R,",
    "2846": "R, ",
    "2847": "ware",
    "2848": "f ",
    "2849": "oy",
    "2850": ". ",
    "2851": "gio",
    "2852": "gion",
    "2853": "ers",
    "2854": "own",
    "2855": "ousa",
    "2856": "ousan",
    "2857": "ew ",
    "2858": "te ",
    "2859": "log",
    "2860": "morp",
    "2861": "morph",
    "2862": "amed",
    "2863": "itiz",
    "2864": "itize",
    "2865": "itizen",
    "2866": "ustr",
    "2867": "zo",
    "2868": "hip",
    "2869": "udy",
    "2870": "articl",
    "2871": "article",
    "2872": "ince",
    "2873": "0, ",
    "2874": "to ",
    "2875": "ste",
    "2876": "stem",
    "2877": "tect",
    "2878": "inst",
    "2879": "insta",
    "2880": "plac",
    "2881": "place",
    "2882": "urd",
    "2883": "lut",
    "2884": "n-",
    "2885": "zabet",
    "2886": "bj",
    "2887": "bje",
    "2888": "bjec",
    "2889": "bject",
    "2890": "odu",
    "2891": "d f",
    "2892": "d fr",
    "2893": "d fro",
    "2894": "d from",
    "2895": "ould",
    "2896": "wed",
    "2897": "dve",
    "2898": "dver",
    "2899": "nue",
    "2900": "nsen",
    "2901": "nsens",
    "2902": "nsensu",
    "2903": "atu",
    "2904": "atur",
    "2905": "Har",
    "2906": "Harr",
    "2907": "Harri",
    "2908": "Harris",
    "2909": "Harriso",
    "2910": "Harrison",
    "2911": "German",
    "2912": "sit",
    "2913": "3 -",
    "2914": "3 - ",
    "2915": "lth",
    "2916": "valu",
    "2917": "value",
    "2918": "ek ",
    "2919": "dua",
    "2920": "Ne",
    "2921": "New",
    "2922": "ment",
    "2923": "eog",
    "2924": "eogr",
    "2925": "lifor",
    "2926": "liforn",
    "2927": "ften",
    "2928": "td ",
    "2929": "nit",
    "2930": "- ",
    "2931": "xp",
    "2932": "bsp",
    "2933": "Li",
    "2934": "Lis",
    "2935": "List"
  },
  "merges": {
    "71,68": 92,
    "92,64": 93,
    "68,70": 94,
    "94,64": 95,
    "47,74": 96,
    "96,72": 97,
    "80,78": 98,
    "98,62": 99,
    "99,80": 100,
    "100,71": 101,
    "75,60": 102,
    "102,68": 103,
    "103,73": 104,
    "68,63": 105,
    "105,60": 106,
    "106,84": 107,
    "13,9": 108,
    "74,71": 109,
    "109,80": 110,
    "110,79": 111,
    "80,64": 112,
    "112,1": 113,
    "66,64": 114,
    "114,79": 115,
    "115,60": 116,
    "72,64": 117,
    "74,75": 118,
    "118,75": 119,
    "119,64": 120,
    "120,63": 121,
    "44,36": 122,
    "122,38": 123,
    "78,79": 124,
    "124,74": 125,
    "79,60": 126,
    "126,68": 127,
    "81,64": 128,
    "128,71": 129,
    "24,11": 130,
    "74,82": 131,
    "131,64": 132,
    "132,81": 133,
    "24,1": 134,
    "62,60": 135,
    "135,73": 136,
    "84,72": 137,
    "137,75": 138,
    "77,84": 139,
    "139,1": 140,
    "66,71": 141,
    "80,77": 142,
    "142,68": 143,
    "143,73": 144,
    "77,13": 145,
    "145,1": 146,
    "81,60": 147,
    "70,73": 148,
    "148,74": 149,
    "149,82": 150,
    "80,73": 151,
    "151,63": 152,
    "64,62": 153,
    "153,74": 154,
    "73,74": 155,
    "155,79": 156,
    "60,80": 157,
    "157,71": 158,
    "64,70": 159,
    "26,16": 160,
    "84,78": 161,
    "161,68": 162,
    "162,78": 163,
    "67,60": 164,
    "164,73": 165,
    "165,1": 166,
    "80,62": 167,
    "37,74": 168,
    "168,73": 169,
    "169,66": 170,
    "68,71": 171,
    "171,84": 172,
    "98,60": 173,
    "173,63": 174,
    "61,84": 175,
    "66,66": 176,
    "176,64": 177,
    "177,78": 178,
    "178,79": 179,
    "77,64": 180,
    "180,63": 181,
    "82,64": 182,
    "182,78": 183,
    "183,79": 184,
    "63,60": 185,
    "185,84": 186,
    "1,79": 187,
    "187,67": 188,
    "188,60": 189,
    "189,79": 190,
    "78,84": 191,
    "191,78": 192,
    "192,79": 193,
    "68,62": 194,
    "194,60": 195,
    "195,73": 196,
    "74,73": 197,
    "197,68": 198,
    "198,60": 199,
    "72,68": 200,
    "200,73": 201,
    "68,66": 202,
    "202,77": 203,
    "63,64": 204,
    "204,77": 205,
    "205,68": 206,
    "126,79": 207,
    "207,68": 208,
    "66,78": 209,
    "64,66": 210,
    "210,74": 211,
    "211,73": 212,
    "1,74": 213,
    "213,65": 214,
    "214,1": 215,
    "33,1": 216,
    "216,12": 217,
    "217,12": 218,
    "79,68": 219,
    "219,71": 220,
    "220,71": 221,
    "60,71": 222,
    "222,74": 223,
    "180,64": 224,
    "224,1": 225,
    "66,60": 226,
    "226,72": 227,
    "71,74": 228,
    "228,62": 229,
    "229,68": 230,
    "79,67": 231,
    "231,60": 232,
    "232,73": 233,
    "16,1": 234,
    "64,60": 235,
    "235,73": 236,
    "236,78": 237,
    "237,1": 238,
    "167,67": 239,
    "239,1": 240,
    "240,60": 241,
    "241,78": 242,
    "98,64": 243,
    "75,80": 244,
    "244,61": 245,
    "81,74": 246,
    "231,68": 247,
    "247,73": 248,
    "60,72": 249,
    "249,72": 250,
    "180,72": 251,
    "126,61": 252,
    "252,71": 253,
    "253,64": 254,
    "68,79": 255,
    "255,80": 256,
    "62,67": 257,
    "81,68": 258,
    "258,78": 259,
    "259,68": 260,
    "180,1": 261,
    "64,63": 262,
    "262,1": 263,
    "82,77": 264,
    "32,74": 265,
    "265,77": 266,
    "266,79": 267,
    "48,75": 268,
    "268,60": 269,
    "61,64": 270,
    "270,71": 271,
    "271,68": 272,
    "272,64": 273,
    "132,77": 274,
    "64,77": 275,
    "275,68": 276,
    "276,74": 277,
    "277,63": 278,
    "258,71": 279,
    "279,84": 280,
    "67,67": 281,
    "281,67": 282,
    "68,78": 283,
    "283,60": 284,
    "284,72": 285,
    "285,61": 286,
    "73,73": 287,
    "287,68": 288,
    "288,78": 289,
    "82,74": 290,
    "84,68": 291,
    "291,73": 292,
    "64,71": 293,
    "293,63": 294,
    "60,73": 295,
    "295,62": 296,
    "118,74": 297,
    "61,80": 298,
    "73,60": 299,
    "299,79": 300,
    "275,60": 301,
    "78,70": 302,
    "302,77": 303,
    "303,68": 304,
    "72,60": 305,
    "305,66": 306,
    "77,60": 307,
    "307,78": 308,
    "70,64": 309,
    "309,77": 310,
    "73,64": 311,
    "311,66": 312,
    "312,68": 313,
    "21,11": 314,
    "314,1": 315,
    "68,65": 316,
    "316,68": 317,
    "317,62": 318,
    "74,79": 319,
    "319,61": 320,
    "320,60": 321,
    "321,71": 322,
    "322,71": 323,
    "31,74": 324,
    "324,82": 325,
    "325,71": 326,
    "82,60": 327,
    "60,78": 328,
    "328,1": 329,
    "257,60": 330,
    "330,73": 331,
    "331,68": 332,
    "60,63": 333,
    "333,63": 334,
    "219,62": 335,
    "74,74": 336,
    "336,75": 337,
    "78,67": 338,
    "79,74": 339,
    "339,70": 340,
    "340,80": 341,
    "79,77": 342,
    "342,60": 343,
    "343,78": 344,
    "344,79": 345,
    "197,79": 346,
    "346,67": 347,
    "79,79": 348,
    "348,64": 349,
    "349,77": 350,
    "49,67": 351,
    "64,1": 352,
    "74,72": 353,
    "353,60": 354,
    "354,73": 355,
    "77,79": 356,
    "356,64": 357,
    "74,81": 358,
    "358,64": 359,
    "359,72": 360,
    "360,64": 361,
    "361,73": 362,
    "171,63": 363,
    "74,77": 364,
    "364,70": 365,
    "231,72": 366,
    "353,75": 367,
    "75,68": 368,
    "368,77": 369,
    "293,60": 370,
    "370,73": 371,
    "353,1": 372,
    "75,64": 373,
    "373,77": 374,
    "374,68": 375,
    "68,81": 376,
    "376,64": 377,
    "82,68": 378,
    "378,79": 379,
    "379,67": 380,
    "63,77": 381,
    "77,77": 382,
    "382,64": 383,
    "383,73": 384,
    "295,66": 385,
    "78,80": 386,
    "386,62": 387,
    "387,67": 388,
    "6,78": 389,
    "389,1": 390,
    "79,62": 391,
    "391,67": 392,
    "371,63": 393,
    "79,84": 394,
    "394,1": 395,
    "63,74": 396,
    "396,82": 397,
    "397,73": 398,
    "295,63": 399,
    "399,1": 400,
    "77,81": 401,
    "401,64": 402,
    "255,64": 403,
    "403,63": 404,
    "78,74": 405,
    "79,80": 406,
    "406,60": 407,
    "77,68": 408,
    "408,64": 409,
    "409,78": 410,
    "311,60": 411,
    "64,68": 412,
    "412,73": 413,
    "413,66": 414,
    "62,64": 415,
    "415,1": 416,
    "75,78": 417,
    "78,68": 418,
    "418,61": 419,
    "419,71": 420,
    "373,63": 421,
    "421,68": 422,
    "422,60": 423,
    "60,76": 424,
    "36,74": 425,
    "425,78": 426,
    "426,75": 427,
    "77,74": 428,
    "428,72": 429,
    "18,1": 430,
    "430,14": 431,
    "431,78": 432,
    "432,80": 433,
    "75,74": 434,
    "434,77": 435,
    "435,79": 436,
    "72,61": 437,
    "437,68": 438,
    "438,66": 439,
    "439,80": 440,
    "48,84": 441,
    "441,78": 442,
    "442,79": 443,
    "202,68": 444,
    "444,73": 445,
    "128,78": 446,
    "43,44": 447,
    "61,60": 448,
    "448,71": 449,
    "42,64": 450,
    "450,83": 451,
    "451,68": 452,
    "452,62": 453,
    "69,80": 454,
    "454,77": 455,
    "30,11": 456,
    "456,1": 457,
    "124,60": 458,
    "66,74": 459,
    "459,71": 460,
    "328,79": 461,
    "461,60": 462,
    "80,72": 463,
    "463,64": 464,
    "142,62": 465,
    "465,64": 466,
    "1,38": 467,
    "73,63": 468,
    "468,74": 469,
    "428,80": 470,
    "470,66": 471,
    "71,79": 472,
    "157,66": 473,
    "434,78": 474,
    "70,60": 475,
    "197,71": 476,
    "476,84": 477,
    "73,80": 478,
    "478,72": 479,
    "479,61": 480,
    "480,64": 481,
    "68,77": 482,
    "482,1": 483,
    "408,79": 484,
    "60,77": 485,
    "73,66": 486,
    "486,64": 487,
    "42,60": 488,
    "488,77": 489,
    "38,77": 490,
    "490,60": 491,
    "35,42": 492,
    "492,33": 493,
    "43,34": 494,
    "364,77": 495,
    "495,74": 496,
    "496,77": 497,
    "64,74": 498,
    "62,79": 499,
    "499,74": 500,
    "500,61": 501,
    "85,1": 502,
    "124,1": 503,
    "503,74": 504,
    "504,65": 505,
    "505,1": 506,
    "65,74": 507,
    "507,77": 508,
    "508,1": 509,
    "65,68": 510,
    "510,73": 511,
    "7,1": 512,
    "484,74": 513,
    "513,77": 514,
    "14,79": 515,
    "226,66": 516,
    "102,73": 517,
    "128,73": 518,
    "77,63": 519,
    "68,64": 520,
    "62,70": 521,
    "386,71": 522,
    "522,79": 523,
    "74,61": 524,
    "524,69": 525,
    "525,64": 526,
    "526,62": 527,
    "62,74": 528,
    "528,73": 529,
    "529,78": 530,
    "530,79": 531,
    "49,64": 532,
    "532,73": 533,
    "533,73": 534,
    "228,82": 535,
    "535,60": 536,
    "536,73": 537,
    "537,62": 538,
    "30,72": 539,
    "539,64": 540,
    "540,77": 541,
    "541,68": 542,
    "232,79": 543,
    "520,82": 544,
    "80,75": 545,
    "66,68": 546,
    "546,79": 547,
    "71,64": 548,
    "548,79": 549,
    "85,60": 550,
    "550,79": 551,
    "77,62": 552,
    "552,64": 553,
    "67,74": 554,
    "554,80": 555,
    "555,77": 556,
    "556,78": 557,
    "98,79": 558,
    "558,1": 559,
    "68,75": 560,
    "364,71": 561,
    "561,63": 562,
    "324,77": 563,
    "164,61": 564,
    "564,68": 565,
    "565,79": 566,
    "60,66": 567,
    "567,64": 568,
    "62,80": 569,
    "569,79": 570,
    "72,74": 571,
    "571,77": 572,
    "572,64": 573,
    "573,1": 574,
    "37,64": 575,
    "575,68": 576,
    "576,66": 577,
    "577,67": 578,
    "60,68": 579,
    "579,73": 580,
    "33,45": 581,
    "68,73": 582,
    "582,64": 583,
    "552,68": 584,
    "584,78": 585,
    "283,68": 586,
    "36,64": 587,
    "587,77": 588,
    "588,72": 589,
    "589,60": 590,
    "74,78": 591,
    "591,79": 592,
    "592,1": 593,
    "84,77": 594,
    "594,68": 595,
    "595,60": 596,
    "180,78": 597,
    "364,1": 598,
    "80,71": 599,
    "599,63": 600,
    "71,60": 601,
    "601,79": 602,
    "602,64": 603,
    "603,1": 604,
    "65,71": 605,
    "605,80": 606,
    "606,64": 607,
    "607,73": 608,
    "7,16": 609,
    "609,24": 610,
    "71,71": 611,
    "611,64": 612,
    "612,84": 613,
    "555,78": 614,
    "348,71": 615,
    "75,75": 616,
    "47,38": 617,
    "617,48": 618,
    "132,63": 619,
    "78,75": 620,
    "620,64": 621,
    "621,71": 622,
    "182,71": 623,
    "23,15": 624,
    "74,68": 625,
    "625,63": 626,
    "582,60": 627,
    "61,74": 628,
    "32,67": 629,
    "629,60": 630,
    "630,75": 631,
    "631,71": 632,
    "578,79": 633,
    "185,72": 634,
    "634,64": 635,
    "625,73": 636,
    "356,68": 637,
    "84,74": 638,
    "638,80": 639,
    "21,15": 640,
    "143,79": 641,
    "64,83": 642,
    "642,60": 643,
    "643,73": 644,
    "644,63": 645,
    "109,81": 646,
    "646,64": 647,
    "76,1": 648,
    "648,71": 649,
    "649,60": 650,
    "650,73": 651,
    "651,66": 652,
    "652,80": 653,
    "62,62": 654,
    "654,80": 655,
    "655,72": 656,
    "656,80": 657,
    "202,67": 658,
    "658,61": 659,
    "601,73": 660,
    "660,66": 661,
    "661,80": 662,
    "5,1": 663,
    "628,74": 664,
    "664,70": 665,
    "319,67": 666,
    "666,1": 667,
    "356,67": 668,
    "64,80": 669,
    "669,79": 670,
    "485,1": 671,
    "63,68": 672,
    "672,80": 673,
    "49,60": 674,
    "674,72": 675,
    "675,60": 676,
    "70,68": 677,
    "80,79": 678,
    "69,64": 679,
    "187,74": 680,
    "293,84": 681,
    "164,78": 682,
    "554,63": 683,
    "73,79": 684,
    "684,77": 685,
    "685,84": 686,
    "142,79": 687,
    "687,67": 688,
    "688,64": 689,
    "64,73": 690,
    "690,64": 691,
    "249,74": 692,
    "692,73": 693,
    "693,63": 694,
    "20,79": 695,
    "695,67": 696,
    "77,11": 697,
    "697,1": 698,
    "1,12": 699,
    "68,72": 700,
    "700,64": 701,
    "701,73": 702,
    "72,75": 703,
    "703,79": 704,
    "64,72": 705,
    "705,64": 706,
    "706,73": 707,
    "60,81": 708,
    "708,64": 709,
    "92,78": 710,
    "710,67": 711,
    "672,79": 712,
    "712,68": 713,
    "60,75": 714,
    "714,60": 715,
    "73,68": 716,
    "716,72": 717,
    "364,73": 718,
    "705,75": 719,
    "437,71": 720,
    "180,73": 721,
    "721,62": 722,
    "722,67": 723,
    "391,13": 724,
    "197,78": 725,
    "725,79": 726,
    "726,60": 727,
    "727,73": 728,
    "70,74": 729,
    "311,73": 730,
    "80,63": 731,
    "636,79": 732,
    "377,77": 733,
    "231,74": 734,
    "734,80": 735,
    "735,66": 736,
    "234,14": 737,
    "737,78": 738,
    "738,80": 739,
    "545,78": 740,
    "63,80": 741,
    "741,77": 742,
    "742,68": 743,
    "743,73": 744,
    "744,66": 745,
    "167,60": 746,
    "642,79": 747,
    "79,64": 748,
    "748,77": 749,
    "135,66": 750,
    "750,74": 751,
    "64,78": 752,
    "66,77": 753,
    "60,62": 754,
    "571,62": 755,
    "755,77": 756,
    "82,61": 757,
    "757,74": 758,
    "758,84": 759,
    "60,79": 760,
    "760,68": 761,
    "761,74": 762,
    "762,73": 763,
    "62,71": 764,
    "764,68": 765,
    "765,63": 766,
    "43,1": 767,
    "767,61": 768,
    "768,77": 769,
    "197,1": 770,
    "249,61": 771,
    "118,79": 772,
    "12,12": 773,
    "412,81": 774,
    "15,15": 775,
    "775,1": 776,
    "249,68": 777,
    "777,71": 778,
    "64,81": 779,
    "779,64": 780,
    "484,68": 781,
    "781,78": 782,
    "528,81": 783,
    "783,64": 784,
    "784,77": 785,
    "552,67": 786,
    "63,84": 787,
    "787,1": 788,
    "47,64": 789,
    "789,75": 790,
    "790,80": 791,
    "791,61": 792,
    "13,48": 793,
    "77,71": 794,
    "794,64": 795,
    "795,78": 796,
    "796,1": 797,
    "295,1": 798,
    "328,64": 799,
    "799,63": 800,
    "800,1": 801,
    "425,71": 802,
    "802,60": 803,
    "803,73": 804,
    "510,62": 805,
    "77,66": 806,
    "806,60": 807,
    "807,73": 808,
    "290,77": 809,
    "809,63": 810,
    "64,76": 811,
    "811,80": 812,
    "812,64": 813,
    "813,73": 814,
    "153,68": 815,
    "2,12": 816,
    "64,82": 817,
    "67,80": 818,
    "818,77": 819,
    "819,62": 820,
    "820,67": 821,
    "78,78": 822,
    "68,1": 823,
    "754,67": 824,
    "64,75": 825,
    "825,79": 826,
    "826,64": 827,
    "827,72": 828,
    "828,61": 829,
    "255,67": 830,
    "16,16": 831,
    "171,68": 832,
    "832,79": 833,
    "532,62": 834,
    "834,67": 835,
    "52,74": 836,
    "836,77": 837,
    "62,77": 838,
    "838,64": 839,
    "84,60": 840,
    "840,71": 841,
    "129,74": 842,
    "19,11": 843,
    "843,1": 844,
    "703,64": 845,
    "845,77": 846,
    "197,66": 847,
    "1,14": 848,
    "299,63": 849,
    "418,63": 850,
    "850,64": 851,
    "548,73": 852,
    "852,63": 853,
    "853,60": 854,
    "854,77": 855,
    "283,79": 856,
    "31,77": 857,
    "857,68": 858,
    "858,79": 859,
    "859,68": 860,
    "860,78": 861,
    "305,84": 862,
    "862,1": 863,
    "275,84": 864,
    "864,1": 865,
    "228,77": 866,
    "679,74": 867,
    "485,79": 868,
    "868,68": 869,
    "869,62": 870,
    "870,80": 871,
    "871,71": 872,
    "872,60": 873,
    "307,75": 874,
    "257,64": 875,
    "875,63": 876,
    "643,72": 877,
    "164,77": 878,
    "386,78": 879,
    "224,70": 880,
    "318,60": 881,
    "881,73": 882,
    "508,62": 883,
    "30,79": 884,
    "884,60": 885,
    "885,77": 886,
    "611,84": 887,
    "187,63": 888,
    "468,1": 889,
    "889,79": 890,
    "890,74": 891,
    "891,1": 892,
    "364,79": 893,
    "305,71": 894,
    "894,71": 895,
    "418,73": 896,
    "311,1": 897,
    "752,79": 898,
    "67,68": 899,
    "899,64": 900,
    "900,81": 901,
    "82,1": 902,
    "1,71": 903,
    "903,60": 904,
    "904,73": 905,
    "905,66": 906,
    "906,80": 907,
    "258,66": 908,
    "908,60": 909,
    "548,62": 910,
    "910,79": 911,
    "554,82": 912,
    "912,1": 913,
    "14,1": 914,
    "75,79": 915,
    "915,1": 916,
    "67,64": 917,
    "917,77": 918,
    "68,74": 919,
    "919,77": 920,
    "64,61": 921,
    "200,71": 922,
    "922,60": 923,
    "923,77": 924,
    "486,79": 925,
    "925,67": 926,
    "14,78": 927,
    "927,80": 928,
    "246,71": 929,
    "929,81": 930,
    "930,64": 931,
    "74,62": 932,
    "932,80": 933,
    "933,72": 934,
    "548,61": 935,
    "935,77": 936,
    "299,73": 937,
    "42,33": 938,
    "838,80": 939,
    "939,68": 940,
    "940,78": 941,
    "941,64": 942,
    "52,64": 943,
    "943,61": 944,
    "3,23": 945,
    "678,67": 946,
    "105,64": 947,
    "255,68": 948,
    "948,74": 949,
    "508,72": 950,
    "899,62": 951,
    "951,60": 952,
    "952,66": 953,
    "571,78": 954,
    "954,79": 955,
    "339,61": 956,
    "499,80": 957,
    "255,74": 958,
    "147,79": 959,
    "65,64": 960,
    "21,1": 961,
    "961,12": 962,
    "962,1": 963,
    "68,85": 964,
    "296,67": 965,
    "672,73": 966,
    "966,66": 967,
    "80,67": 968,
    "968,60": 969,
    "969,72": 970,
    "679,62": 971,
    "971,79": 972,
    "249,64": 973,
    "31,32": 974,
    "171,64": 975,
    "975,1": 976,
    "171,79": 977,
    "977,74": 978,
    "978,73": 979,
    "434,71": 980,
    "126,73": 981,
    "599,79": 982,
    "342,68": 983,
    "114,73": 984,
    "984,79": 985,
    "167,68": 986,
    "986,73": 987,
    "599,80": 988,
    "351,64": 989,
    "989,1": 990,
    "34,80": 991,
    "991,77": 992,
    "992,74": 993,
    "993,75": 994,
    "994,64": 995,
    "429,1": 996,
    "12,16": 997,
    "270,1": 998,
    "20,11": 999,
    "999,1": 1000,
    "753,64": 1001,
    "899,74": 1002,
    "580,79": 1003,
    "265,73": 1004,
    "611,68": 1005,
    "1005,60": 1006,
    "1006,72": 1007,
    "194,80": 1008,
    "1008,71": 1009,
    "1009,60": 1010,
    "293,71": 1011,
    "42,68": 1012,
    "1012,73": 1013,
    "1013,68": 1014,
    "1014,78": 1015,
    "73,69": 1016,
    "1016,74": 1017,
    "1017,80": 1018,
    "1018,77": 1019,
    "68,60": 1020,
    "754,70": 1021,
    "1021,1": 1022,
    "200,64": 1023,
    "1023,78": 1024,
    "36,77": 1025,
    "1025,64": 1026,
    "678,68": 1027,
    "142,64": 1028,
    "1028,60": 1029,
    "1029,79": 1030,
    "85,68": 1031,
    "428,81": 1032,
    "71,80": 1033,
    "275,77": 1034,
    "1034,64": 1035,
    "529,74": 1036,
    "601,67": 1037,
    "32,60": 1038,
    "1038,73": 1039,
    "1039,60": 1040,
    "63,73": 1041,
    "1041,64": 1042,
    "283,72": 1043,
    "49,30": 1044,
    "47,49": 1045,
    "1020,71": 1046,
    "582,79": 1047,
    "82,73": 1048,
    "275,64": 1049,
    "147,68": 1050,
    "1050,71": 1051,
    "270,63": 1052,
    "71,63": 1053,
    "1053,1": 1054,
    "79,63": 1055,
    "298,79": 1056,
    "1056,1": 1057,
    "92,65": 1058,
    "1058,74": 1059,
    "60,1": 1060,
    "72,84": 1061,
    "74,80": 1062,
    "1062,79": 1063,
    "582,1": 1064,
    "38,73": 1065,
    "264,68": 1066,
    "1066,79": 1067,
    "60,70": 1068,
    "1068,60": 1069,
    "1069,73": 1070,
    "554,74": 1071,
    "1071,63": 1072,
    "63,81": 1073,
    "74,60": 1074,
    "1074,63": 1075,
    "548,60": 1076,
    "1076,78": 1077,
    "84,75": 1078,
    "1078,79": 1079,
    "257,1": 1080,
    "471,67": 1081,
    "74,70": 1082,
    "64,79": 1083,
    "1083,64": 1084,
    "23,1": 1085,
    "1085,12": 1086,
    "1,7": 1087,
    "1087,63": 1088,
    "1088,13": 1089,
    "1089,1": 1090,
    "32,84": 1091,
    "1091,79": 1092,
    "1092,74": 1093,
    "703,80": 1094,
    "1094,79": 1095,
    "485,71": 1096,
    "61,71": 1097,
    "1097,68": 1098,
    "1098,78": 1099,
    "780,77": 1100,
    "449,71": 1101,
    "7,61": 1102,
    "1102,74": 1103,
    "1103,77": 1104,
    "1104,73": 1105,
    "669,78": 1106,
    "219,64": 1107,
    "219,74": 1108,
    "1108,73": 1109,
    "19,1": 1110,
    "1110,12": 1111,
    "1111,1": 1112,
    "1038,71": 1113,
    "1113,68": 1114,
    "1114,65": 1115,
    "1115,74": 1116,
    "319,64": 1117,
    "1117,77": 1118,
    "62,1": 1119,
    "24,8": 1120,
    "752,1": 1121,
    "893,80": 1122,
    "1122,73": 1123,
    "359,71": 1124,
    "428,62": 1125,
    "155,72": 1126,
    "85,64": 1127,
    "1127,63": 1128,
    "1128,1": 1129,
    "731,68": 1130,
    "335,71": 1131,
    "1131,64": 1132,
    "74,65": 1133,
    "1133,1": 1134,
    "684,67": 1135,
    "899,78": 1136,
    "275,61": 1137,
    "94,68": 1138,
    "128,77": 1139,
    "1139,64": 1140,
    "1140,68": 1141,
    "1141,66": 1142,
    "327,78": 1143,
    "75,1": 1144,
    "45,60": 1145,
    "1145,66": 1146,
    "1146,64": 1147,
    "36,80": 1148,
    "1148,68": 1149,
    "1149,63": 1150,
    "1150,64": 1151,
    "171,71": 1152,
    "1152,68": 1153,
    "1153,60": 1154,
    "1154,72": 1155,
    "353,64": 1156,
    "54,60": 1157,
    "1157,73": 1158,
    "1158,70": 1159,
    "1159,64": 1160,
    "1160,64": 1161,
    "35,77": 1162,
    "1162,64": 1163,
    "1163,73": 1164,
    "60,65": 1165,
    "1136,79": 1166,
    "175,1": 1167,
    "126,66": 1168,
    "1168,64": 1169,
    "73,62": 1170,
    "78,71": 1171,
    "135,80": 1172,
    "1172,78": 1173,
    "8,11": 1174,
    "1174,1": 1175,
    "79,85": 1176,
    "54,74": 1177,
    "1177,77": 1178,
    "1178,70": 1179,
    "408,62": 1180,
    "1180,60": 1181,
    "1181,71": 1182,
    "247,74": 1183,
    "1183,75": 1184,
    "114,77": 1185,
    "83,60": 1186,
    "73,84": 1187,
    "65,77": 1188,
    "948,78": 1189,
    "499,1": 1190,
    "92,79": 1191,
    "1191,68": 1192,
    "1192,62": 1193,
    "640,78": 1194,
    "1165,79": 1195,
    "1195,64": 1196,
    "485,66": 1197,
    "1197,64": 1198,
    "78,9": 1199,
    "165,66": 1200,
    "1149,73": 1201,
    "80,61": 1202,
    "1202,71": 1203,
    "1203,68": 1204,
    "62,13": 1205,
    "142,66": 1206,
    "1206,64": 1207,
    "1207,78": 1208,
    "33,69": 1209,
    "1209,68": 1210,
    "1210,61": 1211,
    "1211,74": 1212,
    "1212,80": 1213,
    "65,60": 1214,
    "1214,72": 1215,
    "1215,74": 1216,
    "1216,80": 1217,
    "1217,78": 1218,
    "66,79": 1219,
    "1219,74": 1220,
    "151,79": 1221,
    "692,80": 1222,
    "1222,78": 1223,
    "520,63": 1224,
    "1,78": 1225,
    "912,73": 1226,
    "77,72": 1227,
    "1227,60": 1228,
    "73,78": 1229,
    "1229,64": 1230,
    "507,74": 1231,
    "1231,63": 1232,
    "403,77": 1233,
    "33,60": 1234,
    "1234,73": 1235,
    "1235,68": 1236,
    "1236,78": 1237,
    "1237,67": 1238,
    "295,80": 1239,
    "1239,60": 1240,
    "1240,77": 1241,
    "338,64": 1242,
    "9,16": 1243,
    "63,63": 1244,
    "70,72": 1245,
    "1245,8": 1246,
    "964,74": 1247,
    "142,73": 1248,
    "31,60": 1249,
    "1249,73": 1250,
    "1250,66": 1251,
    "1251,71": 1252,
    "72,72": 1253,
    "37,60": 1254,
    "1254,72": 1255,
    "1255,68": 1256,
    "1256,71": 1257,
    "532,60": 1258,
    "1258,62": 1259,
    "1259,67": 1260,
    "625,62": 1261,
    "1261,64": 1262,
    "1053,64": 1263,
    "1263,73": 1264,
    "519,60": 1265,
    "1265,73": 1266,
    "117,63": 1267,
    "9,54": 1268,
    "418,60": 1269,
    "932,67": 1270,
    "30,77": 1271,
    "1271,79": 1272,
    "1272,68": 1273,
    "1273,62": 1274,
    "1274,71": 1275,
    "202,60": 1276,
    "1,73": 1277,
    "1277,74": 1278,
    "1278,79": 1279,
    "220,1": 1280,
    "425,63": 1281,
    "405,1": 1282,
    "1139,78": 1283,
    "408,78": 1284,
    "195,79": 1285,
    "1062,77": 1286,
    "548,1": 1287,
    "78,64": 1288,
    "1288,77": 1289,
    "1289,81": 1290,
    "49,68": 1291,
    "1291,66": 1292,
    "1292,77": 1293,
    "459,77": 1294,
    "66,73": 1295,
    "415,72": 1296,
    "1296,61": 1297,
    "231,64": 1298,
    "1298,77": 1299,
    "339,82": 1300,
    "1300,73": 1301,
    "270,77": 1302,
    "1302,79": 1303,
    "780,71": 1304,
    "66,84": 1305,
    "1305,75": 1306,
    "1306,79": 1307,
    "81,84": 1308,
    "386,77": 1309,
    "255,84": 1310,
    "1310,1": 1311,
    "226,79": 1312,
    "359,63": 1313,
    "838,68": 1314,
    "39,60": 1315,
    "1315,62": 1316,
    "1316,70": 1317,
    "41,1": 1318,
    "1318,61": 1319,
    "1319,77": 1320,
    "194,71": 1321,
    "1321,64": 1322,
    "611,60": 1323,
    "428,79": 1324,
    "1324,67": 1325,
    "316,74": 1326,
    "1326,77": 1327,
    "1327,73": 1328,
    "63,66": 1329,
    "1329,64": 1330,
    "1062,66": 1331,
    "1331,67": 1332,
    "61,78": 1333,
    "65,84": 1334,
    "27,1": 1335,
    "257,68": 1336,
    "1336,73": 1337,
    "195,71": 1338,
    "582,66": 1339,
    "1339,71": 1340,
    "1340,64": 1341,
    "569,72": 1342,
    "1342,64": 1343,
    "1343,73": 1344,
    "716,78": 1345,
    "1314,75": 1346,
    "1346,79": 1347,
    "117,77": 1348,
    "1348,68": 1349,
    "418,62": 1350,
    "654,74": 1351,
    "1351,77": 1352,
    "1352,63": 1353,
    "71,72": 1354,
    "408,74": 1355,
    "1355,77": 1356,
    "77,1": 1357,
    "1357,14": 1358,
    "1358,78": 1359,
    "1359,80": 1360,
    "92,75": 1361,
    "48,62": 1362,
    "1362,74": 1363,
    "1363,79": 1364,
    "1049,73": 1365,
    "482,63": 1366,
    "1033,64": 1367,
    "1367,73": 1368,
    "60,61": 1369,
    "1369,71": 1370,
    "415,73": 1371,
    "194,68": 1372,
    "1372,60": 1373,
    "554,75": 1374,
    "691,77": 1375,
    "1375,60": 1376,
    "947,77": 1377,
    "838,60": 1378,
    "690,62": 1379,
    "1379,67": 1380,
    "753,60": 1381,
    "33,44": 1382,
    "1382,43": 1383,
    "1383,34": 1384,
    "62,68": 1385,
    "1385,64": 1386,
    "1386,73": 1387,
    "15,11": 1388,
    "485,64": 1389,
    "1389,1": 1390,
    "301,66": 1391,
    "165,62": 1392,
    "601,78": 1393,
    "1393,78": 1394,
    "293,79": 1395,
    "546,62": 1396,
    "50,1": 1397,
    "1288,78": 1398,
    "1398,78": 1399,
    "30,71": 1400,
    "1400,64": 1401,
    "1401,83": 1402,
    "73,1": 1403,
    "1403,61": 1404,
    "1404,77": 1405,
    "699,1": 1406,
    "401,68": 1407,
    "1407,62": 1408,
    "1408,64": 1409,
    "629,68": 1410,
    "1410,73": 1411,
    "74,66": 1412,
    "79,82": 1413,
    "1413,64": 1414,
    "1414,64": 1415,
    "1156,78": 1416,
    "1416,79": 1417,
    "612,63": 1418,
    "77,80": 1419,
    "1419,62": 1420,
    "1420,79": 1421,
    "364,78": 1422,
    "1422,64": 1423,
    "228,84": 1424,
    "508,64": 1425,
    "43,60": 1426,
    "1426,70": 1427,
    "1427,60": 1428,
    "1428,73": 1429,
    "64,11": 1430,
    "1430,1": 1431,
    "197,60": 1432,
    "1432,79": 1433,
    "1385,73": 1434,
    "66,8": 1435,
    "108,16": 1436,
    "1436,24": 1437,
    "20,1": 1438,
    "1438,60": 1439,
    "1439,73": 1440,
    "1440,63": 1441,
    "1441,1": 1442,
    "222,68": 1443,
    "932,68": 1444,
    "1,30": 1445,
    "147,73": 1446,
    "485,77": 1447,
    "472,68": 1448,
    "359,77": 1449,
    "1449,73": 1450,
    "80,68": 1451,
    "168,77": 1452,
    "1452,60": 1453,
    "1453,62": 1454,
    "222,64": 1455,
    "1455,73": 1456,
    "157,78": 1457,
    "338,68": 1458,
    "1458,75": 1459,
    "74,64": 1460,
    "1460,1": 1461,
    "311,79": 1462,
    "1370,64": 1463,
    "92,73": 1464,
    "406,77": 1465,
    "246,68": 1466,
    "1466,63": 1467,
    "760,64": 1468,
    "1468,66": 1469,
    "1469,74": 1470,
    "1470,77": 1471,
    "21,79": 1472,
    "1472,67": 1473,
    "164,79": 1474,
    "654,68": 1475,
    "1475,73": 1476,
    "486,80": 1477,
    "92,74": 1478,
    "1478,73": 1479,
    "84,64": 1480,
    "118,71": 1481,
    "197,64": 1482,
    "1482,78": 1483,
    "1063,67": 1484,
    "615,64": 1485,
    "155,82": 1486,
    "63,13": 1487,
    "83,68": 1488,
    "1488,62": 1489,
    "611,74": 1490,
    "1490,82": 1491,
    "428,73": 1492,
    "408,73": 1493,
    "1493,66": 1494,
    "305,77": 1495,
    "32,68": 1496,
    "1496,73": 1497,
    "1497,62": 1498,
    "36,68": 1499,
    "1499,60": 1500,
    "1500,73": 1501,
    "1501,79": 1502,
    "309,79": 1503,
    "408,66": 1504,
    "1504,67": 1505,
    "1505,79": 1506,
    "1062,73": 1507,
    "1507,62": 1508,
    "48,1": 1509,
    "1448,62": 1510,
    "621,62": 1511,
    "627,79": 1512,
    "80,66": 1513,
    "1513,67": 1514,
    "1514,79": 1515,
    "554,71": 1516,
    "126,77": 1517,
    "917,72": 1518,
    "1518,60": 1519,
    "1227,86": 1520,
    "222,84": 1521,
    "1521,78": 1522,
    "1522,68": 1523,
    "1523,78": 1524,
    "167,79": 1525,
    "1525,80": 1526,
    "1526,77": 1527,
    "22,11": 1528,
    "1528,1": 1529,
    "961,60": 1530,
    "1530,73": 1531,
    "1531,63": 1532,
    "599,60": 1533,
    "135,72": 1534,
    "1534,64": 1535,
    "682,1": 1536,
    "39,80": 1537,
    "1033,72": 1538,
    "899,77": 1539,
    "1539,74": 1540,
    "1540,75": 1541,
    "1541,77": 1542,
    "34,73": 1543,
    "1543,66": 1544,
    "1544,71": 1545,
    "716,73": 1546,
    "1546,66": 1547,
    "311,78": 1548,
    "1548,78": 1549,
    "358,68": 1550,
    "1550,64": 1551,
    "1551,79": 1552,
    "464,73": 1553,
    "328,78": 1554,
    "838,74": 1555,
    "126,71": 1556,
    "52,38": 1557,
    "545,64": 1558,
    "1558,77": 1559,
    "32,43": 1560,
    "1560,48": 1561,
    "1561,1": 1562,
    "118,64": 1563,
    "1474,1": 1564,
    "500,77": 1565,
    "554,78": 1566,
    "1566,79": 1567,
    "78,1": 1568,
    "1568,74": 1569,
    "1569,65": 1570,
    "1570,1": 1571,
    "485,68": 1572,
    "194,1": 1573,
    "1277,63": 1574,
    "1574,60": 1575,
    "1575,78": 1576,
    "62,76": 1577,
    "1577,80": 1578,
    "1171,60": 1579,
    "628,71": 1580,
    "848,79": 1581,
    "1170,79": 1582,
    "1,40": 1583,
    "1583,74": 1584,
    "1584,73": 1585,
    "1585,66": 1586,
    "1025,74": 1587,
    "1587,80": 1588,
    "1085,61": 1589,
    "1589,77": 1590,
    "33,64": 1591,
    "64,64": 1592,
    "1592,63": 1593,
    "316,64": 1594,
    "919,80": 1595,
    "1595,78": 1596,
    "17,11": 1597,
    "258,74": 1598,
    "1598,80": 1599,
    "102,77": 1600,
    "1600,60": 1601,
    "364,64": 1602,
    "1602,1": 1603,
    "917,64": 1604,
    "1604,78": 1605,
    "1605,64": 1606,
    "197,63": 1607,
    "139,75": 1608,
    "1608,79": 1609,
    "528,77": 1610,
    "1610,63": 1611,
    "983,64": 1612,
    "135,79": 1613,
    "917,1": 1614,
    "84,71": 1615,
    "1615,64": 1616,
    "185,78": 1617,
    "82,71": 1618,
    "309,63": 1619,
    "17,1": 1620,
    "56,72": 1621,
    "1621,60": 1622,
    "1622,79": 1623,
    "1385,71": 1624,
    "75,77": 1625,
    "1625,68": 1626,
    "8,1": 1627,
    "7,63": 1628,
    "1628,13": 1629,
    "1629,1": 1630,
    "226,77": 1631,
    "1631,63": 1632,
    "38,13": 1633,
    "51,68": 1634,
    "144,66": 1635,
    "164,81": 1636,
    "1636,64": 1637,
    "82,67": 1638,
    "1638,68": 1639,
    "1639,62": 1640,
    "1640,67": 1641,
    "415,71": 1642,
    "1642,71": 1643,
    "752,68": 1644,
    "1644,63": 1645,
    "60,85": 1646,
    "1646,68": 1647,
    "447,1": 1648,
    "1648,38": 1649,
    "171,74": 1650,
    "1650,79": 1651,
    "79,78": 1652,
    "917,63": 1653,
    "842,75": 1654,
    "591,74": 1655,
    "396,77": 1656,
    "35,60": 1657,
    "1657,77": 1658,
    "1658,74": 1659,
    "1659,64": 1660,
    "1229,79": 1661,
    "71,1": 1662,
    "34,1": 1663,
    "1663,12": 1664,
    "109,74": 1665,
    "307,77": 1666,
    "73,77": 1667,
    "262,64": 1668,
    "1668,77": 1669,
    "1188,68": 1670,
    "222,71": 1671,
    "1671,64": 1672,
    "1672,63": 1673,
    "465,67": 1674,
    "764,64": 1675,
    "80,60": 1676,
    "295,60": 1677,
    "1677,63": 1678,
    "856,74": 1679,
    "52,68": 1680,
    "1680,79": 1681,
    "1681,67": 1682,
    "181,68": 1683,
    "1683,64": 1684,
    "1684,73": 1685,
    "13,75": 1686,
    "1686,73": 1687,
    "1687,66": 1688,
    "219,79": 1689,
    "1689,80": 1690,
    "1315,75": 1691,
    "1691,60": 1692,
    "1692,73": 1693,
    "1,60": 1694,
    "1694,78": 1695,
    "1695,1": 1696,
    "71,70": 1697,
    "364,63": 1698,
    "1698,60": 1699,
    "1699,73": 1700,
    "34,72": 1701,
    "658,79": 1702,
    "98,78": 1703,
    "486,71": 1704,
    "305,79": 1705,
    "1705,64": 1706,
    "754,84": 1707,
    "74,63": 1708,
    "249,75": 1709,
    "1709,71": 1710,
    "23,8": 1711,
    "464,77": 1712,
    "68,61": 1713,
    "1288,71": 1714,
    "582,68": 1715,
    "1145,80": 1716,
    "1716,71": 1717,
    "67,79": 1718,
    "82,78": 1719,
    "180,60": 1720,
    "1720,78": 1721,
    "71,61": 1722,
    "1722,64": 1723,
    "1723,77": 1724,
    "364,66": 1725,
    "197,73": 1726,
    "1726,64": 1727,
    "1727,62": 1728,
    "1728,79": 1729,
    "714,64": 1730,
    "1730,78": 1731,
    "1480,60": 1732,
    "1732,77": 1733,
    "92,81": 1734,
    "128,1": 1735,
    "275,66": 1736,
    "1,61": 1737,
    "1737,77": 1738,
    "1680,72": 1739,
    "1739,61": 1740,
    "1740,71": 1741,
    "899,71": 1742,
    "748,66": 1743,
    "623,71": 1744,
    "83,79": 1745,
    "235,78": 1746,
    "164,75": 1747,
    "1747,71": 1748,
    "48,74": 1749,
    "1749,65": 1750,
    "1750,79": 1751,
    "1751,82": 1752,
    "1752,60": 1753,
    "1753,77": 1754,
    "462,79": 1755,
    "1592,73": 1756,
    "75,71": 1757,
    "1757,60": 1758,
    "1214,68": 1759,
    "23,11": 1760,
    "1760,1": 1761,
    "1068,64": 1762,
    "51,38": 1763,
    "292,66": 1764,
    "760,1": 1765,
    "52,13": 1766,
    "235,77": 1767,
    "1767,62": 1768,
    "283,70": 1769,
    "11,15": 1770,
    "1770,15": 1771,
    "1771,15": 1772,
    "155,80": 1773,
    "1773,73": 1774,
    "83,64": 1775,
    "1775,77": 1776,
    "40,68": 1777,
    "1777,31": 1778,
    "226,68": 1779,
    "1779,73": 1780,
    "125,73": 1781,
    "1676,71": 1782,
    "582,74": 1783,
    "1783,62": 1784,
    "1784,80": 1785,
    "1785,71": 1786,
    "1620,73": 1787,
    "1787,63": 1788,
    "1788,60": 1789,
    "1789,78": 1790,
    "591,78": 1791,
    "1791,68": 1792,
    "1792,61": 1793,
    "219,73": 1794,
    "1794,66": 1795,
    "1086,1": 1796,
    "117,73": 1797,
    "1463,1": 1798,
    "71,84": 1799,
    "60,11": 1800,
    "1800,1": 1801,
    "545,79": 1802,
    "899,61": 1803,
    "1803,68": 1804,
    "1804,79": 1805,
    "887,1": 1806,
    "200,66": 1807,
    "1807,77": 1808,
    "1808,60": 1809,
    "690,1": 1810,
    "276,64": 1811,
    "205,60": 1812,
    "554,77": 1813,
    "290,1": 1814,
    "546,73": 1815,
    "1815,64": 1816,
    "12,62": 1817,
    "1817,60": 1818,
    "1818,71": 1819,
    "1670,62": 1820,
    "1820,60": 1821,
    "226,71": 1822,
    "64,65": 1823,
    "1823,79": 1824,
    "1,31": 1825,
    "1825,32": 1826,
    "45,77": 1827,
    "1071,71": 1828,
    "1385,65": 1829,
    "235,79": 1830,
    "1830,1": 1831,
    "61,77": 1832,
    "338,74": 1833,
    "1833,75": 1834,
    "947,73": 1835,
    "498,75": 1836,
    "1836,71": 1837,
    "65,79": 1838,
    "1838,64": 1839,
    "1492,85": 1840,
    "1840,64": 1841,
    "560,64": 1842,
    "258,62": 1843,
    "1843,64": 1844,
    "8,9": 1845,
    "1774,62": 1846,
    "124,68": 1847,
    "1847,79": 1848,
    "1848,80": 1849,
    "1067,64": 1850,
    "1850,77": 1851,
    "485,62": 1852,
    "1715,78": 1853,
    "1853,79": 1854,
    "73,82": 1855,
    "1855,60": 1856,
    "31,42": 1857,
    "142,61": 1858,
    "194,67": 1859,
    "73,70": 1860,
    "1860,64": 1861,
    "1861,64": 1862,
    "16,5": 1863,
    "703,60": 1864,
    "1864,78": 1865,
    "1865,78": 1866,
    "117,79": 1867,
    "1136,1": 1868,
    "1188,74": 1869,
    "1869,72": 1870,
    "45,1": 1871,
    "47,68": 1872,
    "1872,81": 1873,
    "1873,64": 1874,
    "1874,77": 1875,
    "23,17": 1876,
    "1876,16": 1877,
    "262,77": 1878,
    "151,68": 1879,
    "1438,12": 1880,
    "1880,1": 1881,
    "202,80": 1882,
    "1062,71": 1883,
    "61,1": 1884,
    "403,62": 1885,
    "1885,79": 1886,
    "74,1": 1887,
    "60,82": 1888,
    "1888,1": 1889,
    "1777,78": 1890,
    "1890,78": 1891,
    "973,73": 1892,
    "51,64": 1893,
    "1893,73": 1894,
    "77,78": 1895,
    "1895,68": 1896,
    "1896,74": 1897,
    "1897,73": 1898,
    "41,64": 1899,
    "1899,68": 1900,
    "519,64": 1901,
    "1901,77": 1902,
    "48,67": 1903,
    "336,70": 1904,
    "364,72": 1905,
    "548,63": 1906,
    "597,78": 1907,
    "51,33": 1908,
    "412,61": 1909,
    "1909,73": 1910,
    "510,77": 1911,
    "1911,78": 1912,
    "1912,79": 1913,
    "960,77": 1914,
    "1243,24": 1915,
    "44,1": 1916,
    "705,61": 1917,
    "1268,74": 1918,
    "1244,67": 1919,
    "333,1": 1920,
    "579,63": 1921,
    "899,73": 1922,
    "139,74": 1923,
    "1832,80": 1924,
    "1924,60": 1925,
    "1925,77": 1926,
    "61,68": 1927,
    "153,64": 1928,
    "1927,79": 1929,
    "412,66": 1930,
    "1597,1": 1931,
    "1065,63": 1932,
    "153,79": 1933,
    "75,72": 1934,
    "1934,64": 1935,
    "1935,73": 1936,
    "1091,75": 1937,
    "1937,77": 1938,
    "1214,62": 1939,
    "1939,64": 1940,
    "114,1": 1941,
    "583,77": 1942,
    "1942,60": 1943,
    "1943,71": 1944,
    "30,63": 1945,
    "1945,74": 1946,
    "1946,75": 1947,
    "1947,79": 1948,
    "276,60": 1949,
    "485,63": 1950,
    "18,11": 1951,
    "1951,1": 1952,
    "601,62": 1953,
    "418,66": 1954,
    "1954,73": 1955,
    "546,78": 1956,
    "1956,71": 1957,
    "378,71": 1958,
    "1958,71": 1959,
    "1033,77": 1960,
    "124,77": 1961,
    "117,1": 1962,
    "1962,42": 1963,
    "1963,68": 1964,
    "22,15": 1965,
    "520,71": 1966,
    "1966,63": 1967,
    "408,60": 1968,
    "1965,15": 1969,
    "194,64": 1970,
    "150,73": 1971,
    "620,68": 1972,
    "1972,79": 1973,
    "1973,64": 1974,
    "548,78": 1975,
    "1975,79": 1976,
    "47,1": 1977,
    "1227,68": 1978,
    "486,77": 1979,
    "1979,64": 1980,
    "428,77": 1981,
    "716,62": 1982,
    "741,78": 1983,
    "806,68": 1984,
    "478,60": 1985,
    "1985,71": 1986,
    "822,80": 1987,
    "305,68": 1988,
    "1988,73": 1989,
    "12,61": 1990,
    "1990,68": 1991,
    "1991,79": 1992,
    "62,84": 1993,
    "60,64": 1994,
    "1994,71": 1995,
    "919,79": 1996,
    "668,64": 1997,
    "118,67": 1998,
    "16,24": 1999,
    "243,63": 2000,
    "2000,1": 2001,
    "72,80": 2002,
    "2002,78": 2003,
    "74,12": 2004,
    "219,72": 2005,
    "200,79": 2006,
    "35,64": 2007,
    "2007,63": 2008,
    "2008,64": 2009,
    "2009,77": 2010,
    "109,64": 2011,
    "932,60": 2012,
    "2012,79": 2013,
    "1592,1": 2014,
    "922,79": 2015,
    "66,67": 2016,
    "2016,60": 2017,
    "418,74": 2018,
    "78,61": 2019,
    "2019,60": 2020,
    "775,15": 2021,
    "38,30": 2022,
    "115,67": 2023,
    "309,1": 2024,
    "951,67": 2025,
    "9,9": 2026,
    "235,75": 2027,
    "2027,1": 2028,
    "2028,84": 2029,
    "2029,64": 2030,
    "2030,60": 2031,
    "1895,79": 2032,
    "549,64": 2033,
    "705,78": 2034,
    "868,67": 2035,
    "68,76": 2036,
    "2036,80": 2037,
    "13,32": 2038,
    "2038,13": 2039,
    "1747,78": 2040,
    "917,61": 2041,
    "2041,60": 2042,
    "1680,70": 2043,
    "2043,68": 2044,
    "1936,79": 2045,
    "412,71": 2046,
    "499,68": 2047,
    "2047,74": 2048,
    "311,62": 2049,
    "2049,79": 2050,
    "1,65": 2051,
    "2051,77": 2052,
    "2052,74": 2053,
    "2053,72": 2054,
    "368,79": 2055,
    "1448,72": 2056,
    "2056,60": 2057,
    "1020,73": 2058,
    "2058,79": 2059,
    "73,71": 2060,
    "2060,84": 2061,
    "2061,1": 2062,
    "137,74": 2063,
    "2063,71": 2064,
    "49,12": 2065,
    "680,1": 2066,
    "700,75": 2067,
    "2067,74": 2068,
    "2068,77": 2069,
    "2069,79": 2070,
    "66,88": 2071,
    "851,77": 2072,
    "67,1": 2073,
    "283,1": 2074,
    "48,60": 2075,
    "2075,73": 2076,
    "36,60": 2077,
    "2077,71": 2078,
    "2078,64": 2079,
    "2079,73": 2080,
    "1757,84": 2081,
    "1592,75": 2082,
    "327,84": 2083,
    "2083,78": 2084,
    "39,64": 2085,
    "2085,74": 2086,
    "72,1": 2087,
    "1927,73": 2088,
    "2088,74": 2089,
    "305,78": 2090,
    "1298,71": 2091,
    "307,71": 2092,
    "599,64": 2093,
    "628,77": 2094,
    "2094,73": 2095,
    "415,63": 2096,
    "960,63": 2097,
    "2097,64": 2098,
    "2098,77": 2099,
    "485,60": 2100,
    "1083,68": 2101,
    "463,73": 2102,
    "628,80": 2103,
    "2103,79": 2104,
    "1170,67": 2105,
    "69,74": 2106,
    "2106,84": 2107,
    "22,1": 2108,
    "2108,12": 2109,
    "60,84": 2110,
    "487,63": 2111,
    "19,8": 2112,
    "175,79": 2113,
    "2060,60": 2114,
    "2114,73": 2115,
    "2115,63": 2116,
    "571,73": 2117,
    "339,73": 2118,
    "38,78": 2119,
    "2119,77": 2120,
    "2120,60": 2121,
    "2121,64": 2122,
    "2122,71": 2123,
    "748,63": 2124,
    "275,1": 2125,
    "1,45": 2126,
    "2126,60": 2127,
    "2127,66": 2128,
    "2128,64": 2129,
    "1143,1": 2130,
    "463,61": 2131,
    "2131,64": 2132,
    "2132,77": 2133,
    "806,64": 2134,
    "2134,73": 2135,
    "45,74": 2136,
    "2136,64": 2137,
    "364,75": 2138,
    "2138,74": 2139,
    "2139,77": 2140,
    "1701,75": 2141,
    "1871,61": 2142,
    "2142,77": 2143,
    "75,67": 2144,
    "2144,74": 2145,
    "2145,73": 2146,
    "569,71": 2147,
    "13,8": 2148,
    "67,73": 2149,
    "2149,1": 2150,
    "737,79": 2151,
    "71,66": 2152,
    "1839,77": 2153,
    "1665,66": 2154,
    "287,60": 2155,
    "1001,64": 2156,
    "469,73": 2157,
    "748,73": 2158,
    "83,1": 2159,
    "126,78": 2160,
    "307,64": 2161,
    "946,74": 2162,
    "2162,77": 2163,
    "2096,1": 2164,
    "628,81": 2165,
    "2165,64": 2166,
    "678,1": 2167,
    "258,64": 2168,
    "2168,82": 2169,
    "299,77": 2170,
    "1083,84": 2171,
    "1324,64": 2172,
    "1487,1": 2173,
    "185,73": 2174,
    "311,77": 2175,
    "204,1": 2176,
    "624,78": 2177,
    "1137,60": 2178,
    "14,72": 2179,
    "2179,60": 2180,
    "48,79": 2181,
    "78,60": 2182,
    "79,71": 2183,
    "66,1": 2184,
    "2184,40": 2185,
    "1244,71": 2186,
    "77,70": 2187,
    "2187,64": 2188,
    "20,15": 2189,
    "2189,15": 2190,
    "1896,60": 2191,
    "2191,73": 2192,
    "354,78": 2193,
    "918,64": 2194,
    "594,80": 2195,
    "2195,78": 2196,
    "1985,77": 2197,
    "66,72": 2198,
    "486,68": 2199,
    "2199,73": 2200,
    "300,68": 2201,
    "1288,63": 2202,
    "917,71": 2203,
    "2203,72": 2204,
    "1,16": 2205,
    "336,63": 2206,
    "898,68": 2207,
    "2207,62": 2208,
    "50,78": 2209,
    "265,72": 2210,
    "2210,75": 2211,
    "1170,64": 2212,
    "1082,64": 2213,
    "182,64": 2214,
    "153,80": 2215,
    "2215,79": 2216,
    "79,8": 2217,
    "1288,84": 2218,
    "482,64": 2219,
    "518,79": 2220,
    "1087,16": 2221,
    "2221,24": 2222,
    "2144,60": 2223,
    "21,8": 2224,
    "1480,77": 2225,
    "1412,68": 2226,
    "2226,62": 2227,
    "50,73": 2228,
    "194,79": 2229,
    "2229,68": 2230,
    "78,82": 2231,
    "2231,64": 2232,
    "2232,77": 2233,
    "74,83": 2234,
    "293,64": 2235,
    "591,64": 2236,
    "2236,63": 2237,
    "142,77": 2238,
    "2238,64": 2239,
    "2239,73": 2240,
    "1817,64": 2241,
    "2241,73": 2242,
    "780,73": 2243,
    "77,67": 2244,
    "2244,60": 2245,
    "295,79": 2246,
    "3,48": 2247,
    "222,63": 2248,
    "16,23": 2249,
    "1678,68": 2250,
    "2250,60": 2251,
    "2251,73": 2252,
    "382,74": 2253,
    "71,65": 2254,
    "77,75": 2255,
    "64,84": 2256,
    "1244,68": 2257,
    "210,60": 2258,
    "595,62": 2259,
    "396,79": 2260,
    "718,64": 2261,
    "275,81": 2262,
    "682,64": 2263,
    "2005,64": 2264,
    "374,74": 2265,
    "2265,77": 2266,
    "468,60": 2267,
    "70,84": 2268,
    "550,61": 2269,
    "2269,64": 2270,
    "295,64": 2271,
    "2271,71": 2272,
    "677,73": 2273,
    "1171,68": 2274,
    "2274,72": 2275,
    "746,79": 2276,
    "2246,64": 2277,
    "1777,73": 2278,
    "2278,66": 2279,
    "660,63": 2280,
    "459,81": 2281,
    "2281,64": 2282,
    "408,81": 2283,
    "67,72": 2284,
    "714,67": 2285,
    "71,78": 2286,
    "2286,74": 2287,
    "2287,1": 2288,
    "262,68": 2289,
    "591,71": 2290,
    "468,64": 2291,
    "2291,77": 2292,
    "1339,78": 2293,
    "734,63": 2294,
    "309,73": 2295,
    "582,78": 2296,
    "2296,80": 2297,
    "2297,61": 2298,
    "319,1": 2299,
    "690,63": 2300,
    "63,1": 2301,
    "1625,64": 2302,
    "2302,79": 2303,
    "244,71": 2304,
    "2287,73": 2305,
    "333,74": 2306,
    "1464,64": 2307,
    "161,79": 2308,
    "28,1": 2309,
    "1961,80": 2310,
    "1713,80": 2311,
    "2311,79": 2312,
    "356,60": 2313,
    "2313,68": 2314,
    "156,60": 2315,
    "2315,61": 2316,
    "2316,71": 2317,
    "816,12": 2318,
    "17,15": 2319,
    "283,64": 2320,
    "478,79": 2321,
    "1419,68": 2322,
    "2322,78": 2323,
    "1,27": 2324,
    "2324,1": 2325,
    "428,78": 2326,
    "2326,78": 2327,
    "563,73": 2328,
    "2018,73": 2329,
    "49,1": 2330,
    "298,72": 2331,
    "182,77": 2332,
    "2002,73": 2333,
    "78,62": 2334,
    "18,12": 2335,
    "2335,16": 2336,
    "1832,64": 2337,
    "2110,1": 2338,
    "185,71": 2339,
    "20,8": 2340,
    "71,62": 2341,
    "2341,67": 2342,
    "2342,64": 2343,
    "2343,72": 2344,
    "226,73": 2345,
    "342,74": 2346,
    "74,67": 2347,
    "2347,64": 2348,
    "2348,72": 2349,
    "1855,67": 2350,
    "1799,1": 2351,
    "141,68": 2352,
    "2352,78": 2353,
    "468,68": 2354,
    "2334,74": 2355,
    "579,66": 2356,
    "428,60": 2357,
    "415,75": 2358,
    "2358,79": 2359,
    "579,72": 2360,
    "825,64": 2361,
    "2361,73": 2362,
    "2362,63": 2363,
    "528,72": 2364,
    "917,73": 2365,
    "919,63": 2366,
    "85,85": 2367,
    "141,60": 2368,
    "77,73": 2369,
    "2369,60": 2370,
    "2370,71": 2371,
    "1638,74": 2372,
    "32,71": 2373,
    "2373,64": 2374,
    "2374,81": 2375,
    "2375,64": 2376,
    "1288,1": 2377,
    "65,80": 2378,
    "2378,71": 2379,
    "75,66": 2380,
    "2380,77": 2381,
    "1703,68": 2382,
    "2382,60": 2383,
    "1038,79": 2384,
    "2384,67": 2385,
    "38,1": 2386,
    "98,1": 2387,
    "569,78": 2388,
    "222,78": 2389,
    "24,15": 2390,
    "2390,78": 2391,
    "2016,79": 2392,
    "55,64": 2393,
    "2393,73": 2394,
    "2394,60": 2395,
    "408,85": 2396,
    "2396,64": 2397,
    "135,71": 2398,
    "470,75": 2399,
    "741,62": 2400,
    "2273,66": 2401,
    "275,73": 2402,
    "571,61": 2403,
    "2403,68": 2404,
    "2404,71": 2405,
    "258,63": 2406,
    "2406,1": 2407,
    "15,58": 2408,
    "1757,64": 2409,
    "793,13": 2410,
    "973,1": 2411,
    "168,82": 2412,
    "2412,64": 2413,
    "2413,81": 2414,
    "307,63": 2415,
    "1579,73": 2416,
    "2416,63": 2417,
    "92,60": 2418,
    "2418,72": 2419,
    "458,71": 2420,
    "147,71": 2421,
    "2421,64": 2422,
    "2422,73": 2423,
    "66,80": 2424,
    "703,71": 2425,
    "275,74": 2426,
    "1357,74": 2427,
    "2427,65": 2428,
    "2428,1": 2429,
    "1704,64": 2430,
    "2355,75": 2431,
    "42,45": 2432,
    "2432,44": 2433,
    "612,66": 2434,
    "255,1": 2435,
    "35,13": 2436,
    "1065,1": 2437,
    "84,85": 2438,
    "72,63": 2439,
    "2439,60": 2440,
    "2440,78": 2441,
    "78,72": 2442,
    "1062,78": 2443,
    "822,64": 2444,
    "520,73": 2445,
    "2445,63": 2446,
    "1827,64": 2447,
    "2447,78": 2448,
    "2448,68": 2449,
    "2449,63": 2450,
    "373,73": 2451,
    "2451,63": 2452,
    "75,84": 2453,
    "754,64": 2454,
    "72,88": 2455,
    "258,77": 2456,
    "2456,74": 2457,
    "79,1": 2458,
    "857,80": 2459,
    "2459,73": 2460,
    "418,78": 2461,
    "211,77": 2462,
    "1097,64": 2463,
    "2463,72": 2464,
    "73,61": 2465,
    "2465,78": 2466,
    "2466,75": 2467,
    "1965,78": 2468,
    "333,64": 2469,
    "1,75": 2470,
    "2470,71": 2471,
    "2471,60": 2472,
    "42,1": 2473,
    "552,80": 2474,
    "307,62": 2475,
    "2475,79": 2476,
    "919,73": 2477,
    "470,73": 2478,
    "2478,63": 2479,
    "1694,73": 2480,
    "2480,63": 2481,
    "2481,1": 2482,
    "293,1": 2483,
    "17,8": 2484,
    "405,65": 2485,
    "2485,79": 2486,
    "2332,64": 2487,
    "1180,79": 2488,
    "394,75": 2489,
    "44,62": 2490,
    "307,79": 2491,
    "30,13": 2492,
    "673,72": 2493,
    "16,8": 2494,
    "486,1": 2495,
    "117,78": 2496,
    "84,1": 2497,
    "520,78": 2498,
    "385,80": 2499,
    "82,79": 2500,
    "2500,67": 2501,
    "1451,78": 2502,
    "12,52": 2503,
    "2503,68": 2504,
    "234,12": 2505,
    "637,62": 2506,
    "2506,71": 2507,
    "2507,64": 2508,
    "46,80": 2509,
    "612,77": 2510,
    "1298,72": 2511,
    "2511,60": 2512,
    "356,80": 2513,
    "339,71": 2514,
    "2514,64": 2515,
    "2515,72": 2516,
    "1083,82": 2517,
    "2517,64": 2518,
    "2518,64": 2519,
    "2161,71": 2520,
    "16,11": 2521,
    "2521,1": 2522,
    "35,74": 2523,
    "2523,77": 2524,
    "2524,62": 2525,
    "2525,64": 2526,
    "258,81": 2527,
    "582,62": 2528,
    "92,62": 2529,
    "2529,79": 2530,
    "749,73": 2531,
    "964,64": 2532,
    "71,81": 2533,
    "2533,60": 2534,
    "2534,63": 2535,
    "2535,74": 2536,
    "2536,77": 2537,
    "290,74": 2538,
    "2538,63": 2539,
    "528,75": 2540,
    "295,84": 2541,
    "2541,1": 2542,
    "2085,77": 2543,
    "764,80": 2544,
    "2544,63": 2545,
    "529,63": 2546,
    "15,1": 2547,
    "2547,12": 2548,
    "672,62": 2549,
    "2549,60": 2550,
    "2550,79": 2551,
    "1451,71": 2552,
    "1345,67": 2553,
    "760,67": 2554,
    "748,72": 2555,
    "774,64": 2556,
    "670,68": 2557,
    "142,74": 2558,
    "2558,75": 2559,
    "2559,64": 2560,
    "448,61": 2561,
    "1663,61": 2562,
    "2562,77": 2563,
    "61,73": 2564,
    "611,1": 2565,
    "1187,1": 2566,
    "283,67": 2567,
    "368,64": 2568,
    "2117,66": 2569,
    "50,48": 2570,
    "2109,1": 2571,
    "2228,68": 2572,
    "2572,81": 2573,
    "2573,64": 2574,
    "2574,77": 2575,
    "2575,78": 2576,
    "545,1": 2577,
    "306,73": 2578,
    "180,62": 2579,
    "2579,79": 2580,
    "1899,1": 2581,
    "2424,64": 2582,
    "204,73": 2583,
    "405,73": 2584,
    "1482,64": 2585,
    "2585,77": 2586,
    "70,78": 2587,
    "2587,1": 2588,
    "1127,62": 2589,
    "2589,67": 2590,
    "112,71": 2591,
    "1968,71": 2592,
    "932,70": 2593,
    "2593,64": 2594,
    "2594,84": 2595,
    "1412,77": 2596,
    "2596,60": 2597,
    "486,87": 2598,
    "65,65": 2599,
    "579,77": 2600,
    "164,63": 2601,
    "2601,1": 2602,
    "6,1": 2603,
    "386,61": 2604,
    "2604,1": 2605,
    "1600,79": 2606,
    "612,62": 2607,
    "2607,79": 2608,
    "1083,1": 2609,
    "1917,64": 2610,
    "2610,77": 2611,
    "1757,74": 2612,
    "2612,72": 2613,
    "2613,60": 2614,
    "458,73": 2615,
    "76,80": 2616,
    "560,79": 2617,
    "65,12": 2618,
    "129,60": 2619,
    "2619,73": 2620,
    "2426,77": 2621,
    "957,77": 2622,
    "98,68": 2623,
    "2623,62": 2624,
    "173,73": 2625,
    "878,71": 2626,
    "1458,73": 2627,
    "2106,77": 2628,
    "79,73": 2629,
    "2629,60": 2630,
    "2630,72": 2631,
    "1,56": 2632,
    "38,72": 2633,
    "2633,60": 2634,
    "2634,66": 2635,
    "378,78": 2636,
    "1676,79": 2637,
    "327,77": 2638,
    "1276,79": 2639,
    "2301,74": 2640,
    "2640,65": 2641,
    "2641,1": 2642,
    "30,66": 2643,
    "2643,64": 2644,
    "1287,79": 2645,
    "2365,1": 2646,
    "78,88": 2647,
    "428,82": 2648,
    "2282,77": 2649,
    "2649,73": 2650,
    "2308,64": 2651,
    "2651,72": 2652,
    "699,12": 2653,
    "202,73": 2654,
    "130,15": 2655,
    "2655,15": 2656,
    "364,84": 2657,
    "2657,1": 2658,
    "51,1": 2659,
    "114,71": 2660,
    "1065,78": 2661,
    "2661,79": 2662,
    "2662,68": 2663,
    "2663,79": 2664,
    "548,66": 2665,
    "2665,64": 2666,
    "983,60": 2667,
    "84,62": 2668,
    "2668,71": 2669,
    "1720,79": 2670,
    "364,60": 2671,
    "959,64": 2672,
    "612,71": 2673,
    "305,73": 2674,
    "2674,84": 2675,
    "2675,1": 2676,
    "960,73": 2677,
    "69,68": 2678,
    "293,75": 2679,
    "684,1": 2680,
    "943,78": 2681,
    "2681,79": 2682,
    "257,73": 2683,
    "258,73": 2684,
    "2684,66": 2685,
    "616,84": 2686,
    "2103,77": 2687,
    "482,78": 2688,
    "2688,79": 2689,
    "73,6": 2690,
    "2690,79": 2691,
    "52,60": 2692,
    "2692,77": 2693,
    "156,1": 2694,
    "705,73": 2695,
    "142,78": 2696,
    "67,63": 2697,
    "2697,60": 2698,
    "248,66": 2699,
    "48,64": 2700,
    "2700,62": 2701,
    "2701,77": 2702,
    "2702,64": 2703,
    "822,68": 2704,
    "2704,74": 2705,
    "2705,73": 2706,
    "131,8": 2707,
    "893,67": 2708,
    "1139,73": 2709,
    "1333,68": 2710,
    "2710,79": 2711,
    "482,62": 2712,
    "45,44": 2713,
    "32,85": 2714,
    "2714,64": 2715,
    "2715,62": 2716,
    "2716,67": 2717,
    "151,62": 2718,
    "2718,79": 2719,
    "311,74": 2720,
    "2720,71": 2721,
    "1214,83": 2722,
    "2369,1": 2723,
    "245,71": 2724,
    "2724,68": 2725,
    "283,71": 2726,
    "373,60": 2727,
    "2727,70": 2728,
    "128,72": 2729,
    "2729,64": 2730,
    "2730,73": 2731,
    "68,80": 2732,
    "231,1": 2733,
    "2188,79": 2734,
    "1157,77": 2735,
    "448,79": 2736,
    "204,63": 2737,
    "1568,30": 2738,
    "93,1": 2739,
    "360,61": 2740,
    "2740,64": 2741,
    "1720,63": 2742,
    "1004,73": 2743,
    "2743,64": 2744,
    "2744,62": 2745,
    "2745,79": 2746,
    "70,65": 2747,
    "2747,71": 2748,
    "2748,74": 2749,
    "2749,82": 2750,
    "1652,1": 2751,
    "92,72": 2752,
    "15,8": 2753,
    "760,60": 2754,
    "1507,63": 2755,
    "135,78": 2756,
    "1949,71": 2757,
    "1,67": 2758,
    "2389,74": 2759,
    "2759,1": 2760,
    "1972,77": 2761,
    "2267,78": 2762,
    "1982,68": 2763,
    "2763,75": 2764,
    "249,60": 2765,
    "2765,78": 2766,
    "2406,64": 2767,
    "2767,63": 2768,
    "948,62": 2769,
    "748,62": 2770,
    "2770,67": 2771,
    "709,1": 2772,
    "73,85": 2773,
    "2773,64": 2774,
    "571,80": 2775,
    "2775,78": 2776,
    "601,68": 2777,
    "2777,72": 2778,
    "283,78": 2779,
    "1127,73": 2780,
    "30,68": 2781,
    "2781,77": 2782,
    "700,60": 2783,
    "489,60": 2784,
    "2784,79": 2785,
    "2785,67": 2786,
    "219,78": 2787,
    "485,84": 2788,
    "2393,60": 2789,
    "2789,71": 2790,
    "1568,79": 2791,
    "2791,74": 2792,
    "15,78": 2793,
    "2793,1": 2794,
    "1298,1": 2795,
    "690,79": 2796,
    "1,35": 2797,
    "2797,74": 2798,
    "2798,77": 2799,
    "2799,62": 2800,
    "2800,64": 2801,
    "185,79": 2802,
    "348,74": 2803,
    "1042,84": 2804,
    "700,68": 2805,
    "2805,79": 2806,
    "805,79": 2807,
    "917,82": 2808,
    "2616,64": 2809,
    "307,72": 2810,
    "2810,64": 2811,
    "1202,69": 2812,
    "2812,64": 2813,
    "2813,62": 2814,
    "2183,64": 2815,
    "778,79": 2816,
    "2319,15": 2817,
    "70,1": 2818,
    "219,60": 2819,
    "2094,79": 2820,
    "1156,1": 2821,
    "1620,12": 2822,
    "2822,1": 2823,
    "72,8": 2824,
    "2824,1": 2825,
    "2549,79": 2826,
    "612,73": 2827,
    "945,17": 2828,
    "753,74": 2829,
    "1746,79": 2830,
    "11,1": 2831,
    "262,60": 2832,
    "554,1": 2833,
    "9,32": 2834,
    "2834,84": 2835,
    "2835,79": 2836,
    "2836,74": 2837,
    "954,75": 2838,
    "2838,67": 2839,
    "2444,71": 2840,
    "352,72": 2841,
    "2841,68": 2842,
    "2842,73": 2843,
    "2843,68": 2844,
    "47,11": 2845,
    "2845,1": 2846,
    "2638,64": 2847,
    "65,1": 2848,
    "74,84": 2849,
    "13,1": 2850,
    "546,74": 2851,
    "2851,73": 2852,
    "275,78": 2853,
    "131,73": 2854,
    "2443,60": 2855,
    "2855,73": 2856,
    "817,1": 2857,
    "748,1": 2858,
    "228,66": 2859,
    "572,75": 2860,
    "2860,67": 2861,
    "973,63": 2862,
    "948,85": 2863,
    "2863,64": 2864,
    "2864,73": 2865,
    "558,77": 2866,
    "85,74": 2867,
    "899,75": 2868,
    "731,84": 2869,
    "870,71": 2870,
    "2870,64": 2871,
    "2528,64": 2872,
    "1388,1": 2873,
    "339,1": 2874,
    "124,64": 2875,
    "2875,72": 2876,
    "2770,79": 2877,
    "2296,79": 2878,
    "2878,60": 2879,
    "1758,62": 2880,
    "2880,64": 2881,
    "142,63": 2882,
    "1033,79": 2883,
    "73,12": 2884,
    "2270,79": 2885,
    "61,69": 2886,
    "2886,64": 2887,
    "2887,62": 2888,
    "2888,79": 2889,
    "1708,80": 2890,
    "2301,65": 2891,
    "2891,77": 2892,
    "2892,74": 2893,
    "2893,72": 2894,
    "1883,63": 2895,
    "182,63": 2896,
    "1073,64": 2897,
    "2897,77": 2898,
    "478,64": 2899,
    "1230,73": 2900,
    "2900,78": 2901,
    "2901,80": 2902,
    "760,80": 2903,
    "2903,77": 2904,
    "1254,77": 2905,
    "2905,77": 2906,
    "2906,68": 2907,
    "2907,78": 2908,
    "2908,74": 2909,
    "2909,73": 2910,
    "590,73": 2911,
    "418,79": 2912,
    "430,12": 2913,
    "2913,1": 2914,
    "472,67": 2915,
    "2421,80": 2916,
    "2916,64": 2917,
    "159,1": 2918,
    "741,60": 2919,
    "43,64": 2920,
    "2920,82": 2921,
    "1797,79": 2922,
    "498,66": 2923,
    "2923,77": 2924,
    "1059,77": 2925,
    "2925,73": 2926,
    "1839,73": 2927,
    "1055,1": 2928,
    "716,79": 2929,
    "12,1": 2930,
    "83,75": 2931,
    "1333,75": 2932,
    "41,68": 2933,
    "2933,78": 2934,
    "2934,79": 2935
  },
  "next_id": 2936
}