{
  "id2token": {
    "0": "\n",
    "1": " ",
    "2": "!",
    "3": "#",
    "4": "$",
    "5": "%",
    "6": "'",
    "7": "(",
    "8": ")",
    "9": "*",
    "10": "+",
    "11": ",",
    "12": "-",
    "13": ".",
    "14": "/",
    "15": "0",
    "16": "1",
    "17": "2",
    "18": "3",
    "19": "4",
    "20": "5",
    "21": "6",
    "22": "7",
    "23": "8",
    "24": "9",
    "25": ":",
    "26": ";",
    "27": "=",
    "28": "?",
    "29": "@",
    "30": "A",
    "31": "B",
    "32": "C",
    "33": "D",
    "34": "E",
    "35": "F",
    "36": "G",
    "37": "H",
    "38": "I",
    "39": "J",
    "40": "K",
    "41": "L",
    "42": "M",
    "43": "N",
    "44": "O",
    "45": "P",
    "46": "Q",
    "47": "R",
    "48": "S",
    "49": "T",
    "50": "U",
    "51": "V",
    "52": "W",
    "53": "X",
    "54": "Y",
    "55": "Z",
    "56": "\\",
    "57": "^",
    "58": "_",
    "59": "`",
    "60": "a",
    "61": "b",
    "62": "c",
    "63": "d",
    "64": "e",
    "65": "f",
    "66": "g",
    "67": "h",
    "68": "i",
    "69": "j",
    "70": "k",
    "71": "l",
    "72": "m",
    "73": "n",
    "74": "o",
    "75": "p",
    "76": "q",
    "77": "r",
    "78": "s",
    "79": "t",
    "80": "u",
    "81": "v",
    "82": "w",
    "83": "x",
    "84": "y",
    "85": "z",
    "86": "{",
    "87": "|",
    "88": "}",
    "89": "~",
    "90": "<|endoftext|>",
    "91": "<pad>",
    "92": "li",
    "93": "lie",
    "94": "ik",
    "95": "ike",
    "96": "Ro",
    "97": "Rom",
    "98": "us",
    "99": "usc",
    "100": "uscu",
    "101": "uscul",
    "102": "pa",
    "103": "pai",
    "104": "pain",
    "105": "id",
    "106": "ida",
    "107": "iday",
    "108": ".*",
    "109": "ol",
    "110": "olu",
    "111": "olut",
    "112": "ue",
    "113": "ue ",
    "114": "ge",
    "115": "get",
    "116": "geta",
    "117": "me",
    "118": "op",
    "119": "opp",
    "120": "oppe",
    "121": "opped",
    "122": "OG",
    "123": "OGI",
    "124": "st",
    "125": "sto",
    "126": "ta",
    "127": "tai",
    "128": "ve",
    "129": "vel",
    "130": "9,",
    "131": "ow",
    "132": "owe",
    "133": "owev",
    "134": "9 ",
    "135": "ca",
    "136": "can",
    "137": "ym",
    "138": "ymp",
    "139": "ry",
    "140": "ry ",
    "141": "gl",
    "142": "ur",
    "143": "uri",
    "144": "urin",
    "145": "r.",
    "146": "r. ",
    "147": "va",
    "148": "kn",
    "149": "kno",
    "150": "know",
    "151": "un",
    "152": "und",
    "153": "ec",
    "154": "eco",
    "155": "no",
    "156": "not",
    "157": "au",
    "158": "aul",
    "159": "ek",
    "160": ";1",
    "161": "ys",
    "162": "ysi",
    "163": "ysis",
    "164": "ha",
    "165": "han",
    "166": "han ",
    "167": "uc",
    "168": "Ho",
    "169": "Hon",
    "170": "Hong",
    "171": "il",
    "172": "ily",
    "173": "usa",
    "174": "usad",
    "175": "by",
    "176": "gg",
    "177": "gge",
    "178": "gges",
    "179": "ggest",
    "180": "re",
    "181": "red",
    "182": "we",
    "183": "wes",
    "184": "west",
    "185": "da",
    "186": "day",
    "187": " t",
    "188": " th",
    "189": " tha",
    "190": " that",
    "191": "sy",
    "192": "sys",
    "193": "syst",
    "194": "ic",
    "195": "ica",
    "196": "ican",
    "197": "on",
    "198": "oni",
    "199": "onia",
    "200": "mi",
    "201": "min",
    "202": "ig",
    "203": "igr",
    "204": "de",
    "205": "der",
    "206": "deri",
    "207": "tat",
    "208": "tati",
    "209": "gs",
    "210": "eg",
    "211": "ego",
    "212": "egon",
    "213": " o",
    "214": " of",
    "215": " of ",
    "216": "D ",
    "217": "D -",
    "218": "D --",
    "219": "ti",
    "220": "til",
    "221": "till",
    "222": "al",
    "223": "alo",
    "224": "ree",
    "225": "ree ",
    "226": "ga",
    "227": "gam",
    "228": "lo",
    "229": "loc",
    "230": "loci",
    "231": "th",
    "232": "tha",
    "233": "than",
    "234": "1 ",
    "235": "ea",
    "236": "ean",
    "237": "eans",
    "238": "eans ",
    "239": "uch",
    "240": "uch ",
    "241": "uch a",
    "242": "uch as",
    "243": "use",
    "244": "pu",
    "245": "pub",
    "246": "vo",
    "247": "thi",
    "248": "thin",
    "249": "am",
    "250": "amm",
    "251": "rem",
    "252": "tab",
    "253": "tabl",
    "254": "table",
    "255": "it",
    "256": "itu",
    "257": "ch",
    "258": "vi",
    "259": "vis",
    "260": "visi",
    "261": "re ",
    "262": "ed",
    "263": "ed ",
    "264": "wr",
    "265": "Co",
    "266": "Cor",
    "267": "Cort",
    "268": "Sp",
    "269": "Spa",
    "270": "be",
    "271": "bel",
    "272": "beli",
    "273": "belie",
    "274": "ower",
    "275": "er",
    "276": "eri",
    "277": "erio",
    "278": "eriod",
    "279": "vil",
    "280": "vily",
    "281": "hh",
    "282": "hhh",
    "283": "is",
    "284": "isa",
    "285": "isam",
    "286": "isamb",
    "287": "nn",
    "288": "nni",
    "289": "nnis",
    "290": "wo",
    "291": "yi",
    "292": "yin",
    "293": "el",
    "294": "eld",
    "295": "an",
    "296": "anc",
    "297": "opo",
    "298": "bu",
    "299": "na",
    "300": "nat",
    "301": "era",
    "302": "sk",
    "303": "skr",
    "304": "skri",
    "305": "ma",
    "306": "mag",
    "307": "ra",
    "308": "ras",
    "309": "ke",
    "310": "ker",
    "311": "ne",
    "312": "neg",
    "313": "negi",
    "314": "6,",
    "315": "6, ",
    "316": "if",
    "317": "ifi",
    "318": "ific",
    "319": "ot",
    "320": "otb",
    "321": "otba",
    "322": "otbal",
    "323": "otball",
    "324": "Bo",
    "325": "Bow",
    "326": "Bowl",
    "327": "wa",
    "328": "as",
    "329": "as ",
    "330": "cha",
    "331": "chan",
    "332": "chani",
    "333": "ad",
    "334": "add",
    "335": "tic",
    "336": "oo",
    "337": "oop",
    "338": "sh",
    "339": "to",
    "340": "tok",
    "341": "toku",
    "342": "tr",
    "343": "tra",
    "344": "tras",
    "345": "trast",
    "346": "ont",
    "347": "onth",
    "348": "tt",
    "349": "tte",
    "350": "tter",
    "351": "Th",
    "352": "e ",
    "353": "om",
    "354": "oma",
    "355": "oman",
    "356": "rt",
    "357": "rte",
    "358": "ov",
    "359": "ove",
    "360": "ovem",
    "361": "oveme",
    "362": "ovemen",
    "363": "ild",
    "364": "or",
    "365": "ork",
    "366": "thm",
    "367": "omp",
    "368": "pi",
    "369": "pir",
    "370": "ela",
    "371": "elan",
    "372": "om ",
    "373": "pe",
    "374": "per",
    "375": "peri",
    "376": "iv",
    "377": "ive",
    "378": "wi",
    "379": "wit",
    "380": "with",
    "381": "dr",
    "382": "rr",
    "383": "rre",
    "384": "rren",
    "385": "ang",
    "386": "su",
    "387": "suc",
    "388": "such",
    "389": "'s",
    "390": "'s ",
    "391": "tc",
    "392": "tch",
    "393": "eland",
    "394": "ty",
    "395": "ty ",
    "396": "do",
    "397": "dow",
    "398": "down",
    "399": "and",
    "400": "and "
  },
  "merges": {
    "71,68": 92,
    "92,64": 93,
    "68,70": 94,
    "94,64": 95,
    "47,74": 96,
    "96,72": 97,
    "80,78": 98,
    "98,62": 99,
    "99,80": 100,
    "100,71": 101,
    "75,60": 102,
    "102,68": 103,
    "103,73": 104,
    "68,63": 105,
    "105,60": 106,
    "106,84": 107,
    "13,9": 108,
    "74,71": 109,
    "109,80": 110,
    "110,79": 111,
    "80,64": 112,
    "112,1": 113,
    "66,64": 114,
    "114,79": 115,
    "115,60": 116,
    "72,64": 117,
    "74,75": 118,
    "118,75": 119,
    "119,64": 120,
    "120,63": 121,
    "44,36": 122,
    "122,38": 123,
    "78,79": 124,
    "124,74": 125,
    "79,60": 126,
    "126,68": 127,
    "81,64": 128,
    "128,71": 129,
    "24,11": 130,
    "74,82": 131,
    "131,64": 132,
    "132,81": 133,
    "24,1": 134,
    "62,60": 135,
    "135,73": 136,
    "84,72": 137,
    "137,75": 138,
    "77,84": 139,
    "139,1": 140,
    "66,71": 141,
    "80,77": 142,
    "142,68": 143,
    "143,73": 144,
    "77,13": 145,
    "145,1": 146,
    "81,60": 147,
    "70,73": 148,
    "148,74": 149,
    "149,82": 150,
    "80,73": 151,
    "151,63": 152,
    "64,62": 153,
    "153,74": 154,
    "73,74": 155,
    "155,79": 156,
    "60,80": 157,
    "157,71": 158,
    "64,70": 159,
    "26,16": 160,
    "84,78": 161,
    "161,68": 162,
    "162,78": 163,
    "67,60": 164,
    "164,73": 165,
    "165,1": 166,
    "80,62": 167,
    "37,74": 168,
    "168,73": 169,
    "169,66": 170,
    "68,71": 171,
    "171,84": 172,
    "98,60": 173,
    "173,63": 174,
    "61,84": 175,
    "66,66": 176,
    "176,64": 177,
    "177,78": 178,
    "178,79": 179,
    "77,64": 180,
    "180,63": 181,
    "82,64": 182,
    "182,78": 183,
    "183,79": 184,
    "63,60": 185,
    "185,84": 186,
    "1,79": 187,
    "187,67": 188,
    "188,60": 189,
    "189,79": 190,
    "78,84": 191,
    "191,78": 192,
    "192,79": 193,
    "68,62": 194,
    "194,60": 195,
    "195,73": 196,
    "74,73": 197,
    "197,68": 198,
    "198,60": 199,
    "72,68": 200,
    "200,73": 201,
    "68,66": 202,
    "202,77": 203,
    "63,64": 204,
    "204,77": 205,
    "205,68": 206,
    "126,79": 207,
    "207,68": 208,
    "66,78": 209,
    "64,66": 210,
    "210,74": 211,
    "211,73": 212,
    "1,74": 213,
    "213,65": 214,
    "214,1": 215,
    "33,1": 216,
    "216,12": 217,
    "217,12": 218,
    "79,68": 219,
    "219,71": 220,
    "220,71": 221,
    "60,71": 222,
    "222,74": 223,
    "180,64": 224,
    "224,1": 225,
    "66,60": 226,
    "226,72": 227,
    "71,74": 228,
    "228,62": 229,
    "229,68": 230,
    "79,67": 231,
    "231,60": 232,
    "232,73": 233,
    "16,1": 234,
    "64,60": 235,
    "235,73": 236,
    "236,78": 237,
    "237,1": 238,
    "167,67": 239,
    "239,1": 240,
    "240,60": 241,
    "241,78": 242,
    "98,64": 243,
    "75,80": 244,
    "244,61": 245,
    "81,74": 246,
    "231,68": 247,
    "247,73": 248,
    "60,72": 249,
    "249,72": 250,
    "180,72": 251,
    "126,61": 252,
    "252,71": 253,
    "253,64": 254,
    "68,79": 255,
    "255,80": 256,
    "62,67": 257,
    "81,68": 258,
    "258,78": 259,
    "259,68": 260,
    "180,1": 261,
    "64,63": 262,
    "262,1": 263,
    "82,77": 264,
    "32,74": 265,
    "265,77": 266,
    "266,79": 267,
    "48,75": 268,
    "268,60": 269,
    "61,64": 270,
    "270,71": 271,
    "271,68": 272,
    "272,64": 273,
    "132,77": 274,
    "64,77": 275,
    "275,68": 276,
    "276,74": 277,
    "277,63": 278,
    "258,71": 279,
    "279,84": 280,
    "67,67": 281,
    "281,67": 282,
    "68,78": 283,
    "283,60": 284,
    "284,72": 285,
    "285,61": 286,
    "73,73": 287,
    "287,68": 288,
    "288,78": 289,
    "82,74": 290,
    "84,68": 291,
    "291,73": 292,
    "64,71": 293,
    "293,63": 294,
    "60,73": 295,
    "295,62": 296,
    "118,74": 297,
    "61,80": 298,
    "73,60": 299,
    "299,79": 300,
    "275,60": 301,
    "78,70": 302,
    "302,77": 303,
    "303,68": 304,
    "72,60": 305,
    "305,66": 306,
    "77,60": 307,
    "307,78": 308,
    "70,64": 309,
    "309,77": 310,
    "73,64": 311,
    "311,66": 312,
    "312,68": 313,
    "21,11": 314,
    "314,1": 315,
    "68,65": 316,
    "316,68": 317,
    "317,62": 318,
    "74,79": 319,
    "319,61": 320,
    "320,60": 321,
    "321,71": 322,
    "322,71": 323,
    "31,74": 324,
    "324,82": 325,
    "325,71": 326,
    "82,60": 327,
    "60,78": 328,
    "328,1": 329,
    "257,60": 330,
    "330,73": 331,
    "331,68": 332,
    "60,63": 333,
    "333,63": 334,
    "219,62": 335,
    "74,74": 336,
    "336,75": 337,
    "78,67": 338,
    "79,74": 339,
    "339,70": 340,
    "340,80": 341,
    "79,77": 342,
    "342,60": 343,
    "343,78": 344,
    "344,79": 345,
    "197,79": 346,
    "346,67": 347,
    "79,79": 348,
    "348,64": 349,
    "349,77": 350,
    "49,67": 351,
    "64,1": 352,
    "74,72": 353,
    "353,60": 354,
    "354,73": 355,
    "77,79": 356,
    "356,64": 357,
    "74,81": 358,
    "358,64": 359,
    "359,72": 360,
    "360,64": 361,
    "361,73": 362,
    "171,63": 363,
    "74,77": 364,
    "364,70": 365,
    "231,72": 366,
    "353,75": 367,
    "75,68": 368,
    "368,77": 369,
    "293,60": 370,
    "370,73": 371,
    "353,1": 372,
    "75,64": 373,
    "373,77": 374,
    "374,68": 375,
    "68,81": 376,
    "376,64": 377,
    "82,68": 378,
    "378,79": 379,
    "379,67": 380,
    "63,77": 381,
    "77,77": 382,
    "382,64": 383,
    "383,73": 384,
    "295,66": 385,
    "78,80": 386,
    "386,62": 387,
    "387,67": 388,
    "6,78": 389,
    "389,1": 390,
    "79,62": 391,
    "391,67": 392,
    "371,63": 393,
    "79,84": 394,
    "394,1": 395,
    "63,74": 396,
    "396,82": 397,
    "397,73": 398,
    "295,63": 399,
    "399,1": 400
  },
  "next_id": 401
}