{
  "id2token": {
    "0": "\n",
    "1": " ",
    "2": "!",
    "3": "#",
    "4": "$",
    "5": "%",
    "6": "'",
    "7": "(",
    "8": ")",
    "9": "*",
    "10": "+",
    "11": ",",
    "12": "-",
    "13": ".",
    "14": "/",
    "15": "0",
    "16": "1",
    "17": "2",
    "18": "3",
    "19": "4",
    "20": "5",
    "21": "6",
    "22": "7",
    "23": "8",
    "24": "9",
    "25": ":",
    "26": ";",
    "27": "=",
    "28": "?",
    "29": "@",
    "30": "A",
    "31": "B",
    "32": "C",
    "33": "D",
    "34": "E",
    "35": "F",
    "36": "G",
    "37": "H",
    "38": "I",
    "39": "J",
    "40": "K",
    "41": "L",
    "42": "M",
    "43": "N",
    "44": "O",
    "45": "P",
    "46": "Q",
    "47": "R",
    "48": "S",
    "49": "T",
    "50": "U",
    "51": "V",
    "52": "W",
    "53": "X",
    "54": "Y",
    "55": "Z",
    "56": "\\",
    "57": "^",
    "58": "_",
    "59": "`",
    "60": "a",
    "61": "b",
    "62": "c",
    "63": "d",
    "64": "e",
    "65": "f",
    "66": "g",
    "67": "h",
    "68": "i",
    "69": "j",
    "70": "k",
    "71": "l",
    "72": "m",
    "73": "n",
    "74": "o",
    "75": "p",
    "76": "q",
    "77": "r",
    "78": "s",
    "79": "t",
    "80": "u",
    "81": "v",
    "82": "w",
    "83": "x",
    "84": "y",
    "85": "z",
    "86": "{",
    "87": "|",
    "88": "}",
    "89": "~",
    "90": "<|endoftext|>",
    "91": "<pad>",
    "92": "<USER> ",
    "93": "<ASSISTANT> ",
    "94": "lg",
    "95": "lga",
    "96": "lgae",
    "97": "re",
    "98": "rea",
    "99": "reas",
    "100": "se",
    "101": "sel",
    "102": "self",
    "103": "ea",
    "104": "eac",
    "105": "eact",
    "106": "ns",
    "107": "ns ",
    "108": "an",
    "109": "ani",
    "110": "anie",
    "111": "anies",
    "112": "fi",
    "113": "fin",
    "114": "fini",
    "115": "D ",
    "116": "D -",
    "117": "nl",
    "118": "nly",
    "119": "ly",
    "120": "lyi",
    "121": "lyin",
    "122": "lying",
    "123": "pa",
    "124": "ss",
    "125": "ssu",
    "126": "ssur",
    "127": "be",
    "128": "ber",
    "129": "bert",
    "130": "na",
    "131": "nar",
    "132": "nard",
    "133": "it",
    "134": "itu",
    "135": "itut",
    "136": "ed",
    "137": "edi",
    "138": "ne",
    "139": "ner",
    "140": "ex",
    "141": "exa",
    "142": "ll",
    "143": "lle",
    "144": "lley",
    "145": "hu",
    "146": "hus",
    "147": "la",
    "148": "lat",
    "149": "eu",
    "150": "eud",
    "151": "wa",
    "152": "war",
    "153": "ware",
    "154": "tl",
    "155": "tle",
    "156": "tle ",
    "157": "ul",
    "158": "ull",
    "159": "if",
    "160": "ifo",
    "161": "ifor",
    "162": "iforn",
    "163": "ifi",
    "164": "gr",
    "165": "gre",
    "166": "gree",
    "167": "rd",
    "168": "da",
    "169": "dar",
    "170": "st",
    "171": "sti",
    "172": "stiv",
    "173": "St",
    "174": "2 ",
    "175": "2 -",
    "176": "Ki",
    "177": "Kin",
    "178": "King",
    "179": "Kingd",
    "180": "Kingdo",
    "181": "rr",
    "182": "rra",
    "183": "rray",
    "184": "ro",
    "185": "roo",
    "186": "room",
    "187": "ic",
    "188": "ich",
    "189": "ha",
    "190": "har",
    "191": "1%",
    "192": "lk",
    "193": "yz",
    "194": "yza",
    "195": "yzan",
    "196": "co",
    "197": "cot",
    "198": "up",
    "199": "upe",
    "200": "uper",
    "201": "el",
    "202": " t",
    "203": " to",
    "204": "pr",
    "205": "pre",
    "206": "pret",
    "207": "ho",
    "208": "hor",
    "209": "hord",
    "210": "AI",
    "211": "AIM",
    "212": "hoo",
    "213": "hool",
    "214": "gy",
    "215": "gyp",
    "216": "gypt",
    "217": "fu",
    "218": "fir",
    "219": "firm",
    "220": "wt",
    "221": "wth",
    "222": "po",
    "223": "por",
    "224": "ca",
    "225": "cas",
    "226": "mb",
    "227": "mbo",
    "228": "mbol",
    "229": "),",
    "230": "), ",
    "231": "pi",
    "232": "pil",
    "233": "pilo",
    "234": "ren",
    "235": "rena",
    "236": "ith",
    "237": "ithe",
    "238": "fie",
    "239": "fiel",
    "240": "field",
    "241": ")#",
    "242": "al",
    "243": "all",
    "244": "ally",
    "245": "ally ",
    "246": " a",
    "247": " an",
    "248": " and",
    "249": "ig",
    "250": "igo",
    "251": "ir",
    "252": "irt",
    "253": "irth",
    "254": "no",
    "255": "now",
    "256": "nown",
    "257": "er",
    "258": "ere",
    "259": "erem",
    "260": "rod",
    "261": "rodu",
    "262": "roduc",
    "263": "A ",
    "264": "le",
    "265": "lew",
    "266": "so",
    "267": "sor",
    "268": "as",
    "269": "as ",
    "270": "ru",
    "271": "rus",
    "272": "rust",
    "273": " b",
    "274": " br",
    "275": "be ",
    "276": "on",
    "277": "ong",
    "278": "ongo",
    "279": "ase",
    "280": "ased",
    "281": "oo",
    "282": "ool",
    "283": "mbe",
    "284": "mber",
    "285": "00",
    "286": "000",
    "287": "em",
    "288": "ema",
    "289": "bb",
    "290": "bby",
    "291": "ug",
    "292": "ug ",
    "293": "is",
    "294": "iss",
    "295": "issa",
    "296": "issan",
    "297": "issanc",
    "298": "issance",
    "299": "il",
    "300": "ilo",
    "301": "ilos",
    "302": "iloso",
    "303": "li",
    "304": "lip",
    "305": "eat",
    "306": "ph",
    "307": "phe",
    "308": "phew",
    "309": "ice",
    "310": "icen",
    "311": "ol",
    "312": "si",
    "313": "sio",
    "314": "sion",
    "315": "tr",
    "316": "tro",
    "317": "ot",
    "318": "ot ",
    "319": "eb",
    "320": "eba",
    "321": "L ",
    "322": "rm",
    "323": "nb",
    "324": "ct",
    "325": "cti",
    "326": "ctic",
    "327": "ga",
    "328": "gam",
    "329": "9%",
    "330": "ird",
    "331": "ird ",
    "332": "ju",
    "333": "jus",
    "334": "just",
    "335": "Od",
    "336": "Ody",
    "337": "Odys",
    "338": "sso",
    "339": "ssoc",
    "340": "ssoci",
    "341": "ssocia",
    "342": "Ma",
    "343": "Mac",
    "344": "af",
    "345": "aft",
    "346": "afte",
    "347": "et",
    "348": "ety",
    "349": "etyl",
    "350": "ty",
    "351": "typ",
    "352": "rl",
    "353": "rly",
    "354": "igh",
    "355": "ben",
    "356": "benc",
    "357": "bench",
    "358": "in",
    "359": "in ",
    "360": "was",
    "361": "was ",
    "362": "to",
    "363": "tom",
    "364": "gd",
    "365": "gda",
    "366": "gdal",
    "367": "He",
    "368": "He ",
    "369": "ra",
    "370": "rag",
    "371": "e ",
    "372": "e t",
    "373": "e to",
    "374": "ur",
    "375": "urc",
    "376": "Bo",
    "377": "hod",
    "378": "Co",
    "379": "(b",
    "380": "(b.",
    "381": "(b. ",
    "382": "nd",
    "383": "nda",
    "384": "ndan",
    "385": "zi",
    "386": "elb",
    "387": "rc",
    "388": "rch",
    "389": "ine",
    "390": "ined",
    "391": "lo",
    "392": "low",
    "393": "lown",
    "394": "pt",
    "395": "pti",
    "396": "sit",
    "397": "op",
    "398": "opl",
    "399": "hy",
    "400": "hyp",
    "401": "ma",
    "402": "mbl",
    "403": "Ka",
    "404": "om",
    "405": "omb",
    "406": "ombi",
    "407": "ombia",
    "408": "7%",
    "409": "ib",
    "410": "ibb",
    "411": "TO",
    "412": "bl",
    "413": "bli",
    "414": "lot",
    "415": "bo",
    "416": "bou",
    "417": "bout",
    "418": "otb",
    "419": "otba",
    "420": "rma",
    "421": "rmal",
    "422": " =",
    "423": " = ",
    "424": "lor",
    "425": "lord",
    "426": "x ",
    "427": "lu",
    "428": "lud",
    "429": "lude",
    "430": "L b",
    "431": "L br",
    "432": "ou",
    "433": "oun",
    "434": "ount",
    "435": "av",
    "436": "ave",
    "437": "aver",
    "438": "ag",
    "439": "age",
    "440": "ia",
    "441": "iat",
    "442": "aso",
    "443": "ason",
    "444": "oma",
    "445": "read",
    "446": "ready",
    "447": ",:",
    "448": "jur",
    "449": "icl",
    "450": "icle",
    "451": "bi",
    "452": "bil",
    "453": "bili",
    "454": "It",
    "455": "It ",
    "456": "ow",
    "457": "owe",
    "458": "owev",
    "459": "oweve",
    "460": "un",
    "461": "uni",
    "462": "unit",
    "463": "cap",
    "464": "cape",
    "465": "caped",
    "466": "cag",
    "467": "cago",
    "468": "ify",
    "469": "Ho",
    "470": "How",
    "471": "Howe",
    "472": "Howev",
    "473": "Howeve",
    "474": "Di",
    "475": "Dig",
    "476": "Digi",
    "477": "ve",
    "478": "vem",
    "479": "vemb",
    "480": "vembe",
    "481": "sig",
    "482": "sign",
    "483": "io",
    "484": "ior",
    "485": "7 ",
    "486": "cc",
    "487": "cco",
    "488": "ar",
    "489": "arp",
    "490": "arpl",
    "491": "arple",
    "492": "3)",
    "493": "inn",
    "494": "inni",
    "495": "innin",
    "496": "inning",
    "497": "gu",
    "498": "gus",
    "499": "gust",
    "500": "ery",
    "501": "ery ",
    "502": "ser",
    "503": "ern",
    "504": "th",
    "505": "thu",
    "506": "thur",
    "507": "cto",
    "508": "ctor",
    "509": "fy",
    "510": "dd",
    "511": "dde",
    "512": "Qu",
    "513": "at",
    "514": "ati",
    "515": "atis",
    "516": "atisf",
    "517": "ev",
    "518": "eve",
    "519": "ever",
    "520": "exan",
    "521": "exand",
    "522": "ad",
    "523": "ade",
    "524": "ader",
    "525": "l ",
    "526": "ithm",
    "527": "dr",
    "528": "art",
    "529": "arte",
    "530": "lex",
    "531": "H ",
    "532": "H -",
    "533": ". ",
    "534": "ta",
    "535": "tag",
    "536": "te",
    "537": "tes",
    "538": "*U",
    "539": "*Un",
    "540": "*Uni",
    "541": "*Univ",
    "542": "*Unive",
    "543": "*Univer",
    "544": "ba",
    "545": "bab",
    "546": "7)",
    "547": "7)*",
    "548": "bis",
    "549": "bisc",
    "550": "biscu",
    "551": "Ca",
    "552": "xa",
    "553": "xan",
    "554": "xand",
    "555": "sc",
    "556": "sch",
    "557": "eth",
    "558": "ctu",
    "559": "ctur",
    "560": "thm",
    "561": "xp",
    "562": "xpl",
    "563": "mar",
    "564": "ri",
    "565": "#K",
    "566": "t)",
    "567": "hou",
    "568": "houg",
    "569": "hough",
    "570": "rt",
    "571": "Re",
    "572": "llo",
    "573": "mp",
    "574": "mpo",
    "575": "mpos",
    "576": "oc",
    "577": "oca",
    "578": "ocau",
    "579": "ocaus",
    "580": "ocaust",
    "581": "im",
    "582": "imp",
    "583": "impo",
    "584": "iq",
    "585": "iqu",
    "586": "las",
    "587": "lass",
    "588": "pe",
    "589": "pen",
    "590": "nc",
    "591": "nch",
    "592": "kr",
    "593": "kra",
    "594": "az",
    "595": "azi",
    "596": "azin",
    "597": "azine",
    "598": "ti",
    "599": "tir",
    "600": "tire",
    "601": "ult",
    "602": "Va",
    "603": "Val",
    "604": "Vall",
    "605": "rb",
    "606": "avy",
    "607": "rui",
    "608": "ruis",
    "609": "he",
    "610": "her",
    "611": "Te",
    "612": "Tes",
    "613": "Tess",
    "614": "lay",
    "615": "opt",
    "616": "cl",
    "617": "clu",
    "618": "clud",
    "619": "ay",
    "620": "ays",
    "621": "ary",
    "622": "ary ",
    "623": "pab",
    "624": "pabl",
    "625": "pable",
    "626": "ili",
    "627": "ond",
    "628": ").",
    "629": "wn",
    "630": "wn ",
    "631": "pon",
    "632": "ei",
    "633": "ein",
    "634": "einz",
    "635": "mpl",
    "636": "mple",
    "637": "ft",
    "638": "fte",
    "639": "A C",
    "640": "ems",
    "641": "ems ",
    "642": "ya",
    "643": "yan",
    "644": "ela",
    "645": "ini",
    "646": "inio",
    "647": "inion",
    "648": "Je",
    "649": "Jes",
    "650": "Jesu",
    "651": "M ",
    "652": "M -",
    "653": "itt",
    "654": "itte",
    "655": "ina",
    "656": "inal",
    "657": "lf",
    "658": "lfo",
    "659": "lfon",
    "660": "ui",
    "661": "uil",
    "662": "ym",
    "663": "or",
    "664": "orp",
    "665": "orpo",
    "666": "nah",
    "667": "naho",
    "668": "tec",
    "669": "tect",
    "670": "unc",
    "671": "e=",
    "672": "ai",
    "673": "aim",
    "674": "mi",
    "675": "mia",
    "676": "mial",
    "677": "Pi",
    "678": "Pil",
    "679": "Pilo",
    "680": "Pilot",
    "681": "ino",
    "682": "vi",
    "683": "vie",
    "684": "viet",
    "685": "8 ",
    "686": "8 #",
    "687": "eatu",
    "688": "eatur",
    "689": "isi",
    "690": "cle",
    "691": "cles",
    "692": "clesi",
    "693": "-G",
    "694": "ov",
    "695": "ovi",
    "696": "ovie",
    "697": "ec",
    "698": "eck",
    "699": "Be",
    "700": "Ben",
    "701": "Benc",
    "702": "Bench",
    "703": "tar",
    "704": "aii",
    "705": "CL",
    "706": "mat",
    "707": "emp",
    "708": "ann",
    "709": "anno",
    "710": "ng",
    "711": "nge",
    "712": "lb",
    "713": "lbu",
    "714": "lbum",
    "715": "ni",
    "716": "nis",
    "717": "Au",
    "718": "Aut",
    "719": "Auto",
    "720": "yl",
    "721": "yle",
    "722": "M-",
    "723": "str",
    "724": "stro",
    "725": " A",
    "726": "4t",
    "727": "4th",
    "728": "P ",
    "729": "P b",
    "730": "P br",
    "731": "ab",
    "732": "abe",
    "733": "abet",
    "734": "law",
    "735": "je",
    "736": "jec",
    "737": "alr",
    "738": "alry",
    "739": "Bou",
    "740": "Bour",
    "741": "ife",
    "742": "oni",
    "743": "ord",
    "744": "ap",
    "745": "apa",
    "746": "ang",
    "747": "ange",
    "748": "angel",
    "749": "log",
    "750": "lim",
    "751": "Cor",
    "752": "Corp",
    "753": "Corpo",
    "754": "Corpor",
    "755": "Corpora",
    "756": "id",
    "757": "ide",
    "758": "iden",
    "759": "mo",
    "760": "mot",
    "761": "irs",
    "762": "par",
    "763": "lea",
    "764": "ds",
    "765": "rat",
    "766": "pu",
    "767": "pus",
    "768": "e-",
    "769": "?*",
    "770": "d ",
    "771": "d n",
    "772": "d no",
    "773": "d not",
    "774": "Ei",
    "775": "Eis",
    "776": "Eise",
    "777": "Eisen",
    "778": "nan",
    "779": " ar",
    "780": " art",
    "781": "uri",
    "782": "urin",
    "783": "me",
    "784": "me ",
    "785": "ke",
    "786": "qu",
    "787": "que",
    "788": "Yo",
    "789": "Yor",
    "790": "York",
    "791": "nt",
    "792": "ntr",
    "793": "ntry",
    "794": "pie",
    "795": "piec",
    "796": "piece",
    "797": "ight",
    "798": "uc",
    "799": "Br",
    "800": "cu",
    "801": "cut",
    "802": "eren",
    "803": "erenc",
    "804": "gan",
    "805": "pp",
    "806": "ppo",
    "807": "sy",
    "808": "syc",
    "809": "sych",
    "810": "ddl",
    "811": "Ai",
    "812": "Air",
    "813": "tes ",
    "814": "cy",
    "815": "cyt",
    "816": "of",
    "817": "of ",
    "818": "ted",
    "819": "DI",
    "820": "DIV",
    "821": "DIV ",
    "822": "ked",
    "823": "noo",
    "824": "noon",
    "825": "pir",
    "826": "= ",
    "827": "ue",
    "828": "ue ",
    "829": "nes",
    "830": "ness",
    "831": "So",
    "832": "Son",
    "833": "Song",
    "834": "0 ",
    "835": "0 -",
    "836": "0 - ",
    "837": "hav",
    "838": "nea",
    "839": "id ",
    "840": "Po",
    "841": "Pow",
    "842": "Powe",
    "843": "5 ",
    "844": "5 -",
    "845": "dn",
    "846": "gat",
    "847": "nta",
    "848": "rmi",
    "849": "d.",
    "850": "tt",
    "851": "ttp",
    "852": "*1",
    "853": "*19",
    "854": "tav",
    "855": "olo",
    "856": "? ",
    "857": "ona",
    "858": "onal",
    "859": "ud",
    "860": "dq",
    "861": "dqu",
    "862": "dquo",
    "863": "hn",
    "864": "jo",
    "865": "jor",
    "866": "igi",
    "867": "igio",
    "868": "sp",
    "869": "spi",
    "870": "spit",
    "871": "NU",
    "872": "NU ",
    "873": "ilot",
    "874": "du",
    "875": "dus",
    "876": "dust",
    "877": "gl",
    "878": "gla",
    "879": "ell",
    "880": "su",
    "881": "lt",
    "882": "ltu",
    "883": "ltur",
    "884": "ch",
    "885": "chu",
    "886": "chur",
    "887": "churc",
    "888": "church",
    "889": "ge",
    "890": "ger",
    "891": "es",
    "892": "ese",
    "893": "rn",
    "894": "rna",
    "895": "cor",
    "896": "cord",
    "897": "res",
    "898": "resi",
    "899": "resid",
    "900": "ucl",
    "901": "itl",
    "902": "men",
    "903": "mens",
    "904": "imo",
    "905": "imon",
    "906": "f-",
    "907": "ail",
    "908": "ye",
    "909": "yea",
    "910": "year",
    "911": "sex",
    "912": "tah",
    "913": "4 ",
    "914": ".*",
    "915": "we",
    "916": "weh",
    "917": "lf-",
    "918": "soc",
    "919": "soci",
    "920": "socia",
    "921": "ist",
    "922": "isto",
    "923": "eum",
    "924": "ota",
    "925": "otal",
    "926": "tw",
    "927": "two",
    "928": "twor",
    "929": "au",
    "930": "aur",
    "931": "aura",
    "932": "IP",
    "933": "ee",
    "934": "een",
    "935": "nte",
    "936": "nten",
    "937": "ntent",
    "938": "ars",
    "939": "fo",
    "940": "mati",
    "941": "havi",
    "942": "havio",
    "943": "tto",
    "944": "ttom",
    "945": "ncy",
    "946": "ie",
    "947": "iel",
    "948": "ield",
    "949": "am",
    "950": "ame",
    "951": "amen",
    "952": "lask",
    "953": "mbi",
    "954": "en",
    "955": "ene",
    "956": "bg",
    "957": "bgc",
    "958": "bgco",
    "959": "wo",
    "960": "ran",
    "961": "rans",
    "962": "oot",
    "963": "ootb",
    "964": "ootba",
    "965": "Sov",
    "966": "Sovi",
    "967": "Sovie",
    "968": "Soviet",
    "969": "has",
    "970": "has ",
    "971": "vir",
    "972": "viro",
    "973": "rig",
    "974": "rigi",
    "975": "rigin",
    "976": "tie",
    "977": "ment",
    "978": "omo",
    "979": "arc",
    "980": "arch",
    "981": "sic",
    "982": "con",
    "983": "cono",
    "984": "conom",
    "985": "sul",
    "986": " /",
    "987": " /t",
    "988": "ari",
    "989": "rg",
    "990": "rgo",
    "991": "r ",
    "992": "r o",
    "993": "r of",
    "994": "r of ",
    "995": "od",
    "996": "odo",
    "997": "odon",
    "998": "ome",
    "999": "omen",
    "1000": "ze",
    "1001": "ze ",
    "1002": "erm",
    "1003": "erms",
    "1004": "tage",
    "1005": "ons",
    "1006": "onst",
    "1007": "fr",
    "1008": "fro",
    "1009": "frob",
    "1010": "frobe",
    "1011": "vid",
    "1012": "vide",
    "1013": "vided",
    "1014": "ither",
    "1015": "De",
    "1016": "Deg",
    "1017": "Dege",
    "1018": "Degen",
    "1019": "fe",
    "1020": "fes",
    "1021": "fess",
    "1022": "sk",
    "1023": "6 ",
    "1024": "6 -",
    "1025": "les",
    "1026": "less",
    "1027": "til",
    "1028": "moc",
    "1029": "mocr",
    "1030": "rup",
    "1031": "rupt",
    "1032": "inc",
    "1033": "fri",
    "1034": "fric",
    "1035": "frica",
    "1036": "iz",
    "1037": "way",
    "1038": "By",
    "1039": "Bye",
    "1040": "Byer",
    "1041": "emb",
    "1042": "ip",
    "1043": "ipl",
    "1044": "fy ",
    "1045": "nat",
    "1046": "nati",
    "1047": "nly ",
    "1048": " 0",
    "1049": "ci",
    "1050": "cin",
    "1051": "cinn",
    "1052": "rro",
    "1053": "rrow",
    "1054": "coh",
    "1055": "coho",
    "1056": "cohol",
    "1057": "gs",
    "1058": "rad",
    "1059": "za",
    "1060": "zab",
    "1061": "rol",
    "1062": "roll",
    "1063": "cha",
    "1064": "elo",
    "1065": "elop",
    "1066": "nst",
    "1067": "Th",
    "1068": "The",
    "1069": "The ",
    "1070": "hr",
    "1071": "g ",
    "1072": "ark",
    "1073": "int",
    "1074": "ida",
    "1075": "idal",
    "1076": "ass",
    "1077": "7 -",
    "1078": "7 - ",
    "1079": "err",
    "1080": "erre",
    "1081": "eas",
    "1082": "cil",
    "1083": "cill",
    "1084": "ira",
    "1085": "irab",
    "1086": "irabl",
    "1087": "va",
    "1088": "van",
    "1089": "vann",
    "1090": "hi",
    "1091": "hir",
    "1092": "hird",
    "1093": "ac",
    "1094": "act",
    "1095": "era",
    "1096": "eral",
    "1097": "duc",
    "1098": "duce",
    "1099": "duce ",
    "1100": "ut",
    "1101": "ute",
    "1102": "uter",
    "1103": "anp",
    "1104": "anpo",
    "1105": "gi",
    "1106": "gic",
    "1107": "dua",
    "1108": "ge ",
    "1109": "ge o",
    "1110": "ge of",
    "1111": "ge of ",
    "1112": "tai",
    "1113": "inis",
    "1114": "opp",
    "1115": "Ch",
    "1116": "Chu",
    "1117": "Chur",
    "1118": "Churc",
    "1119": "Church",
    "1120": "eur",
    "1121": "wd",
    "1122": "abs",
    "1123": "abso",
    "1124": "absol",
    "1125": "absolu",
    "1126": "absolut",
    "1127": "ors",
    "1128": "orse",
    "1129": "lar",
    "1130": "lare",
    "1131": "sult",
    "1132": "at ",
    "1133": "rin",
    "1134": "tf",
    "1135": "tfo",
    "1136": "onse",
    "1137": "onser",
    "1138": "onserv",
    "1139": "Bro",
    "1140": "Brow",
    "1141": "Brown",
    "1142": "can",
    "1143": "can ",
    "1144": "ent",
    "1145": "ent ",
    "1146": "liv",
    "1147": "live",
    "1148": "isl",
    "1149": "uth",
    "1150": "edia",
    "1151": "ediat",
    "1152": "bs",
    "1153": "bst",
    "1154": "bsta",
    "1155": "bstan",
    "1156": "**",
    "1157": "h ",
    "1158": "yer",
    "1159": "Col",
    "1160": "Coll",
    "1161": "Colle",
    "1162": "Colleg",
    "1163": "ous",
    "1164": "Bourd",
    "1165": "yi",
    "1166": "yin",
    "1167": "ying",
    "1168": "cue",
    "1169": "cued",
    "1170": "ria",
    "1171": "tat",
    "1172": "tate",
    "1173": "6 /",
    "1174": "6 /s",
    "1175": "!-",
    "1176": "go",
    "1177": "gov",
    "1178": "gove",
    "1179": "gover",
    "1180": "govern",
    "1181": "bee",
    "1182": "been",
    "1183": "um",
    "1184": "ume",
    "1185": "en ",
    "1186": "fec",
    "1187": "fect",
    "1188": "tu",
    "1189": "tur",
    "1190": "ture",
    "1191": "Mal",
    "1192": "Male",
    "1193": ")*",
    "1194": "/o",
    "1195": "ess",
    "1196": "eci",
    "1197": "Boo",
    "1198": "Book",
    "1199": "ned",
    "1200": "ned ",
    "1201": "tio",
    "1202": "y ",
    "1203": "see",
    "1204": "see ",
    "1205": "ys",
    "1206": "yst",
    "1207": "yste",
    "1208": "ystem",
    "1209": "lba",
    "1210": "lban",
    "1211": "ngl",
    "1212": "ngle",
    "1213": "ter",
    "1214": "tern",
    "1215": "us",
    "1216": "ey",
    "1217": "ey,",
    "1218": "ey, ",
    "1219": "the",
    "1220": "thel",
    "1221": "thele",
    "1222": "theles",
    "1223": "theless",
    "1224": "boo",
    "1225": "book",
    "1226": "nct",
    "1227": "ls",
    "1228": "lso",
    "1229": "lson",
    "1230": "tal",
    "1231": "ID",
    "1232": "nu",
    "1233": "tem",
    "1234": "tema",
    "1235": "urr",
    "1236": "urre",
    "1237": "urren",
    "1238": "ebr",
    "1239": "ebru",
    "1240": "ebrua",
    "1241": "ebruar",
    "1242": "bel",
    "1243": "fs",
    "1244": " V",
    "1245": " VI",
    "1246": "rti",
    "1247": "tho",
    "1248": "thou",
    "1249": "aid",
    "1250": "ely",
    "1251": "os",
    "1252": "ose",
    "1253": "A.",
    "1254": "ki",
    "1255": "kis",
    "1256": "e th",
    "1257": "/t",
    "1258": "To",
    "1259": "Tor",
    "1260": "Toro",
    "1261": "Toron",
    "1262": "Toront",
    "1263": "yp",
    "1264": "ype",
    "1265": ".S",
    "1266": "fa",
    "1267": "far",
    "1268": "fare",
    "1269": "rec",
    "1270": "rect",
    "1271": "19",
    "1272": "spr",
    "1273": "spre",
    "1274": "sprea",
    "1275": "fl",
    "1276": "fla",
    "1277": "flat",
    "1278": "*A",
    "1279": "ss ",
    "1280": "rk",
    "1281": "nla",
    "1282": "nlan",
    "1283": "nland",
    "1284": "tla",
    "1285": "clude",
    "1286": "irc",
    "1287": "use",
    "1288": "use ",
    "1289": "3%",
    "1290": "rar",
    "1291": "its",
    "1292": "o ",
    "1293": "o n",
    "1294": "o no",
    "1295": "o not",
    "1296": "ptis",
    "1297": "gn",
    "1298": "gni",
    "1299": "ici",
    "1300": "8 -",
    "1301": "8 - ",
    "1302": "if ",
    "1303": "fee",
    "1304": "feet",
    "1305": "TD",
    "1306": ")|",
    "1307": "irst",
    "1308": "natio",
    "1309": "nation",
    "1310": "xam",
    "1311": "xamp",
    "1312": "xampl",
    "1313": "ear",
    "1314": "earc",
    "1315": "bj",
    "1316": "bje",
    "1317": "bjec",
    "1318": "bject",
    "1319": "jum",
    "1320": "jump",
    "1321": "S ",
    "1322": "nce",
    "1323": "ylv",
    "1324": "ylva",
    "1325": "ylvan",
    "1326": ".e",
    "1327": "ody",
    "1328": "odyn",
    "1329": "odyna",
    "1330": "fre",
    "1331": "fred",
    "1332": "uct",
    "1333": "uctu",
    "1334": "ver",
    "1335": "vers",
    "1336": "versi",
    "1337": "versio",
    "1338": "version",
    "1339": "entr",
    "1340": "gm",
    "1341": "gma",
    "1342": "any",
    "1343": "ele",
    "1344": "elec",
    "1345": "elect",
    "1346": "pic",
    "1347": "pica",
    "1348": "pical",
    "1349": "ce",
    "1350": "cem",
    "1351": "cemb",
    "1352": "cembe",
    "1353": "cember",
    "1354": "sun",
    "1355": "suna",
    "1356": "inin",
    "1357": "bar",
    "1358": "cho",
    "1359": "iev",
    "1360": "pri",
    "1361": "han",
    "1362": "han ",
    "1363": "2 /",
    "1364": "2 /s",
    "1365": "al ",
    "1366": "lie",
    "1367": " /td",
    "1368": " E",
    "1369": " Er",
    "1370": " Era",
    "1371": " Eras",
    "1372": "ete",
    "1373": "ica",
    "1374": "rado",
    "1375": "ad ",
    "1376": "lam",
    "1377": "yag",
    "1378": "uctur",
    "1379": "eag",
    "1380": "eagu",
    "1381": "eig",
    "1382": "eign",
    "1383": "eg",
    "1384": "R ",
    "1385": "199",
    "1386": "owl",
    "1387": "ndm",
    "1388": "ndme",
    "1389": "univ",
    "1390": "unive",
    "1391": "univer",
    "1392": "univers",
    "1393": "tc",
    "1394": "tc.",
    "1395": "Gr",
    "1396": "led",
    "1397": "abl",
    "1398": "mos",
    "1399": "most",
    "1400": "9)",
    "1401": "hen",
    "1402": "hen ",
    "1403": "r=",
    "1404": "pos",
    "1405": "xi",
    "1406": "xid",
    "1407": "nti",
    "1408": "ntio",
    "1409": "ntion",
    "1410": "br",
    "1411": "bra",
    "1412": "brai",
    "1413": "brain",
    "1414": "ove",
    "1415": "ovem",
    "1416": "oveme",
    "1417": "ovemen",
    "1418": "di",
    "1419": "dic",
    "1420": "erl",
    "1421": "enc",
    "1422": "ja",
    "1423": "jad",
    "1424": "wr",
    "1425": "wri",
    "1426": "writ",
    "1427": "cia",
    "1428": "cial",
    "1429": "21",
    "1430": "I ",
    "1431": "sil",
    "1432": "silv",
    "1433": "silve",
    "1434": "viden",
    "1435": "nai",
    "1436": "nais",
    "1437": "naiss",
    "1438": "naissa",
    "1439": "naissan",
    "1440": "Ba",
    "1441": "Bar",
    "1442": "Baro",
    "1443": "Baron",
    "1444": "NF",
    "1445": "NFL",
    "1446": "inom",
    "1447": "egi",
    "1448": "egin",
    "1449": "sh",
    "1450": "shi",
    "1451": "ship",
    "1452": "rinc",
    "1453": "thoug",
    "1454": "ir ",
    "1455": "ctio",
    "1456": "ction",
    "1457": "jam",
    "1458": "how",
    "1459": "rre",
    "1460": "rrec",
    "1461": "0 /",
    "1462": "0 /s",
    "1463": "0 /su",
    "1464": "gdo",
    "1465": "m ",
    "1466": "m b",
    "1467": "m br",
    "1468": "gc",
    "1469": "gco",
    "1470": "rac",
    "1471": "racu",
    "1472": "racul",
    "1473": "dy",
    "1474": "dy ",
    "1475": "isio",
    "1476": "ision",
    "1477": "lag",
    "1478": "Wh",
    "1479": "oved",
    "1480": "not",
    "1481": "irm",
    "1482": "irma",
    "1483": "irman",
    "1484": "5t",
    "1485": "5th",
    "1486": "yme",
    "1487": "ymen",
    "1488": "de",
    "1489": "eath",
    "1490": "ssi",
    "1491": "ssil",
    "1492": "etr",
    "1493": "aus",
    "1494": "aust",
    "1495": "cet",
    "1496": "9 ",
    "1497": "9 -",
    "1498": "9 - ",
    "1499": "Am",
    "1500": "Ame",
    "1501": "Amer",
    "1502": "Ameri",
    "1503": "hic",
    "1504": "hicl",
    "1505": "per",
    "1506": "cid",
    "1507": "Ex",
    "1508": "Ext",
    "1509": "Exte",
    "1510": "st ",
    "1511": "abli",
    "1512": "8)",
    "1513": "1 ",
    "1514": "1 -",
    "1515": "1 - ",
    "1516": "Eu",
    "1517": "Eur",
    "1518": "Euro",
    "1519": "Europ",
    "1520": "Europe",
    "1521": "foo",
    "1522": "foot",
    "1523": "footb",
    "1524": "footba",
    "1525": "cul",
    "1526": "cula",
    "1527": "cular",
    "1528": "mpa",
    "1529": "mpas",
    "1530": "mpass",
    "1531": "gg",
    "1532": "gge",
    "1533": "En",
    "1534": "Eno",
    "1535": "rce",
    "1536": "ay ",
    "1537": "igr",
    "1538": "igra",
    "1539": "omm",
    "1540": "ymn",
    "1541": "ymna",
    "1542": "uss",
    "1543": "ussi",
    "1544": "ussia",
    "1545": "3 ",
    "1546": "3 -",
    "1547": "nci",
    "1548": "ncip",
    "1549": "lid",
    "1550": "iv",
    "1551": "iva",
    "1552": "ival",
    "1553": "d o",
    "1554": "d of",
    "1555": "d of ",
    "1556": "uo",
    "1557": "uou",
    "1558": "uous",
    "1559": "Ea",
    "1560": "Eas",
    "1561": "East",
    "1562": "opu",
    "1563": "opul",
    "1564": "cui",
    "1565": "cuis",
    "1566": "icu",
    "1567": "icul",
    "1568": "icult",
    "1569": "CP",
    "1570": "CPU",
    "1571": "ry",
    "1572": "ryl",
    "1573": "ral",
    "1574": "din",
    "1575": "ding",
    "1576": "6)",
    "1577": "br ",
    "1578": "do",
    "1579": "dor",
    "1580": "zat",
    "1581": "6t",
    "1582": "6th",
    "1583": "ts",
    "1584": "tsm",
    "1585": "'t",
    "1586": "ific",
    "1587": "ifica",
    "1588": "ifican",
    "1589": "ces",
    "1590": "exu",
    "1591": "exua",
    "1592": "oa",
    "1593": "oad",
    "1594": "Se",
    "1595": "ruc",
    "1596": "ruct",
    "1597": "CM",
    "1598": "C.",
    "1599": "mor",
    "1600": "morp",
    "1601": "morph",
    "1602": "nag",
    "1603": "bre",
    "1604": "brev",
    "1605": "oto",
    "1606": "otop",
    "1607": "ce ",
    "1608": "Can",
    "1609": "Cana",
    "1610": "Canad",
    "1611": "xin",
    "1612": "xing",
    "1613": "rand",
    "1614": "orm",
    "1615": "bsp",
    "1616": "our",
    "1617": "oura",
    "1618": "ourag",
    "1619": "nn",
    "1620": "nno",
    "1621": "eo",
    "1622": "eor",
    "1623": "uro",
    "1624": "tb",
    "1625": "tba",
    "1626": "chn",
    "1627": "ugh",
    "1628": "ris",
    "1629": "mbr",
    "1630": "mbr ",
    "1631": "she",
    "1632": "she ",
    "1633": "afe",
    "1634": "ocu",
    "1635": "ocum",
    "1636": "sw",
    "1637": "swe",
    "1638": "swer",
    "1639": "sb",
    "1640": "sba",
    "1641": "fus",
    "1642": "xil",
    "1643": "xili",
    "1644": "xilia",
    "1645": "ifu",
    "1646": "iful",
    "1647": "e o",
    "1648": "e of",
    "1649": "e of ",
    "1650": "Ot",
    "1651": "Ott",
    "1652": "Otto",
    "1653": "eca",
    "1654": "ecam",
    "1655": "ecame",
    "1656": "lan",
    "1657": "land",
    "1658": "ngs",
    "1659": "iff",
    "1660": "ibl",
    "1661": "eme",
    "1662": "emen",
    "1663": "cen",
    "1664": "cent",
    "1665": "kes",
    "1666": "kes ",
    "1667": "nam",
    "1668": "name",
    "1669": "tiv",
    "1670": "Pa",
    "1671": "Pal",
    "1672": "Pale",
    "1673": "Pales",
    "1674": "Palest",
    "1675": "ved",
    "1676": "ved ",
    "1677": "bat",
    "1678": "eep",
    "1679": "ule",
    "1680": "cou",
    "1681": "istr",
    "1682": "istri",
    "1683": "istrib",
    "1684": "istribu",
    "1685": "td",
    "1686": "ua",
    "1687": "uat",
    "1688": "eari",
    "1689": "earin",
    "1690": "earing",
    "1691": "pera",
    "1692": "nd ",
    "1693": "nd o",
    "1694": "nd of",
    "1695": "nd of ",
    "1696": "ka",
    "1697": "kan",
    "1698": ".)",
    "1699": "gin",
    "1700": "gine",
    "1701": "rv",
    "1702": "el ",
    "1703": "ing",
    "1704": "ing ",
    "1705": "ash",
    "1706": "ause",
    "1707": "fied",
    "1708": "ath",
    "1709": "ath ",
    "1710": "pro",
    "1711": "prov",
    "1712": "provi",
    "1713": "mn",
    "1714": "mne",
    "1715": "mnen",
    "1716": "ert",
    "1717": "erta",
    "1718": "ertai",
    "1719": "ertain",
    "1720": "cow",
    "1721": "ysi",
    "1722": "kin",
    "1723": "lit",
    "1724": "liti",
    "1725": "litic",
    "1726": "erf",
    "1727": "erfo",
    "1728": "erfor",
    "1729": "rou",
    "1730": "roup",
    "1731": "Or",
    "1732": "Ort",
    "1733": "Orth",
    "1734": "flu",
    "1735": "flue",
    "1736": "fluen",
    "1737": "rth",
    "1738": "rthe",
    "1739": "rther",
    "1740": "rog",
    "1741": "rogr",
    "1742": "XF",
    "1743": "nk",
    "1744": "J ",
    "1745": "J -",
    "1746": "gol",
    "1747": "gold",
    "1748": "cte",
    "1749": "rly ",
    "1750": "bbe",
    "1751": "bbed",
    "1752": "oi",
    "1753": "oit",
    "1754": "ince",
    "1755": "bal",
    "1756": "ball",
    "1757": "-Q",
    "1758": "-Qa",
    "1759": "-Qae",
    "1760": "-Qaed",
    "1761": "oll",
    "1762": "olle",
    "1763": "olleg",
    "1764": "gh",
    "1765": "gha",
    "1766": "gham",
    "1767": "pora",
    "1768": "vo",
    "1769": "vol",
    "1770": "y,",
    "1771": "y, ",
    "1772": "rri",
    "1773": "rrie",
    "1774": "Ag",
    "1775": "gar",
    "1776": "gard",
    "1777": "umen",
    "1778": "ument",
    "1779": "aye",
    "1780": "ayer",
    "1781": "inu",
    "1782": "lad",
    "1783": "ladi",
    "1784": "ladia",
    "1785": "ladiat",
    "1786": "ladiato",
    "1787": "ladiator",
    "1788": "sed",
    "1789": "ght",
    "1790": "bes",
    "1791": "ef",
    "1792": "vin",
    "1793": "ony",
    "1794": "onym",
    "1795": "over",
    "1796": "xf",
    "1797": "xfo",
    "1798": "xfor",
    "1799": "ial",
    "1800": "wh",
    "1801": "who",
    "1802": "ste",
    "1803": "stem",
    "1804": "cta",
    "1805": "ctav",
    "1806": "ive",
    "1807": "iver",
    "1808": "rci",
    "1809": "elf",
    "1810": "5 - ",
    "1811": "rte",
    "1812": "rted",
    "1813": "tha",
    "1814": "than",
    "1815": "than ",
    "1816": "rke",
    "1817": "rka",
    "1818": "rkan",
    "1819": "kn",
    "1820": "kno",
    "1821": "know",
    "1822": "known",
    "1823": "Ja",
    "1824": "Jap",
    "1825": "Japa",
    "1826": "60",
    "1827": "60s",
    "1828": "ovemb",
    "1829": "ovembe",
    "1830": "pto",
    "1831": "C ",
    "1832": "C (",
    "1833": "VI",
    "1834": "VII",
    "1835": "sop",
    "1836": "gai",
    "1837": "gain",
    "1838": ") ",
    "1839": "nit",
    "1840": "cond",
    "1841": "F.",
    "1842": "emo",
    "1843": "emon",
    "1844": "mal",
    "1845": "mall",
    "1846": "urop",
    "1847": "urope",
    "1848": "eta",
    "1849": "etar",
    "1850": "spa",
    "1851": "spap",
    "1852": "K ",
    "1853": "K -",
    "1854": "wer",
    "1855": "Fe",
    "1856": "Fed",
    "1857": "Fede",
    "1858": "Feder",
    "1859": "anu",
    "1860": "anua",
    "1861": "pl",
    "1862": "ple",
    "1863": "arg",
    "1864": "spo",
    "1865": "spon",
    "1866": "ranc",
    "1867": "omn",
    "1868": "omne",
    "1869": "omnen",
    "1870": "min",
    "1871": "esi",
    "1872": "nh",
    "1873": "nha",
    "1874": "nhar",
    "1875": "nhard",
    "1876": "idi",
    "1877": "/s",
    "1878": "/su",
    "1879": "ild",
    "1880": "0,",
    "1881": "0, ",
    "1882": "lled",
    "1883": "eup",
    "1884": "fis",
    "1885": "fish",
    "1886": "tri",
    "1887": "Bu",
    "1888": "Bur",
    "1889": "Burg",
    "1890": "def",
    "1891": "defe",
    "1892": "defen",
    "1893": "wor",
    "1894": "gen",
    "1895": "gene",
    "1896": "gener",
    "1897": "genera",
    "1898": "ize",
    "1899": "dam",
    "1900": "dard",
    "1901": "iou",
    "1902": "ious",
    "1903": "pare",
    "1904": "bru",
    "1905": "apan",
    "1906": "omi",
    "1907": "tch",
    "1908": "rbi",
    "1909": "rbia",
    "1910": "nni",
    "1911": "nnin",
    "1912": "nning",
    "1913": "dea",
    "1914": "deat",
    "1915": "death",
    "1916": "gun",
    "1917": "ray",
    "1918": "rta",
    "1919": "rtai",
    "1920": "rtain",
    "1921": "nio",
    "1922": "nion",
    "1923": "erc",
    "1924": "ola",
    "1925": "lly",
    "1926": "kee",
    "1927": "keep",
    "1928": "oy",
    "1929": "ily",
    "1930": "D - ",
    "1931": "Un",
    "1932": "Uni",
    "1933": "Univ",
    "1934": "Unive",
    "1935": "Univer",
    "1936": "Univers",
    "1937": "Colu",
    "1938": "Colum",
    "1939": ", ",
    "1940": "2 /su",
    "1941": "esig",
    "1942": "esign",
    "1943": "iod",
    "1944": "ize ",
    "1945": "rel",
    "1946": "rela",
    "1947": "ego",
    "1948": "te ",
    "1949": "abi",
    "1950": "abin",
    "1951": "8,",
    "1952": "8, ",
    "1953": "us ",
    "1954": "tera",
    "1955": "Lo",
    "1956": "ric",
    "1957": "rict",
    "1958": "day",
    "1959": "tain",
    "1960": "spe",
    "1961": "spec",
    "1962": "speci",
    "1963": "xide",
    "1964": "ster",
    "1965": "enez",
    "1966": "enezu",
    "1967": "ava",
    "1968": "avat",
    "1969": "ario",
    "1970": "ariou",
    "1971": "arious",
    "1972": "zil",
    "1973": "gui",
    "1974": "guis",
    "1975": "guish",
    "1976": "easa",
    "1977": "easan",
    "1978": "easant",
    "1979": "ima",
    "1980": "imat",
    "1981": "red",
    "1982": "ndar",
    "1983": "ndard",
    "1984": "Eng",
    "1985": "Engl",
    "1986": "uch",
    "1987": "uch ",
    "1988": "uch a",
    "1989": "uch as",
    "1990": "ale",
    "1991": "ales",
    "1992": "alest",
    "1993": "nem",
    "1994": "nema",
    "1995": "ok",
    "1996": "oke",
    "1997": "male",
    "1998": "lic",
    "1999": "lict",
    "2000": "rtic",
    "2001": "rticl",
    "2002": "rticle",
    "2003": "lys",
    "2004": "lysi",
    "2005": "lysis",
    "2006": "mpan",
    "2007": "gio",
    "2008": "gion",
    "2009": "BC",
    "2010": "0)",
    "2011": "0)*",
    "2012": "hat",
    "2013": "20",
    "2014": "200",
    "2015": "brua",
    "2016": "bruar",
    "2017": "pla",
    "2018": "rmy",
    "2019": "one",
    "2020": "one ",
    "2021": "ji",
    "2022": "jit",
    "2023": "30",
    "2024": "300",
    "2025": "Die",
    "2026": "Dieg",
    "2027": "Diego",
    "2028": "ring",
    "2029": "hem",
    "2030": "heme",
    "2031": "gra",
    "2032": "ench",
    "2033": "pec",
    "2034": "peci",
    "2035": "ers",
    "2036": "impor",
    "2037": "import",
    "2038": "xt",
    "2039": "cur",
    "2040": "ham",
    "2041": "hamp",
    "2042": "Ru",
    "2043": "Rus",
    "2044": "Russ",
    "2045": "rvi",
    "2046": "rvic",
    "2047": "rvice",
    "2048": "eyr",
    "2049": "ual",
    "2050": " c",
    "2051": " ce",
    "2052": " cen",
    "2053": "del",
    "2054": "ton",
    "2055": "ont",
    "2056": "umer",
    "2057": "cr",
    "2058": "cra",
    "2059": "craf",
    "2060": ".S.",
    "2061": "nou",
    "2062": "noun",
    "2063": "rked",
    "2064": "gt",
    "2065": "gth",
    "2066": "oppe",
    "2067": "opped",
    "2068": "llel",
    "2069": "zu",
    "2070": "nse",
    "2071": "gon",
    "2072": "specia",
    "2073": "special",
    "2074": "pul",
    "2075": "efe",
    "2076": "efen",
    "2077": "Ju",
    "2078": "/m",
    "2079": "/ma",
    "2080": "/mat",
    "2081": "/math",
    "2082": "30s",
    "2083": "race",
    "2084": "tan",
    "2085": "tand",
    "2086": " Y",
    "2087": " Yo",
    "2088": " Yor",
    "2089": "NP",
    "2090": "-E",
    "2091": "-Eu",
    "2092": "that",
    "2093": "that ",
    "2094": "Gu",
    "2095": "Gui",
    "2096": "Guin",
    "2097": "Guine",
    "2098": "Guinea",
    "2099": "atio",
    "2100": "ation",
    "2101": "sta",
    "2102": "stan",
    "2103": " L",
    "2104": "icip",
    "2105": "ST",
    "2106": "abit",
    "2107": "urs",
    "2108": "urse",
    "2109": "C -",
    "2110": "hot",
    "2111": "hoto",
    "2112": "ak",
    "2113": "ere ",
    "2114": "cep",
    "2115": "cept",
    "2116": "s ",
    "2117": "s o",
    "2118": "s on",
    "2119": "s on ",
    "2120": "ll ",
    "2121": "olu",
    "2122": "nste",
    "2123": "nstel",
    "2124": "hema",
    "2125": "hemat",
    "2126": "mu",
    "2127": "mul",
    "2128": "mula",
    "2129": "rriv",
    "2130": "thn",
    "2131": "rms",
    "2132": "uit",
    "2133": "ondu",
    "2134": "onduc",
    "2135": "onduct",
    "2136": "may",
    "2137": "may ",
    "2138": "nic",
    "2139": "erv",
    "2140": "og",
    "2141": "oga",
    "2142": "D /",
    "2143": "D /t",
    "2144": "erma",
    "2145": "ity",
    "2146": "y o",
    "2147": "y of",
    "2148": "y of ",
    "2149": "nde",
    "2150": "nded",
    "2151": "ore",
    "2152": "yr",
    "2153": "hit",
    "2154": "embl",
    "2155": "Al",
    "2156": "Ala",
    "2157": "Alas",
    "2158": "Alask",
    "2159": "rio",
    "2160": "riou",
    "2161": "rious",
    "2162": "tart",
    "2163": "rve",
    "2164": "ez",
    "2165": "Fo",
    "2166": "For",
    "2167": "ibe",
    "2168": "iber",
    "2169": "urf",
    "2170": "urfa",
    "2171": "urfac",
    "2172": "hang",
    "2173": "llow",
    "2174": "yd",
    "2175": "dg",
    "2176": "dge",
    "2177": "top",
    "2178": "loth",
    "2179": "bu",
    "2180": "but",
    "2181": "uta",
    "2182": "utat",
    "2183": "eti",
    "2184": "CD",
    "2185": "zati",
    "2186": "zatio",
    "2187": "zation",
    "2188": "pone",
    "2189": "ponen",
    "2190": "nue",
    "2191": "rman",
    "2192": "rai",
    "2193": "rail",
    "2194": "adi",
    "2195": "Cat",
    "2196": "Cath",
    "2197": "ub",
    "2198": "ubl",
    "2199": "ubli",
    "2200": "lif",
    "2201": "lifo",
    "2202": "lifor",
    "2203": "liforn",
    "2204": "old",
    "2205": "from",
    "2206": " p",
    "2207": " po",
    "2208": " pop",
    "2209": " popu",
    "2210": " popul",
    "2211": "ain",
    "2212": "aint",
    "2213": "Hoo",
    "2214": "Hoov",
    "2215": "Hoove",
    "2216": "Hoover",
    "2217": "unt",
    "2218": "untr",
    "2219": "untry",
    "2220": "El",
    "2221": "Elf",
    "2222": "gno",
    "2223": "Hen",
    "2224": "Henr",
    "2225": "ite",
    "2226": "lig",
    "2227": "ligi",
    "2228": "ligio",
    "2229": "geno",
    "2230": "genou",
    "2231": "genous",
    "2232": "ien",
    "2233": "nal",
    "2234": "nal ",
    "2235": "ack",
    "2236": "mum",
    "2237": "rov",
    "2238": "rove",
    "2239": "Cha",
    "2240": "Char",
    "2241": "rain",
    "2242": "ena",
    "2243": "enar",
    "2244": "ded",
    "2245": "ded ",
    "2246": "ivi",
    "2247": "air",
    "2248": "mag",
    "2249": "stra",
    "2250": "2)",
    "2251": "ht",
    "2252": "oce",
    "2253": "ocen",
    "2254": "se ",
    "2255": "se o",
    "2256": "se of",
    "2257": "se of ",
    "2258": "urro",
    "2259": "urrou",
    "2260": "urroun",
    "2261": "urround",
    "2262": "km",
    "2263": "imi",
    "2264": "imin",
    "2265": "Ar",
    "2266": "Arg",
    "2267": "Arge",
    "2268": "Argen",
    "2269": "Argent",
    "2270": "iop",
    "2271": "iopi",
    "2272": "ito",
    "2273": "wi",
    "2274": "cod",
    "2275": "codo",
    "2276": "codon",
    "2277": "urce",
    "2278": "7 /",
    "2279": "7 /s",
    "2280": "7 /su",
    "2281": "tte",
    "2282": "onz",
    "2283": "matic",
    "2284": "osa",
    "2285": "osau",
    "2286": "osaur",
    "2287": "pend",
    "2288": "pun",
    "2289": "punk",
    "2290": "rde",
    "2291": "rder",
    "2292": "FT",
    "2293": "ago",
    "2294": "Den",
    "2295": "Denm",
    "2296": "Denma",
    "2297": "bin",
    "2298": "der",
    "2299": "owle",
    "2300": "owled",
    "2301": "ana",
    "2302": "anad",
    "2303": "lf ",
    "2304": "spir",
    "2305": "gry",
    "2306": "mm",
    "2307": "riv",
    "2308": "rive",
    "2309": "river",
    "2310": "uck",
    "2311": "renc",
    "2312": "rench",
    "2313": "mil",
    "2314": "mily",
    "2315": "xib",
    "2316": "char",
    "2317": "chard",
    "2318": "ree",
    "2319": "reet",
    "2320": "len",
    "2321": "ep",
    "2322": "epe",
    "2323": "epen",
    "2324": "Ge",
    "2325": "Ger",
    "2326": "Germ",
    "2327": "Germa",
    "2328": "rrit",
    "2329": "rrito",
    "2330": "rritor",
    "2331": "2t",
    "2332": "2th",
    "2333": "wel",
    "2334": "dv",
    "2335": "dve",
    "2336": "dver",
    "2337": "6)*",
    "2338": "usi",
    "2339": "usic",
    "2340": "lia",
    "2341": "ld",
    "2342": "ld ",
    "2343": "4 -",
    "2344": "4 - ",
    "2345": "eph",
    "2346": "hyd",
    "2347": "hydr",
    "2348": "val",
    "2349": "oco",
    "2350": "ocol",
    "2351": "cast",
    "2352": "rs",
    "2353": "rse",
    "2354": "F ",
    "2355": "F -",
    "2356": "F - ",
    "2357": "s t",
    "2358": "s to",
    "2359": "et ",
    "2360": " td",
    "2361": "cess",
    "2362": "shed",
    "2363": " -",
    "2364": " --",
    "2365": "| ",
    "2366": "hip",
    "2367": "tz",
    "2368": "--",
    "2369": "Con",
    "2370": "Cons",
    "2371": "Conse",
    "2372": "Conser",
    "2373": "Conserv",
    "2374": "ork",
    "2375": "ntro",
    "2376": "ntrol",
    "2377": "rtu",
    "2378": "Pe",
    "2379": "Per",
    "2380": "est",
    "2381": "esti",
    "2382": "hie",
    "2383": "hiev",
    "2384": "tia",
    "2385": "#P",
    "2386": "Ga",
    "2387": "Gau",
    "2388": "Gaud",
    "2389": "s -",
    "2390": "s --",
    "2391": "twe",
    "2392": "twee",
    "2393": "hl",
    "2394": "hlo",
    "2395": "tled",
    "2396": "ant",
    "2397": "oug",
    "2398": "ough",
    "2399": "Aga",
    "2400": "Agas",
    "2401": "Odd",
    "2402": "Oddi",
    "2403": "Oddie",
    "2404": "Dr",
    "2405": "Dra",
    "2406": "Drac",
    "2407": "Dracu",
    "2408": "Dracul",
    "2409": "ace",
    "2410": "Cant",
    "2411": "Canto",
    "2412": "Canton",
    "2413": "ven",
    "2414": "ven ",
    "2415": "3.",
    "2416": "ala",
    "2417": "alat",
    "2418": "alati",
    "2419": "ppor",
    "2420": "pport",
    "2421": "itn",
    "2422": "itne",
    "2423": "itnes",
    "2424": "itness",
    "2425": "tati",
    "2426": "ret",
    "2427": "-b",
    "2428": "ps",
    "2429": "#H",
    "2430": "DV",
    "2431": "DVD",
    "2432": "Hi",
    "2433": "Hit",
    "2434": "Hitl",
    "2435": "Hitle",
    "2436": "Hitler",
    "2437": "mon",
    "2438": "eng",
    "2439": "ttl",
    "2440": "ttle",
    "2441": "Gd",
    "2442": "red ",
    "2443": "cy ",
    "2444": "lge",
    "2445": "lgeb",
    "2446": "wis",
    "2447": "wise",
    "2448": "uel",
    "2449": "stru",
    "2450": "ire",
    "2451": "das",
    "2452": "dash",
    "2453": "BI",
    "2454": " /m",
    "2455": "hin",
    "2456": "cri",
    "2457": "pecia",
    "2458": "pecial",
    "2459": "phi",
    "2460": "c ",
    "2461": "dib",
    "2462": "dibl",
    "2463": "occ",
    "2464": "troy",
    "2465": "iec",
    "2466": "iece",
    "2467": "oop",
    "2468": "tic",
    "2469": "1,",
    "2470": "1, ",
    "2471": "sup",
    "2472": "xy",
    "2473": "xyg",
    "2474": "xyge",
    "2475": "xygen",
    "2476": "thod",
    "2477": "ften",
    "2478": "Fr",
    "2479": "Fre",
    "2480": "Fren",
    "2481": "Frenc",
    "2482": "French",
    "2483": "le=",
    "2484": "le= ",
    "2485": "ower",
    "2486": "uar",
    "2487": "bit",
    "2488": "rba",
    "2489": "rban",
    "2490": "erat",
    "2491": "bas",
    "2492": "base",
    "2493": "pha",
    "2494": "mod",
    "2495": "moda",
    "2496": "modat",
    "2497": "pol",
    "2498": "ob",
    "2499": "tted",
    "2500": "knowl",
    "2501": "knowle",
    "2502": "knowled",
    "2503": "upi",
    "2504": "upie",
    "2505": "agu",
    "2506": "ague",
    "2507": "rren",
    "2508": " n",
    "2509": " nd",
    "2510": " nda",
    "2511": " ndas",
    "2512": " ndash",
    "2513": "vis",
    "2514": "whe",
    "2515": "whel",
    "2516": "SB",
    "2517": "SBN",
    "2518": "rgu",
    "2519": "shin",
    "2520": "shing",
    "2521": "shingt",
    "2522": "shingto",
    "2523": "ote",
    "2524": "oted",
    "2525": "oted ",
    "2526": "s,",
    "2527": "s, ",
    "2528": "ista",
    "2529": "istan",
    "2530": "wit",
    "2531": "5 e",
    "2532": "5 es",
    "2533": "5 est",
    "2534": "esid",
    "2535": "dern",
    "2536": "lth",
    "2537": "ltho",
    "2538": "lthou",
    "2539": "lthoug",
    "2540": "yc",
    "2541": "ism",
    "2542": "ff",
    "2543": " no",
    "2544": "At",
    "2545": "Atl",
    "2546": "Atla",
    "2547": "ationa",
    "2548": "ational",
    "2549": "ies",
    "2550": "lua",
    "2551": "00 ",
    "2552": "met",
    "2553": "metr",
    "2554": "ls ",
    "2555": "ndi",
    "2556": "ndia",
    "2557": "gred",
    "2558": "net",
    "2559": "uted",
    "2560": "yn",
    "2561": "yna",
    "2562": "ova",
    "2563": "ovat",
    "2564": "fic",
    "2565": "fici",
    "2566": "fac",
    "2567": "gue",
    "2568": "ings",
    "2569": "eue",
    "2570": "Sa",
    "2571": "San",
    "2572": "ward",
    "2573": "the ",
    "2574": "yo",
    "2575": "yor",
    "2576": "tsb",
    "2577": "tsbu",
    "2578": "tsbur",
    "2579": "he ",
    "2580": "Mi",
    "2581": "Mil",
    "2582": "Mili",
    "2583": "Milit",
    "2584": "Milita",
    "2585": "Militar",
    "2586": "b ",
    "2587": "iga",
    "2588": "nish",
    "2589": "nera",
    "2590": "ita",
    "2591": "itar",
    "2592": "die",
    "2593": "dier",
    "2594": "ile",
    "2595": "ile ",
    "2596": "roun",
    "2597": "round",
    "2598": "ch ",
    "2599": "ch a",
    "2600": "ch as",
    "2601": "lla",
    "2602": "llab",
    "2603": "N ",
    "2604": "N -",
    "2605": "ck",
    "2606": "ckn",
    "2607": "ckna",
    "2608": "uu",
    "2609": "uum",
    "2610": "hine",
    "2611": " and ",
    "2612": "mou",
    "2613": "moun",
    "2614": "mount",
    "2615": "dom",
    "2616": "MA",
    "2617": "fter",
    "2618": "'s",
    "2619": "'s ",
    "2620": "gal",
    "2621": "nin",
    "2622": "ning",
    "2623": "Ita",
    "2624": "Ital",
    "2625": "unct",
    "2626": "G ",
    "2627": "G -",
    "2628": "G --",
    "2629": "sexu",
    "2630": "sexua",
    "2631": "game",
    "2632": "key",
    "2633": "Bra",
    "2634": "Braz",
    "2635": "Brazi",
    "2636": "Brazil",
    "2637": " o",
    "2638": " of",
    "2639": "XI",
    "2640": "icat",
    "2641": "ssa",
    "2642": "ssag",
    "2643": "ssage",
    "2644": "um ",
    "2645": "gger",
    "2646": "uch as ",
    "2647": "cam",
    "2648": "came",
    "2649": "came ",
    "2650": "Cl",
    "2651": "Cli",
    "2652": "Clin",
    "2653": "Clint",
    "2654": "Clinto",
    "2655": "xford",
    "2656": "ket",
    "2657": "ketb",
    "2658": "ketba",
    "2659": "ty ",
    "2660": "9)*",
    "2661": "oe",
    "2662": "oer",
    "2663": "ttee",
    "2664": "edr",
    "2665": "edri",
    "2666": "edric",
    "2667": "fea",
    "2668": "feat",
    "2669": "nz",
    "2670": "nze",
    "2671": "K b",
    "2672": "K br",
    "2673": "erd",
    "2674": "ttoma",
    "2675": "ttoman",
    "2676": "bor",
    "2677": "pit",
    "2678": "cla",
    "2679": "mous",
    "2680": "4,",
    "2681": "4, ",
    "2682": "spect",
    "2683": "lti",
    "2684": "ltic",
    "2685": "gs ",
    "2686": "serv",
    "2687": "ust",
    "2688": "ustr",
    "2689": "20t",
    "2690": "20th",
    "2691": "Ark",
    "2692": "Arka",
    "2693": "Arkan",
    "2694": "lum",
    "2695": "fine",
    "2696": "fined",
    "2697": "mond",
    "2698": "sys",
    "2699": "syst",
    "2700": "X ",
    "2701": "Fi",
    "2702": "Fib",
    "2703": "Fibo",
    "2704": "rine",
    "2705": "ted ",
    "2706": "erb",
    "2707": "nec",
    "2708": "nect",
    "2709": "urit",
    "2710": "dul",
    "2711": "dult",
    "2712": "5,",
    "2713": "5, ",
    "2714": "nr",
    "2715": "lik",
    "2716": "like",
    "2717": "emi",
    "2718": "sen",
    "2719": "sent",
    "2720": "German",
    "2721": "hap",
    "2722": "gme",
    "2723": "gmen",
    "2724": "gment",
    "2725": "out",
    "2726": "for",
    "2727": "fore",
    "2728": "adem",
    "2729": "ok ",
    "2730": "9-",
    "2731": "rid",
    "2732": "ridg",
    "2733": "ridge",
    "2734": "form",
    "2735": "ips",
    "2736": "ips ",
    "2737": "Jew",
    "2738": "leg",
    "2739": "lege",
    "2740": "gel",
    "2741": "Ol",
    "2742": "Old",
    "2743": "oor",
    "2744": ":/",
    "2745": "ks",
    "2746": "mer",
    "2747": "meri",
    "2748": "hre",
    "2749": "hree",
    "2750": "nounc",
    "2751": "med",
    "2752": "med ",
    "2753": "xo",
    "2754": "whi",
    "2755": "whic",
    "2756": "which",
    "2757": "cad",
    "2758": "leas",
    "2759": "least",
    "2760": "3t",
    "2761": "3tr",
    "2762": "3tr ",
    "2763": "3tr t",
    "2764": "3tr td",
    "2765": " th",
    "2766": " tha",
    "2767": " that",
    "2768": " that ",
    "2769": "ddi",
    "2770": "ll-",
    "2771": "cyc",
    "2772": "oin",
    "2773": "api",
    "2774": "apit",
    "2775": "thni",
    "2776": "thnic",
    "2777": "aud",
    "2778": "dif",
    "2779": "roug",
    "2780": "mai",
    "2781": "main",
    "2782": "ileg",
    "2783": "ora",
    "2784": "gor",
    "2785": "ntri",
    "2786": "ntrie",
    "2787": "niv",
    "2788": "nive",
    "2789": "niver",
    "2790": "let",
    "2791": "lete",
    "2792": "oth",
    "2793": "oth ",
    "2794": "onsu",
    "2795": "sco",
    "2796": "firs",
    "2797": "first",
    "2798": "tak",
    "2799": "take",
    "2800": "AL",
    "2801": "AL ",
    "2802": "mit",
    "2803": "teg",
    "2804": "ew",
    "2805": "ew ",
    "2806": " I",
    "2807": "oso",
    "2808": "osop",
    "2809": "ow ",
    "2810": "tian",
    "2811": "2)*",
    "2812": "bed",
    "2813": "rts",
    "2814": "sty",
    "2815": "styl",
    "2816": "basi",
    "2817": "rie",
    "2818": "gur",
    "2819": "had",
    "2820": "rit",
    "2821": "rito",
    "2822": "ritor",
    "2823": "scop",
    "2824": "sto",
    "2825": "stor",
    "2826": " #",
    "2827": "ayez",
    "2828": "oft",
    "2829": "nox",
    "2830": "b.",
    "2831": "b. ",
    "2832": "mni",
    "2833": "tone",
    "2834": "oli",
    "2835": "olic",
    "2836": "ost",
    "2837": "pm",
    "2838": "pme",
    "2839": "pmen",
    "2840": "pment",
    "2841": "rug",
    "2842": "nsy",
    "2843": "nsyl",
    "2844": "nsylv",
    "2845": "40",
    "2846": "400",
    "2847": "1)",
    "2848": "amo",
    "2849": "amou",
    "2850": "amous",
    "2851": "pho",
    "2852": "phon",
    "2853": "- ",
    "2854": "rmin",
    "2855": "uto",
    "2856": "gua",
    "2857": "guag",
    "2858": "Bun",
    "2859": "Bund",
    "2860": "und",
    "2861": "unda",
    "2862": "uma",
    "2863": "uman",
    "2864": "ny",
    "2865": "nym",
    "2866": "2 - ",
    "2867": "ecu",
    "2868": "hun",
    "2869": "hung",
    "2870": "lis",
    "2871": "othe",
    "2872": "chi",
    "2873": "chin",
    "2874": "8t",
    "2875": "8th",
    "2876": "N.",
    "2877": "ultu",
    "2878": "ultur",
    "2879": "4)",
    "2880": "ax",
    "2881": "axi",
    "2882": "axim",
    "2883": "dum",
    "2884": "opy",
    "2885": "sth",
    "2886": "sthe",
    "2887": "ucc",
    "2888": "ucce",
    "2889": "ucces",
    "2890": "uccess",
    "2891": "Ni",
    "2892": "Nie",
    "2893": "Niet",
    "2894": "Nietz",
    "2895": "ence",
    "2896": "amed",
    "2897": "up ",
    "2898": "face",
    "2899": "sur",
    "2900": "ries",
    "2901": "ore ",
    "2902": "tre",
    "2903": "tres",
    "2904": "S -",
    "2905": "'ta",
    "2906": "tab",
    "2907": "tabl",
    "2908": "tabli",
    "2909": "rt ",
    "2910": "ezu",
    "2911": "lso ",
    "2912": "ited",
    "2913": "ical",
    "2914": "Bri",
    "2915": "Brit",
    "2916": "aw",
    "2917": "rya",
    "2918": "ryan",
    "2919": "hed",
    "2920": "ler",
    "2921": "ople",
    "2922": "tis",
    "2923": "ate",
    "2924": "ater",
    "2925": "i ",
    "2926": "til ",
    "2927": "have",
    "2928": "have ",
    "2929": "ata",
    "2930": "wl",
    "2931": "6-",
    "2932": "ift",
    "2933": "ress",
    "2934": "iti",
    "2935": "itic",
    "2936": "lyw",
    "2937": "lywo",
    "2938": "lywoo",
    "2939": "lywood",
    "2940": "doo",
    "2941": "door",
    "2942": "Man",
    "2943": "aved",
    "2944": "pea",
    "2945": "pear",
    "2946": "sib",
    "2947": "ndo",
    "2948": "ndom",
    "2949": "vel",
    "2950": "velo",
    "2951": "oon",
    "2952": "fle",
    "2953": "ng ",
    "2954": "In",
    "2955": "Ind",
    "2956": "pte",
    "2957": "pter",
    "2958": "erk",
    "2959": "cip",
    "2960": "ed ",
    "2961": "sid",
    "2962": "olar",
    "2963": "aki",
    "2964": "akis",
    "2965": "#Hu",
    "2966": "f ",
    "2967": "stea",
    "2968": "stead",
    "2969": "enu",
    "2970": "get",
    "2971": "geth",
    "2972": "ort",
    "2973": "orth",
    "2974": "rda",
    "2975": "erman",
    "2976": "arl",
    "2977": "nsi",
    "2978": "nsio",
    "2979": "nsion",
    "2980": "-c",
    "2981": "-ce",
    "2982": "-cen",
    "2983": "dd ",
    "2984": "cie",
    "2985": "cien",
    "2986": "eau",
    "2987": "'m",
    "2988": "'m ",
    "2989": "Arm",
    "2990": "lem",
    "2991": "leme",
    "2992": "lemen",
    "2993": "tly",
    "2994": "ula",
    "2995": "ular",
    "2996": "x_",
    "2997": "-Ge",
    "2998": "OE",
    "2999": "OED",
    "3000": "mini",
    "3001": "minis",
    "3002": "ovement",
    "3003": "ped",
    "3004": "6-1",
    "3005": "-co",
    "3006": "D.",
    "3007": "vai",
    "3008": "vail",
    "3009": "E ",
    "3010": "omin",
    "3011": "omina",
    "3012": "are",
    "3013": "piri",
    "3014": "pirit",
    "3015": "tish",
    "3016": "op ",
    "3017": "izo",
    "3018": "izon",
    "3019": "umb",
    "3020": "umbe",
    "3021": "umber",
    "3022": "ede",
    "3023": "eder",
    "3024": "sin",
    "3025": "sine",
    "3026": "Ara",
    "3027": "Arab",
    "3028": "ft ",
    "3029": "n=",
    "3030": "ement",
    "3031": "L -",
    "3032": "ubs",
    "3033": "5 #",
    "3034": "itud",
    "3035": "itude",
    "3036": "sl",
    "3037": "sla",
    "3038": "rnal",
    "3039": "bur",
    "3040": "wes",
    "3041": "west",
    "3042": "vember",
    "3043": "liam",
    "3044": "ryp",
    "3045": "rypt",
    "3046": "tp",
    "3047": ".g",
    "3048": ".g.",
    "3049": "t ",
    "3050": "t o",
    "3051": "t of",
    "3052": "t of ",
    "3053": "uti",
    "3054": "wed",
    "3055": "rior",
    "3056": "ix",
    "3057": "ix ",
    "3058": "thi",
    "3059": "thio",
    "3060": "upt",
    "3061": "ise",
    "3062": "gis",
    "3063": "gisl",
    "3064": "T ",
    "3065": "T -",
    "3066": "atist",
    "3067": "doe",
    "3068": "does",
    "3069": "mpt",
    "3070": "gent",
    "3071": "ope",
    "3072": "y-",
    "3073": "old ",
    "3074": "lian",
    "3075": "r,",
    "3076": "r, ",
    "3077": "play",
    "3078": "ble",
    "3079": "blem",
    "3080": "cea",
    "3081": "cean",
    "3082": "DP",
    "3083": "de ",
    "3084": "chan",
    "3085": "chang",
    "3086": "sa",
    "3087": "haps",
    "3088": "ymp",
    "3089": "onstr",
    "3090": "onstra",
    "3091": "K.",
    "3092": "lde",
    "3093": "lden",
    "3094": "tiz",
    "3095": "tize",
    "3096": "tra",
    "3097": "ncil",
    "3098": "Ir",
    "3099": "is ",
    "3100": "had ",
    "3101": "ols",
    "3102": "atr",
    "3103": "er ",
    "3104": "livi",
    "3105": "livin",
    "3106": "td ",
    "3107": "viv",
    "3108": "lio",
    "3109": "lion",
    "3110": "ure",
    "3111": "oh",
    "3112": "ohn",
    "3113": "st.",
    "3114": "st.)",
    "3115": "hm",
    "3116": "radi",
    "3117": "deo",
    "3118": "para",
    "3119": "loc",
    "3120": "loci",
    "3121": "etit",
    "3122": "by",
    "3123": "any ",
    "3124": "E b",
    "3125": "E br",
    "3126": "sm",
    "3127": "hil",
    "3128": "oen",
    "3129": "tyl",
    "3130": "velop",
    "3131": "k ",
    "3132": "sea",
    "3133": "evel",
    "3134": "nzer",
    "3135": "kip",
    "3136": "ror",
    "3137": "-u",
    "3138": "-up",
    "3139": "onsta",
    "3140": "onstan",
    "3141": "ick",
    "3142": "ndr",
    "3143": "ndre",
    "3144": "ndred",
    "3145": "dad",
    "3146": "Up",
    "3147": "Upr",
    "3148": "Upri",
    "3149": "Upris",
    "3150": "Uprisi",
    "3151": "soph",
    "3152": "ft)",
    "3153": "pan",
    "3154": "most ",
    "3155": "W ",
    "3156": "W -",
    "3157": "May",
    "3158": "Mayo",
    "3159": "Mayor",
    "3160": "eh",
    "3161": "ehe",
    "3162": "ehen",
    "3163": "ho ",
    "3164": "Aug",
    "3165": "Augu",
    "3166": "Augus",
    "3167": "August",
    "3168": "vio",
    "3169": "viou",
    "3170": "vious",
    "3171": "Pot",
    "3172": "Pott",
    "3173": "Potte",
    "3174": "Potter",
    "3175": "gul",
    "3176": "itr",
    "3177": "nua",
    "3178": "nuar",
    "3179": "ach",
    "3180": "thol",
    "3181": "chae",
    "3182": "chael",
    "3183": " as",
    "3184": "ead",
    "3185": "h)",
    "3186": "genc",
    "3187": "gency",
    "3188": "IV",
    "3189": "'i",
    "3190": "'im",
    "3191": "ecul",
    "3192": "ept",
    "3193": "ept ",
    "3194": "orde",
    "3195": "order",
    "3196": "stab",
    "3197": "stabl",
    "3198": "stabli",
    "3199": "well",
    "3200": "lli",
    "3201": "llia",
    "3202": "lliam",
    "3203": "n'",
    "3204": "n't",
    "3205": "loy",
    "3206": "alan",
    "3207": "alanc",
    "3208": "plo",
    "3209": "ploy",
    "3210": "pril",
    "3211": "Pl",
    "3212": "Pla",
    "3213": "Play",
    "3214": "V ",
    "3215": "V o",
    "3216": "V of",
    "3217": "V of ",
    "3218": "Ve",
    "3219": "Ven",
    "3220": "om/",
    "3221": "gib",
    "3222": "eri",
    "3223": "alo",
    "3224": "lec",
    "3225": "lect",
    "3226": "lecu",
    "3227": "uis",
    "3228": "DN",
    "3229": "sq",
    "3230": "squ",
    "3231": "rn ",
    "3232": "In ",
    "3233": "oph",
    "3234": "ophe",
    "3235": "opher",
    "3236": "I o",
    "3237": "I of",
    "3238": "I of ",
    "3239": "etw",
    "3240": "etwe",
    "3241": "Sp",
    "3242": "Spl",
    "3243": "Spli",
    "3244": "Split",
    "3245": "ibi",
    "3246": "ibit",
    "3247": "cit",
    "3248": "terr",
    "3249": "overn",
    "3250": "roa",
    "3251": "road",
    "3252": "code",
    "3253": "ae",
    "3254": "ynt",
    "3255": "ynth",
    "3256": "dat",
    "3257": "Wa",
    "3258": "War",
    "3259": "dri",
    "3260": "dric",
    "3261": "a ",
    "3262": "bum",
    "3263": "ebruary",
    "3264": "B.",
    "3265": "aten",
    "3266": "atent",
    "3267": "angu",
    "3268": "ommo",
    "3269": "ommon",
    "3270": "le ",
    "3271": "agi",
    "3272": "Ne",
    "3273": "New",
    "3274": "orn",
    "3275": "atu",
    "3276": "atur",
    "3277": "-n",
    "3278": "ener",
    "3279": "enera",
    "3280": "mus",
    "3281": "arge",
    "3282": "m (",
    "3283": " e",
    "3284": " es",
    "3285": " est",
    "3286": "7t",
    "3287": "7th",
    "3288": "urn",
    "3289": "ersi",
    "3290": "ersia",
    "3291": "reer",
    "3292": "ard",
    "3293": "ardw",
    "3294": "ardwa",
    "3295": "ardwar",
    "3296": "ardware",
    "3297": "py",
    "3298": "are ",
    "3299": "ames",
    "3300": "Er",
    "3301": "Era",
    "3302": "Eras",
    "3303": "/or",
    "3304": "etz",
    "3305": "etzi",
    "3306": "etzit",
    "3307": "lw",
    "3308": "lwa",
    "3309": "Who",
    "3310": "ank",
    "3311": "tas",
    "3312": "t-",
    "3313": "sf",
    "3314": "AIM-",
    "3315": "usa",
    "3316": "usal",
    "3317": "usale",
    "3318": "son",
    "3319": "bba",
    "3320": "bbar",
    "3321": "bbard",
    "3322": "etic",
    "3323": "ens",
    "3324": "ensi",
    "3325": "ensiv",
    "3326": "ensive",
    "3327": "ngd",
    "3328": "ngdo",
    "3329": "ralt",
    "3330": "ut ",
    "3331": "aba",
    "3332": "abat",
    "3333": "pris",
    "3334": "EE",
    "3335": "itia",
    "3336": "Ha",
    "3337": "gges",
    "3338": "ggest",
    "3339": "Bah",
    "3340": "dl",
    "3341": "dle",
    "3342": "ssue",
    "3343": "aph",
    "3344": "oul",
    "3345": "ara",
    "3346": "aga",
    "3347": "agaz",
    "3348": "eles",
    "3349": "eless",
    "3350": "fer",
    "3351": "vinc",
    "3352": "Bal",
    "3353": "Balk",
    "3354": "Balka",
    "3355": "Balkan",
    "3356": "enn",
    "3357": "nnis",
    "3358": "sia",
    "3359": "sian",
    "3360": "nual",
    "3361": "ey ",
    "3362": "yb",
    "3363": "ewe",
    "3364": "rry",
    "3365": "nor",
    "3366": "lou",
    "3367": "loud",
    "3368": "ffi",
    "3369": "ffic",
    "3370": ",0",
    "3371": ",00",
    "3372": ",000",
    "3373": "ref",
    "3374": "refo",
    "3375": "refor",
    "3376": "zar",
    "3377": "mes",
    "3378": "ptem",
    "3379": "cene",
    "3380": "eing",
    "3381": "Chr",
    "3382": "Chri",
    "3383": "Chris",
    "3384": ".*1",
    "3385": ".*19",
    "3386": "jac",
    "3387": "lep",
    "3388": "ook",
    "3389": "ets",
    "3390": "ybe",
    "3391": "istor",
    "3392": "Sox",
    "3393": "off",
    "3394": "oes",
    "3395": "sup ",
    "3396": "bsi",
    "3397": "bsit",
    "3398": "my",
    "3399": "myt",
    "3400": "myth",
    "3401": "Fa",
    "3402": "Far",
    "3403": "Faro",
    "3404": "veme",
    "3405": "vemen",
    "3406": "lai",
    "3407": "lain",
    "3408": "outh",
    "3409": "cei",
    "3410": "ceiv",
    "3411": "ract",
    "3412": "an ",
    "3413": "usin",
    "3414": "usine",
    "3415": "iven",
    "3416": "ngt",
    "3417": "aila",
    "3418": "ailab",
    "3419": "ten",
    "3420": "tent",
    "3421": " of ",
    "3422": "bn",
    "3423": "bni",
    "3424": "dj",
    "3425": "dje",
    "3426": "djec",
    "3427": "dject",
    "3428": "peri",
    "3429": "n ",
    "3430": "ws",
    "3431": "ish",
    "3432": "ncie",
    "3433": "rge",
    "3434": "Bea",
    "3435": "rom",
    "3436": "rom ",
    "3437": "stic",
    "3438": "Net",
    "3439": "Netw",
    "3440": "ur ",
    "3441": "AS",
    "3442": "ASC",
    "3443": "ASCI",
    "3444": "erag",
    "3445": "e|",
    "3446": "e| ",
    "3447": "phan",
    "3448": "olut",
    "3449": "ried",
    "3450": "with",
    "3451": "duca",
    "3452": "ducat",
    "3453": "asi",
    "3454": "asio",
    "3455": "asion",
    "3456": "lang",
    "3457": "langu",
    "3458": "but ",
    "3459": "ibu",
    "3460": "-|",
    "3461": "nef",
    "3462": "nefi",
    "3463": "his",
    "3464": "his ",
    "3465": "onto",
    "3466": "Power",
    "3467": "ould",
    "3468": " B",
    "3469": " Bo",
    "3470": " Bow",
    "3471": " Bowl",
    "3472": "ami",
    "3473": "amin",
    "3474": "dit",
    "3475": "oman",
    "3476": "ady",
    "3477": "sed ",
    "3478": "utio",
    "3479": "ution",
    "3480": "inem",
    "3481": "inema",
    "3482": "fon",
    "3483": "hing",
    "3484": "diti",
    "3485": "olog",
    "3486": "oct",
    "3487": "pik",
    "3488": "pike",
    "3489": "tler",
    "3490": "hard",
    "3491": "ourc",
    "3492": "Kh",
    "3493": "Kha",
    "3494": "leb",
    "3495": "lebr",
    "3496": "cre",
    "3497": "rtur",
    "3498": "rim",
    "3499": "!--",
    "3500": "den",
    "3501": "denc",
    "3502": "tim",
    "3503": "time",
    "3504": "nstei",
    "3505": "nstein",
    "3506": "s)",
    "3507": "8 /",
    "3508": "8 /s",
    "3509": "8 /su",
    "3510": "als",
    "3511": "also",
    "3512": "4)*",
    "3513": "oper",
    "3514": "opera",
    "3515": "ifie",
    "3516": "ified",
    "3517": "s*",
    "3518": "ee ",
    "3519": "tive",
    "3520": "tei",
    "3521": "tein",
    "3522": "ood",
    "3523": "Go",
    "3524": "Gov",
    "3525": "Gove",
    "3526": "Gover",
    "3527": "vr",
    "3528": "anc",
    "3529": "pio",
    "3530": "pion",
    "3531": "ole",
    "3532": "zig",
    "3533": "zige",
    "3534": "uca",
    "3535": "ucat",
    "3536": "nth",
    "3537": "osed",
    "3538": "logy",
    "3539": "cal",
    "3540": "ficia",
    "3541": "ficial",
    "3542": "otor",
    "3543": "nerg",
    "3544": "V -",
    "3545": "sr",
    "3546": "sra",
    "3547": "and",
    "3548": "and ",
    "3549": "ict",
    "3550": "dyn",
    "3551": "dyna",
    "3552": "dynam",
    "3553": "dynami",
    "3554": "lev",
    "3555": "levi",
    "3556": "levis",
    "3557": "abo",
    "3558": "Dec",
    "3559": "Deco",
    "3560": "nds",
    "3561": "nds ",
    "3562": "Fat",
    "3563": "Fath",
    "3564": "Fathe",
    "3565": "Father",
    "3566": "ibut",
    "3567": "ups",
    "3568": "pert",
    "3569": "Du",
    "3570": "awn",
    "3571": "awn ",
    "3572": "ave ",
    "3573": "ydr",
    "3574": "rough",
    "3575": "cau",
    "3576": "caus",
    "3577": "cause",
    "3578": "apt",
    "3579": "pin",
    "3580": "Ro",
    "3581": "Rom",
    "3582": "ump",
    "3583": "Gal",
    "3584": "Gala",
    "3585": "Galat",
    "3586": "Galati",
    "3587": "uen",
    "3588": "tud",
    "3589": "elan",
    "3590": "eland",
    "3591": "dan",
    "3592": "c.",
    "3593": "c.)",
    "3594": "to ",
    "3595": "Clinton",
    "3596": "Nu",
    "3597": "Nuc",
    "3598": "Nucl",
    "3599": "Thi",
    "3600": "Thir",
    "3601": "uk",
    "3602": "stat",
    "3603": "vil",
    "3604": "vily",
    "3605": "mina",
    "3606": "F)",
    "3607": " - ",
    "3608": "hab",
    "3609": "nbs",
    "3610": "nbsp",
    "3611": "rm ",
    "3612": "cus",
    "3613": "ww",
    "3614": "rsh",
    "3615": "gas",
    "3616": "ril",
    "3617": "rilo",
    "3618": "stit",
    "3619": "stitu",
    "3620": "stitut",
    "3621": "iso",
    "3622": "ison",
    "3623": "rot",
    "3624": "rote",
    "3625": "Fra",
    "3626": "Fran",
    "3627": "inum",
    "3628": "eer",
    "3629": "Ze",
    "3630": "Zea",
    "3631": "ised",
    "3632": "com",
    "3633": "comb",
    "3634": "combu",
    "3635": "combus",
    "3636": "combust",
    "3637": "erg",
    "3638": "cycl",
    "3639": "lv",
    "3640": "lvi",
    "3641": "Sat",
    "3642": "Satu",
    "3643": "Satur",
    "3644": "ree ",
    "3645": "EO",
    "3646": "cis",
    "3647": "deq",
    "3648": "dequ",
    "3649": "dict",
    "3650": "ging",
    "3651": " (",
    "3652": "rem",
    "3653": "Sc",
    "3654": "Sco",
    "3655": "Scot",
    "3656": "cro",
    "3657": "' ",
    "3658": "nf",
    "3659": "ivid",
    "3660": "ivide",
    "3661": "0s",
    "3662": "tig",
    "3663": "pula",
    "3664": " cent",
    "3665": "ron",
    "3666": "lui",
    "3667": "luid",
    "3668": "rede",
    "3669": "reder",
    "3670": "lice",
    "3671": "licen",
    "3672": "esen",
    "3673": "vent",
    "3674": "eel",
    "3675": "ized",
    "3676": "nsti",
    "3677": "nstit",
    "3678": "nstitu",
    "3679": "boy",
    "3680": "seas",
    "3681": "seaso",
    "3682": "season",
    "3683": "OL",
    "3684": "eis",
    "3685": "ligh",
    "3686": "light",
    "3687": "you",
    "3688": "s of",
    "3689": "s of ",
    "3690": "ds ",
    "3691": "OM",
    "3692": "urk",
    "3693": "tili",
    "3694": "efu",
    "3695": "5*",
    "3696": "ms",
    "3697": "ccor",
    "3698": "ccord",
    "3699": "amer",
    "3700": "houl",
    "3701": "hould",
    "3702": "sod",
    "3703": "sode",
    "3704": "Op",
    "3705": "Ope",
    "3706": "ras",
    "3707": "bniz",
    "3708": "un ",
    "3709": "ero",
    "3710": "Mo",
    "3711": "eus",
    "3712": "orat",
    "3713": "wev",
    "3714": "weve",
    "3715": "II",
    "3716": "hro",
    "3717": "itiz",
    "3718": " P",
    "3719": "roj",
    "3720": "roje",
    "3721": "rojec",
    "3722": "xim",
    "3723": "le t",
    "3724": "tua",
    "3725": "h,",
    "3726": "h, ",
    "3727": "ocr",
    "3728": "east",
    "3729": "mes ",
    "3730": "6 - ",
    "3731": "om ",
    "3732": "its ",
    "3733": "Mar",
    "3734": "Mary",
    "3735": "ska",
    "3736": "oint",
    "3737": "igib",
    "3738": "ect",
    "3739": "ught",
    "3740": "oved ",
    "3741": "tree",
    "3742": "treet",
    "3743": "ediate",
    "3744": "end",
    "3745": "tatis",
    "3746": "tatist",
    "3747": "alle",
    "3748": "alled",
    "3749": "anuar",
    "3750": "hol",
    "3751": "hola",
    "3752": "div",
    "3753": "divi",
    "3754": "isti",
    "3755": "istic",
    "3756": "3,",
    "3757": "3, ",
    "3758": "onso",
    "3759": "tend",
    "3760": "ah",
    "3761": "80",
    "3762": "80s",
    "3763": "tter",
    "3764": "tel",
    "3765": "tele",
    "3766": "ragm",
    "3767": "ragme",
    "3768": "ragmen",
    "3769": "ragment",
    "3770": "ilit",
    "3771": "n-",
    "3772": "other",
    "3773": "l-",
    "3774": "ider",
    "3775": "onee",
    "3776": "oneer",
    "3777": "ban",
    "3778": "band",
    "3779": "trie",
    "3780": "triev",
    "3781": "7-",
    "3782": "7-1",
    "3783": "sis",
    "3784": "gro",
    "3785": "grou",
    "3786": "groun",
    "3787": "ground",
    "3788": "Ya",
    "3789": "Yah",
    "3790": "Yahw",
    "3791": "Yahwe",
    "3792": "Yahweh",
    "3793": "hd",
    "3794": "hda",
    "3795": "Eni",
    "3796": "Enig",
    "3797": "Enigm",
    "3798": "slan",
    "3799": "sland",
    "3800": "Bab",
    "3801": "Babe",
    "3802": "ek",
    "3803": "rnat",
    "3804": "efa",
    "3805": "efac",
    "3806": "omp",
    "3807": "ompu",
    "3808": "omput",
    "3809": "qua",
    "3810": "For ",
    "3811": "nv",
    "3812": "nvi",
    "3813": "nvir",
    "3814": "nviro",
    "3815": "isin",
    "3816": "ys ",
    "3817": "upr",
    "3818": "upri",
    "3819": "edw",
    "3820": "edwi",
    "3821": "rst",
    "3822": "uld",
    "3823": "ill",
    "3824": "illi",
    "3825": "illia",
    "3826": "illiam",
    "3827": "ind",
    "3828": "ram",
    "3829": "rama",
    "3830": "rmo",
    "3831": "rmon",
    "3832": "ssib",
    "3833": "ssibl",
    "3834": "try",
    "3835": "phis",
    "3836": "igin",
    "3837": "sho",
    "3838": "shop",
    "3839": "vot",
    "3840": "athe",
    "3841": "ather",
    "3842": "Nig",
    "3843": "Nige",
    "3844": "Niger",
    "3845": "olv",
    "3846": "9-1",
    "3847": "bul",
    "3848": "ndas",
    "3849": "ndash",
    "3850": "tit",
    "3851": "titu",
    "3852": "rga",
    "3853": "rgan",
    "3854": "cret",
    "3855": "yri",
    "3856": "yria",
    "3857": "ided",
    "3858": "p:",
    "3859": "p:/",
    "3860": "G - ",
    "3861": " X",
    "3862": "bol",
    "3863": "asia",
    "3864": "etra",
    "3865": "Ottom",
    "3866": "Ottoma",
    "3867": "Ottoman",
    "3868": "oid",
    "3869": "aut",
    "3870": "ncl",
    "3871": "nclu",
    "3872": "nclud",
    "3873": "erti",
    "3874": "ertic",
    "3875": "hei",
    "3876": "heis",
    "3877": "lp",
    "3878": "lp ",
    "3879": "r b",
    "3880": "r br",
    "3881": "yed",
    "3882": "itle",
    "3883": "aic",
    "3884": "omes",
    "3885": "omest",
    "3886": "omesti",
    "3887": "omestic",
    "3888": "pite",
    "3889": "ledg",
    "3890": "pect",
    "3891": "3 - ",
    "3892": "tor",
    "3893": "Xi",
    "3894": "xic",
    "3895": "owever",
    "3896": "ea ",
    "3897": "ound",
    "3898": "math",
    "3899": "eni",
    "3900": "enio",
    "3901": "enior",
    "3902": "by ",
    "3903": "ure ",
    "3904": "ient",
    "3905": "oup",
    "3906": "dis",
    "3907": "dist",
    "3908": "distr",
    "3909": "distri",
    "3910": "distrib",
    "3911": "distribu",
    "3912": "gula",
    "3913": "ament",
    "3914": "Pir",
    "3915": "sli",
    "3916": "slim",
    "3917": "wid",
    "3918": "wide",
    "3919": "ouv",
    "3920": ".e.",
    "3921": "La",
    "3922": "Lan",
    "3923": "Lang",
    "3924": "Langu",
    "3925": "ske",
    "3926": "sker",
    "3927": "uring",
    "3928": "who ",
    "3929": "ther",
    "3930": "IM",
    "3931": "IMS",
    "3932": "lac",
    "3933": "kl",
    "3934": "kli",
    "3935": "klin",
    "3936": "freq",
    "3937": "frequ",
    "3938": "mun",
    "3939": "muni",
    "3940": "/td",
    "3941": "Ele",
    "3942": "Elec",
    "3943": "Elect",
    "3944": "eim",
    "3945": "pub",
    "3946": "publ",
    "3947": "publi",
    "3948": "omma",
    "3949": "omman",
    "3950": "lue",
    "3951": "gos",
    "3952": "gosl",
    "3953": "cif",
    "3954": "vern",
    "3955": "spread",
    "3956": "sbi",
    "3957": "sbia",
    "3958": "sbian",
    "3959": " (d",
    "3960": " (d.",
    "3961": " (d. ",
    "3962": "th ",
    "3963": "LG",
    "3964": "obi",
    "3965": "obil",
    "3966": "ock",
    "3967": "bja",
    "3968": "dia",
    "3969": "nom",
    "3970": "velt",
    "3971": "xod",
    "3972": "xodo",
    "3973": "bet",
    "3974": "oti",
    "3975": "F --",
    "3976": "nota",
    "3977": "notab",
    "3978": "Em",
    "3979": "eror",
    "3980": "oba",
    "3981": "obal",
    "3982": "mme",
    "3983": "mmer",
    "3984": "rk ",
    "3985": "ali",
    "3986": "alig",
    "3987": "align",
    "3988": "align=",
    "3989": "obl",
    "3990": "oble",
    "3991": "oblem",
    "3992": "oots",
    "3993": "ootst",
    "3994": "ootstr",
    "3995": "ootstra",
    "3996": "ootstrap",
    "3997": "inav",
    "3998": "ox",
    "3999": " /s",
    "4000": " /su",
    "4001": "hos",
    "4002": "host",
    "4003": "num",
    "4004": "wic",
    "4005": "wick",
    "4006": "nsiv",
    "4007": "nsive",
    "4008": "uki",
    "4009": "gle",
    "4010": "visi",
    "4011": "visio",
    "4012": "vision",
    "4013": "rah",
    "4014": "raha",
    "4015": "raham",
    "4016": "stei",
    "4017": "stein",
    "4018": "Na",
    "4019": "Nat",
    "4020": "Nati",
    "4021": "Natio",
    "4022": "Nation",
    "4023": "vic",
    "4024": "vice",
    "4025": "ford",
    "4026": "7tr",
    "4027": "7tr ",
    "4028": "7tr t",
    "4029": "7tr td",
    "4030": "epend",
    "4031": "on ",
    "4032": "tin",
    "4033": "ting",
    "4034": "bbey",
    "4035": "hn ",
    "4036": "Gen",
    "4037": "wo ",
    "4038": "hew",
    "4039": "U ",
    "4040": "dica",
    "4041": "dicat",
    "4042": "bui",
    "4043": "buil",
    "4044": "Fem",
    "4045": "Fema",
    "4046": "Femal",
    "4047": "Female",
    "4048": "zed",
    "4049": "zed ",
    "4050": "itor",
    "4051": "eleo",
    "4052": "eleon",
    "4053": "oge",
    "4054": "ogen",
    "4055": "ken",
    "4056": "hand",
    "4057": "aly",
    "4058": "Min",
    "4059": "Mini",
    "4060": "Minis",
    "4061": "p ",
    "4062": "hind",
    "4063": "nto",
    "4064": "nton",
    "4065": "ulp",
    "4066": "ulpt",
    "4067": "from ",
    "4068": "eli",
    "4069": "elig",
    "4070": "4*",
    "4071": "iu",
    "4072": "ium",
    "4073": "I -",
    "4074": "LU",
    "4075": "rase",
    "4076": "lleg",
    "4077": "ied",
    "4078": "tea",
    "4079": "tead",
    "4080": "Hed",
    "4081": "Hede",
    "4082": "osi",
    "4083": "osit",
    "4084": "zz",
    "4085": "ece",
    "4086": " (b",
    "4087": " (b.",
    "4088": " (b. ",
    "4089": "nia",
    "4090": "600",
    "4091": "Da",
    "4092": "indo",
    "4093": "indow",
    "4094": "ysis",
    "4095": "apo",
    "4096": "apol",
    "4097": "Is",
    "4098": "Isr",
    "4099": "Isra",
    "4100": "Israe",
    "4101": "Israel",
    "4102": "NA",
    "4103": "or ",
    "4104": "jun",
    "4105": "junc",
    "4106": "junct",
    "4107": "4tr",
    "4108": "4tr ",
    "4109": "4tr t",
    "4110": "4tr td",
    "4111": " W",
    "4112": "part",
    "4113": "ts ",
    "4114": "Li",
    "4115": "diu",
    "4116": "dium",
    "4117": "6tr",
    "4118": "6tr ",
    "4119": "6tr t",
    "4120": "6tr td",
    "4121": "ry ",
    "4122": "ance",
    "4123": "ptu",
    "4124": "ptur",
    "4125": "liq",
    "4126": "liqu",
    "4127": "emin",
    "4128": "phen",
    "4129": "gee",
    "4130": "ake",
    "4131": "aken",
    "4132": "omos",
    "4133": "omose",
    "4134": "omosex",
    "4135": "king",
    "4136": "ered",
    "4137": "o-",
    "4138": "re ",
    "4139": "lod",
    "4140": "ving",
    "4141": "sue",
    "4142": "ean",
    "4143": "arr",
    "4144": "arry",
    "4145": "ke ",
    "4146": "efi",
    "4147": "rtr",
    "4148": "nne",
    "4149": "nnec",
    "4150": "nnect",
    "4151": "tr ",
    "4152": "pac",
    "4153": "ius",
    "4154": "lm",
    "4155": "dox",
    "4156": "pe ",
    "4157": "-A",
    "4158": "-Am",
    "4159": "-Ame",
    "4160": "-Amer",
    "4161": "-Ameri",
    "4162": "4-",
    "4163": "beh",
    "4164": "them",
    "4165": "thema",
    "4166": "themat",
    "4167": "ilm",
    "4168": "lica",
    "4169": "God",
    "4170": "Af",
    "4171": "Afg",
    "4172": "Afgh",
    "4173": "vea",
    "4174": "veal",
    "4175": "oci",
    "4176": "mma",
    "4177": "ime",
    "4178": "lon",
    "4179": "sep",
    "4180": "seph",
    "4181": "org",
    "4182": "ch as ",
    "4183": "dow",
    "4184": "down",
    "4185": "cat",
    "4186": "ggl",
    "4187": "tn",
    "4188": "tna",
    "4189": "tnam",
    "4190": "hat ",
    "4191": "ny ",
    "4192": "osti",
    "4193": "ostic",
    "4194": "ndow",
    "4195": "wher",
    "4196": "where",
    "4197": "so ",
    "4198": "hon",
    "4199": "hone",
    "4200": "yber",
    "4201": "90",
    "4202": "90s",
    "4203": "ust ",
    "4204": " to ",
    "4205": "Emp",
    "4206": " f",
    "4207": " fo",
    "4208": " for",
    "4209": "pid",
    "4210": "ify ",
    "4211": "yon",
    "4212": "yond",
    "4213": "t.",
    "4214": "ditio",
    "4215": "dition",
    "4216": "zec",
    "4217": "zech",
    "4218": "dig",
    "4219": "digi",
    "4220": "digit",
    "4221": "Alb",
    "4222": "Alba",
    "4223": "Alban",
    "4224": "eet",
    "4225": "empt",
    "4226": "-1",
    "4227": "w ",
    "4228": "lib",
    "4229": "libe",
    "4230": "liber",
    "4231": "E -",
    "4232": "E --",
    "4233": "anis",
    "4234": "anish",
    "4235": "dva",
    "4236": "dvan",
    "4237": "nhag",
    "4238": "nhage",
    "4239": "ired",
    "4240": "9t",
    "4241": "9th",
    "4242": "ecut",
    "4243": "port",
    "4244": "lve",
    "4245": "eiv",
    "4246": ";1",
    "4247": "ugha",
    "4248": "ughal",
    "4249": "anin",
    "4250": "aning",
    "4251": "orl",
    "4252": "orld",
    "4253": "C b",
    "4254": "C br",
    "4255": "ced",
    "4256": "xu",
    "4257": "xua",
    "4258": "arif",
    "4259": "Pr",
    "4260": "Pro",
    "4261": "aeo",
    "4262": "aeol",
    "4263": "aeolo",
    "4264": "aeolog",
    "4265": "ign",
    "4266": "my ",
    "4267": "it ",
    "4268": "odu",
    "4269": "odul",
    "4270": "aul",
    "4271": "ault",
    "4272": "BO",
    "4273": "BOL",
    "4274": "lack",
    "4275": "ne ",
    "4276": "ddle",
    "4277": "seq",
    "4278": "sequ",
    "4279": "pher",
    "4280": "Sta",
    "4281": "Stat",
    "4282": "ipa",
    "4283": "inge",
    "4284": "inger",
    "4285": "urch",
    "4286": "nie",
    "4287": "nies",
    "4288": "50",
    "4289": "50s",
    "4290": "hni",
    "4291": "hnic",
    "4292": "Army",
    "4293": "ve ",
    "4294": "nry",
    "4295": "urt",
    "4296": "hich",
    "4297": "gne",
    "4298": "vement",
    "4299": "stri",
    "4300": "strib",
    "4301": "stribu",
    "4302": "orc",
    "4303": "orce",
    "4304": "via",
    "4305": "ada",
    "4306": "adar",
    "4307": "mpu",
    "4308": "mput",
    "4309": "sear",
    "4310": "bon",
    "4311": "bond",
    "4312": "bout ",
    "4313": "wea",
    "4314": "ast",
    "4315": "icr",
    "4316": "icro",
    "4317": "ink",
    "4318": "ink ",
    "4319": "5-",
    "4320": "citize",
    "4321": "50-1",
    "4322": "50-19",
    "4323": "tymo",
    "4324": "in tur",
    "4325": "in turn ",
    "4326": "rez",
    "4327": "n of ",
    "4328": "ldwide",
    "4329": "Life",
    "4330": "modula",
    "4331": "modulatio",
    "4332": "River",
    "4333": "ich (",
    "4334": "ich (19",
    "4335": "sidera",
    "4336": "siderable",
    "4337": "F-1",
    "4338": "often ",
    "4339": "ditional ",
    "4340": "protein",
    "4341": "United ",
    "4342": "United Stat",
    "4343": "United States",
    "4344": "chosen",
    "4345": "ween ",
    "4346": "e tea",
    "4347": "histor",
    "4348": "tempera",
    "4349": " the ",
    "4350": "Arabic",
    "4351": "whether",
    "4352": "Protes",
    "4353": "Protestan",
    "4354": "d-",
    "4355": "tellit",
    "4356": "elimina",
    "4357": "ateral ",
    "4358": "feder",
    "4359": "federal ",
    "4360": "oint ",
    "4361": "70s",
    "4362": " syst",
    "4363": " Europe",
    "4364": "allies",
    "4365": "y (",
    "4366": "Hade",
    "4367": "umani ",
    "4368": "mante",
    "4369": "scree",
    "4370": "mester",
    "4371": "airment",
    "4372": "growth",
    "4373": "oning",
    "4374": "oning, ",
    "4375": "eauti",
    "4376": "eautifu",
    "4377": "apable",
    "4378": "apable of ",
    "4379": "ation of ",
    "4380": "nice ",
    "4381": "enable",
    "4382": "enabled ",
    "4383": "s of the ",
    "4384": "leaf ",
    "4385": "hanges",
    "4386": "istribute ",
    "4387": "Organ",
    "4388": "ountries",
    "4389": "scene",
    "4390": "join ",
    "4391": "Har",
    "4392": " population",
    "4393": "pectfu",
    "4394": "ilment",
    "4395": "icz",
    "4396": "us-",
    "4397": "Connect",
    "4398": "Connecticu",
    "4399": "C in ",
    "4400": "cisio",
    "4401": "4-1",
    "4402": "minal ",
    "4403": "loss ",
    "4404": "loss of ",
    "4405": "sh, ",
    "4406": "iest ",
    "4407": "y. ",
    "4408": "lp of ",
    "4409": "National ",
    "4410": " establi",
    "4411": "orbit",
    "4412": "types",
    "4413": "dutie",
    "4414": "ligase",
    "4415": "9 |",
    "4416": "9 || ",
    "4417": "in art",
    "4418": "in article",
    "4419": "i, ",
    "4420": "i, see ",
    "4421": "warned ",
    "4422": "writer ",
    "4423": "writer (b. ",
    "4424": "curate",
    "4425": "adminis",
    "4426": "administra",
    "4427": "aller ",
    "4428": "kob",
    "4429": "Heral",
    "4430": " York",
    "4431": "emerge",
    "4432": "quered ",
    "4433": "lgium",
    "4434": "lgium, ",
    "4435": "ntum ",
    "4436": "starti",
    "4437": "starting ",
    "4438": "theref",
    "4439": "therefore ",
    "4440": "le for",
    "4441": " Alban",
    "4442": "those ",
    "4443": " not ",
    "4444": "r S",
    "4445": "finance",
    "4446": "Corporatio",
    "4447": "ization",
    "4448": "5 year",
    "4449": "5 yearsb",
    "4450": "rn of ",
    "4451": " flo",
    "4452": " float",
    "4453": "an-b",
    "4454": "an-born",
    "4455": "lanes",
    "4456": "ultimat",
    "4457": "ggerate",
    "4458": "atom",
    "4459": "dates",
    "4460": " War",
    "4461": "subject",
    "4462": "olish",
    "4463": "er of ",
    "4464": "anchis",
    "4465": "busi",
    "4466": "busiest",
    "4467": " dis",
    "4468": "yprio",
    "4469": "nes of ",
    "4470": "municat",
    "4471": "municatio",
    "4472": "angement",
    "4473": "intend",
    "4474": "unched",
    "4475": "influen",
    "4476": "influence ",
    "4477": "e's ",
    "4478": "lived ",
    "4479": "3 |",
    "4480": "3 || ",
    "4481": "ally, ",
    "4482": "rtugue",
    "4483": "ffer ",
    "4484": "ipsyc",
    "4485": "Holy",
    "4486": "Holy ",
    "4487": "tack",
    "4488": "olute ",
    "4489": "urice ",
    "4490": "ntitled",
    "4491": " 1",
    "4492": "wiki",
    "4493": "Portr",
    "4494": "Portrai",
    "4495": "thus ",
    "4496": "result",
    "4497": "result of ",
    "4498": "encourag",
    "4499": "chapter",
    "4500": "Monte",
    "4501": "poul",
    "4502": "simula",
    "4503": "tter-",
    "4504": "tter-day",
    "4505": "ators",
    "4506": "Card",
    "4507": "agge",
    "4508": "20th cent",
    "4509": "20th centur",
    "4510": "mane",
    "4511": "manent",
    "4512": "integ",
    "4513": "integers",
    "4514": "llywo",
    "4515": "llywood",
    "4516": " fami",
    "4517": " family",
    "4518": "mainstr",
    "4519": "mainstrea",
    "4520": "quire",
    "4521": "quirement",
    "4522": "induct",
    "4523": "inducted ",
    "4524": "Ghost",
    "4525": "danger",
    "4526": "mped ",
    "4527": " sid",
    "4528": "lon (",
    "4529": "lon (19",
    "4530": "acity",
    "4531": "group ",
    "4532": "freed",
    "4533": "such",
    "4534": "such, ",
    "4535": "itive ",
    "4536": "ndary ",
    "4537": "ecause ",
    "4538": " stat",
    "4539": "yiel",
    "4540": "vinced ",
    "4541": "quite",
    "4542": "Federk",
    "4543": "Federko ",
    "4544": "fically",
    "4545": "fically, ",
    "4546": "hmet ",
    "4547": "thern ",
    "4548": "their ",
    "4549": "Comme",
    "4550": "average",
    "4551": "pass ",
    "4552": "udor",
    "4553": "reog",
    "4554": "reogra",
    "4555": "drea",
    "4556": "tabilit",
    "4557": "oard",
    "4558": "3) - ",
    "4559": "capabl",
    "4560": "capable of ",
    "4561": "abilit",
    "4562": "ability ",
    "4563": "5 |",
    "4564": "5 || ",
    "4565": "candi",
    "4566": "candidat",
    "4567": "anthem",
    "4568": "imacy ",
    "4569": "Declar",
    "4570": "Declaration",
    "4571": "Declaration of ",
    "4572": "-centur",
    "4573": "releas",
    "4574": "yton",
    "4575": "blue",
    "4576": "blues ",
    "4577": "step ",
    "4578": "condary ",
    "4579": "latter",
    "4580": "hemist",
    "4581": "Jesus ",
    "4582": "hedrin",
    "4583": "gister",
    "4584": "Testa",
    "4585": "Testament",
    "4586": "Gand",
    "4587": " artist",
    "4588": "usual",
    "4589": "break",
    "4590": "does no",
    "4591": "does not ",
    "4592": "try of ",
    "4593": "n and ",
    "4594": "equ",
    "4595": "equip",
    "4596": "equipment",
    "4597": "branch",
    "4598": "branch of ",
    "4599": "engine",
    "4600": "peace ",
    "4601": "xtend",
    "4602": "xtended ",
    "4603": "dress",
    "4604": "wrong",
    "4605": "9, ",
    "4606": "emphas",
    "4607": "emphasis ",
    "4608": "! (",
    "4609": "expend",
    "4610": "expenditu",
    "4611": "quival",
    "4612": "ageMilitar",
    "4613": "dnight",
    "4614": "ranslat",
    "4615": "ranslatio",
    "4616": "ately",
    "4617": "illance",
    "4618": "urlu",
    "4619": "urluson",
    "4620": "truck",
    "4621": "urn for",
    "4622": "meda ",
    "4623": "innovat",
    "4624": "ercur",
    "4625": "grow ",
    "4626": "ternati",
    "4627": "laure",
    "4628": "laureate",
    "4629": "betwe",
    "4630": "provide",
    "4631": ")**",
    "4632": "inai ",
    "4633": "loyd ",
    "4634": "ersity ",
    "4635": "a (",
    "4636": "lear ",
    "4637": "series",
    "4638": "allad",
    "4639": "verted ",
    "4640": "killed",
    "4641": "le, ",
    "4642": "pending ",
    "4643": "riable",
    "4644": " being",
    "4645": "ent)*",
    "4646": "Afghanis",
    "4647": "Afghanistan",
    "4648": "letch",
    "4649": "braic ",
    "4650": "Justic",
    "4651": "cause ",
    "4652": "Indee",
    "4653": "Indeed",
    "4654": "Indeed, ",
    "4655": "00 year",
    "4656": "ibra",
    "4657": "ibraeel",
    "4658": "al pro",
    "4659": "al process",
    "4660": "absolute ",
    "4661": "bstacle",
    "4662": "calar",
    "4663": "eque",
    "4664": "aceous",
    "4665": "cooli",
    "4666": "cooling ",
    "4667": "mptio",
    "4668": " announc",
    "4669": " announced ",
    "4670": "Spring",
    "4671": "Springban",
    "4672": " AF",
    "4673": "error ",
    "4674": "rounding ",
    "4675": "secut",
    "4676": "secutive",
    "4677": "20 - ",
    "4678": "Dart",
    "4679": "Dartmou",
    "4680": "pian",
    "4681": "area ",
    "4682": "briel",
    "4683": "mpanies",
    "4684": "ghost",
    "4685": "erz",
    "4686": "Pirith",
    "4687": "Pirithous",
    "4688": "thumous",
    "4689": "veral ",
    "4690": "ntic ",
    "4691": "roots ",
    "4692": "huma",
    "4693": "instan",
    "4694": "Persian",
    "4695": "All-",
    "4696": "educat",
    "4697": "mploy",
    "4698": "urned ",
    "4699": "symbol",
    "4700": "either",
    "4701": "wikip",
    "4702": "wikipedia",
    "4703": "titio",
    "4704": "viate ",
    "4705": "made ",
    "4706": "aristo",
    "4707": "aristocra",
    "4708": "ologist",
    "4709": "strong ",
    "4710": "8 200",
    "4711": "ndrews",
    "4712": "ndrews (",
    "4713": "ndrews (19",
    "4714": "nley ",
    "4715": "servant",
    "4716": "diversi",
    "4717": "hicles",
    "4718": "nipula",
    "4719": "monarch",
    "4720": "itizen ",
    "4721": "/cent",
    "4722": "enviro",
    "4723": "frican ",
    "4724": "ctual ",
    "4725": " exampl",
    "4726": "beings",
    "4727": "volution",
    "4728": "ventio",
    "4729": "mense ",
    "4730": "sub ",
    "4731": "count",
    "4732": "anthe",
    "4733": "egitim",
    "4734": "6 - 1",
    "4735": "gates",
    "4736": "Comi",
    "4737": "Comiske",
    "4738": "individ",
    "4739": "individual",
    "4740": "tten ",
    "4741": "1 br",
    "4742": "theon ",
    "4743": "er, ",
    "4744": "ancing ",
    "4745": "logist",
    "4746": "uce ",
    "4747": "(b. 19",
    "4748": "ineeri",
    "4749": "Kra",
    "4750": "On ",
    "4751": "o N",
    "4752": "o No",
    "4753": "o No. ",
    "4754": "ndorse",
    "4755": "eling ",
    "4756": "others ",
    "4757": "there ",
    "4758": " eviden",
    "4759": "again",
    "4760": "against ",
    "4761": "radio ",
    "4762": "9-19",
    "4763": "+ ",
    "4764": "accur",
    "4765": "accurate",
    "4766": "rock",
    "4767": "monize ",
    "4768": "infini",
    "4769": "radict",
    "4770": "radictr ",
    "4771": "4 est",
    "4772": "4 est.)",
    "4773": "wamp",
    "4774": "thousa",
    "4775": "c ac",
    "4776": "doctor",
    "4777": "emsel",
    "4778": "bby ",
    "4779": "t (",
    "4780": "justed ",
    "4781": "s or ",
    "4782": "stion ",
    "4783": "slex",
    "4784": "lways ",
    "4785": "milah",
    "4786": "clared ",
    "4787": "may be ",
    "4788": "gospe",
    "4789": "s in ",
    "4790": "empire",
    "4791": "scient",
    "4792": "scientific",
    "4793": "pulsion",
    "4794": "igence",
    "4795": "litati",
    "4796": "ge that ",
    "4797": "aymond",
    "4798": " langu",
    "4799": " language",
    "4800": "diplo",
    "4801": "mogra",
    "4802": "mographi",
    "4803": "erior ",
    "4804": "audius",
    "4805": "n that ",
    "4806": "numero",
    "4807": "numerous ",
    "4808": "especial",
    "4809": "especially",
    "4810": "Chemi",
    "4811": "ington",
    "4812": "capture",
    "4813": "tforms",
    "4814": "Alum",
    "4815": "Alumni",
    "4816": "', ",
    "4817": "politic",
    "4818": "d, ",
    "4819": "18",
    "4820": "6)*200",
    "4821": " S",
    "4822": " Smit",
    "4823": "hance ",
    "4824": "perience",
    "4825": "perienced ",
    "4826": "ological",
    "4827": "mood",
    "4828": "evolv",
    "4829": "July",
    "4830": "July ",
    "4831": "Nationali",
    "4832": "broad",
    "4833": "broadcast",
    "4834": " theat",
    "4835": "ury ",
    "4836": "town",
    "4837": "-in",
    "4838": "deals ",
    "4839": "ler (",
    "4840": "ler (19",
    "4841": "March ",
    "4842": "parts of ",
    "4843": "circ",
    "4844": "class",
    "4845": "archery ",
    "4846": "'s, ",
    "4847": "along ",
    "4848": "along with",
    "4849": "-boa",
    "4850": "selli",
    "4851": "selling ",
    "4852": "id dyna",
    "4853": "id dynasty",
    "4854": "5%",
    "4855": "turing ",
    "4856": "table ",
    "4857": "ministra",
    "4858": "Kingdom ",
    "4859": "ventual",
    "4860": "cording ",
    "4861": "cording to ",
    "4862": "text",
    "4863": "bring ",
    "4864": "nged ",
    "4865": "Catholic",
    "4866": "receiv",
    "4867": "le's ",
    "4868": "Israelite",
    "4869": "correct",
    "4870": "between ",
    "4871": "hysic",
    "4872": "ize la",
    "4873": "ize laure",
    "4874": "ize laureate",
    "4875": "flatio",
    "4876": "cident",
    "4877": " Bru",
    "4878": " Bruns",
    "4879": " Brunswick",
    "4880": "sibly",
    "4881": "loyal",
    "4882": "Gree",
    "4883": "calip",
    "4884": "er's ",
    "4885": "roops",
    "4886": "fanta",
    "4887": "eviden",
    "4888": "evidence ",
    "4889": "xes",
    "4890": "fact ",
    "4891": "enia",
    "4892": "enia, ",
    "4893": "e than ",
    "4894": "9)*19",
    "4895": "Blo",
    "4896": "Blood",
    "4897": "inging ",
    "4898": "spici",
    "4899": "spicious",
    "4900": "posits ",
    "4901": "unders",
    "4902": "iveness",
    "4903": "0, 1",
    "4904": "s, see ",
    "4905": "rupted ",
    "4906": "guration",
    "4907": "ulus ",
    "4908": "ur year",
    "4909": "idea ",
    "4910": "homos",
    "4911": "homosexua",
    "4912": "Heave",
    "4913": "alth",
    "4914": "hardware",
    "4915": "much ",
    "4916": "much of ",
    "4917": "Board",
    "4918": "orly ",
    "4919": "ducatio",
    "4920": "raise ",
    "4921": "ponsib",
    "4922": "Duck",
    "4923": "Spir",
    "4924": "pared ",
    "4925": "usage ",
    "4926": "sor, ",
    "4927": " chang",
    "4928": " changes",
    "4929": "tuary ",
    "4930": "plain ",
    "4931": "Catull",
    "4932": "share",
    "4933": " World",
    "4934": " World W",
    "4935": " World War",
    "4936": "organi",
    "4937": "multan",
    "4938": "multaneo",
    "4939": "elling ",
    "4940": "nific",
    "4941": "employ",
    "4942": "sists ",
    "4943": "test ",
    "4944": "d that ",
    "4945": "ated ",
    "4946": "troop",
    "4947": "imed ",
    "4948": " is ",
    "4949": " is abo",
    "4950": " is about ",
    "4951": "addition",
    "4952": "Second",
    "4953": "Afric",
    "4954": "90)*",
    "4955": "Januar",
    "4956": "January ",
    "4957": "e of the ",
    "4958": "vary ",
    "4959": "ano ",
    "4960": "nent",
    "4961": "metime",
    "4962": "ngra",
    "4963": "missil",
    "4964": "missiles",
    "4965": "ld, ",
    "4966": "utsch",
    "4967": "on, ",
    "4968": "AM",
    "4969": "AMR",
    "4970": "cise ",
    "4971": "ent (b. ",
    "4972": "affect",
    "4973": "werfu",
    "4974": "werful ",
    "4975": "power",
    "4976": "pilot ",
    "4977": "lgebra",
    "4978": "Minister",
    "4979": "avily",
    "4980": "NI",
    "4981": "C_",
    "4982": "C__",
    "4983": "enough",
    "4984": " tool",
    "4985": " Ch",
    "4986": " China",
    "4987": "plicat",
    "4988": "eksa",
    "4989": "more ",
    "4990": "rpho",
    "4991": "best ",
    "4992": "ering ",
    "4993": "r. ",
    "4994": "esident ",
    "4995": " can ",
    "4996": "struction",
    "4997": "height",
    "4998": "corpora",
    "4999": "uarez",
    "5000": "iples",
    "5001": "ience ",
    "5002": "noch",
    "5003": "out th",
    "5004": "gainst ",
    "5005": "entat",
    "5006": "entators",
    "5007": "lspan",
    "5008": "saw ",
    "5009": "umptio",
    "5010": "ulliva",
    "5011": "ullivan",
    "5012": "ullivan, ",
    "5013": "4) ndash",
    "5014": "n /su",
    "5015": "mbolic",
    "5016": "8 %",
    "5017": "rogati",
    "5018": "changed ",
    "5019": "yodor",
    "5020": "teach",
    "5021": "English",
    "5022": "/small",
    "5023": "y on ",
    "5024": "progra",
    "5025": "program ",
    "5026": "illie ",
    "5027": "Hugh",
    "5028": "eolog",
    "5029": "lutio",
    "5030": "banner",
    "5031": "tile ",
    "5032": "th /su",
    "5033": "th /sup ",
    "5034": "systema",
    "5035": "systematic",
    "5036": "Islam",
    "5037": "ntarc",
    "5038": "ntarctic",
    "5039": "give",
    "5040": "faile",
    "5041": "failed ",
    "5042": "electio",
    "5043": ".Smit",
    "5044": "Andr",
    "5045": "Androma",
    "5046": " 200",
    "5047": "frequent",
    "5048": "Decemb",
    "5049": "chose ",
    "5050": "undatio",
    "5051": "pist",
    "5052": "Mormon",
    "5053": "Author",
    "5054": "Republi",
    "5055": "Republic ",
    "5056": "Republic of ",
    "5057": "quarte",
    "5058": "quarters",
    "5059": "narrat",
    "5060": "ory of ",
    "5061": "only",
    "5062": "should",
    "5063": "ohnson",
    "5064": "nex",
    "5065": "itectur",
    "5066": "Parl",
    "5067": "Parlia",
    "5068": "Parliament",
    "5069": " Univers",
    "5070": " University",
    "5071": "-Euro",
    "5072": "ng St",
    "5073": "Series",
    "5074": "ucault",
    "5075": "recent ",
    "5076": "running",
    "5077": "pressur",
    "5078": "universal ",
    "5079": "rby ",
    "5080": "plici",
    "5081": "plicitly",
    "5082": " cart",
    "5083": " cartridge",
    "5084": "societi",
    "5085": "societies",
    "5086": "chtit",
    "5087": "triction",
    "5088": "licatio",
    "5089": "izabet",
    "5090": "ptized ",
    "5091": "neral ",
    "5092": "among ",
    "5093": "wen ",
    "5094": "Elve",
    "5095": "renamed ",
    "5096": "riched",
    "5097": "and, ",
    "5098": "er (",
    "5099": "er (d.",
    "5100": "er (d. ",
    "5101": "veries",
    "5102": "hing to ",
    "5103": "meaning",
    "5104": "/tabl",
    "5105": "young ",
    "5106": "domina",
    "5107": " Lev",
    "5108": "hutan",
    "5109": "hutan, ",
    "5110": "terms",
    "5111": "terms of ",
    "5112": " funct",
    "5113": " functio",
    "5114": "5 - 1",
    "5115": "ldie",
    "5116": "ldiers",
    "5117": "icies",
    "5118": "esis ",
    "5119": "versal ",
    "5120": "80s - ",
    "5121": "district",
    "5122": " eye",
    "5123": "genres",
    "5124": "Anta",
    "5125": "Antarc",
    "5126": "Antarctic",
    "5127": "5,000",
    "5128": "picture",
    "5129": "wer ",
    "5130": "wer Ho",
    "5131": "wer House",
    "5132": "create",
    "5133": "created ",
    "5134": "television",
    "5135": "PR",
    "5136": "PRC ",
    "5137": "aused ",
    "5138": "aused by ",
    "5139": "ncouv",
    "5140": "erhaps",
    "5141": "3D ",
    "5142": "e.g.",
    "5143": "gram ",
    "5144": "or to ",
    "5145": "Group",
    "5146": "ugs ",
    "5147": "ttern ",
    "5148": "sites",
    "5149": "6 BC",
    "5150": " PDP",
    "5151": " death",
    "5152": "attem",
    "5153": "attempt",
    "5154": "attempt to ",
    "5155": "ne-",
    "5156": "sends ",
    "5157": "ties ",
    "5158": "11",
    "5159": " tip",
    "5160": "Smit",
    "5161": "particip",
    "5162": "participate",
    "5163": "shift ",
    "5164": " Best",
    "5165": "length",
    "5166": "d on ",
    "5167": "Nadi",
    "5168": "Nadir ",
    "5169": "Nadir S",
    "5170": "eaching",
    "5171": "castrat",
    "5172": "e (",
    "5173": "ers, ",
    "5174": "Swit",
    "5175": "Switze",
    "5176": "San ",
    "5177": "istence",
    "5178": "anol",
    "5179": "arms",
    "5180": "airport",
    "5181": "ks /td",
    "5182": "ks /td td",
    "5183": "appear",
    "5184": " Bene",
    "5185": " Benelu",
    "5186": " Benelux ",
    "5187": "dram",
    "5188": "milar",
    "5189": "erber",
    "5190": "onditi",
    "5191": "apture",
    "5192": "possib",
    "5193": "ted with",
    "5194": "chief",
    "5195": "Oak",
    "5196": "Stanf",
    "5197": "Stanford",
    "5198": "stated ",
    "5199": "ary of ",
    "5200": "feature",
    "5201": "genic",
    "5202": "merge ",
    "5203": "Calga",
    "5204": "iance",
    "5205": "exist",
    "5206": "School",
    "5207": "nature",
    "5208": "titutio",
    "5209": "ult of ",
    "5210": "0th ",
    "5211": "econ",
    "5212": "invol",
    "5213": "involve",
    "5214": "ffilia",
    "5215": "green",
    "5216": "reachin",
    "5217": "reaching ",
    "5218": "las ",
    "5219": "urther",
    "5220": "opport",
    "5221": "opportunit",
    "5222": "ms to ",
    "5223": "deau",
    "5224": "Arizon",
    "5225": "compen",
    "5226": "compensa",
    "5227": "ves ",
    "5228": "ze, ",
    "5229": "custom",
    "5230": "ders ",
    "5231": "00 and ",
    "5232": "00 and 19",
    "5233": "*United ",
    "5234": "onel ",
    "5235": "taken ",
    "5236": "appl",
    "5237": "inst ",
    "5238": "clips",
    "5239": "le the ",
    "5240": " for B",
    "5241": " for Best",
    "5242": "Curren",
    "5243": "Austra",
    "5244": "Australian",
    "5245": "treat ",
    "5246": "ued ",
    "5247": "ficially",
    "5248": "m (19",
    "5249": "earned ",
    "5250": "ictor",
    "5251": "d in ",
    "5252": "erabl",
    "5253": "pair ",
    "5254": "ellig",
    "5255": "elligence",
    "5256": "heir ",
    "5257": "ancient",
    "5258": "ity of ",
    "5259": "t' ",
    "5260": "lecture",
    "5261": "drug",
    "5262": "p. ",
    "5263": "Runne",
    "5264": "run ",
    "5265": "Inca",
    "5266": "efly",
    "5267": "eating ",
    "5268": "el of ",
    "5269": "ining ",
    "5270": "sternation",
    "5271": "card",
    "5272": "larus",
    "5273": "larus, ",
    "5274": "striking",
    "5275": "(19",
    "5276": "understand",
    "5277": "Australia",
    "5278": "economi",
    "5279": "Hit P",
    "5280": "refusal",
    "5281": "itself",
    "5282": "ercus ",
    "5283": "lized ",
    "5284": "wave",
    "5285": " /tdtd ",
    "5286": " /tdtd styl",
    "5287": "zelm",
    "5288": "zelman ",
    "5289": "zelman (",
    "5290": "zelman (19",
    "5291": "s often",
    "5292": "tthew",
    "5293": " by ",
    "5294": "ligram",
    "5295": "Louis",
    "5296": "dminis",
    "5297": "dministra",
    "5298": "Natur",
    "5299": "Natural ",
    "5300": "r in ",
    "5301": "icism",
    "5302": "precis",
    "5303": "precise ",
    "5304": "Golden",
    "5305": "owing ",
    "5306": "3rd",
    "5307": "cava",
    "5308": " posth",
    "5309": "h and ",
    "5310": "being ",
    "5311": "doubl",
    "5312": "rouble",
    "5313": "ism, ",
    "5314": "nsure ",
    "5315": " mil",
    "5316": "vantage",
    "5317": "Jose",
    "5318": "pract",
    "5319": "practice",
    "5320": "Germanic",
    "5321": "Book of ",
    "5322": "save ",
    "5323": "charge",
    "5324": "wford",
    "5325": "widely",
    "5326": "m by ",
    "5327": "ends to",
    "5328": " teet",
    "5329": "electron",
    "5330": "electronic",
    "5331": "ative",
    "5332": "m, ",
    "5333": "subject of ",
    "5334": "oteric",
    "5335": "parts of the ",
    "5336": "bootle",
    "5337": "'s Re",
    "5338": "'s Republi",
    "5339": "researc",
    "5340": "research ",
    "5341": "cuad",
    "5342": "presid",
    "5343": "slope",
    "5344": "enfor",
    "5345": "eppo",
    "5346": "mainly",
    "5347": "series of ",
    "5348": "on the ",
    "5349": "borat",
    "5350": "borator",
    "5351": "eds",
    "5352": "straight",
    "5353": "Crus",
    "5354": "Crusade",
    "5355": " to have ",
    "5356": "repl",
    "5357": "ominica",
    "5358": "ominican ",
    "5359": "ftware",
    "5360": "eliminate ",
    "5361": "vish ",
    "5362": "Charles",
    "5363": "Atkin",
    "5364": "Atkinson",
    "5365": "makes ",
    "5366": "shal ",
    "5367": "line ",
    "5368": "ne with",
    "5369": "ls, ",
    "5370": "ied to ",
    "5371": "Mark ",
    "5372": "coca",
    "5373": "cocaine",
    "5374": "oseph",
    "5375": "=cent",
    "5376": "=center ",
    "5377": "former ",
    "5378": " sch",
    "5379": " school",
    "5380": "wife",
    "5381": " pur",
    "5382": " purpos",
    "5383": "essfu",
    "5384": "hattan",
    "5385": "thousands ",
    "5386": "amilia",
    "5387": "amiliar ",
    "5388": "amiliar with",
    "5389": ". Lo",
    "5390": ". Louis",
    "5391": "proto",
    "5392": "protoco",
    "5393": "stained",
    "5394": "enned",
    "5395": "cument",
    "5396": "baret ",
    "5397": "essand",
    "5398": "essandro",
    "5399": "White",
    "5400": "underta",
    "5401": "undertaken",
    "5402": "marria",
    "5403": "ousand",
    "5404": "ply ",
    "5405": "imeon ",
    "5406": "while ",
    "5407": "coup ",
    "5408": "tant ",
    "5409": "come ",
    "5410": "zerba",
    "5411": "zerbai",
    "5412": "zerbaija",
    "5413": "brow",
    "5414": "speaki",
    "5415": "speaking ",
    "5416": "soft",
    "5417": "software",
    "5418": "eived ",
    "5419": "dess",
    "5420": "dessert",
    "5421": "route ",
    "5422": "knowledge of ",
    "5423": "roya",
    "5424": "royal ",
    "5425": "them to ",
    "5426": "orded ",
    "5427": "erature",
    "5428": "y of Ch",
    "5429": "y of China",
    "5430": "afted ",
    "5431": "vening ",
    "5432": "Mc",
    "5433": "7.",
    "5434": "ramble",
    "5435": "fantry",
    "5436": "er to ",
    "5437": "dicting ",
    "5438": "Heal",
    "5439": "Health ",
    "5440": "arty ",
    "5441": "drome",
    "5442": "ositio",
    "5443": "osition ",
    "5444": "issue",
    "5445": "3;",
    "5446": "lowland",
    "5447": "8 |",
    "5448": "8 || ",
    "5449": "ribut",
    "5450": "ormous",
    "5451": "letha",
    "5452": "result ",
    "5453": "result in ",
    "5454": " East",
    "5455": "ivated ",
    "5456": "include",
    "5457": "perfect",
    "5458": "perfective",
    "5459": "3 - 1",
    "5460": "small",
    "5461": "cted ",
    "5462": "ing, ",
    "5463": "flexib",
    "5464": "world ",
    "5465": "erbr",
    "5466": " theo",
    "5467": " theolog",
    "5468": " theologia",
    "5469": "tectio",
    "5470": "ioli",
    "5471": "iolin ",
    "5472": "iolin Con",
    "5473": "iolin Conce",
    "5474": "Capone",
    "5475": "gymn",
    "5476": "gymnast",
    "5477": "nward",
    "5478": "NS",
    "5479": "NSI ",
    "5480": "addr",
    "5481": "address",
    "5482": "myster",
    "5483": "versy ",
    "5484": "emotio",
    "5485": "nd) ",
    "5486": "Francis",
    "5487": "ithyn",
    "5488": "ithynia",
    "5489": "paint",
    "5490": "painter ",
    "5491": "iking",
    "5492": "cultur",
    "5493": "habited",
    "5494": "ordered ",
    "5495": "witness",
    "5496": "witnessed ",
    "5497": "yson ",
    "5498": "efinit",
    "5499": ".:",
    "5500": "local ",
    "5501": "until",
    "5502": "actio",
    "5503": "suggest",
    "5504": "suggested ",
    "5505": "decla",
    "5506": "declared ",
    "5507": "ngness",
    "5508": "article",
    "5509": "ance of ",
    "5510": "member",
    "5511": "member of ",
    "5512": "ectual",
    "5513": "3-1",
    "5514": "njo",
    "5515": "spring ",
    "5516": "energy",
    "5517": "ed, ",
    "5518": "Larry",
    "5519": "restri",
    "5520": "restriction",
    "5521": "odies",
    "5522": "ampa",
    "5523": "ampaign",
    "5524": "tentio",
    "5525": "bits ",
    "5526": "allow",
    "5527": "allowing ",
    "5528": "norri",
    "5529": "ve year",
    "5530": "8)*",
    "5531": "mersed ",
    "5532": "ions ",
    "5533": "iberal ",
    "5534": " touri",
    "5535": " tourist ",
    "5536": "intos",
    "5537": "were ",
    "5538": "ian ",
    "5539": "conserv",
    "5540": "an, ",
    "5541": "emy ",
    "5542": "some ",
    "5543": ", and ",
    "5544": "tiny ",
    "5545": "leep",
    "5546": "epist",
    "5547": "epistemo",
    "5548": "eriment",
    "5549": "U.S.",
    "5550": "1 /math",
    "5551": "berno",
    "5552": "ocial ",
    "5553": "recog",
    "5554": "erse ",
    "5555": "vote ",
    "5556": "roductio",
    "5557": "roduction ",
    "5558": "itions",
    "5559": "co ",
    "5560": "__",
    "5561": "g (",
    "5562": "solar",
    "5563": "juris",
    "5564": "jurisdict",
    "5565": "jurisdictio",
    "5566": "lighted ",
    "5567": "n*",
    "5568": " be ",
    "5569": "em, ",
    "5570": "heon ",
    "5571": "tively",
    "5572": "tively ",
    "5573": "d to ",
    "5574": "to the ",
    "5575": "refug",
    "5576": "onom",
    "5577": "m and ",
    "5578": "louris",
    "5579": "litical ",
    "5580": "victim",
    "5581": "h of ",
    "5582": "implemen",
    "5583": "implementati",
    "5584": "org /t",
    "5585": "org /tt ",
    "5586": "ddress",
    "5587": "girl",
    "5588": "shment",
    "5589": "saint",
    "5590": "theistic",
    "5591": "surface",
    "5592": "AO",
    "5593": "deliver",
    "5594": "event",
    "5595": " %",
    "5596": "nally",
    "5597": " /tt ",
    "5598": "scri",
    "5599": "scribed",
    "5600": "uslim",
    "5601": " coa",
    "5602": "they ",
    "5603": "portunit",
    "5604": "nesota",
    "5605": "ced b",
    "5606": "ced by ",
    "5607": "m to ",
    "5608": "edience",
    "5609": "198",
    "5610": "ipped",
    "5611": "Sterl",
    "5612": "ctrine",
    "5613": "molecu",
    "5614": "attent",
    "5615": "attentio",
    "5616": "spoken",
    "5617": "formance",
    "5618": "ent, ",
    "5619": "ir and ",
    "5620": "pretend",
    "5621": "though ",
    "5622": "orous",
    "5623": "hibit",
    "5624": "Conservati",
    "5625": "urist",
    "5626": "His ",
    "5627": "appro",
    "5628": "approach",
    "5629": "curren",
    "5630": "currently",
    "5631": "Aeli",
    "5632": "grams",
    "5633": "ewal ",
    "5634": "ewal of ",
    "5635": "4)*200",
    "5636": "erkin",
    "5637": "in (",
    "5638": " Ki",
    "5639": "man",
    "5640": "manpo",
    "5641": "manpower",
    "5642": "Umay",
    "5643": "Umayya",
    "5644": "onsider",
    "5645": "ently",
    "5646": "ognit",
    "5647": "ognitio",
    "5648": "eco-",
    "5649": "Lord",
    "5650": " all ",
    "5651": "Abbey",
    "5652": "nbsp;",
    "5653": "Mitz",
    "5654": "ugur",
    "5655": "usiest",
    "5656": "ator ",
    "5657": "eriod",
    "5658": "varies",
    "5659": "posed",
    "5660": "posedly",
    "5661": "undi",
    "5662": "undi, ",
    "5663": "mother",
    "5664": "orthodo",
    "5665": "fective",
    "5666": "antas",
    "5667": "id, ",
    "5668": " Prat",
    "5669": "physi",
    "5670": "physical",
    "5671": "f(",
    "5672": "media",
    "5673": "chrom",
    "5674": "CN",
    "5675": "CNY",
    "5676": "readily",
    "5677": "senate",
    "5678": "mail ",
    "5679": "left ",
    "5680": "ssel",
    "5681": "reschi",
    "5682": "ationist",
    "5683": "ilbert",
    "5684": "rika",
    "5685": "rikaan",
    "5686": "polar",
    "5687": "dictabl",
    "5688": "Canadia",
    "5689": "Canadian ",
    "5690": "Farine",
    "5691": "Farinelli",
    "5692": "floa",
    "5693": "floating",
    "5694": "nagement",
    "5695": "geome",
    "5696": "8C ",
    "5697": "timony",
    "5698": " (19",
    "5699": "speak",
    "5700": " year",
    "5701": "think",
    "5702": "mainten",
    "5703": "maintenance",
    "5704": "Bonds ",
    "5705": "detai",
    "5706": "nomous",
    "5707": "baria",
    "5708": "arth",
    "5709": "governed ",
    "5710": "morali",
    "5711": "sert ",
    "5712": "award",
    "5713": "awarded ",
    "5714": "ximate",
    "5715": "Septem",
    "5716": "September",
    "5717": "i|",
    "5718": " emp",
    "5719": "ontinu",
    "5720": "ontinued ",
    "5721": "this ",
    "5722": "atis*",
    "5723": "singer",
    "5724": "djace",
    "5725": "djacent",
    "5726": "ctober",
    "5727": "ctober ",
    "5728": "heav",
    "5729": "heavily",
    "5730": "savann",
    "5731": "erical",
    "5732": "Mex",
    "5733": "dysl",
    "5734": "dyslex",
    "5735": "million",
    "5736": "0 |",
    "5737": "niper",
    "5738": "boundar",
    "5739": "p of ",
    "5740": "Micro",
    "5741": "Microso",
    "5742": "rifle",
    "5743": "avoid",
    "5744": "materi",
    "5745": "gdia",
    "5746": "stralia",
    "5747": "stralia (b. ",
    "5748": "consid",
    "5749": "considered",
    "5750": " cause",
    "5751": "damage",
    "5752": "damaged ",
    "5753": "n's ",
    "5754": "ngage",
    "5755": "ngaged ",
    "5756": "ngaged in ",
    "5757": "elt ",
    "5758": "2 /sub ",
    "5759": "mong ",
    "5760": "oldest",
    "5761": "many ",
    "5762": "4th A",
    "5763": "4th AF",
    "5764": "utative",
    "5765": ".wi",
    "5766": ".wikip",
    "5767": ".wikipedia",
    "5768": "denote",
    "5769": "need",
    "5770": "oling ",
    "5771": "amend",
    "5772": "amendment",
    "5773": "isset",
    "5774": "issette",
    "5775": "ceptio",
    "5776": "East ",
    "5777": "East |",
    "5778": "East || ",
    "5779": "layed ",
    "5780": "cteria",
    "5781": "erlying",
    "5782": "spoke ",
    "5783": " count",
    "5784": " countries",
    "5785": "imilar",
    "5786": "ngeons",
    "5787": "toco",
    "5788": "Nine",
    "5789": "Nineve",
    "5790": "urate",
    "5791": "tle of ",
    "5792": "ciatio",
    "5793": "rapid",
    "5794": "thorough",
    "5795": "veget",
    "5796": "spend ",
    "5797": "4)*19",
    "5798": "2 /sup ",
    "5799": "tinople",
    "5800": "lomon",
    "5801": "ometry",
    "5802": " Brit",
    "5803": "swan ",
    "5804": " Engl",
    "5805": " English",
    "5806": "absence",
    "5807": "absence of ",
    "5808": "popula",
    "5809": "populatio",
    "5810": "population ",
    "5811": "rdina",
    "5812": "header",
    "5813": "etc.)",
    "5814": "opposed",
    "5815": "Canaani",
    "5816": "ion",
    "5817": "ern ",
    "5818": "r re",
    "5819": "r revers",
    "5820": "r reverse ",
    "5821": "trovers",
    "5822": "ouncil",
    "5823": " Mi",
    "5824": " Migue",
    "5825": "assistan",
    "5826": "auton",
    "5827": "autonom",
    "5828": "/math ",
    "5829": "ngerou",
    "5830": "alm ",
    "5831": "modern",
    "5832": "r'",
    "5833": "sensu",
    "5834": "longer",
    "5835": "period",
    "5836": "refore",
    "5837": "refore, ",
    "5838": "both ",
    "5839": "ficienc",
    "5840": "ides ",
    "5841": "orld W",
    "5842": "orld War",
    "5843": "orld War I",
    "5844": "td styl",
    "5845": "td style=",
    "5846": "inoza",
    "5847": "Zealand",
    "5848": "kinson",
    "5849": "fluenced",
    "5850": "er for",
    "5851": "Dess",
    "5852": "derive",
    "5853": "derived ",
    "5854": "Danes",
    "5855": "dditio",
    "5856": "dditional",
    "5857": "dditionally",
    "5858": "shows",
    "5859": "signals",
    "5860": "atly",
    "5861": "ging f",
    "5862": "ging from ",
    "5863": "Gib",
    "5864": "Gibralt",
    "5865": "elecomm",
    "5866": "elecommuni",
    "5867": "elecommunicat",
    "5868": "arily",
    "5869": "at bi",
    "5870": "otide ",
    "5871": "lted ",
    "5872": "alysis",
    "5873": "feel ",
    "5874": "asily",
    "5875": "ire (",
    "5876": "mphas",
    "5877": "ed by ",
    "5878": "ease of ",
    "5879": "igrams",
    "5880": "ipia",
    "5881": "frequently",
    "5882": "St. ",
    "5883": "St. Lo",
    "5884": "St. Louis",
    "5885": "particul",
    "5886": "particular",
    "5887": "ches",
    "5888": " rod",
    "5889": "sides",
    "5890": "charact",
    "5891": "or (b. ",
    "5892": "or (b. 19",
    "5893": "tient",
    "5894": "ientist",
    "5895": "ociate",
    "5896": "irport",
    "5897": "establi",
    "5898": "establish",
    "5899": "establishment",
    "5900": "onatio",
    "5901": "ured ",
    "5902": "3 ndash",
    "5903": "Front",
    "5904": "ecuted ",
    "5905": "wegi",
    "5906": "legend",
    "5907": "or (",
    "5908": "or (d.",
    "5909": "or (d. ",
    "5910": "calibu",
    "5911": "5. ",
    "5912": "s (",
    "5913": "s (1",
    "5914": "hotic",
    "5915": "1 mil",
    "5916": "1 million",
    "5917": "zero",
    "5918": "sever",
    "5919": "olatry",
    "5920": "junctio",
    "5921": "junction ",
    "5922": "junction with",
    "5923": "ocated ",
    "5924": "easy ",
    "5925": "rkele",
    "5926": "comes",
    "5927": "ti-",
    "5928": "evolut",
    "5929": "evolutio",
    "5930": " tt ",
    "5931": "eed",
    "5932": "eed, ",
    "5933": "veste",
    "5934": "vested ",
    "5935": "maria",
    "5936": "probab",
    "5937": "probably",
    "5938": "ereas ",
    "5939": "juice",
    "5940": "v. ",
    "5941": "late ",
    "5942": "k's ",
    "5943": "arlia",
    "5944": "arliament",
    "5945": "annot ",
    "5946": "ysical",
    "5947": "hundr",
    "5948": "hundred",
    "5949": "episo",
    "5950": "inical",
    "5951": "C East",
    "5952": "C East ",
    "5953": "twenti",
    "5954": "twentieth",
    "5955": "twentieth cent",
    "5956": "twentieth centur",
    "5957": "vival ",
    "5958": "used ",
    "5959": "housin",
    "5960": "repla",
    "5961": "replaced",
    "5962": "osing ",
    "5963": "er z",
    "5964": "whirl",
    "5965": "whirlpo",
    "5966": "whirlpool",
    "5967": "Comm",
    "5968": "place ",
    "5969": "oval ",
    "5970": "oval of ",
    "5971": "ll, ",
    "5972": "orth A",
    "5973": "orth Ameri",
    "5974": "lta",
    "5975": "episode ",
    "5976": "umerabl",
    "5977": " de",
    "5978": " deg",
    "5979": " deg;",
    "5980": "toward",
    "5981": "floor",
    "5982": "floorball",
    "5983": "b of ",
    "5984": "civil",
    "5985": "-born",
    "5986": "whunt",
    "5987": "ferred ",
    "5988": ",:A",
    "5989": ",:And ",
    "5990": " Sa",
    "5991": "coming ",
    "5992": "Canada",
    "5993": "later ",
    "5994": "icago",
    "5995": "stud",
    "5996": "studied",
    "5997": "unish",
    "5998": "unishment",
    "5999": " (b. 19",
    "6000": "doub",
    "6001": "utilit",
    "6002": "utilitari",
    "6003": "daily",
    "6004": "mintan",
    "6005": "mintang",
    "6006": "language",
    "6007": "skepti",
    "6008": "duard",
    "6009": "ented ",
    "6010": "process",
    "6011": "6 ndash",
    "6012": "economic ",
    "6013": "0.",
    "6014": "keeping ",
    "6015": "worked",
    "6016": "Window",
    "6017": "shad",
    "6018": "bado",
    "6019": "bados, ",
    "6020": "alread",
    "6021": "ssiona",
    "6022": "ssionaries",
    "6023": "chco",
    "6024": "chcock",
    "6025": "Italia",
    "6026": "New ",
    "6027": "New Zea",
    "6028": "New Zealand",
    "6029": "pioneer",
    "6030": "leading",
    "6031": "level ",
    "6032": "Artic",
    "6033": "Article ",
    "6034": "rinsic",
    "6035": " frie",
    "6036": " far",
    "6037": "red to ",
    "6038": "nting ",
    "6039": "apple",
    "6040": "In 1",
    "6041": "In 17",
    "6042": "lific",
    "6043": "lgaria",
    "6044": "emorat",
    "6045": "nted ",
    "6046": "verify ",
    "6047": "archite",
    "6048": "architectur",
    "6049": "however",
    "6050": "went",
    "6051": "hes, ",
    "6052": "every ",
    "6053": "able ",
    "6054": "inpu",
    "6055": "rred ",
    "6056": "sbr ",
    "6057": "ors, ",
    "6058": "present",
    "6059": "value",
    "6060": "pzig",
    "6061": "2)*200",
    "6062": " as ",
    "6063": "serious",
    "6064": "efore ",
    "6065": "reason ",
    "6066": "ten ",
    "6067": "ten his",
    "6068": "ten histor",
    "6069": "religio",
    "6070": "ecome",
    "6071": "g;",
    "6072": "ercy ",
    "6073": "kelet",
    "6074": "strea",
    "6075": "rs /td",
    "6076": "rs /td td",
    "6077": "rices",
    "6078": " sho",
    "6079": "section",
    "6080": "digital ",
    "6081": "eurs ",
    "6082": "Hun",
    "6083": "Hungar",
    "6084": "a, ",
    "6085": "stal ",
    "6086": "includ",
    "6087": "/ref",
    "6088": "side of ",
    "6089": "pressi",
    "6090": "ecil ",
    "6091": "because",
    "6092": "to be ",
    "6093": "office",
    "6094": "Soft",
    "6095": "Software",
    "6096": "3)*19",
    "6097": " produc",
    "6098": "Princ",
    "6099": "Princip",
    "6100": "Principia",
    "6101": "Bengal",
    "6102": "vehicl",
    "6103": "early",
    "6104": "early ",
    "6105": "succ",
    "6106": "intern",
    "6107": "international",
    "6108": "nucle",
    "6109": "e, ",
    "6110": "ssess",
    "6111": "basic ",
    "6112": "Georg",
    "6113": " bio",
    "6114": "winning",
    "6115": "Cly",
    "6116": "Clytem",
    "6117": "Clytemnes",
    "6118": "-based",
    "6119": "later",
    "6120": "later, ",
    "6121": "kha",
    "6122": "khail",
    "6123": "ful ",
    "6124": "making",
    "6125": "over ",
    "6126": "Nietzsch",
    "6127": "hanged ",
    "6128": "ive of ",
    "6129": "gave ",
    "6130": "ternal ",
    "6131": "Comput",
    "6132": "was, ",
    "6133": "toler",
    "6134": "evious",
    "6135": "knife",
    "6136": "phical",
    "6137": " Co",
    "6138": " Coast",
    "6139": "15-",
    "6140": "15-6",
    "6141": "nline",
    "6142": "on (",
    "6143": "on (19",
    "6144": " official",
    "6145": " officials ",
    "6146": "lx",
    "6147": "pinio",
    "6148": " took ",
    "6149": "ator of ",
    "6150": "vertheless",
    "6151": "vertheless, ",
    "6152": "clusi",
    "6153": " ver",
    "6154": " verbs",
    "6155": "ed that ",
    "6156": "an Cath",
    "6157": "an Catholic",
    "6158": "board",
    "6159": "less tha",
    "6160": "less than ",
    "6161": "ds, ",
    "6162": "y year",
    "6163": "indoors",
    "6164": "ustment",
    "6165": "-B",
    "6166": "-Bissa",
    "6167": "-Bissau",
    "6168": "scroll",
    "6169": "umber of ",
    "6170": "Costa",
    "6171": "bidde",
    "6172": "oated ",
    "6173": "sidered",
    "6174": "trioti",
    "6175": "triotic ",
    "6176": "short",
    "6177": "short, ",
    "6178": "cipli",
    "6179": "democr",
    "6180": "turned ",
    "6181": "claim",
    "6182": "rison",
    "6183": "risonment",
    "6184": "muel ",
    "6185": "emplif",
    "6186": "cy of ",
    "6187": "rtrtd ",
    "6188": "Mus",
    "6189": "Muslim",
    "6190": "Earth",
    "6191": "things",
    "6192": "egan ",
    "6193": "cryp",
    "6194": "-sc",
    "6195": "-scale",
    "6196": "fferi",
    "6197": "ffering ",
    "6198": "structur",
    "6199": "bird",
    "6200": "theria",
    "6201": "quering",
    "6202": "provided ",
    "6203": "lling ",
    "6204": "lyric",
    "6205": "immed",
    "6206": "immediat",
    "6207": "album",
    "6208": "nger ",
    "6209": "Engine",
    "6210": "t's ",
    "6211": "phy ",
    "6212": "founda",
    "6213": "foundatio",
    "6214": "typical",
    "6215": "city ",
    "6216": "derives ",
    "6217": "women",
    "6218": "sister",
    "6219": "ly, ",
    "6220": "lumina",
    "6221": "0 L ",
    "6222": "asis ",
    "6223": "sbur",
    "6224": "ingred",
    "6225": "ingredient",
    "6226": "free ",
    "6227": "olutio",
    "6228": "heck",
    "6229": "uatio",
    "6230": "Madam",
    "6231": "Madame ",
    "6232": "processio",
    "6233": "referre",
    "6234": "referred ",
    "6235": "plastic",
    "6236": " Mo",
    "6237": "irly",
    "6238": "mouth ",
    "6239": "alway",
    "6240": "vailabl",
    "6241": "servati",
    "6242": "an be ",
    "6243": "onsiderabl",
    "6244": "onsiderable ",
    "6245": "mith",
    "6246": "assump",
    "6247": "assumptio",
    "6248": "learn",
    "6249": "tegic",
    "6250": " and math",
    "6251": "significan",
    "6252": "team ",
    "6253": "Platfo",
    "6254": "passi",
    "6255": "rity of ",
    "6256": "block",
    "6257": "blockqu",
    "6258": "field of ",
    "6259": "Part",
    "6260": "de, ",
    "6261": "onsist",
    "6262": "fell ",
    "6263": "e mou",
    "6264": "e mourn",
    "6265": "human ",
    "6266": "ading ",
    "6267": "weapon",
    "6268": "ibralt",
    "6269": "ibraltar",
    "6270": "Many ",
    "6271": "tained ",
    "6272": "T. ",
    "6273": "head ",
    "6274": "owner",
    "6275": "Arena",
    "6276": "cline",
    "6277": "pped ",
    "6278": "risto",
    "6279": "80s, ",
    "6280": "theor",
    "6281": "theory, ",
    "6282": "8,000",
    "6283": "vine ",
    "6284": "bric",
    "6285": "$hor",
    "6286": "alum",
    "6287": "milies",
    "6288": "given ",
    "6289": "ucia",
    "6290": "oken ",
    "6291": "hock",
    "6292": " /trtr",
    "6293": "bserv",
    "6294": "bserved ",
    "6295": " /td td",
    "6296": "parted ",
    "6297": "specula",
    "6298": "speculatio",
    "6299": "uce",
    "6300": "uce, ",
    "6301": "ygam",
    "6302": "initia",
    "6303": "usinia",
    "6304": "simple",
    "6305": "ories",
    "6306": "totyp",
    "6307": "camie",
    "6308": "camier ",
    "6309": "into ",
    "6310": "nomina",
    "6311": "nominated ",
    "6312": " mor",
    "6313": " Ameri",
    "6314": " America",
    "6315": "various",
    "6316": "wood",
    "6317": "woodland",
    "6318": "General",
    "6319": "upon ",
    "6320": "venant",
    "6321": "mite ",
    "6322": "conduct",
    "6323": "conducted ",
    "6324": "torial",
    "6325": "erred ",
    "6326": "radar",
    "6327": "ap of ",
    "6328": "philo",
    "6329": "Bill",
    "6330": "access",
    "6331": "set of ",
    "6332": "Theor",
    "6333": "hapter",
    "6334": "fringe",
    "6335": "erting ",
    "6336": "goal ",
    "6337": "rovide",
    "6338": "elephan",
    "6339": "living ",
    "6340": "y season",
    "6341": "neness",
    "6342": "devia",
    "6343": "deviatio",
    "6344": " Angl",
    "6345": "career",
    "6346": "night",
    "6347": "erience",
    "6348": "gular ",
    "6349": "shown ",
    "6350": "cussed ",
    "6351": "on-",
    "6352": "in, ",
    "6353": "ritici",
    "6354": "body ",
    "6355": "tamet",
    "6356": "mid",
    "6357": "tized ",
    "6358": "mensio",
    "6359": "done ",
    "6360": "life of ",
    "6361": "eter ",
    "6362": "oks ",
    "6363": "ssionary ",
    "6364": "fact that ",
    "6365": "essent",
    "6366": "essential",
    "6367": "atural ",
    "6368": "South",
    "6369": "ically",
    "6370": "ing to ",
    "6371": "1*",
    "6372": "yprus",
    "6373": ".j",
    "6374": ".jp",
    "6375": ".jpg",
    "6376": "ndment",
    "6377": "public ",
    "6378": "around",
    "6379": "greater",
    "6380": "meas",
    "6381": "argo ",
    "6382": "ngst ",
    "6383": "Gospe",
    "6384": "suade",
    "6385": "mes. ",
    "6386": "rength",
    "6387": "erwor",
    "6388": "growth of ",
    "6389": "holding",
    "6390": "First",
    "6391": "spective",
    "6392": " cell ",
    "6393": "rogram",
    "6394": "rhy",
    "6395": "ivilian",
    "6396": "Prussia",
    "6397": "shiel",
    "6398": "spring of ",
    "6399": "Night",
    "6400": "mewh",
    "6401": "mewhat ",
    "6402": "child",
    "6403": "children",
    "6404": "standard",
    "6405": "Gia",
    "6406": "Giant",
    "6407": "dred",
    "6408": "mutati",
    "6409": "erformed ",
    "6410": "ovember ",
    "6411": "ngelu",
    "6412": "ngelus ",
    "6413": "ngelus (",
    "6414": "give ",
    "6415": "Kai",
    "6416": "Kai-",
    "6417": "Kai-she",
    "6418": "universe",
    "6419": "song ",
    "6420": "common",
    "6421": "commonly",
    "6422": "topher",
    "6423": "percus",
    "6424": "percussion",
    "6425": "inorgan",
    "6426": "inorganic",
    "6427": " f(",
    "6428": "pand ",
    "6429": "nciate",
    "6430": "ted) ",
    "6431": "olastic",
    "6432": "second",
    "6433": "level",
    "6434": "errelat",
    "6435": "errelatio",
    "6436": "new ",
    "6437": "political ",
    "6438": "ease ",
    "6439": "mocrac",
    "6440": "penditu",
    "6441": "occasion",
    "6442": "Amhar",
    "6443": "toms ",
    "6444": "scholar",
    "6445": "ckey ",
    "6446": "color",
    "6447": "Ethio",
    "6448": "Ethiopi",
    "6449": "seek ",
    "6450": " plan",
    "6451": "uprisin",
    "6452": "reen ",
    "6453": "roduced ",
    "6454": "oning ",
    "6455": "arrays",
    "6456": "n Con",
    "6457": "n Conce",
    "6458": "ling",
    "6459": "linguis",
    "6460": "meet ",
    "6461": "tory ",
    "6462": "termina",
    "6463": "ned by ",
    "6464": "stored ",
    "6465": "rily ",
    "6466": "psyc",
    "6467": "heral",
    "6468": "haract",
    "6469": "pagan",
    "6470": "ellect",
    "6471": "ellectual",
    "6472": "Terce",
    "6473": "Terceira",
    "6474": "supers",
    "6475": "superscal",
    "6476": " Con",
    "6477": " Conce",
    "6478": "ndance ",
    "6479": "molecules",
    "6480": "most like",
    "6481": " day",
    "6482": "quer ",
    "6483": "ntium ",
    "6484": "mfu",
    "6485": "Constan",
    "6486": "Constantin",
    "6487": "St A",
    "6488": "St Alban",
    "6489": "graphi",
    "6490": "tled to ",
    "6491": "destro",
    "6492": "destroyed",
    "6493": "House ",
    "6494": "ccurre",
    "6495": "ccurred ",
    "6496": "ptions",
    "6497": "province",
    "6498": " ' ",
    "6499": "tight",
    "6500": "advan",
    "6501": "lives ",
    "6502": "networ",
    "6503": " beli",
    "6504": " believe",
    "6505": "have been",
    "6506": "divided ",
    "6507": "attern",
    "6508": "fidenc",
    "6509": "ayed ",
    "6510": "instru",
    "6511": "instrument",
    "6512": "ngular",
    "6513": "mostly",
    "6514": "in 1",
    "6515": "8), ",
    "6516": "per ",
    "6517": "disam",
    "6518": "disambi",
    "6519": "multi",
    "6520": ":rig",
    "6521": ":right",
    "6522": "itual ",
    "6523": "building",
    "6524": "tential",
    "6525": "defined",
    "6526": "has been",
    "6527": "mance",
    "6528": "3/",
    "6529": "pediti",
    "6530": "touch",
    "6531": "touchabl",
    "6532": "ieved ",
    "6533": "thiopi",
    "6534": "IB",
    "6535": "ectio",
    "6536": "ve, ",
    "6537": "I, ",
    "6538": "unit of ",
    "6539": "umbai",
    "6540": "called",
    "6541": "From ",
    "6542": "'a ",
    "6543": "an (",
    "6544": " found",
    "6545": "ress*",
    "6546": "mply ",
    "6547": "mathema",
    "6548": "mathematic",
    "6549": "90 - ",
    "6550": "hnolog",
    "6551": "caval",
    "6552": "more",
    "6553": "more, ",
    "6554": "ilibr",
    "6555": "senger",
    "6556": "Hall ",
    "6557": " article",
    "6558": "er*",
    "6559": "centur",
    "6560": "century ",
    "6561": "., ",
    "6562": "21, ",
    "6563": "g|",
    "6564": "ores ",
    "6565": "raduat",
    "6566": "ifferen",
    "6567": "ttlement",
    "6568": " after",
    "6569": "downto",
    "6570": "us, ",
    "6571": "viewed",
    "6572": "stock",
    "6573": "sting ",
    "6574": "figur",
    "6575": "plied",
    "6576": "se, ",
    "6577": "Heraldr",
    "6578": "tored ",
    "6579": "viatio",
    "6580": "mself",
    "6581": "e on ",
    "6582": "ergrad",
    "6583": "ergraduat",
    "6584": "Latin",
    "6585": "nized ",
    "6586": "And ",
    "6587": "ceedi",
    "6588": " of vie",
    "6589": " biology",
    "6590": "alism",
    "6591": "record",
    "6592": "4 br",
    "6593": "klah",
    "6594": "klahoma",
    "6595": "buried",
    "6596": "umous",
    "6597": "hurch",
    "6598": "owing to ",
    "6599": "high",
    "6600": "combina",
    "6601": "narro",
    "6602": "animous",
    "6603": "rting ",
    "6604": "yet ",
    "6605": "ristobal",
    "6606": "urth ",
    "6607": "bia ",
    "6608": "petua",
    "6609": "o. ",
    "6610": "using ",
    "6611": "owly ",
    "6612": "avoi",
    "6613": "avoisi",
    "6614": "n (",
    "6615": "n (19",
    "6616": "sitio",
    "6617": "s /td",
    "6618": "s /td td",
    "6619": "e out ",
    "6620": "tricte",
    "6621": "ising ",
    "6622": "of Ch",
    "6623": "taught",
    "6624": "it as ",
    "6625": "term ",
    "6626": "ernatur",
    "6627": "ernatural ",
    "6628": "ested ",
    "6629": "esthe",
    "6630": "folk",
    "6631": "Today",
    "6632": "might",
    "6633": "DNS ",
    "6634": "able to",
    "6635": "nowi",
    "6636": "style=",
    "6637": "lus ",
    "6638": "lus (",
    "6639": "iversit",
    "6640": "primar",
    "6641": "primary ",
    "6642": "members of ",
    "6643": "aches",
    "6644": "nous ",
    "6645": " exp",
    "6646": "eap ",
    "6647": "ience fic",
    "6648": "ience fictio",
    "6649": "under",
    "6650": " econom",
    "6651": "part of ",
    "6652": "answer",
    "6653": "ra, ",
    "6654": "Albania",
    "6655": "distributio",
    "6656": "merge",
    "6657": "merica",
    "6658": "oyev",
    "6659": "month",
    "6660": "lder ",
    "6661": "substan",
    "6662": "substances",
    "6663": "eigh",
    "6664": " Air",
    "6665": " Airport",
    "6666": "gnal ",
    "6667": "ought ",
    "6668": "eople",
    "6669": "ting ",
    "6670": "oxide",
    "6671": "sts ",
    "6672": "Xav",
    "6673": "Xavie",
    "6674": "nitio",
    "6675": "Guinea-",
    "6676": "Guinea-B",
    "6677": "Guinea-Bissa",
    "6678": "umed ",
    "6679": "ion ",
    "6680": "-H",
    "6681": "-Hun",
    "6682": "umstan",
    "6683": "umstances",
    "6684": "organis",
    "6685": "work ",
    "6686": "fined to ",
    "6687": "scap",
    "6688": "AF",
    "6689": "Roya",
    "6690": "Royal ",
    "6691": "accord",
    "6692": "according ",
    "6693": "according to ",
    "6694": "obliga",
    "6695": "cultural ",
    "6696": "km (",
    "6697": " (1",
    "6698": "ommuni",
    "6699": "ommunicat",
    "6700": "ko ",
    "6701": "terran",
    "6702": "changes",
    "6703": "ogra",
    "6704": "cordance",
    "6705": "cordance ",
    "6706": "cordance with",
    "6707": "ies of ",
    "6708": "anized ",
    "6709": "Other",
    "6710": "croso",
    "6711": "of-",
    "6712": "sloga",
    "6713": "slogan ",
    "6714": "n rig",
    "6715": "n right",
    "6716": "censor",
    "6717": " AL",
    "6718": " ALI",
    "6719": "score ",
    "6720": "decad",
    "6721": "perature",
    "6722": "hortly",
    "6723": "Prime",
    "6724": "Prime ",
    "6725": " class",
    "6726": "er*19",
    "6727": "ccount",
    "6728": "ed as ",
    "6729": "about ",
    "6730": "four ",
    "6731": "1980s",
    "6732": "even ",
    "6733": "iambi",
    "6734": "iambic ",
    "6735": "19 - ",
    "6736": "raria",
    "6737": "Upper",
    "6738": "Upper ",
    "6739": "frast",
    "6740": "frastruct",
    "6741": "could ",
    "6742": "ily ",
    "6743": "4 year",
    "6744": "gazi",
    "6745": "Orthodo",
    "6746": "case of ",
    "6747": "entrust",
    "6748": "entrusted ",
    "6749": "sted ",
    "6750": "of Fa",
    "6751": "teeth",
    "6752": "would",
    "6753": "etween ",
    "6754": "nav",
    "6755": "navy ",
    "6756": "role ",
    "6757": "structe",
    "6758": "st of ",
    "6759": " td cent",
    "6760": " td center ",
    "6761": "Time",
    "6762": "Star",
    "6763": "Star-",
    "6764": "Star-T",
    "6765": "laund",
    "6766": "impson",
    "6767": "operatio",
    "6768": "obel ",
    "6769": "alitio",
    "6770": "Spain",
    "6771": "k II",
    "6772": "recent",
    "6773": "recently",
    "6774": "ephen ",
    "6775": "For exa",
    "6776": "For example",
    "6777": "iment",
    "6778": "urrecte",
    "6779": "emperor",
    "6780": "morphine",
    "6781": "when ",
    "6782": "deals with",
    "6783": "possibly",
    "6784": " airc",
    "6785": " aircra",
    "6786": "dame ",
    "6787": "ccurs",
    "6788": "trole",
    "6789": "battle ",
    "6790": "d. ",
    "6791": "caster ",
    "6792": "M-D",
    "6793": "M-D|",
    "6794": "(d.",
    "6795": "1 /su",
    "6796": "UB",
    "6797": "UBB",
    "6798": "nter ",
    "6799": "eted ",
    "6800": "GDP",
    "6801": "whole ",
    "6802": "Dhe",
    "6803": "Dheke",
    "6804": "received ",
    "6805": "ported ",
    "6806": "ported by ",
    "6807": "self-",
    "6808": "4|",
    "6809": "s that ",
    "6810": "cusation",
    "6811": ", 19",
    "6812": "orres",
    "6813": "orrespon",
    "6814": "other ",
    "6815": "scurit",
    "6816": "2 /td",
    "6817": "ffect",
    "6818": "five ",
    "6819": "ngerous ",
    "6820": " bip",
    "6821": " bipolar",
    "6822": "t known",
    "6823": "se to ",
    "6824": "lling",
    "6825": "llingness",
    "6826": "helm",
    "6827": "math ",
    "6828": " Emp",
    "6829": " Empire",
    "6830": "notably",
    "6831": " (17",
    "6832": "lthough ",
    "6833": "20 ",
    "6834": "20 year",
    "6835": "/bl",
    "6836": "/block",
    "6837": "Client",
    "6838": "antic",
    "6839": "seems",
    "6840": "cqu",
    "6841": "pplica",
    "6842": "pplicatio",
    "6843": "ers to ",
    "6844": "e tradi",
    "6845": "e traditio",
    "6846": "igen",
    "6847": "igenous",
    "6848": "nounced ",
    "6849": "ce (",
    "6850": " nbsp",
    "6851": "etitio",
    "6852": "standing",
    "6853": "Octo",
    "6854": "October",
    "6855": "heter",
    "6856": "heterose",
    "6857": "heterosexua",
    "6858": "es o",
    "6859": "es on ",
    "6860": "ff, ",
    "6861": "well as",
    "6862": "oking ",
    "6863": "mating ",
    "6864": "roach ",
    "6865": "entertain",
    "6866": "entertainer ",
    "6867": "entertainer (b. ",
    "6868": "ed for",
    "6869": "us rem",
    "6870": "ure fi",
    "6871": "ure film",
    "6872": "ginning",
    "6873": "micro",
    "6874": "instance",
    "6875": "oting ",
    "6876": "degree",
    "6877": " nece",
    "6878": " necessa",
    "6879": "hilip",
    "6880": "stroyed",
    "6881": "ypto",
    "6882": "yptogra",
    "6883": "nviron",
    "6884": "nvironment",
    "6885": "giving",
    "6886": "Phil",
    "6887": "underg",
    "6888": "bject to ",
    "6889": " popular",
    "6890": "Helle",
    "6891": "ns, ",
    "6892": "urce of ",
    "6893": "ddiction",
    "6894": "lch",
    "6895": "rbor ",
    "6896": "mount of ",
    "6897": "Coven",
    "6898": "Covenant",
    "6899": "mphon",
    "6900": "ercise",
    "6901": "body",
    "6902": "7)I",
    "6903": "7)Imag",
    "6904": "ernate",
    "6905": " known",
    "6906": " known as",
    "6907": "Hand",
    "6908": "ained ",
    "6909": "ractice",
    "6910": "udio",
    "6911": "right",
    "6912": "Arch",
    "6913": "never",
    "6914": "memn",
    "6915": "nship",
    "6916": "reflect",
    "6917": "ms of ",
    "6918": "forest",
    "6919": "'ll",
    "6920": "militar",
    "6921": "military ",
    "6922": "s' ",
    "6923": "arrass",
    "6924": "culated ",
    "6925": "ucted ",
    "6926": "leptic",
    "6927": "gely ",
    "6928": "s thro",
    "6929": "s through",
    "6930": "nest ",
    "6931": "Russell",
    "6932": "ecomin",
    "6933": "ecoming ",
    "6934": "philosoph",
    "6935": "ugust ",
    "6936": "lash ",
    "6937": "Gates ",
    "6938": " Amen",
    "6939": " Amend",
    "6940": " Amendment",
    "6941": "8-1",
    "6942": "8-19",
    "6943": "ntries ",
    "6944": "n Da",
    "6945": "ed from ",
    "6946": "rvard",
    "6947": "fagin",
    "6948": "faginning",
    "6949": "enalti",
    "6950": "enalties",
    "6951": "Basel",
    "6952": "George ",
    "6953": "Harv",
    "6954": "Harvard",
    "6955": "sible ",
    "6956": "z, ",
    "6957": "le to ",
    "6958": "vived ",
    "6959": "Military ",
    "6960": "diffic",
    "6961": "difficult",
    "6962": "irman of ",
    "6963": "ling ",
    "6964": "becom",
    "6965": "become ",
    "6966": "6, ",
    "6967": "geance",
    "6968": "idean ",
    "6969": "Nazi",
    "6970": "reduc",
    "6971": "reduced ",
    "6972": "tform ",
    "6973": "ortio",
    "6974": "s (19",
    "6975": "capita",
    "6976": "henomen",
    "6977": "scru",
    "6978": "scrump",
    "6979": "effect",
    "6980": "opota",
    "6981": "opotamia",
    "6982": "ggestio",
    "6983": "ggestion ",
    "6984": "quili",
    "6985": "gatio",
    "6986": "isation",
    "6987": "street",
    "6988": "suffi",
    "6989": "shers",
    "6990": "ancial",
    "6991": "disorder",
    "6992": "jerse",
    "6993": "Presid",
    "6994": "announc",
    "6995": "life",
    "6996": "bottom",
    "6997": "Independ",
    "6998": "Independence",
    "6999": "Dino",
    "7000": "Dinosa",
    "7001": "likely",
    "7002": "erritor",
    "7003": "delity",
    "7004": "ature of ",
    "7005": "rthodo",
    "7006": "30, ",
    "7007": "proxim",
    "7008": "proximate",
    "7009": "proximately",
    "7010": "Various",
    "7011": "izoph",
    "7012": "izophren",
    "7013": "holog",
    "7014": "treat",
    "7015": "treatment",
    "7016": "entered",
    "7017": "U-b",
    "7018": "U-boa",
    "7019": "compan",
    "7020": "free spa",
    "7021": "oregion",
    "7022": "general ",
    "7023": "Upon ",
    "7024": "Gould",
    "7025": "kers",
    "7026": "urean ",
    "7027": "origin",
    "7028": "home ",
    "7029": "parative",
    "7030": "istant ",
    "7031": "toric",
    "7032": "Time ",
    "7033": "Time z",
    "7034": "D.C.",
    "7035": "ns /td",
    "7036": "ns /td td",
    "7037": "ublic ",
    "7038": "divine ",
    "7039": "lied ",
    "7040": "calls ",
    "7041": "rchase",
    "7042": "Conce",
    "7043": "mage",
    "7044": "mage:",
    "7045": "staina",
    "7046": "Barke",
    "7047": "certain",
    "7048": "BM ",
    "7049": "bordin",
    "7050": "bordinate",
    "7051": "ival of ",
    "7052": "0)I",
    "7053": "0)Imag",
    "7054": " Parl",
    "7055": " Parlia",
    "7056": " Parliament",
    "7057": "e rec",
    "7058": "e record",
    "7059": "togra",
    "7060": "tograph",
    "7061": "enz",
    "7062": " theor",
    "7063": "cluded ",
    "7064": "incand",
    "7065": "incandes",
    "7066": "icipation",
    "7067": "icipation of ",
    "7068": "brutal",
    "7069": "social ",
    "7070": "6 nbsp",
    "7071": "6 nbsp;",
    "7072": "gellan",
    "7073": "market",
    "7074": "ppoint",
    "7075": "icious",
    "7076": "earance",
    "7077": "Cent",
    "7078": "Centur",
    "7079": "ssing ",
    "7080": "h's ",
    "7081": "t or ",
    "7082": "Broad",
    "7083": "Broadway",
    "7084": "sely ",
    "7085": "witze",
    "7086": "sistan",
    "7087": "See ",
    "7088": "ternational",
    "7089": "Egypt",
    "7090": "Egyptia",
    "7091": "problem",
    "7092": "ballad",
    "7093": "weight",
    "7094": "fessio",
    "7095": "fessional ",
    "7096": " Broad",
    "7097": " Broadway",
    "7098": "superscalar",
    "7099": "hours",
    "7100": "e-mai",
    "7101": "rap ",
    "7102": "radise ",
    "7103": "nectio",
    "7104": "nection ",
    "7105": "mendo",
    "7106": "mendous ",
    "7107": "frame",
    "7108": "gorithm",
    "7109": "known as",
    "7110": "same ",
    "7111": "agnar",
    "7112": "important",
    "7113": "tified",
    "7114": "audio",
    "7115": "llowed ",
    "7116": "island",
    "7117": " featur",
    "7118": " featured ",
    "7119": "data ",
    "7120": "ulted ",
    "7121": "imperf",
    "7122": "imperfect",
    "7123": "still ",
    "7124": "extin",
    "7125": "extinction",
    "7126": "anic ",
    "7127": "believ",
    "7128": "which ",
    "7129": " field",
    "7130": "ultimately",
    "7131": "ihu",
    "7132": "ihuah",
    "7133": "appo",
    "7134": "appoint",
    "7135": "real ",
    "7136": "easily",
    "7137": "emula",
    "7138": "elong ",
    "7139": "roider",
    "7140": "omous ",
    "7141": "triarch",
    "7142": "):",
    "7143": "ssistan",
    "7144": "ssistant ",
    "7145": "Court",
    "7146": "ce, ",
    "7147": "prior ",
    "7148": "prior to ",
    "7149": "Pacif",
    "7150": "Pacific",
    "7151": "eam ",
    "7152": "Ceci",
    "7153": "Cecil ",
    "7154": "pter ",
    "7155": "refer ",
    "7156": "sterdam",
    "7157": "cades",
    "7158": "Democr",
    "7159": "find ",
    "7160": "identi",
    "7161": "identified",
    "7162": "ammy ",
    "7163": "minor ",
    "7164": "achiev",
    "7165": "ptember",
    "7166": "lighting",
    "7167": "uing ",
    "7168": "vesti",
    "7169": "vestigat",
    "7170": "deser",
    "7171": "tempt",
    "7172": "andes",
    "7173": "cement ",
    "7174": "risone",
    "7175": "James ",
    "7176": "rs. ",
    "7177": "rasive",
    "7178": "nator",
    "7179": "hnique",
    "7180": "dolla",
    "7181": "dollars",
    "7182": "Cry",
    "7183": "copy",
    "7184": "nated ",
    "7185": "oordin",
    "7186": "n by ",
    "7187": "r's ",
    "7188": "kage",
    "7189": "acid",
    "7190": " elect",
    "7191": " electio",
    "7192": "ses ",
    "7193": "atemal",
    "7194": "titude",
    "7195": "offici",
    "7196": "lade ",
    "7197": "Crim",
    "7198": "rvey",
    "7199": "rvey*",
    "7200": "rum",
    "7201": "esote",
    "7202": "esoteric",
    "7203": "s of mil",
    "7204": "perating",
    "7205": "perating ",
    "7206": "perating syst",
    "7207": "maintain",
    "7208": "husia",
    "7209": "exchang",
    "7210": "April",
    "7211": "April ",
    "7212": "operating",
    "7213": "atised ",
    "7214": "ingly",
    "7215": "said ",
    "7216": "fronta",
    "7217": "icut ",
    "7218": "acilit",
    "7219": "acilitate",
    "7220": "ca ",
    "7221": "Press",
    "7222": " organ",
    "7223": "Eastern",
    "7224": "ended ",
    "7225": "ended from ",
    "7226": "..",
    "7227": " Ho",
    "7228": "ibn ",
    "7229": "crashed",
    "7230": "pposed ",
    "7231": "pposed to ",
    "7232": "Mark Byer",
    "7233": "pular ",
    "7234": "urement",
    "7235": "scored ",
    "7236": "witnesses",
    "7237": "natur",
    "7238": "cessio",
    "7239": "5-19",
    "7240": "Ecu",
    "7241": "Ecuad",
    "7242": "respect",
    "7243": "respective",
    "7244": "logic",
    "7245": "izing ",
    "7246": "mies",
    "7247": "div ",
    "7248": "div styl",
    "7249": "div style=",
    "7250": "ncient",
    "7251": "pel ",
    "7252": "ference",
    "7253": "pilers",
    "7254": "gneto ",
    "7255": "coach",
    "7256": "gway",
    "7257": "augh",
    "7258": "nforce",
    "7259": "0)*19",
    "7260": "follow",
    "7261": "following ",
    "7262": "hand, ",
    "7263": "well, ",
    "7264": "differ",
    "7265": "different ",
    "7266": "ustrial",
    "7267": "ipeli",
    "7268": "square ",
    "7269": "/fe",
    "7270": "/female",
    "7271": "mmuni",
    "7272": "hypothe",
    "7273": "his lif",
    "7274": "kingdom",
    "7275": "killi",
    "7276": "killing ",
    "7277": "r less",
    "7278": "spite of ",
    "7279": "nalism",
    "7280": "rassic",
    "7281": "eding ",
    "7282": "inese ",
    "7283": "inform",
    "7284": "information",
    "7285": "bitrar",
    "7286": "end of ",
    "7287": "counte",
    "7288": "Neuro",
    "7289": "asure",
    "7290": "characteri",
    "7291": "asic ",
    "7292": "uthor",
    "7293": "After",
    "7294": "endant",
    "7295": "dnap",
    "7296": "dnapped",
    "7297": "male ",
    "7298": "male st",
    "7299": "male stud",
    "7300": "atural num",
    "7301": "atural number",
    "7302": "dictio",
    "7303": "music",
    "7304": "sses",
    "7305": "catec",
    "7306": "catechis",
    "7307": "catechism ",
    "7308": "Californ",
    "7309": "California",
    "7310": "stitutio",
    "7311": "picking",
    "7312": "chhi",
    "7313": "chhike",
    "7314": "Pakis",
    "7315": "Pakistan",
    "7316": "large",
    "7317": "nism ",
    "7318": "few ",
    "7319": "duced ",
    "7320": "paganda",
    "7321": "selve",
    "7322": "djective",
    "7323": "allia",
    "7324": "alliance",
    "7325": "ke of ",
    "7326": "rown ",
    "7327": "volved ",
    "7328": "NE",
    "7329": "riostat",
    "7330": "lities",
    "7331": "quired",
    "7332": "monstra",
    "7333": "nford",
    "7334": "mbic ",
    "7335": "ening ",
    "7336": "vileg",
    "7337": "grew ",
    "7338": "nistan",
    "7339": "huah",
    "7340": "ribes",
    "7341": "tact",
    "7342": "Disa",
    "7343": "Disaster",
    "7344": "creati",
    "7345": "creating ",
    "7346": "marriage ",
    "7347": "% of ",
    "7348": "utpu",
    "7349": "choice",
    "7350": "e the ",
    "7351": "rtly",
    "7352": "volume",
    "7353": "man ",
    "7354": "behav",
    "7355": "vocat",
    "7356": "vocatio",
    "7357": "onald",
    "7358": "flew ",
    "7359": "speec",
    "7360": "ovatio",
    "7361": "national ",
    "7362": "Alla",
    "7363": "Allah ",
    "7364": "Federation",
    "7365": "17",
    "7366": "flight",
    "7367": "emist",
    "7368": "emergence",
    "7369": "merly",
    "7370": "enelu",
    "7371": "enelux ",
    "7372": "vention ",
    "7373": "front",
    "7374": "Her",
    "7375": "Herze",
    "7376": "Herzegov",
    "7377": " in ",
    "7378": " Press",
    "7379": "immuni",
    "7380": "immunity ",
    "7381": " Army",
    "7382": "rlia",
    "7383": "rliament",
    "7384": "Dhekelia",
    "7385": " one ",
    "7386": "TD A",
    "7387": "TD AL",
    "7388": "TD ALI",
    "7389": "proach",
    "7390": "ched ",
    "7391": "rain, ",
    "7392": "guitar",
    "7393": "friend",
    "7394": "view ",
    "7395": "ctiva",
    "7396": "temple",
    "7397": "lcon",
    "7398": "AK",
    "7399": "AK-",
    "7400": "Roman ",
    "7401": "um BC",
    "7402": "cases",
    "7403": "Ed",
    "7404": "Baham",
    "7405": "set ",
    "7406": "yal ",
    "7407": "rek ",
    "7408": "ricade",
    "7409": "stories",
    "7410": " 19",
    "7411": "ttack",
    "7412": "ss of ",
    "7413": "hs ",
    "7414": "iant",
    "7415": "letely",
    "7416": "cuous",
    "7417": "Christ",
    "7418": "Christma",
    "7419": "set of all",
    "7420": "etc.",
    "7421": "sequence",
    "7422": "stage ",
    "7423": "father",
    "7424": " temp",
    "7425": " temperat",
    "7426": "tract",
    "7427": "tells ",
    "7428": "c|",
    "7429": "c|-|",
    "7430": "ivalent ",
    "7431": "fairs",
    "7432": "Follow",
    "7433": "Following ",
    "7434": "realit",
    "7435": "arner",
    "7436": "SO",
    "7437": "SOX ",
    "7438": "ismarc",
    "7439": "ductio",
    "7440": "engineeri",
    "7441": "putati",
    "7442": "putation ",
    "7443": "issow",
    "7444": "raditio",
    "7445": "kept",
    "7446": "ypical",
    "7447": "Standard",
    "7448": "shmi",
    "7449": "editio",
    "7450": "ckerman",
    "7451": "erstit",
    "7452": "Saturn ",
    "7453": "on afte",
    "7454": "on after ",
    "7455": "legendar",
    "7456": "fact",
    "7457": "fact, ",
    "7458": "actors",
    "7459": "5)*",
    "7460": "andida",
    "7461": "large ",
    "7462": "funct",
    "7463": "functio",
    "7464": "etrop",
    "7465": "etropoli",
    "7466": "etropolitan",
    "7467": "Paladi",
    "7468": "E. ",
    "7469": "actual",
    "7470": "actually",
    "7471": "last ",
    "7472": "les ",
    "7473": "jective",
    "7474": "posal ",
    "7475": "athlet",
    "7476": "athletic",
    "7477": "out of ",
    "7478": "plex ",
    "7479": " back",
    "7480": "in 19",
    "7481": "pkin",
    "7482": "roducing ",
    "7483": "se that ",
    "7484": "dry ",
    "7485": "didat",
    "7486": "Epi",
    "7487": "Epist",
    "7488": "valry ",
    "7489": "editerr",
    "7490": "editerran",
    "7491": "Nuke",
    "7492": "Nukem ",
    "7493": "cious",
    "7494": "ggested ",
    "7495": "ially",
    "7496": "telli",
    "7497": "Ducas",
    "7498": "DE",
    "7499": "diseas",
    "7500": "Father ",
    "7501": "D su",
    "7502": "D sub ",
    "7503": "rease ",
    "7504": "rease in ",
    "7505": "ruptio",
    "7506": "hases",
    "7507": " epi",
    "7508": " epist",
    "7509": " ALIG",
    "7510": "Idea",
    "7511": "erial ",
    "7512": "week",
    "7513": "arithm",
    "7514": "arithmetic",
    "7515": "ics ",
    "7516": "jazz",
    "7517": "erly ",
    "7518": "late 200",
    "7519": "accordance",
    "7520": "ooth ",
    "7521": "nogra",
    "7522": "actor ",
    "7523": "actor (b. ",
    "7524": "seat ",
    "7525": "ential",
    "7526": "nd, ",
    "7527": "Agame",
    "7528": "Agamemn",
    "7529": "hate ",
    "7530": "indows ",
    "7531": "Jerse",
    "7532": "logo ",
    "7533": "th of ",
    "7534": "agree",
    "7535": "plement",
    "7536": "respon",
    "7537": "rocess",
    "7538": "rocesses",
    "7539": "denoted ",
    "7540": "-old ",
    "7541": "ritic",
    "7542": "moving",
    "7543": "gthy ",
    "7544": "driati",
    "7545": "daught",
    "7546": "tesurf",
    "7547": "so, ",
    "7548": " York ",
    "7549": "|| ",
    "7550": " ref",
    "7551": " refer ",
    "7552": "nctio",
    "7553": " of Ameri",
    "7554": " of America",
    "7555": "hired ",
    "7556": "icting ",
    "7557": "llary ",
    "7558": "eties",
    "7559": "mamma",
    "7560": "tton ",
    "7561": "mbran",
    "7562": "ler of ",
    "7563": "Carat",
    "7564": "thwest",
    "7565": "ted, ",
    "7566": "questi",
    "7567": "1 (",
    "7568": "previous",
    "7569": "previously",
    "7570": "fficient",
    "7571": "rport",
    "7572": "DO",
    "7573": "comple",
    "7574": "Chica",
    "7575": "Chicago",
    "7576": "ublished",
    "7577": "omic ",
    "7578": "ttle ",
    "7579": "Gentry",
    "7580": "-E-",
    "7581": "Orlea",
    "7582": "varie",
    "7583": "genetic",
    "7584": "Dutch",
    "7585": "at's ",
    "7586": "Brazil, ",
    "7587": "ttsb",
    "7588": "ttsbur",
    "7589": "mbers of ",
    "7590": "licated ",
    "7591": ".v",
    "7592": "alcula",
    "7593": "ysteries",
    "7594": "stry ",
    "7595": "underl",
    "7596": "underlying",
    "7597": "rying ",
    "7598": "priate",
    "7599": "ccept",
    "7600": "Popula",
    "7601": "Populatio",
    "7602": " Ni",
    "7603": "no ",
    "7604": "Empire",
    "7605": "example",
    "7606": "examples of ",
    "7607": "regis",
    "7608": "register",
    "7609": "esop",
    "7610": "esopota",
    "7611": "tended ",
    "7612": "measure",
    "7613": "mage ",
    "7614": "mage with",
    "7615": "hands of ",
    "7616": "ussian ",
    "7617": " are ",
    "7618": "reason",
    "7619": "reason, ",
    "7620": "ican ",
    "7621": "Warhol",
    "7622": "ls of ",
    "7623": "utonic",
    "7624": "Histor",
    "7625": "acteri",
    "7626": "compu",
    "7627": "computer",
    "7628": "munitio",
    "7629": "embark",
    "7630": "embarked ",
    "7631": "pular that ",
    "7632": "WII",
    "7633": "subra",
    "7634": "subrack",
    "7635": "sailo",
    "7636": "sailors",
    "7637": " of the ",
    "7638": "wante",
    "7639": "wanted ",
    "7640": "dopti",
    "7641": "ranslated ",
    "7642": "ircra",
    "7643": "Water",
    "7644": "stasy",
    "7645": "kinetic",
    "7646": " bever",
    "7647": " beverage",
    "7648": "bought",
    "7649": "nature ",
    "7650": "nature of ",
    "7651": "s with",
    "7652": "ificant ",
    "7653": "increas",
    "7654": "element",
    "7655": "what ",
    "7656": "mbodia",
    "7657": "dment",
    "7658": "storical",
    "7659": "ator",
    "7660": "send ",
    "7661": "n rat",
    "7662": "Thoma",
    "7663": "Thomas ",
    "7664": "blood",
    "7665": "significantly",
    "7666": "fteen ",
    "7667": " cour",
    "7668": "belie",
    "7669": "caused ",
    "7670": "caused by ",
    "7671": "next",
    "7672": "rbing ",
    "7673": "Operat",
    "7674": "Operatio",
    "7675": "hildr",
    "7676": "yrian ",
    "7677": "rovince",
    "7678": "runs ",
    "7679": "after ",
    "7680": "Floy",
    "7681": "ficult",
    "7682": "mentio",
    "7683": "rather",
    "7684": "sing ",
    "7685": "ginning of ",
    "7686": "woma",
    "7687": "on sp",
    "7688": "on spher",
    "7689": "aop",
    "7690": "art of ",
    "7691": "coast",
    "7692": "coastal ",
    "7693": "gies",
    "7694": "9-18",
    "7695": "provision",
    "7696": "alsh ",
    "7697": "icated ",
    "7698": "force ",
    "7699": "undred",
    "7700": "tural ",
    "7701": "Pink",
    "7702": " season",
    "7703": " season, ",
    "7704": "Alexand",
    "7705": "Ocean",
    "7706": "ehav",
    "7707": "Hemin",
    "7708": "Heming",
    "7709": "Hemingway",
    "7710": "erval ",
    "7711": "half ",
    "7712": "llowing ",
    "7713": "uated ",
    "7714": "Oxford",
    "7715": "initio",
    "7716": "ourable",
    "7717": "erscal",
    "7718": "centage",
    "7719": "nie ",
    "7720": "tes (",
    "7721": "relative",
    "7722": "opping ",
    "7723": "allery",
    "7724": "iterat",
    "7725": "zbe",
    "7726": "meroon",
    "7727": "t out ",
    "7728": "title ",
    "7729": "Manhat",
    "7730": "Manhattan",
    "7731": "vanish",
    "7732": "vanished ",
    "7733": "select",
    "7734": "contin",
    "7735": "continue",
    "7736": "including ",
    "7737": "inues",
    "7738": "on of ",
    "7739": "lliance",
    "7740": "neapol",
    "7741": "lassified",
    "7742": "opted ",
    "7743": "entire",
    "7744": "uropean ",
    "7745": "particularl",
    "7746": "took ",
    "7747": "tirical",
    "7748": "ccording ",
    "7749": "ccording to ",
    "7750": "During",
    "7751": "mate ",
    "7752": "cknowled",
    "7753": "ashio",
    "7754": "ad S",
    "7755": "ad Sha",
    "7756": " often",
    "7757": " Presid",
    "7758": "Free ",
    "7759": "side ",
    "7760": "erpret",
    "7761": "erpretation",
    "7762": "ivitie",
    "7763": "council",
    "7764": "borne ",
    "7765": "y other",
    "7766": "fictio",
    "7767": "guese ",
    "7768": "Ireland",
    "7769": "avail",
    "7770": "availabl",
    "7771": "forming ",
    "7772": "ordina",
    "7773": "arts ",
    "7774": "eting ",
    "7775": "variety ",
    "7776": "impover",
    "7777": "impoverish",
    "7778": "rogress",
    "7779": "r being",
    "7780": "eat B",
    "7781": "eat Brit",
    "7782": "eat Britain",
    "7783": "Frei ",
    "7784": "vitati",
    "7785": "vitations",
    "7786": "nough",
    "7787": "cern",
    "7788": "inder ",
    "7789": "inder of ",
    "7790": "inian ",
    "7791": "won ",
    "7792": "ural ",
    "7793": "Balder",
    "7794": "age of ",
    "7795": "and of ",
    "7796": "league",
    "7797": "icularl",
    "7798": "slami",
    "7799": "him ",
    "7800": "olars ",
    "7801": "(born",
    "7802": "High",
    "7803": "temnes",
    "7804": "Helen",
    "7805": " founded ",
    "7806": "third",
    "7807": "it from ",
    "7808": "lfred ",
    "7809": "clare ",
    "7810": "married",
    "7811": "urning ",
    "7812": "wrote",
    "7813": "snia",
    "7814": "ort to ",
    "7815": "Trust",
    "7816": "ablished",
    "7817": "th cent",
    "7818": "th centur",
    "7819": "r td ",
    "7820": "t-align",
    "7821": "cher ",
    "7822": "plicatio",
    "7823": "speake",
    "7824": "speakers",
    "7825": "rible",
    "7826": "raph",
    "7827": "herited",
    "7828": "seen ",
    "7829": "onus ",
    "7830": "Caes",
    "7831": "largel",
    "7832": "ambi",
    "7833": "ees ",
    "7834": "y Da",
    "7835": "iang ",
    "7836": "rfu",
    "7837": "kinds ",
    "7838": "kinds of ",
    "7839": "Lahor",
    "7840": "wns ",
    "7841": "tune ",
    "7842": "icularly ",
    "7843": "deg",
    "7844": "iophil",
    "7845": "hims",
    "7846": "himself",
    "7847": "wered ",
    "7848": "trolled",
    "7849": "at least",
    "7850": "-Col",
    "7851": "dged ",
    "7852": "point",
    "7853": "ad of ",
    "7854": "tally",
    "7855": "mptom",
    "7856": " air",
    "7857": " airport",
    "7858": "estern",
    "7859": "orporat",
    "7860": "Lei",
    "7861": "ereste",
    "7862": "erested ",
    "7863": " per ",
    "7864": "sident",
    "7865": "alist ",
    "7866": "Mary's ",
    "7867": "ablish",
    "7868": "ablishment",
    "7869": "ting to ",
    "7870": "mer*",
    "7871": "agement",
    "7872": "eague ",
    "7873": " lev",
    "7874": "Peter",
    "7875": "offer ",
    "7876": " ' ) ",
    "7877": " ' ) (",
    "7878": "cella",
    "7879": "togeth",
    "7880": "perform",
    "7881": "roduction of ",
    "7882": "ervised",
    "7883": "signal ",
    "7884": "plates ",
    "7885": "sover",
    "7886": "sovereign",
    "7887": "mplest ",
    "7888": "nglish",
    "7889": "each ",
    "7890": " comm",
    "7891": " communit",
    "7892": "amily",
    "7893": "clusive ",
    "7894": "Fair",
    "7895": "signate",
    "7896": "iudad",
    "7897": "Spino",
    "7898": "Spinoza",
    "7899": "ure, ",
    "7900": "foreign",
    "7901": "arly ",
    "7902": "sharpl",
    "7903": "sharply ",
    "7904": "Michael",
    "7905": "is, ",
    "7906": "Ahm",
    "7907": "Ahmad "
  },
  "merges": {
    "71,66": 94,
    "94,60": 95,
    "95,64": 96,
    "77,64": 97,
    "97,60": 98,
    "98,78": 99,
    "78,64": 100,
    "100,71": 101,
    "101,65": 102,
    "64,60": 103,
    "103,62": 104,
    "104,79": 105,
    "73,78": 106,
    "106,1": 107,
    "60,73": 108,
    "108,68": 109,
    "109,64": 110,
    "110,78": 111,
    "65,68": 112,
    "112,73": 113,
    "113,68": 114,
    "33,1": 115,
    "115,12": 116,
    "73,71": 117,
    "117,84": 118,
    "71,84": 119,
    "119,68": 120,
    "120,73": 121,
    "121,66": 122,
    "75,60": 123,
    "78,78": 124,
    "124,80": 125,
    "125,77": 126,
    "61,64": 127,
    "127,77": 128,
    "128,79": 129,
    "73,60": 130,
    "130,77": 131,
    "131,63": 132,
    "68,79": 133,
    "133,80": 134,
    "134,79": 135,
    "64,63": 136,
    "136,68": 137,
    "73,64": 138,
    "138,77": 139,
    "64,83": 140,
    "140,60": 141,
    "71,71": 142,
    "142,64": 143,
    "143,84": 144,
    "67,80": 145,
    "145,78": 146,
    "71,60": 147,
    "147,79": 148,
    "64,80": 149,
    "149,63": 150,
    "82,60": 151,
    "151,77": 152,
    "152,64": 153,
    "79,71": 154,
    "154,64": 155,
    "155,1": 156,
    "80,71": 157,
    "157,71": 158,
    "68,65": 159,
    "159,74": 160,
    "160,77": 161,
    "161,73": 162,
    "159,68": 163,
    "66,77": 164,
    "164,64": 165,
    "165,64": 166,
    "77,63": 167,
    "63,60": 168,
    "168,77": 169,
    "78,79": 170,
    "170,68": 171,
    "171,81": 172,
    "48,79": 173,
    "17,1": 174,
    "174,12": 175,
    "40,68": 176,
    "176,73": 177,
    "177,66": 178,
    "178,63": 179,
    "179,74": 180,
    "77,77": 181,
    "181,60": 182,
    "182,84": 183,
    "77,74": 184,
    "184,74": 185,
    "185,72": 186,
    "68,62": 187,
    "187,67": 188,
    "67,60": 189,
    "189,77": 190,
    "16,5": 191,
    "71,70": 192,
    "84,85": 193,
    "193,60": 194,
    "194,73": 195,
    "62,74": 196,
    "196,79": 197,
    "80,75": 198,
    "198,64": 199,
    "199,77": 200,
    "64,71": 201,
    "1,79": 202,
    "202,74": 203,
    "75,77": 204,
    "204,64": 205,
    "205,79": 206,
    "67,74": 207,
    "207,77": 208,
    "208,63": 209,
    "30,38": 210,
    "210,42": 211,
    "207,74": 212,
    "212,71": 213,
    "66,84": 214,
    "214,75": 215,
    "215,79": 216,
    "65,80": 217,
    "112,77": 218,
    "218,72": 219,
    "82,79": 220,
    "220,67": 221,
    "75,74": 222,
    "222,77": 223,
    "62,60": 224,
    "224,78": 225,
    "72,61": 226,
    "226,74": 227,
    "227,71": 228,
    "8,11": 229,
    "229,1": 230,
    "75,68": 231,
    "231,71": 232,
    "232,74": 233,
    "97,73": 234,
    "234,60": 235,
    "133,67": 236,
    "236,64": 237,
    "112,64": 238,
    "238,71": 239,
    "239,63": 240,
    "8,3": 241,
    "60,71": 242,
    "242,71": 243,
    "243,84": 244,
    "244,1": 245,
    "1,60": 246,
    "246,73": 247,
    "247,63": 248,
    "68,66": 249,
    "249,74": 250,
    "68,77": 251,
    "251,79": 252,
    "252,67": 253,
    "73,74": 254,
    "254,82": 255,
    "255,73": 256,
    "64,77": 257,
    "257,64": 258,
    "258,72": 259,
    "184,63": 260,
    "260,80": 261,
    "261,62": 262,
    "30,1": 263,
    "71,64": 264,
    "264,82": 265,
    "78,74": 266,
    "266,77": 267,
    "60,78": 268,
    "268,1": 269,
    "77,80": 270,
    "270,78": 271,
    "271,79": 272,
    "1,61": 273,
    "273,77": 274,
    "127,1": 275,
    "74,73": 276,
    "276,66": 277,
    "277,74": 278,
    "268,64": 279,
    "279,63": 280,
    "74,74": 281,
    "281,71": 282,
    "226,64": 283,
    "283,77": 284,
    "15,15": 285,
    "285,15": 286,
    "64,72": 287,
    "287,60": 288,
    "61,61": 289,
    "289,84": 290,
    "80,66": 291,
    "291,1": 292,
    "68,78": 293,
    "293,78": 294,
    "294,60": 295,
    "295,73": 296,
    "296,62": 297,
    "297,64": 298,
    "68,71": 299,
    "299,74": 300,
    "300,78": 301,
    "301,74": 302,
    "71,68": 303,
    "303,75": 304,
    "103,79": 305,
    "75,67": 306,
    "306,64": 307,
    "307,82": 308,
    "187,64": 309,
    "309,73": 310,
    "74,71": 311,
    "78,68": 312,
    "312,74": 313,
    "313,73": 314,
    "79,77": 315,
    "315,74": 316,
    "74,79": 317,
    "317,1": 318,
    "64,61": 319,
    "319,60": 320,
    "41,1": 321,
    "77,72": 322,
    "73,61": 323,
    "62,79": 324,
    "324,68": 325,
    "325,62": 326,
    "66,60": 327,
    "327,72": 328,
    "24,5": 329,
    "251,63": 330,
    "330,1": 331,
    "69,80": 332,
    "332,78": 333,
    "333,79": 334,
    "44,63": 335,
    "335,84": 336,
    "336,78": 337,
    "124,74": 338,
    "338,62": 339,
    "339,68": 340,
    "340,60": 341,
    "42,60": 342,
    "342,62": 343,
    "60,65": 344,
    "344,79": 345,
    "345,64": 346,
    "64,79": 347,
    "347,84": 348,
    "348,71": 349,
    "79,84": 350,
    "350,75": 351,
    "77,71": 352,
    "352,84": 353,
    "249,67": 354,
    "127,73": 355,
    "355,62": 356,
    "356,67": 357,
    "68,73": 358,
    "358,1": 359,
    "151,78": 360,
    "360,1": 361,
    "79,74": 362,
    "362,72": 363,
    "66,63": 364,
    "364,60": 365,
    "365,71": 366,
    "37,64": 367,
    "367,1": 368,
    "77,60": 369,
    "369,66": 370,
    "64,1": 371,
    "371,79": 372,
    "372,74": 373,
    "80,77": 374,
    "374,62": 375,
    "31,74": 376,
    "207,63": 377,
    "32,74": 378,
    "7,61": 379,
    "379,13": 380,
    "380,1": 381,
    "73,63": 382,
    "382,60": 383,
    "383,73": 384,
    "85,68": 385,
    "201,61": 386,
    "77,62": 387,
    "387,67": 388,
    "358,64": 389,
    "389,63": 390,
    "71,74": 391,
    "391,82": 392,
    "392,73": 393,
    "75,79": 394,
    "394,68": 395,
    "312,79": 396,
    "74,75": 397,
    "397,71": 398,
    "67,84": 399,
    "399,75": 400,
    "72,60": 401,
    "226,71": 402,
    "40,60": 403,
    "74,72": 404,
    "404,61": 405,
    "405,68": 406,
    "406,60": 407,
    "22,5": 408,
    "68,61": 409,
    "409,61": 410,
    "49,44": 411,
    "61,71": 412,
    "412,68": 413,
    "391,79": 414,
    "61,74": 415,
    "415,80": 416,
    "416,79": 417,
    "317,61": 418,
    "418,60": 419,
    "322,60": 420,
    "420,71": 421,
    "1,27": 422,
    "422,1": 423,
    "391,77": 424,
    "424,63": 425,
    "83,1": 426,
    "71,80": 427,
    "427,63": 428,
    "428,64": 429,
    "321,61": 430,
    "430,77": 431,
    "74,80": 432,
    "432,73": 433,
    "433,79": 434,
    "60,81": 435,
    "435,64": 436,
    "436,77": 437,
    "60,66": 438,
    "438,64": 439,
    "68,60": 440,
    "440,79": 441,
    "268,74": 442,
    "442,73": 443,
    "404,60": 444,
    "98,63": 445,
    "445,84": 446,
    "11,25": 447,
    "332,77": 448,
    "187,71": 449,
    "449,64": 450,
    "61,68": 451,
    "451,71": 452,
    "452,68": 453,
    "38,79": 454,
    "454,1": 455,
    "74,82": 456,
    "456,64": 457,
    "457,81": 458,
    "458,64": 459,
    "80,73": 460,
    "460,68": 461,
    "461,79": 462,
    "224,75": 463,
    "463,64": 464,
    "464,63": 465,
    "224,66": 466,
    "466,74": 467,
    "159,84": 468,
    "37,74": 469,
    "469,82": 470,
    "470,64": 471,
    "471,81": 472,
    "472,64": 473,
    "33,68": 474,
    "474,66": 475,
    "475,68": 476,
    "81,64": 477,
    "477,72": 478,
    "478,61": 479,
    "479,64": 480,
    "312,66": 481,
    "481,73": 482,
    "68,74": 483,
    "483,77": 484,
    "22,1": 485,
    "62,62": 486,
    "486,74": 487,
    "60,77": 488,
    "488,75": 489,
    "489,71": 490,
    "490,64": 491,
    "18,8": 492,
    "358,73": 493,
    "493,68": 494,
    "494,73": 495,
    "495,66": 496,
    "66,80": 497,
    "497,78": 498,
    "498,79": 499,
    "257,84": 500,
    "500,1": 501,
    "100,77": 502,
    "257,73": 503,
    "79,67": 504,
    "504,80": 505,
    "505,77": 506,
    "324,74": 507,
    "507,77": 508,
    "65,84": 509,
    "63,63": 510,
    "510,64": 511,
    "46,80": 512,
    "60,79": 513,
    "513,68": 514,
    "514,78": 515,
    "515,65": 516,
    "64,81": 517,
    "517,64": 518,
    "518,77": 519,
    "141,73": 520,
    "520,63": 521,
    "60,63": 522,
    "522,64": 523,
    "523,77": 524,
    "71,1": 525,
    "236,72": 526,
    "63,77": 527,
    "488,79": 528,
    "528,64": 529,
    "264,83": 530,
    "37,1": 531,
    "531,12": 532,
    "13,1": 533,
    "79,60": 534,
    "534,66": 535,
    "79,64": 536,
    "536,78": 537,
    "9,50": 538,
    "538,73": 539,
    "539,68": 540,
    "540,81": 541,
    "541,64": 542,
    "542,77": 543,
    "61,60": 544,
    "544,61": 545,
    "22,8": 546,
    "546,9": 547,
    "451,78": 548,
    "548,62": 549,
    "549,80": 550,
    "32,60": 551,
    "83,60": 552,
    "552,73": 553,
    "553,63": 554,
    "78,62": 555,
    "555,67": 556,
    "347,67": 557,
    "324,80": 558,
    "558,77": 559,
    "504,72": 560,
    "83,75": 561,
    "561,71": 562,
    "401,77": 563,
    "77,68": 564,
    "3,40": 565,
    "79,8": 566,
    "207,80": 567,
    "567,66": 568,
    "568,67": 569,
    "77,79": 570,
    "47,64": 571,
    "142,74": 572,
    "72,75": 573,
    "573,74": 574,
    "574,78": 575,
    "74,62": 576,
    "576,60": 577,
    "577,80": 578,
    "578,78": 579,
    "579,79": 580,
    "68,72": 581,
    "581,75": 582,
    "582,74": 583,
    "68,76": 584,
    "584,80": 585,
    "147,78": 586,
    "586,78": 587,
    "75,64": 588,
    "588,73": 589,
    "73,62": 590,
    "590,67": 591,
    "70,77": 592,
    "592,60": 593,
    "60,85": 594,
    "594,68": 595,
    "595,73": 596,
    "596,64": 597,
    "79,68": 598,
    "598,77": 599,
    "599,64": 600,
    "157,79": 601,
    "51,60": 602,
    "602,71": 603,
    "603,71": 604,
    "77,61": 605,
    "435,84": 606,
    "270,68": 607,
    "607,78": 608,
    "67,64": 609,
    "609,77": 610,
    "49,64": 611,
    "611,78": 612,
    "612,78": 613,
    "147,84": 614,
    "397,79": 615,
    "62,71": 616,
    "616,80": 617,
    "617,63": 618,
    "60,84": 619,
    "619,78": 620,
    "488,84": 621,
    "621,1": 622,
    "123,61": 623,
    "623,71": 624,
    "624,64": 625,
    "299,68": 626,
    "276,63": 627,
    "8,13": 628,
    "82,73": 629,
    "629,1": 630,
    "222,73": 631,
    "64,68": 632,
    "632,73": 633,
    "633,85": 634,
    "573,71": 635,
    "635,64": 636,
    "65,79": 637,
    "637,64": 638,
    "263,32": 639,
    "287,78": 640,
    "640,1": 641,
    "84,60": 642,
    "642,73": 643,
    "201,60": 644,
    "358,68": 645,
    "645,74": 646,
    "646,73": 647,
    "39,64": 648,
    "648,78": 649,
    "649,80": 650,
    "42,1": 651,
    "651,12": 652,
    "133,79": 653,
    "653,64": 654,
    "358,60": 655,
    "655,71": 656,
    "71,65": 657,
    "657,74": 658,
    "658,73": 659,
    "80,68": 660,
    "660,71": 661,
    "84,72": 662,
    "74,77": 663,
    "663,75": 664,
    "664,74": 665,
    "130,67": 666,
    "666,74": 667,
    "536,62": 668,
    "668,79": 669,
    "460,62": 670,
    "64,27": 671,
    "60,68": 672,
    "672,72": 673,
    "72,68": 674,
    "674,60": 675,
    "675,71": 676,
    "45,68": 677,
    "677,71": 678,
    "678,74": 679,
    "679,79": 680,
    "358,74": 681,
    "81,68": 682,
    "682,64": 683,
    "683,79": 684,
    "23,1": 685,
    "685,3": 686,
    "305,80": 687,
    "687,77": 688,
    "293,68": 689,
    "616,64": 690,
    "690,78": 691,
    "691,68": 692,
    "12,36": 693,
    "74,81": 694,
    "694,68": 695,
    "695,64": 696,
    "64,62": 697,
    "697,70": 698,
    "31,64": 699,
    "699,73": 700,
    "700,62": 701,
    "701,67": 702,
    "534,77": 703,
    "672,68": 704,
    "32,41": 705,
    "401,79": 706,
    "287,75": 707,
    "108,73": 708,
    "708,74": 709,
    "73,66": 710,
    "710,64": 711,
    "71,61": 712,
    "712,80": 713,
    "713,72": 714,
    "73,68": 715,
    "715,78": 716,
    "30,80": 717,
    "717,79": 718,
    "718,74": 719,
    "84,71": 720,
    "720,64": 721,
    "42,12": 722,
    "170,77": 723,
    "723,74": 724,
    "1,30": 725,
    "19,79": 726,
    "726,67": 727,
    "45,1": 728,
    "728,61": 729,
    "729,77": 730,
    "60,61": 731,
    "731,64": 732,
    "732,79": 733,
    "147,82": 734,
    "69,64": 735,
    "735,62": 736,
    "242,77": 737,
    "737,84": 738,
    "376,80": 739,
    "739,77": 740,
    "159,64": 741,
    "276,68": 742,
    "663,63": 743,
    "60,75": 744,
    "744,60": 745,
    "108,66": 746,
    "746,64": 747,
    "747,71": 748,
    "391,66": 749,
    "303,72": 750,
    "378,77": 751,
    "751,75": 752,
    "752,74": 753,
    "753,77": 754,
    "754,60": 755,
    "68,63": 756,
    "756,64": 757,
    "757,73": 758,
    "72,74": 759,
    "759,79": 760,
    "251,78": 761,
    "123,77": 762,
    "264,60": 763,
    "63,78": 764,
    "369,79": 765,
    "75,80": 766,
    "766,78": 767,
    "64,12": 768,
    "28,9": 769,
    "63,1": 770,
    "770,73": 771,
    "771,74": 772,
    "772,79": 773,
    "34,68": 774,
    "774,78": 775,
    "775,64": 776,
    "776,73": 777,
    "130,73": 778,
    "246,77": 779,
    "779,79": 780,
    "374,68": 781,
    "781,73": 782,
    "72,64": 783,
    "783,1": 784,
    "70,64": 785,
    "76,80": 786,
    "786,64": 787,
    "54,74": 788,
    "788,77": 789,
    "789,70": 790,
    "73,79": 791,
    "791,77": 792,
    "792,84": 793,
    "231,64": 794,
    "794,62": 795,
    "795,64": 796,
    "354,79": 797,
    "80,62": 798,
    "31,77": 799,
    "62,80": 800,
    "800,79": 801,
    "258,73": 802,
    "802,62": 803,
    "327,73": 804,
    "75,75": 805,
    "805,74": 806,
    "78,84": 807,
    "807,62": 808,
    "808,67": 809,
    "510,71": 810,
    "30,68": 811,
    "811,77": 812,
    "537,1": 813,
    "62,84": 814,
    "814,79": 815,
    "74,65": 816,
    "816,1": 817,
    "536,63": 818,
    "33,38": 819,
    "819,51": 820,
    "820,1": 821,
    "785,63": 822,
    "254,74": 823,
    "823,73": 824,
    "231,77": 825,
    "27,1": 826,
    "80,64": 827,
    "827,1": 828,
    "138,78": 829,
    "829,78": 830,
    "48,74": 831,
    "831,73": 832,
    "832,66": 833,
    "15,1": 834,
    "834,12": 835,
    "835,1": 836,
    "189,81": 837,
    "138,60": 838,
    "756,1": 839,
    "45,74": 840,
    "840,82": 841,
    "841,64": 842,
    "20,1": 843,
    "843,12": 844,
    "63,73": 845,
    "327,79": 846,
    "791,60": 847,
    "322,68": 848,
    "63,13": 849,
    "79,79": 850,
    "850,75": 851,
    "9,16": 852,
    "852,24": 853,
    "534,81": 854,
    "311,74": 855,
    "28,1": 856,
    "276,60": 857,
    "857,71": 858,
    "80,63": 859,
    "63,76": 860,
    "860,80": 861,
    "861,74": 862,
    "67,73": 863,
    "69,74": 864,
    "864,77": 865,
    "249,68": 866,
    "866,74": 867,
    "78,75": 868,
    "868,68": 869,
    "869,79": 870,
    "43,50": 871,
    "871,1": 872,
    "300,79": 873,
    "63,80": 874,
    "874,78": 875,
    "875,79": 876,
    "66,71": 877,
    "877,60": 878,
    "201,71": 879,
    "78,80": 880,
    "71,79": 881,
    "881,80": 882,
    "882,77": 883,
    "62,67": 884,
    "884,80": 885,
    "885,77": 886,
    "886,62": 887,
    "887,67": 888,
    "66,64": 889,
    "889,77": 890,
    "64,78": 891,
    "891,64": 892,
    "77,73": 893,
    "893,60": 894,
    "196,77": 895,
    "895,63": 896,
    "97,78": 897,
    "897,68": 898,
    "898,63": 899,
    "798,71": 900,
    "133,71": 901,
    "783,73": 902,
    "902,78": 903,
    "581,74": 904,
    "904,73": 905,
    "65,12": 906,
    "672,71": 907,
    "84,64": 908,
    "908,60": 909,
    "909,77": 910,
    "100,83": 911,
    "534,67": 912,
    "19,1": 913,
    "13,9": 914,
    "82,64": 915,
    "915,67": 916,
    "657,12": 917,
    "266,62": 918,
    "918,68": 919,
    "919,60": 920,
    "293,79": 921,
    "921,74": 922,
    "149,72": 923,
    "317,60": 924,
    "924,71": 925,
    "79,82": 926,
    "926,74": 927,
    "927,77": 928,
    "60,80": 929,
    "929,77": 930,
    "930,60": 931,
    "38,45": 932,
    "64,64": 933,
    "933,73": 934,
    "791,64": 935,
    "935,73": 936,
    "936,79": 937,
    "488,78": 938,
    "65,74": 939,
    "706,68": 940,
    "837,68": 941,
    "941,74": 942,
    "850,74": 943,
    "943,72": 944,
    "590,84": 945,
    "68,64": 946,
    "946,71": 947,
    "947,63": 948,
    "60,72": 949,
    "949,64": 950,
    "950,73": 951,
    "586,70": 952,
    "226,68": 953,
    "64,73": 954,
    "954,64": 955,
    "61,66": 956,
    "956,62": 957,
    "957,74": 958,
    "82,74": 959,
    "369,73": 960,
    "960,78": 961,
    "281,79": 962,
    "962,61": 963,
    "963,60": 964,
    "831,81": 965,
    "965,68": 966,
    "966,64": 967,
    "967,79": 968,
    "189,78": 969,
    "969,1": 970,
    "682,77": 971,
    "971,74": 972,
    "564,66": 973,
    "973,68": 974,
    "974,73": 975,
    "598,64": 976,
    "902,79": 977,
    "404,74": 978,
    "488,62": 979,
    "979,67": 980,
    "312,62": 981,
    "196,73": 982,
    "982,74": 983,
    "983,72": 984,
    "880,71": 985,
    "1,14": 986,
    "986,79": 987,
    "488,68": 988,
    "77,66": 989,
    "989,74": 990,
    "77,1": 991,
    "991,74": 992,
    "992,65": 993,
    "993,1": 994,
    "74,63": 995,
    "995,74": 996,
    "996,73": 997,
    "404,64": 998,
    "998,73": 999,
    "85,64": 1000,
    "1000,1": 1001,
    "257,72": 1002,
    "1002,78": 1003,
    "535,64": 1004,
    "276,78": 1005,
    "1005,79": 1006,
    "65,77": 1007,
    "1007,74": 1008,
    "1008,61": 1009,
    "1009,64": 1010,
    "682,63": 1011,
    "1011,64": 1012,
    "1012,63": 1013,
    "237,77": 1014,
    "33,64": 1015,
    "1015,66": 1016,
    "1016,64": 1017,
    "1017,73": 1018,
    "65,64": 1019,
    "1019,78": 1020,
    "1020,78": 1021,
    "78,70": 1022,
    "21,1": 1023,
    "1023,12": 1024,
    "264,78": 1025,
    "1025,78": 1026,
    "598,71": 1027,
    "759,62": 1028,
    "1028,77": 1029,
    "270,75": 1030,
    "1030,79": 1031,
    "358,62": 1032,
    "1007,68": 1033,
    "1033,62": 1034,
    "1034,60": 1035,
    "68,85": 1036,
    "151,84": 1037,
    "31,84": 1038,
    "1038,64": 1039,
    "1039,77": 1040,
    "287,61": 1041,
    "68,75": 1042,
    "1042,71": 1043,
    "509,1": 1044,
    "130,79": 1045,
    "1045,68": 1046,
    "118,1": 1047,
    "1,15": 1048,
    "62,68": 1049,
    "1049,73": 1050,
    "1050,73": 1051,
    "181,74": 1052,
    "1052,82": 1053,
    "196,67": 1054,
    "1054,74": 1055,
    "1055,71": 1056,
    "66,78": 1057,
    "369,63": 1058,
    "85,60": 1059,
    "1059,61": 1060,
    "184,71": 1061,
    "1061,71": 1062,
    "884,60": 1063,
    "201,74": 1064,
    "1064,75": 1065,
    "106,79": 1066,
    "49,67": 1067,
    "1067,64": 1068,
    "1068,1": 1069,
    "67,77": 1070,
    "66,1": 1071,
    "488,70": 1072,
    "358,79": 1073,
    "756,60": 1074,
    "1074,71": 1075,
    "268,78": 1076,
    "485,12": 1077,
    "1077,1": 1078,
    "257,77": 1079,
    "1079,64": 1080,
    "103,78": 1081,
    "1049,71": 1082,
    "1082,71": 1083,
    "251,60": 1084,
    "1084,61": 1085,
    "1085,71": 1086,
    "81,60": 1087,
    "1087,73": 1088,
    "1088,73": 1089,
    "67,68": 1090,
    "1090,77": 1091,
    "1091,63": 1092,
    "60,62": 1093,
    "1093,79": 1094,
    "257,60": 1095,
    "1095,71": 1096,
    "874,62": 1097,
    "1097,64": 1098,
    "1098,1": 1099,
    "80,79": 1100,
    "1100,64": 1101,
    "1101,77": 1102,
    "108,75": 1103,
    "1103,74": 1104,
    "66,68": 1105,
    "1105,62": 1106,
    "874,60": 1107,
    "889,1": 1108,
    "1108,74": 1109,
    "1109,65": 1110,
    "1110,1": 1111,
    "534,68": 1112,
    "645,78": 1113,
    "397,75": 1114,
    "32,67": 1115,
    "1115,80": 1116,
    "1116,77": 1117,
    "1117,62": 1118,
    "1118,67": 1119,
    "149,77": 1120,
    "82,63": 1121,
    "731,78": 1122,
    "1122,74": 1123,
    "1123,71": 1124,
    "1124,80": 1125,
    "1125,79": 1126,
    "663,78": 1127,
    "1127,64": 1128,
    "147,77": 1129,
    "1129,64": 1130,
    "985,79": 1131,
    "513,1": 1132,
    "564,73": 1133,
    "79,65": 1134,
    "1134,74": 1135,
    "1005,64": 1136,
    "1136,77": 1137,
    "1137,81": 1138,
    "799,74": 1139,
    "1139,82": 1140,
    "1140,73": 1141,
    "224,73": 1142,
    "1142,1": 1143,
    "954,79": 1144,
    "1144,1": 1145,
    "303,81": 1146,
    "1146,64": 1147,
    "293,71": 1148,
    "1100,67": 1149,
    "137,60": 1150,
    "1150,79": 1151,
    "61,78": 1152,
    "1152,79": 1153,
    "1153,60": 1154,
    "1154,73": 1155,
    "9,9": 1156,
    "67,1": 1157,
    "908,77": 1158,
    "378,71": 1159,
    "1159,71": 1160,
    "1160,64": 1161,
    "1161,66": 1162,
    "432,78": 1163,
    "740,63": 1164,
    "84,68": 1165,
    "1165,73": 1166,
    "1166,66": 1167,
    "800,64": 1168,
    "1168,63": 1169,
    "564,60": 1170,
    "534,79": 1171,
    "1171,64": 1172,
    "1023,14": 1173,
    "1173,78": 1174,
    "2,12": 1175,
    "66,74": 1176,
    "1176,81": 1177,
    "1177,64": 1178,
    "1178,77": 1179,
    "1179,73": 1180,
    "127,64": 1181,
    "1181,73": 1182,
    "80,72": 1183,
    "1183,64": 1184,
    "954,1": 1185,
    "1019,62": 1186,
    "1186,79": 1187,
    "79,80": 1188,
    "1188,77": 1189,
    "1189,64": 1190,
    "342,71": 1191,
    "1191,64": 1192,
    "8,9": 1193,
    "14,74": 1194,
    "891,78": 1195,
    "697,68": 1196,
    "376,74": 1197,
    "1197,70": 1198,
    "138,63": 1199,
    "1199,1": 1200,
    "598,74": 1201,
    "84,1": 1202,
    "100,64": 1203,
    "1203,1": 1204,
    "84,78": 1205,
    "1205,79": 1206,
    "1206,64": 1207,
    "1207,72": 1208,
    "712,60": 1209,
    "1209,73": 1210,
    "710,71": 1211,
    "1211,64": 1212,
    "536,77": 1213,
    "1213,73": 1214,
    "80,78": 1215,
    "64,84": 1216,
    "1216,11": 1217,
    "1217,1": 1218,
    "504,64": 1219,
    "1219,71": 1220,
    "1220,64": 1221,
    "1221,78": 1222,
    "1222,78": 1223,
    "415,74": 1224,
    "1224,70": 1225,
    "590,79": 1226,
    "71,78": 1227,
    "1227,74": 1228,
    "1228,73": 1229,
    "534,71": 1230,
    "38,33": 1231,
    "73,80": 1232,
    "536,72": 1233,
    "1233,60": 1234,
    "374,77": 1235,
    "1235,64": 1236,
    "1236,73": 1237,
    "319,77": 1238,
    "1238,80": 1239,
    "1239,60": 1240,
    "1240,77": 1241,
    "127,71": 1242,
    "65,78": 1243,
    "1,51": 1244,
    "1244,38": 1245,
    "570,68": 1246,
    "504,74": 1247,
    "1247,80": 1248,
    "672,63": 1249,
    "201,84": 1250,
    "74,78": 1251,
    "1251,64": 1252,
    "30,13": 1253,
    "70,68": 1254,
    "1254,78": 1255,
    "372,67": 1256,
    "14,79": 1257,
    "49,74": 1258,
    "1258,77": 1259,
    "1259,74": 1260,
    "1260,73": 1261,
    "1261,79": 1262,
    "84,75": 1263,
    "1263,64": 1264,
    "13,48": 1265,
    "65,60": 1266,
    "1266,77": 1267,
    "1267,64": 1268,
    "97,62": 1269,
    "1269,79": 1270,
    "16,24": 1271,
    "868,77": 1272,
    "1272,64": 1273,
    "1273,60": 1274,
    "65,71": 1275,
    "1275,60": 1276,
    "1276,79": 1277,
    "9,30": 1278,
    "124,1": 1279,
    "77,70": 1280,
    "117,60": 1281,
    "1281,73": 1282,
    "1282,63": 1283,
    "154,60": 1284,
    "618,64": 1285,
    "251,62": 1286,
    "1215,64": 1287,
    "1287,1": 1288,
    "18,5": 1289,
    "369,77": 1290,
    "133,78": 1291,
    "74,1": 1292,
    "1292,73": 1293,
    "1293,74": 1294,
    "1294,79": 1295,
    "395,78": 1296,
    "66,73": 1297,
    "1297,68": 1298,
    "187,68": 1299,
    "685,12": 1300,
    "1300,1": 1301,
    "159,1": 1302,
    "1019,64": 1303,
    "1303,79": 1304,
    "49,33": 1305,
    "8,87": 1306,
    "761,79": 1307,
    "1046,74": 1308,
    "1308,73": 1309,
    "552,72": 1310,
    "1310,75": 1311,
    "1311,71": 1312,
    "103,77": 1313,
    "1313,62": 1314,
    "61,69": 1315,
    "1315,64": 1316,
    "1316,62": 1317,
    "1317,79": 1318,
    "332,72": 1319,
    "1319,75": 1320,
    "48,1": 1321,
    "590,64": 1322,
    "720,81": 1323,
    "1323,60": 1324,
    "1324,73": 1325,
    "13,64": 1326,
    "995,84": 1327,
    "1327,73": 1328,
    "1328,60": 1329,
    "1007,64": 1330,
    "1330,63": 1331,
    "798,79": 1332,
    "1332,80": 1333,
    "477,77": 1334,
    "1334,78": 1335,
    "1335,68": 1336,
    "1336,74": 1337,
    "1337,73": 1338,
    "1144,77": 1339,
    "66,72": 1340,
    "1340,60": 1341,
    "108,84": 1342,
    "201,64": 1343,
    "1343,62": 1344,
    "1344,79": 1345,
    "231,62": 1346,
    "1346,60": 1347,
    "1347,71": 1348,
    "62,64": 1349,
    "1349,72": 1350,
    "1350,61": 1351,
    "1351,64": 1352,
    "1352,77": 1353,
    "880,73": 1354,
    "1354,60": 1355,
    "645,73": 1356,
    "544,77": 1357,
    "884,74": 1358,
    "946,81": 1359,
    "204,68": 1360,
    "189,73": 1361,
    "1361,1": 1362,
    "174,14": 1363,
    "1363,78": 1364,
    "242,1": 1365,
    "303,64": 1366,
    "987,63": 1367,
    "1,34": 1368,
    "1368,77": 1369,
    "1369,60": 1370,
    "1370,78": 1371,
    "347,64": 1372,
    "187,60": 1373,
    "1058,74": 1374,
    "522,1": 1375,
    "147,72": 1376,
    "642,66": 1377,
    "1333,77": 1378,
    "103,66": 1379,
    "1379,80": 1380,
    "632,66": 1381,
    "1381,73": 1382,
    "64,66": 1383,
    "47,1": 1384,
    "1271,24": 1385,
    "456,71": 1386,
    "382,72": 1387,
    "1387,64": 1388,
    "461,81": 1389,
    "1389,64": 1390,
    "1390,77": 1391,
    "1391,78": 1392,
    "79,62": 1393,
    "1393,13": 1394,
    "36,77": 1395,
    "264,63": 1396,
    "731,71": 1397,
    "759,78": 1398,
    "1398,79": 1399,
    "24,8": 1400,
    "609,73": 1401,
    "1401,1": 1402,
    "77,27": 1403,
    "222,78": 1404,
    "83,68": 1405,
    "1405,63": 1406,
    "791,68": 1407,
    "1407,74": 1408,
    "1408,73": 1409,
    "61,77": 1410,
    "1410,60": 1411,
    "1411,68": 1412,
    "1412,73": 1413,
    "694,64": 1414,
    "1414,72": 1415,
    "1415,64": 1416,
    "1416,73": 1417,
    "63,68": 1418,
    "1418,62": 1419,
    "257,71": 1420,
    "954,62": 1421,
    "69,60": 1422,
    "1422,63": 1423,
    "82,77": 1424,
    "1424,68": 1425,
    "1425,79": 1426,
    "1049,60": 1427,
    "1427,71": 1428,
    "17,16": 1429,
    "38,1": 1430,
    "312,71": 1431,
    "1431,81": 1432,
    "1432,64": 1433,
    "1012,73": 1434,
    "130,68": 1435,
    "1435,78": 1436,
    "1436,78": 1437,
    "1437,60": 1438,
    "1438,73": 1439,
    "31,60": 1440,
    "1440,77": 1441,
    "1441,74": 1442,
    "1442,73": 1443,
    "43,35": 1444,
    "1444,41": 1445,
    "681,72": 1446,
    "1383,68": 1447,
    "1447,73": 1448,
    "78,67": 1449,
    "1449,68": 1450,
    "1450,75": 1451,
    "1133,62": 1452,
    "1248,66": 1453,
    "251,1": 1454,
    "325,74": 1455,
    "1455,73": 1456,
    "1422,72": 1457,
    "207,82": 1458,
    "181,64": 1459,
    "1459,62": 1460,
    "834,14": 1461,
    "1461,78": 1462,
    "1462,80": 1463,
    "364,74": 1464,
    "72,1": 1465,
    "1465,61": 1466,
    "1466,77": 1467,
    "66,62": 1468,
    "1468,74": 1469,
    "369,62": 1470,
    "1470,80": 1471,
    "1471,71": 1472,
    "63,84": 1473,
    "1473,1": 1474,
    "689,74": 1475,
    "1475,73": 1476,
    "147,66": 1477,
    "52,67": 1478,
    "1414,63": 1479,
    "254,79": 1480,
    "251,72": 1481,
    "1481,60": 1482,
    "1482,73": 1483,
    "20,79": 1484,
    "1484,67": 1485,
    "662,64": 1486,
    "1486,73": 1487,
    "63,64": 1488,
    "305,67": 1489,
    "124,68": 1490,
    "1490,71": 1491,
    "347,77": 1492,
    "929,78": 1493,
    "1493,79": 1494,
    "1349,79": 1495,
    "24,1": 1496,
    "1496,12": 1497,
    "1497,1": 1498,
    "30,72": 1499,
    "1499,64": 1500,
    "1500,77": 1501,
    "1501,68": 1502,
    "1090,62": 1503,
    "1503,71": 1504,
    "588,77": 1505,
    "1049,63": 1506,
    "34,83": 1507,
    "1507,79": 1508,
    "1508,64": 1509,
    "170,1": 1510,
    "1397,68": 1511,
    "23,8": 1512,
    "16,1": 1513,
    "1513,12": 1514,
    "1514,1": 1515,
    "34,80": 1516,
    "1516,77": 1517,
    "1517,74": 1518,
    "1518,75": 1519,
    "1519,64": 1520,
    "939,74": 1521,
    "1521,79": 1522,
    "1522,61": 1523,
    "1523,60": 1524,
    "800,71": 1525,
    "1525,60": 1526,
    "1526,77": 1527,
    "573,60": 1528,
    "1528,78": 1529,
    "1529,78": 1530,
    "66,66": 1531,
    "1531,64": 1532,
    "34,73": 1533,
    "1533,74": 1534,
    "387,64": 1535,
    "619,1": 1536,
    "249,77": 1537,
    "1537,60": 1538,
    "404,72": 1539,
    "662,73": 1540,
    "1540,60": 1541,
    "1215,78": 1542,
    "1542,68": 1543,
    "1543,60": 1544,
    "18,1": 1545,
    "1545,12": 1546,
    "590,68": 1547,
    "1547,75": 1548,
    "303,63": 1549,
    "68,81": 1550,
    "1550,60": 1551,
    "1551,71": 1552,
    "770,74": 1553,
    "1553,65": 1554,
    "1554,1": 1555,
    "80,74": 1556,
    "1556,80": 1557,
    "1557,78": 1558,
    "34,60": 1559,
    "1559,78": 1560,
    "1560,79": 1561,
    "397,80": 1562,
    "1562,71": 1563,
    "800,68": 1564,
    "1564,78": 1565,
    "187,80": 1566,
    "1566,71": 1567,
    "1567,79": 1568,
    "32,45": 1569,
    "1569,50": 1570,
    "77,84": 1571,
    "1571,71": 1572,
    "369,71": 1573,
    "1418,73": 1574,
    "1574,66": 1575,
    "21,8": 1576,
    "1410,1": 1577,
    "63,74": 1578,
    "1578,77": 1579,
    "1059,79": 1580,
    "21,79": 1581,
    "1581,67": 1582,
    "79,78": 1583,
    "1583,72": 1584,
    "6,79": 1585,
    "163,62": 1586,
    "1586,60": 1587,
    "1587,73": 1588,
    "1349,78": 1589,
    "140,80": 1590,
    "1590,60": 1591,
    "74,60": 1592,
    "1592,63": 1593,
    "48,64": 1594,
    "270,62": 1595,
    "1595,79": 1596,
    "32,42": 1597,
    "32,13": 1598,
    "759,77": 1599,
    "1599,75": 1600,
    "1600,67": 1601,
    "130,66": 1602,
    "1410,64": 1603,
    "1603,81": 1604,
    "317,74": 1605,
    "1605,75": 1606,
    "1349,1": 1607,
    "551,73": 1608,
    "1608,60": 1609,
    "1609,63": 1610,
    "1405,73": 1611,
    "1611,66": 1612,
    "960,63": 1613,
    "663,72": 1614,
    "1152,75": 1615,
    "432,77": 1616,
    "1616,60": 1617,
    "1617,66": 1618,
    "73,73": 1619,
    "1619,74": 1620,
    "64,74": 1621,
    "1621,77": 1622,
    "374,74": 1623,
    "79,61": 1624,
    "1624,60": 1625,
    "884,73": 1626,
    "291,67": 1627,
    "564,78": 1628,
    "226,77": 1629,
    "1629,1": 1630,
    "1449,64": 1631,
    "1631,1": 1632,
    "344,64": 1633,
    "576,80": 1634,
    "1634,72": 1635,
    "78,82": 1636,
    "1636,64": 1637,
    "1637,77": 1638,
    "78,61": 1639,
    "1639,60": 1640,
    "217,78": 1641,
    "1405,71": 1642,
    "1642,68": 1643,
    "1643,60": 1644,
    "159,80": 1645,
    "1645,71": 1646,
    "371,74": 1647,
    "1647,65": 1648,
    "1648,1": 1649,
    "44,79": 1650,
    "1650,79": 1651,
    "1651,74": 1652,
    "697,60": 1653,
    "1653,72": 1654,
    "1654,64": 1655,
    "147,73": 1656,
    "1656,63": 1657,
    "710,78": 1658,
    "159,65": 1659,
    "409,71": 1660,
    "287,64": 1661,
    "1661,73": 1662,
    "1349,73": 1663,
    "1663,79": 1664,
    "785,78": 1665,
    "1665,1": 1666,
    "130,72": 1667,
    "1667,64": 1668,
    "598,81": 1669,
    "45,60": 1670,
    "1670,71": 1671,
    "1671,64": 1672,
    "1672,78": 1673,
    "1673,79": 1674,
    "477,63": 1675,
    "1675,1": 1676,
    "544,79": 1677,
    "933,75": 1678,
    "157,64": 1679,
    "196,80": 1680,
    "921,77": 1681,
    "1681,68": 1682,
    "1682,61": 1683,
    "1683,80": 1684,
    "79,63": 1685,
    "80,60": 1686,
    "1686,79": 1687,
    "1313,68": 1688,
    "1688,73": 1689,
    "1689,66": 1690,
    "1505,60": 1691,
    "382,1": 1692,
    "1692,74": 1693,
    "1693,65": 1694,
    "1694,1": 1695,
    "70,60": 1696,
    "1696,73": 1697,
    "13,8": 1698,
    "1105,73": 1699,
    "1699,64": 1700,
    "77,81": 1701,
    "201,1": 1702,
    "358,66": 1703,
    "1703,1": 1704,
    "268,67": 1705,
    "1493,64": 1706,
    "238,63": 1707,
    "513,67": 1708,
    "1708,1": 1709,
    "204,74": 1710,
    "1710,81": 1711,
    "1711,68": 1712,
    "72,73": 1713,
    "1713,64": 1714,
    "1714,73": 1715,
    "257,79": 1716,
    "1716,60": 1717,
    "1717,68": 1718,
    "1718,73": 1719,
    "196,82": 1720,
    "1205,68": 1721,
    "1254,73": 1722,
    "303,79": 1723,
    "1723,68": 1724,
    "1724,62": 1725,
    "257,65": 1726,
    "1726,74": 1727,
    "1727,77": 1728,
    "184,80": 1729,
    "1729,75": 1730,
    "44,77": 1731,
    "1731,79": 1732,
    "1732,67": 1733,
    "1275,80": 1734,
    "1734,64": 1735,
    "1735,73": 1736,
    "570,67": 1737,
    "1737,64": 1738,
    "1738,77": 1739,
    "184,66": 1740,
    "1740,77": 1741,
    "53,35": 1742,
    "73,70": 1743,
    "39,1": 1744,
    "1744,12": 1745,
    "1176,71": 1746,
    "1746,63": 1747,
    "324,64": 1748,
    "353,1": 1749,
    "289,64": 1750,
    "1750,63": 1751,
    "74,68": 1752,
    "1752,79": 1753,
    "1032,64": 1754,
    "544,71": 1755,
    "1755,71": 1756,
    "12,46": 1757,
    "1757,60": 1758,
    "1758,64": 1759,
    "1759,63": 1760,
    "311,71": 1761,
    "1761,64": 1762,
    "1762,66": 1763,
    "66,67": 1764,
    "1764,60": 1765,
    "1765,72": 1766,
    "223,60": 1767,
    "81,74": 1768,
    "1768,71": 1769,
    "84,11": 1770,
    "1770,1": 1771,
    "181,68": 1772,
    "1772,64": 1773,
    "30,66": 1774,
    "327,77": 1775,
    "1775,63": 1776,
    "1184,73": 1777,
    "1777,79": 1778,
    "619,64": 1779,
    "1779,77": 1780,
    "358,80": 1781,
    "147,63": 1782,
    "1782,68": 1783,
    "1783,60": 1784,
    "1784,79": 1785,
    "1785,74": 1786,
    "1786,77": 1787,
    "100,63": 1788,
    "1764,79": 1789,
    "127,78": 1790,
    "64,65": 1791,
    "682,73": 1792,
    "276,84": 1793,
    "1793,72": 1794,
    "1414,77": 1795,
    "83,65": 1796,
    "1796,74": 1797,
    "1797,77": 1798,
    "440,71": 1799,
    "82,67": 1800,
    "1800,74": 1801,
    "170,64": 1802,
    "1802,72": 1803,
    "324,60": 1804,
    "1804,81": 1805,
    "1550,64": 1806,
    "1806,77": 1807,
    "387,68": 1808,
    "201,65": 1809,
    "844,1": 1810,
    "570,64": 1811,
    "1811,63": 1812,
    "504,60": 1813,
    "1813,73": 1814,
    "1814,1": 1815,
    "1280,64": 1816,
    "1280,60": 1817,
    "1817,73": 1818,
    "70,73": 1819,
    "1819,74": 1820,
    "1820,82": 1821,
    "1821,73": 1822,
    "39,60": 1823,
    "1823,75": 1824,
    "1824,60": 1825,
    "21,15": 1826,
    "1826,78": 1827,
    "1415,61": 1828,
    "1828,64": 1829,
    "394,74": 1830,
    "32,1": 1831,
    "1831,7": 1832,
    "51,38": 1833,
    "1833,38": 1834,
    "266,75": 1835,
    "327,68": 1836,
    "1836,73": 1837,
    "8,1": 1838,
    "715,79": 1839,
    "982,63": 1840,
    "35,13": 1841,
    "287,74": 1842,
    "1842,73": 1843,
    "401,71": 1844,
    "1844,71": 1845,
    "1623,75": 1846,
    "1846,64": 1847,
    "347,60": 1848,
    "1848,77": 1849,
    "868,60": 1850,
    "1850,75": 1851,
    "40,1": 1852,
    "1852,12": 1853,
    "915,77": 1854,
    "35,64": 1855,
    "1855,63": 1856,
    "1856,64": 1857,
    "1857,77": 1858,
    "108,80": 1859,
    "1859,60": 1860,
    "75,71": 1861,
    "1861,64": 1862,
    "488,66": 1863,
    "868,74": 1864,
    "1864,73": 1865,
    "960,62": 1866,
    "404,73": 1867,
    "1867,64": 1868,
    "1868,73": 1869,
    "674,73": 1870,
    "891,68": 1871,
    "73,67": 1872,
    "1872,60": 1873,
    "1873,77": 1874,
    "1874,63": 1875,
    "756,68": 1876,
    "14,78": 1877,
    "1877,80": 1878,
    "299,63": 1879,
    "15,11": 1880,
    "1880,1": 1881,
    "143,63": 1882,
    "149,75": 1883,
    "112,78": 1884,
    "1884,67": 1885,
    "315,68": 1886,
    "31,80": 1887,
    "1887,77": 1888,
    "1888,66": 1889,
    "1488,65": 1890,
    "1890,64": 1891,
    "1891,73": 1892,
    "959,77": 1893,
    "889,73": 1894,
    "1894,64": 1895,
    "1895,77": 1896,
    "1896,60": 1897,
    "1036,64": 1898,
    "168,72": 1899,
    "169,63": 1900,
    "483,80": 1901,
    "1901,78": 1902,
    "762,64": 1903,
    "1410,80": 1904,
    "745,73": 1905,
    "404,68": 1906,
    "1393,67": 1907,
    "605,68": 1908,
    "1908,60": 1909,
    "1619,68": 1910,
    "1910,73": 1911,
    "1911,66": 1912,
    "1488,60": 1913,
    "1913,79": 1914,
    "1914,67": 1915,
    "497,73": 1916,
    "369,84": 1917,
    "570,60": 1918,
    "1918,68": 1919,
    "1919,73": 1920,
    "715,74": 1921,
    "1921,73": 1922,
    "257,62": 1923,
    "311,60": 1924,
    "142,84": 1925,
    "785,64": 1926,
    "1926,75": 1927,
    "74,84": 1928,
    "299,84": 1929,
    "116,1": 1930,
    "50,73": 1931,
    "1931,68": 1932,
    "1932,81": 1933,
    "1933,64": 1934,
    "1934,77": 1935,
    "1935,78": 1936,
    "1159,80": 1937,
    "1937,72": 1938,
    "11,1": 1939,
    "1364,80": 1940,
    "1871,66": 1941,
    "1941,73": 1942,
    "483,63": 1943,
    "1898,1": 1944,
    "97,71": 1945,
    "1945,60": 1946,
    "1383,74": 1947,
    "536,1": 1948,
    "731,68": 1949,
    "1949,73": 1950,
    "23,11": 1951,
    "1951,1": 1952,
    "1215,1": 1953,
    "1213,60": 1954,
    "41,74": 1955,
    "564,62": 1956,
    "1956,79": 1957,
    "168,84": 1958,
    "1112,73": 1959,
    "868,64": 1960,
    "1960,62": 1961,
    "1961,68": 1962,
    "1406,64": 1963,
    "1802,77": 1964,
    "955,85": 1965,
    "1965,80": 1966,
    "435,60": 1967,
    "1967,79": 1968,
    "988,74": 1969,
    "1969,80": 1970,
    "1970,78": 1971,
    "385,71": 1972,
    "497,68": 1973,
    "1973,78": 1974,
    "1974,67": 1975,
    "1081,60": 1976,
    "1976,73": 1977,
    "1977,79": 1978,
    "581,60": 1979,
    "1979,79": 1980,
    "97,63": 1981,
    "383,77": 1982,
    "1982,63": 1983,
    "1533,66": 1984,
    "1984,71": 1985,
    "798,67": 1986,
    "1986,1": 1987,
    "1987,60": 1988,
    "1988,78": 1989,
    "242,64": 1990,
    "1990,78": 1991,
    "1991,79": 1992,
    "138,72": 1993,
    "1993,60": 1994,
    "74,70": 1995,
    "1995,64": 1996,
    "1844,64": 1997,
    "303,62": 1998,
    "1998,79": 1999,
    "1246,62": 2000,
    "2000,71": 2001,
    "2001,64": 2002,
    "119,78": 2003,
    "2003,68": 2004,
    "2004,78": 2005,
    "1528,73": 2006,
    "1105,74": 2007,
    "2007,73": 2008,
    "31,32": 2009,
    "15,8": 2010,
    "2010,9": 2011,
    "189,79": 2012,
    "17,15": 2013,
    "2013,15": 2014,
    "1904,60": 2015,
    "2015,77": 2016,
    "1861,60": 2017,
    "322,84": 2018,
    "276,64": 2019,
    "2019,1": 2020,
    "69,68": 2021,
    "2021,79": 2022,
    "18,15": 2023,
    "2023,15": 2024,
    "474,64": 2025,
    "2025,66": 2026,
    "2026,74": 2027,
    "1133,66": 2028,
    "609,72": 2029,
    "2029,64": 2030,
    "164,60": 2031,
    "1421,67": 2032,
    "588,62": 2033,
    "2033,68": 2034,
    "257,78": 2035,
    "583,77": 2036,
    "2036,79": 2037,
    "83,79": 2038,
    "800,77": 2039,
    "189,72": 2040,
    "2040,75": 2041,
    "47,80": 2042,
    "2042,78": 2043,
    "2043,78": 2044,
    "1701,68": 2045,
    "2045,62": 2046,
    "2046,64": 2047,
    "1216,77": 2048,
    "1686,71": 2049,
    "1,62": 2050,
    "2050,64": 2051,
[...]
